{
  "version": "1.0",
  "truncation": null,
  "padding": null,
  "added_tokens": [
    {
      "id": 0,
      "content": "[UNK]",
      "single_word": false,
      "lstrip": false,
      "rstrip": false,
      "normalized": false,
      "special": true
    },
    {
      "id": 1,
      "content": "[CLS]",
      "single_word": false,
      "lstrip": false,
      "rstrip": false,
      "normalized": false,
      "special": true
    },
    {
      "id": 2,
      "content": "[SEP]",
      "single_word": false,
      "lstrip": false,
      "rstrip": false,
      "normalized": false,
      "special": true
    },
    {
      "id": 3,
      "content": "[PAD]",
      "single_word": false,
      "lstrip": false,
      "rstrip": false,
      "normalized": false,
      "special": true
    },
    {
      "id": 4,
      "content": "[MASK]",
      "single_word": false,
      "lstrip": false,
      "rstrip": false,
      "normalized": false,
      "special": true
    },
    {
      "id": 5,
      "content": "<s>",
      "single_word": false,
      "lstrip": false,
      "rstrip": false,
      "normalized": false,
      "special": true
    },
    {
      "id": 6,
      "content": "</s>",
      "single_word": false,
      "lstrip": false,
      "rstrip": false,
      "normalized": false,
      "special": true
    }
  ],
  "normalizer": {
    "type": "NFKC"
  },
  "pre_tokenizer": {
    "type": "Sequence",
    "pretokenizers": [
      {
        "type": "Whitespace"
      },
      {
        "type": "Punctuation",
        "behavior": "Isolated"
      },
      {
        "type": "Digits",
        "individual_digits": true
      }
    ]
  },
  "post_processor": null,
  "decoder": null,
  "model": {
    "type": "WordPiece",
    "unk_token": "[UNK]",
    "continuing_subword_prefix": "##",
    "max_input_chars_per_word": 100,
    "vocab": {
      "[UNK]": 0,
      "[CLS]": 1,
      "[SEP]": 2,
      "[PAD]": 3,
      "[MASK]": 4,
      "<s>": 5,
      "</s>": 6,
      "\u0004": 7,
      "\b": 8,
      "!": 9,
      "\"": 10,
      "#": 11,
      "$": 12,
      "%": 13,
      "&": 14,
      "'": 15,
      "(": 16,
      ")": 17,
      "*": 18,
      "+": 19,
      ",": 20,
      "-": 21,
      ".": 22,
      "/": 23,
      "0": 24,
      "1": 25,
      "2": 26,
      "3": 27,
      "4": 28,
      "5": 29,
      "6": 30,
      "7": 31,
      "8": 32,
      "9": 33,
      ":": 34,
      ";": 35,
      "<": 36,
      "=": 37,
      ">": 38,
      "?": 39,
      "@": 40,
      "A": 41,
      "B": 42,
      "C": 43,
      "D": 44,
      "E": 45,
      "F": 46,
      "G": 47,
      "H": 48,
      "I": 49,
      "J": 50,
      "K": 51,
      "L": 52,
      "M": 53,
      "N": 54,
      "O": 55,
      "P": 56,
      "Q": 57,
      "R": 58,
      "S": 59,
      "T": 60,
      "U": 61,
      "V": 62,
      "W": 63,
      "X": 64,
      "Y": 65,
      "Z": 66,
      "[": 67,
      "\\": 68,
      "]": 69,
      "^": 70,
      "_": 71,
      "`": 72,
      "a": 73,
      "b": 74,
      "c": 75,
      "d": 76,
      "e": 77,
      "f": 78,
      "g": 79,
      "h": 80,
      "i": 81,
      "j": 82,
      "k": 83,
      "l": 84,
      "m": 85,
      "n": 86,
      "o": 87,
      "p": 88,
      "q": 89,
      "r": 90,
      "s": 91,
      "t": 92,
      "u": 93,
      "v": 94,
      "w": 95,
      "x": 96,
      "y": 97,
      "z": 98,
      "|": 99,
      "}": 100,
      "~": 101,
      "": 102,
      "": 103,
      "¡": 104,
      "¢": 105,
      "£": 106,
      "¥": 107,
      "§": 108,
      "°": 109,
      "±": 110,
      "·": 111,
      "¿": 112,
      "Á": 113,
      "Ä": 114,
      "Å": 115,
      "Æ": 116,
      "Ç": 117,
      "É": 118,
      "Í": 119,
      "Î": 120,
      "Ñ": 121,
      "Ó": 122,
      "Ö": 123,
      "×": 124,
      "Ø": 125,
      "Ú": 126,
      "Ü": 127,
      "Þ": 128,
      "ß": 129,
      "à": 130,
      "á": 131,
      "â": 132,
      "ã": 133,
      "ä": 134,
      "å": 135,
      "æ": 136,
      "ç": 137,
      "è": 138,
      "é": 139,
      "ê": 140,
      "ë": 141,
      "ì": 142,
      "í": 143,
      "î": 144,
      "ï": 145,
      "ð": 146,
      "ñ": 147,
      "ò": 148,
      "ó": 149,
      "ô": 150,
      "ö": 151,
      "ø": 152,
      "ù": 153,
      "ú": 154,
      "û": 155,
      "ü": 156,
      "ý": 157,
      "þ": 158,
      "Ā": 159,
      "ā": 160,
      "ă": 161,
      "ą": 162,
      "ć": 163,
      "Č": 164,
      "č": 165,
      "Đ": 166,
      "đ": 167,
      "Ē": 168,
      "ē": 169,
      "Ĕ": 170,
      "ĕ": 171,
      "ė": 172,
      "ę": 173,
      "ğ": 174,
      "ħ": 175,
      "ī": 176,
      "İ": 177,
      "ı": 178,
      "Ľ": 179,
      "Ł": 180,
      "ł": 181,
      "ń": 182,
      "Ō": 183,
      "ō": 184,
      "œ": 185,
      "ř": 186,
      "Ś": 187,
      "ś": 188,
      "Ş": 189,
      "ş": 190,
      "Š": 191,
      "š": 192,
      "ţ": 193,
      "ũ": 194,
      "ū": 195,
      "ů": 196,
      "ų": 197,
      "ź": 198,
      "Ż": 199,
      "ż": 200,
      "Ž": 201,
      "ž": 202,
      "ơ": 203,
      "ư": 204,
      "ǎ": 205,
      "ǔ": 206,
      "Ș": 207,
      "ș": 208,
      "ț": 209,
      "ȯ": 210,
      "ɐ": 211,
      "ɑ": 212,
      "ɒ": 213,
      "ɔ": 214,
      "ə": 215,
      "ɛ": 216,
      "ɜ": 217,
      "ɡ": 218,
      "ɢ": 219,
      "ɪ": 220,
      "ɫ": 221,
      "ɬ": 222,
      "ɳ": 223,
      "ɽ": 224,
      "ɾ": 225,
      "ʁ": 226,
      "ʃ": 227,
      "ʊ": 228,
      "ʋ": 229,
      "ʒ": 230,
      "ʔ": 231,
      "ʕ": 232,
      "ʻ": 233,
      "ʼ": 234,
      "ʾ": 235,
      "ʿ": 236,
      "ˈ": 237,
      "ˌ": 238,
      "ː": 239,
      "˳": 240,
      "́": 241,
      "̃": 242,
      "̋": 243,
      "̍": 244,
      "̤": 245,
      "̥": 246,
      "̯": 247,
      "͍": 248,
      "Α": 249,
      "Δ": 250,
      "Κ": 251,
      "Ν": 252,
      "Π": 253,
      "Τ": 254,
      "Φ": 255,
      "Χ": 256,
      "Ω": 257,
      "ά": 258,
      "έ": 259,
      "ή": 260,
      "ί": 261,
      "α": 262,
      "β": 263,
      "γ": 264,
      "δ": 265,
      "ε": 266,
      "η": 267,
      "θ": 268,
      "ι": 269,
      "κ": 270,
      "λ": 271,
      "μ": 272,
      "ν": 273,
      "ξ": 274,
      "ο": 275,
      "π": 276,
      "ρ": 277,
      "ς": 278,
      "σ": 279,
      "τ": 280,
      "υ": 281,
      "χ": 282,
      "ψ": 283,
      "ω": 284,
      "ό": 285,
      "ύ": 286,
      "ώ": 287,
      "А": 288,
      "Б": 289,
      "В": 290,
      "Г": 291,
      "И": 292,
      "К": 293,
      "Л": 294,
      "П": 295,
      "Р": 296,
      "С": 297,
      "Т": 298,
      "У": 299,
      "Х": 300,
      "Э": 301,
      "Я": 302,
      "а": 303,
      "б": 304,
      "в": 305,
      "г": 306,
      "д": 307,
      "е": 308,
      "ж": 309,
      "з": 310,
      "и": 311,
      "й": 312,
      "к": 313,
      "л": 314,
      "м": 315,
      "н": 316,
      "о": 317,
      "п": 318,
      "р": 319,
      "с": 320,
      "т": 321,
      "у": 322,
      "х": 323,
      "ц": 324,
      "ч": 325,
      "ш": 326,
      "щ": 327,
      "ъ": 328,
      "ы": 329,
      "ь": 330,
      "ю": 331,
      "я": 332,
      "є": 333,
      "ֵ": 334,
      "ֶ": 335,
      "ָ": 336,
      "ֹ": 337,
      "ּ": 338,
      "א": 339,
      "ב": 340,
      "ג": 341,
      "ד": 342,
      "ה": 343,
      "ו": 344,
      "ז": 345,
      "ח": 346,
      "י": 347,
      "ל": 348,
      "ם": 349,
      "מ": 350,
      "ן": 351,
      "נ": 352,
      "ס": 353,
      "ף": 354,
      "פ": 355,
      "צ": 356,
      "ר": 357,
      "ש": 358,
      "ת": 359,
      "؁": 360,
      "؂": 361,
      "،": 362,
      "؍": 363,
      "؎": 364,
      "؏": 365,
      "ؐ": 366,
      "ؑ": 367,
      "ؒ": 368,
      "ؓ": 369,
      "ؔ": 370,
      "ؕ": 371,
      "؛": 372,
      "؟": 373,
      "ء": 374,
      "آ": 375,
      "أ": 376,
      "ؤ": 377,
      "إ": 378,
      "ئ": 379,
      "ا": 380,
      "ب": 381,
      "ة": 382,
      "ت": 383,
      "ث": 384,
      "ج": 385,
      "ح": 386,
      "خ": 387,
      "د": 388,
      "ذ": 389,
      "ر": 390,
      "ز": 391,
      "س": 392,
      "ش": 393,
      "ص": 394,
      "ض": 395,
      "ط": 396,
      "ظ": 397,
      "ع": 398,
      "غ": 399,
      "ـ": 400,
      "ف": 401,
      "ق": 402,
      "ك": 403,
      "ل": 404,
      "م": 405,
      "ن": 406,
      "ه": 407,
      "و": 408,
      "ى": 409,
      "ي": 410,
      "ً": 411,
      "ٌ": 412,
      "ٍ": 413,
      "َ": 414,
      "ُ": 415,
      "ِ": 416,
      "ّ": 417,
      "ْ": 418,
      "ٓ": 419,
      "ٔ": 420,
      "ٕ": 421,
      "ٖ": 422,
      "ٗ": 423,
      "٘": 424,
      "ٙ": 425,
      "ٚ": 426,
      "ٛ": 427,
      "ٝ": 428,
      "٠": 429,
      "١": 430,
      "٢": 431,
      "٣": 432,
      "٤": 433,
      "٥": 434,
      "٦": 435,
      "٧": 436,
      "٨": 437,
      "٩": 438,
      "٪": 439,
      "٫": 440,
      "٬": 441,
      "٭": 442,
      "ٰ": 443,
      "ٱ": 444,
      "ٲ": 445,
      "ٳ": 446,
      "ٴ": 447,
      "ٹ": 448,
      "ٻ": 449,
      "ټ": 450,
      "ٽ": 451,
      "پ": 452,
      "ٿ": 453,
      "ڀ": 454,
      "ځ": 455,
      "ڃ": 456,
      "ڄ": 457,
      "څ": 458,
      "چ": 459,
      "ڇ": 460,
      "ڈ": 461,
      "ډ": 462,
      "ڊ": 463,
      "ڋ": 464,
      "ڌ": 465,
      "ڍ": 466,
      "ڏ": 467,
      "ڑ": 468,
      "ړ": 469,
      "ڕ": 470,
      "ږ": 471,
      "ڗ": 472,
      "ژ": 473,
      "ڙ": 474,
      "ښ": 475,
      "ڥ": 476,
      "ک": 477,
      "ڪ": 478,
      "ګ": 479,
      "گ": 480,
      "ڰ": 481,
      "ڱ": 482,
      "ڳ": 483,
      "ڷ": 484,
      "ں": 485,
      "ڻ": 486,
      "ھ": 487,
      "ۀ": 488,
      "ہ": 489,
      "ۂ": 490,
      "ۃ": 491,
      "ۆ": 492,
      "ۉ": 493,
      "ی": 494,
      "ۍ": 495,
      "ێ": 496,
      "ۏ": 497,
      "ې": 498,
      "ے": 499,
      "ۓ": 500,
      "۔": 501,
      "ۖ": 502,
      "ۗ": 503,
      "ۘ": 504,
      "ۙ": 505,
      "ۚ": 506,
      "ۛ": 507,
      "۝": 508,
      "۞": 509,
      "۟": 510,
      "۠": 511,
      "ۡ": 512,
      "ۤ": 513,
      "۩": 514,
      "۪": 515,
      "۫": 516,
      "ۯ": 517,
      "۰": 518,
      "۱": 519,
      "۲": 520,
      "۳": 521,
      "۴": 522,
      "۵": 523,
      "۶": 524,
      "۷": 525,
      "۸": 526,
      "۹": 527,
      "۽": 528,
      "۾": 529,
      "ܐ": 530,
      "ܕ": 531,
      "ܗ": 532,
      "ܝ": 533,
      "ܠ": 534,
      "ܢ": 535,
      "ܬ": 536,
      "ܲ": 537,
      "ܵ": 538,
      "ݔ": 539,
      "ހ": 540,
      "ނ": 541,
      "ވ": 542,
      "ދ": 543,
      "ި": 544,
      "ް": 545,
      "ࢨ": 546,
      "ࣿ": 547,
      "ं": 548,
      "अ": 549,
      "ई": 550,
      "क": 551,
      "ग": 552,
      "ण": 553,
      "त": 554,
      "द": 555,
      "न": 556,
      "प": 557,
      "ब": 558,
      "भ": 559,
      "म": 560,
      "य": 561,
      "र": 562,
      "ल": 563,
      "व": 564,
      "स": 565,
      "ह": 566,
      "ा": 567,
      "ि": 568,
      "ी": 569,
      "ु": 570,
      "ू": 571,
      "े": 572,
      "ै": 573,
      "्": 574,
      "আ": 575,
      "ঝ": 576,
      "ত": 577,
      "প": 578,
      "ল": 579,
      "হ": 580,
      "া": 581,
      "্": 582,
      "ਅ": 583,
      "ਲ": 584,
      "ਹ": 585,
      "ਾ": 586,
      "ੁ": 587,
      "ੱ": 588,
      "അ": 589,
      "ള": 590,
      "ഹ": 591,
      "ാ": 592,
      "്": 593,
      "ก": 594,
      "ค": 595,
      "ง": 596,
      "ช": 597,
      "ซ": 598,
      "ญ": 599,
      "ฐ": 600,
      "ณ": 601,
      "ด": 602,
      "ต": 603,
      "น": 604,
      "บ": 605,
      "ป": 606,
      "พ": 607,
      "ภ": 608,
      "ม": 609,
      "ย": 610,
      "ร": 611,
      "ล": 612,
      "ว": 613,
      "ศ": 614,
      "ษ": 615,
      "ส": 616,
      "ห": 617,
      "อ": 618,
      "ฮ": 619,
      "ะ": 620,
      "ั": 621,
      "า": 622,
      "ิ": 623,
      "ี": 624,
      "ึ": 625,
      "เ": 626,
      "แ": 627,
      "ไ": 628,
      "็": 629,
      "่": 630,
      "้": 631,
      "๊": 632,
      "์": 633,
      "Ⴀ": 634,
      "Ⴂ": 635,
      "Ⴃ": 636,
      "Ⴈ": 637,
      "Ⴌ": 638,
      "Ⴕ": 639,
      "Ⴟ": 640,
      "ა": 641,
      "ბ": 642,
      "გ": 643,
      "დ": 644,
      "ე": 645,
      "ვ": 646,
      "ზ": 647,
      "თ": 648,
      "ი": 649,
      "კ": 650,
      "ლ": 651,
      "მ": 652,
      "ნ": 653,
      "ო": 654,
      "პ": 655,
      "ჟ": 656,
      "რ": 657,
      "ს": 658,
      "ტ": 659,
      "უ": 660,
      "ფ": 661,
      "ქ": 662,
      "ღ": 663,
      "ყ": 664,
      "შ": 665,
      "ჩ": 666,
      "ც": 667,
      "ძ": 668,
      "წ": 669,
      "ჭ": 670,
      "ხ": 671,
      "ჯ": 672,
      "ჰ": 673,
      "ჱ": 674,
      "ჲ": 675,
      "ჳ": 676,
      "ჴ": 677,
      "ჵ": 678,
      "ჶ": 679,
      "ჷ": 680,
      "ჸ": 681,
      "ჹ": 682,
      "ჺ": 683,
      "჻": 684,
      "ᵻ": 685,
      "ḍ": 686,
      "ḏ": 687,
      "Ḥ": 688,
      "ḥ": 689,
      "ḷ": 690,
      "ṃ": 691,
      "ṅ": 692,
      "ṇ": 693,
      "ṛ": 694,
      "ṣ": 695,
      "ṭ": 696,
      "ṯ": 697,
      "ạ": 698,
      "ả": 699,
      "ấ": 700,
      "ầ": 701,
      "ậ": 702,
      "ắ": 703,
      "ễ": 704,
      "ệ": 705,
      "ị": 706,
      "ọ": 707,
      "ỏ": 708,
      "ỗ": 709,
      "ộ": 710,
      "ớ": 711,
      "ứ": 712,
      "ử": 713,
      "ữ": 714,
      "ỳ": 715,
      "ỹ": 716,
      "ἀ": 717,
      "ἰ": 718,
      "ὀ": 719,
      "ὁ": 720,
      "ὑ": 721,
      "​": 722,
      "‌": 723,
      "‍": 724,
      "‎": 725,
      "‏": 726,
      "‐": 727,
      "–": 728,
      "—": 729,
      "―": 730,
      "‘": 731,
      "’": 732,
      "“": 733,
      "”": 734,
      "„": 735,
      "†": 736,
      "‡": 737,
      "•": 738,
      "‪": 739,
      "‫": 740,
      "‬": 741,
      "′": 742,
      "‹": 743,
      "›": 744,
      "※": 745,
      "⁄": 746,
      "⁠": 747,
      "⁦": 748,
      "⁨": 749,
      "⁩": 750,
      "₣": 751,
      "₤": 752,
      "€": 753,
      "₹": 754,
      "⃣": 755,
      "↑": 756,
      "→": 757,
      "↔": 758,
      "↘": 759,
      "↪": 760,
      "⇦": 761,
      "⇨": 762,
      "⇩": 763,
      "∆": 764,
      "−": 765,
      "∗": 766,
      "√": 767,
      "∴": 768,
      "∵": 769,
      "≈": 770,
      "≡": 771,
      "≤": 772,
      "≥": 773,
      "⏪": 774,
      "⏰": 775,
      "⏲": 776,
      "⏳": 777,
      "⏺": 778,
      "─": 779,
      "█": 780,
      "▓": 781,
      "■": 782,
      "▪": 783,
      "▫": 784,
      "▶": 785,
      "◀": 786,
      "◄": 787,
      "○": 788,
      "●": 789,
      "◻": 790,
      "◼": 791,
      "◽": 792,
      "◾": 793,
      "☀": 794,
      "☄": 795,
      "★": 796,
      "☆": 797,
      "☉": 798,
      "☘": 799,
      "☜": 800,
      "☝": 801,
      "☫": 802,
      "♀": 803,
      "♂": 804,
      "♡": 805,
      "♢": 806,
      "♣": 807,
      "♥": 808,
      "♦": 809,
      "♨": 810,
      "♭": 811,
      "♯": 812,
      "♻": 813,
      "⚓": 814,
      "⚔": 815,
      "⚛": 816,
      "⚠": 817,
      "⚡": 818,
      "⚫": 819,
      "⚳": 820,
      "⛅": 821,
      "⛈": 822,
      "⛔": 823,
      "⛰": 824,
      "⛲": 825,
      "✄": 826,
      "✅": 827,
      "✋": 828,
      "✌": 829,
      "✍": 830,
      "✎": 831,
      "✏": 832,
      "✒": 833,
      "✓": 834,
      "✔": 835,
      "✘": 836,
      "✨": 837,
      "✳": 838,
      "✴": 839,
      "❀": 840,
      "❄": 841,
      "❇": 842,
      "❊": 843,
      "❌": 844,
      "❎": 845,
      "❓": 846,
      "❖": 847,
      "❗": 848,
      "❣": 849,
      "❤": 850,
      "❶": 851,
      "❷": 852,
      "❸": 853,
      "❹": 854,
      "❺": 855,
      "➏": 856,
      "➐": 857,
      "➖": 858,
      "➡": 859,
      "➣": 860,
      "⦿": 861,
      "⩽": 862,
      "⬅": 863,
      "⬇": 864,
      "⬛": 865,
      "⭐": 866,
      "⭕": 867,
      "、": 868,
      "。": 869,
      "〆": 870,
      "〇": 871,
      "〈": 872,
      "〉": 873,
      "《": 874,
      "》": 875,
      "〜": 876,
      "〰": 877,
      "あ": 878,
      "い": 879,
      "う": 880,
      "お": 881,
      "か": 882,
      "が": 883,
      "き": 884,
      "ぎ": 885,
      "く": 886,
      "ぐ": 887,
      "け": 888,
      "こ": 889,
      "ご": 890,
      "さ": 891,
      "し": 892,
      "す": 893,
      "ず": 894,
      "ぜ": 895,
      "た": 896,
      "だ": 897,
      "ち": 898,
      "っ": 899,
      "つ": 900,
      "と": 901,
      "な": 902,
      "に": 903,
      "の": 904,
      "は": 905,
      "ば": 906,
      "ひ": 907,
      "ふ": 908,
      "ほ": 909,
      "ま": 910,
      "み": 911,
      "め": 912,
      "も": 913,
      "ゃ": 914,
      "ゆ": 915,
      "ょ": 916,
      "ら": 917,
      "り": 918,
      "る": 919,
      "れ": 920,
      "わ": 921,
      "を": 922,
      "ん": 923,
      "ァ": 924,
      "ア": 925,
      "ィ": 926,
      "イ": 927,
      "ゥ": 928,
      "ェ": 929,
      "エ": 930,
      "ォ": 931,
      "オ": 932,
      "カ": 933,
      "ガ": 934,
      "キ": 935,
      "ク": 936,
      "グ": 937,
      "ゲ": 938,
      "コ": 939,
      "サ": 940,
      "シ": 941,
      "ジ": 942,
      "ス": 943,
      "ズ": 944,
      "セ": 945,
      "タ": 946,
      "ダ": 947,
      "チ": 948,
      "ッ": 949,
      "ツ": 950,
      "テ": 951,
      "デ": 952,
      "ト": 953,
      "ド": 954,
      "ナ": 955,
      "ニ": 956,
      "ネ": 957,
      "ノ": 958,
      "ハ": 959,
      "バ": 960,
      "パ": 961,
      "フ": 962,
      "ブ": 963,
      "プ": 964,
      "ヘ": 965,
      "ベ": 966,
      "マ": 967,
      "ミ": 968,
      "ム": 969,
      "モ": 970,
      "ャ": 971,
      "ュ": 972,
      "ョ": 973,
      "ラ": 974,
      "リ": 975,
      "ル": 976,
      "レ": 977,
      "ロ": 978,
      "ン": 979,
      "ヴ": 980,
      "・": 981,
      "ー": 982,
      "一": 983,
      "七": 984,
      "下": 985,
      "世": 986,
      "丙": 987,
      "中": 988,
      "主": 989,
      "乃": 990,
      "之": 991,
      "乙": 992,
      "九": 993,
      "乡": 994,
      "二": 995,
      "云": 996,
      "人": 997,
      "今": 998,
      "付": 999,
      "作": 1000,
      "侗": 1001,
      "依": 1002,
      "信": 1003,
      "備": 1004,
      "傳": 1005,
      "儚": 1006,
      "充": 1007,
      "光": 1008,
      "全": 1009,
      "兵": 1010,
      "其": 1011,
      "具": 1012,
      "円": 1013,
      "再": 1014,
      "出": 1015,
      "判": 1016,
      "前": 1017,
      "剛": 1018,
      "劇": 1019,
      "劉": 1020,
      "動": 1021,
      "化": 1022,
      "北": 1023,
      "华": 1024,
      "厂": 1025,
      "去": 1026,
      "古": 1027,
      "可": 1028,
      "台": 1029,
      "史": 1030,
      "同": 1031,
      "名": 1032,
      "君": 1033,
      "吳": 1034,
      "周": 1035,
      "命": 1036,
      "和": 1037,
      "咲": 1038,
      "善": 1039,
      "四": 1040,
      "國": 1041,
      "園": 1042,
      "圣": 1043,
      "在": 1044,
      "坂": 1045,
      "堤": 1046,
      "場": 1047,
      "塘": 1048,
      "夕": 1049,
      "大": 1050,
      "天": 1051,
      "夫": 1052,
      "女": 1053,
      "妙": 1054,
      "姚": 1055,
      "子": 1056,
      "孟": 1057,
      "守": 1058,
      "安": 1059,
      "宋": 1060,
      "完": 1061,
      "宗": 1062,
      "宝": 1063,
      "宫": 1064,
      "寝": 1065,
      "寺": 1066,
      "小": 1067,
      "少": 1068,
      "尾": 1069,
      "山": 1070,
      "岳": 1071,
      "川": 1072,
      "州": 1073,
      "巳": 1074,
      "市": 1075,
      "師": 1076,
      "平": 1077,
      "广": 1078,
      "庆": 1079,
      "府": 1080,
      "座": 1081,
      "廬": 1082,
      "延": 1083,
      "建": 1084,
      "式": 1085,
      "張": 1086,
      "彌": 1087,
      "彩": 1088,
      "彼": 1089,
      "後": 1090,
      "御": 1091,
      "德": 1092,
      "思": 1093,
      "愛": 1094,
      "憑": 1095,
      "憶": 1096,
      "應": 1097,
      "懷": 1098,
      "战": 1099,
      "戦": 1100,
      "扈": 1101,
      "技": 1102,
      "拉": 1103,
      "拳": 1104,
      "挑": 1105,
      "揺": 1106,
      "攻": 1107,
      "放": 1108,
      "政": 1109,
      "散": 1110,
      "斯": 1111,
      "方": 1112,
      "日": 1113,
      "旦": 1114,
      "旭": 1115,
      "昌": 1116,
      "明": 1117,
      "星": 1118,
      "春": 1119,
      "晋": 1120,
      "景": 1121,
      "曦": 1122,
      "月": 1123,
      "望": 1124,
      "未": 1125,
      "本": 1126,
      "李": 1127,
      "村": 1128,
      "杜": 1129,
      "束": 1130,
      "来": 1131,
      "林": 1132,
      "桜": 1133,
      "梶": 1134,
      "棘": 1135,
      "椎": 1136,
      "楊": 1137,
      "楚": 1138,
      "榮": 1139,
      "橘": 1140,
      "機": 1141,
      "正": 1142,
      "殻": 1143,
      "殿": 1144,
      "母": 1145,
      "水": 1146,
      "汉": 1147,
      "沂": 1148,
      "沙": 1149,
      "河": 1150,
      "泗": 1151,
      "波": 1152,
      "泣": 1153,
      "洪": 1154,
      "淹": 1155,
      "清": 1156,
      "湯": 1157,
      "漢": 1158,
      "澄": 1159,
      "澤": 1160,
      "火": 1161,
      "灯": 1162,
      "灵": 1163,
      "灼": 1164,
      "焼": 1165,
      "熱": 1166,
      "物": 1167,
      "狐": 1168,
      "狸": 1169,
      "玄": 1170,
      "王": 1171,
      "玩": 1172,
      "珂": 1173,
      "珙": 1174,
      "球": 1175,
      "理": 1176,
      "琦": 1177,
      "琪": 1178,
      "瓊": 1179,
      "生": 1180,
      "田": 1181,
      "畢": 1182,
      "番": 1183,
      "瘡": 1184,
      "白": 1185,
      "皮": 1186,
      "真": 1187,
      "砲": 1188,
      "礮": 1189,
      "祈": 1190,
      "神": 1191,
      "祠": 1192,
      "秋": 1193,
      "空": 1194,
      "立": 1195,
      "精": 1196,
      "約": 1197,
      "絵": 1198,
      "織": 1199,
      "義": 1200,
      "翠": 1201,
      "者": 1202,
      "耕": 1203,
      "肖": 1204,
      "胡": 1205,
      "膀": 1206,
      "臂": 1207,
      "興": 1208,
      "良": 1209,
      "花": 1210,
      "芳": 1211,
      "芽": 1212,
      "若": 1213,
      "英": 1214,
      "藕": 1215,
      "藥": 1216,
      "蘄": 1217,
      "蘇": 1218,
      "行": 1219,
      "裁": 1220,
      "規": 1221,
      "覺": 1222,
      "观": 1223,
      "解": 1224,
      "記": 1225,
      "誓": 1226,
      "誡": 1227,
      "誰": 1228,
      "謎": 1229,
      "许": 1230,
      "谭": 1231,
      "豪": 1232,
      "豫": 1233,
      "費": 1234,
      "贵": 1235,
      "赤": 1236,
      "趙": 1237,
      "足": 1238,
      "跡": 1239,
      "転": 1240,
      "辛": 1241,
      "逆": 1242,
      "遇": 1243,
      "運": 1244,
      "過": 1245,
      "遠": 1246,
      "選": 1247,
      "邦": 1248,
      "邱": 1249,
      "部": 1250,
      "郭": 1251,
      "都": 1252,
      "酈": 1253,
      "里": 1254,
      "野": 1255,
      "金": 1256,
      "銃": 1257,
      "鋼": 1258,
      "錄": 1259,
      "錡": 1260,
      "鍵": 1261,
      "鐵": 1262,
      "钱": 1263,
      "铁": 1264,
      "關": 1265,
      "防": 1266,
      "阿": 1267,
      "陈": 1268,
      "陳": 1269,
      "陽": 1270,
      "隊": 1271,
      "階": 1272,
      "集": 1273,
      "雪": 1274,
      "雲": 1275,
      "霖": 1276,
      "霹": 1277,
      "靂": 1278,
      "韓": 1279,
      "願": 1280,
      "顯": 1281,
      "颜": 1282,
      "马": 1283,
      "高": 1284,
      "龍": 1285,
      "대": 1286,
      "독": 1287,
      "라": 1288,
      "립": 1289,
      "병": 1290,
      "보": 1291,
      "부": 1292,
      "알": 1293,
      "연": 1294,
      "제": 1295,
      "": 1296,
      "": 1297,
      "": 1298,
      "": 1299,
      "": 1300,
      "": 1301,
      "": 1302,
      "": 1303,
      "": 1304,
      "": 1305,
      "": 1306,
      "": 1307,
      "﴾": 1308,
      "﴿": 1309,
      "﷽": 1310,
      "️": 1311,
      "﻿": 1312,
      "￴": 1313,
      "￵": 1314,
      "￶": 1315,
      "￷": 1316,
      "￸": 1317,
      "�": 1318,
      "𑹄": 1319,
      "🆔": 1320,
      "🇦": 1321,
      "🇧": 1322,
      "🇨": 1323,
      "🇪": 1324,
      "🇱": 1325,
      "🌅": 1326,
      "🌈": 1327,
      "🌎": 1328,
      "🌐": 1329,
      "🌓": 1330,
      "🌙": 1331,
      "🌚": 1332,
      "🌟": 1333,
      "🌠": 1334,
      "🌧": 1335,
      "🌨": 1336,
      "🌱": 1337,
      "🌲": 1338,
      "🌳": 1339,
      "🌴": 1340,
      "🌵": 1341,
      "🌶": 1342,
      "🌷": 1343,
      "🌸": 1344,
      "🌹": 1345,
      "🌺": 1346,
      "🌻": 1347,
      "🌼": 1348,
      "🌾": 1349,
      "🌿": 1350,
      "🍀": 1351,
      "🍁": 1352,
      "🍂": 1353,
      "🍃": 1354,
      "🍅": 1355,
      "🎀": 1356,
      "🎄": 1357,
      "🎇": 1358,
      "🎉": 1359,
      "🎋": 1360,
      "🎓": 1361,
      "🎤": 1362,
      "🎥": 1363,
      "🎧": 1364,
      "🎮": 1365,
      "🎴": 1366,
      "🎵": 1367,
      "🏃": 1368,
      "🏙": 1369,
      "🏝": 1370,
      "🏞": 1371,
      "🏠": 1372,
      "🏴": 1373,
      "🏻": 1374,
      "🏼": 1375,
      "🏽": 1376,
      "🐉": 1377,
      "🐍": 1378,
      "🐑": 1379,
      "🐓": 1380,
      "🐪": 1381,
      "👀": 1382,
      "👆": 1383,
      "👇": 1384,
      "👈": 1385,
      "👉": 1386,
      "👌": 1387,
      "👍": 1388,
      "👏": 1389,
      "👑": 1390,
      "👗": 1391,
      "👤": 1392,
      "👦": 1393,
      "👧": 1394,
      "👨": 1395,
      "👲": 1396,
      "👳": 1397,
      "💀": 1398,
      "💊": 1399,
      "💌": 1400,
      "💎": 1401,
      "💐": 1402,
      "💓": 1403,
      "💔": 1404,
      "💕": 1405,
      "💖": 1406,
      "💗": 1407,
      "💘": 1408,
      "💝": 1409,
      "💞": 1410,
      "💟": 1411,
      "💠": 1412,
      "💡": 1413,
      "💥": 1414,
      "💦": 1415,
      "💧": 1416,
      "💫": 1417,
      "💬": 1418,
      "💭": 1419,
      "📃": 1420,
      "📇": 1421,
      "📋": 1422,
      "📌": 1423,
      "📍": 1424,
      "📎": 1425,
      "📑": 1426,
      "📒": 1427,
      "📓": 1428,
      "📔": 1429,
      "📕": 1430,
      "📖": 1431,
      "📗": 1432,
      "📘": 1433,
      "📙": 1434,
      "📚": 1435,
      "📜": 1436,
      "📝": 1437,
      "📞": 1438,
      "📡": 1439,
      "📢": 1440,
      "📣": 1441,
      "📤": 1442,
      "📥": 1443,
      "📦": 1444,
      "📮": 1445,
      "📰": 1446,
      "📲": 1447,
      "🔁": 1448,
      "🔃": 1449,
      "🔄": 1450,
      "🔅": 1451,
      "🔆": 1452,
      "🔊": 1453,
      "🔍": 1454,
      "🔖": 1455,
      "🔗": 1456,
      "🔘": 1457,
      "🔥": 1458,
      "🔦": 1459,
      "🔭": 1460,
      "🔮": 1461,
      "🔰": 1462,
      "🔲": 1463,
      "🔴": 1464,
      "🔵": 1465,
      "🔶": 1466,
      "🔷": 1467,
      "🔸": 1468,
      "🔹": 1469,
      "🔺": 1470,
      "🔻": 1471,
      "🕋": 1472,
      "🕌": 1473,
      "🕴": 1474,
      "🕵": 1475,
      "🖊": 1476,
      "🖋": 1477,
      "🖌": 1478,
      "🖤": 1479,
      "🗓": 1480,
      "🗣": 1481,
      "🗯": 1482,
      "😀": 1483,
      "😁": 1484,
      "😂": 1485,
      "😄": 1486,
      "😇": 1487,
      "😉": 1488,
      "😊": 1489,
      "😍": 1490,
      "😎": 1491,
      "😏": 1492,
      "😔": 1493,
      "😜": 1494,
      "😢": 1495,
      "😥": 1496,
      "😨": 1497,
      "😭": 1498,
      "😰": 1499,
      "😳": 1500,
      "🙏": 1501,
      "🚀": 1502,
      "🚌": 1503,
      "🚍": 1504,
      "🚢": 1505,
      "🚨": 1506,
      "🚫": 1507,
      "🚶": 1508,
      "🛌": 1509,
      "🛑": 1510,
      "🤐": 1511,
      "🤔": 1512,
      "🤖": 1513,
      "🤝": 1514,
      "🤣": 1515,
      "🤪": 1516,
      "🤫": 1517,
      "🤲": 1518,
      "🥀": 1519,
      "🥗": 1520,
      "🦅": 1521,
      "🦜": 1522,
      "🧐": 1523,
      "🧙": 1524,
      "🧠": 1525,
      "🧿": 1526,
      "🩷": 1527,
      "🩸": 1528,
      "🩹": 1529,
      "🪒": 1530,
      "🫀": 1531,
      "##پ": 1532,
      "##ت": 1533,
      "##ی": 1534,
      "##ن": 1535,
      "##ا": 1536,
      "##p": 1537,
      "##s": 1538,
      "##t": 1539,
      "##r": 1540,
      "##e": 1541,
      "##a": 1542,
      "##m": 1543,
      "##َ": 1544,
      "##ي": 1545,
      "##ع": 1546,
      "##د": 1547,
      "##ّ": 1548,
      "##گ": 1549,
      "##م": 1550,
      "##و": 1551,
      "##ِ": 1552,
      "##ر": 1553,
      "##ے": 1554,
      "##ٹ": 1555,
      "##خ": 1556,
      "##ک": 1557,
      "##ف": 1558,
      "##ۆ": 1559,
      "##ش": 1560,
      "##ۓ": 1561,
      "##س": 1562,
      "##ئ": 1563,
      "##ُ": 1564,
      "##ز": 1565,
      "##ـ": 1566,
      "##ڈ": 1567,
      "##ْ": 1568,
      "##ج": 1569,
      "##ں": 1570,
      "##o": 1571,
      "##l": 1572,
      "##u": 1573,
      "##ل": 1574,
      "##ب": 1575,
      "##ھ": 1576,
      "##ء": 1577,
      "##ٗ": 1578,
      "##ہ": 1579,
      "##ؤ": 1580,
      "##c": 1581,
      "##d": 1582,
      "##غ": 1583,
      "##آ": 1584,
      "##x": 1585,
      "##i": 1586,
      "##b": 1587,
      "##n": 1588,
      "##ڑ": 1589,
      "##‌": 1590,
      "##چ": 1591,
      "##ق": 1592,
      "##y": 1593,
      "##h": 1594,
      "##ه": 1595,
      "##ض": 1596,
      "##ٛ": 1597,
      "##ث": 1598,
      "##ذ": 1599,
      "##v": 1600,
      "##g": 1601,
      "##ؒ": 1602,
      "##ح": 1603,
      "##ص": 1604,
      "##ɛ": 1605,
      "##ə": 1606,
      "##ˈ": 1607,
      "##ʊ": 1608,
      "##ظ": 1609,
      "##k": 1610,
      "##L": 1611,
      "##I": 1612,
      "##z": 1613,
      "##ā": 1614,
      "##f": 1615,
      "##w": 1616,
      "##ڪ": 1617,
      "##ؔ": 1618,
      "##ē": 1619,
      "##ى": 1620,
      "##ٰ": 1621,
      "##S": 1622,
      "##M": 1623,
      "##V": 1624,
      "##ێ": 1625,
      "##ط": 1626,
      "##ژ": 1627,
      "##B": 1628,
      "##D": 1629,
      "##E": 1630,
      "##C": 1631,
      "##٘": 1632,
      "##ٙ": 1633,
      "##ٕ": 1634,
      "##ك": 1635,
      "##A": 1636,
      "##ٳ": 1637,
      "##j": 1638,
      "##ٴ": 1639,
      "##ţ": 1640,
      "##T": 1641,
      "##ü": 1642,
      "##ٔ": 1643,
      "##W": 1644,
      "##G": 1645,
      "##N": 1646,
      "##ٍ": 1647,
      "##о": 1648,
      "##в": 1649,
      "##р": 1650,
      "##и": 1651,
      "##т": 1652,
      "##K": 1653,
      "##ؓ": 1654,
      "##л": 1655,
      "##а": 1656,
      "##イ": 1657,
      "##ル": 1658,
      "##R": 1659,
      "##O": 1660,
      "##ټ": 1661,
      "##ګ": 1662,
      "##ښ": 1663,
      "##F": 1664,
      "##ؐ": 1665,
      "##ة": 1666,
      "##أ": 1667,
      "##ٝ": 1668,
      "##ً": 1669,
      "##‍": 1670,
      "##é": 1671,
      "##ۏ": 1672,
      "##რ": 1673,
      "##ი": 1674,
      "##ს": 1675,
      "##ტ": 1676,
      "##ე": 1677,
      "##ٌ": 1678,
      "##ۃ": 1679,
      "##q": 1680,
      "##ñ": 1681,
      "##ې": 1682,
      "##á": 1683,
      "##🍀": 1684,
      "##إ": 1685,
      "##つ": 1686,
      "##ぜ": 1687,
      "##ん": 1688,
      "##ۂ": 1689,
      "##đ": 1690,
      "##ć": 1691,
      "##ô": 1692,
      "##ą": 1693,
      "##🌴": 1694,
      "##ო": 1695,
      "##მ": 1696,
      "##ლ": 1697,
      "##ؑ": 1698,
      "##P": 1699,
      "##ٓ": 1700,
      "##ٚ": 1701,
      "##ṇ": 1702,
      "##ł": 1703,
      "##ū": 1704,
      "##ø": 1705,
      "##X": 1706,
      "##U": 1707,
      "##H": 1708,
      "##æ": 1709,
      "##е": 1710,
      "##д": 1711,
      "##ù": 1712,
      "##ٖ": 1713,
      "##ů": 1714,
      "##Y": 1715,
      "##ń": 1716,
      "##ۡ": 1717,
      "##ʻ": 1718,
      "##ỏ": 1719,
      "##ν": 1720,
      "##τ": 1721,
      "##ί": 1722,
      "##μ": 1723,
      "##ο": 1724,
      "##α": 1725,
      "##χ": 1726,
      "##ό": 1727,
      "##ς": 1728,
      "##ɡ": 1729,
      "##ɑ": 1730,
      "##ː": 1731,
      "##ɒ": 1732,
      "##ç": 1733,
      "##ộ": 1734,
      "##ۍ": 1735,
      "##ō": 1736,
      "##š": 1737,
      "##è": 1738,
      "##č": 1739,
      "##ۤ": 1740,
      "##ḥ": 1741,
      "##Q": 1742,
      "##ấ": 1743,
      "##؂": 1744,
      "##ɪ": 1745,
      "##ʃ": 1746,
      "##🍂": 1747,
      "##🍁": 1748,
      "##🚍": 1749,
      "##ḍ": 1750,
      "##翠": 1751,
      "##英": 1752,
      "##珂": 1753,
      "##J": 1754,
      "##散": 1755,
      "##關": 1756,
      "##こ": 1757,
      "##と": 1758,
      "##ã": 1759,
      "##í": 1760,
      "##უ": 1761,
      "##ხ": 1762,
      "##ö": 1763,
      "##ړ": 1764,
      "##х": 1765,
      "##ж": 1766,
      "##у": 1767,
      "##ю": 1768,
      "##щ": 1769,
      "##й": 1770,
      "##с": 1771,
      "##я": 1772,
      "##📚": 1773,
      "##📕": 1774,
      "##ī": 1775,
      "##à": 1776,
      "##ś": 1777,
      "##ˌ": 1778,
      "##ú": 1779,
      "##❤": 1780,
      "##ा": 1781,
      "##द": 1782,
      "##⃣": 1783,
      "##â": 1784,
      "##ڃ": 1785,
      "##ṛ": 1786,
      "##ò": 1787,
      "##ï": 1788,
      "##ל": 1789,
      "##ה": 1790,
      "##א": 1791,
      "##ă": 1792,
      "##ş": 1793,
      "##‎": 1794,
      "##‏": 1795,
      "##🌻": 1796,
      "##ó": 1797,
      "##Z": 1798,
      "##之": 1799,
      "##平": 1800,
      "##✨": 1801,
      "##🌷": 1802,
      "##💐": 1803,
      "##ë": 1804,
      "##ქ": 1805,
      "##ა": 1806,
      "##ნ": 1807,
      "##დ": 1808,
      "##🌹": 1809,
      "##っ": 1810,
      "##ڰ": 1811,
      "##Ē": 1812,
      "##ш": 1813,
      "##在": 1814,
      "##ニ": 1815,
      "##ų": 1816,
      "##ṯ": 1817,
      "##う": 1818,
      "##き": 1819,
      "##ž": 1820,
      "##ä": 1821,
      "##台": 1822,
      "##ึ": 1823,
      "##б": 1824,
      "##н": 1825,
      "##州": 1826,
      "##û": 1827,
      "##न": 1828,
      "##ू": 1829,
      "##🇪": 1830,
      "##ы": 1831,
      "##珙": 1832,
      "##宋": 1833,
      "##中": 1834,
      "##興": 1835,
      "##岳": 1836,
      "##王": 1837,
      "##傳": 1838,
      "##ވ": 1839,
      "##ڷ": 1840,
      "##ו": 1841,
      "##פ": 1842,
      "##נ": 1843,
      "##ê": 1844,
      "##を": 1845,
      "##ば": 1846,
      "##り": 1847,
      "##く": 1848,
      "##ц": 1849,
      "##ь": 1850,
      "##к": 1851,
      "##ɔ": 1852,
      "##ュ": 1853,
      "##ナ": 1854,
      "##ミ": 1855,
      "##ス": 1856,
      "##🌺": 1857,
      "##💓": 1858,
      "##作": 1859,
      "##ࢨ": 1860,
      "##円": 1861,
      "##寺": 1862,
      "##ɾ": 1863,
      "##👆": 1864,
      "##🍃": 1865,
      "##🏻": 1866,
      "##ڋ": 1867,
      "##ị": 1868,
      "##✋": 1869,
      "##ė": 1870,
      "##全": 1871,
      "##ࣿ": 1872,
      "##ހ": 1873,
      "##👇": 1874,
      "##ڌ": 1875,
      "##з": 1876,
      "##ב": 1877,
      "##ר": 1878,
      "##ם": 1879,
      "##ṣ": 1880,
      "##å": 1881,
      "##ป": 1882,
      "##ย": 1883,
      "##🏼": 1884,
      "##✅": 1885,
      "##邦": 1886,
      "##昌": 1887,
      "##ჲ": 1888,
      "##广": 1889,
      "##￵": 1890,
      "##ệ": 1891,
      "##藥": 1892,
      "##師": 1893,
      "##ğ": 1894,
      "##ı": 1895,
      "##ả": 1896,
      "##ḏ": 1897,
      "##🏽": 1898,
      "##方": 1899,
      "##ṅ": 1900,
      "##雲": 1901,
      "##ۉ": 1902,
      "##ỳ": 1903,
      "##⁦": 1904,
      "##۟": 1905,
      "##里": 1906,
      "##ェ": 1907,
      "##テ": 1908,
      "##ィ": 1909,
      "##バ": 1910,
      "##な": 1911,
      "##れ": 1912,
      "##る": 1913,
      "##ނ": 1914,
      "##淹": 1915,
      "##金": 1916,
      "##山": 1917,
      "##お": 1918,
      "##狐": 1919,
      "##ー": 1920,
      "##ڄ": 1921,
      "##ɫ": 1922,
      "##ぐ": 1923,
      "##あ": 1924,
      "##鍵": 1925,
      "##￸": 1926,
      "##ვ": 1927,
      "##ọ": 1928,
      "##選": 1929,
      "##堤": 1930,
      "##ỹ": 1931,
      "##े": 1932,
      "##ڻ": 1933,
      "##ơ": 1934,
      "##ρ": 1935,
      "##ι": 1936,
      "##σ": 1937,
      "##ύ": 1938,
      "##ۀ": 1939,
      "##י": 1940,
      "##錡": 1941,
      "##☆": 1942,
      "##ず": 1943,
      "##め": 1944,
      "##🌲": 1945,
      "##🥀": 1946,
      "##🌳": 1947,
      "##ʿ": 1948,
      "##ř": 1949,
      "##м": 1950,
      "##再": 1951,
      "##旦": 1952,
      "##υ": 1953,
      "##є": 1954,
      "##λ": 1955,
      "##瓊": 1956,
      "##व": 1957,
      "##ڙ": 1958,
      "##塘": 1959,
      "##​": 1960,
      "##靂": 1961,
      "##火": 1962,
      "##球": 1963,
      "##妙": 1964,
      "##观": 1965,
      "##ぎ": 1966,
      "##去": 1967,
      "##し": 1968,
      "##思": 1969,
      "##い": 1970,
      "##出": 1971,
      "##ά": 1972,
      "##δ": 1973,
      "##命": 1974,
      "##解": 1975,
      "##放": 1976,
      "##🌾": 1977,
      "##🖋": 1978,
      "##ư": 1979,
      "##子": 1980,
      "##🔅": 1981,
      "##ß": 1982,
      "##п": 1983,
      "##ử": 1984,
      "##Р": 1985,
      "##剛": 1986,
      "##ח": 1987,
      "##מ": 1988,
      "##ד": 1989,
      "##😜": 1990,
      "##ڕ": 1991,
      "##💖": 1992,
      "##砲": 1993,
      "##π": 1994,
      "##κ": 1995,
      "##ܲ": 1996,
      "##ܠ": 1997,
      "##ܵ": 1998,
      "##ܗ": 1999,
      "##ܐ": 2000,
      "##さ": 2001,
      "##祈": 2002,
      "##も": 2003,
      "##君": 2004,
      "##が": 2005,
      "##願": 2006,
      "##の": 2007,
      "##ら": 2008,
      "##わ": 2009,
      "##र": 2010,
      "##み": 2011,
      "##ږ": 2012,
      "##ᵻ": 2013,
      "##त": 2014,
      "##ż": 2015,
      "##̃": 2016,
      "##大": 2017,
      "##ト": 2018,
      "##ッ": 2019,
      "##プ": 2020,
      "##É": 2021,
      "##ݔ": 2022,
      "##ȯ": 2023,
      "##ۯ": 2024,
      "##其": 2025,
      "##琪": 2026,
      "##😔": 2027,
      "##ź": 2028,
      "##♥": 2029,
      "##丙": 2030,
      "##波": 2031,
      "##義": 2032,
      "##信": 2033,
      "##技": 2034,
      "##ڗ": 2035,
      "##憶": 2036,
      "##棘": 2037,
      "##殻": 2038,
      "##機": 2039,
      "##動": 2040,
      "##隊": 2041,
      "##充": 2042,
      "##ֵ": 2043,
      "##ָ": 2044,
      "##ð": 2045,
      "##ั": 2046,
      "##ค": 2047,
      "##ร": 2048,
      "##ว": 2049,
      "##ต": 2050,
      "##🇱": 2051,
      "##た": 2052,
      "##足": 2053,
      "##跡": 2054,
      "##ۚ": 2055,
      "##ڇ": 2056,
      "##ֹ": 2057,
      "##ף": 2058,
      "##ɜ": 2059,
      "##か": 2060,
      "##ω": 2061,
      "##έ": 2062,
      "##💎": 2063,
      "##؎": 2064,
      "##ầ": 2065,
      "##侗": 2066,
      "##ォ": 2067,
      "##ゥ": 2068,
      "##ʁ": 2069,
      "##🙏": 2070,
      "##光": 2071,
      "##世": 2072,
      "##ク": 2073,
      "##サ": 2074,
      "##ै": 2075,
      "##ह": 2076,
      "##ि": 2077,
      "##क": 2078,
      "##γ": 2079,
      "##ള": 2080,
      "##🐪": 2081,
      "##ะ": 2082,
      "##ช": 2083,
      "##อ": 2084,
      "##น": 2085,
      "##î": 2086,
      "##規": 2087,
      "##대": 2088,
      "##雪": 2089,
      "##🌐": 2090,
      "##ס": 2091,
      "##灵": 2092,
      "##宫": 2093,
      "##ア": 2094,
      "##ま": 2095,
      "##ც": 2096,
      "##თ": 2097,
      "##ܕ": 2098,
      "##ܝ": 2099,
      "##ܢ": 2100,
      "##ܬ": 2101,
      "##ʔ": 2102,
      "##ψ": 2103,
      "##📝": 2104,
      "##": 2105,
      "##ก": 2106,
      "##ิ": 2107,
      "##ษ": 2108,
      "##ฐ": 2109,
      "##🩷": 2110,
      "##‪": 2111,
      "##ּ": 2112,
      "##ì": 2113,
      "##📎": 2114,
      "##ש": 2115,
      "##צ": 2116,
      "##ち": 2117,
      "##ゃ": 2118,
      "##二": 2119,
      "##ډ": 2120,
      "##─": 2121,
      "##ε": 2122,
      "##ξ": 2123,
      "##📖": 2124,
      "##📰": 2125,
      "##ण": 2126,
      "##स": 2127,
      "##ु": 2128,
      "##拉": 2129,
      "##ậ": 2130,
      "##ल": 2131,
      "##Л": 2132,
      "##澤": 2133,
      "##転": 2134,
      "##裁": 2135,
      "##判": 2136,
      "##乃": 2137,
      "##พ": 2138,
      "##ώ": 2139,
      "##沙": 2140,
      "##￴": 2141,
      "##💀": 2142,
      "##レ": 2143,
      "##ン": 2144,
      "##ロ": 2145,
      "##ド": 2146,
      "##狸": 2147,
      "##精": 2148,
      "##💟": 2149,
      "##日": 2150,
      "##だ": 2151,
      "##👍": 2152,
      "##ई": 2153,
      "##ڊ": 2154,
      "##天": 2155,
      "##府": 2156,
      "##田": 2157,
      "##和": 2158,
      "##川": 2159,
      "##წ": 2160,
      "##ფ": 2161,
      "##礮": 2162,
      "##г": 2163,
      "##ノ": 2164,
      "##星": 2165,
      "##汉": 2166,
      "##ý": 2167,
      "##愛": 2168,
      "##化": 2169,
      "##🇧": 2170,
      "##ガ": 2171,
      "##ラ": 2172,
      "##📘": 2173,
      "##✏": 2174,
      "##ứ": 2175,
      "##✳": 2176,
      "##✍": 2177,
      "##🔸": 2178,
      "##空": 2179,
      "##ת": 2180,
      "##宗": 2181,
      "##政": 2182,
      "##ן": 2183,
      "##ắ": 2184,
      "##建": 2185,
      "##华": 2186,
      "##ं": 2187,
      "##ग": 2188,
      "##春": 2189,
      "##フ": 2190,
      "##母": 2191,
      "##殿": 2192,
      "##ツ": 2193,
      "##ネ": 2194,
      "##マ": 2195,
      "##咲": 2196,
      "##花": 2197,
      "##束": 2198,
      "##守": 2199,
      "##遇": 2200,
      "##แ": 2201,
      "##豫": 2202,
      "##シ": 2203,
      "##ョ": 2204,
      "##銃": 2205,
      "##瘡": 2206,
      "##🖌": 2207,
      "##라": 2208,
      "##懷": 2209,
      "##デ": 2210,
      "##﻿": 2211,
      "##ę": 2212,
      "##兵": 2213,
      "##主": 2214,
      "##ۖ": 2215,
      "##巳": 2216,
      "##泣": 2217,
      "##蘄": 2218,
      "##錄": 2219,
      "##●": 2220,
      "##正": 2221,
      "##芳": 2222,
      "##🌸": 2223,
      "##া": 2224,
      "##হ": 2225,
      "##ް": 2226,
      "##ǎ": 2227,
      "##ḷ": 2228,
      "##ɐ": 2229,
      "##夫": 2230,
      "##人": 2231,
      "##灼": 2232,
      "##熱": 2233,
      "##都": 2234,
      "##市": 2235,
      "##⁩": 2236,
      "##η": 2237,
      "##鋼": 2238,
      "##景": 2239,
      "##エ": 2240,
      "##タ": 2241,
      "##θ": 2242,
      "##😂": 2243,
      "##ล": 2244,
      "##ฮ": 2245,
      "##ڏ": 2246,
      "##玩": 2247,
      "##具": 2248,
      "##厂": 2249,
      "##ĕ": 2250,
      "##國": 2251,
      "##秋": 2252,
      "##後": 2253,
      "##集": 2254,
      "##გ": 2255,
      "##延": 2256,
      "##夕": 2257,
      "##焼": 2258,
      "##け": 2259,
      "##付": 2260,
      "##👌": 2261,
      "##🌱": 2262,
      "##顯": 2263,
      "##ỗ": 2264,
      "##ũ": 2265,
      "##☀": 2266,
      "##榮": 2267,
      "##絵": 2268,
      "##名": 2269,
      "##庆": 2270,
      "##河": 2271,
      "##良": 2272,
      "##防": 2273,
      "##御": 2274,
      "##战": 2275,
      "##🤣": 2276,
      "##沂": 2277,
      "##😄": 2278,
      "##場": 2279,
      "##ヴ": 2280,
      "##ァ": 2281,
      "##キ": 2282,
      "##リ": 2283,
      "##ớ": 2284,
      "##彌": 2285,
      "##遠": 2286,
      "##ੱ": 2287,
      "##ਲ": 2288,
      "##ਾ": 2289,
      "##ਹ": 2290,
      "##👏": 2291,
      "##🫀": 2292,
      "##￶": 2293,
      "##ạ": 2294,
      "##❀": 2295,
      "##ٽ": 2296,
      "##🔹": 2297,
      "##⚛": 2298,
      "##臂": 2299,
      "##膀": 2300,
      "##😀": 2301,
      "##グ": 2302,
      "##ダ": 2303,
      "##ム": 2304,
      "##チ": 2305,
      "##￷": 2306,
      "##ภ": 2307,
      "##า": 2308,
      "##ด": 2309,
      "##ี": 2310,
      "##ἰ": 2311,
      "##β": 2312,
      "##ή": 2313,
      "##🚀": 2314,
      "##👉": 2315,
      "##🌙": 2316,
      "##明": 2317,
      "##す": 2318,
      "##ひ": 2319,
      "##❣": 2320,
      "##ズ": 2321,
      "##۠": 2322,
      "##💞": 2323,
      "##ซ": 2324,
      "##彩": 2325,
      "##揺": 2326,
      "##ご": 2327,
      "##ч": 2328,
      "##🤪": 2329,
      "##漢": 2330,
      "##🌎": 2331,
      "##ț": 2332,
      "##生": 2333,
      "##部": 2334,
      "##👗": 2335,
      "##番": 2336,
      "##宝": 2337,
      "##物": 2338,
      "##本": 2339,
      "##œ": 2340,
      "##劇": 2341,
      "##Ĕ": 2342,
      "##誓": 2343,
      "##ٻ": 2344,
      "##曦": 2345,
      "##村": 2346,
      "##ณ": 2347,
      "##ม": 2348,
      "##ɳ": 2349,
      "##来": 2350,
      "##挑": 2351,
      "##戦": 2352,
      "##者": 2353,
      "##ল": 2354,
      "##セ": 2355,
      "##オ": 2356,
      "##覺": 2357,
      "##립": 2358,
      "##보": 2359,
      "##병": 2360,
      "##연": 2361,
      "##🆔": 2362,
      "##ブ": 2363,
      "##ڀ": 2364,
      "##म": 2365,
      "##्": 2366,
      "##ữ": 2367,
      "##ੁ": 2368,
      "##同": 2369,
      "##😁": 2370,
      "##ֶ": 2371,
      "##ी": 2372,
      "##💗": 2373,
      "##ި": 2374,
      "##安": 2375,
      "##̋": 2376,
      "##颜": 2377,
      "##望": 2378,
      "##備": 2379,
      "##ș": 2380,
      "##★": 2381,
      "##神": 2382,
      "##ъ": 2383,
      "##少": 2384,
      "##女": 2385,
      "##尾": 2386,
      "##۫": 2387,
      "##云": 2388,
      "##清": 2389,
      "##ṭ": 2390,
      "##依": 2391,
      "##祠": 2392,
      "##憑": 2393,
      "##เ": 2394,
      "##月": 2395,
      "##誡": 2396,
      "##څ": 2397,
      "##ʒ": 2398,
      "##Ä": 2399,
      "##霖": 2400,
      "##💝": 2401,
      "##運": 2402,
      "##乙": 2403,
      "##ɽ": 2404,
      "##ゆ": 2405,
      "##ჱ": 2406,
      "##ṃ": 2407,
      "##ڍ": 2408,
      "##ャ": 2409,
      "##モ": 2410,
      "##❊": 2411,
      "##ょ": 2412,
      "##に": 2413,
      "##🌧": 2414,
      "##🌨": 2415,
      "##⛅": 2416,
      "##☘": 2417,
      "##ง": 2418,
      "##ไ": 2419,
      "##ǔ": 2420,
      "##ാ": 2421,
      "##ഹ": 2422,
      "##ჳ": 2423,
      "##🏝": 2424,
      "##👨": 2425,
      "##👧": 2426,
      "##琦": 2427,
      "##💫": 2428,
      "##園": 2429,
      "##ۘ": 2430,
      "##贵": 2431,
      "##四": 2432,
      "##式": 2433,
      "##拳": 2434,
      "##ễ": 2435,
      "##ان": 2436,
      "ءَ": 2437,
      "ءِ": 2438,
      "##ار": 2439,
      "##نت": 2440,
      "##یں": 2441,
      "ءُ": 2442,
      "##اں": 2443,
      "##تگ": 2444,
      "##انی": 2445,
      "کہ": 2446,
      "##ست": 2447,
      "##ند": 2448,
      "##نگ": 2449,
      "##ئی": 2450,
      "بی": 2451,
      "بل": 2452,
      "##را": 2453,
      "##ال": 2454,
      "##ءَ": 2455,
      "##وچ": 2456,
      "گو": 2457,
      "من": 2458,
      "اِ": 2459,
      "اَ": 2460,
      "##تی": 2461,
      "##ری": 2462,
      "انت": 2463,
      "بو": 2464,
      "##رد": 2465,
      "##ور": 2466,
      "اے": 2467,
      "ای": 2468,
      "##اہ": 2469,
      "##ام": 2470,
      "بلوچ": 2471,
      "##یم": 2472,
      "سر": 2473,
      "##ءِ": 2474,
      "##شت": 2475,
      "نہ": 2476,
      "ھم": 2477,
      "وتی": 2478,
      "##ات": 2479,
      "یک": 2480,
      "##یر": 2481,
      "##وک": 2482,
      "##ین": 2483,
      "آئی": 2484,
      "##اد": 2485,
      "چہ": 2486,
      "##از": 2487,
      "ات": 2488,
      "اَنت": 2489,
      "##اک": 2490,
      "اِنت": 2491,
      "بیت": 2492,
      "##یت": 2493,
      "در": 2494,
      "##ئے": 2495,
      "کن": 2496,
      "مرد": 2497,
      "بہ": 2498,
      "کنگ": 2499,
      "تہ": 2500,
      "##ول": 2501,
      "کار": 2502,
      "##اب": 2503,
      "پہ": 2504,
      "##می": 2505,
      "دو": 2506,
      "را": 2507,
      "گوں": 2508,
      "##انک": 2509,
      "ہم": 2510,
      "بوتگ": 2511,
      "##وش": 2512,
      "مردم": 2513,
      "##ون": 2514,
      "##اری": 2515,
      "اَت": 2516,
      "##ستان": 2517,
      "تو": 2518,
      "##اھ": 2519,
      "کر": 2520,
      "دی": 2521,
      "##دا": 2522,
      "##نی": 2523,
      "##اس": 2524,
      "کُ": 2525,
      "##he": 2526,
      "##یش": 2527,
      "ان": 2528,
      "بر": 2529,
      "##یک": 2530,
      "دیم": 2531,
      "##ءُ": 2532,
      "کنت": 2533,
      "##ید": 2534,
      "پر": 2535,
      "بوت": 2536,
      "##بر": 2537,
      "##ھد": 2538,
      "##ائ": 2539,
      "لو": 2540,
      "##انگ": 2541,
      "بلے": 2542,
      "##وں": 2543,
      "منی": 2544,
      "##ُر": 2545,
      "##شی": 2546,
      "بیتگ": 2547,
      "##شتگ": 2548,
      "##شک": 2549,
      "گپ": 2550,
      "باز": 2551,
      "کس": 2552,
      "##گہ": 2553,
      "##یل": 2554,
      "ما": 2555,
      "##گی": 2556,
      "##دار": 2557,
      "بند": 2558,
      "دل": 2559,
      "کت": 2560,
      "رو": 2561,
      "##یس": 2562,
      "گُ": 2563,
      "ال": 2564,
      "the": 2565,
      "##وار": 2566,
      "پد": 2567,
      "##er": 2568,
      "بلوچستان": 2569,
      "##ما": 2570,
      "##مان": 2571,
      "ئے": 2572,
      "##ود": 2573,
      "وت": 2574,
      "##نا": 2575,
      "کتگ": 2576,
      "اس": 2577,
      "##ران": 2578,
      "وا": 2579,
      "سی": 2580,
      "##ھر": 2581,
      "##گاں": 2582,
      "وھد": 2583,
      "روچ": 2584,
      "بے": 2585,
      "مر": 2586,
      "نب": 2587,
      "چی": 2588,
      "کو": 2589,
      "می": 2590,
      "زند": 2591,
      "جن": 2592,
      "راج": 2593,
      "ھمے": 2594,
      "##ڑا": 2595,
      "##کی": 2596,
      "نی": 2597,
      "##وان": 2598,
      "زان": 2599,
      "##in": 2600,
      "مہ": 2601,
      "نام": 2602,
      "اِت": 2603,
      "کم": 2604,
      "تر": 2605,
      "چار": 2606,
      "##لی": 2607,
      "##بان": 2608,
      "##ائی": 2609,
      "##دی": 2610,
      "دا": 2611,
      "##اپ": 2612,
      "##on": 2613,
      "مئے": 2614,
      "یا": 2615,
      "گْ": 2616,
      "##ed": 2617,
      "##پت": 2618,
      "##لہ": 2619,
      "لوٹ": 2620,
      "نیم": 2621,
      "##وکیں": 2622,
      "مز": 2623,
      "جنگ": 2624,
      "بلوچی": 2625,
      "##گر": 2626,
      "##تگیں": 2627,
      "او": 2628,
      "پاک": 2629,
      "پو": 2630,
      "##کار": 2631,
      "##گو": 2632,
      "کی": 2633,
      "دست": 2634,
      "بنت": 2635,
      "مار": 2636,
      "##شانی": 2637,
      "دار": 2638,
      "جو": 2639,
      "##یگ": 2640,
      "دگہ": 2641,
      "##وب": 2642,
      "##اگ": 2643,
      "##nd": 2644,
      "تہا": 2645,
      "##وت": 2646,
      "تئی": 2647,
      "##ٹی": 2648,
      "##نج": 2649,
      "نبشت": 2650,
      "##نچ": 2651,
      "##at": 2652,
      "زبان": 2653,
      "##من": 2654,
      "مل": 2655,
      "##or": 2656,
      "##چی": 2657,
      "##es": 2658,
      "سرا": 2659,
      "##بز": 2660,
      "##رگ": 2661,
      "آز": 2662,
      "زور": 2663,
      "گل": 2664,
      "نیمگ": 2665,
      "کل": 2666,
      "وڑ": 2667,
      "##ٹر": 2668,
      "کرتگ": 2669,
      "دم": 2670,
      "مزن": 2671,
      "ئِ": 2672,
      "آی": 2673,
      "##شگ": 2674,
      "ھما": 2675,
      "##مد": 2676,
      "اگاں": 2677,
      "کپ": 2678,
      "##ar": 2679,
      "بُ": 2680,
      "##یال": 2681,
      "##رو": 2682,
      "##سی": 2683,
      "بد": 2684,
      "زم": 2685,
      "بز": 2686,
      "##ھی": 2687,
      "##ہد": 2688,
      "ایشی": 2689,
      "##en": 2690,
      "آں": 2691,
      "##نگت": 2692,
      "گی": 2693,
      "##کیں": 2694,
      "##جہ": 2695,
      "مُ": 2696,
      "ھال": 2697,
      "سال": 2698,
      "کے": 2699,
      "درا": 2700,
      "رس": 2701,
      "##جم": 2702,
      "##شان": 2703,
      "پدا": 2704,
      "of": 2705,
      "چو": 2706,
      "چیز": 2707,
      "رد": 2708,
      "ھر": 2709,
      "##an": 2710,
      "##ریں": 2711,
      "ترا": 2712,
      "رنگ": 2713,
      "جت": 2714,
      "جا": 2715,
      "بازیں": 2716,
      "گیش": 2717,
      "##وم": 2718,
      "بار": 2719,
      "لبز": 2720,
      "##al": 2721,
      "##مب": 2722,
      "in": 2723,
      "##رت": 2724,
      "آس": 2725,
      "زانت": 2726,
      "نز": 2727,
      "##کن": 2728,
      "##ستانی": 2729,
      "انچ": 2730,
      "رند": 2731,
      "##it": 2732,
      "جی": 2733,
      "سا": 2734,
      "سک": 2735,
      "##یا": 2736,
      "ہمے": 2737,
      "گند": 2738,
      "سل": 2739,
      "پی": 2740,
      "گڑا": 2741,
      "##جاہ": 2742,
      "چم": 2743,
      "یے": 2744,
      "##ing": 2745,
      "پیش": 2746,
      "کا": 2747,
      "ایں": 2748,
      "دات": 2749,
      "بیگو": 2750,
      "##شن": 2751,
      "ایت": 2752,
      "ماں": 2753,
      "##ڑی": 2754,
      "##کس": 2755,
      "اب": 2756,
      "##رز": 2757,
      "##چار": 2758,
      "##is": 2759,
      "ایر": 2760,
      "که": 2761,
      "نبشتہ": 2762,
      "##ــ": 2763,
      "and": 2764,
      "##as": 2765,
      "##اع": 2766,
      "##بند": 2767,
      "اُ": 2768,
      "دومی": 2769,
      "نا": 2770,
      "##چک": 2771,
      "##کگ": 2772,
      "##ستی": 2773,
      "شپ": 2774,
      "کتاب": 2775,
      "ہما": 2776,
      "انس": 2777,
      "جان": 2778,
      "واجہ": 2779,
      "وش": 2780,
      "جُ": 2781,
      "آپ": 2782,
      "مردمانی": 2783,
      "داتگ": 2784,
      "چے": 2785,
      "##لا": 2786,
      "جوڑ": 2787,
      "است": 2788,
      "ہر": 2789,
      "##یکہ": 2790,
      "##ُک": 2791,
      "ور": 2792,
      "مان": 2793,
      "##ولی": 2794,
      "کرت": 2795,
      "کُت": 2796,
      "##ّی": 2797,
      "پوج": 2798,
      "مح": 2799,
      "to": 2800,
      "تھ": 2801,
      "##نیا": 2802,
      "پاکستانی": 2803,
      "##بی": 2804,
      "کش": 2805,
      "شہ": 2806,
      "گوشتگ": 2807,
      "##ائیں": 2808,
      "لوگ": 2809,
      "میں": 2810,
      "##وگ": 2811,
      "دیگ": 2812,
      "##ئیں": 2813,
      "ام": 2814,
      "ایش": 2815,
      "دور": 2816,
      "##ic": 2817,
      "سرجم": 2818,
      "##وس": 2819,
      "##کہ": 2820,
      "خان": 2821,
      "##راہ": 2822,
      "شاع": 2823,
      "##ou": 2824,
      "##َر": 2825,
      "شر": 2826,
      "بس": 2827,
      "##سٹ": 2828,
      "مزنیں": 2829,
      "جاہ": 2830,
      "زر": 2831,
      "تہءَ": 2832,
      "سے": 2833,
      "پُ": 2834,
      "نو": 2835,
      "مھ": 2836,
      "اور": 2837,
      "##در": 2838,
      "##دہ": 2839,
      "ھچ": 2840,
      "گر": 2841,
      "میر": 2842,
      "نوں": 2843,
      "##لم": 2844,
      "راہ": 2845,
      "##کر": 2846,
      "ہے": 2847,
      "ماہ": 2848,
      "##ِر": 2849,
      "##نڈ": 2850,
      "نیست": 2851,
      "##کش": 2852,
      "ئَ": 2853,
      "##یب": 2854,
      "مارا": 2855,
      "سرپ": 2856,
      "پرچ": 2857,
      "##وال": 2858,
      "داں": 2859,
      "##re": 2860,
      "##ion": 2861,
      "##شتر": 2862,
      "##اگرد": 2863,
      "گْو": 2864,
      "وانگ": 2865,
      "با": 2866,
      "کَ": 2867,
      "تاک": 2868,
      "ئِے": 2869,
      "سنگت": 2870,
      "##بت": 2871,
      "##ھت": 2872,
      "ھوار": 2873,
      "گوش": 2874,
      "زانگ": 2875,
      "دمگ": 2876,
      "توار": 2877,
      "چاگرد": 2878,
      "پس": 2879,
      "مس": 2880,
      "##وری": 2881,
      "کارم": 2882,
      "##زار": 2883,
      "ار": 2884,
      "##جو": 2885,
      "نوکیں": 2886,
      "##زم": 2887,
      "پاد": 2888,
      "مردماں": 2889,
      "لبزانک": 2890,
      "بیگواہ": 2891,
      "##ازی": 2892,
      "شُ": 2893,
      "##om": 2894,
      "##راد": 2895,
      "##تر": 2896,
      "##زگ": 2897,
      "دوست": 2898,
      "##لام": 2899,
      "لشک": 2900,
      "##ادی": 2901,
      "چون": 2902,
      "##وا": 2903,
      "##الی": 2904,
      "جیڑ": 2905,
      "##رے": 2906,
      "ڈی": 2907,
      "اد": 2908,
      "شنگ": 2909,
      "##انت": 2910,
      "دنیا": 2911,
      "آہ": 2912,
      "آوار": 2913,
      "پاکستان": 2914,
      "وہد": 2915,
      "پول": 2916,
      "کنان": 2917,
      "مات": 2918,
      "برا": 2919,
      "##جا": 2920,
      "ھل": 2921,
      "اُر": 2922,
      "تا": 2923,
      "گِ": 2924,
      "##مانک": 2925,
      "##ھگ": 2926,
      "##ھانی": 2927,
      "وار": 2928,
      "##اش": 2929,
      "##لّ": 2930,
      "وَ": 2931,
      "تی": 2932,
      "جہ": 2933,
      "##گا": 2934,
      "مع": 2935,
      "##زی": 2936,
      "درشان": 2937,
      "آب": 2938,
      "##ڈی": 2939,
      "اوں": 2940,
      "##اسی": 2941,
      "##کاری": 2942,
      "نند": 2943,
      "گْوش": 2944,
      "اللہ": 2945,
      "ھات": 2946,
      "##جی": 2947,
      "مد": 2948,
      "پیس": 2949,
      "سوب": 2950,
      "##کّ": 2951,
      "مست": 2952,
      "وھدے": 2953,
      "بگ": 2954,
      "##el": 2955,
      "##گیں": 2956,
      "دُ": 2957,
      "سو": 2958,
      "آیانی": 2959,
      "کھ": 2960,
      "اِیت": 2961,
      "آد": 2962,
      "سب": 2963,
      "کُتگ": 2964,
      "لشکر": 2965,
      "آزمانک": 2966,
      "##il": 2967,
      "پیم": 2968,
      "ھست": 2969,
      "ھیال": 2970,
      "دنت": 2971,
      "واست": 2972,
      "th": 2973,
      "گُڑا": 2974,
      "نم": 2975,
      "زمین": 2976,
      "هم": 2977,
      "##ْر": 2978,
      "واب": 2979,
      "بَ": 2980,
      "سَ": 2981,
      "شم": 2982,
      "جار": 2983,
      "##وچی": 2984,
      "گیشتر": 2985,
      "##اھی": 2986,
      "مو": 2987,
      "##کانی": 2988,
      "اُرش": 2989,
      "##رام": 2990,
      "##وی": 2991,
      "دیوان": 2992,
      "بلکیں": 2993,
      "##ستگیں": 2994,
      "راجی": 2995,
      "##گءَ": 2996,
      "##شکہ": 2997,
      "شع": 2998,
      "##پی": 2999,
      "بال": 3000,
      "##ّہ": 3001,
      "آر": 3002,
      "##ہر": 3003,
      "باب": 3004,
      "##مانی": 3005,
      "بن": 3006,
      "شھ": 3007,
      "آجو": 3008,
      "ناد": 3009,
      "گا": 3010,
      "سُ": 3011,
      "##کے": 3012,
      "پت": 3013,
      "جتگ": 3014,
      "عم": 3015,
      "ڈاک": 3016,
      "چیر": 3017,
      "اش": 3018,
      "آئیءِ": 3019,
      "##ent": 3020,
      "##ec": 3021,
      "##ھیں": 3022,
      "مَ": 3023,
      "##بد": 3024,
      "وڑیں": 3025,
      "سرپد": 3026,
      "گوٛ": 3027,
      "زھر": 3028,
      "بزاں": 3029,
      "سرءَ": 3030,
      "وس": 3031,
      "رج": 3032,
      "##امی": 3033,
      "##نے": 3034,
      "بیگ": 3035,
      "##ستگ": 3036,
      "بِ": 3037,
      "پری": 3038,
      "##رم": 3039,
      "##ورا": 3040,
      "بان": 3041,
      "##انیں": 3042,
      "##ینی": 3043,
      "بُر": 3044,
      "##رانی": 3045,
      "##دگ": 3046,
      "##تک": 3047,
      "##ُُ": 3048,
      "یکے": 3049,
      "##نٹ": 3050,
      "##لوک": 3051,
      "گال": 3052,
      "کناں": 3053,
      "انسان": 3054,
      "چوش": 3055,
      "بلئے": 3056,
      "وان": 3057,
      "گون": 3058,
      "نود": 3059,
      "##نتگ": 3060,
      "جھ": 3061,
      "##اتی": 3062,
      "##وٹ": 3063,
      "ڈاکٹر": 3064,
      "گش": 3065,
      "رِ": 3066,
      "##گت": 3067,
      "##st": 3068,
      "##رءَ": 3069,
      "##گار": 3070,
      "منا": 3071,
      "این": 3072,
      "تیر": 3073,
      "##ئیل": 3074,
      "آئ": 3075,
      "مرچی": 3076,
      "ادار": 3077,
      "جم": 3078,
      "زال": 3079,
      "کرا": 3080,
      "اِے": 3081,
      "##اھیں": 3082,
      "حال": 3083,
      "ملک": 3084,
      "سرجمیں": 3085,
      "انگت": 3086,
      "شال": 3087,
      "گندگ": 3088,
      "اولی": 3089,
      "##تے": 3090,
      "چیزے": 3091,
      "##ھاں": 3092,
      "##am": 3093,
      "تب": 3094,
      "لی": 3095,
      "رھ": 3096,
      "مروچی": 3097,
      "برجاہ": 3098,
      "دیما": 3099,
      "##کان": 3100,
      "کرد": 3101,
      "رجانک": 3102,
      "مردمے": 3103,
      "میان": 3104,
      "دگ": 3105,
      "پوسٹ": 3106,
      "نگ": 3107,
      "##ur": 3108,
      "پمی": 3109,
      "آئیءَ": 3110,
      "بنی": 3111,
      "##تیں": 3112,
      "دَ": 3113,
      "جند": 3114,
      "##وشم": 3115,
      "گار": 3116,
      "##ادر": 3117,
      "محمد": 3118,
      "ورنا": 3119,
      "جاور": 3120,
      "بندات": 3121,
      "ئُُ": 3122,
      "راست": 3123,
      "اتکگ": 3124,
      "کپتگ": 3125,
      "درد": 3126,
      "ابید": 3127,
      "##et": 3128,
      "##ّے": 3129,
      "##قی": 3130,
      "پنج": 3131,
      "نبشتانک": 3132,
      "##ربر": 3133,
      "##نک": 3134,
      "گوستگیں": 3135,
      "ایوک": 3136,
      "پار": 3137,
      "##وہ": 3138,
      "پَ": 3139,
      "سرم": 3140,
      "سیاسی": 3141,
      "اپ": 3142,
      "##جام": 3143,
      "##لے": 3144,
      "حیال": 3145,
      "انگ": 3146,
      "##ad": 3147,
      "بوگ": 3148,
      "شاعری": 3149,
      "##رین": 3150,
      "مراد": 3151,
      "شاہ": 3152,
      "##کم": 3153,
      "##گیری": 3154,
      "پج": 3155,
      "پچ": 3156,
      "دارگ": 3157,
      "میتگ": 3158,
      "##ol": 3159,
      "دپ": 3160,
      "##ac": 3161,
      "پھ": 3162,
      "برے": 3163,
      "بنج": 3164,
      "##سر": 3165,
      "رہ": 3166,
      "زھرشانی": 3167,
      "رَ": 3168,
      "حس": 3169,
      "گڈ": 3170,
      "##فر": 3171,
      "بدل": 3172,
      "##ئگ": 3173,
      "##ندی": 3174,
      "کِ": 3175,
      "دز": 3176,
      "پیر": 3177,
      "##نز": 3178,
      "بابت": 3179,
      "تاں": 3180,
      "چه": 3181,
      "بھ": 3182,
      "بھر": 3183,
      "گاڑی": 3184,
      "##کت": 3185,
      "##ئیت": 3186,
      "اند": 3187,
      "was": 3188,
      "##بار": 3189,
      "##ئیگ": 3190,
      "ری": 3191,
      "بکن": 3192,
      "##بول": 3193,
      "##ro": 3194,
      "##لس": 3195,
      "اود": 3196,
      "گشتگ": 3197,
      "عبد": 3198,
      "کسے": 3199,
      "بیتگیں": 3200,
      "دری": 3201,
      "کپت": 3202,
      "پُر": 3203,
      "چک": 3204,
      "پٹ": 3205,
      "نوک": 3206,
      "گوشگ": 3207,
      "منّ": 3208,
      "##نس": 3209,
      "آجوئی": 3210,
      "نش": 3211,
      "گوشت": 3212,
      "سپ": 3213,
      "سرمچار": 3214,
      "##دیم": 3215,
      "سبب": 3216,
      "لہ": 3217,
      "تک": 3218,
      "##گے": 3219,
      "##ارا": 3220,
      "اح": 3221,
      "##راب": 3222,
      "چُ": 3223,
      "شی": 3224,
      "##شون": 3225,
      "کراچی": 3226,
      "##گانی": 3227,
      "The": 3228,
      "ہچ": 3229,
      "کوہ": 3230,
      "زورا": 3231,
      "لیکہ": 3232,
      "گشت": 3233,
      "پرچا": 3234,
      "نزیک": 3235,
      "##ورت": 3236,
      "مج": 3237,
      "بیران": 3238,
      "##وز": 3239,
      "ریا": 3240,
      "on": 3241,
      "سرد": 3242,
      "یل": 3243,
      "آیاں": 3244,
      "کدی": 3245,
      "پنچ": 3246,
      "##چہ": 3247,
      "جنین": 3248,
      "عبدال": 3249,
      "چُک": 3250,
      "بوتگیں": 3251,
      "رِد": 3252,
      "##َگ": 3253,
      "##داری": 3254,
      "پل": 3255,
      "اتک": 3256,
      "زی": 3257,
      "نودربر": 3258,
      "##انکہ": 3259,
      "##نچو": 3260,
      "##نگی": 3261,
      "کمی": 3262,
      "ایم": 3263,
      "##سری": 3264,
      "پشت": 3265,
      "##ly": 3266,
      "درست": 3267,
      "آباد": 3268,
      "اتنت": 3269,
      "کور": 3270,
      "##رب": 3271,
      "جُست": 3272,
      "آئرا": 3273,
      "ئیں": 3274,
      "ایشانی": 3275,
      "انچیں": 3276,
      "ھند": 3277,
      "##اکہ": 3278,
      "ہو": 3279,
      "جتا": 3280,
      "##اح": 3281,
      "##شیں": 3282,
      "اوشت": 3283,
      "اگ": 3284,
      "سنگ": 3285,
      "##پتر": 3286,
      "##دان": 3287,
      "اِتگ": 3288,
      "اھ": 3289,
      "##ir": 3290,
      "##le": 3291,
      "اِش": 3292,
      "##ژمن": 3293,
      "نے": 3294,
      "##بل": 3295,
      "##تا": 3296,
      "راجد": 3297,
      "جست": 3298,
      "رسانک": 3299,
      "##ہی": 3300,
      "##ّا": 3301,
      "for": 3302,
      "گور": 3303,
      "سیم": 3304,
      "سلاہ": 3305,
      "نشتگ": 3306,
      "##نیں": 3307,
      "شھر": 3308,
      "##iv": 3309,
      "بہر": 3310,
      "مال": 3311,
      "واھ": 3312,
      "##ِت": 3313,
      "توک": 3314,
      "جارکش": 3315,
      "##ھے": 3316,
      "##ّیں": 3317,
      "##شتی": 3318,
      "##یشن": 3319,
      "##کنت": 3320,
      "په": 3321,
      "ایل": 3322,
      "کجام": 3323,
      "جوان": 3324,
      "چری": 3325,
      "شما": 3326,
      "گچ": 3327,
      "##فی": 3328,
      "کچ": 3329,
      "شو": 3330,
      "سد": 3331,
      "یات": 3332,
      "انچو": 3333,
      "ہیں": 3334,
      "نس": 3335,
      "زمانگ": 3336,
      "کارمرز": 3337,
      "وز": 3338,
      "زُ": 3339,
      "##ter": 3340,
      "کیت": 3341,
      "مول": 3342,
      "##id": 3343,
      "اف": 3344,
      "##کا": 3345,
      "شائ": 3346,
      "جھد": 3347,
      "سید": 3348,
      "چست": 3349,
      "دروشم": 3350,
      "گُش": 3351,
      "##ندیں": 3352,
      "پولیس": 3353,
      "##ونی": 3354,
      "سم": 3355,
      "##ئَ": 3356,
      "##ot": 3357,
      "چشکہ": 3358,
      "##ردو": 3359,
      "##ig": 3360,
      "ٹی": 3361,
      "ایک": 3362,
      "جاگہ": 3363,
      "شھید": 3364,
      "نظ": 3365,
      "سِ": 3366,
      "جتائیں": 3367,
      "ایس": 3368,
      "##اچ": 3369,
      "بیا": 3370,
      "کوش": 3371,
      "##پتگ": 3372,
      "##شکا": 3373,
      "زالبول": 3374,
      "##یسی": 3375,
      "راستی": 3376,
      "as": 3377,
      "انسانی": 3378,
      "ھاتر": 3379,
      "واستا": 3380,
      "دیر": 3381,
      "##کاں": 3382,
      "زندگی": 3383,
      "##اض": 3384,
      "پیسر": 3385,
      "##راھی": 3386,
      "سروک": 3387,
      "چَ": 3388,
      "تپ": 3389,
      "گپت": 3390,
      "##اه": 3391,
      "##ow": 3392,
      "باد": 3393,
      "##بیت": 3394,
      "کمک": 3395,
      "تران": 3396,
      "##گوش": 3397,
      "ناز": 3398,
      "مدام": 3399,
      "اسلام": 3400,
      "ھمیش": 3401,
      "بیست": 3402,
      "شیر": 3403,
      "دیست": 3404,
      "ڈول": 3405,
      "##ریشن": 3406,
      "بیان": 3407,
      "گپّ": 3408,
      "##واز": 3409,
      "st": 3410,
      "اشی": 3411,
      "سہ": 3412,
      "ساھ": 3413,
      "چِ": 3414,
      "ودی": 3415,
      "مھر": 3416,
      "روگ": 3417,
      "داد": 3418,
      "فار": 3419,
      "کیچ": 3420,
      "##ندگ": 3421,
      "سرکار": 3422,
      "زندگ": 3423,
      "##ith": 3424,
      "##ّگ": 3425,
      "باس": 3426,
      "گُشت": 3427,
      "وہ": 3428,
      "##ay": 3429,
      "سما": 3430,
      "گن": 3431,
      "زوران": 3432,
      "برات": 3433,
      "##رائی": 3434,
      "درگت": 3435,
      "ارز": 3436,
      "##em": 3437,
      "ھبر": 3438,
      "مہر": 3439,
      "چین": 3440,
      "گری": 3441,
      "##ئِ": 3442,
      "تل": 3443,
      "جَ": 3444,
      "واک": 3445,
      "ساچ": 3446,
      "سند": 3447,
      "آدم": 3448,
      "##اہی": 3449,
      "##im": 3450,
      "##تاک": 3451,
      "##لیں": 3452,
      "##ut": 3453,
      "سگ": 3454,
      "ایران": 3455,
      "جیڑہ": 3456,
      "کساس": 3457,
      "##ھا": 3458,
      "چریشی": 3459,
      "روک": 3460,
      "##زا": 3461,
      "ماھ": 3462,
      "واری": 3463,
      "##رہ": 3464,
      "وئیل": 3465,
      "ساہ": 3466,
      "##ژن": 3467,
      "علی": 3468,
      "جاھ": 3469,
      "گام": 3470,
      "جہد": 3471,
      "لھت": 3472,
      "بست": 3473,
      "تُر": 3474,
      "##ation": 3475,
      "چارگ": 3476,
      "شت": 3477,
      "آرگ": 3478,
      "آن": 3479,
      "رُ": 3480,
      "نِ": 3481,
      "دژمن": 3482,
      "ھُ": 3483,
      "سردار": 3484,
      "لگ": 3485,
      "کنوک": 3486,
      "##راں": 3487,
      "دود": 3488,
      "##اف": 3489,
      "##ێن": 3490,
      "##اص": 3491,
      "تاوان": 3492,
      "be": 3493,
      "تم": 3494,
      "زوراکی": 3495,
      "##مل": 3496,
      "بچار": 3497,
      "شُت": 3498,
      "##ندہ": 3499,
      "that": 3500,
      "ادا": 3501,
      "بچک": 3502,
      "with": 3503,
      "زورانسری": 3504,
      "مری": 3505,
      "مارشت": 3506,
      "کسہ": 3507,
      "ھس": 3508,
      "##ماش": 3509,
      "کھول": 3510,
      "دیمرو": 3511,
      "مِ": 3512,
      "آسر": 3513,
      "##یاں": 3514,
      "وھدیکہ": 3515,
      "مستریں": 3516,
      "بازار": 3517,
      "چھ": 3518,
      "دوئیں": 3519,
      "یہ": 3520,
      "نشانگ": 3521,
      "اسک": 3522,
      "گران": 3523,
      "کسانیں": 3524,
      "ناں": 3525,
      "منءَ": 3526,
      "روان": 3527,
      "اچ": 3528,
      "پجار": 3529,
      "زہر": 3530,
      "ناک": 3531,
      "پِ": 3532,
      "##راگ": 3533,
      "گْوشت": 3534,
      "زہ": 3535,
      "##یران": 3536,
      "لس": 3537,
      "سلام": 3538,
      "مھلوک": 3539,
      "تھا": 3540,
      "اتگ": 3541,
      "##بو": 3542,
      "نه": 3543,
      "##ّاں": 3544,
      "بندیں": 3545,
      "گڈا": 3546,
      "##اق": 3547,
      "##یلہ": 3548,
      "از": 3549,
      "##بہ": 3550,
      "##گریں": 3551,
      "##اج": 3552,
      "دہ": 3553,
      "##تکگ": 3554,
      "بلک": 3555,
      "نیام": 3556,
      "##تل": 3557,
      "کاری": 3558,
      "ہند": 3559,
      "بچ": 3560,
      "آما": 3561,
      "گوادر": 3562,
      "کنیں": 3563,
      "وزیر": 3564,
      "الم": 3565,
      "کارمند": 3566,
      "##است": 3567,
      "##لک": 3568,
      "داشت": 3569,
      "ساری": 3570,
      "آہانی": 3571,
      "##رتگ": 3572,
      "دْر": 3573,
      "##گان": 3574,
      "تاکدیم": 3575,
      "بُن": 3576,
      "دراھیں": 3577,
      "گہ": 3578,
      "لا": 3579,
      "لیک": 3580,
      "بوھگ": 3581,
      "کان": 3582,
      "##مت": 3583,
      "به": 3584,
      "مرگ": 3585,
      "داریت": 3586,
      "کجا": 3587,
      "is": 3588,
      "##ھار": 3589,
      "آماچ": 3590,
      "فر": 3591,
      "ورگ": 3592,
      "تربت": 3593,
      "##ers": 3594,
      "دلگوش": 3595,
      "وڑا": 3596,
      "کارے": 3597,
      "##مبر": 3598,
      "کُرت": 3599,
      "##us": 3600,
      "ڈن": 3601,
      "##گواری": 3602,
      "رب": 3603,
      "جنت": 3604,
      "پم": 3605,
      "زاناں": 3606,
      "##ts": 3607,
      "ازم": 3608,
      "بخ": 3609,
      "##ےءَ": 3610,
      "ھزار": 3611,
      "##شا": 3612,
      "ھلاپ": 3613,
      "##مہ": 3614,
      "re": 3615,
      "##ارت": 3616,
      "زھگ": 3617,
      "شعر": 3618,
      "ھمک": 3619,
      "wh": 3620,
      "##کل": 3621,
      "امری": 3622,
      "چاگردی": 3623,
      "برتگ": 3624,
      "##وانی": 3625,
      "گَ": 3626,
      "بات": 3627,
      "دزگ": 3628,
      "##اسیں": 3629,
      "by": 3630,
      "لب": 3631,
      "##ul": 3632,
      "مق": 3633,
      "##کوم": 3634,
      "ساز": 3635,
      "آھانی": 3636,
      "##ــــ": 3637,
      "##زان": 3638,
      "اتاں": 3639,
      "شاعر": 3640,
      "##زل": 3641,
      "تام": 3642,
      "گوازی": 3643,
      "al": 3644,
      "ترس": 3645,
      "##ch": 3646,
      "چاپ": 3647,
      "شری": 3648,
      "مک": 3649,
      "سرمچاراں": 3650,
      "داشتگ": 3651,
      "تیرگواری": 3652,
      "لاش": 3653,
      "##وکی": 3654,
      "گپتگ": 3655,
      "##انءِ": 3656,
      "جنک": 3657,
      "اسپ": 3658,
      "con": 3659,
      "##ce": 3660,
      "لوٹیت": 3661,
      "وہدے": 3662,
      "انگری": 3663,
      "تاری": 3664,
      "روچے": 3665,
      "ھالانی": 3666,
      "سائ": 3667,
      "برگ": 3668,
      "##یگیں": 3669,
      "اھوال": 3670,
      "درک": 3671,
      "##انا": 3672,
      "کئے": 3673,
      "##اناں": 3674,
      "بنگ": 3675,
      "ھاترا": 3676,
      "##ver": 3677,
      "پروش": 3678,
      "شش": 3679,
      "ریاست": 3680,
      "##فت": 3681,
      "##مے": 3682,
      "بج": 3683,
      "باریں": 3684,
      "##یے": 3685,
      "##اریں": 3686,
      "تع": 3687,
      "##ئٹ": 3688,
      "تچ": 3689,
      "##رات": 3690,
      "گرگ": 3691,
      "یلہ": 3692,
      "##یلو": 3693,
      "نیک": 3694,
      "کنوکیں": 3695,
      "ھلاس": 3696,
      "راجدپتر": 3697,
      "##and": 3698,
      "فلس": 3699,
      "##ینت": 3700,
      "نص": 3701,
      "زمہ": 3702,
      "##os": 3703,
      "حق": 3704,
      "اص": 3705,
      "زورگ": 3706,
      "قوم": 3707,
      "سیاست": 3708,
      "##لو": 3709,
      "فی": 3710,
      "ہوار": 3711,
      "ملکی": 3712,
      "اول": 3713,
      "at": 3714,
      "آش": 3715,
      "مُر": 3716,
      "##وتی": 3717,
      "جوانیں": 3718,
      "##عت": 3719,
      "دیستگ": 3720,
      "زیب": 3721,
      "##ورس": 3722,
      "##دام": 3723,
      "بادش": 3724,
      "پرو": 3725,
      "گُڈ": 3726,
      "##دے": 3727,
      "##کھ": 3728,
      "##ارے": 3729,
      "دِ": 3730,
      "مش": 3731,
      "دُر": 3732,
      "کاروان": 3733,
      "گیر": 3734,
      "##جر": 3735,
      "##گیج": 3736,
      "گرد": 3737,
      "اخ": 3738,
      "##عہ": 3739,
      "دمان": 3740,
      "ماس": 3741,
      "##فہ": 3742,
      "کشگ": 3743,
      "تاریخ": 3744,
      "##ّت": 3745,
      "ارش": 3746,
      "##ونک": 3747,
      "گچین": 3748,
      "##له": 3749,
      "##ain": 3750,
      "باں": 3751,
      "ھَ": 3752,
      "رسانکدر": 3753,
      "کلات": 3754,
      "##گور": 3755,
      "اک": 3756,
      "##اتر": 3757,
      "جِ": 3758,
      "ھور": 3759,
      "##ag": 3760,
      "زھ": 3761,
      "گشگ": 3762,
      "fr": 3763,
      "##نام": 3764,
      "##جود": 3765,
      "مشک": 3766,
      "ھو": 3767,
      "بھی": 3768,
      "گْوشتگ": 3769,
      "بکنت": 3770,
      "بلکنا": 3771,
      "##ادگ": 3772,
      "##her": 3773,
      "ته": 3774,
      "##با": 3775,
      "پال": 3776,
      "an": 3777,
      "بام": 3778,
      "اید": 3779,
      "سیادی": 3780,
      "##حر": 3781,
      "دراج": 3782,
      "دھ": 3783,
      "##av": 3784,
      "##کومت": 3785,
      "##اکر": 3786,
      "بگیری": 3787,
      "##um": 3788,
      "ہمی": 3789,
      "##نہ": 3790,
      "##ێں": 3791,
      "گوئ": 3792,
      "##دارگ": 3793,
      "کری": 3794,
      "پا": 3795,
      "##ئیر": 3796,
      "##th": 3797,
      "زوت": 3798,
      "##مبے": 3799,
      "بیگواھیں": 3800,
      "##ٹّ": 3801,
      "##est": 3802,
      "پید": 3803,
      "أنت": 3804,
      "زرتگ": 3805,
      "ھنچ": 3806,
      "##یدگ": 3807,
      "##لاں": 3808,
      "جون": 3809,
      "##ستیں": 3810,
      "##وریں": 3811,
      "اسٹ": 3812,
      "##نائی": 3813,
      "##اتگ": 3814,
      "##رس": 3815,
      "##اراں": 3816,
      "داب": 3817,
      "دین": 3818,
      "##ماں": 3819,
      "رح": 3820,
      "الّ": 3821,
      "تح": 3822,
      "کنگی": 3823,
      "آزات": 3824,
      "بلوچانی": 3825,
      "کرتگیں": 3826,
      "##یانی": 3827,
      "پمیشکا": 3828,
      "##انہ": 3829,
      "آہاں": 3830,
      "تال": 3831,
      "واہ": 3832,
      "اہ": 3833,
      "شاد": 3834,
      "موس": 3835,
      "##پور": 3836,
      "زیر": 3837,
      "زُر": 3838,
      "کوئٹ": 3839,
      "مہلوک": 3840,
      "ارس": 3841,
      "نبشتگ": 3842,
      "##وگیں": 3843,
      "ورن": 3844,
      "عل": 3845,
      "##داریں": 3846,
      "##پان": 3847,
      "ادارہ": 3848,
      "##ھاز": 3849,
      "زہرشانی": 3850,
      "آؤ": 3851,
      "دئیگ": 3852,
      "##ینک": 3853,
      "دْ": 3854,
      "زندءِ": 3855,
      "نہیں": 3856,
      "کوئٹہ": 3857,
      "ایرانی": 3858,
      "سیاہ": 3859,
      "##اِ": 3860,
      "ڈگار": 3861,
      "شَ": 3862,
      "احمد": 3863,
      "لہتیں": 3864,
      "##یلی": 3865,
      "##ودی": 3866,
      "کمیٹی": 3867,
      "##od": 3868,
      "چوں": 3869,
      "##اَ": 3870,
      "نیمگا": 3871,
      "برز": 3872,
      "اج": 3873,
      "جہل": 3874,
      "پارٹی": 3875,
      "##ّو": 3876,
      "ئی": 3877,
      "دزگیر": 3878,
      "ٹپی": 3879,
      "ٹپ": 3880,
      "نبیس": 3881,
      "his": 3882,
      "گس": 3883,
      "کننت": 3884,
      "ملا": 3885,
      "بُو": 3886,
      "##ئر": 3887,
      "پیدا": 3888,
      "پنجگور": 3889,
      "کماش": 3890,
      "کند": 3891,
      "علم": 3892,
      "دے": 3893,
      "گدار": 3894,
      "##ومی": 3895,
      "##جال": 3896,
      "بُرز": 3897,
      "قر": 3898,
      "سار": 3899,
      "##شتہ": 3900,
      "ایشاں": 3901,
      "##انز": 3902,
      "##تین": 3903,
      "زورگریں": 3904,
      "واج": 3905,
      "سَے": 3906,
      "سبز": 3907,
      "تن": 3908,
      "لبزانکی": 3909,
      "عمل": 3910,
      "تَ": 3911,
      "وارت": 3912,
      "شرگ": 3913,
      "پُشت": 3914,
      "پیداک": 3915,
      "ھون": 3916,
      "لبریشن": 3917,
      "بندی": 3918,
      "بنیاد": 3919,
      "##ونا": 3920,
      "مند": 3921,
      "##میں": 3922,
      "وتا": 3923,
      "##پر": 3924,
      "بارو": 3925,
      "کال": 3926,
      "شہر": 3927,
      "پگر": 3928,
      "وانوک": 3929,
      "اشک": 3930,
      "جل": 3931,
      "وال": 3932,
      "##op": 3933,
      "تُ": 3934,
      "آھاں": 3935,
      "لَ": 3936,
      "شوھاز": 3937,
      "حبر": 3938,
      "فو": 3939,
      "آیگ": 3940,
      "ھساب": 3941,
      "رھبند": 3942,
      "جس": 3943,
      "زب": 3944,
      "##ٹری": 3945,
      "from": 3946,
      "کاراں": 3947,
      "رک": 3948,
      "##ess": 3949,
      "تچک": 3950,
      "##قت": 3951,
      "کئیت": 3952,
      "شاھ": 3953,
      "تُرس": 3954,
      "ایف": 3955,
      "دیمءَ": 3956,
      "##ئو": 3957,
      "بوہ": 3958,
      "یکیں": 3959,
      "##ھال": 3960,
      "زانتکار": 3961,
      "نور": 3962,
      "واستہ": 3963,
      "زاھ": 3964,
      "پکر": 3965,
      "وه": 3966,
      "هما": 3967,
      "##ّر": 3968,
      "##ri": 3969,
      "##ثر": 3970,
      "حکومت": 3971,
      "شریں": 3972,
      "دانکہ": 3973,
      "وھدی": 3974,
      "اُم": 3975,
      "روت": 3976,
      "com": 3977,
      "اردو": 3978,
      "##ct": 3979,
      "نویس": 3980,
      "##قہ": 3981,
      "هر": 3982,
      "لاپ": 3983,
      "گم": 3984,
      "عط": 3985,
      "##ندے": 3986,
      "روچاں": 3987,
      "##ائل": 3988,
      "گوات": 3989,
      "ھپت": 3990,
      "ہی": 3991,
      "یون": 3992,
      "ند": 3993,
      "درس": 3994,
      "مت": 3995,
      "کارانی": 3996,
      "باسک": 3997,
      "دان": 3998,
      "علا": 3999,
      "##لیم": 4000,
      "کسان": 4001,
      "##وپ": 4002,
      "##خت": 4003,
      "سرپدی": 4004,
      "##un": 4005,
      "پمیشا": 4006,
      "نَ": 4007,
      "شائری": 4008,
      "##فا": 4009,
      "رنگیں": 4010,
      "شتگ": 4011,
      "زدگ": 4012,
      "شور": 4013,
      "ساحر": 4014,
      "سرکاری": 4015,
      "کُرتگ": 4016,
      "بخش": 4017,
      "##ap": 4018,
      "وشی": 4019,
      "##واں": 4020,
      "ئےِ": 4021,
      "he": 4022,
      "سیک": 4023,
      "دمگاں": 4024,
      "چپ": 4025,
      "دگر": 4026,
      "درواز": 4027,
      "ٹولی": 4028,
      "##پتی": 4029,
      "رسول": 4030,
      "پیلو": 4031,
      "سفر": 4032,
      "سئے": 4033,
      "شک": 4034,
      "پاس": 4035,
      "زُبان": 4036,
      "زِ": 4037,
      "فلسفہ": 4038,
      "شہید": 4039,
      "اُست": 4040,
      "##جان": 4041,
      "قب": 4042,
      "بستگ": 4043,
      "گھ": 4044,
      "کیس": 4045,
      "##ابی": 4046,
      "میار": 4047,
      "##بندی": 4048,
      "##قل": 4049,
      "##اھاں": 4050,
      "بزانت": 4051,
      "ارو": 4052,
      "بنجاھی": 4053,
      "##ies": 4054,
      "##ریچ": 4055,
      "چوک": 4056,
      "چیا": 4057,
      "##نگیں": 4058,
      "ایدگہ": 4059,
      "pro": 4060,
      "همے": 4061,
      "واتر": 4062,
      "استاد": 4063,
      "پڑ": 4064,
      "سام": 4065,
      "مالی": 4066,
      "دوستی": 4067,
      "بکش": 4068,
      "##یہ": 4069,
      "##رح": 4070,
      "مانا": 4071,
      "مذ": 4072,
      "##منند": 4073,
      "پدر": 4074,
      "ارزشت": 4075,
      "جنی": 4076,
      "رؤ": 4077,
      "وی": 4078,
      "سنگتاں": 4079,
      "گمان": 4080,
      "کنگا": 4081,
      "##لان": 4082,
      "ھشت": 4083,
      "مبار": 4084,
      "درور": 4085,
      "بِہ": 4086,
      "اِیں": 4087,
      "نشان": 4088,
      "رھشون": 4089,
      "##ere": 4090,
      "بمب": 4091,
      "نادراہ": 4092,
      "##ریک": 4093,
      "اڑ": 4094,
      "جنگی": 4095,
      "وڈ": 4096,
      "سوار": 4097,
      "##ےءِ": 4098,
      "لال": 4099,
      "کٹ": 4100,
      "آف": 4101,
      "نوش": 4102,
      "##ist": 4103,
      "الّم": 4104,
      "ہزار": 4105,
      "جنجال": 4106,
      "##پار": 4107,
      "##چر": 4108,
      "##ڈر": 4109,
      "##منٹ": 4110,
      "نپ": 4111,
      "دمگی": 4112,
      "نُ": 4113,
      "معنا": 4114,
      "##دات": 4115,
      "ہل": 4116,
      "کیا": 4117,
      "سپر": 4118,
      "واھگ": 4119,
      "قد": 4120,
      "دیمروئی": 4121,
      "لچہ": 4122,
      "##ھب": 4123,
      "##اکی": 4124,
      "اکی": 4125,
      "##زہ": 4126,
      "وتءَ": 4127,
      "کوٹی": 4128,
      "مکران": 4129,
      "بانک": 4130,
      "آزمان": 4131,
      "یار": 4132,
      "عمر": 4133,
      "ست": 4134,
      "عر": 4135,
      "##گل": 4136,
      "de": 4137,
      "مُدام": 4138,
      "su": 4139,
      "وائ": 4140,
      "##مید": 4141,
      "##یرہ": 4142,
      "لٹ": 4143,
      "برجم": 4144,
      "کہول": 4145,
      "مراگ": 4146,
      "ناشن": 4147,
      "الله": 4148,
      "دریا": 4149,
      "##اضل": 4150,
      "##ear": 4151,
      "اکیڈ": 4152,
      "##if": 4153,
      "برو": 4154,
      "پریس": 4155,
      "##نات": 4156,
      "گُشتگ": 4157,
      "In": 4158,
      "مرچ": 4159,
      "##ونگ": 4160,
      "اکس": 4161,
      "##ردی": 4162,
      "چیریں": 4163,
      "غلام": 4164,
      "چونیں": 4165,
      "روکپتی": 4166,
      "کارست": 4167,
      "آرمی": 4168,
      "نشت": 4169,
      "چشیں": 4170,
      "چن": 4171,
      "##گءِ": 4172,
      "مه": 4173,
      "مچ": 4174,
      "##ill": 4175,
      "گُل": 4176,
      "رست": 4177,
      "##احب": 4178,
      "بیڑ": 4179,
      "بش": 4180,
      "##انے": 4181,
      "کول": 4182,
      "##ew": 4183,
      "##ُل": 4184,
      "پرس": 4185,
      "ھاک": 4186,
      "##صر": 4187,
      "تج": 4188,
      "پالیسی": 4189,
      "کپیت": 4190,
      "حساب": 4191,
      "لھتے": 4192,
      "سرک": 4193,
      "آتک": 4194,
      "ناکو": 4195,
      "ہمیش": 4196,
      "ودار": 4197,
      "اسکول": 4198,
      "باید": 4199,
      "were": 4200,
      "مُلّ": 4201,
      "سیر": 4202,
      "چا": 4203,
      "##پورٹ": 4204,
      "##ُم": 4205,
      "پش": 4206,
      "##ارگ": 4207,
      "##ong": 4208,
      "چوشیں": 4209,
      "##ْو": 4210,
      "##ab": 4211,
      "چمّ": 4212,
      "##جمی": 4213,
      "##ld": 4214,
      "سیمی": 4215,
      "انچوش": 4216,
      "##ak": 4217,
      "حدا": 4218,
      "لچ": 4219,
      "مئی": 4220,
      "کنائی": 4221,
      "##زمین": 4222,
      "نیمگءَ": 4223,
      "جُھد": 4224,
      "##ort": 4225,
      "##all": 4226,
      "لُ": 4227,
      "ہست": 4228,
      "آشوب": 4229,
      "عکس": 4230,
      "گز": 4231,
      "درچک": 4232,
      "تھنا": 4233,
      "##ناں": 4234,
      "درشانی": 4235,
      "مث": 4236,
      "تاب": 4237,
      "سری": 4238,
      "زرد": 4239,
      "##وبہ": 4240,
      "کوھ": 4241,
      "##پانی": 4242,
      "راھ": 4243,
      "قص": 4244,
      "دَر": 4245,
      "بندوک": 4246,
      "##igh": 4247,
      "بوتیں": 4248,
      "کُشگ": 4249,
      "##ect": 4250,
      "وپ": 4251,
      "##وئی": 4252,
      "گپے": 4253,
      "بادشاہ": 4254,
      "اِتنت": 4255,
      "##oc": 4256,
      "##ate": 4257,
      "##ard": 4258,
      "ناشناسیں": 4259,
      "بندیگ": 4260,
      "کتگیں": 4261,
      "لھتیں": 4262,
      "پوش": 4263,
      "سرب": 4264,
      "کاگ": 4265,
      "ابد": 4266,
      "زیم": 4267,
      "صاحب": 4268,
      "درآ": 4269,
      "پند": 4270,
      "اکیڈمی": 4271,
      "بدلی": 4272,
      "بستار": 4273,
      "##پد": 4274,
      "وانی": 4275,
      "##ich": 4276,
      "ساچشت": 4277,
      "پُل": 4278,
      "ڈیھ": 4279,
      "##نر": 4280,
      "it": 4281,
      "بگٹی": 4282,
      "ویل": 4283,
      "منت": 4284,
      "یکجاہ": 4285,
      "ٹیک": 4286,
      "##یدی": 4287,
      "ھدا": 4288,
      "se": 4289,
      "شرت": 4290,
      "بنجل": 4291,
      "تہنا": 4292,
      "چماں": 4293,
      "گْور": 4294,
      "اودا": 4295,
      "مٹ": 4296,
      "نان": 4297,
      "یاد": 4298,
      "ch": 4299,
      "or": 4300,
      "##یشنل": 4301,
      "بنا": 4302,
      "بگر": 4303,
      "فیص": 4304,
      "ریک": 4305,
      "##یناں": 4306,
      "کام": 4307,
      "نیٹ": 4308,
      "گیشیں": 4309,
      "امریکہ": 4310,
      "کد": 4311,
      "شرگداری": 4312,
      "تیاب": 4313,
      "ساڑی": 4314,
      "تانکہ": 4315,
      "کشی": 4316,
      "شمئے": 4317,
      "ردءَ": 4318,
      "مھمد": 4319,
      "ہمراہ": 4320,
      "ھمراہ": 4321,
      "ٹک": 4322,
      "##pp": 4323,
      "بوان": 4324,
      "##اشمی": 4325,
      "ھیر": 4326,
      "جہان": 4327,
      "##امیں": 4328,
      "روا": 4329,
      "دشتی": 4330,
      "##اکیں": 4331,
      "کنگءَ": 4332,
      "کسی": 4333,
      "نق": 4334,
      "##واہ": 4335,
      "##باد": 4336,
      "##ud": 4337,
      "شِ": 4338,
      "گیشت": 4339,
      "کون": 4340,
      "اشانی": 4341,
      "##ber": 4342,
      "##ارانی": 4343,
      "گیشی": 4344,
      "ادب": 4345,
      "درائیں": 4346,
      "سائنس": 4347,
      "کُتگیں": 4348,
      "ءُُ": 4349,
      "بُوت": 4350,
      "چَہ": 4351,
      "##چو": 4352,
      "جنان": 4353,
      "فاضل": 4354,
      "ex": 4355,
      "شھد": 4356,
      "قاض": 4357,
      "##شر": 4358,
      "المی": 4359,
      "ھرچ": 4360,
      "میڈ": 4361,
      "کاینت": 4362,
      "##وڑ": 4363,
      "بئے": 4364,
      "##ْی": 4365,
      "یور": 4366,
      "یکش": 4367,
      "لائ": 4368,
      "##gh": 4369,
      "بوتاں": 4370,
      "##ity": 4371,
      "##تاں": 4372,
      "##ated": 4373,
      "رم": 4374,
      "کارگ": 4375,
      "مراگش": 4376,
      "##آئی": 4377,
      "##پگ": 4378,
      "##ۆچ": 4379,
      "##ّار": 4380,
      "داری": 4381,
      "وسلم": 4382,
      "##ـی": 4383,
      "کِس": 4384,
      "یونی": 4385,
      "دع": 4386,
      "##رف": 4387,
      "نندانک": 4388,
      "اِتاں": 4389,
      "دلءَ": 4390,
      "##ینے": 4391,
      "دستونک": 4392,
      "باور": 4393,
      "لوٹاں": 4394,
      "واکدار": 4395,
      "فارسی": 4396,
      "چش": 4397,
      "pl": 4398,
      "##ہیں": 4399,
      "##جن": 4400,
      "مُلّا": 4401,
      "سُر": 4402,
      "##یکل": 4403,
      "دیان": 4404,
      "##se": 4405,
      "##جھ": 4406,
      "قاضی": 4407,
      "##art": 4408,
      "نامیں": 4409,
      "##ame": 4410,
      "باندات": 4411,
      "جِند": 4412,
      "منزل": 4413,
      "رام": 4414,
      "##ورک": 4415,
      "آزاتی": 4416,
      "وڑے": 4417,
      "کنئگ": 4418,
      "##ؤر": 4419,
      "##ہب": 4420,
      "دروازگ": 4421,
      "##روچ": 4422,
      "خیال": 4423,
      "باروا": 4424,
      "نظام": 4425,
      "##اران": 4426,
      "رنگے": 4427,
      "سع": 4428,
      "شئیر": 4429,
      "بیگاہ": 4430,
      "بح": 4431,
      "سوج": 4432,
      "سوچ": 4433,
      "##ھان": 4434,
      "##تہ": 4435,
      "##لب": 4436,
      "بود": 4437,
      "##ive": 4438,
      "جام": 4439,
      "##لانی": 4440,
      "نسبت": 4441,
      "گوست": 4442,
      "مڑ": 4443,
      "کئی": 4444,
      "##لات": 4445,
      "حاص": 4446,
      "##رک": 4447,
      "##انکی": 4448,
      "مکن": 4449,
      "کاروب": 4450,
      "کمال": 4451,
      "پسو": 4452,
      "##حد": 4453,
      "پِر": 4454,
      "جاھے": 4455,
      "آنی": 4456,
      "وشیں": 4457,
      "تکنی": 4458,
      "درستیں": 4459,
      "سین": 4460,
      "ناول": 4461,
      "کشّ": 4462,
      "نیشنل": 4463,
      "##ورسٹی": 4464,
      "گنج": 4465,
      "گورا": 4466,
      "are": 4467,
      "ہمک": 4468,
      "##زاں": 4469,
      "پور": 4470,
      "زرمب": 4471,
      "جب": 4472,
      "لیب": 4473,
      "فکر": 4474,
      "##نّ": 4475,
      "چاران": 4476,
      "عطا": 4477,
      "##گری": 4478,
      "مرک": 4479,
      "اوگان": 4480,
      "میل": 4481,
      "ایپ": 4482,
      "البت": 4483,
      "دئی": 4484,
      "##تانی": 4485,
      "سندھ": 4486,
      "بدن": 4487,
      "میجر": 4488,
      "انگریزی": 4489,
      "اڈ": 4490,
      "sh": 4491,
      "وسیلہ": 4492,
      "##ant": 4493,
      "گامگیج": 4494,
      "##مین": 4495,
      "زرت": 4496,
      "بک": 4497,
      "##نگل": 4498,
      "رستگ": 4499,
      "جُنز": 4500,
      "ریاستی": 4501,
      "لک": 4502,
      "##ore": 4503,
      "جد": 4504,
      "گڈی": 4505,
      "##ٹس": 4506,
      "کمان": 4507,
      "##ack": 4508,
      "##شیت": 4509,
      "پرچاکہ": 4510,
      "##یات": 4511,
      "چاکر": 4512,
      "##وائی": 4513,
      "ھِ": 4514,
      "حسین": 4515,
      "چمانی": 4516,
      "کیم": 4517,
      "کِر": 4518,
      "آسرا": 4519,
      "آزاد": 4520,
      "دیوال": 4521,
      "اکبر": 4522,
      "مط": 4523,
      "موسم": 4524,
      "إنت": 4525,
      "وجود": 4526,
      "یونیورسٹی": 4527,
      "وک": 4528,
      "##داں": 4529,
      "##ادہ": 4530,
      "دام": 4531,
      "##بال": 4532,
      "دائ": 4533,
      "##رل": 4534,
      "##جد": 4535,
      "##یدہ": 4536,
      "##پہ": 4537,
      "##اترا": 4538,
      "اوشتاتگ": 4539,
      "شب": 4540,
      "##rou": 4541,
      "گڑ": 4542,
      "لگت": 4543,
      "آمی": 4544,
      "چل": 4545,
      "حاک": 4546,
      "خدا": 4547,
      "رسیت": 4548,
      "حمل": 4549,
      "منیر": 4550,
      "had": 4551,
      "بالی": 4552,
      "##ندر": 4553,
      "جز": 4554,
      "عز": 4555,
      "جھمنند": 4556,
      "##ازدہ": 4557,
      "گوٛشت": 4558,
      "داتگیں": 4559,
      "اندر": 4560,
      "بوئگ": 4561,
      "سلامتی": 4562,
      "گونڈ": 4563,
      "##برے": 4564,
      "روش": 4565,
      "شاری": 4566,
      "##مال": 4567,
      "بیگواہیں": 4568,
      "بیم": 4569,
      "نندوک": 4570,
      "جواب": 4571,
      "پوجی": 4572,
      "کشک": 4573,
      "##ڈّ": 4574,
      "نماز": 4575,
      "##زگار": 4576,
      "##ھم": 4577,
      "##راج": 4578,
      "قومی": 4579,
      "##وڈ": 4580,
      "##مپ": 4581,
      "نادراھی": 4582,
      "##ـَ": 4583,
      "بنداتی": 4584,
      "##شاں": 4585,
      "##ov": 4586,
      "راستیں": 4587,
      "##سل": 4588,
      "نصیر": 4589,
      "سان": 4590,
      "آگ": 4591,
      "which": 4592,
      "دیمروی": 4593,
      "##اہر": 4594,
      "صورت": 4595,
      "##ودا": 4596,
      "گِند": 4597,
      "آخ": 4598,
      "سَر": 4599,
      "بالاد": 4600,
      "##آن": 4601,
      "##ریٹ": 4602,
      "کوک": 4603,
      "بارت": 4604,
      "شام": 4605,
      "درچ": 4606,
      "تنی": 4607,
      "نمدی": 4608,
      "گوْ": 4609,
      "دش": 4610,
      "حسن": 4611,
      "سکّ": 4612,
      "دیمتر": 4613,
      "تیار": 4614,
      "##َّ": 4615,
      "ردا": 4616,
      "وتارا": 4617,
      "بلوچاں": 4618,
      "##وست": 4619,
      "کمپ": 4620,
      "##our": 4621,
      "کَش": 4622,
      "چر": 4623,
      "کوچ": 4624,
      "نامی": 4625,
      "گُشگ": 4626,
      "##انچ": 4627,
      "یکّ": 4628,
      "کسّہ": 4629,
      "مبارک": 4630,
      "مارچ": 4631,
      "St": 4632,
      "عرب": 4633,
      "##اتھ": 4634,
      "##اجی": 4635,
      "##وشی": 4636,
      "ناگ": 4637,
      "##یسر": 4638,
      "گِس": 4639,
      "تراک": 4640,
      "##ian": 4641,
      "##nt": 4642,
      "نف": 4643,
      "جنز": 4644,
      "جاھاں": 4645,
      "##َے": 4646,
      "فیصلہ": 4647,
      "sp": 4648,
      "رود": 4649,
      "نیکہ": 4650,
      "آیان": 4651,
      "درستاں": 4652,
      "راز": 4653,
      "رپورٹ": 4654,
      "لوز": 4655,
      "مرتگ": 4656,
      "ببیت": 4657,
      "##ـت": 4658,
      "آمیدگ": 4659,
      "خاص": 4660,
      "##نچیں": 4661,
      "شمبے": 4662,
      "سور": 4663,
      "بیار": 4664,
      "##راھ": 4665,
      "##یرانی": 4666,
      "صل": 4667,
      "ھمراھی": 4668,
      "##اھو": 4669,
      "کشتگ": 4670,
      "سوت": 4671,
      "امیت": 4672,
      "##ریت": 4673,
      "ایشیءِ": 4674,
      "پرچے": 4675,
      "اگر": 4676,
      "گِر": 4677,
      "واق": 4678,
      "##ast": 4679,
      "کنگءِ": 4680,
      "pr": 4681,
      "##اھے": 4682,
      "زِر": 4683,
      "##وٹل": 4684,
      "دستاں": 4685,
      "کلب": 4686,
      "گیشتریں": 4687,
      "ندارگ": 4688,
      "##اؤ": 4689,
      "چِست": 4690,
      "کمے": 4691,
      "باندا": 4692,
      "سلیم": 4693,
      "واجه": 4694,
      "مردے": 4695,
      "چینل": 4696,
      "##دّ": 4697,
      "##ell": 4698,
      "اپنے": 4699,
      "not": 4700,
      "دپتر": 4701,
      "ھان": 4702,
      "کریم": 4703,
      "باری": 4704,
      "بگند": 4705,
      "رہبند": 4706,
      "نک": 4707,
      "بندگ": 4708,
      "روانک": 4709,
      "##َرّ": 4710,
      "##سک": 4711,
      "تها": 4712,
      "ابر": 4713,
      "##ip": 4714,
      "گنوک": 4715,
      "منص": 4716,
      "اھت": 4717,
      "گشیت": 4718,
      "tr": 4719,
      "سوبم": 4720,
      "جھان": 4721,
      "اُمیت": 4722,
      "##ord": 4723,
      "##ment": 4724,
      "اصل": 4725,
      "##وف": 4726,
      "##ڑیں": 4727,
      "درٛ": 4728,
      "##اھا": 4729,
      "مھکم": 4730,
      "##وستان": 4731,
      "##اپی": 4732,
      "ساھت": 4733,
      "گپاں": 4734,
      "ھک": 4735,
      "##ally": 4736,
      "##ine": 4737,
      "تنگ": 4738,
      "پیمیں": 4739,
      "پرچہ": 4740,
      "##rit": 4741,
      "شُتگ": 4742,
      "تھی": 4743,
      "##واری": 4744,
      "##ge": 4745,
      "ہور": 4746,
      "شد": 4747,
      "پدءَ": 4748,
      "##َت": 4749,
      "انگریز": 4750,
      "پرا": 4751,
      "آه": 4752,
      "##ڑے": 4753,
      "##سے": 4754,
      "منگ": 4755,
      "##َل": 4756,
      "##رانس": 4757,
      "##ناز": 4758,
      "##ost": 4759,
      "سیل": 4760,
      "ئیگ": 4761,
      "مام": 4762,
      "چھاپ": 4763,
      "##رمین": 4764,
      "زُرت": 4765,
      "آسراتی": 4766,
      "##یریں": 4767,
      "دس": 4768,
      "##نکین": 4769,
      "##اِنت": 4770,
      "وارتگ": 4771,
      "شائر": 4772,
      "##pt": 4773,
      "انچش": 4774,
      "دئے": 4775,
      "چاہ": 4776,
      "##ریا": 4777,
      "مخ": 4778,
      "شه": 4779,
      "بیرم": 4780,
      "##يه": 4781,
      "##انزدہ": 4782,
      "##اسر": 4783,
      "ساد": 4784,
      "بالاچ": 4785,
      "##شد": 4786,
      "نزّ": 4787,
      "ارواہ": 4788,
      "نیاد": 4789,
      "بہا": 4790,
      "درمان": 4791,
      "نار": 4792,
      "چاریں": 4793,
      "دشت": 4794,
      "کُشتگ": 4795,
      "مسل": 4796,
      "##ٹل": 4797,
      "آپریشن": 4798,
      "کنڈ": 4799,
      "ھب": 4800,
      "کاگد": 4801,
      "مثال": 4802,
      "##اتے": 4803,
      "تالان": 4804,
      "##زدار": 4805,
      "مڈی": 4806,
      "پیسلہ": 4807,
      "بچکند": 4808,
      "اع": 4809,
      "ماد": 4810,
      "تریں": 4811,
      "جه": 4812,
      "آمیدگس": 4813,
      "لہتے": 4814,
      "ھوش": 4815,
      "بوتنت": 4816,
      "ایمان": 4817,
      "زندمان": 4818,
      "##‌اَ": 4819,
      "پون": 4820,
      "یع": 4821,
      "ربیدگ": 4822,
      "##روری": 4823,
      "ھکانی": 4824,
      "کرن": 4825,
      "جاگ": 4826,
      "دربر": 4827,
      "چوکہ": 4828,
      "تْر": 4829,
      "اسل": 4830,
      "عليه": 4831,
      "Ch": 4832,
      "نواب": 4833,
      "##ther": 4834,
      "##اہیں": 4835,
      "رامین": 4836,
      "وھداں": 4837,
      "شمارا": 4838,
      "حر": 4839,
      "سرڈ": 4840,
      "امان": 4841,
      "چُشیں": 4842,
      "##انءَ": 4843,
      "ھرکس": 4844,
      "##الد": 4845,
      "##ish": 4846,
      "##ٹا": 4847,
      "بھت": 4848,
      "مں": 4849,
      "دیاں": 4850,
      "##کارانی": 4851,
      "کسانی": 4852,
      "اگں": 4853,
      "##غان": 4854,
      "گلام": 4855,
      "منّوک": 4856,
      "##ave": 4857,
      "##گام": 4858,
      "نگد": 4859,
      "##ia": 4860,
      "نیٹورک": 4861,
      "قان": 4862,
      "گرم": 4863,
      "جاوراں": 4864,
      "مولانا": 4865,
      "کچے": 4866,
      "ونتگ": 4867,
      "آور": 4868,
      "بزان": 4869,
      "ادءَ": 4870,
      "دُور": 4871,
      "##اھانی": 4872,
      "حم": 4873,
      "دراجیں": 4874,
      "وائس": 4875,
      "پک": 4876,
      "آرام": 4877,
      "بہت": 4878,
      "rec": 4879,
      "##سا": 4880,
      "##ue": 4881,
      "##ابل": 4882,
      "استمانی": 4883,
      "حکم": 4884,
      "پالیسیانی": 4885,
      "مستونگ": 4886,
      "مروچ": 4887,
      "##بانی": 4888,
      "زانتگ": 4889,
      "مجید": 4890,
      "دشمن": 4891,
      "گْوشگ": 4892,
      "دوچ": 4893,
      "سوگ": 4894,
      "زَ": 4895,
      "بونگ": 4896,
      "اثر": 4897,
      "##ary": 4898,
      "داستان": 4899,
      "عال": 4900,
      "دکان": 4901,
      "##نگیج": 4902,
      "تیل": 4903,
      "امب": 4904,
      "دگه": 4905,
      "صلى": 4906,
      "عش": 4907,
      "دوھ": 4908,
      "بُنج": 4909,
      "نامداریں": 4910,
      "ڈال": 4911,
      "##ust": 4912,
      "تکنیک": 4913,
      "سنگتانی": 4914,
      "سرڈگار": 4915,
      "بنگپ": 4916,
      "##پٹ": 4917,
      "تاج": 4918,
      "ایشرا": 4919,
      "کلدار": 4920,
      "##ٹرول": 4921,
      "دنیاءِ": 4922,
      "یکّے": 4923,
      "##تریں": 4924,
      "کلاس": 4925,
      "le": 4926,
      "##داد": 4927,
      "آت": 4928,
      "پن": 4929,
      "جندءِ": 4930,
      "##دری": 4931,
      "##َنت": 4932,
      "شون": 4933,
      "##لوم": 4934,
      "##ای": 4935,
      "پیما": 4936,
      "##وشل": 4937,
      "ادبی": 4938,
      "عربی": 4939,
      "##وہاز": 4940,
      "##لق": 4941,
      "##الو": 4942,
      "جر": 4943,
      "شے": 4944,
      "ایند": 4945,
      "رواں": 4946,
      "ندر": 4947,
      "کارندہ": 4948,
      "جنگل": 4949,
      "##کنگ": 4950,
      "##og": 4951,
      "درشانے": 4952,
      "دنی": 4953,
      "##ضی": 4954,
      "شرپ": 4955,
      "##شانک": 4956,
      "ذات": 4957,
      "جیڑگ": 4958,
      "جنرل": 4959,
      "هچ": 4960,
      "لاچار": 4961,
      "##ارہ": 4962,
      "##ویز": 4963,
      "نودربرانی": 4964,
      "جانی": 4965,
      "##اسگ": 4966,
      "##جت": 4967,
      "بامن": 4968,
      "##دءَ": 4969,
      "چیزانی": 4970,
      "سزا": 4971,
      "گۆ": 4972,
      "بیگواھی": 4973,
      "جھل": 4974,
      "اسپیت": 4975,
      "زام": 4976,
      "##بے": 4977,
      "مُلک": 4978,
      "##پل": 4979,
      "##پک": 4980,
      "ندار": 4981,
      "رنج": 4982,
      "دروگ": 4983,
      "صح": 4984,
      "کست": 4985,
      "مہمان": 4986,
      "جاورانی": 4987,
      "ءٙ": 4988,
      "ہوت": 4989,
      "##اتک": 4990,
      "لین": 4991,
      "شوہاز": 4992,
      "مید": 4993,
      "اشت": 4994,
      "شان": 4995,
      "##وَ": 4996,
      "بگیر": 4997,
      "اوشتات": 4998,
      "شکار": 4999,
      "##ٹو": 5000,
      "بید": 5001,
      "ایڈ": 5002,
      "جوانی": 5003,
      "پیک": 5004,
      "ریش": 5005,
      "##اِت": 5006,
      "چاری": 5007,
      "نسل": 5008,
      "سج": 5009,
      "کردار": 5010,
      "درو": 5011,
      "##دم": 5012,
      "نرم": 5013,
      "سرجمی": 5014,
      "راه": 5015,
      "سوشل": 5016,
      "نیل": 5017,
      "نمبر": 5018,
      "طاق": 5019,
      "بولان": 5020,
      "غم": 5021,
      "گیس": 5022,
      "آتکگ": 5023,
      "##منی": 5024,
      "صن": 5025,
      "fir": 5026,
      "بابتءَ": 5027,
      "##pl": 5028,
      "بُرت": 5029,
      "خلا": 5030,
      "جوڈ": 5031,
      "کاروبار": 5032,
      "##ستا": 5033,
      "##کو": 5034,
      "##زدہ": 5035,
      "کاروائی": 5036,
      "سیمسر": 5037,
      "تامر": 5038,
      "دراہ": 5039,
      "##ous": 5040,
      "مُل": 5041,
      "بانگ": 5042,
      "چراگ": 5043,
      "کبر": 5044,
      "##ight": 5045,
      "کمو": 5046,
      "##وریت": 5047,
      "گنگ": 5048,
      "پمشکا": 5049,
      "چٹ": 5050,
      "عہد": 5051,
      "inc": 5052,
      "##cc": 5053,
      "مسلمان": 5054,
      "##بری": 5055,
      "روزگار": 5056,
      "##عد": 5057,
      "##ینہ": 5058,
      "ڈک": 5059,
      "##میر": 5060,
      "##طن": 5061,
      "دُنیا": 5062,
      "آرا": 5063,
      "پھر": 5064,
      "##مک": 5065,
      "تری": 5066,
      "ٹو": 5067,
      "##ئین": 5068,
      "سالی": 5069,
      "روس": 5070,
      "کُجا": 5071,
      "ھیل": 5072,
      "منظ": 5073,
      "##ہہ": 5074,
      "##out": 5075,
      "گٹ": 5076,
      "##ونڈ": 5077,
      "فوج": 5078,
      "کالج": 5079,
      "رواج": 5080,
      "##گرانی": 5081,
      "گالوار": 5082,
      "##بور": 5083,
      "مینگل": 5084,
      "سکیں": 5085,
      "براہ": 5086,
      "##گرنچ": 5087,
      "آنکہ": 5088,
      "بْ": 5089,
      "بُوگ": 5090,
      "##یءَ": 5091,
      "ھواریں": 5092,
      "تباہ": 5093,
      "اگست": 5094,
      "ماتی": 5095,
      "آواران": 5096,
      "چوشکہ": 5097,
      "غیر": 5098,
      "کپگ": 5099,
      "##ینیت": 5100,
      "##مر": 5101,
      "##خان": 5102,
      "تنے": 5103,
      "##ّانی": 5104,
      "##حال": 5105,
      "موت": 5106,
      "دزک": 5107,
      "ہَ": 5108,
      "اپنی": 5109,
      "اشاں": 5110,
      "##کاراں": 5111,
      "سرما": 5112,
      "اودءَ": 5113,
      "ھُدا": 5114,
      "کاف": 5115,
      "##ions": 5116,
      "دیمی": 5117,
      "سھ": 5118,
      "ہلاس": 5119,
      "##َن": 5120,
      "اِشک": 5121,
      "باپ": 5122,
      "اَچ": 5123,
      "their": 5124,
      "but": 5125,
      "##باری": 5126,
      "کاپ": 5127,
      "چیزاں": 5128,
      "کتہ": 5129,
      "فائ": 5130,
      "جِندئیگ": 5131,
      "##ّک": 5132,
      "##ra": 5133,
      "##اشی": 5134,
      "اوگانستان": 5135,
      "cont": 5136,
      "ارمان": 5137,
      "##ie": 5138,
      "چد": 5139,
      "جاه": 5140,
      "ردی": 5141,
      "زبانانی": 5142,
      "ماہی": 5143,
      "ar": 5144,
      "عزت": 5145,
      "سازی": 5146,
      "مزار": 5147,
      "int": 5148,
      "انٹر": 5149,
      "##fter": 5150,
      "ایندگہ": 5151,
      "سالاں": 5152,
      "اِن": 5153,
      "افغان": 5154,
      "قدر": 5155,
      "##ure": 5156,
      "وھدءَ": 5157,
      "بارہ": 5158,
      "##ical": 5159,
      "سْی": 5160,
      "##ازہ": 5161,
      "##پتال": 5162,
      "##ٹے": 5163,
      "سرگ": 5164,
      "سن": 5165,
      "ول": 5166,
      "حُ": 5167,
      "تھے": 5168,
      "##ial": 5169,
      "##ہار": 5170,
      "هست": 5171,
      "##ّان": 5172,
      "دوھزار": 5173,
      "##ریل": 5174,
      "تیز": 5175,
      "برج": 5176,
      "##qu": 5177,
      "##so": 5178,
      "##داب": 5179,
      "##صد": 5180,
      "##ھل": 5181,
      "میڑ": 5182,
      "ماما": 5183,
      "نوم": 5184,
      "ونت": 5185,
      "##ُش": 5186,
      "لیکن": 5187,
      "گْوس": 5188,
      "ردوم": 5189,
      "first": 5190,
      "##عی": 5191,
      "کُٹ": 5192,
      "سرمایہ": 5193,
      "بئیت": 5194,
      "پدّر": 5195,
      "کنئے": 5196,
      "بری": 5197,
      "چنڈ": 5198,
      "حقی": 5199,
      "ریچ": 5200,
      "##جاه": 5201,
      "پژ": 5202,
      "گُڈا": 5203,
      "##ائینت": 5204,
      "نزور": 5205,
      "ریل": 5206,
      "شئی": 5207,
      "پمیشکہ": 5208,
      "زُرتگ": 5209,
      "##یاتی": 5210,
      "##ould": 5211,
      "تئو": 5212,
      "آواز": 5213,
      "##خص": 5214,
      "its": 5215,
      "زمان": 5216,
      "بَلے": 5217,
      "اق": 5218,
      "پنام": 5219,
      "بور": 5220,
      "##hed": 5221,
      "##ub": 5222,
      "##ئِے": 5223,
      "ھرد": 5224,
      "بوہگ": 5225,
      "ویب": 5226,
      "بب": 5227,
      "whe": 5228,
      "بلوچستانءِ": 5229,
      "بشیر": 5230,
      "مُچ": 5231,
      "##وبر": 5232,
      "##وانیں": 5233,
      "بیر": 5234,
      "رندا": 5235,
      "پسّو": 5236,
      "شعری": 5237,
      "ڈیرہ": 5238,
      "زاہ": 5239,
      "پِت": 5240,
      "ترندیں": 5241,
      "آرو": 5242,
      "پتر": 5243,
      "##ُت": 5244,
      "##oll": 5245,
      "زرمبشت": 5246,
      "ترقی": 5247,
      "بدار": 5248,
      "ماڑی": 5249,
      "ھمود": 5250,
      "سینگ": 5251,
      "رندے": 5252,
      "##راه": 5253,
      "تجرب": 5254,
      "چنچو": 5255,
      "گوشاں": 5256,
      "فک": 5257,
      "##wo": 5258,
      "her": 5259,
      "##ـر": 5260,
      "آھ": 5261,
      "##ضا": 5262,
      "آبادی": 5263,
      "تِ": 5264,
      "دوشی": 5265,
      "ڈنّ": 5266,
      "##ازت": 5267,
      "پائ": 5268,
      "##وے": 5269,
      "موجود": 5270,
      "شرّیں": 5271,
      "نظر": 5272,
      "کچک": 5273,
      "سامان": 5274,
      "اِشی": 5275,
      "نومبر": 5276,
      "لچّہ": 5277,
      "##ـن": 5278,
      "برت": 5279,
      "عبداللہ": 5280,
      "##مرد": 5281,
      "##اہے": 5282,
      "کب": 5283,
      "فری": 5284,
      "اث": 5285,
      "سیت": 5286,
      "##یءِ": 5287,
      "اَتک": 5288,
      "براں": 5289,
      "بتل": 5290,
      "دید": 5291,
      "تمپ": 5292,
      "عقل": 5293,
      "##ّه": 5294,
      "پریشان": 5295,
      "اھوالانی": 5296,
      "جول": 5297,
      "زوریں": 5298,
      "دستءَ": 5299,
      "نیمگے": 5300,
      "ھلک": 5301,
      "انی": 5302,
      "##ستاں": 5303,
      "طاقت": 5304,
      "زل": 5305,
      "مگر": 5306,
      "##ff": 5307,
      "عشق": 5308,
      "ہال": 5309,
      "##ok": 5310,
      "##اے": 5311,
      "جرم": 5312,
      "مص": 5313,
      "دزبندی": 5314,
      "راجے": 5315,
      "##اط": 5316,
      "بدی": 5317,
      "توان": 5318,
      "دلءِ": 5319,
      "انج": 5320,
      "##ناپ": 5321,
      "مسنگ": 5322,
      "صد": 5323,
      "also": 5324,
      "میڈیا": 5325,
      "cl": 5326,
      "##زئی": 5327,
      "##مکن": 5328,
      "##ھرام": 5329,
      "دُژمن": 5330,
      "تلگ": 5331,
      "تگ": 5332,
      "چت": 5333,
      "##per": 5334,
      "کامی": 5335,
      "ھراب": 5336,
      "لِ": 5337,
      "والا": 5338,
      "##یدگی": 5339,
      "گَل": 5340,
      "موک": 5341,
      "پنجاہ": 5342,
      "##ide": 5343,
      "سول": 5344,
      "تیوگیں": 5345,
      "##ایت": 5346,
      "بہرے": 5347,
      "ھمد": 5348,
      "آوانی": 5349,
      "سندھی": 5350,
      "راھبند": 5351,
      "##own": 5352,
      "طرح": 5353,
      "کُل": 5354,
      "جھانی": 5355,
      "چیاکہ": 5356,
      "متل": 5357,
      "براس": 5358,
      "##ڈیو": 5359,
      "کمیں": 5360,
      "##ater": 5361,
      "نندگ": 5362,
      "ورنایے": 5363,
      "چوکی": 5364,
      "ٹھ": 5365,
      "##جگ": 5366,
      "کَس": 5367,
      "کُش": 5368,
      "نزوری": 5369,
      "##وند": 5370,
      "پجّار": 5371,
      "##سن": 5372,
      "چُش": 5373,
      "بلکہ": 5374,
      "بنجاہی": 5375,
      "##مگ": 5376,
      "##ome": 5377,
      "پمشکہ": 5378,
      "##orm": 5379,
      "راجانی": 5380,
      "ایشیءَ": 5381,
      "##ازگ": 5382,
      "عمران": 5383,
      "نئے": 5384,
      "شُما": 5385,
      "ایمنی": 5386,
      "دسمبر": 5387,
      "ھرچی": 5388,
      "سکین": 5389,
      "سنگتے": 5390,
      "چیدگ": 5391,
      "##ru": 5392,
      "لکھ": 5393,
      "زاھدان": 5394,
      "نبیسگ": 5395,
      "##لاح": 5396,
      "الس": 5397,
      "بله": 5398,
      "ورناہ": 5399,
      "باگ": 5400,
      "آوتی": 5401,
      "##وکاں": 5402,
      "ساھگ": 5403,
      "شن": 5404,
      "لڈ": 5405,
      "##کاریں": 5406,
      "رحیم": 5407,
      "گرو": 5408,
      "##ork": 5409,
      "##ass": 5410,
      "##ریز": 5411,
      "چوناھا": 5412,
      "زہگ": 5413,
      "##ign": 5414,
      "res": 5415,
      "کشت": 5416,
      "درسیں": 5417,
      "سف": 5418,
      "اُستاد": 5419,
      "##رال": 5420,
      "چمشانک": 5421,
      "بُوتگ": 5422,
      "##ire": 5423,
      "مُلا": 5424,
      "rel": 5425,
      "ab": 5426,
      "بوتہ": 5427,
      "ad": 5428,
      "یاکہ": 5429,
      "##ائز": 5430,
      "زندءَ": 5431,
      "صدر": 5432,
      "##ہن": 5433,
      "مسیت": 5434,
      "نشہ": 5435,
      "چرا": 5436,
      "گیدی": 5437,
      "حل": 5438,
      "شراب": 5439,
      "ماه": 5440,
      "رہشون": 5441,
      "بُرتگ": 5442,
      "مجلس": 5443,
      "پروف": 5444,
      "##age": 5445,
      "کتابے": 5446,
      "دْروشم": 5447,
      "##ازم": 5448,
      "##ترا": 5449,
      "بلۆچ": 5450,
      "بیگواہی": 5451,
      "تس": 5452,
      "کرونا": 5453,
      "کوپ": 5454,
      "##اھگ": 5455,
      "کمبر": 5456,
      "پیچ": 5457,
      "اگن": 5458,
      "نوشکی": 5459,
      "ہرچی": 5460,
      "##کارے": 5461,
      "پِس": 5462,
      "ماسٹر": 5463,
      "آورتگ": 5464,
      "یورپ": 5465,
      "حض": 5466,
      "##زیز": 5467,
      "دُز": 5468,
      "گوستگ": 5469,
      "ترانگ": 5470,
      "میرا": 5471,
      "کنائینگ": 5472,
      "نزانت": 5473,
      "کتابانی": 5474,
      "ھام": 5475,
      "دیمپان": 5476,
      "نودربراں": 5477,
      "##ظیم": 5478,
      "تص": 5479,
      "نع": 5480,
      "پْر": 5481,
      "اخلا": 5482,
      "گوم": 5483,
      "شریف": 5484,
      "لڑ": 5485,
      "مشکل": 5486,
      "نشانی": 5487,
      "کارند": 5488,
      "بلاھیں": 5489,
      "گپانی": 5490,
      "پاداں": 5491,
      "فرانس": 5492,
      "مدت": 5493,
      "پانگ": 5494,
      "چرے": 5495,
      "گول": 5496,
      "ایرد": 5497,
      "رنگءَ": 5498,
      "وھ": 5499,
      "گوٛشتگ": 5500,
      "چگل": 5501,
      "ھمرا": 5502,
      "دِل": 5503,
      "رکی": 5504,
      "موب": 5505,
      "زیبائی": 5506,
      "آدگہ": 5507,
      "روچی": 5508,
      "##شکیں": 5509,
      "افس": 5510,
      "رژن": 5511,
      "تہر": 5512,
      "خط": 5513,
      "ھنکین": 5514,
      "بھا": 5515,
      "قلات": 5516,
      "##نو": 5517,
      "دلجم": 5518,
      "##طانی": 5519,
      "ہوا": 5520,
      "پرسنز": 5521,
      "پاھو": 5522,
      "ڈس": 5523,
      "سنج": 5524,
      "اسلم": 5525,
      "امام": 5526,
      "##بیں": 5527,
      "have": 5528,
      "##حمد": 5529,
      "بنشون": 5530,
      "بشک": 5531,
      "##سہ": 5532,
      "##بوت": 5533,
      "ترّ": 5534,
      "لئے": 5535,
      "جنوری": 5536,
      "##مبلی": 5537,
      "نال": 5538,
      "سھب": 5539,
      "گوَ": 5540,
      "کوئی": 5541,
      "حد": 5542,
      "##بگ": 5543,
      "حاجی": 5544,
      "##ّل": 5545,
      "پوہ": 5546,
      "برکت": 5547,
      "مچی": 5548,
      "گوٛشگ": 5549,
      "کوھنیں": 5550,
      "یکشل": 5551,
      "منصوبہ": 5552,
      "مین": 5553,
      "##فرنس": 5554,
      "اِدا": 5555,
      "ساتھ": 5556,
      "##شتگیں": 5557,
      "زبانءِ": 5558,
      "زوراکیانی": 5559,
      "شکل": 5560,
      "انکس": 5561,
      "جْ": 5562,
      "##زور": 5563,
      "un": 5564,
      "##ence": 5565,
      "انڈ": 5566,
      "##حہ": 5567,
      "چکاس": 5568,
      "علاقہ": 5569,
      "وطن": 5570,
      "دیمپانی": 5571,
      "سروکی": 5572,
      "فدا": 5573,
      "روڈ": 5574,
      "فرنٹ": 5575,
      "##ئرمین": 5576,
      "ھژ": 5577,
      "مذہب": 5578,
      "لشکری": 5579,
      "گوناپ": 5580,
      "ناشر": 5581,
      "##ژنا": 5582,
      "تخ": 5583,
      "##ِک": 5584,
      "تواری": 5585,
      "ماہتاک": 5586,
      "بیل": 5587,
      "مہمد": 5588,
      "##گیر": 5589,
      "چاراں": 5590,
      "طال": 5591,
      "##ئید": 5592,
      "##mer": 5593,
      "ساپ": 5594,
      "##طان": 5595,
      "##ژنائی": 5596,
      "##ond": 5597,
      "one": 5598,
      "تلگرام": 5599,
      "آچ": 5600,
      "دانک": 5601,
      "He": 5602,
      "en": 5603,
      "انص": 5604,
      "فوجی": 5605,
      "اکت": 5606,
      "##ِن": 5607,
      "لبزانی": 5608,
      "##مش": 5609,
      "زھیر": 5610,
      "قیم": 5611,
      "ورد": 5612,
      "##باز": 5613,
      "##نگءِ": 5614,
      "عد": 5615,
      "##صّہ": 5616,
      "زلم": 5617,
      "##ry": 5618,
      "پہنات": 5619,
      "گالبند": 5620,
      "has": 5621,
      "مکس": 5622,
      "##راک": 5623,
      "جمبر": 5624,
      "مناں": 5625,
      "سربو": 5626,
      "##نسی": 5627,
      "شرّ": 5628,
      "بیرانی": 5629,
      "##جھتی": 5630,
      "منند": 5631,
      "سوال": 5632,
      "کمپنی": 5633,
      "کارمنداں": 5634,
      "ھاشمی": 5635,
      "دوس": 5636,
      "##ough": 5637,
      "هَ": 5638,
      "یوس": 5639,
      "آئیا": 5640,
      "کمشن": 5641,
      "ساجد": 5642,
      "نئیت": 5643,
      "بنگیج": 5644,
      "کاریت": 5645,
      "Th": 5646,
      "مزنین": 5647,
      "پسند": 5648,
      "ھی": 5649,
      "##رزی": 5650,
      "##ــــــــ": 5651,
      "مستر": 5652,
      "کنوکاں": 5653,
      "خیر": 5654,
      "گِندگ": 5655,
      "##وکانی": 5656,
      "کازی": 5657,
      "خبر": 5658,
      "##ورے": 5659,
      "##ans": 5660,
      "##امیہ": 5661,
      "معاشی": 5662,
      "##ڑو": 5663,
      "یکجھتی": 5664,
      "بـ": 5665,
      "شمے": 5666,
      "per": 5667,
      "##ِنت": 5668,
      "##ُن": 5669,
      "چیءَ": 5670,
      "قدیر": 5671,
      "دزگیری": 5672,
      "##اتاں": 5673,
      "##مَ": 5674,
      "تپاک": 5675,
      "مردین": 5676,
      "##هر": 5677,
      "پسنی": 5678,
      "ایچ": 5679,
      "بَر": 5680,
      "سیاد": 5681,
      "ڈپ": 5682,
      "##وشتگ": 5683,
      "کپتگیں": 5684,
      "been": 5685,
      "اوست": 5686,
      "وائی": 5687,
      "ورنائیں": 5688,
      "آخر": 5689,
      "کلوہ": 5690,
      "##ime": 5691,
      "گوٛش": 5692,
      "ایمن": 5693,
      "##اتا": 5694,
      "گراں": 5695,
      "##ـــ": 5696,
      "ذمہ": 5697,
      "ھاسیں": 5698,
      "نشتگیں": 5699,
      "two": 5700,
      "زبانے": 5701,
      "##مود": 5702,
      "پئی": 5703,
      "ارب": 5704,
      "داریں": 5705,
      "ہشت": 5706,
      "عب": 5707,
      "##نگءَ": 5708,
      "گوئشت": 5709,
      "##کسی": 5710,
      "اِد": 5711,
      "دستی": 5712,
      "شا": 5713,
      "چمّاں": 5714,
      "اجازت": 5715,
      "اسمبلی": 5716,
      "قس": 5717,
      "ادارھانی": 5718,
      "آزادی": 5719,
      "ساحرؔ": 5720,
      "سہب": 5721,
      "اُرشانی": 5722,
      "سس": 5723,
      "شُم": 5724,
      "ضر": 5725,
      "دروگیں": 5726,
      "##پس": 5727,
      "نیت": 5728,
      "##یکس": 5729,
      "مغ": 5730,
      "##امت": 5731,
      "گُد": 5732,
      "##ادت": 5733,
      "رندءَ": 5734,
      "ہرکس": 5735,
      "گناہ": 5736,
      "نصیب": 5737,
      "صبا": 5738,
      "##ئن": 5739,
      "جَن": 5740,
      "دما": 5741,
      "##انیت": 5742,
      "مارگ": 5743,
      "نگی": 5744,
      "کما": 5745,
      "باروءَ": 5746,
      "گیا": 5747,
      "براھ": 5748,
      "درآمد": 5749,
      "اکتوبر": 5750,
      "رَند": 5751,
      "Al": 5752,
      "ھنچش": 5753,
      "##ree": 5754,
      "یو": 5755,
      "##ٹھ": 5756,
      "##ound": 5757,
      "##ile": 5758,
      "کمشنر": 5759,
      "##زانت": 5760,
      "سمی": 5761,
      "چیئرمین": 5762,
      "ہوش": 5763,
      "##land": 5764,
      "سانگ": 5765,
      "وهدے": 5766,
      "انتظ": 5767,
      "##جتائیں": 5768,
      "گیپت": 5769,
      "پُت": 5770,
      "پسہ": 5771,
      "گوشیت": 5772,
      "##لیٹ": 5773,
      "ٹیم": 5774,
      "ہس": 5775,
      "کلم": 5776,
      "##والکار": 5777,
      "sc": 5778,
      "##uring": 5779,
      "توکا": 5780,
      "ماھتاک": 5781,
      "امیر": 5782,
      "کندگ": 5783,
      "زالبولانی": 5784,
      "رجی": 5785,
      "##لگ": 5786,
      "##ائش": 5787,
      "لیویز": 5788,
      "دگنیا": 5789,
      "##ائد": 5790,
      "یوک": 5791,
      "گشنت": 5792,
      "جُہد": 5793,
      "وانگجاہ": 5794,
      "صدی": 5795,
      "##ّءَ": 5796,
      "درانگ": 5797,
      "مرچاں": 5798,
      "ھد": 5799,
      "ھمس": 5800,
      "پُلّ": 5801,
      "##uc": 5802,
      "کارکن": 5803,
      "comp": 5804,
      "پانزدہ": 5805,
      "##end": 5806,
      "اَنچو": 5807,
      "##ory": 5808,
      "کنٹرول": 5809,
      "دینت": 5810,
      "##ely": 5811,
      "##راز": 5812,
      "نمیران": 5813,
      "پُرس": 5814,
      "اھتگ": 5815,
      "قصّہ": 5816,
      "درائی": 5817,
      "فق": 5818,
      "حاصل": 5819,
      "##ition": 5820,
      "سگریٹ": 5821,
      "وهد": 5822,
      "##ولت": 5823,
      "ناسر": 5824,
      "ہپت": 5825,
      "##پا": 5826,
      "یکبرے": 5827,
      "تحریک": 5828,
      "##ance": 5829,
      "کارمرد": 5830,
      "رئی": 5831,
      "انا": 5832,
      "وتن": 5833,
      "کارءَ": 5834,
      "زندان": 5835,
      "##زن": 5836,
      "##دین": 5837,
      "الی": 5838,
      "##یشی": 5839,
      "##ations": 5840,
      "dis": 5841,
      "##ینڈ": 5842,
      "ٹکر": 5843,
      "##نگا": 5844,
      "عبدالح": 5845,
      "گُڈی": 5846,
      "احت": 5847,
      "وانگی": 5848,
      "this": 5849,
      "سنگر": 5850,
      "##واڈ": 5851,
      "نظری": 5852,
      "ربیت": 5853,
      "##مُ": 5854,
      "##یری": 5855,
      "##ثہ": 5856,
      "بلکن": 5857,
      "bec": 5858,
      "##ang": 5859,
      "لیگ": 5860,
      "پنجاب": 5861,
      "کارگس": 5862,
      "چند": 5863,
      "بوج": 5864,
      "زبانا": 5865,
      "##اور": 5866,
      "all": 5867,
      "تہاری": 5868,
      "شود": 5869,
      "app": 5870,
      "امی": 5871,
      "##iz": 5872,
      "مزاح": 5873,
      "شخص": 5874,
      "##وق": 5875,
      "بیگا": 5876,
      "##ey": 5877,
      "مگ": 5878,
      "خود": 5879,
      "زرّ": 5880,
      "اُستمانی": 5881,
      "زیارت": 5882,
      "گنداں": 5883,
      "ہوں": 5884,
      "کلاک": 5885,
      "##ابر": 5886,
      "انساپ": 5887,
      "واہگ": 5888,
      "أچ": 5889,
      "##رائیل": 5890,
      "##ونے": 5891,
      "سالے": 5892,
      "دروت": 5893,
      "ستک": 5894,
      "##ورٹی": 5895,
      "##ach": 5896,
      "ہائی": 5897,
      "کوٹ": 5898,
      "ھمائی": 5899,
      "نزاناں": 5900,
      "ھاس": 5901,
      "##زیت": 5902,
      "درگیج": 5903,
      "اپریل": 5904,
      "دامن": 5905,
      "کُجام": 5906,
      "روچءَ": 5907,
      "کرنے": 5908,
      "##ربانی": 5909,
      "قبر": 5910,
      "دوز": 5911,
      "جما": 5912,
      "مرچیگیں": 5913,
      "لوگءَ": 5914,
      "آزمانکانی": 5915,
      "کج": 5916,
      "روچانی": 5917,
      "تئ": 5918,
      "جولائی": 5919,
      "جنیں": 5920,
      "##ade": 5921,
      "پارسی": 5922,
      "شرتر": 5923,
      "گلزمین": 5924,
      "##وشت": 5925,
      "##ارءَ": 5926,
      "بوھ": 5927,
      "دیدگ": 5928,
      "play": 5929,
      "##ناک": 5930,
      "گوزگ": 5931,
      "هال": 5932,
      "دلوت": 5933,
      "ہوئے": 5934,
      "گُڈّی": 5935,
      "دمانے": 5936,
      "##lud": 5937,
      "who": 5938,
      "مدامی": 5939,
      "نئی": 5940,
      "##ئگا": 5941,
      "بدیں": 5942,
      "##ہاں": 5943,
      "اینچو": 5944,
      "ھواری": 5945,
      "عام": 5946,
      "بکناں": 5947,
      "برد": 5948,
      "فروری": 5949,
      "رسم": 5950,
      "##اسم": 5951,
      "دشتیاری": 5952,
      "وہدیکہ": 5953,
      "##الوجی": 5954,
      "لنک": 5955,
      "شیش": 5956,
      "گشئے": 5957,
      "مسلم": 5958,
      "پارلیم": 5959,
      "مردمان": 5960,
      "تْ": 5961,
      "##ٹک": 5962,
      "گوانک": 5963,
      "بُنکی": 5964,
      "نوب": 5965,
      "برجاھیں": 5966,
      "گچینی": 5967,
      "پنت": 5968,
      "موہ": 5969,
      "جتاجتائیں": 5970,
      "##ric": 5971,
      "des": 5972,
      "ag": 5973,
      "بت": 5974,
      "واحد": 5975,
      "کمیشن": 5976,
      "نھ": 5977,
      "they": 5978,
      "ڈولیں": 5979,
      "year": 5980,
      "کیل": 5981,
      "وڑءَ": 5982,
      "کِشک": 5983,
      "کسمانک": 5984,
      "سرکماش": 5985,
      "##عل": 5986,
      "پاب": 5987,
      "نت": 5988,
      "تاکت": 5989,
      "گیری": 5990,
      "باھ": 5991,
      "پیل": 5992,
      "ننگ": 5993,
      "##غا": 5994,
      "اوشتوک": 5995,
      "ھنچیں": 5996,
      "بعد": 5997,
      "##ابت": 5998,
      "گُشیت": 5999,
      "سرھال": 6000,
      "وفا": 6001,
      "گچکی": 6002,
      "کوکار": 6003,
      "سکی": 6004,
      "زندے": 6005,
      "ستمبر": 6006,
      "ھِچ": 6007,
      "لرز": 6008,
      "##آں": 6009,
      "##یرانیں": 6010,
      "شل": 6011,
      "فض": 6012,
      "پیریں": 6013,
      "لگّ": 6014,
      "چیل": 6015,
      "چُکّ": 6016,
      "گُمان": 6017,
      "ہرچ": 6018,
      "دوستیں": 6019,
      "بروت": 6020,
      "ممکن": 6021,
      "گرانیں": 6022,
      "اگہ": 6023,
      "##نوں": 6024,
      "حضرت": 6025,
      "مومن": 6026,
      "##نگے": 6027,
      "افغانستان": 6028,
      "##ائم": 6029,
      "کُشت": 6030,
      "پرائی": 6031,
      "یَ": 6032,
      "man": 6033,
      "other": 6034,
      "میز": 6035,
      "داروکیں": 6036,
      "واقعہ": 6037,
      "گرا": 6038,
      "کِسّہ": 6039,
      "It": 6040,
      "شکر": 6041,
      "ناب": 6042,
      "یوسف": 6043,
      "زئی": 6044,
      "##گال": 6045,
      "نیوز": 6046,
      "متلب": 6047,
      "دعا": 6048,
      "##ناکیں": 6049,
      "##pr": 6050,
      "بنداں": 6051,
      "آدینک": 6052,
      "تعلق": 6053,
      "ھار": 6054,
      "بھتام": 6055,
      "پژدر": 6056,
      "کْو": 6057,
      "##فظ": 6058,
      "ڈیم": 6059,
      "وکیل": 6060,
      "بلوچے": 6061,
      "انوں": 6062,
      "پاگ": 6063,
      "اوپار": 6064,
      "پَد": 6065,
      "##ردیں": 6066,
      "آورت": 6067,
      "وہدءَ": 6068,
      "##نگور": 6069,
      "کلیں": 6070,
      "مرید": 6071,
      "##غیں": 6072,
      "ترند": 6073,
      "کنوکانی": 6074,
      "اسلامی": 6075,
      "after": 6076,
      "راجدپت": 6077,
      "اسکواڈ": 6078,
      "إے": 6079,
      "##ِش": 6080,
      "##ریس": 6081,
      "زِند": 6082,
      "ایراد": 6083,
      "زہیر": 6084,
      "رَد": 6085,
      "تاکبند": 6086,
      "نُھ": 6087,
      "##پتگیں": 6088,
      "حقیقت": 6089,
      "ریس": 6090,
      "پشک": 6091,
      "##ڈن": 6092,
      "آؤرتگ": 6093,
      "##وج": 6094,
      "نامءَ": 6095,
      "اُردو": 6096,
      "ہوٹل": 6097,
      "##قا": 6098,
      "##ئور": 6099,
      "پیگ": 6100,
      "##ہبی": 6101,
      "لوٹوکیں": 6102,
      "پیمءَ": 6103,
      "تور": 6104,
      "قی": 6105,
      "محکم": 6106,
      "##act": 6107,
      "آرت": 6108,
      "چہر": 6109,
      "ser": 6110,
      "أولی": 6111,
      "کونسل": 6112,
      "کاہ": 6113,
      "لانچ": 6114,
      "##ib": 6115,
      "عو": 6116,
      "ھا": 6117,
      "آؤرت": 6118,
      "##ٹن": 6119,
      "نزّیک": 6120,
      "ھپتگ": 6121,
      "پدریچ": 6122,
      "گلانی": 6123,
      "دێ": 6124,
      "##سان": 6125,
      "گیوار": 6126,
      "پرد": 6127,
      "چونائی": 6128,
      "پوشاک": 6129,
      "کُر": 6130,
      "شرّی": 6131,
      "##بلوچ": 6132,
      "##مار": 6133,
      "ھچبر": 6134,
      "گِپت": 6135,
      "اسرائیل": 6136,
      "معلوم": 6137,
      "ھمگرنچ": 6138,
      "پہل": 6139,
      "ابیت": 6140,
      "##پّ": 6141,
      "کوشست": 6142,
      "بدئے": 6143,
      "کانود": 6144,
      "##ہور": 6145,
      "دوازدہ": 6146,
      "لۆ": 6147,
      "شَر": 6148,
      "چینی": 6149,
      "##چے": 6150,
      "نفسی": 6151,
      "عاب": 6152,
      "چُشکہ": 6153,
      "##ult": 6154,
      "رش": 6155,
      "گدان": 6156,
      "سوبین": 6157,
      "سائنسی": 6158,
      "شئے": 6159,
      "گواز": 6160,
      "انصاف": 6161,
      "##اند": 6162,
      "over": 6163,
      "off": 6164,
      "##کشی": 6165,
      "پادانی": 6166,
      "##ount": 6167,
      "##الے": 6168,
      "جنکے": 6169,
      "##ite": 6170,
      "چول": 6171,
      "آسمان": 6172,
      "قرآن": 6173,
      "im": 6174,
      "شموش": 6175,
      "##میت": 6176,
      "##حاق": 6177,
      "اتیں": 6178,
      "استیں": 6179,
      "کمیون": 6180,
      "##ئند": 6181,
      "اپس": 6182,
      "نکش": 6183,
      "آروس": 6184,
      "##یتھ": 6185,
      "آج": 6186,
      "کرنا": 6187,
      "الیک": 6188,
      "وانینگ": 6189,
      "طور": 6190,
      "##روز": 6191,
      "ہار": 6192,
      "یازدہ": 6193,
      "مسک": 6194,
      "تاھ": 6195,
      "ھمدا": 6196,
      "روایت": 6197,
      "ٹہ": 6198,
      "##پاں": 6199,
      "مرزی": 6200,
      "part": 6201,
      "ایج": 6202,
      "##کیم": 6203,
      "دیت": 6204,
      "رگ": 6205,
      "دودمان": 6206,
      "نزیکی": 6207,
      "قبیلہ": 6208,
      "پروگ": 6209,
      "گندیت": 6210,
      "چکّ": 6211,
      "دزکپتگ": 6212,
      "دوا": 6213,
      "##ظم": 6214,
      "##ـگ": 6215,
      "##نداں": 6216,
      "ازمی": 6217,
      "اسٹی": 6218,
      "گپّے": 6219,
      "##ّینگ": 6220,
      "##سلام": 6221,
      "سودا": 6222,
      "آم": 6223,
      "کرار": 6224,
      "کَن": 6225,
      "برجا": 6226,
      "مرز": 6227,
      "includ": 6228,
      "پروفیسر": 6229,
      "دائم": 6230,
      "بندش": 6231,
      "شیخ": 6232,
      "اں": 6233,
      "##وگر": 6234,
      "نون": 6235,
      "##ڑہ": 6236,
      "##دارے": 6237,
      "##ائے": 6238,
      "زوال": 6239,
      "##urn": 6240,
      "فل": 6241,
      "سرمچارانی": 6242,
      "حی": 6243,
      "##وٹر": 6244,
      "##over": 6245,
      "درمل": 6246,
      "پیسرا": 6247,
      "پرے": 6248,
      "##ـہ": 6249,
      "آیا": 6250,
      "##ark": 6251,
      "مرا": 6252,
      "مُرتگ": 6253,
      "رسگ": 6254,
      "دستگ": 6255,
      "ترکی": 6256,
      "ردانک": 6257,
      "##ik": 6258,
      "##ّن": 6259,
      "##ائر": 6260,
      "ہبر": 6261,
      "بَہ": 6262,
      "##طی": 6263,
      "att": 6264,
      "سائی": 6265,
      "##شاد": 6266,
      "ایوکءَ": 6267,
      "امریکی": 6268,
      "تعلیم": 6269,
      "چاردہ": 6270,
      "چنکس": 6271,
      "آھگ": 6272,
      "##کءَ": 6273,
      "us": 6274,
      "ناہ": 6275,
      "گْوات": 6276,
      "برابر": 6277,
      "تہار": 6278,
      "آیوکیں": 6279,
      "گُلام": 6280,
      "زانتی": 6281,
      "##الت": 6282,
      "لوگانی": 6283,
      "جذ": 6284,
      "دوبر": 6285,
      "##ائن": 6286,
      "##نجو": 6287,
      "out": 6288,
      "آل": 6289,
      "ہونا": 6290,
      "یاں": 6291,
      "نوشتہ": 6292,
      "ھندوستان": 6293,
      "دانگ": 6294,
      "##wn": 6295,
      "مانگ": 6296,
      "پولی": 6297,
      "کلی": 6298,
      "گوما": 6299,
      "وتگ": 6300,
      "##جاھاں": 6301,
      "ولی": 6302,
      "دیوانے": 6303,
      "ویبجاہ": 6304,
      "دؤر": 6305,
      "ود": 6306,
      "##پیں": 6307,
      "##ستہ": 6308,
      "راجمان": 6309,
      "وام": 6310,
      "ساه": 6311,
      "شہد": 6312,
      "##eas": 6313,
      "امن": 6314,
      "استع": 6315,
      "ترک": 6316,
      "إنگور": 6317,
      "##اشت": 6318,
      "##ریب": 6319,
      "ھاترءَ": 6320,
      "دانش": 6321,
      "ھیران": 6322,
      "جیئند": 6323,
      "تاریخی": 6324,
      "پاٹی": 6325,
      "وف": 6326,
      "کسّ": 6327,
      "چارمی": 6328,
      "ایکس": 6329,
      "##ینچو": 6330,
      "سمب": 6331,
      "##ها": 6332,
      "##ice": 6333,
      "موبائل": 6334,
      "تق": 6335,
      "کورٹ": 6336,
      "##مند": 6337,
      "سعید": 6338,
      "##اچن": 6339,
      "دُرٛ": 6340,
      "##ember": 6341,
      "بڑ": 6342,
      "##ضہ": 6343,
      "استان": 6344,
      "شوک": 6345,
      "صنعت": 6346,
      "بستگیں": 6347,
      "زُلم": 6348,
      "##ace": 6349,
      "##شہ": 6350,
      "عج": 6351,
      "حوال": 6352,
      "گوازینگ": 6353,
      "ڈیک": 6354,
      "طب": 6355,
      "ستا": 6356,
      "میری": 6357,
      "تکان": 6358,
      "عزیز": 6359,
      "رھادگ": 6360,
      "ضل": 6361,
      "دلم": 6362,
      "##ents": 6363,
      "قدیم": 6364,
      "ھانی": 6365,
      "شھدربر": 6366,
      "امید": 6367,
      "##ng": 6368,
      "دیگر": 6369,
      "روح": 6370,
      "##ens": 6371,
      "زه": 6372,
      "کسّے": 6373,
      "ئا": 6374,
      "قول": 6375,
      "چڑ": 6376,
      "مردمی": 6377,
      "رۆچ": 6378,
      "ہاترا": 6379,
      "##ِیت": 6380,
      "دلب": 6381,
      "ندکار": 6382,
      "ٹیکن": 6383,
      "بلیدہ": 6384,
      "##دو": 6385,
      "شاعرے": 6386,
      "عالم": 6387,
      "##ریڈ": 6388,
      "مود": 6389,
      "شرف": 6390,
      "ۓِ": 6391,
      "کرتے": 6392,
      "##وث": 6393,
      "##تم": 6394,
      "##طہ": 6395,
      "زانشت": 6396,
      "##وکے": 6397,
      "شار": 6398,
      "دَور": 6399,
      "سارت": 6400,
      "##راھیں": 6401,
      "توسی": 6402,
      "##اللہ": 6403,
      "الک": 6404,
      "پراہ": 6405,
      "سالانی": 6406,
      "چادر": 6407,
      "##ُو": 6408,
      "زات": 6409,
      "هبر": 6410,
      "##یز": 6411,
      "مُرگ": 6412,
      "pre": 6413,
      "up": 6414,
      "درّ": 6415,
      "پوست": 6416,
      "##گوں": 6417,
      "اوت": 6418,
      "دستیگ": 6419,
      "مُراد": 6420,
      "##الدینی": 6421,
      "جیل": 6422,
      "عق": 6423,
      "راھے": 6424,
      "اھوالکار": 6425,
      "مالیات": 6426,
      "نامدار": 6427,
      "داراں": 6428,
      "##نتگیں": 6429,
      "بئیں": 6430,
      "ev": 6431,
      "گْوست": 6432,
      "##ind": 6433,
      "##تکگیں": 6434,
      "گلامی": 6435,
      "لبزانت": 6436,
      "سپت": 6437,
      "سارتیں": 6438,
      "ٹال": 6439,
      "##ٹانی": 6440,
      "time": 6441,
      "##رءِ": 6442,
      "گریوگ": 6443,
      "ابرم": 6444,
      "تان": 6445,
      "##شے": 6446,
      "رسانکدراں": 6447,
      "یکج": 6448,
      "##nder": 6449,
      "آوان": 6450,
      "##غاں": 6451,
      "اھد": 6452,
      "بڈ": 6453,
      "ٹُک": 6454,
      "ناماں": 6455,
      "باج": 6456,
      "تھر": 6457,
      "into": 6458,
      "زیت": 6459,
      "بزگ": 6460,
      "##ورانی": 6461,
      "ھردو": 6462,
      "کیمپ": 6463,
      "پمن": 6464,
      "اُس": 6465,
      "چیرد": 6466,
      "کُلّ": 6467,
      "پیسری": 6468,
      "منّگ": 6469,
      "##ڑک": 6470,
      "دلیل": 6471,
      "جناں": 6472,
      "رزا": 6473,
      "باہ": 6474,
      "جمالدینی": 6475,
      "قصہ": 6476,
      "شرو": 6477,
      "پکار": 6478,
      "##ٹاں": 6479,
      "پاکیں": 6480,
      "نامہ": 6481,
      "رؤت": 6482,
      "خل": 6483,
      "##چینی": 6484,
      "گیج": 6485,
      "مف": 6486,
      "##ـے": 6487,
      "دب": 6488,
      "نامے": 6489,
      "##دینگ": 6490,
      "استال": 6491,
      "ڈپٹی": 6492,
      "##ہا": 6493,
      "##ـُ": 6494,
      "##we": 6495,
      "مَرگ": 6496,
      "لیے": 6497,
      "گہار": 6498,
      "لمب": 6499,
      "زندگیں": 6500,
      "چیک": 6501,
      "تچکیں": 6502,
      "گراب": 6503,
      "راشد": 6504,
      "حب": 6505,
      "قلم": 6506,
      "گؤ": 6507,
      "وشّ": 6508,
      "حون": 6509,
      "دیا": 6510,
      "صوب": 6511,
      "تہء": 6512,
      "قل": 6513,
      "پروگرام": 6514,
      "وشبو": 6515,
      "نیکراھی": 6516,
      "##‌اَنت": 6517,
      "ورنایانی": 6518,
      "خاصیں": 6519,
      "صف": 6520,
      "مب": 6521,
      "ہکانی": 6522,
      "اتکگیں": 6523,
      "کچھ": 6524,
      "##دل": 6525,
      "پھل": 6526,
      "ساچشتی": 6527,
      "##اَنت": 6528,
      "جاہے": 6529,
      "##ail": 6530,
      "دیو": 6531,
      "کینگ": 6532,
      "##ئُُ": 6533,
      "ترندی": 6534,
      "##oy": 6535,
      "##تیار": 6536,
      "شھری": 6537,
      "درکپت": 6538,
      "زیرگ": 6539,
      "##تءَ": 6540,
      "دستا": 6541,
      "ناصر": 6542,
      "##ose": 6543,
      "حاترا": 6544,
      "شعرانی": 6545,
      "کُنڈ": 6546,
      "شھدگ": 6547,
      "##راھجاہ": 6548,
      "کُمک": 6549,
      "دلجمی": 6550,
      "ٹیکنالوجی": 6551,
      "بئی": 6552,
      "ڈب": 6553,
      "انور": 6554,
      "سیاھیں": 6555,
      "انتز": 6556,
      "comm": 6557,
      "##غی": 6558,
      "##ینا": 6559,
      "مساپ": 6560,
      "گْوازی": 6561,
      "انتءُ": 6562,
      "ساعت": 6563,
      "##اہاں": 6564,
      "گوک": 6565,
      "اِزم": 6566,
      "راجدو": 6567,
      "she": 6568,
      "##amp": 6569,
      "ھستی": 6570,
      "##تو": 6571,
      "شمار": 6572,
      "ڈنی": 6573,
      "نمیرانیں": 6574,
      "عیس": 6575,
      "دپءَ": 6576,
      "قوت": 6577,
      "نویسگ": 6578,
      "##سانی": 6579,
      "چَم": 6580,
      "گپءَ": 6581,
      "درپ": 6582,
      "پلگار": 6583,
      "نقص": 6584,
      "پہک": 6585,
      "گلاں": 6586,
      "جتائی": 6587,
      "##فار": 6588,
      "حیران": 6589,
      "آشوبی": 6590,
      "أت": 6591,
      "مون": 6592,
      "ضرورت": 6593,
      "شست": 6594,
      "نێ": 6595,
      "توامیں": 6596,
      "would": 6597,
      "##تان": 6598,
      "حرکت": 6599,
      "کایاں": 6600,
      "##ward": 6601,
      "##وراں": 6602,
      "کِرد": 6603,
      "On": 6604,
      "##ied": 6605,
      "بران": 6606,
      "امباز": 6607,
      "##شاہ": 6608,
      "برزی": 6609,
      "زاھر": 6610,
      "اتءُ": 6611,
      "پہم": 6612,
      "بینک": 6613,
      "پاز": 6614,
      "##زّ": 6615,
      "##oin": 6616,
      "عیسی": 6617,
      "##te": 6618,
      "##man": 6619,
      "گوریچ": 6620,
      "اومان": 6621,
      "more": 6622,
      "##able": 6623,
      "##rough": 6624,
      "تاگ": 6625,
      "بگوش": 6626,
      "سربوتگیں": 6627,
      "ءَُ": 6628,
      "غزل": 6629,
      "نیں": 6630,
      "سرگو": 6631,
      "رجانکار": 6632,
      "بنیادم": 6633,
      "مردُم": 6634,
      "رسی": 6635,
      "صوبہ": 6636,
      "مہناز": 6637,
      "ڈرائی": 6638,
      "##نگو": 6639,
      "##ings": 6640,
      "##‌اَت": 6641,
      "مقصد": 6642,
      "سرزمین": 6643,
      "پرواز": 6644,
      "کتاباں": 6645,
      "##سرا": 6646,
      "##tern": 6647,
      "سوس": 6648,
      "##ادری": 6649,
      "گُر": 6650,
      "##اوت": 6651,
      "اسما": 6652,
      "گیگ": 6653,
      "##کٹ": 6654,
      "##ڈل": 6655,
      "مطلب": 6656,
      "سوبمند": 6657,
      "ہُ": 6658,
      "بگل": 6659,
      "##نل": 6660,
      "چۆ": 6661,
      "##نگر": 6662,
      "واھند": 6663,
      "##رابی": 6664,
      "##ited": 6665,
      "we": 6666,
      "دنز": 6667,
      "رکینگ": 6668,
      "سلامت": 6669,
      "رؤگ": 6670,
      "ہیر": 6671,
      "##ever": 6672,
      "پندل": 6673,
      "دف": 6674,
      "ھندی": 6675,
      "مارکی": 6676,
      "زباناں": 6677,
      "مَرد": 6678,
      "اندرءَ": 6679,
      "کشار": 6680,
      "کانفرنس": 6681,
      "وپس": 6682,
      "فکشن": 6683,
      "##ason": 6684,
      "بئیگ": 6685,
      "##الب": 6686,
      "ناپ": 6687,
      "##چّ": 6688,
      "غنی": 6689,
      "##جنگ": 6690,
      "ترٛ": 6691,
      "میدان": 6692,
      "جاو": 6693,
      "مذہبی": 6694,
      "جاہاں": 6695,
      "گوشدار": 6696,
      "باسکاں": 6697,
      "اکر": 6698,
      "##rib": 6699,
      "him": 6700,
      "##ینانی": 6701,
      "مُچی": 6702,
      "گْوستگیں": 6703,
      "سنی": 6704,
      "##ہم": 6705,
      "##ors": 6706,
      "فائدہ": 6707,
      "Un": 6708,
      "##رنگ": 6709,
      "کْوھ": 6710,
      "##لُ": 6711,
      "ترجم": 6712,
      "##شنل": 6713,
      "دْرچک": 6714,
      "##ِشت": 6715,
      "ره": 6716,
      "پلہ": 6717,
      "یکجہ": 6718,
      "گاڑیانی": 6719,
      "وانند": 6720,
      "بازینے": 6721,
      "درشانداب": 6722,
      "اَتکگ": 6723,
      "شہری": 6724,
      "##ہان": 6725,
      "سه": 6726,
      "بوتگاں": 6727,
      "##ood": 6728,
      "رضا": 6729,
      "کیف": 6730,
      "جماعت": 6731,
      "ملکاں": 6732,
      "اسٹوڈ": 6733,
      "##ۆک": 6734,
      "##les": 6735,
      "شپے": 6736,
      "بہار": 6737,
      "بائد": 6738,
      "سنچ": 6739,
      "عار": 6740,
      "cent": 6741,
      "گیاب": 6742,
      "وقت": 6743,
      "##ہانی": 6744,
      "فون": 6745,
      "کپوت": 6746,
      "کریمہ": 6747,
      "وپت": 6748,
      "##دیں": 6749,
      "بازی": 6750,
      "باوست": 6751,
      "زیبا": 6752,
      "محبت": 6753,
      "تخلی": 6754,
      "بوتین": 6755,
      "آؤکیں": 6756,
      "مئیں": 6757,
      "مھمان": 6758,
      "یکجہتی": 6759,
      "بیوکیں": 6760,
      "##ild": 6761,
      "##ورسز": 6762,
      "مض": 6763,
      "وڈیں": 6764,
      "پونز": 6765,
      "جمی": 6766,
      "پنڈ": 6767,
      "##ix": 6768,
      "تنک": 6769,
      "مصر": 6770,
      "گھار": 6771,
      "نزان": 6772,
      "گوشدارگ": 6773,
      "بابا": 6774,
      "##دھ": 6775,
      "##خی": 6776,
      "دیمر": 6777,
      "کوپگ": 6778,
      "رپ": 6779,
      "سُہب": 6780,
      "##ction": 6781,
      "##ock": 6782,
      "ہوتا": 6783,
      "جمع": 6784,
      "علمی": 6785,
      "ہاشمی": 6786,
      "گھگیری": 6787,
      "اناگ": 6788,
      "اندیم": 6789,
      "تجر": 6790,
      "تِر": 6791,
      "##ces": 6792,
      "اَست": 6793,
      "شاه": 6794,
      "##یدر": 6795,
      "شبیر": 6796,
      "کنغ": 6797,
      "ھنچوش": 6798,
      "سبزیں": 6799,
      "فقیر": 6800,
      "مور": 6801,
      "##مدی": 6802,
      "##باب": 6803,
      "##چگ": 6804,
      "گوھرام": 6805,
      "کمالان": 6806,
      "work": 6807,
      "قانون": 6808,
      "##ریم": 6809,
      "##ates": 6810,
      "ادارھاں": 6811,
      "گچینکاری": 6812,
      "ظفر": 6813,
      "##inal": 6814,
      "چارت": 6815,
      "##ساس": 6816,
      "##ious": 6817,
      "نواز": 6818,
      "ھستیں": 6819,
      "چنت": 6820,
      "نبشتگیں": 6821,
      "ماح": 6822,
      "##نٹس": 6823,
      "علاج": 6824,
      "##ئگی": 6825,
      "##وءَ": 6826,
      "نیا": 6827,
      "هُ": 6828,
      "پرپٹ": 6829,
      "زیادہ": 6830,
      "فضل": 6831,
      "##ev": 6832,
      "زین": 6833,
      "روسی": 6834,
      "لاہ": 6835,
      "##رائیں": 6836,
      "لوٹگ": 6837,
      "##ریف": 6838,
      "##ath": 6839,
      "شھدربرجاہ": 6840,
      "زامران": 6841,
      "موکل": 6842,
      "##ئت": 6843,
      "ایوب": 6844,
      "##one": 6845,
      "کَے": 6846,
      "##old": 6847,
      "ہندوستان": 6848,
      "له": 6849,
      "##وسی": 6850,
      "##انگی": 6851,
      "تاکہ": 6852,
      "##ندن": 6853,
      "##داشتگ": 6854,
      "تمام": 6855,
      "زار": 6856,
      "ھزدار": 6857,
      "##ڑگ": 6858,
      "سسٹ": 6859,
      "##جیل": 6860,
      "چاریت": 6861,
      "داخ": 6862,
      "کَنت": 6863,
      "لنٹ": 6864,
      "##زیں": 6865,
      "##ندات": 6866,
      "پسّہ": 6867,
      "پھاز": 6868,
      "##وءِ": 6869,
      "رُژن": 6870,
      "فرق": 6871,
      "لوگاں": 6872,
      "رکھ": 6873,
      "زنڈ": 6874,
      "اِشانی": 6875,
      "##سٹر": 6876,
      "اخلاقی": 6877,
      "لج": 6878,
      "##ڑت": 6879,
      "ڈیتھ": 6880,
      "نائ": 6881,
      "جاورھال": 6882,
      "وائرس": 6883,
      "بگندئے": 6884,
      "ذاتی": 6885,
      "##ّینت": 6886,
      "انتزامیہ": 6887,
      "##پیت": 6888,
      "##تری": 6889,
      "لائن": 6890,
      "گالاں": 6891,
      "راک": 6892,
      "##نامہ": 6893,
      "لوٹانی": 6894,
      "زھری": 6895,
      "شات": 6896,
      "عن": 6897,
      "توارے": 6898,
      "##یسٹ": 6899,
      "تنق": 6900,
      "دگے": 6901,
      "##round": 6902,
      "عاش": 6903,
      "##کُ": 6904,
      "منظور": 6905,
      "##iss": 6906,
      "##port": 6907,
      "##ّں": 6908,
      "ظلم": 6909,
      "جمہ": 6910,
      "متا": 6911,
      "پرک": 6912,
      "سلمان": 6913,
      "بلوچءِ": 6914,
      "شرتریں": 6915,
      "دولت": 6916,
      "کوھانی": 6917,
      "پیشی": 6918,
      "بنکی": 6919,
      "ھزاراں": 6920,
      "##غیر": 6921,
      "وسی": 6922,
      "نزیکیں": 6923,
      "##وص": 6924,
      "قرار": 6925,
      "دراتک": 6926,
      "##رائ": 6927,
      "کپان": 6928,
      "معام": 6929,
      "کلام": 6930,
      "پانگس": 6931,
      "##ss": 6932,
      "گرمیں": 6933,
      "ڈر": 6934,
      "ملکانی": 6935,
      "##چین": 6936,
      "آنہی": 6937,
      "##وکہ": 6938,
      "ٹاہ": 6939,
      "درداں": 6940,
      "پشتون": 6941,
      "انٹرنی": 6942,
      "سنگین": 6943,
      "##ake": 6944,
      "Ar": 6945,
      "ووٹ": 6946,
      "بێ": 6947,
      "بائی": 6948,
      "لئی": 6949,
      "نوزدہ": 6950,
      "مَن": 6951,
      "نقصان": 6952,
      "نبی": 6953,
      "رن": 6954,
      "##تح": 6955,
      "اَب": 6956,
      "صاف": 6957,
      "الرح": 6958,
      "لبزاں": 6959,
      "پرز": 6960,
      "عملی": 6961,
      "بلد": 6962,
      "ھاں": 6963,
      "them": 6964,
      "زیان": 6965,
      "مِر": 6966,
      "برطانی": 6967,
      "sec": 6968,
      "باپاری": 6969,
      "##ثی": 6970,
      "##دائی": 6971,
      "ناچ": 6972,
      "ڈیہہ": 6973,
      "بِلّ": 6974,
      "رحم": 6975,
      "اَنچیں": 6976,
      "دمک": 6977,
      "ساح": 6978,
      "موسی": 6979,
      "خلاف": 6980,
      "نظم": 6981,
      "Fr": 6982,
      "ثابت": 6983,
      "##ڑاں": 6984,
      "مکسد": 6985,
      "اُمر": 6986,
      "لُنٹ": 6987,
      "قِ": 6988,
      "خاندان": 6989,
      "گُشئے": 6990,
      "bet": 6991,
      "##نان": 6992,
      "##ّیت": 6993,
      "لوگے": 6994,
      "تش": 6995,
      "when": 6996,
      "song": 6997,
      "##گراں": 6998,
      "وتگڑیں": 6999,
      "پدی": 7000,
      "ریڈیو": 7001,
      "rem": 7002,
      "زیک": 7003,
      "ائے": 7004,
      "##اشاد": 7005,
      "گیت": 7006,
      "##aw": 7007,
      "خال": 7008,
      "جوش": 7009,
      "پیرک": 7010,
      "مشکے": 7011,
      "زوریت": 7012,
      "چاچ": 7013,
      "##ep": 7014,
      "وشّی": 7015,
      "شبین": 7016,
      "تاھیر": 7017,
      "##form": 7018,
      "تہی": 7019,
      "##یان": 7020,
      "##گاہ": 7021,
      "##ual": 7022,
      "##fer": 7023,
      "سرے": 7024,
      "مشین": 7025,
      "ear": 7026,
      "##وتگ": 7027,
      "انقل": 7028,
      "##رانت": 7029,
      "سوبمندی": 7030,
      "عظیم": 7031,
      "نر": 7032,
      "##صف": 7033,
      "##ick": 7034,
      "تپاوت": 7035,
      "fe": 7036,
      "قاسم": 7037,
      "##ئےِ": 7038,
      "نسیم": 7039,
      "جنا": 7040,
      "##ted": 7041,
      "یونین": 7042,
      "ہمس": 7043,
      "چمّانی": 7044,
      "ڪہ": 7045,
      "ہمد": 7046,
      "زبانءَ": 7047,
      "سِی": 7048,
      "پائدگ": 7049,
      "ربیدگی": 7050,
      "##ubl": 7051,
      "سئیں": 7052,
      "مکت": 7053,
      "##داراں": 7054,
      "سُھب": 7055,
      "##محمد": 7056,
      "چندے": 7057,
      "رئ": 7058,
      "##gan": 7059,
      "نزینک": 7060,
      "اُت": 7061,
      "آک": 7062,
      "گواہ": 7063,
      "کولواہ": 7064,
      "صفت": 7065,
      "پانک": 7066,
      "ہنچو": 7067,
      "##ویں": 7068,
      "کمپی": 7069,
      "گردن": 7070,
      "kn": 7071,
      "##واب": 7072,
      "پرمان": 7073,
      "ہیال": 7074,
      "##آباد": 7075,
      "اُشتر": 7076,
      "ورنائی": 7077,
      "cons": 7078,
      "تجربت": 7079,
      "کامیاب": 7080,
      "دینی": 7081,
      "پرما": 7082,
      "##واریں": 7083,
      "اٹ": 7084,
      "زُور": 7085,
      "آمد": 7086,
      "گندئے": 7087,
      "##یراں": 7088,
      "ون": 7089,
      "##صہ": 7090,
      "اسحاق": 7091,
      "باریگ": 7092,
      "##َب": 7093,
      "##مالی": 7094,
      "ھنچو": 7095,
      "##َگا": 7096,
      "ہیل": 7097,
      "##aus": 7098,
      "دِگہ": 7099,
      "آهانی": 7100,
      "انگتہ": 7101,
      "یعنی": 7102,
      "چتور": 7103,
      "راب": 7104,
      "کاب": 7105,
      "دگرے": 7106,
      "پان": 7107,
      "گندگءَ": 7108,
      "##are": 7109,
      "دماغ": 7110,
      "غوث": 7111,
      "کردے": 7112,
      "تچان": 7113,
      "##الانی": 7114,
      "ادارہانی": 7115,
      "جَت": 7116,
      "جبر": 7117,
      "بجٹ": 7118,
      "most": 7119,
      "کین": 7120,
      "##هے": 7121,
      "آیی": 7122,
      "میڈیکل": 7123,
      "##اتیں": 7124,
      "نیاں": 7125,
      "موٹر": 7126,
      "اسپیتیں": 7127,
      "ڈائ": 7128,
      "شِنگ": 7129,
      "درّائینت": 7130,
      "شاز": 7131,
      "fl": 7132,
      "ارواح": 7133,
      "##ھینگ": 7134,
      "ادی": 7135,
      "during": 7136,
      "new": 7137,
      "مے": 7138,
      "پورا": 7139,
      "ھپتاد": 7140,
      "##ورءِ": 7141,
      "نَہ": 7142,
      "حمید": 7143,
      "سبی": 7144,
      "لوٹت": 7145,
      "دوستین": 7146,
      "شروع": 7147,
      "حاصیں": 7148,
      "گوز": 7149,
      "##orth": 7150,
      "وانندہ": 7151,
      "ایشان": 7152,
      "درخ": 7153,
      "سوگند": 7154,
      "##ارک": 7155,
      "ذہن": 7156,
      "سروز": 7157,
      "##ilm": 7158,
      "پێ": 7159,
      "میک": 7160,
      "##وارے": 7161,
      "زرمبش": 7162,
      "عطاشاد": 7163,
      "عیب": 7164,
      "رہے": 7165,
      "اناں": 7166,
      "راجمانی": 7167,
      "پیغ": 7168,
      "نیکی": 7169,
      "بیب": 7170,
      "آدینگ": 7171,
      "##ters": 7172,
      "##ons": 7173,
      "زالبولے": 7174,
      "##حت": 7175,
      "نبیت": 7176,
      "only": 7177,
      "آسود": 7178,
      "گْونڈ": 7179,
      "پیشانی": 7180,
      "زوراک": 7181,
      "dec": 7182,
      "ھوٹل": 7183,
      "##ارات": 7184,
      "روتاک": 7185,
      "تف": 7186,
      "لیا": 7187,
      "چات": 7188,
      "روز": 7189,
      "مروچیگیں": 7190,
      "بژن": 7191,
      "دیمترا": 7192,
      "محمود": 7193,
      "مئیل": 7194,
      "مناف": 7195,
      "اشتر": 7196,
      "اسے": 7197,
      "مولوی": 7198,
      "game": 7199,
      "بوتگنت": 7200,
      "جاری": 7201,
      "گد": 7202,
      "##ook": 7203,
      "بازین": 7204,
      "نکن": 7205,
      "##ug": 7206,
      "##ولیں": 7207,
      "مواد": 7208,
      "سسٹم": 7209,
      "##انء": 7210,
      "##وع": 7211,
      "##جنی": 7212,
      "میاں": 7213,
      "درائینت": 7214,
      "گِرگ": 7215,
      "##کّہ": 7216,
      "##نب": 7217,
      "##صیل": 7218,
      "بدنت": 7219,
      "بوھیر": 7220,
      "تچگ": 7221,
      "لندن": 7222,
      "دلبند": 7223,
      "پھنات": 7224,
      "آچہ": 7225,
      "ہوئی": 7226,
      "ائید": 7227,
      "خی": 7228,
      "##بک": 7229,
      "سرباز": 7230,
      "##ved": 7231,
      "مارکس": 7232,
      "زمستان": 7233,
      "زیمر": 7234,
      "پازل": 7235,
      "##att": 7236,
      "ارا": 7237,
      "گئی": 7238,
      "مہکم": 7239,
      "اسد": 7240,
      "جنئگ": 7241,
      "گۆن": 7242,
      "خانہ": 7243,
      "سئی": 7244,
      "##ستر": 7245,
      "مِھر": 7246,
      "##وھد": 7247,
      "راجدپتری": 7248,
      "##ارڈ": 7249,
      "پَس": 7250,
      "علیہ": 7251,
      "بالگ": 7252,
      "Mar": 7253,
      "سیٹ": 7254,
      "##eld": 7255,
      "گستا": 7256,
      "##وٹی": 7257,
      "چیرا": 7258,
      "##oth": 7259,
      "##ؔءِ": 7260,
      "کمتر": 7261,
      "##ؤکیں": 7262,
      "اولس": 7263,
      "جاپ": 7264,
      "پروم": 7265,
      "زیبائیں": 7266,
      "##reat": 7267,
      "گْوشان": 7268,
      "اختر": 7269,
      "##ّلی": 7270,
      "سرحال": 7271,
      "گہگیری": 7272,
      "مبارکی": 7273,
      "شوم": 7274,
      "##ٹمنٹ": 7275,
      "مرت": 7276,
      "دُک": 7277,
      "##پے": 7278,
      "##ڈا": 7279,
      "ھبرے": 7280,
      "ھج": 7281,
      "نویسی": 7282,
      "تجربہ": 7283,
      "آواں": 7284,
      "##ـّ": 7285,
      "##way": 7286,
      "بلا": 7287,
      "آسان": 7288,
      "##ربی": 7289,
      "کنے": 7290,
      "##هی": 7291,
      "مسئ": 7292,
      "##َا": 7293,
      "نندوکیں": 7294,
      "##ob": 7295,
      "ہمرائی": 7296,
      "شپاں": 7297,
      "##ollow": 7298,
      "جاڑ": 7299,
      "جاتا": 7300,
      "ھاران": 7301,
      "can": 7302,
      "##ڈّی": 7303,
      "نیکیں": 7304,
      "##outh": 7305,
      "##کرتگ": 7306,
      "سریں": 7307,
      "ھمنچو": 7308,
      "نیامءَ": 7309,
      "کِرّ": 7310,
      "ظاہر": 7311,
      "جاگہے": 7312,
      "##ween": 7313,
      "خاران": 7314,
      "##حق": 7315,
      "نوکی": 7316,
      "صلی": 7317,
      "ہندی": 7318,
      "گورءَ": 7319,
      "##گیڈ": 7320,
      "بندوکیں": 7321,
      "##‌اِنت": 7322,
      "بجلی": 7323,
      "##ومن": 7324,
      "بُنجل": 7325,
      "اناگہ": 7326,
      "##وخ": 7327,
      "پناہ": 7328,
      "عابد": 7329,
      "لان": 7330,
      "بُنگ": 7331,
      "جگر": 7332,
      "بیتاں": 7333,
      "##ارینگ": 7334,
      "چینچو": 7335,
      "##انکیں": 7336,
      "جدید": 7337,
      "قِصّہ": 7338,
      "قبول": 7339,
      "اُن": 7340,
      "##ِتگ": 7341,
      "##ڈو": 7342,
      "##vel": 7343,
      "جنینے": 7344,
      "ترْ": 7345,
      "ٹَ": 7346,
      "ترین": 7347,
      "ھکم": 7348,
      "سعودی": 7349,
      "وجہ": 7350,
      "بنجاہ": 7351,
      "بھرے": 7352,
      "##ُند": 7353,
      "نظریہ": 7354,
      "ناکہ": 7355,
      "دپی": 7356,
      "نِشتگ": 7357,
      "بادشاه": 7358,
      "##ائٹی": 7359,
      "منّت": 7360,
      "##ِل": 7361,
      "توجیل": 7362,
      "کارمرزی": 7363,
      "دیراں": 7364,
      "char": 7365,
      "تہذ": 7366,
      "##کانودی": 7367,
      "ماھیگ": 7368,
      "کارمندانی": 7369,
      "##سال": 7370,
      "ھمیشی": 7371,
      "##صل": 7372,
      "سرء": 7373,
      "مُد": 7374,
      "چوٹ": 7375,
      "##اھیگ": 7376,
      "انگر": 7377,
      "ریپ": 7378,
      "حاکم": 7379,
      "ضلع": 7380,
      "گلگ": 7381,
      "اہوالکار": 7382,
      "##ُمی": 7383,
      "پلا": 7384,
      "ارزان": 7385,
      "بیانی": 7386,
      "لیاری": 7387,
      "زھگانی": 7388,
      "شرگدار": 7389,
      "رندی": 7390,
      "##ـک": 7391,
      "سمجھ": 7392,
      "about": 7393,
      "گوھار": 7394,
      "پروشگ": 7395,
      "##رداں": 7396,
      "te": 7397,
      "تپاکی": 7398,
      "تاہ": 7399,
      "تہہ": 7400,
      "پریات": 7401,
      "لیٹ": 7402,
      "چاڑ": 7403,
      "کْ": 7404,
      "شعرءِ": 7405,
      "راہبند": 7406,
      "نادر": 7407,
      "درملکی": 7408,
      "علام": 7409,
      "ڈل": 7410,
      "ماتیں": 7411,
      "وزن": 7412,
      "یوکرین": 7413,
      "کمپیوٹر": 7414,
      "کائ": 7415,
      "نج": 7416,
      "##ورہ": 7417,
      "season": 7418,
      "##رگیں": 7419,
      "گہرام": 7420,
      "ساڑا": 7421,
      "ادمین": 7422,
      "امریکا": 7423,
      "ڈگارانی": 7424,
      "##ral": 7425,
      "رُد": 7426,
      "ابدال": 7427,
      "رَس": 7428,
      "کُنٹ": 7429,
      "##ational": 7430,
      "again": 7431,
      "حانی": 7432,
      "سینی": 7433,
      "دراہیں": 7434,
      "##نچک": 7435,
      "زانتکاری": 7436,
      "وابانی": 7437,
      "ہدا": 7438,
      "گُٹ": 7439,
      "کشّگ": 7440,
      "معی": 7441,
      "انگہ": 7442,
      "جاہءَ": 7443,
      "دریگ": 7444,
      "رکّ": 7445,
      "بیتہ": 7446,
      "نادراہی": 7447,
      "مزد": 7448,
      "##ھتے": 7449,
      "اندری": 7450,
      "صرف": 7451,
      "##ہند": 7452,
      "three": 7453,
      "ردیں": 7454,
      "آرٹ": 7455,
      "لازم": 7456,
      "شاعرانی": 7457,
      "##ular": 7458,
      "رپت": 7459,
      "##ژدری": 7460,
      "under": 7461,
      "فٹ": 7462,
      "وران": 7463,
      "##eg": 7464,
      "سُھر": 7465,
      "آزار": 7466,
      "##فیظ": 7467,
      "حام": 7468,
      "نات": 7469,
      "پرواہ": 7470,
      "سیکورٹی": 7471,
      "Com": 7472,
      "درمی": 7473,
      "than": 7474,
      "شعور": 7475,
      "زیات": 7476,
      "آدیم": 7477,
      "زرباری": 7478,
      "علاق": 7479,
      "جیڑھانی": 7480,
      "انداز": 7481,
      "##کام": 7482,
      "پیپل": 7483,
      "##ict": 7484,
      "##ابلہ": 7485,
      "ہمدا": 7486,
      "پُرّ": 7487,
      "ذری": 7488,
      "کلو": 7489,
      "زید": 7490,
      "پائی": 7491,
      "شتاں": 7492,
      "##بیگو": 7493,
      "##لّہ": 7494,
      "اَتءُ": 7495,
      "شپءَ": 7496,
      "تهنا": 7497,
      "انوگیں": 7498,
      "اه": 7499,
      "لنگ": 7500,
      "دلبڈی": 7501,
      "سود": 7502,
      "جنوک": 7503,
      "خالد": 7504,
      "بزانکہ": 7505,
      "دروشمے": 7506,
      "کوچگ": 7507,
      "##ومنٹ": 7508,
      "##hip": 7509,
      "آری": 7510,
      "دگانی": 7511,
      "پبل": 7512,
      "##ft": 7513,
      "مالک": 7514,
      "لانگ": 7515,
      "##شپ": 7516,
      "اقبال": 7517,
      "لاہور": 7518,
      "رہا": 7519,
      "عدالت": 7520,
      "##hn": 7521,
      "گوری": 7522,
      "لوگی": 7523,
      "##پتیں": 7524,
      "جائے": 7525,
      "ھسپتال": 7526,
      "between": 7527,
      "##ـم": 7528,
      "بیرک": 7529,
      "چُنت": 7530,
      "جنگے": 7531,
      "اسٹوڈنٹس": 7532,
      "بوہان": 7533,
      "داک": 7534,
      "##ٹم": 7535,
      "بزگی": 7536,
      "دئینت": 7537,
      "تہاریں": 7538,
      "واکداراں": 7539,
      "بَل": 7540,
      "نازک": 7541,
      "پَٹ": 7542,
      "##اِیت": 7543,
      "یں": 7544,
      "سراں": 7545,
      "##ered": 7546,
      "مانیت": 7547,
      "گْران": 7548,
      "سِل": 7549,
      "لے": 7550,
      "مردُ": 7551,
      "دوری": 7552,
      "کشندہ": 7553,
      "سوسائٹی": 7554,
      "اینڈ": 7555,
      "نوکری": 7556,
      "راھشون": 7557,
      "وتئی": 7558,
      "گْورا": 7559,
      "چِل": 7560,
      "انسانے": 7561,
      "ھوں": 7562,
      "دوئ": 7563,
      "record": 7564,
      "بم": 7565,
      "اوتاک": 7566,
      "##اپیں": 7567,
      "سپاہی": 7568,
      "حلک": 7569,
      "صلاح": 7570,
      "##ْوش": 7571,
      "##نڈی": 7572,
      "پنجابی": 7573,
      "عیسیٰ": 7574,
      "دِر": 7575,
      "##تنت": 7576,
      "##باں": 7577,
      "کارا": 7578,
      "مروچاں": 7579,
      "##اہانی": 7580,
      "جہاں": 7581,
      "##خش": 7582,
      "##iew": 7583,
      "کرّ": 7584,
      "اسی": 7585,
      "قبضہ": 7586,
      "چاگردءِ": 7587,
      "##واست": 7588,
      "جنگانی": 7589,
      "دْراہ": 7590,
      "بگو": 7591,
      "طرف": 7592,
      "چاگردے": 7593,
      "دَیگ": 7594,
      "جاگہہ": 7595,
      "اِنس": 7596,
      "گونڈیں": 7597,
      "##الاں": 7598,
      "اشکنگ": 7599,
      "شئ": 7600,
      "نیاما": 7601,
      "##ِکّ": 7602,
      "ہمائی": 7603,
      "ممت": 7604,
      "##یسے": 7605,
      "امروز": 7606,
      "دؤ": 7607,
      "شَرّ": 7608,
      "گئے": 7609,
      "##ریش": 7610,
      "درگیجگ": 7611,
      "حکیم": 7612,
      "ایوکا": 7613,
      "احساس": 7614,
      "##وبی": 7615,
      "حُدا": 7616,
      "بزنجو": 7617,
      "رگام": 7618,
      "ڈَ": 7619,
      "##امن": 7620,
      "جَنگ": 7621,
      "متاثر": 7622,
      "معاملہ": 7623,
      "##عیل": 7624,
      "through": 7625,
      "پنچمی": 7626,
      "عاق": 7627,
      "زالبولاں": 7628,
      "انگل": 7629,
      "زد": 7630,
      "میش": 7631,
      "##ِي": 7632,
      "##ision": 7633,
      "یونانی": 7634,
      "موتک": 7635,
      "صوبائی": 7636,
      "##ڈک": 7637,
      "##گش": 7638,
      "سرشون": 7639,
      "دران": 7640,
      "پرچیکہ": 7641,
      "##olog": 7642,
      "باسکانی": 7643,
      "برمش": 7644,
      "ہان": 7645,
      "##fore": 7646,
      "میزان": 7647,
      "گالانی": 7648,
      "جمال": 7649,
      "##ریقہ": 7650,
      "شاعراں": 7651,
      "جنجالانی": 7652,
      "##orn": 7653,
      "بُنجاھی": 7654,
      "ھمبل": 7655,
      "تھت": 7656,
      "رجینگ": 7657,
      "مظ": 7658,
      "پُچ": 7659,
      "شُمئے": 7660,
      "مسا": 7661,
      "##راق": 7662,
      "کارءُ": 7663,
      "##ؤں": 7664,
      "مجبور": 7665,
      "##کتی": 7666,
      "گوشنت": 7667,
      "later": 7668,
      "num": 7669,
      "##زر": 7670,
      "دلی": 7671,
      "سارتی": 7672,
      "حات": 7673,
      "##ائلی": 7674,
      "پیپلز": 7675,
      "لالا": 7676,
      "end": 7677,
      "دائمی": 7678,
      "گۆں": 7679,
      "تپاس": 7680,
      "درب": 7681,
      "شُد": 7682,
      "لعل": 7683,
      "نکنت": 7684,
      "زنگ": 7685,
      "##ه‌": 7686,
      "prod": 7687,
      "الیکشن": 7688,
      "pos": 7689,
      "روچءِ": 7690,
      "بدے": 7691,
      "##ames": 7692,
      "جاوید": 7693,
      "بٹ": 7694,
      "زری": 7695,
      "دربار": 7696,
      "بُنی": 7697,
      "کُچک": 7698,
      "کامریڈ": 7699,
      "چکانی": 7700,
      "اِس": 7701,
      "آشنا": 7702,
      "اھمد": 7703,
      "ترجمہ": 7704,
      "writ": 7705,
      "إیش": 7706,
      "##ابق": 7707,
      "دوہ": 7708,
      "سَک": 7709,
      "while": 7710,
      "فلسفی": 7711,
      "##زاد": 7712,
      "درکانودی": 7713,
      "ترمپ": 7714,
      "حقانی": 7715,
      "##مات": 7716,
      "زوربیگو": 7717,
      "زانش": 7718,
      "وابے": 7719,
      "فارم": 7720,
      "film": 7721,
      "خلی": 7722,
      "گنوکی": 7723,
      "ذکر": 7724,
      "تالبان": 7725,
      "کھولانی": 7726,
      "زورگیریں": 7727,
      "مقام": 7728,
      "مھکمیں": 7729,
      "ممتاز": 7730,
      "برانز": 7731,
      "کلک": 7732,
      "حیر": 7733,
      "##َس": 7734,
      "کستریں": 7735,
      "عذ": 7736,
      "##شمبے": 7737,
      "شھیدانی": 7738,
      "##ھری": 7739,
      "مُشک": 7740,
      "اُود": 7741,
      "نِشت": 7742,
      "زیمل": 7743,
      "ابو": 7744,
      "ہن": 7745,
      "##نیم": 7746,
      "اَنچ": 7747,
      "کُتہ": 7748,
      "حملہ": 7749,
      "توپک": 7750,
      "کہا": 7751,
      "نودربرے": 7752,
      "گپّاں": 7753,
      "دربرگ": 7754,
      "کوه": 7755,
      "رچ": 7756,
      "لبزانکءِ": 7757,
      "##سار": 7758,
      "اسر": 7759,
      "چوپ": 7760,
      "تیاری": 7761,
      "آزمانکے": 7762,
      "بینگ": 7763,
      "##ished": 7764,
      "احوال": 7765,
      "وانوکاں": 7766,
      "شکاری": 7767,
      "ٹیلی": 7768,
      "##ہل": 7769,
      "دلا": 7770,
      "جانسلام": 7771,
      "کرتنت": 7772,
      "توسیپ": 7773,
      "رندگیری": 7774,
      "برداشت": 7775,
      "##زال": 7776,
      "##اتکگ": 7777,
      "دمگانی": 7778,
      "ڈیٹا": 7779,
      "##ائین": 7780,
      "reg": 7781,
      "ماھل": 7782,
      "اعت": 7783,
      "ٹیب": 7784,
      "گنت": 7785,
      "گلے": 7786,
      "##als": 7787,
      "##راپ": 7788,
      "کاروباری": 7789,
      "عاشق": 7790,
      "##ثار": 7791,
      "دُچار": 7792,
      "فیض": 7793,
      "لفظ": 7794,
      "بندیت": 7795,
      "form": 7796,
      "واقع": 7797,
      "گْوستگ": 7798,
      "انقلاب": 7799,
      "جتگیں": 7800,
      "پَر": 7801,
      "دلے": 7802,
      "ھشک": 7803,
      "##ہے": 7804,
      "دیدار": 7805,
      "شاپ": 7806,
      "دورءَ": 7807,
      "وانگءَ": 7808,
      "وق": 7809,
      "وح": 7810,
      "##ذا": 7811,
      "بیتءُ": 7812,
      "ھیالانی": 7813,
      "نادْ": 7814,
      "ass": 7815,
      "تہذیب": 7816,
      "کوھی": 7817,
      "پاکستانءِ": 7818,
      "##نانی": 7819,
      "##سین": 7820,
      "درج": 7821,
      "دوئین": 7822,
      "مھروان": 7823,
      "##اء": 7824,
      "##وشیں": 7825,
      "##ھو": 7826,
      "##نیف": 7827,
      "دورءِ": 7828,
      "تنقید": 7829,
      "بیور": 7830,
      "بلہ": 7831,
      "ہمودا": 7832,
      "##ury": 7833,
      "قط": 7834,
      "##یی": 7835,
      "بوگی": 7836,
      "اُرشاں": 7837,
      "نگاہ": 7838,
      "made": 7839,
      "##َد": 7840,
      "المیں": 7841,
      "کِرّا": 7842,
      "ھمودا": 7843,
      "سرین": 7844,
      "##ّگی": 7845,
      "##ێا": 7846,
      "اڑے": 7847,
      "بنیادی": 7848,
      "##اسے": 7849,
      "ارسط": 7850,
      "دگرانی": 7851,
      "sub": 7852,
      "عید": 7853,
      "سیکر": 7854,
      "چنگ": 7855,
      "بگش": 7856,
      "ھُب": 7857,
      "اقت": 7858,
      "##زے": 7859,
      "گپتگیں": 7860,
      "##نءِ": 7861,
      "درسد": 7862,
      "سٹ": 7863,
      "ضروری": 7864,
      "ret": 7865,
      "صابر": 7866,
      "ھن": 7867,
      "##ورد": 7868,
      "ac": 7869,
      "##orld": 7870,
      "##فیق": 7871,
      "تخلیق": 7872,
      "New": 7873,
      "چاک": 7874,
      "ڈُ": 7875,
      "ہوتی": 7876,
      "چیف": 7877,
      "جنگول": 7878,
      "##ندگی": 7879,
      "پدائی": 7880,
      "پَہ": 7881,
      "ھاکم": 7882,
      "دوچار": 7883,
      "بیھار": 7884,
      "دلپد": 7885,
      "روگی": 7886,
      "پیرا": 7887,
      "قبائلی": 7888,
      "رمض": 7889,
      "spec": 7890,
      "acc": 7891,
      "خوش": 7892,
      "وَش": 7893,
      "مشر": 7894,
      "چاراِت": 7895,
      "دمب": 7896,
      "act": 7897,
      "نیمگاں": 7898,
      "اوش": 7899,
      "لوگءِ": 7900,
      "سراوان": 7901,
      "استح": 7902,
      "میتگے": 7903,
      "ind": 7904,
      "##بنت": 7905,
      "##داشت": 7906,
      "##ank": 7907,
      "##جنسی": 7908,
      "چرائی": 7909,
      "pe": 7910,
      "پھک": 7911,
      "بالا": 7912,
      "جانسلامتی": 7913,
      "##لاف": 7914,
      "##اھر": 7915,
      "بجار": 7916,
      "where": 7917,
      "عباس": 7918,
      "شانک": 7919,
      "خض": 7920,
      "طالبان": 7921,
      "میس": 7922,
      "ابرمی": 7923,
      "یعنے": 7924,
      "##متی": 7925,
      "بنیات": 7926,
      "میت": 7927,
      "درکار": 7928,
      "نوکین": 7929,
      "چارگءَ": 7930,
      "##ener": 7931,
      "وہداں": 7932,
      "جہانی": 7933,
      "موومنٹ": 7934,
      "زُوت": 7935,
      "mov": 7936,
      "خون": 7937,
      "ڈا": 7938,
      "دودا": 7939,
      "گاریں": 7940,
      "ویر": 7941,
      "دھکان": 7942,
      "واکدارانی": 7943,
      "اوّلی": 7944,
      "سط": 7945,
      "چاگ": 7946,
      "کرّا": 7947,
      "ہا": 7948,
      "##غر": 7949,
      "##یکٹ": 7950,
      "راجاں": 7951,
      "ناشرکاری": 7952,
      "دابیں": 7953,
      "##meric": 7954,
      "والی": 7955,
      "توپان": 7956,
      "چان": 7957,
      "##دارانی": 7958,
      "جاک": 7959,
      "گڈسر": 7960,
      "بلوچستانءَ": 7961,
      "##ating": 7962,
      "inter": 7963,
      "بانُک": 7964,
      "وہدی": 7965,
      "Americ": 7966,
      "حمزہ": 7967,
      "لذ": 7968,
      "##دانی": 7969,
      "##یرے": 7970,
      "نزوریں": 7971,
      "کرتا": 7972,
      "بادینی": 7973,
      "مارشتانی": 7974,
      "حیات": 7975,
      "##وکین": 7976,
      "بُت": 7977,
      "برجاہیں": 7978,
      "##ph": 7979,
      "گوار": 7980,
      "پرستی": 7981,
      "کپتاں": 7982,
      "لگتمالی": 7983,
      "##َم": 7984,
      "تبک": 7985,
      "امین": 7986,
      "وارث": 7987,
      "تژن": 7988,
      "##ole": 7989,
      "چکچینی": 7990,
      "بزور": 7991,
      "شئر": 7992,
      "کارک": 7993,
      "زندگانی": 7994,
      "some": 7995,
      "انسانءِ": 7996,
      "همراه": 7997,
      "ہچبر": 7998,
      "واھشت": 7999,
      "زمانگءَ": 8000,
      "مزاحمت": 8001,
      "##قین": 8002,
      "##یمی": 8003,
      "واه": 8004,
      "دستانی": 8005,
      "##وکیٹ": 8006,
      "جرمنی": 8007,
      "lar": 8008,
      "بِل": 8009,
      "کوہنیں": 8010,
      "جلال": 8011,
      "رَو": 8012,
      "def": 8013,
      "bas": 8014,
      "الدین": 8015,
      "میٹر": 8016,
      "روژنائی": 8017,
      "زبہر": 8018,
      "بیبگر": 8019,
      "##وام": 8020,
      "مـ": 8021,
      "##bum": 8022,
      "مارشتاں": 8023,
      "سرچ": 8024,
      "سپاھی": 8025,
      "پیری": 8026,
      "بامرد": 8027,
      "الّمی": 8028,
      "releas": 8029,
      "نمائ": 8030,
      "حفیظ": 8031,
      "سَکّ": 8032,
      "اوتاگ": 8033,
      "رشید": 8034,
      "سیکرٹری": 8035,
      "تین": 8036,
      "زاہر": 8037,
      "سنت": 8038,
      "ورنایاں": 8039,
      "##اہرہ": 8040,
      "یکّیں": 8041,
      "سُہر": 8042,
      "یکر": 8043,
      "انٹ": 8044,
      "درامد": 8045,
      "دستگیر": 8046,
      "نیمروچ": 8047,
      "شیپ": 8048,
      "بوجیگ": 8049,
      "بیغ": 8050,
      "درگ": 8051,
      "والے": 8052,
      "خالق": 8053,
      "بین": 8054,
      "نیمون": 8055,
      "##ont": 8056,
      "جمعہ": 8057,
      "دنیاءَ": 8058,
      "##aid": 8059,
      "بھار": 8060,
      "وئیلاں": 8061,
      "##یلا": 8062,
      "جنگءَ": 8063,
      "دْرو": 8064,
      "##ریزگ": 8065,
      "زلورت": 8066,
      "##ساب": 8067,
      "مُج": 8068,
      "mus": 8069,
      "جمیل": 8070,
      "بیس": 8071,
      "درنگ": 8072,
      "ایکشن": 8073,
      "bu": 8074,
      "##نیام": 8075,
      "##افظ": 8076,
      "واد": 8077,
      "##ـد": 8078,
      "گپءُ": 8079,
      "follow": 8080,
      "ایوکی": 8081,
      "کساسے": 8082,
      "gr": 8083,
      "##جوان": 8084,
      "قادر": 8085,
      "##بیب": 8086,
      "At": 8087,
      "ماش": 8088,
      "آدمی": 8089,
      "ہاں": 8090,
      "##انکے": 8091,
      "##یکی": 8092,
      "##ann": 8093,
      "کشمیر": 8094,
      "استعمال": 8095,
      "am": 8096,
      "اَنتءُ": 8097,
      "دَرو": 8098,
      "اختیار": 8099,
      "اسماعیل": 8100,
      "پات": 8101,
      "گشاں": 8102,
      "##ived": 8103,
      "آماچیں": 8104,
      "کوپگاں": 8105,
      "یاس": 8106,
      "کنٹ": 8107,
      "کُج": 8108,
      "##مائی": 8109,
      "مارکیٹ": 8110,
      "##وشگ": 8111,
      "فن": 8112,
      "##ific": 8113,
      "شیئر": 8114,
      "اگدہ": 8115,
      "بیث": 8116,
      "سیمسراں": 8117,
      "##بات": 8118,
      "گلاب": 8119,
      "ھلاسی": 8120,
      "second": 8121,
      "سوری": 8122,
      "گھت": 8123,
      "دلپر": 8124,
      "گرٛ": 8125,
      "such": 8126,
      "راکٹ": 8127,
      "ریگ": 8128,
      "اط": 8129,
      "##ced": 8130,
      "پولکاری": 8131,
      "سھر": 8132,
      "اِھ": 8133,
      "##رید": 8134,
      "پہنچ": 8135,
      "نبشتانکے": 8136,
      "گُشنت": 8137,
      "ڈرائیور": 8138,
      "so": 8139,
      "پہر": 8140,
      "ابن": 8141,
      "##ike": 8142,
      "گے": 8143,
      "ملّا": 8144,
      "four": 8145,
      "ساہگ": 8146,
      "وپتگ": 8147,
      "ہرد": 8148,
      "##ہنیں": 8149,
      "بْر": 8150,
      "پُس": 8151,
      "##راھیم": 8152,
      "سرءِ": 8153,
      "##منندیں": 8154,
      "جْوانیں": 8155,
      "پَشت": 8156,
      "پین": 8157,
      "سَوَ": 8158,
      "دبئی": 8159,
      "##زمان": 8160,
      "کُلیں": 8161,
      "##ery": 8162,
      "ھنداں": 8163,
      "مدر": 8164,
      "سوئی": 8165,
      "اشیءِ": 8166,
      "ڈالر": 8167,
      "ڈیل": 8168,
      "##کمی": 8169,
      "اوشتگ": 8170,
      "شوانگ": 8171,
      "روچگ": 8172,
      "ھیالاں": 8173,
      "سنگتی": 8174,
      "زھگاں": 8175,
      "مسافر": 8176,
      "ہفت": 8177,
      "##ِی": 8178,
      "##شکار": 8179,
      "مسئلہ": 8180,
      "An": 8181,
      "پاہ": 8182,
      "##ینان": 8183,
      "##سٹس": 8184,
      "تعالی": 8185,
      "دنیگا": 8186,
      "تبد": 8187,
      "##ینکی": 8188,
      "آهاں": 8189,
      "یاگی": 8190,
      "##سراں": 8191,
      "used": 8192,
      "##red": 8193,
      "انچوشکہ": 8194,
      "عث": 8195,
      "##فو": 8196,
      "##ہت": 8197,
      "##اساں": 8198,
      "میران": 8199,
      "پُترت": 8200,
      "دپت": 8201,
      "روکیں": 8202,
      "ناھ": 8203,
      "##افی": 8204,
      "دنتان": 8205,
      "گیشینگ": 8206,
      "سوگات": 8207,
      "خلیل": 8208,
      "پلاٹ": 8209,
      "دراں": 8210,
      "گشے": 8211,
      "بیچار": 8212,
      "##ـل": 8213,
      "ملام": 8214,
      "براھوئی": 8215,
      "زاہد": 8216,
      "##مری": 8217,
      "اِیش": 8218,
      "جنکانی": 8219,
      "سواریں": 8220,
      "##مبل": 8221,
      "چیردستی": 8222,
      "کبز": 8223,
      "##ِّ": 8224,
      "برپ": 8225,
      "دیمونی": 8226,
      "فتح": 8227,
      "##hes": 8228,
      "عارف": 8229,
      "زاه": 8230,
      "گوھر": 8231,
      "##ics": 8232,
      "سیاہیں": 8233,
      "درانگاز": 8234,
      "day": 8235,
      "نادی": 8236,
      "بنگلہ": 8237,
      "اِیر": 8238,
      "نزر": 8239,
      "مساپر": 8240,
      "As": 8241,
      "ھز": 8242,
      "کارڈ": 8243,
      "زبیر": 8244,
      "بحث": 8245,
      "##ex": 8246,
      "پَچ": 8247,
      "##بین": 8248,
      "rev": 8249,
      "ذہ": 8250,
      "سببءَ": 8251,
      "پیداگ": 8252,
      "میراث": 8253,
      "##نائز": 8254,
      "پئیم": 8255,
      "شانزدہ": 8256,
      "##ily": 8257,
      "یورپی": 8258,
      "ھکّ": 8259,
      "اُلُ": 8260,
      "This": 8261,
      "پلی": 8262,
      "مانداشتگ": 8263,
      "بانور": 8264,
      "گواری": 8265,
      "کارچ": 8266,
      "##اجہ": 8267,
      "حیالانی": 8268,
      "عبدالرح": 8269,
      "گُلزمین": 8270,
      "Sh": 8271,
      "##زمت": 8272,
      "حوالہ": 8273,
      "کارمندے": 8274,
      "لَگ": 8275,
      "میم": 8276,
      "بندانی": 8277,
      "publ": 8278,
      "وخت": 8279,
      "##ساں": 8280,
      "کاریں": 8281,
      "جہاند": 8282,
      "##بَ": 8283,
      "##ane": 8284,
      "##بلوچی": 8285,
      "ہندو": 8286,
      "##زانتی": 8287,
      "کـَ": 8288,
      "سکّیں": 8289,
      "راجءِ": 8290,
      "داتہ": 8291,
      "آہگ": 8292,
      "پابندی": 8293,
      "call": 8294,
      "لیڈر": 8295,
      "پِڑ": 8296,
      "چندیں": 8297,
      "گُڑ": 8298,
      "امر": 8299,
      "چاگردءَ": 8300,
      "سلیمان": 8301,
      "رمضان": 8302,
      "راگ": 8303,
      "سسّا": 8304,
      "اِئے": 8305,
      "رجانکاری": 8306,
      "زبانی": 8307,
      "##اءِ": 8308,
      "لون": 8309,
      "کئ": 8310,
      "بارے": 8311,
      "دن": 8312,
      "ہاتھ": 8313,
      "ہمراہی": 8314,
      "##کرت": 8315,
      "سسا": 8316,
      "اَبید": 8317,
      "درجہ": 8318,
      "album": 8319,
      "تمن": 8320,
      "زَر": 8321,
      "وات": 8322,
      "##hen": 8323,
      "انکار": 8324,
      "گوٛشیت": 8325,
      "ہمیشی": 8326,
      "گزر": 8327,
      "##فتگ": 8328,
      "ٹوھیں": 8329,
      "##ُرت": 8330,
      "گرمی": 8331,
      "لَٹ": 8332,
      "کود": 8333,
      "##ئش": 8334,
      "واھگانی": 8335,
      "دیریں": 8336,
      "##نکس": 8337,
      "##سیں": 8338,
      "دیک": 8339,
      "گارڈ": 8340,
      "ارادہ": 8341,
      "چئی": 8342,
      "اتح": 8343,
      "پربند": 8344,
      "##any": 8345,
      "جیہند": 8346,
      "درونت": 8347,
      "میرے": 8348,
      "before": 8349,
      "اُرشے": 8350,
      "نادراھجاہ": 8351,
      "زمانہ": 8352,
      "me": 8353,
      "خر": 8354,
      "آپی": 8355,
      "حراب": 8356,
      "##ادق": 8357,
      "تیلانک": 8358,
      "##ئیناں": 8359,
      "عبدالحمید": 8360,
      "بیانیہ": 8361,
      "سہی": 8362,
      "گلی": 8363,
      "##آمد": 8364,
      "ریکارڈ": 8365,
      "آگہ": 8366,
      "تار": 8367,
      "بزگیں": 8368,
      "استار": 8369,
      "لیبی": 8370,
      "##فور": 8371,
      "##ێت": 8372,
      "پلان": 8373,
      "ماھے": 8374,
      "جرمن": 8375,
      "برطانیہ": 8376,
      "do": 8377,
      "زاتی": 8378,
      "##ماگ": 8379,
      "ماحول": 8380,
      "ببنت": 8381,
      "##ۆچی": 8382,
      "بوگءَ": 8383,
      "سِتک": 8384,
      "##اھان": 8385,
      "##res": 8386,
      "کروڑ": 8387,
      "الف": 8388,
      "کائے": 8389,
      "ماھکان": 8390,
      "اہمد": 8391,
      "ترسی": 8392,
      "##سرءَ": 8393,
      "اشارہ": 8394,
      "ھزارانی": 8395,
      "شاریؔ": 8396,
      "sy": 8397,
      "شانت": 8398,
      "شاھی": 8399,
      "ہون": 8400,
      "کرسی": 8401,
      "گیشّ": 8402,
      "نِند": 8403,
      "گوازینتگ": 8404,
      "دیدگاں": 8405,
      "درانگازی": 8406,
      "ڈرون": 8407,
      "زح": 8408,
      "وع": 8409,
      "وداری": 8410,
      "##بیلہ": 8411,
      "##ھن": 8412,
      "ازباب": 8413,
      "Eng": 8414,
      "ویران": 8415,
      "لہڑ": 8416,
      "دلانی": 8417,
      "شپی": 8418,
      "being": 8419,
      "ربید": 8420,
      "هزار": 8421,
      "مہرانی": 8422,
      "سالونک": 8423,
      "دْراج": 8424,
      "جیگ": 8425,
      "روگءَ": 8426,
      "##oun": 8427,
      "زبھر": 8428,
      "##فاظ": 8429,
      "بشکھ": 8430,
      "اظ": 8431,
      "بلڈ": 8432,
      "مُھ": 8433,
      "مهر": 8434,
      "##فٹ": 8435,
      "رھبندانی": 8436,
      "مندی": 8437,
      "هل": 8438,
      "پچیں": 8439,
      "Jo": 8440,
      "##ده": 8441,
      "آھت": 8442,
      "آصف": 8443,
      "مردمءَ": 8444,
      "##ected": 8445,
      "تھاری": 8446,
      "باھو": 8447,
      "##ept": 8448,
      "درْ": 8449,
      "جوڑی": 8450,
      "Br": 8451,
      "ep": 8452,
      "##کشیں": 8453,
      "supp": 8454,
      "درچکانی": 8455,
      "there": 8456,
      "اِتیں": 8457,
      "اعظم": 8458,
      "وثی": 8459,
      "بہشت": 8460,
      "years": 8461,
      "نکان": 8462,
      "##جل": 8463,
      "گھر": 8464,
      "برٛ": 8465,
      "برتانی": 8466,
      "ادارگ": 8467,
      "پنجاپ": 8468,
      "سمین": 8469,
      "##راط": 8470,
      "دستے": 8471,
      "نبشته": 8472,
      "##واج": 8473,
      "چیرءَ": 8474,
      "##اوں": 8475,
      "##ـں": 8476,
      "ڈرام": 8477,
      "آرگنائز": 8478,
      "دئیں": 8479,
      "##ِد": 8480,
      "بَچ": 8481,
      "زمینی": 8482,
      "ھژدہ": 8483,
      "تَر": 8484,
      "جع": 8485,
      "سڑک": 8486,
      "ھمرائی": 8487,
      "##ائینگ": 8488,
      "##هیں": 8489,
      "سِنگ": 8490,
      "ھُشک": 8491,
      "ھاموش": 8492,
      "mon": 8493,
      "ہونے": 8494,
      "##چاری": 8495,
      "انڈیا": 8496,
      "تْران": 8497,
      "مردءَ": 8498,
      "جمالی": 8499,
      "##اچنی": 8500,
      "درخواست": 8501,
      "توری": 8502,
      "bl": 8503,
      "رخ": 8504,
      "##ُّ": 8505,
      "##لیا": 8506,
      "اوداں": 8507,
      "گورنر": 8508,
      "##owever": 8509,
      "##امے": 8510,
      "کوشش": 8511,
      "##تلف": 8512,
      "کنائینتگ": 8513,
      "پارلیمنٹ": 8514,
      "ربی": 8515,
      "فاروق": 8516,
      "شازادگ": 8517,
      "بزدار": 8518,
      "گُشاں": 8519,
      "بوٹ": 8520,
      "ھائی": 8521,
      "گیرت": 8522,
      "حیدر": 8523,
      "##ool": 8524,
      "راستے": 8525,
      "زمانگے": 8526,
      "دلگوشی": 8527,
      "جسٹس": 8528,
      "کارءِ": 8529,
      "استمان": 8530,
      "رئیس": 8531,
      "no": 8532,
      "ٹارگ": 8533,
      "پڑا": 8534,
      "##اہا": 8535,
      "##ars": 8536,
      "high": 8537,
      "شاکر": 8538,
      "کہنیں": 8539,
      "##گواجہ": 8540,
      "گْوھرام": 8541,
      "اِشاں": 8542,
      "found": 8543,
      "توپ": 8544,
      "ہواری": 8545,
      "##ird": 8546,
      "تپنگ": 8547,
      "وھدا": 8548,
      "تول": 8549,
      "ٹیل": 8550,
      "##زوری": 8551,
      "کہن": 8552,
      "جیڑہانی": 8553,
      "##ife": 8554,
      "کابل": 8555,
      "یکین": 8556,
      "نبوتگ": 8557,
      "خضدار": 8558,
      "سرءُ": 8559,
      "سروس": 8560,
      "جنینانی": 8561,
      "set": 8562,
      "پوری": 8563,
      "صادق": 8564,
      "فیس": 8565,
      "ادیب": 8566,
      "خوا": 8567,
      "نمب": 8568,
      "کارستانی": 8569,
      "شُتاں": 8570,
      "مختلف": 8571,
      "اێ": 8572,
      "تاپ": 8573,
      "پوریا": 8574,
      "دژمنیں": 8575,
      "درکپتگ": 8576,
      "##عتی": 8577,
      "##هُ": 8578,
      "نوجوان": 8579,
      "##other": 8580,
      "پْروش": 8581,
      "عذاب": 8582,
      "گمانی": 8583,
      "برزیں": 8584,
      "انسانیت": 8585,
      "جزبگ": 8586,
      "ابراھیم": 8587,
      "##ُشت": 8588,
      "##لءِ": 8589,
      "پادا": 8590,
      "آزمانکار": 8591,
      "مشت": 8592,
      "مھتل": 8593,
      "دردے": 8594,
      "زھگے": 8595,
      "مسال": 8596,
      "یہاں": 8597,
      "ناگمان": 8598,
      "قح": 8599,
      "گماں": 8600,
      "##غنت": 8601,
      "مردمءِ": 8602,
      "سیاھگ": 8603,
      "##تاب": 8604,
      "##ٹیگ": 8605,
      "زورآ": 8606,
      "داشتگیں": 8607,
      "شخصیت": 8608,
      "زانیں": 8609,
      "حبرے": 8610,
      "امارات": 8611,
      "نازر": 8612,
      "بچّ": 8613,
      "##aj": 8614,
      "##ines": 8615,
      "درٛوشم": 8616,
      "اشتاپ": 8617,
      "سَوَب": 8618,
      "داران": 8619,
      "ملکے": 8620,
      "گندیں": 8621,
      "تیزی": 8622,
      "ہاک": 8623,
      "##راہی": 8624,
      "آرتگ": 8625,
      "گـ": 8626,
      "عباد": 8627,
      "کاس": 8628,
      "شاعریءِ": 8629,
      "نبیسّگ": 8630,
      "حالت": 8631,
      "دردانی": 8632,
      "ارساں": 8633,
      "##ریکٹر": 8634,
      "امیری": 8635,
      "جنازہ": 8636,
      "سہرا": 8637,
      "##ained": 8638,
      "باھوٹ": 8639,
      "sur": 8640,
      "##برا": 8641,
      "##گرگ": 8642,
      "غالب": 8643,
      "چھر": 8644,
      "پرچی": 8645,
      "کھولاں": 8646,
      "مقابلہ": 8647,
      "تحقی": 8648,
      "اۆ": 8649,
      "مکہ": 8650,
      "##ئنت": 8651,
      "##ائیت": 8652,
      "رول": 8653,
      "##کنیں": 8654,
      "##وگا": 8655,
      "ارد": 8656,
      "حنیف": 8657,
      "مندیں": 8658,
      "ٹرانس": 8659,
      "گژن": 8660,
      "##گین": 8661,
      "##لاط": 8662,
      "پلام": 8663,
      "پیشدارگ": 8664,
      "مجھے": 8665,
      "گیم": 8666,
      "بیتیں": 8667,
      "بلوچیءَ": 8668,
      "قدرت": 8669,
      "سیستان": 8670,
      "##ins": 8671,
      "ہنچیں": 8672,
      "ازمکار": 8673,
      "##وداں": 8674,
      "نگیگ": 8675,
      "منافع": 8676,
      "##ارءِ": 8677,
      "##ونٹ": 8678,
      "جہاز": 8679,
      "کَشّ": 8680,
      "حافظ": 8681,
      "##زانی": 8682,
      "##ised": 8683,
      "ڈولدار": 8684,
      "خام": 8685,
      "##eb": 8686,
      "لسبیلہ": 8687,
      "ھژدری": 8688,
      "سطح": 8689,
      "##ek": 8690,
      "وسیل": 8691,
      "زوراکیں": 8692,
      "ٹارگٹ": 8693,
      "صبر": 8694,
      "تنا": 8695,
      "بہادر": 8696,
      "الاج": 8697,
      "میاری": 8698,
      "##ائیش": 8699,
      "##ities": 8700,
      "سبک": 8701,
      "##rop": 8702,
      "چال": 8703,
      "##ئٹر": 8704,
      "جسم": 8705,
      "سینٹر": 8706,
      "گي": 8707,
      "سیزدہ": 8708,
      "اَتنت": 8709,
      "رحمت": 8710,
      "بباں": 8711,
      "انف": 8712,
      "دراتکگ": 8713,
      "کِش": 8714,
      "بْرات": 8715,
      "ٹر": 8716,
      "گه": 8717,
      "##io": 8718,
      "دَنت": 8719,
      "##ـان": 8720,
      "سالیں": 8721,
      "بگندے": 8722,
      "براتاں": 8723,
      "قسم": 8724,
      "دارو": 8725,
      "تنظیم": 8726,
      "ستر": 8727,
      "عاج": 8728,
      "##آپ": 8729,
      "نوکتریں": 8730,
      "##وزیشن": 8731,
      "جزم": 8732,
      "نوشت": 8733,
      "series": 8734,
      "##الله": 8735,
      "دعوت": 8736,
      "##ؔءَ": 8737,
      "##راتکی": 8738,
      "آزاتیں": 8739,
      "روشن": 8740,
      "ہستی": 8741,
      "گِپتگ": 8742,
      "تند": 8743,
      "سانک": 8744,
      "##زت": 8745,
      "پدم": 8746,
      "loc": 8747,
      "##pen": 8748,
      "##ھدہ": 8749,
      "جهد": 8750,
      "عوامی": 8751,
      "number": 8752,
      "##بلکن": 8753,
      "واہند": 8754,
      "اتگیں": 8755,
      "ہلک": 8756,
      "##ڑھ": 8757,
      "لینگ": 8758,
      "شگان": 8759,
      "##air": 8760,
      "##iver": 8761,
      "بلوٹ": 8762,
      "pres": 8763,
      "پانی": 8764,
      "پرنٹ": 8765,
      "##بوتگ": 8766,
      "##فتار": 8767,
      "لح": 8768,
      "ٹوک": 8769,
      "##ردار": 8770,
      "ناجو": 8771,
      "ایردستیں": 8772,
      "لاچ": 8773,
      "ٹکّ": 8774,
      "##ہدی": 8775,
      "##ژنی": 8776,
      "ملامت": 8777,
      "گوشتی": 8778,
      "##الم": 8779,
      "براتانی": 8780,
      "بنگالی": 8781,
      "ھؤ": 8782,
      "گشی": 8783,
      "##ثیت": 8784,
      "ابدمان": 8785,
      "##ause": 8786,
      "قربانی": 8787,
      "##الا": 8788,
      "وَت": 8789,
      "عالمی": 8790,
      "اخراج": 8791,
      "بیدار": 8792,
      "روبر": 8793,
      "نادُ": 8794,
      "پھم": 8795,
      "تحصیل": 8796,
      "##دیث": 8797,
      "زیرد": 8798,
      "قمبر": 8799,
      "بندر": 8800,
      "وئیلانی": 8801,
      "بهر": 8802,
      "##ten": 8803,
      "##ُکّ": 8804,
      "سورت": 8805,
      "ہج": 8806,
      "بیتگاں": 8807,
      "##ویے": 8808,
      "Sc": 8809,
      "شانگ": 8810,
      "##صی": 8811,
      "##برتگ": 8812,
      "ہواریں": 8813,
      "دابے": 8814,
      "##ode": 8815,
      "غریب": 8816,
      "##حدہ": 8817,
      "مجگ": 8818,
      "لگتمال": 8819,
      "فورسز": 8820,
      "وَر": 8821,
      "ٹپاس": 8822,
      "دیوک": 8823,
      "ارت": 8824,
      "آزم": 8825,
      "محب": 8826,
      "آییئے": 8827,
      "بیں": 8828,
      "##بندیں": 8829,
      "دگراں": 8830,
      "کلمتی": 8831,
      "دال": 8832,
      "##ہال": 8833,
      "یَک": 8834,
      "##رینا": 8835,
      "قانود": 8836,
      "##جّ": 8837,
      "کمّے": 8838,
      "نپاد": 8839,
      "استحکام": 8840,
      "أل": 8841,
      "جاد": 8842,
      "##تھ": 8843,
      "##ریگ": 8844,
      "جائی": 8845,
      "آییا": 8846,
      "sever": 8847,
      "Car": 8848,
      "حصّہ": 8849,
      "##ier": 8850,
      "both": 8851,
      "مکر": 8852,
      "نئیل": 8853,
      "بول": 8854,
      "توکلی": 8855,
      "##یتی": 8856,
      "##ince": 8857,
      "##ement": 8858,
      "سالءَ": 8859,
      "شاب": 8860,
      "دوار": 8861,
      "سلاح": 8862,
      "یاتانی": 8863,
      "بندیگیں": 8864,
      "##row": 8865,
      "appear": 8866,
      "زاکر": 8867,
      "شرکت": 8868,
      "پلانی": 8869,
      "##ادیں": 8870,
      "##لیو": 8871,
      "کشیت": 8872,
      "##ower": 8873,
      "چئیرمین": 8874,
      "بلاش": 8875,
      "##ress": 8876,
      "سلطان": 8877,
      "محنت": 8878,
      "سماجی": 8879,
      "ایرانءِ": 8880,
      "حما": 8881,
      "##ron": 8882,
      "##یلے": 8883,
      "##ُکے": 8884,
      "عبدالص": 8885,
      "زوراکیاں": 8886,
      "co": 8887,
      "هِ": 8888,
      "ڈھ": 8889,
      "گێ": 8890,
      "گلزار": 8891,
      "ارزانی": 8892,
      "جنگءِ": 8893,
      "##ہوں": 8894,
      "##ھاؤ": 8895,
      "سروزیر": 8896,
      "سہر": 8897,
      "##بھ": 8898,
      "مطابق": 8899,
      "ھرو": 8900,
      "پہلے": 8901,
      "کھن": 8902,
      "نوبت": 8903,
      "ڈکھ": 8904,
      "نبوت": 8905,
      "کلچر": 8906,
      "بدلیاں": 8907,
      "##ّءِ": 8908,
      "روب": 8909,
      "کتابی": 8910,
      "##irect": 8911,
      "Brit": 8912,
      "هیال": 8913,
      "اِست": 8914,
      "کسءَ": 8915,
      "then": 8916,
      "ناگی": 8917,
      "اُلُسی": 8918,
      "هئی": 8919,
      "چکے": 8920,
      "کڑ": 8921,
      "اسٹیشن": 8922,
      "گوریچانی": 8923,
      "##iet": 8924,
      "زاھد": 8925,
      "##قع": 8926,
      "وتکشی": 8927,
      "میتگاں": 8928,
      "سمندر": 8929,
      "فرانسیسی": 8930,
      "epis": 8931,
      "qu": 8932,
      "طاہرہ": 8933,
      "##وئیں": 8934,
      "##میشن": 8935,
      "ہمگرنچ": 8936,
      "##ise": 8937,
      "including": 8938,
      "دچار": 8939,
      "بنزہ": 8940,
      "ڈالچار": 8941,
      "Le": 8942,
      "##اڑ": 8943,
      "دیگی": 8944,
      "سُہ": 8945,
      "پُشتءَ": 8946,
      "بحرین": 8947,
      "ائی": 8948,
      "درنیام": 8949,
      "##ale": 8950,
      "چکاں": 8951,
      "توم": 8952,
      "دُراہ": 8953,
      "دستان": 8954,
      "رز": 8955,
      "ہنچ": 8956,
      "پسندی": 8957,
      "گنجیں": 8958,
      "##اؤس": 8959,
      "جاتی": 8960,
      "##its": 8961,
      "تاکاں": 8962,
      "اپوزیشن": 8963,
      "##پارٹمنٹ": 8964,
      "##ection": 8965,
      "cap": 8966,
      "##هِ": 8967,
      "روئے": 8968,
      "ناش": 8969,
      "گْوھار": 8970,
      "مالیاتی": 8971,
      "زبر": 8972,
      "سئ": 8973,
      "واس": 8974,
      "##ؤل": 8975,
      "روم": 8976,
      "الع": 8977,
      "کواس": 8978,
      "لاچاری": 8979,
      "ریم": 8980,
      "##ایں": 8981,
      "##ert": 8982,
      "##ather": 8983,
      "سهیگ": 8984,
      "کپنت": 8985,
      "ایمنیں": 8986,
      "against": 8987,
      "##میش": 8988,
      "بارگ": 8989,
      "بَس": 8990,
      "well": 8991,
      "ونڈ": 8992,
      "تچکی": 8993,
      "کارندھاں": 8994,
      "آئیء": 8995,
      "خلافا": 8996,
      "پلامرزی": 8997,
      "آیک": 8998,
      "قرض": 8999,
      "became": 9000,
      "کنتءُ": 9001,
      "بَھر": 9002,
      "##لاطون": 9003,
      "زمّہ": 9004,
      "تلار": 9005,
      "کماندار": 9006,
      "ندارہ": 9007,
      "contr": 9008,
      "بریں": 9009,
      "مشہور": 9010,
      "شوربندی": 9011,
      "##ندان": 9012,
      "سربازی": 9013,
      "##یمنیں": 9014,
      "known": 9015,
      "تئیی": 9016,
      "پجّ": 9017,
      "گوازینت": 9018,
      "وپا": 9019,
      "کانگ": 9020,
      "میانی": 9021,
      "##اَت": 9022,
      "charac": 9023,
      "##صوص": 9024,
      "تاوانانی": 9025,
      "trans": 9026,
      "ده": 9027,
      "شف": 9028,
      "کربانی": 9029,
      "ماہیگ": 9030,
      "بُرزی": 9031,
      "##نگیجی": 9032,
      "واز": 9033,
      "اندازہ": 9034,
      "ھوشاپ": 9035,
      "فکری": 9036,
      "دلمراد": 9037,
      "کرپ": 9038,
      "back": 9039,
      "سلاھاں": 9040,
      "##ّینتگ": 9041,
      "سببا": 9042,
      "##افت": 9043,
      "رودراتکی": 9044,
      "add": 9045,
      "el": 9046,
      "ٹاور": 9047,
      "##ٗوہ": 9048,
      "سرگر": 9049,
      "بکنیں": 9050,
      "go": 9051,
      "##هءِ": 9052,
      "سواری": 9053,
      "pop": 9054,
      "##اتگیں": 9055,
      "بلۆچی": 9056,
      "سراج": 9057,
      "##زگاری": 9058,
      "لئیب": 9059,
      "##کین": 9060,
      "##راِنت": 9061,
      "وانین": 9062,
      "فط": 9063,
      "desc": 9064,
      "sing": 9065,
      "##son": 9066,
      "##ield": 9067,
      "##تگاں": 9068,
      "##urch": 9069,
      "کبرستان": 9070,
      "شیک": 9071,
      "گیٹ": 9072,
      "##فوظ": 9073,
      "سْ": 9074,
      "نـ": 9075,
      "دیکھ": 9076,
      "رنگی": 9077,
      "##مردم": 9078,
      "perform": 9079,
      "مرزا": 9080,
      "inv": 9081,
      "دوران": 9082,
      "ڈیہی": 9083,
      "##ادار": 9084,
      "##ern": 9085,
      "بُند": 9086,
      "زانتکاریں": 9087,
      "em": 9088,
      "فرد": 9089,
      "پْ": 9090,
      "##هاں": 9091,
      "پریشانی": 9092,
      "کونڈ": 9093,
      "منتگ": 9094,
      "نما": 9095,
      "ذریعہ": 9096,
      "چید": 9097,
      "##سیت": 9098,
      "شعرے": 9099,
      "لھ": 9100,
      "نل": 9101,
      "کلگ": 9102,
      "مُز": 9103,
      "##ures": 9104,
      "براہوئی": 9105,
      "یاسر": 9106,
      "یکوارے": 9107,
      "جسمانی": 9108,
      "دیمرئی": 9109,
      "نتی": 9110,
      "منشی": 9111,
      "معاش": 9112,
      "کارگشاد": 9113,
      "دوئمی": 9114,
      "ساچان": 9115,
      "اولاک": 9116,
      "کاگدے": 9117,
      "##روچے": 9118,
      "راجدوستی": 9119,
      "اِدءَ": 9120,
      "شپانک": 9121,
      "گریب": 9122,
      "نائب": 9123,
      "کتیں": 9124,
      "str": 9125,
      "اہم": 9126,
      "دوئینانی": 9127,
      "ھوری": 9128,
      "##yl": 9129,
      "بلائیں": 9130,
      "ٹُ": 9131,
      "وشّیں": 9132,
      "سمائی": 9133,
      "##کومتی": 9134,
      "کارندھانی": 9135,
      "سست": 9136,
      "دْراھیں": 9137,
      "بلاشبہ": 9138,
      "راہءَ": 9139,
      "##ّاس": 9140,
      "##لَّ": 9141,
      "بُنگیج": 9142,
      "آسے": 9143,
      "واباں": 9144,
      "مِن": 9145,
      "فرمان": 9146,
      "بُرزیں": 9147,
      "##ینگ": 9148,
      "##ناکی": 9149,
      "##ریٹری": 9150,
      "یونان": 9151,
      "سق": 9152,
      "##الہ": 9153,
      "جلس": 9154,
      "ماث": 9155,
      "میوز": 9156,
      "لاھ": 9157,
      "سپاہ": 9158,
      "تُپ": 9159,
      "دێما": 9160,
      "##یشل": 9161,
      "نیار": 9162,
      "شرط": 9163,
      "##ویٰ": 9164,
      "بورڈ": 9165,
      "##ful": 9166,
      "معنی": 9167,
      "رھشونی": 9168,
      "ہوتے": 9169,
      "many": 9170,
      "شانی": 9171,
      "تاکے": 9172,
      "تیرانی": 9173,
      "main": 9174,
      "جال": 9175,
      "چمے": 9176,
      "پھریز": 9177,
      "##شھر": 9178,
      "پرآئی": 9179,
      "نگر": 9180,
      "بانزل": 9181,
      "##ِس": 9182,
      "##up": 9183,
      "جنس": 9184,
      "افلاطون": 9185,
      "حاتم": 9186,
      "لانک": 9187,
      "ھاش": 9188,
      "##ْت": 9189,
      "منٹ": 9190,
      "دوئیناں": 9191,
      "مڑد": 9192,
      "تاگت": 9193,
      "نادرا": 9194,
      "بنگل": 9195,
      "یکجا": 9196,
      "شرم": 9197,
      "یعق": 9198,
      "##کتگ": 9199,
      "زھم": 9200,
      "مغربی": 9201,
      "##خیں": 9202,
      "##رداد": 9203,
      "اَتاں": 9204,
      "stud": 9205,
      "اخلاق": 9206,
      "long": 9207,
      "بجن": 9208,
      "زاری": 9209,
      "تھانہ": 9210,
      "مُرت": 9211,
      "##though": 9212,
      "کاپٹر": 9213,
      "min": 9214,
      "دژ": 9215,
      "کمیونسٹ": 9216,
      "زگریں": 9217,
      "مائی": 9218,
      "##inn": 9219,
      "سریاب": 9220,
      "United": 9221,
      "##نوکیں": 9222,
      "بیسہ": 9223,
      "اِتگیں": 9224,
      "بلوچءَ": 9225,
      "رکھینگ": 9226,
      "قیمتانی": 9227,
      "##میگ": 9228,
      "اوگام": 9229,
      "ملکءِ": 9230,
      "وم": 9231,
      "بلال": 9232,
      "بِندات": 9233,
      "تصور": 9234,
      "جاس": 9235,
      "شنا": 9236,
      "ژا": 9237,
      "##کور": 9238,
      "منط": 9239,
      "توبہ": 9240,
      "رنداں": 9241,
      "اہل": 9242,
      "مگرب": 9243,
      "پگری": 9244,
      "گیں": 9245,
      "جنسی": 9246,
      "دَم": 9247,
      "تُنّ": 9248,
      "ہب": 9249,
      "عادت": 9250,
      "کوٛ": 9251,
      "جنوز": 9252,
      "پیگمبر": 9253,
      "##گُ": 9254,
      "دویں": 9255,
      "سیاھ": 9256,
      "وھدءِ": 9257,
      "زانشتی": 9258,
      "ساڑ": 9259,
      "جَنَگ": 9260,
      "##velop": 9261,
      "زن": 9262,
      "##هانی": 9263,
      "انّ": 9264,
      "قابل": 9265,
      "##led": 9266,
      "##شتے": 9267,
      "باک": 9268,
      "ھشکیں": 9269,
      "##اتانی": 9270,
      "شپءِ": 9271,
      "زنڈیں": 9272,
      "رے": 9273,
      "کھر": 9274,
      "##لڈ": 9275,
      "##هد": 9276,
      "##ءُُ": 9277,
      "کَم": 9278,
      "مدینہ": 9279,
      "سرگْو": 9280,
      "کْوھنیں": 9281,
      "ثنا": 9282,
      "کَسے": 9283,
      "ہساب": 9284,
      "کترینا": 9285,
      "##erm": 9286,
      "رِدءَ": 9287,
      "ارزی": 9288,
      "درکنگ": 9289,
      "قدرتی": 9290,
      "ڈبلیو": 9291,
      "John": 9292,
      "چمان": 9293,
      "تیوگ": 9294,
      "موض": 9295,
      "عراق": 9296,
      "بیمن": 9297,
      "اِشت": 9298,
      "##ریر": 9299,
      "کوھاں": 9300,
      "نُوں": 9301,
      "orig": 9302,
      "جزب": 9303,
      "مڈیانی": 9304,
      "قائم": 9305,
      "گروپ": 9306,
      "اخراجات": 9307,
      "محفوظ": 9308,
      "وسیم": 9309,
      "بیماری": 9310,
      "تکانسر": 9311,
      "گِدار": 9312,
      "لیکگ": 9313,
      "موج": 9314,
      "پروشت": 9315,
      "برورد": 9316,
      "##انس": 9317,
      "آئین": 9318,
      "آسکانی": 9319,
      "تھار": 9320,
      "ریکی": 9321,
      "ھنر": 9322,
      "##شپی": 9323,
      "افسر": 9324,
      "اظہار": 9325,
      "##دود": 9326,
      "بندے": 9327,
      "شہباز": 9328,
      "گاڑیاں": 9329,
      "شائرے": 9330,
      "تؤ": 9331,
      "جمب": 9332,
      "سکا": 9333,
      "##پارٹی": 9334,
      "اُتار": 9335,
      "##حان": 9336,
      "کوم": 9337,
      "حاکمی": 9338,
      "met": 9339,
      "سبا": 9340,
      "گاڈی": 9341,
      "مادن": 9342,
      "جھمنندیں": 9343,
      "یکرندے": 9344,
      "سٹی": 9345,
      "ھکومت": 9346,
      "##ton": 9347,
      "کنز": 9348,
      "بِزاں": 9349,
      "دَہ": 9350,
      "ندیم": 9351,
      "##ober": 9352,
      "##نگال": 9353,
      "##els": 9354,
      "بچکندگ": 9355,
      "کوھن": 9356,
      "##اؤن": 9357,
      "est": 9358,
      "##oot": 9359,
      "بوآن": 9360,
      "##وران": 9361,
      "تُن": 9362,
      "فیصل": 9363,
      "وردن": 9364,
      "حمایت": 9365,
      "pol": 9366,
      "ترام": 9367,
      "مَا": 9368,
      "بوچ": 9369,
      "ھمُک": 9370,
      "دلپدردی": 9371,
      "کڈ": 9372,
      "زندانی": 9373,
      "کشیں": 9374,
      "دیوانجاه": 9375,
      "جنجالاں": 9376,
      "گڑاں": 9377,
      "century": 9378,
      "##ستے": 9379,
      "##ویج": 9380,
      "انجین": 9381,
      "team": 9382,
      "After": 9383,
      "فلم": 9384,
      "ملی": 9385,
      "ماھی": 9386,
      "گلہ": 9387,
      "##oad": 9388,
      "کپتہ": 9389,
      "صدیق": 9390,
      "حیثیت": 9391,
      "طبی": 9392,
      "گراہ": 9393,
      "پیشدار": 9394,
      "##ُتگ": 9395,
      "توکل": 9396,
      "ھُنر": 9397,
      "جُنزان": 9398,
      "##ٹیکل": 9399,
      "بُک": 9400,
      "کَنگ": 9401,
      "ماتے": 9402,
      "صحت": 9403,
      "ظہور": 9404,
      "وانیت": 9405,
      "جین": 9406,
      "##ُکیں": 9407,
      "جانے": 9408,
      "گرپت": 9409,
      "واریں": 9410,
      "ریڈ": 9411,
      "گہتر": 9412,
      "##uch": 9413,
      "مَٹ": 9414,
      "شهید": 9415,
      "ذہنی": 9416,
      "She": 9417,
      "ریت": 9418,
      "ہنر": 9419,
      "##ve": 9420,
      "develop": 9421,
      "##ah": 9422,
      "یکروچے": 9423,
      "متحدہ": 9424,
      "کاپر": 9425,
      "عبادت": 9426,
      "مسی": 9427,
      "مُرد": 9428,
      "سوز": 9429,
      "show": 9430,
      "نیتکگ": 9431,
      "##چان": 9432,
      "تراکے": 9433,
      "##بندین": 9434,
      "کندیل": 9435,
      "بیلٹ": 9436,
      "par": 9437,
      "##az": 9438,
      "conc": 9439,
      "##ative": 9440,
      "معن": 9441,
      "ساھتے": 9442,
      "گریت": 9443,
      "درکیت": 9444,
      "وڈا": 9445,
      "کرنل": 9446,
      "ھموداں": 9447,
      "br": 9448,
      "زمی": 9449,
      "ڈوب": 9450,
      "##fl": 9451,
      "پاشک": 9452,
      "زوتاں": 9453,
      "سبزل": 9454,
      "چڑھاؤ": 9455,
      "دۆ": 9456,
      "رپک": 9457,
      "##چم": 9458,
      "##ورءَ": 9459,
      "##elf": 9460,
      "پارلیمانی": 9461,
      "##iam": 9462,
      "گرانی": 9463,
      "باقی": 9464,
      "زہری": 9465,
      "نه‌اِنت": 9466,
      "کائنات": 9467,
      "ماری": 9468,
      "چور": 9469,
      "داتنت": 9470,
      "تھاریں": 9471,
      "مدتے": 9472,
      "پٹّ": 9473,
      "جات": 9474,
      "مزنی": 9475,
      "گوراں": 9476,
      "چھبار": 9477,
      "لوزانک": 9478,
      "شئیرانی": 9479,
      "##دھمی": 9480,
      "گواچن": 9481,
      "مسع": 9482,
      "درانڈی": 9483,
      "گراہکانی": 9484,
      "تمب": 9485,
      "##او": 9486,
      "بوئیگ": 9487,
      "دارگی": 9488,
      "محکمہ": 9489,
      "عثمان": 9490,
      "کنگے": 9491,
      "بزّگ": 9492,
      "ھوت": 9493,
      "##ِنگ": 9494,
      "یکت": 9495,
      "ہزاراں": 9496,
      "اکرم": 9497,
      "سازگ": 9498,
      "ڈرامہ": 9499,
      "##rap": 9500,
      "##رج": 9501,
      "مُن": 9502,
      "عبدالغ": 9503,
      "بُوَگ": 9504,
      "گوستانک": 9505,
      "کشکے": 9506,
      "##overn": 9507,
      "کبزہ": 9508,
      "دک": 9509,
      "ایشیا": 9510,
      "گَپ": 9511,
      "نئیکہ": 9512,
      "مانگیش": 9513,
      "گج": 9514,
      "کَیت": 9515,
      "یونٹ": 9516,
      "##ram": 9517,
      "تکاں": 9518,
      "sm": 9519,
      "کرام": 9520,
      "##ٹڈ": 9521,
      "جیونی": 9522,
      "ننداں": 9523,
      "سوی": 9524,
      "توانائی": 9525,
      "پیپلزپارٹی": 9526,
      "##بُ": 9527,
      "پشتو": 9528,
      "ھشتاد": 9529,
      "لپ": 9530,
      "سواد": 9531,
      "##ivers": 9532,
      "تمامیں": 9533,
      "##ــــــــــــــــ": 9534,
      "ابا": 9535,
      "شالا": 9536,
      "فلسط": 9537,
      "تگرانی": 9538,
      "پگار": 9539,
      "دلاں": 9540,
      "کارمستر": 9541,
      "جھدکار": 9542,
      "بستارے": 9543,
      "اشتاپی": 9544,
      "جوڑشت": 9545,
      "گروک": 9546,
      "گشتانک": 9547,
      "##ope": 9548,
      "سوشلزم": 9549,
      "جور": 9550,
      "کـ": 9551,
      "##سیب": 9552,
      "ابیتک": 9553,
      "ہاس": 9554,
      "دیوانگ": 9555,
      "ھتر": 9556,
      "کتنت": 9557,
      "وسائل": 9558,
      "حکمت": 9559,
      "دزمان": 9560,
      "اخت": 9561,
      "lead": 9562,
      "کاک": 9563,
      "منوگر": 9564,
      "امانؔ": 9565,
      "##هاز": 9566,
      "رہادگ": 9567,
      "حج": 9568,
      "ٹاپ": 9569,
      "##ستار": 9570,
      "بیٹ": 9571,
      "اَن": 9572,
      "کافکا": 9573,
      "##ھداری": 9574,
      "کتءُ": 9575,
      "شھم": 9576,
      "نقش": 9577,
      "جهان": 9578,
      "جاگھے": 9579,
      "several": 9580,
      "##الح": 9581,
      "بزگر": 9582,
      "جُستے": 9583,
      "کیسگ": 9584,
      "ob": 9585,
      "مبیت": 9586,
      "رکّینگ": 9587,
      "سائنسدان": 9588,
      "سادگیں": 9589,
      "کابینہ": 9590,
      "##ساح": 9591,
      "بروکیں": 9592,
      "گْوز": 9593,
      "گالے": 9594,
      "##ley": 9595,
      "ھُزدار": 9596,
      "mill": 9597,
      "دوک": 9598,
      "##زیل": 9599,
      "ششمی": 9600,
      "موسمی": 9601,
      "##جے": 9602,
      "##هءَ": 9603,
      "نفسیات": 9604,
      "بھٹو": 9605,
      "مسکرا": 9606,
      "یعقوب": 9607,
      "ساس": 9608,
      "حالانی": 9609,
      "شامل": 9610,
      "##زد": 9611,
      "ھمت": 9612,
      "تکلی": 9613,
      "شوق": 9614,
      "انٹرنیٹ": 9615,
      "گزار": 9616,
      "##ually": 9617,
      "سپاھیگ": 9618,
      "سدانی": 9619,
      "آخری": 9620,
      "کْوہ": 9621,
      "شاگرد": 9622,
      "##ویل": 9623,
      "کتابجاہ": 9624,
      "وخ": 9625,
      "ھؤر": 9626,
      "بیچ": 9627,
      "##anc": 9628,
      "began": 9629,
      "ہسپتال": 9630,
      "near": 9631,
      "سوبی": 9632,
      "اگبال": 9633,
      "dif": 9634,
      "چما": 9635,
      "توارءَ": 9636,
      "طبقہ": 9637,
      "زوان": 9638,
      "##ادرءَ": 9639,
      "بلوچیءِ": 9640,
      "بُوان": 9641,
      "پروج": 9642,
      "##وفی": 9643,
      "##ارق": 9644,
      "مہل": 9645,
      "جانب": 9646,
      "باو": 9647,
      "آیگءَ": 9648,
      "ریپبلکن": 9649,
      "خاط": 9650,
      "##ِرد": 9651,
      "باغ": 9652,
      "سوراب": 9653,
      "پروشتگ": 9654,
      "contin": 9655,
      "جمہوریت": 9656,
      "Ind": 9657,
      "##یشنز": 9658,
      "sign": 9659,
      "تلا": 9660,
      "شنز": 9661,
      "اِستان": 9662,
      "پرشت": 9663,
      "کوسٹ": 9664,
      "کتابءِ": 9665,
      "درکپ": 9666,
      "عجب": 9667,
      "درمیان": 9668,
      "نندیت": 9669,
      "قومانی": 9670,
      "##ized": 9671,
      "آو": 9672,
      "ہنکین": 9673,
      "گْوں": 9674,
      "جێ": 9675,
      "خد": 9676,
      "نشنل": 9677,
      "##نتہ": 9678,
      "##نگاں": 9679,
      "گُشان": 9680,
      "لوگوں": 9681,
      "مھراب": 9682,
      "انگیر": 9683,
      "##تاج": 9684,
      "##بریری": 9685,
      "##ژناگ": 9686,
      "##ll": 9687,
      "##ہک": 9688,
      "##یتے": 9689,
      "گْوادر": 9690,
      "جیڑھے": 9691,
      "زیاد": 9692,
      "توکءَ": 9693,
      "مزاحمتی": 9694,
      "الرحمن": 9695,
      "direct": 9696,
      "وب": 9697,
      "رہی": 9698,
      "البتہ": 9699,
      "نعمت": 9700,
      "ڈوک": 9701,
      "ھزمت": 9702,
      "##ross": 9703,
      "شلوار": 9704,
      "آست": 9705,
      "کڑی": 9706,
      "راھی": 9707,
      "پُرا": 9708,
      "اینکس": 9709,
      "اصلی": 9710,
      "حلاپ": 9711,
      "تاس": 9712,
      "##نم": 9713,
      "##ains": 9714,
      "ھوناں": 9715,
      "ext": 9716,
      "گوانکو": 9717,
      "درگتا": 9718,
      "##emb": 9719,
      "تلوس": 9720,
      "تحت": 9721,
      "compl": 9722,
      "ھوال": 9723,
      "##اداد": 9724,
      "سیکی": 9725,
      "ھاموشی": 9726,
      "air": 9727,
      "##وجی": 9728,
      "##رافی": 9729,
      "##اظ": 9730,
      "برباد": 9731,
      "بُرّ": 9732,
      "##yp": 9733,
      "راہے": 9734,
      "may": 9735,
      "حدیث": 9736,
      "زانتکارانی": 9737,
      "بہتام": 9738,
      "مسعود": 9739,
      "تَرّ": 9740,
      "##مون": 9741,
      "جہلی": 9742,
      "شھیدی": 9743,
      "کێ": 9744,
      "پُتر": 9745,
      "اپنا": 9746,
      "Wh": 9747,
      "جہہ": 9748,
      "لولی": 9749,
      "سرس": 9750,
      "سرانی": 9751,
      "بِیت": 9752,
      "لینڈ": 9753,
      "art": 9754,
      "##ھبی": 9755,
      "بلاہیں": 9756,
      "گوْر": 9757,
      "سلط": 9758,
      "ڈگری": 9759,
      "##sp": 9760,
      "##بانک": 9761,
      "کُربانی": 9762,
      "وراں": 9763,
      "اجت": 9764,
      "کف": 9765,
      "##ase": 9766,
      "گْوَ": 9767,
      "شیرین": 9768,
      "شیطان": 9769,
      "چُکاں": 9770,
      "دھلی": 9771,
      "تنت": 9772,
      "ٹہی": 9773,
      "پلیٹ": 9774,
      "گاماں": 9775,
      "آوت": 9776,
      "کُن": 9777,
      "##رمند": 9778,
      "hist": 9779,
      "گوٛشئے": 9780,
      "لینگویج": 9781,
      "ٹیسٹ": 9782,
      "##شتیں": 9783,
      "کُٹّ": 9784,
      "جیڑاں": 9785,
      "جہت": 9786,
      "ریفرنس": 9787,
      "crit": 9788,
      "##گند": 9789,
      "مقد": 9790,
      "لاشاری": 9791,
      "وداریگ": 9792,
      "الب": 9793,
      "تھام": 9794,
      "شمس": 9795,
      "عوام": 9796,
      "یکجاھی": 9797,
      "##برگ": 9798,
      "ھالے": 9799,
      "بڑی": 9800,
      "##ued": 9801,
      "بُل": 9802,
      "اشرف": 9803,
      "early": 9804,
      "could": 9805,
      "وشن": 9806,
      "ایوان": 9807,
      "کمکیں": 9808,
      "ورک": 9809,
      "پهک": 9810,
      "متھدہ": 9811,
      "##une": 9812,
      "مگسی": 9813,
      "تکانسری": 9814,
      "bel": 9815,
      "cre": 9816,
      "سگار": 9817,
      "سیشن": 9818,
      "لیل": 9819,
      "صفحہ": 9820,
      "did": 9821,
      "ماب": 9822,
      "توئے": 9823,
      "چریشاں": 9824,
      "خوب": 9825,
      "##رھ": 9826,
      "گوہر": 9827,
      "##طیف": 9828,
      "مریم": 9829,
      "اِھوالکار": 9830,
      "called": 9831,
      "تتکگ": 9832,
      "ہمنچو": 9833,
      "کمکار": 9834,
      "##دیگ": 9835,
      "ایرج": 9836,
      "##نڈے": 9837,
      "پٹءُ": 9838,
      "غر": 9839,
      "تاکانی": 9840,
      "سرکارءِ": 9841,
      "باتن": 9842,
      "انتظامیہ": 9843,
      "زو": 9844,
      "مڈّی": 9845,
      "ناس": 9846,
      "درہ": 9847,
      "##گرنچیں": 9848,
      "لبزے": 9849,
      "##ّیتگ": 9850,
      "آزمانکاں": 9851,
      "زمینءِ": 9852,
      "کالونی": 9853,
      "episode": 9854,
      "تـ": 9855,
      "زَرّ": 9856,
      "عاد": 9857,
      "فور": 9858,
      "ودّ": 9859,
      "چمی": 9860,
      "Is": 9861,
      "صبور": 9862,
      "مرتگیں": 9863,
      "جنزان": 9864,
      "دوریں": 9865,
      "سْیاسی": 9866,
      "رون": 9867,
      "چمن": 9868,
      "##au": 9869,
      "شَیر": 9870,
      "##نگانی": 9871,
      "ماتانی": 9872,
      "سیمسری": 9873,
      "##imes": 9874,
      "جامگ": 9875,
      "describ": 9876,
      "اشان": 9877,
      "مادی": 9878,
      "##گز": 9879,
      "ھالاں": 9880,
      "پیسرگیں": 9881,
      "نوروز": 9882,
      "پڑءَ": 9883,
      "دلمانگ": 9884,
      "##َي": 9885,
      "بزیں": 9886,
      "کانودی": 9887,
      "تامُر": 9888,
      "مهلوک": 9889,
      "ئت": 9890,
      "ثبوت": 9891,
      "جے": 9892,
      "لچہّ": 9893,
      "##سد": 9894,
      "نماسگ": 9895,
      "پترت": 9896,
      "سرپدیں": 9897,
      "##ull": 9898,
      "##roup": 9899,
      "قیمت": 9900,
      "bro": 9901,
      "ایجنسی": 9902,
      "ریاض": 9903,
      "متع": 9904,
      "بغیر": 9905,
      "پکّ": 9906,
      "اللَّ": 9907,
      "کمرہ": 9908,
      "کنائینت": 9909,
      "کارکرد": 9910,
      "run": 9911,
      "لوک": 9912,
      "##نٹی": 9913,
      "اَرز": 9914,
      "پہریز": 9915,
      "ایسا": 9916,
      "##ople": 9917,
      "درآمدیں": 9918,
      "شکّ": 9919,
      "یت": 9920,
      "نوری": 9921,
      "##ntil": 9922,
      "rece": 9923,
      "بزرگ": 9924,
      "##aking": 9925,
      "کائی": 9926,
      "##ہءِ": 9927,
      "##‌ئےِ": 9928,
      "بھارت": 9929,
      "پیت": 9930,
      "گوزان": 9931,
      "کمزور": 9932,
      "شپانی": 9933,
      "چمشانکے": 9934,
      "جاڑیگ": 9935,
      "ارسطو": 9936,
      "شونگال": 9937,
      "درگتءَ": 9938,
      "disc": 9939,
      "داخل": 9940,
      "ٹیبل": 9941,
      "طارق": 9942,
      "نیاتکگ": 9943,
      "سالروچ": 9944,
      "جہگیر": 9945,
      "along": 9946,
      "##ارتی": 9947,
      "دلسی": 9948,
      "پُش": 9949,
      "سُری": 9950,
      "نگدی": 9951,
      "نێست": 9952,
      "رپتگ": 9953,
      "##قر": 9954,
      "پرنگی": 9955,
      "محدود": 9956,
      "جنیناں": 9957,
      "پابند": 9958,
      "سقراط": 9959,
      "إت": 9960,
      "سھت": 9961,
      "اِنتءُ": 9962,
      "زانئے": 9963,
      "بچکے": 9964,
      "عہدی": 9965,
      "برف": 9966,
      "##ink": 9967,
      "جبین": 9968,
      "##ccess": 9969,
      "ٹور": 9970,
      "##سوس": 9971,
      "امبازاں": 9972,
      "ڈاہ": 9973,
      "ڈکّ": 9974,
      "##شید": 9975,
      "میتگءِ": 9976,
      "پِگر": 9977,
      "##اجت": 9978,
      "ھروھد": 9979,
      "رژنائی": 9980,
      "##ئل": 9981,
      "میرو": 9982,
      "دوستدار": 9983,
      "قربان": 9984,
      "##ments": 9985,
      "چاریگ": 9986,
      "انہوں": 9987,
      "انچُش": 9988,
      "car": 9989,
      "دیار": 9990,
      "سیہ": 9991,
      "مدان": 9992,
      "تعالیٰ": 9993,
      "May": 9994,
      "سئیل": 9995,
      "ٹائم": 9996,
      "##ہءَ": 9997,
      "بیزار": 9998,
      "اَلّ": 9999,
      "نہاد": 10000,
      "گونڈو": 10001,
      "بِلّے": 10002,
      "زون": 10003,
      "##شم": 10004,
      "شیئ": 10005,
      "رُستگ": 10006,
      "##انڈ": 10007,
      "اُوشت": 10008,
      "##راللہ": 10009,
      "چرس": 10010,
      "##واس": 10011,
      "##بّ": 10012,
      "##اتءِ": 10013,
      "inst": 10014,
      "پیژ": 10015,
      "برتانیہ": 10016,
      "آئیڈ": 10017,
      "دارے": 10018,
      "وئیلے": 10019,
      "شہداد": 10020,
      "American": 10021,
      "said": 10022,
      "وراک": 10023,
      "##عے": 10024,
      "##کءِ": 10025,
      "##قد": 10026,
      "##راس": 10027,
      "##گتیں": 10028,
      "روانکے": 10029,
      "Bl": 10030,
      "dist": 10031,
      "##َه": 10032,
      "##لءَ": 10033,
      "دہکان": 10034,
      "لاشانی": 10035,
      "دوسرے": 10036,
      "نابود": 10037,
      "feat": 10038,
      "سخ": 10039,
      "کوشت": 10040,
      "مرادساح": 10041,
      "##علی": 10042,
      "##بس": 10043,
      "دیواناں": 10044,
      "سینیٹ": 10045,
      "جلد": 10046,
      "کرم": 10047,
      "##روائی": 10048,
      "اسکور": 10049,
      "دمانءَ": 10050,
      "فدائی": 10051,
      "کماشیں": 10052,
      "غل": 10053,
      "پٹی": 10054,
      "##جار": 10055,
      "##enn": 10056,
      "کَل": 10057,
      "انجمن": 10058,
      "##تیت": 10059,
      "بگْوش": 10060,
      "سربوت": 10061,
      "یکشمبے": 10062,
      "دعویٰ": 10063,
      "مریت": 10064,
      "mil": 10065,
      "po": 10066,
      "##عا": 10067,
      "these": 10068,
      "نیستی": 10069,
      "ملور": 10070,
      "کلا": 10071,
      "کپاں": 10072,
      "##itt": 10073,
      "نِز": 10074,
      "ٹوہ": 10075,
      "##شنگ": 10076,
      "##der": 10077,
      "##ium": 10078,
      "بیگءِ": 10079,
      "انسانانی": 10080,
      "اژ": 10081,
      "دئور": 10082,
      "رات": 10083,
      "ھمینچو": 10084,
      "##ets": 10085,
      "سارتر": 10086,
      "گاری": 10087,
      "ایلیٹ": 10088,
      "##نجیں": 10089,
      "سمو": 10090,
      "إیران": 10091,
      "کرتہ": 10092,
      "Aust": 10093,
      "لغ": 10094,
      "دوستاں": 10095,
      "##لّیں": 10096,
      "وَه": 10097,
      "بژنی": 10098,
      "##کوٹ": 10099,
      "##گوری": 10100,
      "شتیں": 10101,
      "مڑا": 10102,
      "کڈن": 10103,
      "گشان": 10104,
      "ھڈ": 10105,
      "##ومر": 10106,
      "سردارانی": 10107,
      "resp": 10108,
      "دیمے": 10109,
      "جننت": 10110,
      "مُچّی": 10111,
      "you": 10112,
      "نگار": 10113,
      "##نَ": 10114,
      "##ُرتگ": 10115,
      "##داتگ": 10116,
      "لوٹیں": 10117,
      "کَور": 10118,
      "چوناہا": 10119,
      "سمل": 10120,
      "ڈنّی": 10121,
      "##hy": 10122,
      "زندمانی": 10123,
      "جُستانی": 10124,
      "##زمانک": 10125,
      "##amed": 10126,
      "سگّ": 10127,
      "اہمیت": 10128,
      "اثرات": 10129,
      "نازرکیں": 10130,
      "سُبک": 10131,
      "ساھتاں": 10132,
      "تُرندیں": 10133,
      "مَر": 10134,
      "مخت": 10135,
      "گپءِ": 10136,
      "پھازگ": 10137,
      "کبھی": 10138,
      "شودگ": 10139,
      "کلہ": 10140,
      "یکدم": 10141,
      "مردی": 10142,
      "ملاز": 10143,
      "دیگءَ": 10144,
      "though": 10145,
      "##ured": 10146,
[...]
