<pad>	0
<unk>	0
<s>	0
</s>	0
<0x00>	0
<0x01>	0
<0x02>	0
<0x03>	0
<0x04>	0
<0x05>	0
<0x06>	0
<0x07>	0
<0x08>	0
<0x09>	0
<0x0A>	0
<0x0B>	0
<0x0C>	0
<0x0D>	0
<0x0E>	0
<0x0F>	0
<0x10>	0
<0x11>	0
<0x12>	0
<0x13>	0
<0x14>	0
<0x15>	0
<0x16>	0
<0x17>	0
<0x18>	0
<0x19>	0
<0x1A>	0
<0x1B>	0
<0x1C>	0
<0x1D>	0
<0x1E>	0
<0x1F>	0
<0x20>	0
<0x21>	0
<0x22>	0
<0x23>	0
<0x24>	0
<0x25>	0
<0x26>	0
<0x27>	0
<0x28>	0
<0x29>	0
<0x2A>	0
<0x2B>	0
<0x2C>	0
<0x2D>	0
<0x2E>	0
<0x2F>	0
<0x30>	0
<0x31>	0
<0x32>	0
<0x33>	0
<0x34>	0
<0x35>	0
<0x36>	0
<0x37>	0
<0x38>	0
<0x39>	0
<0x3A>	0
<0x3B>	0
<0x3C>	0
<0x3D>	0
<0x3E>	0
<0x3F>	0
<0x40>	0
<0x41>	0
<0x42>	0
<0x43>	0
<0x44>	0
<0x45>	0
<0x46>	0
<0x47>	0
<0x48>	0
<0x49>	0
<0x4A>	0
<0x4B>	0
<0x4C>	0
<0x4D>	0
<0x4E>	0
<0x4F>	0
<0x50>	0
<0x51>	0
<0x52>	0
<0x53>	0
<0x54>	0
<0x55>	0
<0x56>	0
<0x57>	0
<0x58>	0
<0x59>	0
<0x5A>	0
<0x5B>	0
<0x5C>	0
<0x5D>	0
<0x5E>	0
<0x5F>	0
<0x60>	0
<0x61>	0
<0x62>	0
<0x63>	0
<0x64>	0
<0x65>	0
<0x66>	0
<0x67>	0
<0x68>	0
<0x69>	0
<0x6A>	0
<0x6B>	0
<0x6C>	0
<0x6D>	0
<0x6E>	0
<0x6F>	0
<0x70>	0
<0x71>	0
<0x72>	0
<0x73>	0
<0x74>	0
<0x75>	0
<0x76>	0
<0x77>	0
<0x78>	0
<0x79>	0
<0x7A>	0
<0x7B>	0
<0x7C>	0
<0x7D>	0
<0x7E>	0
<0x7F>	0
<0x80>	0
<0x81>	0
<0x82>	0
<0x83>	0
<0x84>	0
<0x85>	0
<0x86>	0
<0x87>	0
<0x88>	0
<0x89>	0
<0x8A>	0
<0x8B>	0
<0x8C>	0
<0x8D>	0
<0x8E>	0
<0x8F>	0
<0x90>	0
<0x91>	0
<0x92>	0
<0x93>	0
<0x94>	0
<0x95>	0
<0x96>	0
<0x97>	0
<0x98>	0
<0x99>	0
<0x9A>	0
<0x9B>	0
<0x9C>	0
<0x9D>	0
<0x9E>	0
<0x9F>	0
<0xA0>	0
<0xA1>	0
<0xA2>	0
<0xA3>	0
<0xA4>	0
<0xA5>	0
<0xA6>	0
<0xA7>	0
<0xA8>	0
<0xA9>	0
<0xAA>	0
<0xAB>	0
<0xAC>	0
<0xAD>	0
<0xAE>	0
<0xAF>	0
<0xB0>	0
<0xB1>	0
<0xB2>	0
<0xB3>	0
<0xB4>	0
<0xB5>	0
<0xB6>	0
<0xB7>	0
<0xB8>	0
<0xB9>	0
<0xBA>	0
<0xBB>	0
<0xBC>	0
<0xBD>	0
<0xBE>	0
<0xBF>	0
<0xC0>	0
<0xC1>	0
<0xC2>	0
<0xC3>	0
<0xC4>	0
<0xC5>	0
<0xC6>	0
<0xC7>	0
<0xC8>	0
<0xC9>	0
<0xCA>	0
<0xCB>	0
<0xCC>	0
<0xCD>	0
<0xCE>	0
<0xCF>	0
<0xD0>	0
<0xD1>	0
<0xD2>	0
<0xD3>	0
<0xD4>	0
<0xD5>	0
<0xD6>	0
<0xD7>	0
<0xD8>	0
<0xD9>	0
<0xDA>	0
<0xDB>	0
<0xDC>	0
<0xDD>	0
<0xDE>	0
<0xDF>	0
<0xE0>	0
<0xE1>	0
<0xE2>	0
<0xE3>	0
<0xE4>	0
<0xE5>	0
<0xE6>	0
<0xE7>	0
<0xE8>	0
<0xE9>	0
<0xEA>	0
<0xEB>	0
<0xEC>	0
<0xED>	0
<0xEE>	0
<0xEF>	0
<0xF0>	0
<0xF1>	0
<0xF2>	0
<0xF3>	0
<0xF4>	0
<0xF5>	0
<0xF6>	0
<0xF7>	0
<0xF8>	0
<0xF9>	0
<0xFA>	0
<0xFB>	0
<0xFC>	0
<0xFD>	0
<0xFE>	0
<0xFF>	0
▁ء	-0
▁ا	-1
▁ب	-2
▁ک	-3
ان	-4
▁ءَ	-5
▁م	-6
▁د	-7
▁ءِ	-8
ار	-9
▁گ	-10
نت	-11
▁پ	-12
یں	-13
▁س	-14
▁و	-15
▁ن	-16
▁ءُ	-17
▁آ	-18
▁ت	-19
▁چ	-20
تگ	-21
اں	-22
▁ر	-23
▁ج	-24
انی	-25
▁کہ	-26
▁ھ	-27
ست	-28
▁ز	-29
ئی	-30
ند	-31
▁ش	-32
نگ	-33
▁بی	-34
ءَ	-35
لو	-36
را	-37
▁ی	-38
ال	-39
▁ہ	-40
▁گو	-41
ری	-42
تی	-43
▁اَ	-44
▁اِ	-45
▁انت	-46
▁من	-47
▁بو	-48
رد	-49
ور	-50
اہ	-51
ءِ	-52
یم	-53
▁ل	-54
ام	-55
▁اے	-56
یر	-57
..	-58
▁سر	-59
لوچ	-60
یش	-61
▁نہ	-62
ئے	-63
ین	-64
▁بلوچ	-65
ات	-66
▁وتی	-67
▁۔	-68
▁ھم	-69
▁یک	-70
اد	-71
شت	-72
یت	-73
وک	-74
▁آئی	-75
از	-76
▁چہ	-77
اک	-78
▁بیت	-79
▁ات	-80
▁اِنت	-81
▁اَنت	-82
▁در	-83
▁t	-84
▁تہ	-85
▁،	-86
▁مرد	-87
▁کن	-88
اب	-89
ول	-90
▁بہ	-91
▁ح	-92
▁کنگ	-93
▁بل	-94
▁کار	-95
▁ہم	-96
▁رو	-97
▁پہ	-98
▁دو	-99
he	-100
انک	-101
▁گوں	-102
▁ع	-103
▁مردم	-104
▁بوتگ	-105
اری	-106
نی	-107
▁a	-108
وش	-109
▁را	-110
می	-111
▁(	-112
یک	-113
▁اَت	-114
in	-115
▁:	-116
ءُ	-117
▁کر	-118
۔۔	-119
دا	-120
▁ڈ	-121
▁تو	-122
ون	-123
اس	-124
اھ	-125
ستان	-126
ید	-127
ُر	-128
▁بر	-129
▁ان	-130
▁دیم	-131
ائ	-132
▁دی	-133
▁کنت	-134
▁ئ	-135
▁بوت	-136
بر	-137
▁لو	-138
▁پر	-139
انگ	-140
▁ف	-141
▁the	-142
وں	-143
▁)	-144
▁.	-145
▁بیتگ	-146
▁ٹ	-147
یس	-148
er	-149
▁انت۔	-150
ھد	-151
یل	-152
گہ	-153
شتگ	-154
▁گپ	-155
▁باز	-156
on	-157
▁ق	-158
▁کس	-159
شک	-160
▁بند	-161
▁منی	-162
▁خ	-163
▁کُ	-164
دار	-165
▁بلے	-166
▁,	-167
گی	-168
▁کت	-169
▁ایش	-170
▁دل	-171
▁ال	-172
رو	-173
نا	-174
ما	-175
▁ما	-176
وار	-177
▁کتگ	-178
re	-179
’’	-180
مان	-181
▁کو	-182
‘‘	-183
▁پد	-184
چی	-185
ود	-186
تر	-187
▁گُ	-188
▁تر	-189
▁اس	-190
▁وت	-191
▁ئے	-192
▁زند	-193
▁سی	-194
گاں	-195
▁بے	-196
▁s	-197
کی	-198
▁بلوچستان	-199
اج	-200
▁چی	-201
▁جن	-202
▁روچ	-203
▁مہ	-204
▁می	-205
ed	-206
▁وھد	-207
ھر	-208
▁o	-209
▁زان	-210
▁w	-211
لی	-212
ائی	-213
▁جو	-214
▁نام	-215
▁کم	-216
ڑا	-217
▁"	-218
▁نی	-219
....	-220
nd	-221
دی	-222
▁اِت	-223
بان	-224
▁چار	-225
لہ	-226
اپ	-227
▁نب	-228
▁گیش	-229
گو	-230
at	-231
▁ھمے	-232
من	-233
▁کی	-234
گر	-235
▁دا	-236
وکیں	-237
▁تہا	-238
▁یا	-239
تگیں	-240
▁لوٹ	-241
▁راج	-242
▁نیم	-243
▁بلوچی	-244
▁مز	-245
کار	-246
رگ	-247
▁کپ	-248
▁گْ	-249
▁دار	-250
▁دست	-251
شی	-252
▁سو	-253
▁او	-254
▁مئے	-255
▁ه	-256
▁پاک	-257
بز	-258
▁دگہ	-259
or	-260
▁بنت	-261
▁ص	-262
it	-263
ٹی	-264
▁پو	-265
▁c	-266
▁جنگ	-267
▁مار	-268
en	-269
اگ	-270
ران	-271
نج	-272
▁ای	-273
▁’’	-274
وان	-275
▁f	-276
is	-277
...	-278
es	-279
▁زبان	-280
ar	-281
▁سرا	-282
▁تئی	-283
▁آی	-284
▁of	-285
▁b	-286
زم	-287
an	-288
وت	-289
▁دم	-290
▁in	-291
▁مل	-292
سی	-293
ہد	-294
نچ	-295
▁کرتگ	-296
al	-297
▁نیمگ	-298
ٹر	-299
▁زور	-300
شگ	-301
مد	-302
ھی	-303
▁بد	-304
▁مزن	-305
یال	-306
▁ئِ	-307
▁وڑ	-308
▁ایر	-309
▁بیت۔	-310
ing	-311
▁پی	-312
▁بُ	-313
▁ایشی	-314
▁p	-315
▁رد	-316
▁درا	-317
شانی	-318
▁کے	-319
▁نبشت	-320
▁زم	-321
▁and	-322
بی	-323
as	-324
▁مر	-325
▁ھال	-326
▁گل	-327
▁چو	-328
اع	-329
▁کل	-330
▁رنگ	-331
کیں	-332
▁بز	-333
▁چیز	-334
▁پدا	-335
▁رس	-336
است	-337
▁لبز	-338
▁جت	-339
▁اَنت۔	-340
جم	-341
شان	-342
گیں	-343
نت۔	-344
▁ھما	-345
▁زانت	-346
کہ	-347
ستانی	-348
▁اگاں	-349
کن	-350
▁بار	-351
▁بازیں	-352
▁شر	-353
▁مُ	-354
▁جا	-355
▁سال	-356
▁آس	-357
مب	-358
▁to	-359
▁ہمے	-360
▁آں	-361
▁ترا	-362
▁کا	-363
ڑی	-364
▁گند	-365
▁رند	-366
▁نز	-367
جاہ	-368
نگت	-369
▁یے	-370
▁ہما	-371
▁پیش	-372
ro	-373
ic	-374
کس	-375
اش	-376
▁m	-377
▁سل	-378
▁ھر	-379
چار	-380
▁اِنت۔	-381
▁جی	-382
▁واج	-383
▁سک	-384
▁بیگو	-385
ہر	-386
بند	-387
▁چم	-388
رز	-389
▁ماں	-390
▁انچ	-391
وم	-392
▁سا	-393
ــ	-394
▁ہر	-395
▁d	-396
چک	-397
▁دات	-398
پت	-399
کر	-400
▁اُ	-401
▁اب	-402
▁وش	-403
▁تہءَ	-404
▁کتاب	-405
▁مردمانی	-406
▁گڑا	-407
▁ایت	-408
▁شاع	-409
در	-410
▁شپ	-411
▁است	-412
ّی	-413
▁انس	-414
▁h	-415
▁میں	-416
▁کرت	-417
▁پوج	-418
▁ایں	-419
ion	-420
▁مو	-421
▁مح	-422
ولی	-423
۔۔۔۔	-424
▁آپ	-425
▁ور	-426
▁جوڑ	-427
▁داتگ	-428
لا	-429
نیا	-430
▁پاکستانی	-431
▁زر	-432
یکہ	-433
ائیں	-434
ئیں	-435
راہ	-436
▁مان	-437
▁چے	-438
▁دومی	-439
▁نو	-440
▁کش	-441
▁واجہ	-442
▁خان	-443
▁ہے	-444
▁دور	-445
▁جان	-446
بت	-447
le	-448
یگ	-449
▁دوست	-450
▁سے	-451
ُک	-452
تک	-453
ou	-454
▁نبشتہ	-455
کش	-456
▁‘‘	-457
▁دیگ	-458
▁ئَ	-459
▁غ	-460
دہ	-461
▁اور	-462
▁T	-463
▁مزنیں	-464
▁جاہ	-465
▁جُ	-466
▁گوشتگ	-467
بل	-468
▁تھ	-469
▁ام	-470
لم	-471
▁گر	-472
▁لوگ	-473
▁که	-474
ت۔	-475
▁ات۔	-476
الی	-477
▁ماہ	-478
َر	-479
▁راہ	-480
▁پُ	-481
▁نوں	-482
▁گْو	-483
▁سرجم	-484
▁میر	-485
▁اتک	-486
ڈی	-487
ِر	-488
▁ری	-489
وب	-490
▁نیست	-491
▁کنت۔	-492
▁راست	-493
▁دمگ	-494
انیں	-495
▁بس	-496
▁زانگ	-497
▁اَت۔	-498
▁آز	-499
▁لبزانک	-500
▁بیگواہ	-501
▁ھچ	-502
یب	-503
▁کارم	-504
▁re	-505
اگرد	-506
▁￴	-507
سر	-508
▁=	-509
▁مردماں	-510
▁وہد	-511
تے	-512
▁ط	-513
تیں	-514
راد	-515
▁گوش	-516
▁نوکیں	-517
مے	-518
▁شنگ	-519
▁ار	-520
▁آہ	-521
▁آوار	-522
ادی	-523
▁پس	-524
ازی	-525
گءَ	-526
▁مس	-527
▁دنیا	-528
▁جہ	-529
▁سرپ	-530
لّ	-531
گا	-532
▁داں	-533
▁پول	-534
▁مع	-535
▁مھ	-536
نڈ	-537
▁لشک	-538
▁پرچ	-539
▁کنان	-540
وال	-541
▁گیشتر	-542
زار	-543
▁A	-544
▁توار	-545
▁آزم	-546
▁پاد	-547
▁دز	-548
سٹ	-549
▁نا	-550
لام	-551
▁مارا	-552
▁اد	-553
▁ڈی	-554
▁بوتگ۔	-555
▁ھوار	-556
▁S	-557
▁اُر	-558
▁اللہ	-559
▁چاگرد	-560
ent	-561
▁تاک	-562
▁کَ	-563
شن	-564
▁وانگ	-565
وری	-566
il	-567
زی	-568
▁th	-569
▁1	-570
▁تی	-571
رے	-572
اے	-573
▁'	-574
▁با	-575
▁وار	-576
ّہ	-577
جا	-578
یت۔	-579
▁کُت	-580
ستگیں	-581
▁آزمانک	-582
▁ئِے	-583
▁وَ	-584
▁گوٛ	-585
گار	-586
▁پم	-587
▁چون	-588
▁سب	-589
▁کھ	-590
▁درشان	-591
▁بگ	-592
▁مست	-593
▁نند	-594
st	-595
ھانی	-596
▁شُ	-597
▁پیم	-598
▁آد	-599
▁برا	-600
انت	-601
▁آب	-602
▁رج	-603
▁شہ	-604
▁جیڑ	-605
▁شع	-606
▁لشکر	-607
▁ہو	-608
اتی	-609
▁C	-610
▁گِ	-611
el	-612
▁مرو	-613
پی	-614
▁سرءَ	-615
om	-616
کا	-617
▁l	-618
▁آیانی	-619
چہ	-620
▁گا	-621
▁مد	-622
▁گْوش	-623
جو	-624
▁”	-625
رام	-626
am	-627
مل	-628
کاری	-629
اسی	-630
تگ۔	-631
▁ھست	-632
▁اُرش	-633
▁پیس	-634
نے	-635
ْر	-636
▁واب	-637
▁e	-638
▁n	-639
▁اوں	-640
کّ	-641
▁بن	-642
ادر	-643
ھگ	-644
▁ھل	-645
▁آر	-646
ُُ	-647
▁دُ	-648
▁گی	-649
▁جار	-650
▁سنگت	-651
۔۔۔	-652
▁مات	-653
▁پاکستان	-654
▁سوب	-655
▁دپ	-656
▁نم	-657
▁تا	-658
▁@	-659
▁این	-660
▁وس	-661
اتر	-662
کانی	-663
▁ذ	-664
اھی	-665
شکہ	-666
▁دیوان	-667
بد	-668
▁وھدے	-669
▁واست	-670
کے	-671
▁آئیءِ	-672
▁باب	-673
ad	-674
مانی	-675
▁“	-676
▁لی	-677
ریں	-678
▁آئ	-679
ینی	-680
ac	-681
ِد	-682
امی	-683
▁سَ	-684
▁ایم	-685
ستگ	-686
▁ھیال	-687
اح	-688
▁سُ	-689
ھیں	-690
▁حال	-691
▁جتگ	-692
▁چیر	-693
▁بال	-694
▁پری	-695
رم	-696
▁was	-697
▁حیال	-698
▁M	-699
▁زمین	-700
ئیل	-701
▁تیر	-702
▁زھر	-703
▁ناد	-704
نٹ	-705
قی	-706
اکٹر	-707
▁شاعری	-708
▁وڑیں	-709
▁انسان	-710
▁مروچی	-711
▁مَ	-712
وی	-713
▁اھ	-714
فر	-715
آئی	-716
گے	-717
ur	-718
▁بُر	-719
▁وان	-720
▁بزاں	-721
▁بیگ	-722
▁گُڑا	-723
▁اش	-724
▁بلکیں	-725
▁ئُُ	-726
▁بَ	-727
▁دیما	-728
▁The	-729
نتگ	-730
▁بھ	-731
▁بلئے	-732
▁شم	-733
▁گش	-734
▁رجانک	-735
رانی	-736
▁جم	-737
ec	-738
▁بان	-739
▁مردمے	-740
ئیگ	-741
▁مرچی	-742
▁برجاہ	-743
▁أ	-744
▁چوش	-745
دیم	-746
کان	-747
▁شال	-748
ئگ	-749
تا	-750
▁گندگ	-751
▁on	-752
ly	-753
▁کناں	-754
▁چیزے	-755
لوک	-756
▁کُر	-757
▁رہ	-758
وا	-759
▁ادار	-760
▁گون	-761
نک	-762
▁یکے	-763
گانی	-764
جی	-765
▁منا	-766
▁بنی	-767
▁سرپد	-768
ورا	-769
▁تب	-770
▁جھ	-771
ردار	-772
یشن	-773
▁محمد	-774
▁جند	-775
▁B	-776
▁حس	-777
▁کرا	-778
▁گوستگیں	-779
وس	-780
▁آئیءَ	-781
▁ایوک	-782
پر	-783
▁اِیت	-784
▁اولی	-785
▁نود	-786
وگ	-787
بار	-788
▁شاہ	-789
▁ورنا	-790
اق	-791
▁I	-792
▁دنت	-793
▁g	-794
▁بدل	-795
▁آجو	-796
▁انگت	-797
et	-798
▁کُتگ	-799
▁پت	-800
▁ملک	-801
▁[	-802
▁بیتگیں	-803
ol	-804
▁پج	-805
ھاں	-806
▁ڈاکٹر	-807
لس	-808
ہی	-809
▁اِے	-810
▁شو	-811
رین	-812
▁گار	-813
ڈا	-814
▁￵	-815
دگ	-816
اھیں	-817
نس	-818
id	-819
▁ابید	-820
▁دَ	-821
▁آئرا	-822
▁میان	-823
▁مراد	-824
کم	-825
▁اند	-826
iv	-827
▁درد	-828
▁بِ	-829
▁زال	-830
▁سرجمیں	-831
ّے	-832
▁ہچ	-833
▁ُ	-834
im	-835
▁بیران	-836
▁لہ	-837
▁جاور	-838
▁انگ	-839
▁تک	-840
تاک	-841
▁اح	-842
▁بندات	-843
▁پنج	-844
وشم	-845
▁پچ	-846
▁سبب	-847
▁بابت	-848
▁for	-849
▁بنج	-850
▁گال	-851
▁اپ	-852
▁بنت۔	-853
ir	-854
▁راجی	-855
گت	-856
▁پٹ	-857
▁زھرشانی	-858
جام	-859
▁گوشگ	-860
کت	-861
▁رھ	-862
▁رِد	-863
▁کپتگ	-864
▁پار	-865
▁دارگ	-866
اض	-867
ندی	-868
گیری	-869
نز	-870
▁إ	-871
داری	-872
ig	-873
-@	-874
▁@-@	-875
ot	-876
▁پمیش	-877
...]	-878
▁[...]	-879
نیں	-880
ربر	-881
▁زی	-882
▁کسے	-883
▁نوک	-884
ter	-885
▁دری	-886
▁گاڑی	-887
▁بوت۔	-888
دان	-889
▁بکن	-890
یں۔	-891
▁بہر	-892
▁نش	-893
▁as	-894
▁گور	-895
اں۔	-896
▁H	-897
راب	-898
▁سیاسی	-899
▁شی	-900
▁پھ	-901
▁رَ	-902
▁بوگ	-903
▁سرم	-904
......	-905
▁پُر	-906
لے	-907
us	-908
▁برے	-909
نگی	-910
▁پیر	-911
بول	-912
▁میتگ	-913
▁نے	-914
بدال	-915
ئَ	-916
▁ئیں	-917
▁اود	-918
▁تاں	-919
▁ایک	-920
▁اتکگ	-921
▁کدی	-922
▁بوتگیں	-923
ow	-924
▁کِ	-925
وز	-926
فی	-927
▁گوشت	-928
▁چشکہ	-929
ارا	-930
▁گشت	-931
▁نزیک	-932
انس	-933
انکہ	-934
▁کراچی	-935
▁پَ	-936
▁شھ	-937
▁جنین	-938
▁چک	-939
▁پنچ	-940
گوش	-941
▁گشتگ	-942
مر	-943
▁st	-944
ut	-945
ith	-946
▁ھند	-947
▁منّ	-948
▁2	-949
ay	-950
وٹ	-951
▁مج	-952
▁سلاہ	-953
بہ	-954
▁چُ	-955
▁درست	-956
▁پشت	-957
اِ	-958
شیں	-959
▁یل	-960
ئیت	-961
▁انچیں	-962
بلوچ	-963
ورت	-964
▁لیکہ	-965
▁جُست	-966
▁کوہ	-967
▁آیاں	-968
اکہ	-969
▁نس	-970
▁چُک	-971
▁سنگ	-972
▁عبدال	-973
▁نظ	-974
▁آباد	-975
اچ	-976
شتی	-977
َگ	-978
▁؟	-979
▁دگ	-980
ّیں	-981
ای	-982
▁شائ	-983
▁اوشت	-984
▁جست	-985
▁P	-986
▁پولیس	-987
▁سرمچار	-988
ردو	-989
▁زمانگ	-990
ation	-991
▁کچ	-992
▁کارمرز	-993
▁کور	-994
▁پرچا	-995
ونی	-996
▁بھر	-997
........	-998
ver	-999
▁be	-1000
سم	-1001
her	-1002
▁نودربر	-1003
▁ٹی	-1004
▁زورا	-1005
▁راجد	-1006
▁چری	-1007
▁جارکش	-1008
▁that	-1009
▁جتائیں	-1010
▁چه	-1011
▁شھر	-1012
▁with	-1013
▁ایل	-1014
شون	-1015
تہ	-1016
▁سیم	-1017
ندیں	-1018
▁پل	-1019
▁سد	-1020
وتی	-1021
▁واھ	-1022
▁جاگہ	-1023
▁گپّ	-1024
گیر	-1025
ھے	-1026
▁توک	-1027
▁ایشانی	-1028
▁ڈول	-1029
جر	-1030
▁!	-1031
▁کرد	-1032
اص	-1033
ئِ	-1034
▁اِش	-1035
بلے	-1036
▁مہر	-1037
▁اِتگ	-1038
▁R	-1039
▁اگ	-1040
▁ھاتر	-1041
▁نشتگ	-1042
▁ناز	-1043
اف	-1044
▁یات	-1045
▁وز	-1046
▁چست	-1047
▁بیان	-1048
▁آجوئی	-1049
▁اف	-1050
اترا	-1051
▁جتا	-1052
▁گچ	-1053
▁وہ	-1054
بو	-1055
▁درو	-1056
▁بک	-1057
▁پیسر	-1058
▁انسانی	-1059
▁کمی	-1060
▁کیچ	-1061
رائی	-1062
▁کجام	-1063
ce	-1064
یسی	-1065
▁راستی	-1066
ھا	-1067
▁دیر	-1068
▁نگ	-1069
تاں	-1070
نہ	-1071
▁سید	-1072
▁D	-1073
th	-1074
▁سہ	-1075
▁رسانک	-1076
▁هم	-1077
▁سروک	-1078
▁کمک	-1079
▁فار	-1080
▁کوش	-1081
بری	-1082
un	-1083
▁پِ	-1084
▁is	-1085
نچو	-1086
▁ساہ	-1087
▁وئیل	-1088
▁زندگی	-1089
▁رب	-1090
▁سم	-1091
▁شاعر	-1092
▁مال	-1093
em	-1094
▁انچو	-1095
▁شعر	-1096
▁ریاست	-1097
کاں	-1098
▁ساچ	-1099
پتگ	-1100
یا	-1101
▁شیر	-1102
▁F	-1103
▁دروشم	-1104
▁زہر	-1105
▁کرتگ۔	-1106
راھی	-1107
▁باد	-1108
▁روک	-1109
▁دیست	-1110
▁تپ	-1111
اہی	-1112
لیں	-1113
▁بیست	-1114
▁چھ	-1115
▁شما	-1116
▁گُش	-1117
▁wh	-1118
ul	-1119
▁چین	-1120
▁مارشت	-1121
اه	-1122
▁نبشتانک	-1123
ندگ	-1124
▁علی	-1125
▁پوسٹ	-1126
▁واک	-1127
▁داد	-1128
▁by	-1129
▁گن	-1130
▁کاری	-1131
▁آسر	-1132
▁واری	-1133
▁ارز	-1134
▁اچ	-1135
▁بست	-1136
▁روگ	-1137
▁سِ	-1138
▁سرکار	-1139
▁مول	-1140
▁چریشی	-1141
ch	-1142
▁آدم	-1143
▁سما	-1144
▁جہد	-1145
▁al	-1146
نّ	-1147
▁واستا	-1148
▁اتنت	-1149
▁سند	-1150
پتر	-1151
ژن	-1152
▁زہ	-1153
▁ودی	-1154
▁گری	-1155
▁اسلام	-1156
یلہ	-1157
▁ایس	-1158
مہ	-1159
▁تران	-1160
▁W	-1161
▁زندگ	-1162
رہ	-1163
▁زالبول	-1164
▁con	-1165
▁ھبر	-1166
▁کپت	-1167
▁ِ	-1168
▁بلک	-1169
▁لگ	-1170
▁مدام	-1171
▁کنوک	-1172
تل	-1173
گواری	-1174
ندہ	-1175
▁سردار	-1176
▁په	-1177
▁تل	-1178
▁مک	-1179
ژمن	-1180
▁ے	-1181
ra	-1182
▁از	-1183
▁منءَ	-1184
▁یہ	-1185
▁اشی	-1186
▁آہانی	-1187
▁ادا	-1188
▁درگت	-1189
▁آرگ	-1190
▁ساھ	-1191
▁بیا	-1192
▁کساس	-1193
▁تاوان	-1194
▁ھمیش	-1195
▁بندیں	-1196
وہ	-1197
▁ساری	-1198
▁ہند	-1199
▁نیام	-1200
▁باس	-1201
▁چَ	-1202
▁جیڑہ	-1203
ؤر	-1204
ّگ	-1205
▁زُ	-1206
▁رُ	-1207
انسری	-1208
▁G	-1209
▁چارگ	-1210
▁بازار	-1211
▁آن	-1212
▁گوادر	-1213
▁بچار	-1214
▁چِ	-1215
کل	-1216
▁گہ	-1217
▁جاھ	-1218
os	-1219
▁ایران	-1220
▁دوئیں	-1221
▁زورانسری	-1222
▁L	-1223
ّا	-1224
▁مرگ	-1225
▁گام	-1226
▁تم	-1227
▁￶	-1228
▁N	-1229
▁دراھیں	-1230
▁کارمند	-1231
▁دود	-1232
▁تُر	-1233
▁at	-1234
▁گران	-1235
▁گپت	-1236
▁پرو	-1237
▁دیمرو	-1238
▁کسہ	-1239
▁تیرگواری	-1240
▁کسانیں	-1241
▁ھالانی	-1242
اسیں	-1243
▁سلام	-1244
▁پجار	-1245
ers	-1246
▁بُن	-1247
ct	-1248
یران	-1249
▁نشانگ	-1250
زان	-1251
▁کیت	-1252
▁جَ	-1253
▁جھد	-1254
▁دہ	-1255
▁؂	-1256
▁it	-1257
▁داشت	-1258
▁19	-1259
▁کھول	-1260
▁اسک	-1261
▁وڑا	-1262
▁تھا	-1263
▁مری	-1264
▁ظ	-1265
ےءَ	-1266
▁لھ	-1267
▁فر	-1268
راگ	-1269
rom	-1270
▁نِ	-1271
لک	-1272
▁تربت	-1273
▁بخ	-1274
and	-1275
▁ازم	-1276
ازگ	-1277
▁مستریں	-1278
▁’	-1279
▁کتگ۔	-1280
▁بیتگ۔	-1281
▁وھدیکہ	-1282
چو	-1283
▁ھس	-1284
▁برتگ	-1285
دو	-1286
▁ناش	-1287
گریں	-1288
▁an	-1289
um	-1290
▁عل	-1291
یدگ	-1292
▁بچک	-1293
▁برات	-1294
▁لس	-1295
▁ض	-1296
▁شہر	-1297
▁ہیں	-1298
est	-1299
▁لیک	-1300
▁J	-1301
▁دلگوش	-1302
▁عر	-1303
▁چاپ	-1304
کھ	-1305
جہ	-1306
▁مق	-1307
ماش	-1308
ے۔	-1309
▁ہے۔	-1310
▁ورگ	-1311
زا	-1312
▁الم	-1313
▁گڈا	-1314
▁مِ	-1315
انا	-1316
ag	-1317
فہ	-1318
▁دْر	-1319
▁he	-1320
▁زوراکی	-1321
▁بچ	-1322
▁روان	-1323
▁ماھ	-1324
▁فلس	-1325
,"	-1326
مت	-1327
▁تع	-1328
▁گُشت	-1329
منی	-1330
▁داریت	-1331
حر	-1332
▁لاش	-1333
زل	-1334
▁راجدپتر	-1335
ئٹ	-1336
▁آما	-1337
00	-1338
بیت	-1339
▁نص	-1340
▁ھُ	-1341
▁کجا	-1342
ارت	-1343
▁شری	-1344
▁گوازی	-1345
اریخ	-1346
عہ	-1347
گور	-1348
▁وزیر	-1349
▁لا	-1350
ّاں	-1351
▁وہدے	-1352
▁اید	-1353
▁بلکنا	-1354
▁اص	-1355
▁سائ	-1356
▁کئے	-1357
ist	-1358
▁اھوال	-1359
▁کنوکیں	-1360
جود	-1361
▁برگ	-1362
با	-1363
▁اتگ	-1364
▁گْوشت	-1365
کو	-1366
اناں	-1367
▁چوک	-1368
ئیر	-1369
ــــ	-1370
▁کارے	-1371
▁ملکی	-1372
ارے	-1373
▁ہوار	-1374
▁کان	-1375
ain	-1376
▁آماچ	-1377
له	-1378
od	-1379
▁ناک	-1380
▁ترس	-1381
▁حق	-1382
av	-1383
▁بھی	-1384
▁فی	-1385
انءِ	-1386
▁یلہ	-1387
▁بنگ	-1388
▁نیک	-1389
ri	-1390
▁قر	-1391
▁حک	-1392
وانی	-1393
▁زاناں	-1394
▁گرد	-1395
▁تام	-1396
▁٭	-1397
▁بات	-1398
تکگ	-1399
▁شش	-1400
ستی	-1401
ورس	-1402
▁سپ	-1403
▁E	-1404
▁درک	-1405
▁کاروان	-1406
▁چاگردی	-1407
▁مش	-1408
▁گرگ	-1409
▁بندی	-1410
ھم	-1411
▁کت۔	-1412
زگ	-1413
ێن	-1414
▁زیب	-1415
▁ناں	-1416
▁O	-1417
تو	-1418
▁بج	-1419
▁اخ	-1420
▁روچے	-1421
▁ھزار	-1422
اکر	-1423
فت	-1424
▁قوم	-1425
▁مُر	-1426
▁سرمچاراں	-1427
▁امری	-1428
▁زندءِ	-1429
▁آھانی	-1430
گان	-1431
امن	-1432
▁جنت	-1433
▁انگری	-1434
▁کشگ	-1435
▁تچ	-1436
▁مشک	-1437
یاں	-1438
▁بوھگ	-1439
ماں	-1440
▁داشتگ	-1441
▁اول	-1442
▁اسپ	-1443
▁from	-1444
▁دژمن	-1445
▁اہ	-1446
▁دُر	-1447
▁جہل	-1448
اراں	-1449
پہ	-1450
ئر	-1451
▁ئی	-1452
شتہ	-1453
▁واہ	-1454
▁تاریخ	-1455
▁زہرشانی	-1456
انہ	-1457
▁جوانیں	-1458
رات	-1459
سگ	-1460
نائی	-1461
▁رسانکدر	-1462
▁گپتگ	-1463
▁دراج	-1464
گیج	-1465
▁پروش	-1466
▁ساز	-1467
▁ھلاپ	-1468
مبے	-1469
▁عمل	-1470
ادگ	-1471
▁زمہ	-1472
▁گشگ	-1473
ٹّ	-1474
شاہ	-1475
ثر	-1476
▁شت	-1477
▁زھگ	-1478
▁مھلوک	-1479
▁کلات	-1480
▁نه	-1481
▁ھاترا	-1482
▁com	-1483
▁مھر	-1484
▁حبر	-1485
▁گْوشتگ	-1486
▁به	-1487
▁َ	-1488
▁کرتگیں	-1489
دام	-1490
▁سیادی	-1491
▁آہاں	-1492
ئٹہ	-1493
نام	-1494
▁گھ	-1495
▁گَ	-1496
▁تاکدیم	-1497
یلی	-1498
▁کنیں	-1499
▁گیر	-1500
▁رح	-1501
▁شھید	-1502
▁نیمگا	-1503
▁ارش	-1504
▁دمان	-1505
ینک	-1506
▁ھور	-1507
▁سیاست	-1508
▁ماس	-1509
اریں	-1510
▁لہتیں	-1511
▁his	-1512
▁باریں	-1513
۔۔۔۔۔۔۔۔	-1514
▁ھمک	-1515
▁ایرانی	-1516
▁مہلوک	-1517
لاں	-1518
▁نہیں	-1519
▁اتاں	-1520
دے	-1521
داریں	-1522
▁علم	-1523
▁دیستگ	-1524
op	-1525
▁آش	-1526
پور	-1527
▁ہمیش	-1528
▁سیاہ	-1529
ومت	-1530
▁مالی	-1531
▁ھلاس	-1532
ونک	-1533
▁پکر	-1534
▁دین	-1535
▁تح	-1536
▁pro	-1537
▁ادارہ	-1538
▁شاد	-1539
▁آزات	-1540
▁ھنچ	-1541
res	-1542
▁دِ	-1543
▁اسٹ	-1544
ies	-1545
if	-1546
▁ٹپی	-1547
ێں	-1548
▁نبشتگ	-1549
▁کُرت	-1550
▁احمد	-1551
▁پیدا	-1552
▁بُو	-1553
▁شرگ	-1554
▁دئیگ	-1555
▁لوٹیت	-1556
میں	-1557
پد	-1558
▁جنک	-1559
دارگ	-1560
▁پید	-1561
▁زوت	-1562
▁دیمءَ	-1563
▁پا	-1564
▁ساحر	-1565
گری	-1566
▁گچین	-1567
وریں	-1568
▁v	-1569
رس	-1570
","	-1571
جال	-1572
ort	-1573
▁جون	-1574
▁دزگیر	-1575
▁ث	-1576
پتی	-1577
▁برز	-1578
بے	-1579
▁کوئٹہ	-1580
ستیں	-1581
▁بُرز	-1582
▁گس	-1583
رءَ	-1584
▁بارو	-1585
▁دْ	-1586
▁لبزانکی	-1587
بانی	-1588
▁شُت	-1589
یے	-1590
▁ٹپ	-1591
▁سَے	-1592
▁پنجگور	-1593
▁ہی	-1594
▁بوہ	-1595
انے	-1596
▁وانوک	-1597
▁اک	-1598
انز	-1599
▁نویس	-1600
یہ	-1601
▁کری	-1602
ere	-1603
▁بلوچانی	-1604
ill	-1605
▁واستہ	-1606
▁مند	-1607
ld	-1608
▁سفر	-1609
▁de	-1610
چے	-1611
▁اج	-1612
▁بنیاد	-1613
▁بگیری	-1614
▁ورن	-1615
▁کمیٹی	-1616
pp	-1617
▁زیر	-1618
▁بخش	-1619
کگ	-1620
▁زُر	-1621
▁گدار	-1622
ودی	-1623
عت	-1624
▁سبز	-1625
▁su	-1626
▁بیگواھیں	-1627
▁زدگ	-1628
راں	-1629
▁وھدی	-1630
ونا	-1631
▁رسول	-1632
ore	-1633
▁دھ	-1634
▁باں	-1635
▁In	-1636
▁ایشاں	-1637
قل	-1638
مبر	-1639
فا	-1640
▁تن	-1641
▁r	-1642
▁تال	-1643
رح	-1644
گل	-1645
▁سار	-1646
قہ	-1647
▁اشک	-1648
▁فلسفہ	-1649
▁پارٹی	-1650
▁لبری	-1651
▁se	-1652
▁ئےِ	-1653
ّو	-1654
▁لبریشن	-1655
ew	-1656
▁شائری	-1657
▁ته	-1658
▁were	-1659
رت	-1660
ینت	-1661
▁شوھ	-1662
▁وتا	-1663
▁ڈگار	-1664
اضل	-1665
▁کنگی	-1666
▁نبیس	-1667
ong	-1668
ٹری	-1669
▁تچک	-1670
▁چوں	-1671
▁روچاں	-1672
▁ڪ	-1673
یانی	-1674
پان	-1675
▁معنا	-1676
▁گوئ	-1677
▁ارس	-1678
▁ـ	-1679
▁ناشن	-1680
▁عم	-1681
▁پیلو	-1682
▁ایدگہ	-1683
ّر	-1684
قت	-1685
▁اردو	-1686
ائل	-1687
igh	-1688
▁عمر	-1689
▁وتءَ	-1690
▁زانتکار	-1691
ard	-1692
▁داب	-1693
all	-1694
ate	-1695
▁پُشت	-1696
▁الله	-1697
▁پیداک	-1698
▁گم	-1699
▁‘	-1700
ردی	-1701
ak	-1702
art	-1703
نگیں	-1704
ناں	-1705
▁گوات	-1706
▁رنگیں	-1707
▁دوستی	-1708
زہ	-1709
▁چپ	-1710
▁زورگریں	-1711
▁کند	-1712
میت	-1713
اتگ	-1714
▁عط	-1715
منند	-1716
▁فو	-1717
بلوچی	-1718
▁نادراہ	-1719
▁اکی	-1720
ich	-1721
▁مذ	-1722
▁کاراں	-1723
▁حکومت	-1724
▁بکنت	-1725
▁پگر	-1726
▁وا	-1727
▁کارانی	-1728
▁ارو	-1729
▁ھو	-1730
▁لاپ	-1731
▁اکیڈ	-1732
بندی	-1733
▁ch	-1734
▁زھ	-1735
▁حساب	-1736
▁اِت۔	-1737
▁ھساب	-1738
▁لچہ	-1739
دل	-1740
لیم	-1741
▁دگر	-1742
▁or	-1743
▁وال	-1744
▁دمگاں	-1745
▁زاھ	-1746
ّت	-1747
ارگ	-1748
چاں	-1749
▁وشی	-1750
▁تُ	-1751
▁پڑ	-1752
▁سرکاری	-1753
▁پاس	-1754
▁ایف	-1755
ِند	-1756
▁دمگی	-1757
ab	-1758
احب	-1759
▁پمیشا	-1760
جن	-1761
▁دان	-1762
▁کہول	-1763
▁زرتگ	-1764
▁قص	-1765
ٹل	-1766
باد	-1767
▁بمب	-1768
▁بنجاھی	-1769
oc	-1770
▁ھپت	-1771
▁تَ	-1772
▁ناشناسیں	-1773
چر	-1774
ant	-1775
▁شک	-1776
▁وی	-1777
▁شریں	-1778
▁یکیں	-1779
▁گمان	-1780
▁پدر	-1781
ud	-1782
نات	-1783
▁روکپتی	-1784
▁یون	-1785
▁دے	-1786
▁کیا	-1787
▁شاھ	-1788
▁گڈ	-1789
▁آھاں	-1790
▁ٹولی	-1791
▁نور	-1792
▁لَ	-1793
▁""	-1794
▁تُرس	-1795
▁ایت۔	-1796
▁سئے	-1797
ئو	-1798
ےءِ	-1799
▁ند	-1800
▁حدا	-1801
ber	-1802
▁قب	-1803
خت	-1804
▁ملا	-1805
▁رھبند	-1806
▁نشان	-1807
▁رؤ	-1808
ْو	-1809
▁ex	-1810
ندے	-1811
▁الّ	-1812
▁شور	-1813
▁جنی	-1814
ابی	-1815
▁درس	-1816
▁۔۔۔	-1817
▁شوھاز	-1818
▁بیڑ	-1819
▁آف	-1820
▁پمیشکا	-1821
▁ہزار	-1822
▁سوار	-1823
▁مبار	-1824
▁سرپدی	-1825
▁عکس	-1826
▁سیک	-1827
▁چن	-1828
gh	-1829
صر	-1830
تریں	-1831
ity	-1832
ated	-1833
گءِ	-1834
ھار	-1835
pt	-1836
▁مکران	-1837
ess	-1838
▁درور	-1839
▁جس	-1840
▁پال	-1841
مید	-1842
▁کئیت	-1843
▁ہل	-1844
ھال	-1845
▁ہست	-1846
گوں	-1847
▁ژ	-1848
▁شَ	-1849
باز	-1850
▁کماش	-1851
▁کیس	-1852
ear	-1853
▁دانکہ	-1854
▁کٹ	-1855
▁K	-1856
پار	-1857
▁وائ	-1858
▁ڈن	-1859
▁رک	-1860
▁مت	-1861
▁ارزشت	-1862
▁pl	-1863
▁نوش	-1864
وبہ	-1865
▁ھَ	-1866
▁چیا	-1867
▁بستگ	-1868
▁اکیڈمی	-1869
▁صاحب	-1870
ame	-1871
یشنل	-1872
جمی	-1873
▁ھشت	-1874
qu	-1875
▁پش	-1876
وکی	-1877
▁آزمان	-1878
▁نَ	-1879
▁وسلم	-1880
یشی	-1881
▁جنجال	-1882
▁کئی	-1883
▁نیمگءَ	-1884
اضی	-1885
یرہ	-1886
▁مث	-1887
ریک	-1888
▁باسک	-1889
او	-1890
▁آو	-1891
لان	-1892
▁شتگ	-1893
منٹ	-1894
▁ردءَ	-1895
یدی	-1896
▁نُ	-1897
▁واھگ	-1898
ive	-1899
▁چیریں	-1900
▁سھ	-1901
ڈّ	-1902
ڈر	-1903
▁تاب	-1904
▁گز	-1905
▁زورگ	-1906
▁چشیں	-1907
rou	-1908
▁برو	-1909
▁گیشیں	-1910
▁نسبت	-1911
▁جل	-1912
ِت	-1913
▁سیر	-1914
▁are	-1915
▁میار	-1916
▁کسان	-1917
▁سری	-1918
پانی	-1919
جھ	-1920
ومی	-1921
▁تہنا	-1922
▁فاضل	-1923
تانی	-1924
رف	-1925
▁پوش	-1926
اشمی	-1927
▁نق	-1928
▁ساچشت	-1929
▁بکش	-1930
▁سام	-1931
▁دیمروئی	-1932
▁لچ	-1933
ڑے	-1934
▁بدلی	-1935
▁آتک	-1936
▁ست	-1937
▁پرس	-1938
▁چمّ	-1939
▁کتگیں	-1940
▁کشی	-1941
▁ٗ	-1942
▁چا	-1943
▁sh	-1944
▁غلام	-1945
▁پریس	-1946
اکی	-1947
▁وارت	-1948
▁k	-1949
▁کال	-1950
▁مانا	-1951
▁رام	-1952
▁رست	-1953
▁لٹ	-1954
اھاں	-1955
▁کننت	-1956
ونگ	-1957
پورٹ	-1958
▁کنگا	-1959
ack	-1960
▁تانکہ	-1961
▁روت	-1962
دات	-1963
تین	-1964
▁زیم	-1965
▁کاروب	-1966
▁بش	-1967
انکی	-1968
▁واتر	-1969
ect	-1970
جان	-1971
▁کنگءَ	-1972
▁ہمراہ	-1973
▁اسکول	-1974
▁شئیر	-1975
▁دستونک	-1976
▁شرگداری	-1977
▁هر	-1978
▁کُرتگ	-1979
▁مچ	-1980
▁آرمی	-1981
▁بادشاہ	-1982
▁U	-1983
▁سرک	-1984
▁had	-1985
▁ھون	-1986
▁ٹک	-1987
راج	-1988
▁ادب	-1989
▁روز	-1990
▁هما	-1991
▁مڑ	-1992
▁جنان	-1993
▁مراگ	-1994
▁چونیں	-1995
▁لال	-1996
▁کسی	-1997
▁اودا	-1998
se	-1999
▁گُشتگ	-2000
ُل	-2001
▁ریک	-2002
▁ٹیک	-2003
▁تیاب	-2004
▁منت	-2005
▁دع	-2006
▁نشت	-2007
▁دشتی	-2008
▁کنئگ	-2009
▁استاد	-2010
▁بندوک	-2011
▁کارست	-2012
▁بزانت	-2013
▁چوشیں	-2014
▁نان	-2015
▁آیگ	-2016
▁نظام	-2017
▁برجم	-2018
▁دلءَ	-2019
▁بنجل	-2020
ریچ	-2021
▁اُست	-2022
▁بگٹی	-2023
▁تکنی	-2024
▁بنا	-2025
▁کوھ	-2026
▁زرد	-2027
▁سپر	-2028
▁مُدام	-2029
▁درچک	-2030
▁خیال	-2031
اَ	-2032
▁لُ	-2033
دّ	-2034
▁یار	-2035
▁گوٛشت	-2036
▁دَر	-2037
▁which	-2038
▁کوٹی	-2039
مرد	-2040
▁فکر	-2041
▁سائنس	-2042
ہب	-2043
▁کاگ	-2044
▁درائیں	-2045
▁کنائی	-2046
اجی	-2047
...!	-2048
٭٭	-2049
پگ	-2050
▁بانک	-2051
▁وه	-2052
آن	-2053
یناں	-2054
▁راھ	-2055
▁دید	-2056
▁یاد	-2057
▁بئے	-2058
▁المی	-2059
داں	-2060
نگل	-2061
▁یونی	-2062
▁چاران	-2063
▁فیص	-2064
ادہ	-2065
red	-2066
▁کُشگ	-2067
▁یکجاہ	-2068
وڑ	-2069
▁سیمی	-2070
▁ناول	-2071
نر	-2072
▁لوز	-2073
وئی	-2074
▁بستار	-2075
▁دریا	-2076
▁مرک	-2077
ov	-2078
▁St	-2079
بال	-2080
▁نامیں	-2081
ast	-2082
▁موسم	-2083
▁وسیلہ	-2084
▁بیگواہیں	-2085
▁گیشی	-2086
▁ودار	-2087
▁حاص	-2088
▁درآ	-2089
▁واکدار	-2090
▁sp	-2091
لب	-2092
▁سنگتاں	-2093
▁نپ	-2094
▁باید	-2095
▁فارسی	-2096
▁بوان	-2097
ارانی	-2098
▁بدن	-2099
اکیں	-2100
▁چماں	-2101
زمین	-2102
▁بگر	-2103
▁دئی	-2104
▁کام	-2105
▁وپ	-2106
▁اکس	-2107
▁باروا	-2108
▁y	-2109
ian	-2110
▁قاضی	-2111
▁دنت۔	-2112
▁نندانک	-2113
▁تجر	-2114
▁لائ	-2115
▁جہان	-2116
▁بوئگ	-2117
دم	-2118
▁آزاتی	-2119
ment	-2120
▁ہیں۔	-2121
اران	-2122
▁le	-2123
","","	-2124
ایت	-2125
▁کون	-2126
▁بوتیں	-2127
▁سُر	-2128
شتر	-2129
▁ویل	-2130
▁دیان	-2131
▁بُوت	-2132
▁ساڑی	-2133
اہر	-2134
▁وجود	-2135
▁گْور	-2136
▁زب	-2137
میر	-2138
اجہ	-2139
▁علا	-2140
▁کمال	-2141
▁مط	-2142
▁چش	-2143
▁not	-2144
▁داری	-2145
▁دراہ	-2146
▁دروازگ	-2147
▁آنی	-2148
ge	-2149
▁مٹ	-2150
▁گپے	-2151
▁ھاک	-2152
▁گُل	-2153
ترا	-2154
یکل	-2155
▁جنگی	-2156
َے	-2157
چگ	-2158
امیں	-2159
▁دپتر	-2160
▁وانی	-2161
▁ئے۔	-2162
▁دات۔	-2163
▁شمئے	-2164
ord	-2165
▁حاک	-2166
▁صل	-2167
▁وڈ	-2168
ورسٹی	-2169
▁بح	-2170
rit	-2171
▁کشّ	-2172
ine	-2173
ip	-2174
روچ	-2175
▁ردا	-2176
یدہ	-2177
▁زُبان	-2178
لات	-2179
▁میل	-2180
▁رم	-2181
▁بیگاہ	-2182
ell	-2183
ally	-2184
▁عز	-2185
▁حسین	-2186
▁رنگے	-2187
سک	-2188
برے	-2189
▁میجر	-2190
▁گوٛش	-2191
our	-2192
▁بندیگ	-2193
▁همے	-2194
رک	-2195
▁ھدا	-2196
▁ڈیھ	-2197
▁جام	-2198
▁گورا	-2199
▁پُل	-2200
▁کلو	-2201
ناز	-2202
▁حمل	-2203
▁ھمراہ	-2204
▁مکن	-2205
▁یکش	-2206
دری	-2207
ost	-2208
▁سلامتی	-2209
ندر	-2210
▁جھمنند	-2211
▁بِہ	-2212
▁شِ	-2213
▁ءُُ	-2214
لّا	-2215
▁وڑے	-2216
▁ہمک	-2217
▁صورت	-2218
▁مه	-2219
مین	-2220
▁لھتے	-2221
انچ	-2222
▁اشانی	-2223
▁3	-2224
▁امریکہ	-2225
▁ہور	-2226
▁باور	-2227
ینے	-2228
▁دائ	-2229
▁رہبند	-2230
▁پِر	-2231
▁انچوش	-2232
▁وشیں	-2233
▁خدا	-2234
▁شھد	-2235
▁ایں۔	-2236
ُم	-2237
▁چینل	-2238
▁گنج	-2239
▁کارگ	-2240
▁سوج	-2241
▁نندوک	-2242
▁مراگش	-2243
▁داتگ۔	-2244
▁درٛ	-2245
▁واق	-2246
وگیں	-2247
▁کپیت	-2248
▁یونیورسٹی	-2249
مال	-2250
▁چل	-2251
▁یور	-2252
ight	-2253
▁شہید	-2254
ther	-2255
▁منزل	-2256
▁ایپ	-2257
▁چاکر	-2258
▁اِتنت	-2259
ap	-2260
▁آیان	-2261
▁قدر	-2262
▁خاص	-2263
▁پور	-2264
ّار	-2265
▁آخ	-2266
▁u	-2267
▁عطا	-2268
▁پند	-2269
يه	-2270
ish	-2271
▁Ch	-2272
▁آھ	-2273
ا۔	-2274
▁تراک	-2275
oun	-2276
▁انگریزی	-2277
ia	-2278
▁منیر	-2279
راھ	-2280
▁مئی	-2281
▁اڑ	-2282
▁بیرم	-2283
▁آؤر	-2284
▁رامین	-2285
مپ	-2286
ڈیا	-2287
▁لوٹاں	-2288
سے	-2289
▁نصیر	-2290
یسر	-2291
▁گوْ	-2292
▁سندھ	-2293
▁گُڈ	-2294
اھو	-2295
▁سع	-2296
▁کردار	-2297
ave	-2298
ْی	-2299
▁نک	-2300
▁عليه	-2301
▁آسرا	-2302
لوم	-2303
▁سین	-2304
؟‘‘	-2305
ازدہ	-2306
▁جز	-2307
▁آمی	-2308
ary	-2309
▁چمانی	-2310
▁حسن	-2311
▁نیشنل	-2312
شکا	-2313
▁بالی	-2314
▁نماز	-2315
▁شاری	-2316
نب	-2317
▁بونگ	-2318
▁جاھے	-2319
▁تنی	-2320
▁بنداتی	-2321
انءَ	-2322
▁کمپ	-2323
▁گامگیج	-2324
نو	-2325
ust	-2326
▁ناکو	-2327
ریشن	-2328
▁لیب	-2329
▁نادراھی	-2330
▁سگ	-2331
▁پتر	-2332
▁جواب	-2333
▁وتارا	-2334
▁ذات	-2335
▁پسو	-2336
اہیں	-2337
▁اصل	-2338
▁سکّ	-2339
وشی	-2340
▁وک	-2341
بوت	-2342
▁درستیں	-2343
▁کِس	-2344
▁نار	-2345
▁نیکہ	-2346
▁منص	-2347
▁حر	-2348
▁بیم	-2349
▁ناگ	-2350
▁کیم	-2351
▁چر	-2352
▁باندات	-2353
▁شام	-2354
▁مں	-2355
▁اپنے	-2356
▁قد	-2357
وف	-2358
▁آں۔	-2359
▁الّم	-2360
بین	-2361
▁نامی	-2362
▁دیوال	-2363
یرانی	-2364
اشی	-2365
▁پرچے	-2366
یات	-2367
▁یکّ	-2368
▁لھتیں	-2369
og	-2370
ودا	-2371
▁داتگیں	-2372
اتھ	-2373
▁کوک	-2374
اپی	-2375
▁بام	-2376
ہم	-2377
داد	-2378
نچیں	-2379
ٹو	-2380
▁200	-2381
سل	-2382
▁اندر	-2383
▁کشک	-2384
▁رھشون	-2385
▁گوست	-2386
▁گڑ	-2387
رل	-2388
▁فیصلہ	-2389
▁کشتگ	-2390
▁کسّہ	-2391
▁دیمروی	-2392
▁un	-2393
▁اکبر	-2394
▁گونڈ	-2395
▁ریاستی	-2396
▁ایشیءِ	-2397
ٹس	-2398
▁اثر	-2399
▁شمبے	-2400
لانی	-2401
▁سلیم	-2402
▁بامن	-2403
▁بندگ	-2404
▁بہا	-2405
▁کِر	-2406
▁دستاں	-2407
ھمے	-2408
▁مھمد	-2409
▁کنگءِ	-2410
▁رستگ	-2411
▁پوجی	-2412
▁اگر	-2413
▁بالاد	-2414
▁البت	-2415
▁جاھاں	-2416
رانس	-2417
▁تھی	-2418
▁عش	-2419
▁راز	-2420
اگاں	-2421
▁راستیں	-2422
ous	-2423
▁زرمب	-2424
زاں	-2425
▁باری	-2426
سا	-2427
irst	-2428
▁تکنیک	-2429
cc	-2430
▁inc	-2431
مئے	-2432
▁لک	-2433
▁چھاپ	-2434
▁بزان	-2435
▁آمیدگ	-2436
▁ایشرا	-2437
▁پیمیں	-2438
کنگ	-2439
▁گیشتریں	-2440
▁رپورٹ	-2441
▁مثال	-2442
ریا	-2443
▁ھک	-2444
دال	-2445
▁مبارک	-2446
▁قومی	-2447
▁گڈی	-2448
▁شائر	-2449
وائی	-2450
▁تریں	-2451
▁چَہ	-2452
▁درمان	-2453
▁کُت۔	-2454
ٹا	-2455
▁مخ	-2456
زدار	-2457
▁comp	-2458
▁امان	-2459
دءَ	-2460
ٹے	-2461
▁نزّ	-2462
▁مردے	-2463
▁تھنا	-2464
▁کاروبار	-2465
▁دئے	-2466
▁بیار	-2467
▁تنگ	-2468
ru	-2469
▁کمان	-2470
▁آور	-2471
▁سَر	-2472
لق	-2473
▁درشانی	-2474
بگ	-2475
ions	-2476
نوں	-2477
▁دیمتر	-2478
مَ	-2479
▁جوان	-2480
▁مام	-2481
▁پیما	-2482
▁تیار	-2483
▁گِر	-2484
▁پالیسی	-2485
▁اُمیت	-2486
سری	-2487
▁اوشتاتگ	-2488
ارہ	-2489
وپ	-2490
▁یع	-2491
▁ادءَ	-2492
▁their	-2493
▁but	-2494
▁اھت	-2495
تام	-2496
▁اڈ	-2497
▁پرا	-2498
▁سور	-2499
شاں	-2500
ide	-2501
▁درچ	-2502
▁اِیں	-2503
روری	-2504
▁کاینت	-2505
ۆچ	-2506
▁گِند	-2507
▁کُشتگ	-2508
ure	-2509
▁اِتاں	-2510
▁سان	-2511
الد	-2512
اور	-2513
▁نیست۔	-2514
so	-2515
▁جندءِ	-2516
▁لہتے	-2517
▁اتنت۔	-2518
▁دُور	-2519
وڈ	-2520
▁بود	-2521
▁بگند	-2522
▁cont	-2523
حال	-2524
▁گپاں	-2525
▁int	-2526
fter	-2527
▁شوہ	-2528
▁ابر	-2529
▁کلب	-2530
مند	-2531
گام	-2532
▁کچے	-2533
▁مرتگ	-2534
ہ۔	-2535
ical	-2536
▁گنگ	-2537
▁روانک	-2538
‘‘(	-2539
▁روزگار	-2540
واری	-2541
▁ھرچ	-2542
▁زِر	-2543
واں	-2544
▁أنت۔	-2545
▁بنگپ	-2546
▁ندارگ	-2547
َت	-2548
اقت	-2549
ial	-2550
▁جُھد	-2551
▁ar	-2552
▁بوھ	-2553
▁ساد	-2554
انزدہ	-2555
▁مارچ	-2556
▁تاج	-2557
▁ارواہ	-2558
▁دنیاءِ	-2559
▁بگیر	-2560
▁پدءَ	-2561
▁ہوت	-2562
▁first	-2563
▁غم	-2564
▁دشت	-2565
▁تیل	-2566
▁حکم	-2567
▁گنوک	-2568
▁امیت	-2569
▁وائس	-2570
ہہ	-2571
▁ادبی	-2572
▁لگت	-2573
▁درشانے	-2574
▁کریم	-2575
▁ببیت	-2576
▁آرام	-2577
▁درستاں	-2578
▁آزاد	-2579
▁گُشگ	-2580
▁آمیدگس	-2581
▁دراجیں	-2582
ould	-2583
▁بوتاں	-2584
▁کد	-2585
▁سیل	-2586
▁its	-2587
▁نف	-2588
تاکدیم	-2589
▁سوچ	-2590
hed	-2591
▁اع	-2592
▁باندا	-2593
▁صن	-2594
▁ماہی	-2595
▁پک	-2596
لوار	-2597
▁اشت	-2598
▁نمدی	-2599
ریت	-2600
▁عہد	-2601
▁ھمراھی	-2602
▁سرما	-2603
▁...	-2604
▁whe	-2605
خان	-2606
▁ماد	-2607
▁ئیگ	-2608
وستان	-2609
▁کمے	-2610
▁آسراتی	-2611
▁عال	-2612
َرّ	-2613
▁جر	-2614
▁سیمسر	-2615
▁ؔ	-2616
۔۔۔۔۔	-2617
ڑیں	-2618
▁تنے	-2619
▁چاہ	-2620
▁انچش	-2621
سپ	-2622
▁مہمان	-2623
،،	-2624
ٹرول	-2625
▁مستونگ	-2626
▁مسل	-2627
نانی	-2628
ِچ	-2629
▁ھیر	-2630
▁کسانی	-2631
▁20	-2632
wo	-2633
out	-2634
▁منگ	-2635
ub	-2636
▁پرچاکہ	-2637
▁کَش	-2638
واہ	-2639
▁جانی	-2640
▁تالان	-2641
▁گرم	-2642
▁قان	-2643
اھے	-2644
▁مُلّا	-2645
طن	-2646
▁نامداریں	-2647
▁گشیت	-2648
▁ھب	-2649
▁مولانا	-2650
▁چیزانی	-2651
اتے	-2652
شر	-2653
▁سالی	-2654
ویز	-2655
▁شد	-2656
▁دنی	-2657
▁چوکہ	-2658
ff	-2659
▁زرت	-2660
▁زِ	-2661
اؤ	-2662
▁جد	-2663
▁داستان	-2664
▁پون	-2665
واجہ	-2666
ue	-2667
▁سرمایہ	-2668
سن	-2669
▁بابتءَ	-2670
▁عربی	-2671
▁اوگان	-2672
بور	-2673
کارانی	-2674
▁her	-2675
▁بب	-2676
▁رود	-2677
▁دکان	-2678
▁ونتگ	-2679
ok	-2680
▁دلو	-2681
اتک	-2682
▁تْر	-2683
▁رنج	-2684
own	-2685
نگیج	-2686
▁کاگد	-2687
وَ	-2688
ازہ	-2689
▁چاریں	-2690
ہار	-2691
▁اَچ	-2692
▁لین	-2693
▁also	-2694
▁ہَ	-2695
▁کنڈ	-2696
اِت	-2697
▁cl	-2698
▁دش	-2699
▁پیسلہ	-2700
▁جوانی	-2701
ہمے	-2702
▁کارندہ	-2703
▁......	-2704
▁جُنز	-2705
وشل	-2706
▁اھوالانی	-2707
رمین	-2708
▁صح	-2709
▁عب	-2710
▁سازی	-2711
وست	-2712
▁مڈی	-2713
ign	-2714
پٹ	-2715
per	-2716
▁جھان	-2717
عی	-2718
▁انگریز	-2719
ran	-2720
ater	-2721
▁ترقی	-2722
ضی	-2723
▁جاگ	-2724
▁ندار	-2725
▁شون	-2726
▁ریش	-2727
▁فائ	-2728
▁شان	-2729
▁بارت	-2730
orm	-2731
▁گیس	-2732
اجت	-2733
▁عرب	-2734
فار	-2735
ie	-2736
▁رسیت	-2737
نکین	-2738
▁آرا	-2739
▁حُ	-2740
▁تلگ	-2741
▁ترّ	-2742
▁آنکہ	-2743
▁ایمان	-2744
زور	-2745
▁بوہگ	-2746
بلوچستان	-2747
اھا	-2748
▁سوگ	-2749
▁رواج	-2750
کشن	-2751
▁ایند	-2752
▁ربیدگ	-2753
▁اودءَ	-2754
................	-2755
▁ہلاس	-2756
▁سرجمی	-2757
▁بچکند	-2758
▁دزک	-2759
▁چِست	-2760
▁شعری	-2761
▁عزت	-2762
▁بوتنت	-2763
ome	-2764
▁براہ	-2765
▁آگ	-2766
▁امب	-2767
▁نمبر	-2768
ork	-2769
ass	-2770
▁حقی	-2771
▁وھداں	-2772
مار	-2773
▁چٹ	-2774
▁استمانی	-2775
▁بارہ	-2776
حمد	-2777
▁نگد	-2778
ire	-2779
▁گِس	-2780
▁شے	-2781
▁تها	-2782
▁کلاس	-2783
▁گْوشگ	-2784
▁نواب	-2785
▁بُنج	-2786
end	-2787
▁ab	-2788
▁res	-2789
▁نت	-2790
▁ڈال	-2791
▁ھوش	-2792
▁ad	-2793
داب	-2794
▁کلدار	-2795
▁کنئے	-2796
▁لکھ	-2797
▁آرو	-2798
مکن	-2799
▁غیر	-2800
▁شکار	-2801
غان	-2802
▁کول	-2803
پتال	-2804
ستا	-2805
▁وارتگ	-2806
▁us	-2807
▁شُتگ	-2808
گُ	-2809
اھانی	-2810
▁اپنی	-2811
احد	-2812
▁کست	-2813
▁ارمان	-2814
خص	-2815
ry	-2816
▁4	-2817
ـَ	-2818
مُ	-2819
▁ھکانی	-2820
▁کُتگیں	-2821
▁حم	-2822
▁نسل	-2823
باری	-2824
▁جاورانی	-2825
▁سوشل	-2826
▁منظ	-2827
▁نرم	-2828
▁زندمان	-2829
شد	-2830
▁زانتگ	-2831
▁ردوم	-2832
▁بلوچاں	-2833
▁مید	-2834
▁دلءِ	-2835
تءَ	-2836
یءَ	-2837
▁اسپیت	-2838
▁نیاد	-2839
▁پدّر	-2840
▁جاوراں	-2841
اسر	-2842
▁عشق	-2843
▁پرچہ	-2844
▁مزار	-2845
پک	-2846
▁rec	-2847
▁مسلمان	-2848
اط	-2849
اسگ	-2850
▁سج	-2851
▁کرن	-2852
▁زَ	-2853
▁چاری	-2854
▁گوٛشتگ	-2855
▁جب	-2856
▁ڈنّ	-2857
ؤکیں	-2858
▁یکّے	-2859
▁زبانانی	-2860
پم	-2861
ازم	-2862
▁بور	-2863
ھل	-2864
▁ٹو	-2865
age	-2866
▁نظر	-2867
▁ویب	-2868
▁have	-2869
▁موجود	-2870
▁وھدءَ	-2871
▁پژ	-2872
▁نیٹ	-2873
▁He	-2874
▁ھرکس	-2875
▁عقل	-2876
▁سزا	-2877
▁جنز	-2878
▁طرح	-2879
▁پیک	-2880
پدا	-2881
▁شمارا	-2882
▁واجه	-2883
▁زُرت	-2884
▁لیکن	-2885
▁بہرے	-2886
▁باپ	-2887
▁چُشیں	-2888
▁گٹ	-2889
▁شوہاز	-2890
مک	-2891
▁کپگ	-2892
▁نیل	-2893
▁چراگ	-2894
▁کالج	-2895
▁پن	-2896
صد	-2897
ھو	-2898
▁جوڈ	-2899
▁آشوب	-2900
▁زام	-2901
▁سرد	-2902
ینہ	-2903
زدہ	-2904
▁تری	-2905
▁تیز	-2906
▁اوشتات	-2907
ونڈ	-2908
▁زاھدان	-2909
▁بولان	-2910
پل	-2911
▁ro	-2912
▁دربر	-2913
mer	-2914
▁5	-2915
ابل	-2916
▁دوھ	-2917
▁آواران	-2918
ّانی	-2919
ond	-2920
▁one	-2921
▁کُش	-2922
صّہ	-2923
▁گُڈا	-2924
▁دوشی	-2925
▁دیمی	-2926
▁چیزاں	-2927
ناپ	-2928
▁بع	-2929
▁ماڑی	-2930
▁بنشون	-2931
▁شرپ	-2932
▁دستءَ	-2933
low	-2934
▁۔۔	-2935
▁has	-2936
زئی	-2937
▁زہگ	-2938
▁لچّہ	-2939
▁ورنایے	-2940
▁اگں	-2941
▁زندءَ	-2942
▁لاچار	-2943
لوجی	-2944
du	-2945
والکار	-2946
▁Th	-2947
▁نودربرانی	-2948
ڈیو	-2949
▁تمپ	-2950
▁ماما	-2951
▁پھر	-2952
▁گوٛشگ	-2953
▁روش	-2954
▁دیاں	-2955
گرانی	-2956
▁مھکم	-2957
لاح	-2958
ہیں	-2959
ضا	-2960
▁بید	-2961
▁کتہ	-2962
▁موت	-2963
..!	-2964
▁خلا	-2965
▁آپریشن	-2966
▁اث	-2967
ھان	-2968
▁جنگل	-2969
▁مُلک	-2970
▁تلگرام	-2971
▁per	-2972
▁بانگ	-2973
▁مسنگ	-2974
▁جِند	-2975
▁مینگل	-2976
▁طاقت	-2977
▁ساھت	-2978
▁بیگواہی	-2979
▁دُنیا	-2980
▁تہر	-2981
▁اِشک	-2982
َنت	-2983
▁been	-2984
▁ایندگہ	-2985
سّ	-2986
▁فوج	-2987
غر	-2988
ime	-2989
▁بتل	-2990
▁شه	-2991
ence	-2992
▁two	-2993
▁ھواریں	-2994
▁متل	-2995
▁ڈیرہ	-2996
ریل	-2997
ـــ	-2998
▁مص	-2999
جگ	-3000
land	-3001
▁کُجا	-3002
▁گۆ	-3003
▁کامی	-3004
▁بیگواھی	-3005
▁18	-3006
▁انکس	-3007
ستاں	-3008
▁سکیں	-3009
ِن	-3010
مش	-3011
▁اق	-3012
▁رواں	-3013
کُ	-3014
▁بدی	-3015
.@	-3016
ومبر	-3017
▁@.@	-3018
▁شرّیں	-3019
ile	-3020
▁بری	-3021
ult	-3022
▁۔اے	-3023
ڑو	-3024
ہاں	-3025
ھرام	-3026
▁سینگ	-3027
▁کچک	-3028
▁زوریں	-3029
ree	-3030
▁کاپ	-3031
▁نئے	-3032
▁ھان	-3033
ough	-3034
▁زمان	-3035
▁عبداللہ	-3036
▁برج	-3037
▁آبادی	-3038
▁سرگ	-3039
▁آوتی	-3040
▁بالاچ	-3041
▁لئے	-3042
▁تباہ	-3043
▁کاروائی	-3044
وبر	-3045
▁who	-3046
▁آواز	-3047
▁تامر	-3048
▁Al	-3049
وریت	-3050
▁مجید	-3051
▁sc	-3052
یدگی	-3053
uring	-3054
▁بُوگ	-3055
لگ	-3056
ٹھ	-3057
▁کرت۔	-3058
▁پمشکا	-3059
▁پہنات	-3060
▁گلام	-3061
▁جنرل	-3062
ریز	-3063
▁روس	-3064
▁بیر	-3065
اہے	-3066
▁جه	-3067
▁توان	-3068
▁حد	-3069
▁پسّو	-3070
▁صد	-3071
ory	-3072
زّ	-3073
pl	-3074
▁لڑ	-3075
▁پاھو	-3076
کاراں	-3077
ایشی	-3078
▁کبر	-3079
▁ہال	-3080
▁سیت	-3081
▁اگست	-3082
ینگ	-3083
ition	-3084
▁چنڈ	-3085
▁چرا	-3086
ric	-3087
▁مدت	-3088
▁روچی	-3089
▁سالاں	-3090
ازت	-3091
▁تص	-3092
ations	-3093
▁dis	-3094
▁جھانی	-3095
باب	-3096
▁بلکہ	-3097
▁نئی	-3098
▁کُتگ۔	-3099
▁ھیل	-3100
▁بدار	-3101
▁جیڑگ	-3102
▁this	-3103
لوی	-3104
▁bec	-3105
ٹک	-3106
▁ایشیءَ	-3107
سہ	-3108
▁ھرد	-3109
▁منصوبہ	-3110
▁رنگءَ	-3111
▁رِ	-3112
▁app	-3113
iz	-3114
َل	-3115
▁دگه	-3116
▁آتکگ	-3117
▁ترندیں	-3118
▁کُٹ	-3119
▁پریشان	-3120
▁رندے	-3121
▁چوشکہ	-3122
▁گوشاں	-3123
▁باروءَ	-3124
▁حض	-3125
َن	-3126
زیز	-3127
▁It	-3128
حہ	-3129
سمبر	-3130
▁دشمن	-3131
▁ساحرؔ	-3132
▁بلوچستانءِ	-3133
are	-3134
▁وطن	-3135
▁سول	-3136
تئی	-3137
▁میڑ	-3138
طانی	-3139
وھد	-3140
▁پجّار	-3141
ach	-3142
شکیں	-3143
شتگیں	-3144
ِک	-3145
▁کاف	-3146
▁کوئی	-3147
طان	-3148
تری	-3149
▁قیم	-3150
▁ڈک	-3151
▁چوکی	-3152
▁نصیب	-3153
▁پرسنز	-3154
▁حل	-3155
▁چنچو	-3156
lud	-3157
ade	-3158
بیر	-3159
▁پہم	-3160
▁رندا	-3161
▁نزور	-3162
▁مہمد	-3163
بیں	-3164
▁مشکل	-3165
▁شراب	-3166
▁j	-3167
▁play	-3168
▁جول	-3169
▁روڈ	-3170
▁ایڈ	-3171
▁اھتگ	-3172
▁ندر	-3173
▁پنجاہ	-3174
جاه	-3175
▁کسّ	-3176
▁man	-3177
دین	-3178
▁بْ	-3179
وکاں	-3180
ڈگار	-3181
▁ؤ	-3182
▁کمشن	-3183
▁نشانی	-3184
▁امام	-3185
▁ساھگ	-3186
▁کمیں	-3187
act	-3188
!!	-3189
ely	-3190
رال	-3191
▁ردی	-3192
▁فری	-3193
▁ول	-3194
▁ہرچی	-3195
▁باگ	-3196
▁مُچ	-3197
▁part	-3198
▁گوناپ	-3199
▁ونت	-3200
▁پائ	-3201
▁کشت	-3202
▁des	-3203
▁کارمنداں	-3204
وبی	-3205
▁ag	-3206
▁they	-3207
▁زیبائی	-3208
▁year	-3209
▁راھبند	-3210
اتا	-3211
▁پانگ	-3212
شہ	-3213
▁نزوری	-3214
▁گول	-3215
▁منند	-3216
▁معاشی	-3217
▁۔آ	-3218
▁انج	-3219
ount	-3220
▁201	-3221
▁پسند	-3222
کسی	-3223
▁بشیر	-3224
▁نع	-3225
▁رحیم	-3226
امیہ	-3227
دومی	-3228
▁ھمود	-3229
▁نیمگے	-3230
▁آوانی	-3231
ورک	-3232
▁ساتھ	-3233
▁بیل	-3234
▁دوھزار	-3235
نسی	-3236
▁خط	-3237
▁سربو	-3238
▁قصّہ	-3239
▁سامان	-3240
▁هچ	-3241
▁اَتک	-3242
▁کتابانی	-3243
▁خبر	-3244
▁پاداں	-3245
▁سندھی	-3246
▁چرے	-3247
▁مجلس	-3248
زن	-3249
ئن	-3250
▁تخ	-3251
▁أنت	-3252
ہن	-3253
▁کارند	-3254
▁over	-3255
▁نومبر	-3256
▁سنگتانی	-3257
▁پیچ	-3258
▁ھلک	-3259
گال	-3260
▁شکل	-3261
▁مین	-3262
▁ساج	-3263
راز	-3264
▁انی	-3265
▁چیءَ	-3266
الب	-3267
▁دروگ	-3268
▁پروف	-3269
▁میرا	-3270
▁نبیسگ	-3271
روز	-3272
▁نال	-3273
اتاں	-3274
▁other	-3275
انکے	-3276
▁پُتر	-3277
▁ھُدا	-3278
▁افغان	-3279
▁دزبندی	-3280
▁اشاں	-3281
ound	-3282
▁بُرت	-3283
▁دما	-3284
▁نندگ	-3285
▁گرو	-3286
▁فرانس	-3287
راک	-3288
اہاں	-3289
▁بشک	-3290
▁کمپنی	-3291
▁جھل	-3292
▁موک	-3293
شپ	-3294
سان	-3295
▁تج	-3296
▁ضر	-3297
▁شریف	-3298
▁راه	-3299
▁مذہب	-3300
آں	-3301
▁ایمنی	-3302
▁مگر	-3303
▁اخلا	-3304
ژنائی	-3305
▁واہگ	-3306
▁کمشنر	-3307
عل	-3308
▁ں	-3309
▁پوہ	-3310
▁گیدی	-3311
▁بئیت	-3312
کری	-3313
▁after	-3314
▁پمیشکہ	-3315
▁کتابے	-3316
▁أچ	-3317
▁لبزانی	-3318
یءِ	-3319
▁چیدگ	-3320
▁حاصل	-3321
▁نشہ	-3322
ئگا	-3323
▁ھنچش	-3324
ائینت	-3325
راه	-3326
ّان	-3327
▁انتظ	-3328
▁گپانی	-3329
▁ٹھ	-3330
▁قلات	-3331
ib	-3332
▁چگل	-3333
▁اِشی	-3334
▁آخر	-3335
▁سن	-3336
over	-3337
▁ھاشمی	-3338
ئُُ	-3339
▁ستک	-3340
▁قدیر	-3341
▁سکین	-3342
▁مسیت	-3343
▁تیوگیں	-3344
▁ser	-3345
مراد	-3346
▁انص	-3347
▁یاکہ	-3348
▁صدر	-3349
▁گالبند	-3350
▁کمو	-3351
گرنچ	-3352
▁نوشکی	-3353
اِنت	-3354
▁سنج	-3355
▁حی	-3356
نگءَ	-3357
▁انٹر	-3358
▁شئی	-3359
▁فرنٹ	-3360
▁احت	-3361
▁رژن	-3362
▁دسمبر	-3363
▁مچی	-3364
▁ترانگ	-3365
▁رندءَ	-3366
▁ٹکر	-3367
▁زبانا	-3368
▁علاقہ	-3369
▁تہاری	-3370
▁صدی	-3371
▁میڈیا	-3372
شیت	-3373
وکانی	-3374
▁کرونا	-3375
▁ہوش	-3376
مّ	-3377
امت	-3378
▁مناں	-3379
▁کارءَ	-3380
▁en	-3381
ارءَ	-3382
▁ہشت	-3383
رءِ	-3384
▁آت	-3385
▁ذمہ	-3386
▁کوپ	-3387
▁بنگیج	-3388
▁off	-3389
▁سْی	-3390
▁کسم	-3391
▁سہب	-3392
▁بادش	-3393
سلام	-3394
▁درانگ	-3395
▁موس	-3396
▁ہرکس	-3397
▁ممکن	-3398
▁ربیت	-3399
رج	-3400
▁im	-3401
مبلی	-3402
▁ورد	-3403
نگءِ	-3404
▁یورپ	-3405
▁ھی	-3406
▁دستی	-3407
▁مُلا	-3408
▁دزگیری	-3409
▁تِ	-3410
▁جنوری	-3411
▁زبانے	-3412
▁لڈ	-3413
▁سرب	-3414
ction	-3415
ke	-3416
▁گیری	-3417
بزاں	-3418
▁گوم	-3419
▁یوس	-3420
▁کوھنیں	-3421
▁واقعہ	-3422
▁شن	-3423
▁پْر	-3424
▁ہوں	-3425
▁سرڈگار	-3426
▁کنوکاں	-3427
▁اِدا	-3428
▁درسیں	-3429
ite	-3430
▁ڈپ	-3431
▁جمبر	-3432
,@	-3433
▁@,@	-3434
▁برکت	-3435
▁دامن	-3436
▁اکت	-3437
▁ھراب	-3438
▁ساع	-3439
▁مُل	-3440
▁امیر	-3441
▁آزمانکانی	-3442
▁ورنائیں	-3443
▁لیویز	-3444
▁گراں	-3445
te	-3446
▁مزنین	-3447
▁رکھ	-3448
ھب	-3449
urn	-3450
▁چمّاں	-3451
▁پسنی	-3452
▁دلجم	-3453
▁زُرتگ	-3454
▁نیت	-3455
▁کنٹرول	-3456
اھگ	-3457
▁پِس	-3458
▁وہدءَ	-3459
▁مارگ	-3460
▁خیر	-3461
▁دْروشم	-3462
▁اِیت۔	-3463
غیں	-3464
▁بہت	-3465
▁پُلّ	-3466
وچ	-3467
ینیت	-3468
▁ہپت	-3469
▁includ	-3470
ائے	-3471
▁ہوئے	-3472
▁فوجی	-3473
▁بلو	-3474
کاریں	-3475
اسم	-3476
▁درائی	-3477
▁رئی	-3478
بّ	-3479
▁زاہ	-3480
نگور	-3481
▁ساپ	-3482
▁دیمپان	-3483
کارے	-3484
▁ماتی	-3485
دائی	-3486
▁شرتر	-3487
▁گوز	-3488
ناک	-3489
َه	-3490
▁چُش	-3491
وق	-3492
▁گوستگ	-3493
ress	-3494
▁قبر	-3495
ئِے	-3496
فرنس	-3497
بلئے	-3498
فظ	-3499
ance	-3500
▁کنائینگ	-3501
▁زرمبشت	-3502
▁زرّ	-3503
▁نودربراں	-3504
ہانی	-3505
▁رسم	-3506
ang	-3507
▁اوگانستان	-3508
▁جُہد	-3509
▁وڑءَ	-3510
دیں	-3511
▁att	-3512
ائز	-3513
انت۔	-3514
▁آدگہ	-3515
▁نظری	-3516
▁لشکری	-3517
پّ	-3518
ice	-3519
▁ہوا	-3520
▁٭٭٭	-3521
ace	-3522
▁گناہ	-3523
▁جْ	-3524
شاد	-3525
ark	-3526
▁هست	-3527
▁کارکن	-3528
سین	-3529
▁ایچ	-3530
▁بیرانی	-3531
▁out	-3532
wn	-3533
▁اوست	-3534
▁مستر	-3535
▁ھرچی	-3536
▁عمران	-3537
▁اسل	-3538
▁کپتگیں	-3539
▁اوشتوک	-3540
▁چند	-3541
▁ٹیم	-3542
▁یوک	-3543
▁پمشکہ	-3544
▁اجازت	-3545
▁دِل	-3546
▁شخص	-3547
▁یکشل	-3548
▁براس	-3549
▁دیک	-3550
ph	-3551
▁داریں	-3552
اء	-3553
ہور	-3554
▁تگ	-3555
▁ماہتاک	-3556
▁پرائی	-3557
▁شرّ	-3558
▁زہیر	-3559
▁پیمءَ	-3560
▁کناں۔	-3561
▁تعلق	-3562
▁روچءَ	-3563
▁اکتوبر	-3564
▁گچکی	-3565
▁درگیج	-3566
▁سھب	-3567
▁دیمپانی	-3568
▁أولی	-3569
▁وھ	-3570
رزی	-3571
▁آورتگ	-3572
▁لوگءَ	-3573
▁شکر	-3574
▁شموش	-3575
▁اگن	-3576
▁سانگ	-3577
▁مومن	-3578
▁جرم	-3579
شتانک	-3580
▁کرنا	-3581
▁کرنے	-3582
ہبی	-3583
ember	-3584
▁('	-3585
▁لگّ	-3586
▁چکاس	-3587
▁تئو	-3588
▁آه	-3589
▁ھاسیں	-3590
▁بنجاہی	-3591
▁شود	-3592
▁کارمرد	-3593
جھتی	-3594
▁ہائی	-3595
وے	-3596
▁آچ	-3597
▁یو	-3598
▁کوٹ	-3599
▁روچانی	-3600
ڈن	-3601
روان	-3602
ژدری	-3603
▁بلۆچ	-3604
▁اسمبلی	-3605
▁چد	-3606
▁والا	-3607
▁پژدر	-3608
▁فق	-3609
▁تپاک	-3610
ژنا	-3611
اجتائیں	-3612
سرا	-3613
▁pre	-3614
ضل	-3615
▁زبانءِ	-3616
غا	-3617
غ۔	-3618
▁شیش	-3619
ائم	-3620
ادت	-3621
▁up	-3622
▁ہونا	-3623
▁ادارھانی	-3624
▁ھد	-3625
▁توکا	-3626
▁رہشون	-3627
▁کج	-3628
ُت	-3629
▁باج	-3630
▁ڈولیں	-3631
▁برت	-3632
▁جاه	-3633
▁لیگ	-3634
▁بُنکی	-3635
▁دشتیاری	-3636
▁ماه	-3637
▁مردمان	-3638
▁یکجھتی	-3639
▁کما	-3640
ئید	-3641
▁مزاح	-3642
ابر	-3643
▁سروکی	-3644
▁تس	-3645
▁ماسٹر	-3646
ens	-3647
▁سوت	-3648
▁موب	-3649
زانت	-3650
▁بعد	-3651
man	-3652
▁بنداں	-3653
▁زوراکیانی	-3654
▁گوشیت	-3655
▁عبدالح	-3656
▁ٹہ	-3657
▁مگ	-3658
ریس	-3659
ولت	-3660
▁ev	-3661
▁بَر	-3662
▁بھا	-3663
▁time	-3664
▁بُرتگ	-3665
▁اُرشانی	-3666
شے	-3667
ورٹی	-3668
▁دوز	-3669
▁وفا	-3670
▁زئی	-3671
وکہ	-3672
▁fin	-3673
▁شَر	-3674
nder	-3675
▁اوش	-3676
▁کلاک	-3677
جاہ۔	-3678
rough	-3679
▁سیاد	-3680
ced	-3681
▁خود	-3682
▁امی	-3683
▁کننت۔	-3684
حاق	-3685
▁ازمی	-3686
ــــــــ	-3687
▁متلب	-3688
▁ھنکین	-3689
▁پانزدہ	-3690
▁into	-3691
▁بروت	-3692
▁حضرت	-3693
▁مردین	-3694
▁حاجی	-3695
▁نامءَ	-3696
▁دؤر	-3697
▁گیپت	-3698
▁جنیں	-3699
▁زھیر	-3700
▁بوج	-3701
▁طور	-3702
one	-3703
▁براں	-3704
▁نشتگیں	-3705
ِنت	-3706
▁ریس	-3707
▁مالیات	-3708
port	-3709
آئیءَ	-3710
▁معلوم	-3711
round	-3712
▁کوچ	-3713
▁گشئے	-3714
ظیم	-3715
▁چمش	-3716
ئرمین	-3717
▁واحد	-3718
we	-3719
▁ہار	-3720
▁تواری	-3721
▁صبا	-3722
▁کلم	-3723
▁وائی	-3724
▁حقیقت	-3725
▁زیارت	-3726
▁تہار	-3727
▁إنگور	-3728
▁ویبجاہ۔	-3729
الے	-3730
▁پسہ	-3731
▁بلکن	-3732
▁شرّی	-3733
▁چیاکہ	-3734
▁رگ	-3735
▁چڑ	-3736
▁نوشتہ	-3737
▁جتاجتائیں	-3738
▁چاراں	-3739
▁جولائی	-3740
▁ریچ	-3741
▁جما	-3742
ّینگ	-3743
▁عام	-3744
▁شُما	-3745
▁روایت	-3746
ائش	-3747
▁6	-3748
▁ءَ۔	-3749
▁ہوٹل	-3750
ونے	-3751
ren	-3752
▁تئ	-3753
▁درگ	-3754
▁ڈس	-3755
▁سگری	-3756
زند	-3757
▁دُرٛ	-3758
▁ورناہ	-3759
les	-3760
▁الی	-3761
▁نگی	-3762
▁قبیلہ	-3763
▁چوناھا	-3764
▁گالوار	-3765
ُن	-3766
پا	-3767
▁برجاھیں	-3768
▁On	-3769
ئے۔	-3770
تم	-3771
▁جذ	-3772
▁کیت۔	-3773
▁گدان	-3774
▁ایوکءَ	-3775
▁لرز	-3776
▁کارگس	-3777
int	-3778
▁شمے	-3779
▁راجے	-3780
▁درآمد	-3781
ثہ	-3782
▁آسمان	-3783
▁راجانی	-3784
▁مرچاں	-3785
vel	-3786
محمد	-3787
▁comm	-3788
▁تہء	-3789
▁اُردو	-3790
▁ماھتاک	-3791
▁اِن	-3792
▁یوسف	-3793
دھ	-3794
▁صنعت	-3795
▁هَ	-3796
▁دوئی	-3797
▁وف	-3798
ّل	-3799
نگے	-3800
ason	-3801
▁she	-3802
ورے	-3803
▁محکم	-3804
ائن	-3805
ُو	-3806
▁کنوکانی	-3807
▁گوَ	-3808
▁گَل	-3809
amp	-3810
▁ریل	-3811
▁کْو	-3812
▁ناب	-3813
▁کازی	-3814
▁کرار	-3815
▁کلیں	-3816
▁اُستاد	-3817
▁te	-3818
▁دروت	-3819
▁پاب	-3820
▁ھمد	-3821
▁زندے	-3822
▁گنداں	-3823
▁درّ	-3824
▁بڑ	-3825
▁بَلے	-3826
▁would	-3827
ward	-3828
▁عاب	-3829
▁more	-3830
▁شاعرے	-3831
▁ستمبر	-3832
▁رکی	-3833
▁ھار	-3834
وٹر	-3835
▁داروکیں	-3836
▁اینچو	-3837
ظم	-3838
▁مکس	-3839
▁چُشکہ	-3840
پس	-3841
▁چنکس	-3842
▁میز	-3843
▁چہر	-3844
ied	-3845
ose	-3846
▁پِت	-3847
▁۔۔۔۔	-3848
▁دروش	-3849
▁فروری	-3850
ڑہ	-3851
▁پئی	-3852
▁سوال	-3853
▁کوکار	-3854
▁شا	-3855
▁چیل	-3856
مود	-3857
▁وہدیکہ	-3858
rib	-3859
▁Un	-3860
▁نھ	-3861
▁کاہ	-3862
▁ترند	-3863
▁دروگیں	-3864
!‘‘	-3865
جنگ	-3866
ٹن	-3867
▁عج	-3868
▁all	-3869
▁سائنسی	-3870
▁مانی	-3871
▁پنت	-3872
▁قی	-3873
▁نُھ	-3874
سائ	-3875
ings	-3876
▁دیت	-3877
یری	-3878
▁مرز	-3879
▁لِ	-3880
▁گُمان	-3881
tern	-3882
ُش	-3883
able	-3884
▁زلم	-3885
ces	-3886
واڈ	-3887
▁گرا	-3888
▁چُکّ	-3889
▁سرھال	-3890
▁ایراد	-3891
▁بله	-3892
کشی	-3893
▁بدیں	-3894
▁لوٹوکیں	-3895
▁انا	-3896
▁دُژمن	-3897
▁بئی	-3898
▁ردانک	-3899
▁نزّیک	-3900
▁چت	-3901
▁قرآن	-3902
▁سکی	-3903
▁گیوار	-3904
لبز	-3905
ینڈ	-3906
▁عالم	-3907
▁گِندگ	-3908
▁we	-3909
ited	-3910
▁ہرچ	-3911
▁بوتہ	-3912
▁نفسی	-3913
▁زانتی	-3914
▁نادر	-3915
ever	-3916
▁پوشاک	-3917
▁تھے	-3918
نالوجی	-3919
▁تْ	-3920
پمیش	-3921
▁چول	-3922
▁ناشر	-3923
▁ابد	-3924
▁حون	-3925
▁وکیل	-3926
▁عق	-3927
ents	-3928
▁امید	-3929
▁ڈیم	-3930
▁کِسّہ	-3931
نگر	-3932
▁آدینک	-3933
▁اپریل	-3934
▁شہد	-3935
▁اسلم	-3936
▁کمبر	-3937
▁منّوک	-3938
▁اگہ	-3939
▁زندان	-3940
ردیں	-3941
▁روح	-3942
▁دستگ	-3943
▁him	-3944
۔۔۔۔۔۔۔۔۔۔۔۔۔۔۔۔	-3945
▁تور	-3946
▁دیو	-3947
ased	-3948
▁راجمان	-3949
▁7	-3950
ابت	-3951
غاں	-3952
ڑک	-3953
ors	-3954
▁دعا	-3955
▁گرانیں	-3956
▁دمانے	-3957
واب	-3958
▁گُد	-3959
▁بلاھیں	-3960
▁مرچیگیں	-3961
بلی	-3962
▁چادر	-3963
▁عو	-3964
▁ءَُ	-3965
▁ھام	-3966
▁اُس	-3967
.....	-3968
▁انساپ	-3969
▁ہاترا	-3970
oy	-3971
▁یکبرے	-3972
▁بھتام	-3973
▁پشک	-3974
▁انصاف	-3975
طہ	-3976
ood	-3977
▁افس	-3978
▁براھ	-3979
▁دوستیں	-3980
▁دام	-3981
▁خاصیں	-3982
▁گُڈّی	-3983
▁استع	-3984
▁دائم	-3985
▁گچینی	-3986
▁نقص	-3987
▁چکّ	-3988
لوں	-3989
▁کِشک	-3990
▁پاگ	-3991
▁اَنچو	-3992
▁تاکبند	-3993
بس	-3994
▁cent	-3995
الدینی	-3996
▁رَند	-3997
▁ھمرا	-3998
ہا	-3999
▁جَن	-4000
▁پہک	-4001
هر	-4002
▁موہ	-4003
▁سالے	-4004
▁تعلیم	-4005
▁حوال	-4006
▁میک	-4007
پرچ	-4008
▁ناہ	-4009
▁دانک	-4010
▁بیگا	-4011
طی	-4012
ئند	-4013
ase	-4014
▁لب	-4015
▁کَن	-4016
ix	-4017
▁دیگر	-4018
▁شعرانی	-4019
ild	-4020
▁تھا۔	-4021
▁بُوتگ	-4022
ائر	-4023
▁An	-4024
▁سپت	-4025
▁مدامی	-4026
ایش	-4027
▁پرد	-4028
غی	-4029
سانی	-4030
ائد	-4031
▁باہ	-4032
▁کلوہ	-4033
▁تاریخی	-4034
بک	-4035
الاں	-4036
▁ھاترءَ	-4037
▁پادانی	-4038
انگی	-4039
▁مسلم	-4040
▁سمی	-4041
▁قدیم	-4042
▁قول	-4043
وند	-4044
▁تحریک	-4045
▁پنجاب	-4046
▁کُل	-4047
▁حیران	-4048
▁work	-4049
▁مرید	-4050
لیل	-4051
پتگیں	-4052
ates	-4053
ورانی	-4054
▁ناسر	-4055
▁نیوز	-4056
▁پارسی	-4057
▁اندرءَ	-4058
▁جمالدینی	-4059
نل	-4060
▁یَ	-4061
ious	-4062
▁گُشیت	-4063
▁اں	-4064
▁پولی	-4065
▁کنیں۔	-4066
▁آزادی	-4067
▁دوازدہ	-4068
نگا	-4069
▁مرا	-4070
▁گْوات	-4071
ہان	-4072
▁جِ	-4073
▁ہبر	-4074
▁نزانت	-4075
▁چیئرمین	-4076
▁زالبولانی	-4077
▁گیا	-4078
▁پالیسیانی	-4079
وث	-4080
▁ولی	-4081
▁بت	-4082
▁چونائی	-4083
▁لنک	-4084
▁پروفیسر	-4085
نیم	-4086
▁اسٹی	-4087
ath	-4088
▁گپّے	-4089
▁نکش	-4090
رائیل	-4091
▁بستگیں	-4092
اشت	-4093
▁ھنچیں	-4094
▁مئیں	-4095
▁po	-4096
▁ساچشتی	-4097
▁ناماں	-4098
ِش	-4099
▁اھوالکار	-4100
rop	-4101
▁ئا	-4102
▁ھمائی	-4103
old	-4104
مات	-4105
▁کمیشن	-4106
▁]	-4107
als	-4108
▁ایج	-4109
وگر	-4110
▁کیل	-4111
ٹاں	-4112
▁مب	-4113
▁گہار	-4114
▁ہس	-4115
▁حرکت	-4116
▁پنام	-4117
▁پیریں	-4118
▁کلی	-4119
بیگو	-4120
▁قسم	-4121
▁ترٛ	-4122
▁آروس	-4123
▁دانگ	-4124
▁مود	-4125
▁پرے	-4126
▁وانگی	-4127
▁اسکواڈ	-4128
▁کسمانک	-4129
ریب	-4130
▁رسگ	-4131
ارک	-4132
▁جاہے	-4133
فع	-4134
▁گشنت	-4135
▁کاریت	-4136
▁","	-4137
▁الس	-4138
▁سائی	-4139
▁میڈ	-4140
▁بندش	-4141
▁ھپتگ	-4142
▁سنگر	-4143
ھما	-4144
▁قوت	-4145
▁شیخ	-4146
غیر	-4147
▁شرو	-4148
▁ھاس	-4149
▁امن	-4150
▁یازدہ	-4151
▁اُستمانی	-4152
آئیءِ	-4153
▁مرزی	-4154
iss	-4155
▁پُرس	-4156
▁گوزگ	-4157
▁مہناز	-4158
▁سرکماش	-4159
ّن	-4160
▁لیے	-4161
▁گواز	-4162
ّک	-4163
اچن	-4164
دینگ	-4165
ّءَ	-4166
▁ھواری	-4167
ey	-4168
▁کندگ	-4169
▁دزکپتگ	-4170
ٹانی	-4171
▁فائدہ	-4172
▁شمار	-4173
▁سنگتے	-4174
پاک	-4175
▁انتز	-4176
ؤں	-4177
▁کرتے	-4178
","","","","	-4179
▁ھردو	-4180
▁سس	-4181
▁شرف	-4182
▁دیدگ	-4183
ict	-4184
▁شھدگ	-4185
▁جاہاں	-4186
▁کوشست	-4187
▁جنکے	-4188
▁وشبو	-4189
▁نئیت	-4190
▁کمیون	-4191
ماہ	-4192
▁گوئشت	-4193
▁دودمان	-4194
▁جتائی	-4195
▁آورت	-4196
▁گِپت	-4197
▁ارب	-4198
▁ترک	-4199
▁بینک	-4200
▁اوپار	-4201
روچی	-4202
ّه	-4203
▁سمجھ	-4204
▁استیں	-4205
▁نیٹورک	-4206
▁fe	-4207
▁پلی	-4208
▁اِد	-4209
▁انتءُ	-4210
▁جیئند	-4211
▁توامیں	-4212
▁باھ	-4213
▁میری	-4214
▁برد	-4215
▁قصہ	-4216
▁مسک	-4217
▁them	-4218
▁دلیل	-4219
▁گندیت	-4220
▁نویسگ	-4221
▁کچھ	-4222
▁پروگ	-4223
▁کُشت	-4224
▁ہکانی	-4225
یریں	-4226
▁وام	-4227
ناکیں	-4228
▁ستا	-4229
▁آؤرتگ	-4230
▁صف	-4231
gan	-4232
▁sec	-4233
پاں	-4234
▁کونسل	-4235
قا	-4236
▁پمن	-4237
نوکیں	-4238
▁عزیز	-4239
▁پیشی	-4240
▁پاکیں	-4241
▁افغانستان	-4242
▁تِر	-4243
یز	-4244
وہد	-4245
▁مون	-4246
▁bet	-4247
▁قل	-4248
▁پراہ	-4249
▁دیوانے	-4250
▁when	-4251
▁song	-4252
▁رش	-4253
▁سودا	-4254
▁rem	-4255
▁شار	-4256
اند	-4257
▁برزی	-4258
▁ساجد	-4259
▁اسلامی	-4260
▁قلم	-4261
ینچو	-4262
▁الیک	-4263
▁ڈپٹی	-4264
▁پرواز	-4265
ep	-4266
▁بدئے	-4267
▁ناصر	-4268
ِیت	-4269
▁الک	-4270
▁توسی	-4271
تکگیں	-4272
▁برابر	-4273
▁چینی	-4274
مگ	-4275
مری	-4276
▁آج	-4277
form	-4278
▁ڈرائی	-4279
ail	-4280
▁نزیکی	-4281
fer	-4282
پتری	-4283
▁بہار	-4284
▁طب	-4285
▁کمالان	-4286
ہند	-4287
▁پوست	-4288
▁لبزانت	-4289
▁کُلّ	-4290
▁ear	-4291
▁ایرد	-4292
▁رسانکدراں	-4293
اوت	-4294
لور	-4295
▁بنیادم	-4296
جہتی	-4297
▁مطلب	-4298
▁زیادہ	-4299
▁عیسی	-4300
▁وانگجاہ	-4301
ubl	-4302
مدی	-4303
▁بلیدہ	-4304
مردم	-4305
▁نزاناں	-4306
لواہ	-4307
▁گیج	-4308
aw	-4309
▁پاز	-4310
▁انوں	-4311
یمی	-4312
▁گراب	-4313
ئور	-4314
▁جتگ۔	-4315
ھت	-4316
شونی	-4317
▁دلب	-4318
▁برجا	-4319
▁ہُ	-4320
▁دَور	-4321
▁لانچ	-4322
▁گُڈی	-4323
راھجاہ	-4324
▁اکر	-4325
▁ڈیک	-4326
▁نامدار	-4327
▁پیسرا	-4328
▁لوٹیت۔	-4329
زر	-4330
▁آنہی	-4331
▁kn	-4332
▁درشانداب	-4333
▁تق	-4334
▁مذہبی	-4335
▁لوگانی	-4336
▁یکجہتی	-4337
َا	-4338
ستہ	-4339
▁وشّ	-4340
الانی	-4341
▁شرگدار	-4342
▁درمل	-4343
ake	-4344
▁مُرگ	-4345
▁گلزمین	-4346
▁إنت	-4347
▁چیک	-4348
▁محبت	-4349
aus	-4350
ئگی	-4351
▁غزل	-4352
▁اِزم	-4353
▁دانش	-4354
▁ہاشمی	-4355
▁ماح	-4356
▁سُہر	-4357
▁شئے	-4358
▁دپءَ	-4359
پیں	-4360
تیار	-4361
▁نقصان	-4362
▁وتن	-4363
▁8	-4364
▁آیا	-4365
▁دُز	-4366
زمانک	-4367
▁کیف	-4368
▁most	-4369
▁اسرائیل	-4370
تھ	-4371
▁9	-4372
▁بلوچے	-4373
▁ھمس	-4374
▁cons	-4375
▁چاردہ	-4376
▁As	-4377
▁نزان	-4378
▁کَس	-4379
▁دلجمی	-4380
▁صاف	-4381
▁گلانی	-4382
▁during	-4383
▁new	-4384
وشت	-4385
▁ٹیکنالوجی	-4386
ضہ	-4387
▁کانود	-4388
▁آیوکیں	-4389
▁ھا	-4390
▁ضل	-4391
▁متا	-4392
▁گپءَ	-4393
▁گوانک	-4394
وءِ	-4395
orth	-4396
▁ترکی	-4397
یرانیں	-4398
ered	-4399
▁وقت	-4400
▁اتءُ	-4401
▁پکار	-4402
▁نزینک	-4403
نداں	-4404
▁بئیں	-4405
▁دف	-4406
▁دوا	-4407
ثی	-4408
ilm	-4409
▁دریگ	-4410
▁علاج	-4411
▁درکپت	-4412
ved	-4413
▁شاز	-4414
▁دنز	-4415
▁ڈیہہ	-4416
ڈل	-4417
دگہ	-4418
▁دیمر	-4419
▁دینت	-4420
▁لۆ	-4421
▁مض	-4422
▁سوز	-4423
ینا	-4424
▁زِند	-4425
▁صوبہ	-4426
ادری	-4427
ّں	-4428
att	-4429
▁ننگ	-4430
▁دستا	-4431
▁ندکار	-4432
▁وهد	-4433
▁only	-4434
راھیں	-4435
▁کینگ	-4436
▁پارلیم	-4437
▁dec	-4438
▁پونز	-4439
ساس	-4440
▁دستیگ	-4441
▁دگنیا	-4442
▁انتزامیہ	-4443
▁پیسری	-4444
صف	-4445
▁عاش	-4446
▁ترجم	-4447
▁مانگ	-4448
مس	-4449
ick	-4450
وکے	-4451
یتھ	-4452
▁آئیا	-4453
▁کورٹ	-4454
▁سوبین	-4455
لُ	-4456
کرت	-4457
▁دوبر	-4458
▁گْوازی	-4459
▁سربوتگیں	-4460
آپ	-4461
▁سف	-4462
ات۔	-4463
▁game	-4464
▁موبائل	-4465
چین	-4466
نگو	-4467
ڈو	-4468
▁شست	-4469
▁کسّے	-4470
▁کُجام	-4471
▁اتکگیں	-4472
ons	-4473
▁اسما	-4474
▁تخلی	-4475
۔۔۔۔۔۔	-4476
ug	-4477
▁عیس	-4478
▁گوازینگ	-4479
▁سارتیں	-4480
عر	-4481
نان	-4482
▁منّگ	-4483
▁کْوھ	-4484
▁tr	-4485
رائیں	-4486
▁قانون	-4487
▁مقصد	-4488
▁نامہ	-4489
ft	-4490
▁بگل	-4491
▁تھر	-4492
▁گاڑیانی	-4493
▁رحم	-4494
▁زانشت	-4495
▁زیان	-4496
▁قِ	-4497
▁رسی	-4498
▁دێ	-4499
▁کشار	-4500
▁سالانی	-4501
کٹ	-4502
▁انور	-4503
▁نامے	-4504
▁مُرتگ	-4505
کءَ	-4506
▁اُت	-4507
▁تاھ	-4508
▁مارکی	-4509
اشاد	-4510
▁آؤرت	-4511
▁گوشدار	-4512
▁دزگ	-4513
▁نیں	-4514
▁گیگ	-4515
▁تچکیں	-4516
ook	-4517
▁کب	-4518
▁نمیران	-4519
دود	-4520
▁سبزیں	-4521
▁دوچ	-4522
▁رؤگ	-4523
▁سسٹ	-4524
مائی	-4525
▁فرق	-4526
▁سارت	-4527
▁ابرم	-4528
▁سگریٹ	-4529
نتگ۔	-4530
تح	-4531
▁نیا	-4532
oth	-4533
▁کلام	-4534
▁کتاباں	-4535
اُ	-4536
ریف	-4537
▁Mar	-4538
▁قرار	-4539
یتک	-4540
▁مساپ	-4541
▁ھوٹ	-4542
▁تکان	-4543
▁ہوتا	-4544
▁زباناں	-4545
reat	-4546
...؟	-4547
▁بکنت۔	-4548
رابی	-4549
▁راھے	-4550
▁اومان	-4551
▁داریت۔	-4552
جد	-4553
way	-4554
▁آھگ	-4555
▁صفت	-4556
رنگ	-4557
▁ہیر	-4558
▁can	-4559
▁لنٹ	-4560
)،	-4561
ِشت	-4562
▁یکج	-4563
ollow	-4564
▁گوما	-4565
▁زندگیں	-4566
▁جیل	-4567
▁ضرورت	-4568
▁لمب	-4569
▁وانینگ	-4570
outh	-4571
ween	-4572
▁صوب	-4573
▁بازی	-4574
▁سیاھیں	-4575
▁En	-4576
▁دماغ	-4577
▁شبین	-4578
ters	-4579
▁199	-4580
▁زات	-4581
الق	-4582
▁آم	-4583
▁ڪہ	-4584
▁rel	-4585
▁خاندان	-4586
ْوش	-4587
وانیں	-4588
▁ھانی	-4589
چون	-4590
▁کپوت	-4591
ind	-4592
▁ڈنی	-4593
▁زیرگ	-4594
▁سُہب	-4595
▁اہوالکار	-4596
▁مُراد	-4597
▁شوک	-4598
▁گْوستگیں	-4599
اکٹ	-4600
بَ	-4601
ریڈ	-4602
نامہ	-4603
▁کامیاب	-4604
انء	-4605
▁اَست	-4606
▁چیرد	-4607
▁گْوشان	-4608
▁علیہ	-4609
▁اھد	-4610
▁امریکی	-4611
▁سه	-4612
▁بئیگ	-4613
▁سرگو	-4614
▁فضل	-4615
▁علمی	-4616
اللہ	-4617
▁کیمپ	-4618
▁۔آئی	-4619
وسی	-4620
▁تجربت	-4621
▁رز	-4622
▁سمب	-4623
ندن	-4624
گران	-4625
▁تمام	-4626
▁گوھرام	-4627
رائ	-4628
▁وح	-4629
▁رَد	-4630
▁وسی	-4631
▁بران	-4632
▁پانگس	-4633
▁چارمی	-4634
▁about	-4635
وراں	-4636
ڈاکٹر	-4637
خی	-4638
▁مف	-4639
▁دْرو	-4640
▁لئی	-4641
▁ادارہانی	-4642
▁بگوش	-4643
▁دْرچک	-4644
............	-4645
▁جناں	-4646
▁إے	-4647
▁عن	-4648
▁ظلم	-4649
▁ارواح	-4650
بید	-4651
گراں	-4652
▁نظم	-4653
▁اندیم	-4654
▁یاں	-4655
▁فکشن	-4656
▁تش	-4657
▁season	-4658
ُکّ	-4659
نجو	-4660
▁داراں	-4661
▁پلگار	-4662
▁تان	-4663
ینانی	-4664
▁again	-4665
▁گْوست	-4666
▁فل	-4667
▁ھچبر	-4668
ral	-4669
▁رضا	-4670
▁موسی	-4671
▁سرمچارانی	-4672
▁عیب	-4673
حت	-4674
▁ذاتی	-4675
▁نیکراھی	-4676
▁''	-4677
▁three	-4678
▁زیت	-4679
▁تنک	-4680
▁داخ	-4681
▁شھری	-4682
▁گیاب	-4683
▁بوھیر	-4684
▁ہندوستان	-4685
▁حب	-4686
ational	-4687
▁under	-4688
▁زیبا	-4689
▁me	-4690
ular	-4691
نڈیں	-4692
▁ھمدا	-4693
▁حاترا	-4694
▁Com	-4695
▁تجربہ	-4696
▁پان	-4697
▁جمع	-4698
▁than	-4699
▁انگتہ	-4700
▁ھندوستان	-4701
▁ترندی	-4702
سٹر	-4703
▁ٹاہ	-4704
جاھاں	-4705
▁گُر	-4706
▁پَد	-4707
▁ورنائی	-4708
▁هال	-4709
!......	-4710
▁مَرگ	-4711
کنت	-4712
وج	-4713
تءِ	-4714
سرے	-4715
▁نون	-4716
▁ایوب	-4717
▁سعید	-4718
▁')	-4719
▁نائ	-4720
▁پدی	-4721
▁ادمین	-4722
▁پاٹی	-4723
▁سلمان	-4724
▁ورنایانی	-4725
▁ظاہر	-4726
▁Ar	-4727
داشتگ	-4728
▁سوبم	-4729
حک	-4730
▁درپ	-4731
▁چاچ	-4732
▁ظفر	-4733
▁ثابت	-4734
▁شہری	-4735
▁شرتریں	-4736
▁فون	-4737
وع	-4738
▁نوبت	-4739
ob	-4740
▁قاسم	-4741
hip	-4742
▁شپے	-4743
▁وهدے	-4744
▁آوان	-4745
▁زوال	-4746
hn	-4747
▁ne	-4748
▁char	-4749
▁between	-4750
صہ	-4751
▁fl	-4752
▁ہیال	-4753
▁ہنچو	-4754
▁بیوکیں	-4755
ve	-4756
▁بکناں	-4757
ژدہ	-4758
▁کمپی	-4759
▁وائرس	-4760
▁ھزدار	-4761
مارا	-4762
▁تہی	-4763
▁جِندئیگ	-4764
رجانک	-4765
▁مُچی	-4766
▁امباز	-4767
▁گندگءَ	-4768
ِي	-4769
▁تنق	-4770
▁ٹال	-4771
▁جبر	-4772
▁سرحال	-4773
ورسز	-4774
▁ھِچ	-4775
▁شروع	-4776
▁آؤکیں	-4777
▁col	-4778
▁مئیل	-4779
▁گوریچ	-4780
▁باپاری	-4781
ایر	-4782
صیل	-4783
▁عار	-4784
▁ادارھاں	-4785
▁مور	-4786
▁کپان	-4787
▁record	-4788
▁دوستین	-4789
دست	-4790
▁جاو	-4791
▁راجمانی	-4792
▁بجٹ	-4793
▁وپت	-4794
▁ھیران	-4795
▁اِتنت۔	-4796
▁دگے	-4797
▁پلہ	-4798
iew	-4799
نڈی	-4800
▁ساه	-4801
▁صلی	-4802
▁نیکی	-4803
▁پسّہ	-4804
زے	-4805
ron	-4806
چینی	-4807
▁ہمرائی	-4808
▁قِصّہ	-4809
ایے	-4810
▁جوش	-4811
▁لوگاں	-4812
ِل	-4813
▁رپ	-4814
دارے	-4815
▁انقل	-4816
▁گردن	-4817
ڑگ	-4818
▁کپت۔	-4819
fore	-4820
حق	-4821
▁دب	-4822
▁رھادگ	-4823
▁سلامت	-4824
▁وشّی	-4825
▁ہوئی	-4826
▁اتاں۔	-4827
▁زار	-4828
▁نویسی	-4829
▁۔من	-4830
▁میدان	-4831
تاب	-4832
▁دولت	-4833
▁شھدربر	-4834
▁through	-4835
▁نبی	-4836
▁زیات	-4837
▁فقیر	-4838
▁معام	-4839
▁گلاں	-4840
▁ملکاں	-4841
شاع	-4842
▁واپ	-4843
ision	-4844
نوک	-4845
▁جمہ	-4846
▁مَرد	-4847
▁واھند	-4848
▁گالاں	-4849
▁باسکاں	-4850
▁نبشتگیں	-4851
▁جنئگ	-4852
مالی	-4853
چوش	-4854
یدر	-4855
دانی	-4856
▁پروگرام	-4857
orn	-4858
▁لج	-4859
▁مردمی	-4860
▁00	-4861
ock	-4862
ؔءِ	-4863
▁مصر	-4864
▁ریڈیو	-4865
▁ترْ	-4866
▁سنی	-4867
▁غنی	-4868
وارے	-4869
▁ver	-4870
▁طال	-4871
▁بائی	-4872
▁سئیں	-4873
▁شاعرانی	-4874
▁آرت	-4875
▁اُن	-4876
▁سسٹم	-4877
▁جاگہے	-4878
▁num	-4879
▁حانی	-4880
▁later	-4881
▁تپاوت	-4882
▁منظور	-4883
▁پیغ	-4884
▁گُشئے	-4885
▁سرء	-4886
▁پرک	-4887
▁end	-4888
▁چنت	-4889
▁ہمد	-4890
بن	-4891
▁گوک	-4892
▁الرح	-4893
▁سنگین	-4894
ۆک	-4895
▁شات	-4896
▁آمد	-4897
▁زین	-4898
▁باوست	-4899
▁کانفرنس	-4900
olog	-4901
▁اُمر	-4902
گڑا	-4903
ames	-4904
▁pos	-4905
▁عملی	-4906
▁مبارکی	-4907
چّ	-4908
▁تف	-4909
گیریں	-4910
سرءَ	-4911
▁پنڈ	-4912
مز	-4913
▁سنچ	-4914
▁بڈ	-4915
▁لوگے	-4916
▁writ	-4917
▁جاتا	-4918
▁produ	-4919
▁وتگ	-4920
▁راشد	-4921
▁while	-4922
▁مارکس	-4923
▁act	-4924
گش	-4925
▁rele	-4926
▁مشکے	-4927
▁رجینگ	-4928
▁اخلاقی	-4929
یسٹ	-4930
▁تہہ	-4931
▁film	-4932
▁پازل	-4933
▁بزگ	-4934
▁لاہ	-4935
▁شعرءِ	-4936
سُ	-4937
؟”	-4938
▁دیا	-4939
▁یعنی	-4940
▁تاکہ	-4941
▁زامران	-4942
▁ہیل	-4943
▁ھمگرنچ	-4944
ڑت	-4945
▁پدریچ	-4946
لونک	-4947
▁جاری	-4948
▁زبانءَ	-4949
▁روسی	-4950
ساح	-4951
▁آدینگ	-4952
جیل	-4953
ڑاں	-4954
▁رؤت	-4955
▁تاکت	-4956
بات	-4957
اَنت	-4958
ـُ	-4959
▁سئی	-4960
▁اِشانی	-4961
▁کارمرزی	-4962
زیت	-4963
ّلی	-4964
▁جمی	-4965
ished	-4966
▁نزیکیں	-4967
▁نادراہی	-4968
▁حاکم	-4969
ساں	-4970
▁راب	-4971
▁pr	-4972
▁کوپگ	-4973
ans	-4974
▁reg	-4975
گوشتگ	-4976
▁نواز	-4977
▁وڈیں	-4978
▁درداں	-4979
واریں	-4980
▁مشین	-4981
▁سوبمند	-4982
مع	-4983
▁آچہ	-4984
▁برطانی	-4985
▁حلک	-4986
▁بازینے	-4987
▁سود	-4988
▁لُنٹ	-4989
”.	-4990
▁form	-4991
▁تچان	-4992
▁لوٹانی	-4993
وص	-4994
▁چات	-4995
▁کای	-4996
▁دینی	-4997
▁منّت	-4998
▁ھندی	-4999
▁ass	-5000
▁لبزاں	-5001
▁Se	-5002
▁گواہ	-5003
▁حاصیں	-5004
▁پیشانی	-5005
▁اسے	-5006
▁وانند	-5007
▁چمشانک	-5008
ها	-5009
ہے	-5010
ury	-5011
▁چارت	-5012
ted	-5013
سال	-5014
▁نێ	-5015
▁زُور	-5016
▁جماعت	-5017
▁زیبائیں	-5018
ts	-5019
؟؟	-5020
بلکیں	-5021
▁made	-5022
▁ربیدگی	-5023
اِیت	-5024
▁سروز	-5025
▁زیمر	-5026
▁وران	-5027
▁چۆ	-5028
▁ھسپتال	-5029
▁فٹ	-5030
▁sub	-5031
▁pe	-5032
▁جنا	-5033
▁پیل	-5034
▁متاثر	-5035
▁چمّانی	-5036
▁إنت۔	-5037
یکے	-5038
▁پلو	-5039
▁نیامءَ	-5040
ئت	-5041
▁so	-5042
▁آدیم	-5043
orld	-5044
▁New	-5045
▁سہر	-5046
آز	-5047
▁ret	-5048
▁گوشدارگ	-5049
ہل	-5050
▁چندے	-5051
▁زالبولے	-5052
▁خی	-5053
▁زه	-5054
▁پانک	-5055
▁spec	-5056
▁وانندہ	-5057
گاہ	-5058
▁acc	-5059
▁نظریہ	-5060
▁گہگیری	-5061
▁تاگ	-5062
▁باریگ	-5063
وءَ	-5064
ڈّی	-5065
▁ساح	-5066
▁سبی	-5067
▁بُنگ	-5068
▁qu	-5069
▁بلد	-5070
▁سرے	-5071
▁ھنچوش	-5072
▁ملکانی	-5073
یسے	-5074
▁لائن	-5075
یکیں	-5076
▁where	-5077
▁نیکیں	-5078
▁پرمان	-5079
▁اسپیتیں	-5080
پے	-5081
▁مکت	-5082
▁صرف	-5083
▁ساعت	-5084
▁مروچیگیں	-5085
▁دمک	-5086
▁توارے	-5087
▁کُرت۔	-5088
تاکدیم۔	-5089
▁0	-5090
▁خاران	-5091
ener	-5092
اہانی	-5093
▁اسٹوڈ	-5094
▁کمپیوٹر	-5095
▁mov	-5096
hes	-5097
رداں	-5098
meric	-5099
▁گندئے	-5100
ّینت	-5101
▁کین	-5102
▁رجانکار	-5103
▁ادی	-5104
▁بنکی	-5105
▁Le	-5106
▁ra	-5107
▁ناچ	-5108
ating	-5109
▁inter	-5110
▁کائ	-5111
▁Americ	-5112
▁بیث	-5113
▁اتیں	-5114
▁مواد	-5115
▁تہاریں	-5116
▁فن	-5117
یراں	-5118
▁دراتک	-5119
▁شاعراں	-5120
▁گئی	-5121
▁نوزدہ	-5122
▁گہرام	-5123
▁فلسفی	-5124
سد	-5125
▁پرواہ	-5126
▁آسان	-5127
▁موکل	-5128
▁ہندی	-5129
▁زرتگ۔	-5130
▁دوئ	-5131
▁زاھر	-5132
▁لعل	-5133
▁مِر	-5134
▁some	-5135
سار	-5136
سید	-5137
▁پورا	-5138
ومن	-5139
▁شپاں	-5140
▁گورءَ	-5141
صل	-5142
▁طرف	-5143
▁شیئر	-5144
▁زرمبش	-5145
▁co	-5146
▁lar	-5147
▁تاہ	-5148
▁کنغ	-5149
▁رُژن	-5150
جنی	-5151
▁bu	-5152
▁استان	-5153
▁زانتکاری	-5154
▁بێ	-5155
▁ون	-5156
▁نر	-5157
▁def	-5158
▁پبل	-5159
▁پہلو	-5160
bum	-5161
نٹس	-5162
▁کُنڈ	-5163
▁سریں	-5164
▁محمود	-5165
▁اناگ	-5166
▁خانہ	-5167
▁کاروباری	-5168
▁دیمترا	-5169
▁سرزمین	-5170
▁قبول	-5171
▁جاگہہ	-5172
▁جاہءَ	-5173
▁بوتین	-5174
َگا	-5175
▁کُمک	-5176
▁عذ	-5177
▁ائے	-5178
▁اختر	-5179
▁لوٹت	-5180
▁نندوکیں	-5181
▁چاریت	-5182
▁دِر	-5183
▁وزن	-5184
▁ھستی	-5185
▁اَنچیں	-5186
وٹی	-5187
▁ac	-5188
▁لوٹگ	-5189
واست	-5190
ریش	-5191
▁ڈر	-5192
▁ارا	-5193
▁پرپٹ	-5194
▁میڈیکل	-5195
▁ناج	-5196
ارڈ	-5197
ٹمنٹ	-5198
▁mus	-5199
▁مغر	-5200
▁ضلع	-5201
▁جہاں	-5202
▁گْورا	-5203
ارات	-5204
▁صلاح	-5205
▁کایاں	-5206
▁جاپ	-5207
▁سِی	-5208
▁ویک	-5209
▁بجلی	-5210
▁المیں	-5211
خیں	-5212
▁موٹر	-5213
▁follow	-5214
▁کولواہ	-5215
▁ذکر	-5216
▁جدید	-5217
ُدا	-5218
▁At	-5219
▁دپی	-5220
▁کَے	-5221
اءِ	-5222
ins	-5223
▁ووٹ	-5224
▁ہمائی	-5225
▁بگندئے	-5226
▁مسئ	-5227
▁گْونڈ	-5228
باں	-5229
ived	-5230
▁اَتکگ	-5231
▁بلوچءِ	-5232
▁مرت	-5233
سائٹی	-5234
▁دگرے	-5235
▁پناہ	-5236
▁ڈیتھ	-5237
▁ھستیں	-5238
▁راجدپتری	-5239
▁عیسیٰ	-5240
▁زُلم	-5241
▁انداز	-5242
▁عطاشاد	-5243
▁کارمندانی	-5244
▁لے	-5245
ific	-5246
▁دَیگ	-5247
▁ڈیٹا	-5248
خش	-5249
▁لندن	-5250
ual	-5251
تان	-5252
▁am	-5253
▁جاڑی	-5254
▁دراہیں	-5255
▁واکداراں	-5256
▁حام	-5257
▁غوث	-5258
▁سوسائٹی	-5259
▁such	-5260
کانودی	-5261
▁second	-5262
ذا	-5263
ستر	-5264
▁بِلّ	-5265
▁بازین	-5266
ike	-5267
▁('.	-5268
▁آسود	-5269
▁بوہان	-5270
▁گرمیں	-5271
▁انڈ	-5272
▁اَتءُ	-5273
▁سوگند	-5274
▁ہدا	-5275
▁یونین	-5276
▁ذری	-5277
▁ابدال	-5278
▁دورءِ	-5279
▁وابانی	-5280
ِی	-5281
▁four	-5282
▁مقام	-5283
▁دروشمے	-5284
انکیں	-5285
نیام	-5286
▁چیرا	-5287
▁ind	-5288
▁علاق	-5289
▁چاگردءِ	-5290
▁آؤ	-5291
▁خلاف	-5292
▁زندگانی	-5293
ann	-5294
▁وجہ	-5295
راہیں	-5296
▁حمید	-5297
▁زرباری	-5298
▁مے	-5299
▁جنوک	-5300
▁علام	-5301
▁،،	-5302
▁کارءُ	-5303
▁بیب	-5304
▁ھمنچو	-5305
hen	-5306
▁ریپ	-5307
نءِ	-5308
▁ود	-5309
▁حُدا	-5310
▁عاشق	-5311
▁یوکرین	-5312
▁Re	-5313
میان	-5314
▁رندی	-5315
▁عابد	-5316
▁راجدو	-5317
لاف	-5318
▁دیراں	-5319
▁بَہ	-5320
▁درخ	-5321
▁چاڑ	-5322
داراں	-5323
▁درگیجگ	-5324
▁used	-5325
▁۔۔۔۔۔	-5326
اہرہ	-5327
▁لان	-5328
▁لازم	-5329
▁پائی	-5330
ِکّ	-5331
▁رُد	-5332
▁کردے	-5333
▁امروز	-5334
نبشتانک	-5335
شمبے	-5336
▁کشّگ	-5337
▁تہذ	-5338
▁پلا	-5339
▁ہمس	-5340
▁جمالی	-5341
ابق	-5342
لّہ	-5343
▁آک	-5344
▁شپءَ	-5345
▁تچگ	-5346
▁ڈائ	-5347
▁شھدربرجاہ	-5348
▁اندری	-5349
▁ہن	-5350
▁دوہ	-5351
▁میاں	-5352
▁کوھانی	-5353
تن	-5354
▁انگہ	-5355
ics	-5356
lect	-5357
▁اسی	-5358
▁روتاک	-5359
▁day	-5360
▁انگر	-5361
▁زبہر	-5362
▁رکّ	-5363
▁لنگ	-5364
▁راہبند	-5365
فو	-5366
▁توجیل	-5367
▁زوربیگو	-5368
▁نمیرانیں	-5369
iel	-5370
▁مزد	-5371
▁شعور	-5372
▁چتور	-5373
آزمانک	-5374
▁ارزان	-5375
▁ھنچو	-5376
▁ہا	-5377
▁بینگ	-5378
▁پروم	-5379
▁پھاز	-5380
ily	-5381
▁لذ	-5382
▁ھج	-5383
▁جگر	-5384
▁سیٹ	-5385
▁مولوی	-5386
▁آری	-5387
▁گرٛ	-5388
▁This	-5389
▁لیاری	-5390
▁گْران	-5391
▁ہان	-5392
▁دوری	-5393
▁اقبال	-5394
▁کلک	-5395
▁پندل	-5396
▁سرشون	-5397
ریقہ	-5398
▁تاکدیم۔	-5399
ورہ	-5400
▁یں	-5401
▁عدال	-5402
▁له	-5403
▁ھکم	-5404
بیا	-5405
▁جلو	-5406
▁هبر	-5407
▁publ	-5408
▁دلوت	-5409
▁نیاما	-5410
ندات	-5411
سَ	-5412
سیت	-5413
▁بنجاہ	-5414
▁ھاران	-5415
▁کپیت۔	-5416
▁ھپتاد	-5417
▁ترو	-5418
ولیں	-5419
▁شِنگ	-5420
▁نوکری	-5421
بھ	-5422
▁Jo	-5423
▁نج	-5424
▁call	-5425
▁اعت	-5426
▁خوش	-5427
▁شئر	-5428
▁ہوتی	-5429
اتم	-5430
▁ره	-5431
▁تار	-5432
▁انٹ	-5433
▁شوم	-5434
▁ایوکا	-5435
▁وہداں	-5436
▁ھمیشی	-5437
▁سط	-5438
▁رکینگ	-5439
اسے	-5440
▁دورءَ	-5441
نتگیں	-5442
▁آزار	-5443
▁بالگ	-5444
▁مہکم	-5445
▁واقع	-5446
▁آشوبی	-5447
▁10	-5448
▁ساہگ	-5449
▁بندوکیں	-5450
ll	-5451
ثار	-5452
▁لانگ	-5453
▁احوال	-5454
▁اناگہ	-5455
ایا	-5456
بیب	-5457
▁album	-5458
اتیں	-5459
اپیں	-5460
▁نسیم	-5461
▁کمتر	-5462
▁پیرا	-5463
▁000	-5464
▁لفظ	-5465
▁اُلُ	-5466
حم	-5467
▁گؤ	-5468
rans	-5469
ـــــ	-5470
▁do	-5471
▁رن	-5472
▁زد	-5473
▁روچءِ	-5474
▁رپت	-5475
یان	-5476
▁Sh	-5477
any	-5478
عیل	-5479
▁جنینے	-5480
▁گریوگ	-5481
▁گالانی	-5482
رند	-5483
▁ناپ	-5484
▁before	-5485
▁کْ	-5486
ros	-5487
پیش	-5488
▁ابو	-5489
▁کنے	-5490
▁مسا	-5491
▁یعنے	-5492
▁احساس	-5493
▁مالک	-5494
▁پیرک	-5495
▁گستا	-5496
▁اشکنگ	-5497
▁سپاہی	-5498
▁بگو	-5499
زال	-5500
▁چارگءَ	-5501
▁عاق	-5502
▁زھری	-5503
▁کشندہ	-5504
▁وانگءَ	-5505
آس	-5506
شیر	-5507
▁پریات	-5508
ینکی	-5509
▁کرّ	-5510
▁وانوکاں	-5511
هے	-5512
اھر	-5513
▁ڈل	-5514
▁ہچبر	-5515
▁اسحاق	-5516
▁بُنجاھی	-5517
آمد	-5518
▁لیٹ	-5519
راق	-5520
▁اٹ	-5521
▁بیتءُ	-5522
▁ردیں	-5523
▁ترجمہ	-5524
▁پشتون	-5525
ھینگ	-5526
▁مھمان	-5527
▁زمستان	-5528
▁sy	-5529
aid	-5530
▁خلی	-5531
▁افسر	-5532
▁بائد	-5533
▁ترین	-5534
▁زاہر	-5535
▁لوگی	-5536
▁زوریت	-5537
رب	-5538
▁وق	-5539
▁Eng	-5540
▁رہے	-5541
▁وہدی	-5542
▁دلبڈی	-5543
▁گونڈیں	-5544
قین	-5545
ایاں	-5546
▁being	-5547
▁تخلیق	-5548
▁چوپ	-5549
▁دلپد	-5550
▁والی	-5551
▁گِرگ	-5552
▁استعمال	-5553
ِتگ	-5554
▁انسانءِ	-5555
▁کن۔	-5556
▁گنوکی	-5557
▁کاب	-5558
▁بشکھ	-5559
▁یونانی	-5560
▁رندگیری	-5561
ھمیش	-5562
▁بژن	-5563
▁زانش	-5564
▁ھبرے	-5565
▁ھوٹل	-5566
▁درملکی	-5567
▁درّائینت	-5568
▁سراں	-5569
▁مارشتانی	-5570
▁واکدارانی	-5571
جار	-5572
▁زید	-5573
▁کہا	-5574
▁ٹیلی	-5575
▁تاھیر	-5576
uc	-5577
▁ep	-5578
▁supp	-5579
▁there	-5580
َب	-5581
▁ترمپ	-5582
▁years	-5583
▁ہمدا	-5584
▁گچینکاری	-5585
ودءَ	-5586
▁نوکی	-5587
▁انقلاب	-5588
▁گلگ	-5589
▁ھشک	-5590
▁دائمی	-5591
▁زنگ	-5592
▁حقانی	-5593
▁تعالی	-5594
▁معاملہ	-5595
▁؛	-5596
▁پھنات	-5597
▁چوٹ	-5598
ars	-5599
▁آزمانکے	-5600
ابلہ	-5601
▁اینڈ	-5602
▁ہمودا	-5603
▁میش	-5604
▁دربار	-5605
▁گپّاں	-5606
▁روژنائی	-5607
▁کرتا	-5608
▁جہانی	-5609
متاز	-5610
▁پاہ	-5611
▁آدمی	-5612
owever	-5613
ردے	-5614
،’’	-5615
▁درج	-5616
▁الدین	-5617
▁پروشگ	-5618
▁گُلام	-5619
ائلی	-5620
پتیں	-5621
▁کَنت	-5622
کَ	-5623
▁ent	-5624
ہنیں	-5625
▁حیر	-5626
▁مسافر	-5627
▁شازادگ	-5628
ife	-5629
▁خالد	-5630
▁نگاہ	-5631
▁بیانی	-5632
▁پائدگ	-5633
▁جنجالانی	-5634
پیت	-5635
▁اِھ	-5636
▁اِئے	-5637
▁حیات	-5638
▁مروچاں	-5639
▁لبزانکءِ	-5640
ٹگ	-5641
▁no	-5642
▁high	-5643
▁found	-5644
▁بُنجل	-5645
ird	-5646
علی	-5647
▁رچ	-5648
▁تنقید	-5649
▁سیکورٹی	-5650
▁شل	-5651
▁۔م	-5652
▁اسر	-5653
▁اوت	-5654
▁بلا	-5655
ـّ	-5656
اسک	-5657
▁چینچو	-5658
آباد	-5659
▁پُرّ	-5660
▁پنچمی	-5661
▁درکانودی	-5662
▁ذہ	-5663
▁سرین	-5664
▁سراوان	-5665
▁set	-5666
▁دلی	-5667
▁پھل	-5668
▁12	-5669
▁شاه	-5670
ورءِ	-5671
▁چنگ	-5672
▁وارث	-5673
▁گپءُ	-5674
الم	-5675
▁اقت	-5676
ines	-5677
iver	-5678
▁فیض	-5679
▁پہر	-5680
▁فارم	-5681
▁دستگیر	-5682
▁درسد	-5683
▁نیاں	-5684
▁قط	-5685
زانگ	-5686
لون	-5687
▁رۆچ	-5688
▁تپاس	-5689
io	-5690
▁بگش	-5691
اِے	-5692
رگیں	-5693
▁راگ	-5694
▁آشنا	-5695
▁نبیت	-5696
▁کوچگ	-5697
other	-5698
▁ائید	-5699
▁میت	-5700
▁حکیم	-5701
▁روچگ	-5702
فیظ	-5703
▁زیمل	-5704
xt	-5705
▁اوّلی	-5706
▁امریکا	-5707
▁دنیاءَ	-5708
▁نیز	-5709
▁تمن	-5710
▁توسیپ	-5711
▁گۆں	-5712
▁عباس	-5713
▁ڈرائیور	-5714
ویں	-5715
وکین	-5716
▁لوگءِ	-5717
▁خون	-5718
▁ماش	-5719
ject	-5720
▁sur	-5721
▁اپس	-5722
▁گوار	-5723
▁سعودی	-5724
▁پربند	-5725
aj	-5726
ُند	-5727
▁ساڑا	-5728
▁آیی	-5729
▁سنت	-5730
▁زری	-5731
▁وثی	-5732
▁ضروری	-5733
▁مہرانی	-5734
▁بہادر	-5735
ھری	-5736
ہما	-5737
▁ٹُ	-5738
▁چِل	-5739
▁بالا	-5740
ten	-5741
ادا	-5742
شکار	-5743
▁tra	-5744
▁ذہن	-5745
▁اِنس	-5746
▁موتک	-5747
▁چرائی	-5748
▁جت۔	-5749
▁مکسد	-5750
▁پیری	-5751
▁بوتگاں	-5752
▁اہمد	-5753
▁سواریں	-5754
▁چاراِت	-5755
▁دلے	-5756
▁نات	-5757
▁سببءَ	-5758
ised	-5759
راہی	-5760
▁عید	-5761
نکس	-5762
داشت	-5763
▁برٛ	-5764
ارینگ	-5765
▁وع	-5766
▁گھر	-5767
▁صوبائی	-5768
▁تین	-5769
▁رمض	-5770
▁شاپ	-5771
▁منافع	-5772
ities	-5773
▁وابے	-5774
▁رسیت۔	-5775
▁پیگ	-5776
▁عظیم	-5777
▁وئیلاں	-5778
▁بحث	-5779
▁لاہور	-5780
▁بنیادی	-5781
ریٹ	-5782
▁لہڑ	-5783
velop	-5784
▁جنت۔	-5785
▁جانسلام	-5786
ale	-5787
یٹ	-5788
نیف	-5789
▁زلو	-5790
راھیم	-5791
▁میزان	-5792
▁انوگیں	-5793
فاظ	-5794
▁bl	-5795
▁شیک	-5796
▁اتک۔	-5797
▁مارکیٹ	-5798
▁گپتگیں	-5799
ندگی	-5800
زاد	-5801
جنسی	-5802
▁سرءِ	-5803
▁اَنتءُ	-5804
▁زھگانی	-5805
َد	-5806
ومنٹ	-5807
▁خالق	-5808
دارانی	-5809
▁استال	-5810
▁بادینی	-5811
▁گْوستگ	-5812
▁حیالانی	-5813
بلکن	-5814
▁ریگ	-5815
▁گُٹ	-5816
▁series	-5817
ینان	-5818
▁ئِے۔	-5819
▁گوشنت	-5820
▁کِرّ	-5821
فیق	-5822
▁گد	-5823
▁قادر	-5824
▁گیشّ	-5825
▁سارتی	-5826
ٹم	-5827
افظ	-5828
▁loc	-5829
▁رہا	-5830
▁شاریؔ	-5831
▁number	-5832
▁مارشتاں	-5833
▁پولکاری	-5834
▁پێ	-5835
▁جائی	-5836
▁بدنت	-5837
▁گشت۔	-5838
▁مجبور	-5839
▁دستانی	-5840
بُر	-5841
▁pres	-5842
▁روشن	-5843
▁بندانی	-5844
..؟	-5845
ane	-5846
ریگ	-5847
▁انگل	-5848
▁دیکھ	-5849
▁تہذیب	-5850
▁دنتان	-5851
▁اختیار	-5852
▁بوتگنت	-5853
▁نیمگاں	-5854
▁جاک	-5855
▁پہنچ	-5856
بیلہ	-5857
▁ملام	-5858
▁حوالہ	-5859
▁نوکین	-5860
اساں	-5861
▁جنگءَ	-5862
▁رجانکاری	-5863
▁زو	-5864
ause	-5865
▁بہشت	-5866
▁قبائلی	-5867
ode	-5868
▁حمزہ	-5869
▁سیاہیں	-5870
▁برجاہیں	-5871
▁زمانگءَ	-5872
ek	-5873
وڑی	-5874
▁16	-5875
کرتگ	-5876
▁صابر	-5877
▁آل	-5878
▁نبشته	-5879
▁ہمراہی	-5880
▁بُنی	-5881
▁ہندو	-5882
▁مردُم	-5883
ّگی	-5884
▁گزر	-5885
▁حبرے	-5886
▁اخراج	-5887
▁دیدگاں	-5888
▁چاگردءَ	-5889
ank	-5890
▁سٹ	-5891
بیت۔	-5892
▁مُد	-5893
▁خض	-5894
▁کُچک	-5895
▁کریمہ	-5896
▁Sc	-5897
▁آہگ	-5898
▁تلو	-5899
▁استار	-5900
▁بٹ	-5901
▁خو	-5902
▁مُشک	-5903
▁یکّیں	-5904
▁جنکانی	-5905
▁سوبمندی	-5906
منندیں	-5907
▁درکار	-5908
▁جانسلامتی	-5909
▁عذاب	-5910
▁الّمی	-5911
▁جتگیں	-5912
▁کپتگ۔	-5913
▁دن	-5914
▁بیتہ	-5915
▁جیہند	-5916
▁پاکستانءِ	-5917
ier	-5918
پلز	-5919
ارءِ	-5920
▁ٹَ	-5921
▁بھرے	-5922
▁وتگڑیں	-5923
ise	-5924
زیں	-5925
▁بین	-5926
ton	-5927
افی	-5928
اتکگ	-5929
▁گیت	-5930
▁کارا	-5931
▁کُتہ	-5932
▁sever	-5933
▁لح	-5934
ince	-5935
▁تژن	-5936
▁چُنت	-5937
▁بْر	-5938
▁فدا	-5939
ردانی	-5940
▁both	-5941
جت	-5942
▁یے۔	-5943
▁انکار	-5944
▁چکانی	-5945
شھر	-5946
▁اسماعیل	-5947
رید	-5948
▁ایشان	-5949
row	-5950
یرے	-5951
▁درانگاز	-5952
ڈز	-5953
▁سینی	-5954
▁دوچار	-5955
▁مزاحمت	-5956
▁ھزاراں	-5957
▁کارمندے	-5958
▁آگہ	-5959
▁جائے	-5960
بُ	-5961
جوان	-5962
▁درجہ	-5963
▁کارک	-5964
▁گوٛشیت	-5965
ھاؤ	-5966
▁سہی	-5967
▁امین	-5968
▁والے	-5969
▁ماھیگ	-5970
▁گلامی	-5971
▁ایکس	-5972
▁قبضہ	-5973
▁نمائ	-5974
▁کُنٹ	-5975
ماگ	-5976
▁دنیگا	-5977
▁نِشتگ	-5978
▁سرچ	-5979
▁بیرک	-5980
▁نودربرے	-5981
حکام	-5982
irect	-5983
▁ممتاز	-5984
’’(	-5985
▁کارءِ	-5986
زبان	-5987
▁استحکام	-5988
ھن	-5989
▁پَٹ	-5990
▁حصّہ	-5991
son	-5992
▁اط	-5993
▁Brit	-5994
▁then	-5995
▁کہن	-5996
فٹ	-5997
iet	-5998
سٹس	-5999
تگاں	-6000
رینا	-6001
▁نَہ	-6002
▁ایوکی	-6003
▁شُد	-6004
▁پَر	-6005
▁epis	-6006
▁اوتاک	-6007
▁انسانے	-6008
▁گیشینگ	-6009
سیں	-6010
▁۔بلے	-6011
▁کوہنیں	-6012
▁including	-6013
الہ	-6014
اولی	-6015
▁آرٹ	-6016
ہت	-6017
یکٹ	-6018
ھریں	-6019
▁ربی	-6020
یار	-6021
▁اه	-6022
▁آواں	-6023
▁دمگانی	-6024
اڑ	-6025
لاط	-6026
▁حراب	-6027
▁رئ	-6028
igin	-6029
▁بیور	-6030
▁کَشّ	-6031
▁برانز	-6032
▁جاوید	-6033
▁دلبند	-6034
▁نکن	-6035
▁ہنچیں	-6036
؟......	-6037
▁دگرانی	-6038
هی	-6039
its	-6040
▁بزور	-6041
▁عبدا	-6042
▁روکیں	-6043
pr	-6044
▁سوئی	-6045
▁گاریں	-6046
▁مانداشتگ	-6047
▁چیرءَ	-6048
▁کساسے	-6049
▁ابن	-6050
▁against	-6051
▁مظ	-6052
▁توپ	-6053
▁بنیات	-6054
▁درواز	-6055
▁اُلُسی	-6056
▁کھولانی	-6057
قر	-6058
▁الع	-6059
▁well	-6060
▁exp	-6061
▁became	-6062
برا	-6063
▁مُج	-6064
صی	-6065
جل	-6066
فور	-6067
▁مَن	-6068
▁سرءُ	-6069
▁میرے	-6070
▁ابرمی	-6071
▁کستریں	-6072
▁known	-6073
▁مالیاتی	-6074
▁اسٹوڈنٹس	-6075
▁جمعہ	-6076
▁کوھی	-6077
▁گلاب	-6078
▁چاگردے	-6079
▁میس	-6080
▁نکان	-6081
▁مساپر	-6082
▁درانگازی	-6083
▁واد	-6084
▁کہنیں	-6085
▁charac	-6086
▁بلڈ	-6087
▁ھوں	-6088
▁trans	-6089
▁کِرّا	-6090
▁بدلیاں	-6091
▁بزانکہ	-6092
ram	-6093
▁ڈَ	-6094
▁تبد	-6095
▁تھے۔	-6096
▁دَرو	-6097
▁آماچیں	-6098
▁روگی	-6099
▁زوراک	-6100
اچنی	-6101
▁زبانی	-6102
▁سطح	-6103
▁قرض	-6104
▁میم	-6105
▁back	-6106
▁واہند	-6107
▁ھنداں	-6108
▁مردمءَ	-6109
▁بابا	-6110
▁لیبی	-6111
▁ناکہ	-6112
▁go	-6113
▁add	-6114
▁مشر	-6115
▁دراں	-6116
▁بندیت	-6117
▁باسکانی	-6118
▁pop	-6119
▁بارے	-6120
▁شاھی	-6121
▁برداشت	-6122
▁زالبولاں	-6123
urch	-6124
وتگ	-6125
▁desc	-6126
▁پیپلز	-6127
مج	-6128
▁عبدالرح	-6129
ield	-6130
▁دُک	-6131
▁sing	-6132
▁دِگہ	-6133
▁شانک	-6134
▁موومنٹ	-6135
یکی	-6136
▁راکٹ	-6137
وشیں	-6138
▁تیاری	-6139
▁دیریں	-6140
▁perform	-6141
ained	-6142
▁کرّا	-6143
▁گڈسر	-6144
▁اشارہ	-6145
▁بنگلہ	-6146
▁بلوچستانءَ	-6147
گین	-6148
▁ڈیل	-6149
ident	-6150
▁rece	-6151
▁واھگانی	-6152
گند	-6153
▁em	-6154
▁اظ	-6155
▁گۆن	-6156
▁بوجیگ	-6157
▁کرتنت	-6158
▁اُرشاں	-6159
▁شاعریءِ	-6160
ڑھ	-6161
ert	-6162
▁سیکر	-6163
▁ازباب	-6164
▁اَنچ	-6165
▁سمین	-6166
▁شُمئے	-6167
ures	-6168
زانتی	-6169
▁dep	-6170
▁inv	-6171
▁بیبگر	-6172
ern	-6173
▁مسئلہ	-6174
▁درنیام	-6175
شا	-6176
air	-6177
تلف	-6178
▁198	-6179
▁گپت۔	-6180
دیث	-6181
پول	-6182
ہال	-6183
▁تپاکی	-6184
▁رخ	-6185
▁ڈا	-6186
▁نبشتانکے	-6187
ڈک	-6188
▁آپی	-6189
▁درْ	-6190
▁تحقی	-6191
▁شبیر	-6192
▁لینگ	-6193
ather	-6194
▁روای	-6195
▁شنز	-6196
واج	-6197
▁پرستی	-6198
فتار	-6199
▁پرما	-6200
ساب	-6201
▁ہلک	-6202
▁پلاٹ	-6203
▁دلانی	-6204
▁روگءَ	-6205
▁نیمون	-6206
ده	-6207
▁خر	-6208
اشبہ	-6209
▁عاج	-6210
▁سُھب	-6211
▁یکوارے	-6212
▁عث	-6213
▁دارو	-6214
▁دگانی	-6215
ful	-6216
▁11	-6217
▁mon	-6218
▁many	-6219
▁اُشتر	-6220
▁اگدہ	-6221
▁بزنجو	-6222
▁لوٹائی	-6223
▁زورگیریں	-6224
▁main	-6225
▁نِشت	-6226
▁ھمودا	-6227
▁ّ	-6228
▁15	-6229
▁بدے	-6230
▁میٹر	-6231
▁کرسی	-6232
▁کوشش	-6233
▁بوگءَ	-6234
▁جیڑھانی	-6235
▁جَنگ	-6236
▁تیلانک	-6237
ادق	-6238
▁ڈاک	-6239
▁درنگ	-6240
▁عباد	-6241
▁مندی	-6242
▁میراث	-6243
▁چندیں	-6244
ٗوہ	-6245
▁جَت	-6246
▁میتگے	-6247
▁گْوھرام	-6248
گپ	-6249
▁رمضان	-6250
▁ہواری	-6251
▁سلیمان	-6252
▁سپاھی	-6253
▁جیڑہانی	-6254
▁سیمسراں	-6255
''	-6256
up	-6257
▁stud	-6258
▁ابیت	-6259
▁long	-6260
inn	-6261
ool	-6262
لوٹ	-6263
▁حما	-6264
▁تهنا	-6265
though	-6266
▁ارادہ	-6267
▁دُچار	-6268
▁پابندی	-6269
ہدی	-6270
▁گلے	-6271
▁United	-6272
نَ	-6273
led	-6274
▁صبر	-6275
▁اولس	-6276
▁نازر	-6277
▁گرمی	-6278
▁دلا	-6279
ement	-6280
▁درائینت	-6281
▁ہون	-6282
▁ہستی	-6283
▁گھگیری	-6284
▁17	-6285
▁پانی	-6286
▁اُرشے	-6287
▁یکر	-6288
▁پْروش	-6289
ُمی	-6290
▁کارچ	-6291
▁استمان	-6292
ئش	-6293
ower	-6294
▁جسم	-6295
▁الیکشن	-6296
▁ٹاور	-6297
▁بیدار	-6298
▁سرباز	-6299
▁ستر	-6300
▁حملہ	-6301
▁سِتک	-6302
▁نزوریں	-6303
کور	-6304
یلے	-6305
▁تبک	-6306
▁محب	-6307
▁راجءِ	-6308
▁طاہرہ	-6309
اھیگ	-6310
▁نازک	-6311
▁ھاکم	-6312
▁تحصیل	-6313
▁نادراھجاہ	-6314
▁جہاز	-6315
▁ڈالر	-6316
▁سمندر	-6317
▁گئے	-6318
▁داتہ	-6319
▁سہرا	-6320
▁مختلف	-6321
▁شانزدہ	-6322
▁کوپگاں	-6323
▁سیکرٹری	-6324
بوتگ	-6325
▁گشے	-6326
▁قیمتانی	-6327
▁John	-6328
▁بہتام	-6329
▁سوگات	-6330
▁op	-6331
▁ویر	-6332
ined	-6333
▁مشت	-6334
▁پین	-6335
▁دعوت	-6336
▁سَوَ	-6337
▁یہاں	-6338
▁فاروق	-6339
▁پات	-6340
▁برمش	-6341
▁پلان	-6342
▁مشہور	-6343
▁مردمءِ	-6344
▁عبدالحمید	-6345
وھدے	-6346
▁داران	-6347
▁ریکارڈ	-6348
▁جْوانیں	-6349
▁دھکان	-6350
▁اخراجات	-6351
▁سروس	-6352
▁لگتمالی	-6353
لءَ	-6354
▁عدالت	-6355
▁جنگانی	-6356
▁مقابلہ	-6357
ساحر	-6358
چاری	-6359
▁پسندی	-6360
▁سڑک	-6361
""	-6362
راط	-6363
▁ھن	-6364
ریشی	-6365
▁بِل	-6366
▁واز	-6367
▁یاگی	-6368
▁جاورھال	-6369
▁met	-6370
▁محنت	-6371
ؔءَ	-6372
افت	-6373
کتی	-6374
کشیں	-6375
▁سهیگ	-6376
▁زمانگے	-6377
اہا	-6378
▁امیری	-6379
▁اُتار	-6380
ober	-6381
▁ہاں	-6382
▁زبیر	-6383
▁ٹارگ	-6384
▁بانور	-6385
▁کشمیر	-6386
▁ھیالانی	-6387
ley	-6388
▁ڈُ	-6389
مرچی	-6390
▁کاریں	-6391
نم	-6392
گیش	-6393
▁پُچ	-6394
▁جنگے	-6395
▁حالت	-6396
▁گوری	-6397
▁century	-6398
▁واه	-6399
بازیں	-6400
▁team	-6401
▁رشید	-6402
▁نادی	-6403
▁وخ	-6404
▁ڈکھ	-6405
شو	-6406
▁est	-6407
▁اِیر	-6408
▁ہونے	-6409
▁After	-6410
▁پوریا	-6411
▁ابراھیم	-6412
بریں	-6413
▁ہاک	-6414
▁رئیس	-6415
▁ماہیگ	-6416
▁ویران	-6417
yl	-6418
آر	-6419
▁برپ	-6420
▁کِش	-6421
▁خلیل	-6422
▁دران	-6423
▁سیستان	-6424
▁برزیں	-6425
▁پرچیکہ	-6426
▁سکّیں	-6427
▁گواری	-6428
▁min	-6429
▁زمّہ	-6430
▁انت۔اے	-6431
uch	-6432
ute	-6433
▁قح	-6434
▁امر	-6435
ah	-6436
▁گلی	-6437
▁تپنگ	-6438
▁کترینا	-6439
▁develop	-6440
▁She	-6441
▁گراہ	-6442
iam	-6443
▁show	-6444
▁بوگی	-6445
▁بزدار	-6446
▁مانیت	-6447
elf	-6448
▁اہم	-6449
▁جاتی	-6450
▁گماں	-6451
▁rep	-6452
▁وخت	-6453
▁گژن	-6454
▁نادُ	-6455
فوظ	-6456
▁conc	-6457
▁دئیں	-6458
▁ٹر	-6459
ative	-6460
▁نیمروچ	-6461
▁ناشرکاری	-6462
▁ارسط	-6463
▁مطابق	-6464
▁چڑھاؤ	-6465
▁کود	-6466
▁وپتگ	-6467
▁ڈیہی	-6468
وخ	-6469
▁ملامت	-6470
فق	-6471
اؤس	-6472
ثیت	-6473
بلیو	-6474
▁فتح	-6475
ریکٹر	-6476
az	-6477
یلگ	-6478
▁زل	-6479
عبدال	-6480
▁....	-6481
▁عارف	-6482
▁گالو	-6483
▁دْراج	-6484
▁کاینت۔	-6485
▁گراہکانی	-6486
▁بوئیگ	-6487
▁cre	-6488
▁گنت	-6489
لاطون	-6490
▁جرمن	-6491
▁زانت۔	-6492
▁یاس	-6493
▁غریب	-6494
▁مجھے	-6495
▁اوشتگ	-6496
▁آزاتیں	-6497
▁طالبان	-6498
▁پُشتءَ	-6499
▁ٹوک	-6500
overn	-6501
▁دلپر	-6502
▁تْران	-6503
▁دیدار	-6504
▁ناگمان	-6505
یشت	-6506
ared	-6507
▁194	-6508
▁بُت	-6509
▁ہنچ	-6510
▁شاکر	-6511
▁اِتگ۔	-6512
▁توکلی	-6513
▁ٹارگٹ	-6514
▁origin	-6515
▁درٛوشم	-6516
▁اعظم	-6517
▁بزگی	-6518
▁ٹپاس	-6519
▁کِرد	-6520
▁چیف	-6521
ہک	-6522
ادار	-6523
گاریں	-6524
▁یکین	-6525
▁sm	-6526
▁ماث	-6527
▁جمیل	-6528
▁پچیں	-6529
گوٛ	-6530
▁کوٛ	-6531
اِنت۔	-6532
▁قمبر	-6533
▁وئیلانی	-6534
ivers	-6535
▁اھمد	-6536
▁دوار	-6537
▁مردءَ	-6538
▁سسا	-6539
چاگرد	-6540
▁سرگر	-6541
▁ھائی	-6542
▁ي	-6543
الا	-6544
الله	-6545
▁شَرّ	-6546
▁ھِ	-6547
برتگ	-6548
▁فکری	-6549
▁کیشن	-6550
▁شخصیت	-6551
▁اندازہ	-6552
▁جاد	-6553
▁چاک	-6554
▁ایمن	-6555
▁شانی	-6556
▁ایکشن	-6557
▁دوئمی	-6558
▁مندیں	-6559
▁ڈھ	-6560
▁مڑد	-6561
▁ٹکّ	-6562
حی	-6563
▁دبئی	-6564
▁کروڑ	-6565
▁lead	-6566
▁بوآن	-6567
▁ڈرام	-6568
▁چیردستی	-6569
▁ہواریں	-6570
گی۔	-6571
▁پہلے	-6572
▁خضدار	-6573
▁یورپی	-6574
▁شکاری	-6575
▁ماتیں	-6576
▁دراتکگ	-6577
لونی	-6578
▁ہرد	-6579
▁سِنگ	-6580
▁بلاشبہ	-6581
▁several	-6582
لڈ	-6583
▁توپک	-6584
▁جرمنی	-6585
▁ندارہ	-6586
ێا	-6587
▁ob	-6588
▁rev	-6589
▁گیں	-6590
▁باھو	-6591
▁اسٹیشن	-6592
▁کڑ	-6593
▁متع	-6594
▁مدر	-6595
▁ادیب	-6596
کنیں	-6597
▁اتح	-6598
▁اللّ	-6599
▁ترسی	-6600
▁درامد	-6601
▁سبک	-6602
▁ہفت	-6603
▁mill	-6604
▁اشتر	-6605
▁پَشت	-6606
▁لسبیلہ	-6607
▁گْوز	-6608
▁اتکگ۔	-6609
erm	-6610
رداد	-6611
زمان	-6612
▁مکہ	-6613
▁کُج	-6614
▁بیلٹ	-6615
▁دستے	-6616
▁درخواست	-6617
چیں	-6618
▁ارد	-6619
▁تند	-6620
▁بھار	-6621
▁تھام	-6622
▁حاتم	-6623
▁رحمت	-6624
▁ڈولدار	-6625
بانک	-6626
زوری	-6627
▁کھن	-6628
ually	-6629
▁همراه	-6630
▁وتکشی	-6631
▁ھیالاں	-6632
▁196	-6633
▁جمال	-6634
▁رگام	-6635
▁دیوانجاه	-6636
oot	-6637
ریم	-6638
▁غالب	-6639
▁began	-6640
زت	-6641
روچے	-6642
گز	-6643
ired	-6644
▁dif	-6645
راتکی	-6646
▁رنگی	-6647
▁دلگوشی	-6648
▁ڈگارانی	-6649
▁کسءَ	-6650
▁دستان	-6651
▁گنجیں	-6652
▁تاوانانی	-6653
ویٰ	-6654
▁تنا	-6655
▁آئیء	-6656
▁دردے	-6657
▁کئیت۔	-6658
ئٹر	-6659
▁خام	-6660
▁شانگ	-6661
▁contin	-6662
ik	-6663
روف	-6664
▁شف	-6665
ائیت	-6666
▁197	-6667
▁جیگ	-6668
▁چئی	-6669
▁شعرے	-6670
▁رِدءَ	-6671
▁تُن	-6672
▁sign	-6673
▁سورت	-6674
▁پلام	-6675
▁درچکانی	-6676
نیت	-6677
ized	-6678
▁Ind	-6679
▁بیس	-6680
ments	-6681
▁ارساں	-6682
▁نوکتریں	-6683
▁فرانسیسی	-6684
متی	-6685
کین	-6686
▁کائے	-6687
▁گوھار	-6688
▁direct	-6689
بءَ	-6690
▁زھگاں	-6691
ساچ	-6692
▁زاه	-6693
▁پرنٹ	-6694
▁راھشون	-6695
au	-6696
شتے	-6697
▁اِشاں	-6698
▁حمایت	-6699
▁ھکّ	-6700
▁جنازہ	-6701
ْت	-6702
ریزگ	-6703
▁مردُ	-6704
▁سلطان	-6705
ویل	-6706
ross	-6707
▁ext	-6708
▁بُرّ	-6709
emb	-6710
کرا	-6711
▁پَس	-6712
▁چکچینی	-6713
▁برطانیہ	-6714
der	-6715
▁تول	-6716
▁وَش	-6717
▁تیزی	-6718
▁گشاں	-6719
▁ھمگر	-6720
▁اتگیں	-6721
زمت	-6722
▁pol	-6723
▁کپتہ	-6724
▁محفوظ	-6725
جّ	-6726
▁فط	-6727
▁تھت	-6728
▁صحت	-6729
▁بندیگیں	-6730
وں۔	-6731
▁گرپت	-6732
▁دابیں	-6733
َم	-6734
apt	-6735
▁may	-6736
▁کنتءُ	-6737
سراں	-6738
▁کدر	-6739
▁سماجی	-6740
▁الاج	-6741
▁لوزانک	-6742
els	-6743
ئین	-6744
▁Wh	-6745
▁انف	-6746
▁مکر	-6747
▁دودا	-6748
▁زمینی	-6749
▁پرآئی	-6750
▁کارستانی	-6751
کمی	-6752
▁art	-6753
▁نکنت	-6754
▁بیچار	-6755
▁راجاں	-6756
▁comple	-6757
ـَـ	-6758
پاد	-6759
▁اسد	-6760
▁الف	-6761
▁بانزل	-6762
▁انت۔۔۔	-6763
▁hist	-6764
▁سَک	-6765
▁لَٹ	-6766
▁معن	-6767
▁گلو	-6768
▁بباں	-6769
▁بندر	-6770
▁کتابی	-6771
▁Is	-6772
▁اون	-6773
▁دال	-6774
▁سیاھگ	-6775
▁Br	-6776
▁جنگءِ	-6777
▁وداری	-6778
▁گمانی	-6779
une	-6780
▁ھموداں	-6781
یو	-6782
▁نما	-6783
▁crit	-6784
▁جوڑی	-6785
▁تراکے	-6786
▁دگراں	-6787
▁سرگْو	-6788
نیٹ	-6789
ہوں	-6790
وہدے	-6791
▁شنا	-6792
▁متح	-6793
▁ہنر	-6794
▁ماھے	-6795
شرگ	-6796
▁ھاش	-6797
▁راہءَ	-6798
▁گورنر	-6799
▁آزمانکار	-6800
▁گوہر	-6801
▁early	-6802
▁سنگتی	-6803
▁امارات	-6804
▁کامریڈ	-6805
ایں	-6806
▁تیوگ	-6807
▁could	-6808
▁شوانگ	-6809
▁جنینانی	-6810
▁ژا	-6811
▁Con	-6812
نگیجی	-6813
▁زھگے	-6814
▁میاری	-6815
▁سالونک	-6816
til	-6817
لیک	-6818
▁گشی	-6819
▁ھست۔	-6820
▁ٹرانس	-6821
هیں	-6822
▁did	-6823
▁حافظ	-6824
▁عادت	-6825
▁معنی	-6826
▁دردانی	-6827
فتگ	-6828
ۆچی	-6829
▁bel	-6830
▁بکر	-6831
▁جسٹس	-6832
▁حلاپ	-6833
▁مادن	-6834
▁ہاتھ	-6835
▁توپان	-6836
▁called	-6837
ued	-6838
گیڈ	-6839
▁معاش	-6840
▁بچّ	-6841
▁سِل	-6842
▁شتاں	-6843
▁اِدءَ	-6844
منا	-6845
▁تؤ	-6846
▁near	-6847
▁لالا	-6848
▁پنجاپ	-6849
▁episode	-6850
ُکے	-6851
▁ناھ	-6852
▁گیم	-6853
▁حیدر	-6854
▁سببا	-6855
▁بُرزی	-6856
▁ازمکار	-6857
َي	-6858
اداد	-6859
▁آصف	-6860
▁نفر	-6861
▁بلوٹ	-6862
▁نادْ	-6863
▁نپاد	-6864
▁سریاب	-6865
yp	-6866
مست	-6867
▁صو	-6868
▁مَا	-6869
▁ٹُک	-6870
▁پڑا	-6871
▁دئینت	-6872
▁زمانہ	-6873
شپی	-6874
▁جزم	-6875
▁پتا	-6876
▁کاس	-6877
▁جلال	-6878
▁ریکی	-6879
▁ملکے	-6880
▁امانؔ	-6881
▁رنداں	-6882
▁قدرتی	-6883
عود	-6884
▁اۆ	-6885
▁گے	-6886
imes	-6887
▁ھمبل	-6888
▁آیگءَ	-6889
▁اَبید	-6890
▁ھلاسی	-6891
▁عبدالص	-6892
▁ورنایاں	-6893
▁اِھوالکار	-6894
مانگ	-6895
▁چکے	-6896
▁describ	-6897
▁توانائی	-6898
▁دیوک	-6899
▁سلاح	-6900
▁عبدالو	-6901
ستگ۔	-6902
▁مسال	-6903
▁سیزدہ	-6904
▁چھبار	-6905
▁دلپدردی	-6906
اظ	-6907
گرگ	-6908
ندان	-6909
roup	-6910
لبزانک	-6911
▁دوران	-6912
▁ہمیشی	-6913
▁bro	-6914
▁موج	-6915
▁نتی	-6916
▁واباں	-6917
▁گُڑ	-6918
▁شرکت	-6919
▁قائم	-6920
▁کونڈ	-6921
ople	-6922
▁آھت	-6923
▁ذہنی	-6924
حان	-6925
▁run	-6926
▁down	-6927
▁ادارگ	-6928
▁ساڑ	-6929
▁چاگ	-6930
▁سسّا	-6931
▁پوری	-6932
▁کابل	-6933
▁بیتاں	-6934
▁زانیں	-6935
▁سروزیر	-6936
▁مھتل	-6937
▁ھژدہ	-6938
▁زلورت	-6939
▁ارزانی	-6940
▁نگیگ	-6941
▁اولاک	-6942
اءَ	-6943
وشگ	-6944
aking	-6945
▁بیھار	-6946
چان	-6947
▁کف	-6948
▁ہب	-6949
▁شرط	-6950
▁disc	-6951
▁تصور	-6952
▁شانت	-6953
▁اظہار	-6954
▁پیگمبر	-6955
▁ھمرائی	-6956
▁along	-6957
▁اخلاق	-6958
▁براھوئی	-6959
▁شیپ	-6960
▁بنزہ	-6961
▁قربانی	-6962
▁رودراتکی	-6963
پُ	-6964
▁توبہ	-6965
▁ہوتے	-6966
ٹڈ	-6967
▁بَل	-6968
▁مھکمیں	-6969
▁زَر	-6970
ccess	-6971
اتانی	-6972
▁اشتاپ	-6973
▁وھدءِ	-6974
▁ڈبلیو	-6975
▁کلمتی	-6976
لءِ	-6977
سریں	-6978
▁عجب	-6979
▁لچہّ	-6980
▁تاپ	-6981
▁طبی	-6982
▁شپءِ	-6983
▁اشیءِ	-6984
▁دربرگ	-6985
▁کارندھاں	-6986
▁کرز	-6987
▁زوان	-6988
▁گوھر	-6989
▁انڈیا	-6990
▁یونان	-6991
▁پیشدارگ	-6992
▁اێ	-6993
▁رزا	-6994
▁سست	-6995
▁رھبندانی	-6996
وران	-6997
▁May	-6998
▁دمب	-6999
▁فلم	-7000
▁صادق	-7001
▁پئیم	-7002
▁آهانی	-7003
▁ذریعہ	-7004
▁پلامرزی	-7005
▁ریم	-7006
▁سوشلزم	-7007
ابان	-7008
▁آیک	-7009
▁ربید	-7010
▁ھژدری	-7011
دپتر	-7012
پرچا	-7013
▁feat	-7014
▁inst	-7015
▁پرست	-7016
وداں	-7017
▁لونج	-7018
▁خلافا	-7019
▁گندیں	-7020
▁ایرانءِ	-7021
▁American	-7022
▁دوئینانی	-7023
ؤل	-7024
قع	-7025
تءُ	-7026
▁بم	-7027
▁پِڑ	-7028
▁said	-7029
▁کمکیں	-7030
▁دیمرئی	-7031
چل	-7032
لوب	-7033
ویج	-7034
نائز	-7035
▁imp	-7036
▁نزر	-7037
▁dist	-7038
▁اِست	-7039
▁inf	-7040
▁یکجا	-7041
▁بیانیہ	-7042
▁باش	-7043
▁رَو	-7044
▁حفیظ	-7045
▁پنجابی	-7046
▁بلوچیءَ	-7047
ink	-7048
▁ins	-7049
▁ناگی	-7050
▁نیار	-7051
▁تاکاں	-7052
خوف	-7053
▁کائنات	-7054
▁کمیونسٹ	-7055
ِنگ	-7056
▁سٹی	-7057
▁اناں	-7058
▁گھار	-7059
▁سینٹر	-7060
▁درکپتگ	-7061
ّءِ	-7062
▁تلار	-7063
▁کارڈ	-7064
▁میانی	-7065
▁براتاں	-7066
▁کالونی	-7067
ty	-7068
یمنیں	-7069
▁شامل	-7070
▁وشّیں	-7071
▁کُلیں	-7072
▁گیٹ	-7073
▁ماھی	-7074
▁میوز	-7075
▁جہگیر	-7076
▁داشتگ۔	-7077
▁mil	-7078
▁فیس	-7079
▁لاچ	-7080
▁سپاہ	-7081
▁صبور	-7082
▁کانگ	-7083
▁these	-7084
▁گرانی	-7085
enn	-7086
برگ	-7087
عتی	-7088
▁Ger	-7089
▁وھدا	-7090
▁کارندھانی	-7091
ium	-7092
▁Bl	-7093
gest	-7094
▁پٹّ	-7095
▁نہاد	-7096
▁حاکمی	-7097
▁داشتگیں	-7098
ven	-7099
▁بلال	-7100
ull	-7101
▁پجّ	-7102
▁سالیں	-7103
▁جسمانی	-7104
▁تمب	-7105
▁منط	-7106
▁مَنّ	-7107
▁جھمنندیں	-7108
اخ	-7109
وکری	-7110
▁Aust	-7111
▁سمائی	-7112
▁عبادت	-7113
▁میران	-7114
▁دژمنیں	-7115
▁شئیرانی	-7116
ن۔	-7117
▁ٹوھیں	-7118
ڈول	-7119
▁آنہ	-7120
▁بول	-7121
▁بیٹ	-7122
▁resp	-7123
▁تھانہ	-7124
مون	-7125
▁؂۔	-7126
▁جع	-7127
▁باغ	-7128
▁عبد	-7129
▁یکت	-7130
▁اِتیں	-7131
▁حیثیت	-7132
تاج	-7133
ژنی	-7134
▁عوامی	-7135
پارٹمنٹ	-7136
ندری	-7137
▁جات	-7138
▁واس	-7139
ریٹری	-7140
▁اتگ۔	-7141
▁بجار	-7142
▁عالمی	-7143
کریم	-7144
▁زُوت	-7145
ruct	-7146
▁نبوت	-7147
▁کیلو	-7148
روانیں	-7149
▁سالءَ	-7150
▁کتابءِ	-7151
▁گوریچانی	-7152
ئس	-7153
▁ونڈ	-7154
▁چمان	-7155
▁بانُک	-7156
▁بحرین	-7157
▁لینگویج	-7158
َو	-7159
ured	-7160
▁موض	-7161
▁تاکے	-7162
▁دچار	-7163
▁هزار	-7164
▁گروک	-7165
▁though	-7166
▁رول	-7167
▁ٹیبل	-7168
▁ھُشک	-7169
ove	-7170
نتہ	-7171
▁وات	-7172
▁چید	-7173
▁ship	-7174
▁اِیش	-7175
▁کرام	-7176
▁کلچر	-7177
▁کمّے	-7178
ازن	-7179
▁اوشتا	-7180
▁اَتنت	-7181
▁سواری	-7182
▁سائنسدان	-7183
▁جہت	-7184
▁زمی	-7185
▁زھم	-7186
قوب	-7187
▁oper	-7188
▁بُرزیں	-7189
▁شئ	-7190
کتاب	-7191
▁حنیف	-7192
▁لیڈر	-7193
▁بزگیں	-7194
▁گُشنت	-7195
▁کْوہ	-7196
▁گلزار	-7197
▁British	-7198
▁تچکی	-7199
▁کاگدے	-7200
▁زورآ	-7201
▁ڈرون	-7202
▁ھشکیں	-7203
▁prev	-7204
▁until	-7205
▁راستے	-7206
▁تَر	-7207
ہءِ	-7208
▁ہمگر	-7209
▁زہری	-7210
itt	-7211
cept	-7212
▁ماھل	-7213
▁ایمنیں	-7214
▁تالبان	-7215
صوص	-7216
▁غر	-7217
amed	-7218
ٹیکل	-7219
▁چکاں	-7220
▁فرمان	-7221
▁ھُزدار	-7222
▁car	-7223
▁خاط	-7224
▁پہل	-7225
▁لئیب	-7226
▁لولی	-7227
▁ندیم	-7228
▁پیداگ	-7229
▁تعالیٰ	-7230
سوس	-7231
هءِ	-7232
وام	-7233
▁start	-7234
▁رہادگ	-7235
▁درمیان	-7236
▁یاتانی	-7237
▁بشکھندگ	-7238
▁نگر	-7239
▁جنسی	-7240
▁نائب	-7241
نیشنل	-7242
▁شوق	-7243
▁نقش	-7244
▁وَت	-7245
▁city	-7246
▁زنڈیں	-7247
▁کْوھنیں	-7248
ویے	-7249
▁سگّ	-7250
▁چال	-7251
اسانی	-7252
▁زاتی	-7253
▁gener	-7254
▁گوٛشئے	-7255
▁نیتکگ	-7256
▁نُوں	-7257
▁گہتر	-7258
▁ملکءِ	-7259
منءَ	-7260
▁آسے	-7261
▁same	-7262
▁قابل	-7263
▁کوسٹ	-7264
▁پلانی	-7265
ains	-7266
▁ماب	-7267
▁راہے	-7268
▁سوبی	-7269
▁نئیل	-7270
یلا	-7271
▁War	-7272
▁پدم	-7273
▁حدیث	-7274
▁وردن	-7275
▁اللَّه	-7276
ism	-7277
ists	-7278
ورءَ	-7279
▁جہلی	-7280
▁کشیں	-7281
تِر	-7282
ided	-7283
ially	-7284
ارد	-7285
▁جیونی	-7286
▁گاڑیاں	-7287
بریری	-7288
▁گُشاں	-7289
▁براہوئی	-7290
▁آزمانکاں	-7291
▁نمب	-7292
▁نوجوان	-7293
▁released	-7294
▁هُ	-7295
▁land	-7296
▁روئے	-7297
چن	-7298
▁روبر	-7299
▁گوْر	-7300
▁نادرا	-7301
▁پکرانی	-7302
▁ھزارانی	-7303
بندیں	-7304
▁دیگی	-7305
▁نِند	-7306
سنگ	-7307
▁Car	-7308
▁war	-7309
▁اصلی	-7310
▁شگان	-7311
▁پرچی	-7312
▁جوڑشت	-7313
▁لاچاری	-7314
هاں	-7315
▁گي	-7316
▁any	-7317
▁own	-7318
▁بورڈ	-7319
▁وسائل	-7320
▁سلاھاں	-7321
▁رہی	-7322
▁بندے	-7323
▁مدینہ	-7324
▁میتگاں	-7325
▁اِنت۔۔۔	-7326
▁شھیدانی	-7327
شع	-7328
گڈا	-7329
▁مغ	-7330
رانت	-7331
وئیں	-7332
▁گْوادر	-7333
▁براتانی	-7334
▁چئیرمین	-7335
زانی	-7336
▁prov	-7337
▁روت۔	-7338
▁مزنی	-7339
▁return	-7340
▁13	-7341
▁چَم	-7342
اتءِ	-7343
فارم	-7344
▁اِشت	-7345
▁پہریز	-7346
▁خد	-7347
قراط	-7348
▁air	-7349
▁کمّ	-7350
▁They	-7351
▁ڈرامہ	-7352
▁کنز	-7353
erson	-7354
▁درکپ	-7355
▁پادا	-7356
▁زوتاں	-7357
▁نئیکہ	-7358
▁واھشت	-7359
▁پریشانی	-7360
oman	-7361
▁صدیق	-7362
▁پڑءَ	-7363
▁music	-7364
▁درونت	-7365
▁km	-7366
دھمی	-7367
▁جوز	-7368
▁زبھر	-7369
▁شُت۔	-7370
▁وارت۔	-7371
ئنت	-7372
▁دژ	-7373
ajor	-7374
▁گِدار	-7375
▁design	-7376
▁Pl	-7377
میٹر	-7378
▁روم	-7379
▁محدود	-7380
▁بروکیں	-7381
▁ہزاراں	-7382
▁آرگنائز	-7383
▁افلاطون	-7384
▁شرم	-7385
▁چور	-7386
ash	-7387
نچک	-7388
ible	-7389
▁بیمن	-7390
▁رودر	-7391
▁باھوٹ	-7392
▁توارءَ	-7393
ہءَ	-7394
▁ھنر	-7395
▁بغیر	-7396
▁بیماری	-7397
osed	-7398
▁بیچ	-7399
ّینتگ	-7400
▁آخری	-7401
▁اپنا	-7402
▁ببنت	-7403
▁سیکی	-7404
▁ہمنچو	-7405
▁زانتکاریں	-7406
کتگ	-7407
وکیٹ	-7408
▁sim	-7409
▁گریب	-7410
▁const	-7411
▁appear	-7412
▁million	-7413
ارق	-7414
▁جزبگ	-7415
▁خطرہ	-7416
▁لانک	-7417
باتی	-7418
▁ہاس	-7419
▁مُلّ	-7420
شنل	-7421
رافی	-7422
▁mat	-7423
زگاری	-7424
▁بُوان	-7425
▁because	-7426
▁fam	-7427
▁use	-7428
▁چان	-7429
▁گلہ	-7430
▁ھرو	-7431
▁area	-7432
جے	-7433
وؔ	-7434
▁پْ	-7435
جمیں	-7436
▁عاد	-7437
پارٹی	-7438
▁توری	-7439
سیم	-7440
نیک	-7441
۔اے	-7442
▁پَچ	-7443
▁سازگ	-7444
▁ہاتر	-7445
▁بستارے	-7446
▁ہمگرنچ	-7447
▁ph	-7448
▁دَہ	-7449
▁ظہور	-7450
▁لیکگ	-7451
▁عثمان	-7452
▁کاپٹر	-7453
▁آسکانی	-7454
▁Aug	-7455
اوں	-7456
نٹی	-7457
▁ئت	-7458
▁Chr	-7459
▁جمب	-7460
▁ٹیل	-7461
▁چمے	-7462
▁یَک	-7463
بندین	-7464
▁ڈالچار	-7465
▁لپ	-7466
زاری	-7467
▁باو	-7468
▁گِپتگ	-7469
▁August	-7470
چم	-7471
▁پھک	-7472
▁پگار	-7473
▁گوٛر	-7474
▁فورسز	-7475
▁مسعود	-7476
▁گوراں	-7477
▁جنجالاں	-7478
ذی	-7479
▁occ	-7480
▁چما	-7481
▁ھوت	-7482
▁زاری	-7483
▁رکّینگ	-7484
▁عبدالغ	-7485
▁کھولاں	-7486
▁جہہ	-7487
▁کاک	-7488
کراچی	-7489
▁مرزا	-7490
▁سَوَب	-7491
▁قربان	-7492
▁چھر	-7493
▁سواد	-7494
▁پٹءُ	-7495
▁اینکس	-7496
▁موسمی	-7497
▁قومانی	-7498
▁نزینکی	-7499
▁ودّ	-7500
گواجہ	-7501
▁open	-7502
▁دلاں	-7503
▁منتگ	-7504
پش	-7505
▁اٗ	-7506
▁حج	-7507
▁منٹ	-7508
▁like	-7509
▁عہدی	-7510
ہگ	-7511
ony	-7512
▁رے	-7513
▁بزرگ	-7514
▁کاپر	-7515
▁پرنگی	-7516
▁پُترت	-7517
▁گوٛشت۔	-7518
مح	-7519
مو	-7520
▁مجگ	-7521
▁دلمراد	-7522
▁success	-7523
نءَ	-7524
▁سئ	-7525
▁پَہ	-7526
باریں	-7527
▁توکءَ	-7528
▁گواچن	-7529
زیل	-7530
▁رات	-7531
▁لاھ	-7532
▁شیطان	-7533
▁بوتاں۔	-7534
▁سادگیں	-7535
ole	-7536
اول	-7537
یشل	-7538
ouse	-7539
▁فرد	-7540
▁داخل	-7541
▁لحاظ	-7542
▁کنگ۔	-7543
erv	-7544
زءَ	-7545
▁کڈ	-7546
▁شہداد	-7547
نجیں	-7548
▁آوت	-7549
▁مهر	-7550
▁دعویٰ	-7551
▁لوگوں	-7552
دلی	-7553
هءَ	-7554
کایت	-7555
▁تحت	-7556
▁دابے	-7557
▁کتءُ	-7558
▁count	-7559
▁جَنَگ	-7560
▁شعراں	-7561
▁ریپبلکن	-7562
رھ	-7563
oss	-7564
بادی	-7565
▁بڑی	-7566
▁روب	-7567
▁pass	-7568
▁اِنتءُ	-7569
سند	-7570
▁وغ	-7571
اوند	-7572
▁ءُْ	-7573
▁اڑے	-7574
▁بریں	-7575
▁مہری	-7576
▁ھوری	-7577
▁انسانیت	-7578
▁زانتکارانی	-7579
دیگ	-7580
▁eff	-7581
▁بجن	-7582
▁ثنا	-7583
▁اوگام	-7584
▁شیرین	-7585
▁انچوشکہ	-7586
▁گێ	-7587
▁جور	-7588
▁پُرا	-7589
▁مغربی	-7590
▁اشتاپی	-7591
▁دمانءَ	-7592
راجی	-7593
▁ڈکّ	-7594
chool	-7595
▁people	-7596
my	-7597
تال	-7598
تنت	-7599
▁آرتگ	-7600
▁بزّگ	-7601
▁کپتاں	-7602
▁الرحمن	-7603
▁پارلیمنٹ	-7604
und	-7605
▁اہل	-7606
▁خوب	-7607
▁مسی	-7608
▁وَر	-7609
▁سانک	-7610
▁کتیں	-7611
▁اسکور	-7612
قد	-7613
▁Sp	-7614
▁ڈوب	-7615
▁کنٹ	-7616
▁۔ءُ	-7617
▁مادی	-7618
▁پاشک	-7619
ھوں	-7620
ئگءَ	-7621
اسلام	-7622
▁منشی	-7623
▁اَتاں	-7624
▁رکھینگ	-7625
٭٭٭٭	-7626
▁اکرم	-7627
▁بزگر	-7628
▁درگتا	-7629
stem	-7630
میری	-7631
▁بیغ	-7632
▁جنوز	-7633
▁حکمت	-7634
▁دوسرے	-7635
▁شائرے	-7636
▁ھشتاد	-7637
▁اِتگیں	-7638
▁دوستدار	-7639
▁زوراکیں	-7640
پو	-7641
▁Cl	-7642
▁آگوں	-7643
▁سَکّ	-7644
▁offic	-7645
▁اہمیت	-7646
▁جنگول	-7647
شُ	-7648
ets	-7649
لاس	-7650
نگاں	-7651
▁ملی	-7652
▁سُبک	-7653
▁کُٹّ	-7654
▁ہساب	-7655
▁بگْوش	-7656
▁یعقوب	-7657
uth	-7658
نچی	-7659
کءِ	-7660
شتیں	-7661
▁تکلی	-7662
▁طبقہ	-7663
▁تحقیق	-7664
▁درکنگ	-7665
▁درگتءَ	-7666
الو	-7667
ange	-7668
▁six	-7669
▁جال	-7670
▁ھاں	-7671
▁ثبوت	-7672
▁تکانسر	-7673
▁گشتانک	-7674
▁زوراکیاں	-7675
▁دَم	-7676
▁هئی	-7677
▁مائی	-7678
▁مدتے	-7679
▁تنظیم	-7680
▁سرکارءِ	-7681
ues	-7682
روس	-7683
▁پکرءُ	-7684
▁گوٛرا	-7685
▁بلاہیں	-7686
کّہ	-7687
▁دس	-7688
▁ٹاپ	-7689
▁راھی	-7690
▁دوئیناں	-7691
▁ائی	-7692
▁مُن	-7693
پمیشا	-7694
▁سراج	-7695
مِ	-7696
▁جنس	-7697
▁زگریں	-7698
▁حیالاں	-7699
▁کتابجاہ	-7700
آرگ	-7701
▁195	-7702
▁است۔	-7703
▁تھاری	-7704
▁زمینءِ	-7705
رمند	-7706
▁support	-7707
؟"	-7708
▁آسی	-7709
▁لینڈ	-7710
▁مانگیش	-7711
یی	-7712
الح	-7713
ومتی	-7714
▁ھُب	-7715
وزیشن	-7716
▁بیسہ	-7717
▁انجین	-7718
مول	-7719
▁سخ	-7720
ائیش	-7721
ُکیں	-7722
▁ٹہی	-7723
▁بکار	-7724
نود	-7725
ردان	-7726
▁ارت	-7727
▁پٹی	-7728
▁پریشر	-7729
▁نفسیات	-7730
خر	-7731
▁دؤ	-7732
▁ٹور	-7733
▁بیتیں	-7734
▁نازرکیں	-7735
عے	-7736
▁٭٭	-7737
▁رادگ	-7738
▁around	-7739
راپ	-7740
▁حالانی	-7741
▁گوازینتگ	-7742
ریر	-7743
▁تَرّ	-7744
▁گالے	-7745
▁small	-7746
▁بگندے	-7747
▁گومازی	-7748
▁جمہوریت	-7749
▁ده	-7750
▁Col	-7751
▁سیہ	-7752
▁تمامیں	-7753
▁لگتمال	-7754
▁یکرندے	-7755
؟’’	-7756
ناہ	-7757
▁سمل	-7758
▁Sept	-7759
▁واریں	-7760
▁بلوچءَ	-7761
▁However	-7762
زد	-7763
▁mod	-7764
▁جلس	-7765
▁تکاں	-7766
▁جتیں	-7767
▁زاہد	-7768
▁سبزل	-7769
▁مزاحمتی	-7770
▁رپک	-7771
▁نبیسی	-7772
▁dam	-7773
▁چمن	-7774
▁مگسی	-7775
▁کشیت	-7776
قان	-7777
▁لغ	-7778
▁adv	-7779
▁سئیل	-7780
▁شناسی	-7781
▁ننداں	-7782
غنت	-7783
کوہ	-7784
اتون	-7785
▁وڈا	-7786
▁کپنت	-7787
▁متحدہ	-7788
▁بلائیں	-7789
▁کارکرد	-7790
▁انتظامیہ	-7791
▁برف	-7792
▁پرٛ	-7793
▁کَنَگ	-7794
▁تیرانی	-7795
سط	-7796
▁بنگل	-7797
▁گروپ	-7798
▁رؤکیں	-7799
▁دیوانگ	-7800
بح	-7801
اؤن	-7802
▁شکّ	-7803
▁قلعہ	-7804
▁کوھن	-7805
▁Ju	-7806
ندار	-7807
▁ele	-7808
▁جلد	-7809
▁بزیں	-7810
▁توئے	-7811
▁حملؔ	-7812
▁north	-7813
▁کمزور	-7814
▁بارگیں	-7815
▁مولاداد	-7816
میگ	-7817
ales	-7818
ient	-7819
طلاح	-7820
▁شپی	-7821
▁وزم	-7822
▁head	-7823
▁group	-7824
▁اوداں	-7825
▁زوران	-7826
▁وئیلے	-7827
▁پروشت	-7828
▁مارشتے	-7829
ِس	-7830
َّ	-7831
گْو	-7832
▁قدرت	-7833
▁شاگرد	-7834
▁govern	-7835
▁ریفرنس	-7836
raph	-7837
▁سلس	-7838
▁عرض	-7839
▁احتگ	-7840
▁ارزی	-7841
▁تتکگ	-7842
▁ششمی	-7843
▁منوگر	-7844
ناکی	-7845
▁کلہ	-7846
▁جامگ	-7847
▁فٹبال	-7848
▁بُنگیج	-7849
▁character	-7850
انڈ	-7851
▁br	-7852
▁درہ	-7853
▁نگدی	-7854
▁پرشت	-7855
▁گشاد	-7856
▁صبورؔ	-7857
▁پیشدار	-7858
▁Ad	-7859
▁gr	-7860
▁عوام	-7861
▁ماری	-7862
عط	-7863
نڈے	-7864
▁)،	-7865
▁ed	-7866
انچو	-7867
▁اخت	-7868
▁each	-7869
▁شریک	-7870
▁عاجز	-7871
▁پشتو	-7872
▁point	-7873
▁ساچان	-7874
▁نبوتگ	-7875
▁سیمسری	-7876
▁انٹرنیٹ	-7877
▁September	-7878
▁آییا	-7879
▁دَنت	-7880
▁برباد	-7881
▁اژ	-7882
اھان	-7883
wards	-7884
▁عراق	-7885
▁کنگے	-7886
▁گپءِ	-7887
▁consid	-7888
ستے	-7889
▁بُک	-7890
ution	-7891
▁گیرت	-7892
▁دوریں	-7893
▁سوراب	-7894
▁موضوع	-7895
▁مرتگیں	-7896
▁De	-7897
▁دۆ	-7898
▁کرپ	-7899
▁کوه	-7900
▁ٹائم	-7901
▁گیجگ	-7902
▁بلۆچی	-7903
▁پھریز	-7904
▁ھاموش	-7905
▁زندگیءِ	-7906
▁کبرستان	-7907
تما	-7908
واک	-7909
▁بیں	-7910
▁صفحہ	-7911
▁German	-7912
نّت	-7913
▁مخت	-7914
▁سوری	-7915
▁قیمت	-7916
▁گزار	-7917
▁بِزاں	-7918
▁following	-7919
بنت	-7920
▁تُنّ	-7921
▁تھی۔	-7922
▁دویں	-7923
▁سربوت	-7924
▁بادشاه	-7925
▁ھردوکیں	-7926
ومر	-7927
▁ڈاہ	-7928
▁ایسا	-7929
ئل	-7930
کائی	-7931
کسے	-7932
▁باک	-7933
▁سوی	-7934
▁پرّ	-7935
راللہ	-7936
راِنت	-7937
▁life	-7938
▁بلَے	-7939
▁World	-7940
▁دیگءَ	-7941
▁روانکے	-7942
▁لاشانی	-7943
▁الو	-7944
▁شفی	-7945
▁Comm	-7946
▁مردی	-7947
▁دہکان	-7948
▁نماسگ	-7949
الیں	-7950
▁اُشت	-7951
▁کشکے	-7952
کنی	-7953
▁gu	-7954
▁اَن	-7955
▁دوک	-7956
▁مطال	-7957
ستار	-7958
▁All	-7959
▁ھؤر	-7960
▁Austral	-7961
anc	-7962
▁لگا	-7963
▁ورک	-7964
نگانی	-7965
▁دێما	-7966
▁ساریءَ	-7967
براں	-7968
▁یونٹ	-7969
▁انگیر	-7970
▁ann	-7971
▁پروشتگ	-7972
ذر	-7973
زلے	-7974
▁مثل	-7975
▁اقتص	-7976
▁نعمت	-7977
لیٹ	-7978
▁ساچی	-7979
▁کافی	-7980
▁نوروز	-7981
▁بیتگاں	-7982
▁حیالءَ	-7983
▁شائریءِ	-7984
لّیں	-7985
▁فرض	-7986
▁باقی	-7987
▁طارق	-7988
▁کیسگ	-7989
▁یکدم	-7990
▁زانئے	-7991
▁تکنیکی	-7992
▁سردارانی	-7993
بوط	-7994
▁اہد	-7995
▁شپانی	-7996
▁مقامی	-7997
▁دوستاں	-7998
▁کماندار	-7999
▁قانود	-8000
▁contro	-8001
غہ	-8002
طیف	-8003
ural	-8004
مانیں	-8005
▁بودل	-8006
▁پریشی	-8007
▁ہسپتال	-8008
تران	-8009
▁var	-8010
▁زحم	-8011
▁five	-8012
▁مبیت	-8013
ys	-8014
کاف	-8015
▁US	-8016
▁Her	-8017
▁تاس	-8018
▁ھتر	-8019
▁جانے	-8020
▁ٹیسٹ	-8021
▁ات۔۔۔	-8022
▁چاریگ	-8023
▁ھنچشیں	-8024
▁لائبریری	-8025
ged	-8026
هاز	-8027
▁آست	-8028
▁پکّ	-8029
▁کرم	-8030
▁زباد	-8031
▁کَور	-8032
▁آییئے	-8033
▁محکمہ	-8034
▁attack	-8035
▁بلوچیءِ	-8036
هد	-8037
▁193	-8038
▁بھت	-8039
▁سکا	-8040
▁محراب	-8041
شیا	-8042
پیر	-8043
▁مُرت	-8044
ording	-8045
▁شہم	-8046
▁فور	-8047
▁آئین	-8048
▁ماتے	-8049
▁مریم	-8050
▁ہردو	-8051
▁البتہ	-8052
▁شہباز	-8053
▁گوشتی	-8054
▁result	-8055
▁کلکشان	-8056
ءُُ	-8057
ّاس	-8058
ریزی	-8059
▁will	-8060
▁نبیسّگ	-8061
▁تُرندیں	-8062
ina	-8063
▁ہک	-8064
گوری	-8065
▁ٹوہ	-8066
▁کاٹ	-8067
▁لبزے	-8068
▁پمّن	-8069
▁کبھی	-8070
▁جُستے	-8071
لیا	-8072
ُشت	-8073
▁باں۔	-8074
▁بنپد	-8075
▁انہوں	-8076
▁کمکار	-8077
اَت	-8078
▁وپا	-8079
نیاتی	-8080
▁بیزار	-8081
▁کارگشاد	-8082
ck	-8083
ٹیگ	-8084
▁لن	-8085
▁Pro	-8086
▁ever	-8087
▁وراک	-8088
▁گارڈ	-8089
▁دارگی	-8090
▁پدائی	-8091
▁برتانی	-8092
▁لاشاری	-8093
▁معنائی	-8094
ont	-8095
ُرت	-8096
▁پیژ	-8097
▁بارگ	-8098
▁ردءُ	-8099
▁عقلی	-8100
▁وتئی	-8101
▁ڈنّی	-8102
▁ہپتگ	-8103
عا	-8104
▁Eu	-8105
▁191	-8106
▁رضی	-8107
▁شَیر	-8108
▁نشنل	-8109
▁کافر	-8110
▁شلوار	-8111
▁گُشان	-8112
▁نصی	-8113
▁خراب	-8114
▁مڈّی	-8115
▁کَسے	-8116
▁large	-8117
▁مردءِ	-8118
▁دارانی	-8119
▁کارمستر	-8120
▁سیاھ	-8121
اہگ	-8122
▁Me	-8123
▁جێ	-8124
ائین	-8125
▁شُتاں	-8126
روک	-8127
فتہ	-8128
قاع	-8129
ّیتگ	-8130
▁پرز	-8131
▁پلیٹ	-8132
▁بوتءُ	-8133
▁II	-8134
تیں۔	-8135
▁ملو	-8136
▁دارے	-8137
▁گشان	-8138
▁انہیں	-8139
▁گْورءَ	-8140
▁دْراھیں	-8141
یتے	-8142
▁اشان	-8143
▁تئیی	-8144
▁روچا	-8145
▁کمرہ	-8146
▁کَیت	-8147
▁بوتہ۔	-8148
▁جاگھے	-8149
▁پیغام	-8150
▁چیلنج	-8151
▁رژنائی	-8152
▁14	-8153
▁جے	-8154
▁شب	-8155
▁یت	-8156
lish	-8157
▁طرز	-8158
▁درجگ	-8159
▁North	-8160
▁موسیٰ	-8161
▁چُکاں	-8162
▁بوتگءُ	-8163
▁زانشتی	-8164
▁انسانانی	-8165
سو	-8166
َـ	-8167
ێت	-8168
زام	-8169
ھبی	-8170
▁معت	-8171
▁book	-8172
▁سُھر	-8173
▁کرتہ	-8174
▁ایجنسی	-8175
شید	-8176
ling	-8177
▁برْ	-8178
▁توم	-8179
▁مٹّ	-8180
▁ظاھر	-8181
▁زہگاں	-8182
▁کیلئے	-8183
▁نخ	-8184
▁دہک	-8185
▁سُری	-8186
▁مِہر	-8187
▁report	-8188
▁رھشونی	-8189
شم	-8190
بام	-8191
▁سھر	-8192
▁ناس	-8193
▁تاہیر	-8194
▁منارا	-8195
▁پابند	-8196
شرگداری	-8197
▁پیپلزپارٹی	-8198
▁یقین	-8199
▁مشکول	-8200
▁نمونگ	-8201
حد	-8202
▁گج	-8203
▁وپس	-8204
▁سگار	-8205
▁اپوزیشن	-8206
ague	-8207
▁چکر	-8208
▁آسانی	-8209
▁کاردار	-8210
عال	-8211
لوق	-8212
▁بوٹ	-8213
▁Fran	-8214
▁بُنگپ	-8215
▁زندمانی	-8216
▁لبزانکءَ	-8217
اعت	-8218
▁قہر	-8219
▁ہرو	-8220
نبشتہ	-8221
▁بچکے	-8222
▁لائق	-8223
▁کواس	-8224
▁کَنگ	-8225
ینتگیں	-8226
▁سیالی	-8227
▁یکشمبے	-8228
▁تعلقداری	-8229
ble	-8230
▁اِنّ	-8231
▁داتنت	-8232
▁دیمونی	-8233
▁For	-8234
▁جوہر	-8235
▁زندہ	-8236
▁دلمانگ	-8237
▁اَنت۔۔۔	-8238
aced	-8239
انیت	-8240
▁نسی	-8241
ھداری	-8242
▁پہمگ	-8243
▁نندیت	-8244
▁وسیلگ	-8245
▁چریشاں	-8246
▁کلاسیکل	-8247
ox	-8248
hel	-8249
قبل	-8250
ھور	-8251
▁ہج	-8252
▁کڑی	-8253
▁آدمے	-8254
▁ریاض	-8255
▁رئیسی	-8256
َال	-8257
یمن	-8258
▁گلیں	-8259
▁رنگاں	-8260
▁ہنکین	-8261
▁دیواناں	-8262
▁مُز	-8263
▁گاہ	-8264
▁June	-8265
▁شودگ	-8266
▁ایلیٹ	-8267
▁درکیت	-8268
▁سقراط	-8269
▁غل	-8270
اہدہ	-8271
▁کڈن	-8272
▁سارتر	-8273
▁ہدایت	-8274
؟“	-8275
▁رۆ	-8276
▁وٹ	-8277
▁مُرد	-8278
▁ھرنائی	-8279
زیر	-8280
▁بهر	-8281
▁دزب	-8282
▁راہی	-8283
▁نثار	-8284
▁ڈگری	-8285
▁گوازین	-8286
▁پارٹیءِ	-8287
▁گوازینت	-8288
نیل	-8289
▁زن	-8290
ives	-8291
▁tit	-8292
ended	-8293
▁اوں۔	-8294
▁بھائی	-8295
▁قحطانی	-8296
dom	-8297
ilt	-8298
▁ھڈ	-8299
▁لاف	-8300
▁دریں	-8301
▁مگرب	-8302
▁گوں۔	-8303
▁گاماں	-8304
زءِ	-8305
▁سؤ	-8306
▁بولی	-8307
▁تماش	-8308
▁صوفی	-8309
▁ٹرال	-8310
▁زندءُ	-8311
▁پرشتگ	-8312
▁کئ	-8313
▁بلند	-8314
▁ملور	-8315
▁گاری	-8316
▁ایشیا	-8317
▁رنگءُ	-8318
▁اصطلاح	-8319
▁جُستانی	-8320
▁زیک	-8321
▁جبین	-8322
▁شیشگ	-8323
▁شئیرے	-8324
▁جعفر	-8325
▁کدیم	-8326
▁امکان	-8327
▁بدلءَ	-8328
▁تراکن	-8329
med	-8330
▁الْ	-8331
▁زاھد	-8332
▁سگی۔	-8333
▁کرکے	-8334
▁اثرات	-8335
▁دمکاں	-8336
ats	-8337
زیہ	-8338
▁prom	-8339
▁ریسر	-8340
▁ٹیکی	-8341
eb	-8342
▁دھر	-8343
▁پُش	-8344
▁گیل	-8345
▁week	-8346
▁آہان	-8347
▁توکل	-8348
▁حداءِ	-8349
▁داشت۔	-8350
▁مسکرا	-8351
فارمیشن	-8352
▁اَت۔۔۔	-8353
دُ	-8354
ینتگ	-8355
▁راس	-8356
▁خواہ	-8357
▁ارشانی	-8358
▁بچکندگ	-8359
▁کابینہ	-8360
!’’	-8361
ناد	-8362
ately	-8363
aving	-8364
▁پروج	-8365
▁سالءِ	-8366
▁کنائینتگ	-8367
ودہ	-8368
کوٹ	-8369
ored	-8370
▁ندی	-8371
▁کلگ	-8372
▁اُستان	-8373
▁شوربندی	-8374
▁ایردستیں	-8375
طینی	-8376
گدار	-8377
▁str	-8378
▁پما	-8379
▁ایسے	-8380
▁مدار	-8381
▁شپانک	-8382
▁بوؤکیں	-8383
ژدر	-8384
▁أل	-8385
ائمہ	-8386
▁Jan	-8387
▁تہرے	-8388
▁مدان	-8389
▁نگار	-8390
▁کائی	-8391
▁سالروچ	-8392
▁گُلزمین	-8393
تکی	-8394
روائی	-8395
▁اَرز	-8396
▁final	-8397
▁سدانی	-8398
▁ھکومت	-8399
▁زندانی	-8400
▁اندوہ	-8401
▁فدائی	-8402
▁وغیرہ	-8403
▁درآمدیں	-8404
▁دالبندین	-8405
خط	-8406
▁سح	-8407
ژناگ	-8408
▁چپی	-8409
▁دورے	-8410
▁شعبہ	-8411
▁گریو	-8412
▁since	-8413
▁گپّءَ	-8414
▁States	-8415
▁بوھگءَ	-8416
ئےِ	-8417
▁تاگت	-8418
▁جیسے	-8419
▁لیکہانی	-8420
▁سیکیورٹی	-8421
▁الب	-8422
▁جننت	-8423
▁رزاق	-8424
▁ایجنٹ	-8425
▁بکنیں	-8426
▁دنیگہ	-8427
▁جنیناں	-8428
▁دوشمبے	-8429
▁ملاز	-8430
یرءِ	-8431
▁عنہ	-8432
▁قید	-8433
▁جامی	-8434
▁ماڈل	-8435
▁major	-8436
▁درچکے	-8437
▁پریدہ	-8438
▁گُلیں	-8439
▁جھدکار	-8440
▁فلسفہءِ	-8441
َہ	-8442
▁نھاد	-8443
▁نیاتک	-8444
▁امبازاں	-8445
یکر	-8446
ریءَ	-8447
▁تشد	-8448
▁لڈّ	-8449
▁پشتی	-8450
▁south	-8451
▁زانشی	-8452
▁وداریگ	-8453
▁یکروچے	-8454
▁received	-8455
لت	-8456
▁ریڈ	-8457
▁سھی	-8458
▁وابی	-8459
▁بِلّے	-8460
▁مڈیانی	-8461
▁شیئ	-8462
▁پتو	-8463
▁پوک	-8464
▁دئور	-8465
▁South	-8466
▁إیران	-8467
▁بْرات	-8468
▁واجہی	-8469
ivision	-8470
▁نفسیاتی	-8471
تہ۔	-8472
▁Gu	-8473
ائینگ	-8474
اداری	-8475
▁پگری	-8476
▁دوسری	-8477
▁دروریں	-8478
▁گْوشت۔	-8479
ax	-8480
راف	-8481
گُڑا	-8482
▁سلط	-8483
▁قند	-8484
▁نین	-8485
▁name	-8486
▁اشرف	-8487
▁تیرے	-8488
▁تراکناکیں	-8489
مَا	-8490
▁حاض	-8491
▁نرس	-8492
ology	-8493
▁بِیت	-8494
▁رپتگ	-8495
▁زیاد	-8496
▁مِھر	-8497
▁نعیم	-8498
▁دْراہ	-8499
▁چارءُ	-8500
▁گونڈو	-8501
۔۔۔۔۔۔۔	-8502
▁partic	-8503
▁زوربیگواہیں	-8504
ery	-8505
‘‘،	-8506
نمنٹ	-8507
▁hel	-8508
▁ساک	-8509
▁ایرج	-8510
▁ملین	-8511
▁مڑدم	-8512
اون	-8513
▁سْ	-8514
ادءَ	-8515
توار	-8516
▁آھی	-8517
▁یہی	-8518
▁آنلا	-8519
▁گوزان	-8520
▁بِندات	-8521
▁سینگار	-8522
▁نیاتکگ	-8523
▁سڑ	-8524
▁شکست	-8525
▁اجتما	-8526
▁مسلمانانی	-8527
▁وب	-8528
▁رئو	-8529
▁سرو	-8530
▁کبز	-8531
▁آگاہ	-8532
▁رُستگ	-8533
▁محسوس	-8534
▁کُرتگ۔	-8535
▁تکانسری	-8536
▁سنگینیں	-8537
▁موسمانی	-8538
▁نبشتانکاں	-8539
َس	-8540
راس	-8541
حالی	-8542
ption	-8543
▁دزمان	-8544
▁ہزدار	-8545
▁Christ	-8546
▁Oct	-8547
▁طوف	-8548
▁پھم	-8549
▁care	-8550
▁چیزّ	-8551
▁دستون	-8552
▁ماحول	-8553
راست	-8554
▁rest	-8555
▁کتنت	-8556
▁برورد	-8557
▁بھارت	-8558
▁وانیت	-8559
▁پُشتی	-8560
▁public	-8561
▁بودلئیر	-8562
ڈے	-8563
کوپ	-8564
▁شت۔	-8565
▁کیں	-8566
▁قیامت	-8567
▁system	-8568
کپ	-8569
برو	-8570
ـُـ	-8571
▁سات	-8572
▁مکتب	-8573
▁نوکر	-8574
▁مُچّی	-8575
▁ھوشاپ	-8576
▁تْرانگ	-8577
▁Be	-8578
امین	-8579
▁بڈّ	-8580
▁تُپ	-8581
ected	-8582
▁کرنل	-8583
▁کیا۔	-8584
▁دونوں	-8585
▁پارلیمانی	-8586
ility	-8587
▁بسمل	-8588
▁گریت	-8589
▁ساھتے	-8590
▁کاریز	-8591
▁گپتگ۔	-8592
ae	-8593
▁()	-8594
ting	-8595
کنان	-8596
▁تامُر	-8597
▁تاکانی	-8598
▁اُو	-8599
▁زون	-8600
▁مقد	-8601
▁کوت	-8602
▁King	-8603
▁جنکو	-8604
▁زُورگ	-8605
▁کمّیں	-8606
▁ہنداں	-8607
▁گواچنی	-8608
▁سہت	-8609
▁وہاں	-8610
▁state	-8611
▁آسرءَ	-8612
▁بیمار	-8613
▁بیگءِ	-8614
نبی	-8615
نٹر	-8616
▁گه	-8617
بچار	-8618
▁فرو	-8619
▁ہو۔	-8620
▁batt	-8621
▁براد	-8622
▁رابطہ	-8623
▁روایتی	-8624
▁گونگیں	-8625
▁پیسریگیں	-8626
▁انٹرنیشنل	-8627
هانی	-8628
▁آپہ	-8629
▁what	-8630
▁آپءِ	-8631
▁ریسرچ	-8632
▁مرکزی	-8633
▁نابود	-8634
▁بیت۔اے	-8635
▁دیوانءَ	-8636
ages	-8637
▁زاکر	-8638
▁زَرّ	-8639
▁ادریس	-8640
uary	-8641
ائنٹ	-8642
▁جنکّ	-8643
▁ھزمت	-8644
▁دودانی	-8645
rand	-8646
▁جهد	-8647
▁سبا	-8648
راہیم	-8649
▁last	-8650
▁بیرگ	-8651
▁شاہی	-8652
▁شوکت	-8653
▁ملیر	-8654
▁وراں	-8655
▁سازیں	-8656
▁علاوہ	-8657
▁مستاگ	-8658
▁وہدءِ	-8659
▁انتظام	-8660
وکا	-8661
ُست	-8662
▁داک	-8663
▁طالب	-8664
▁بُنءَ	-8665
▁بوتنت۔	-8666
▁جاگہاں	-8667
▁described	-8668
نجی	-8669
▁جۆ	-8670
▁اِس	-8671
▁سردی	-8672
▁مہتل	-8673
▁گْواز	-8674
▁گہتری	-8675
▁October	-8676
شل	-8677
داتگ	-8678
▁نعرہ	-8679
▁گوئشان	-8680
شما	-8681
ماھ	-8682
▁طلب	-8683
▁گین	-8684
▁ھلو	-8685
▁line	-8686
▁دلسی	-8687
▁پلاں	-8688
▁ھوال	-8689
▁کماشیں	-8690
چھ	-8691
سیل	-8692
▁بق	-8693
▁تض	-8694
▁نازل	-8695
▁ڈکال	-8696
▁class	-8697
▁اقتصادی	-8698
▁انفارمیشن	-8699
▁det	-8700
▁بھٹو	-8701
▁چُکے	-8702
▁عابدہ	-8703
▁گندءُ	-8704
▁بنگیجی	-8705
▁میتگءِ	-8706
▁ترام	-8707
▁کوھلو	-8708
▁رہبندانی	-8709
▁استت	-8710
▁نێست	-8711
▁وہدا	-8712
▁یاتاں	-8713
ابہ	-8714
صورت	-8715
▁جھی	-8716
افاضل	-8717
▁اُدا	-8718
▁باقاع	-8719
▁تہنائی	-8720
▁واھگاں	-8721
▁کوہانی	-8722
▁کپتگاں	-8723
ــــــــــــــــ	-8724
الف	-8725
زیب	-8726
raft	-8727
▁Nov	-8728
▁پسّ	-8729
iving	-8730
▁کوشت	-8731
▁پورسز	-8732
▁ادارہاں	-8733
نف	-8734
▁لیل	-8735
▁اَلّ	-8736
▁ترتی	-8737
▁مہرءُ	-8738
▁played	-8739
مالک	-8740
▁شمس	-8741
▁مچک	-8742
▁نپر	-8743
▁ٹرک	-8744
▁prot	-8745
▁جانب	-8746
▁راضی	-8747
▁مادر	-8748
▁incre	-8749
▁گشندہ	-8750
عام	-8751
▁ہد	-8752
▁mar	-8753
▁شرت	-8754
▁ٹاہی	-8755
▁زیکیں	-8756
▁لاھور	-8757
▁پسندیں	-8758
aur	-8759
ھیر	-8760
▁25	-8761
▁ہمیں	-8762
▁جیڑھے	-8763
▁روانی	-8764
▁کیفیت	-8765
ropical	-8766
▁لونجان	-8767
▁میتگءَ	-8768
ھک	-8769
▁now	-8770
▁بُز	-8771
▁دمے	-8772
▁میٹ	-8773
ified	-8774
▁took	-8775
▁دیوت	-8776
▁کوھاں	-8777
▁درانڈی	-8778
پاکستانی	-8779
aim	-8780
▁Par	-8781
▁چِد	-8782
▁صالح	-8783
▁جمہوری	-8784
▁نادُراھجاہ	-8785
▁رَس	-8786
ional	-8787
▁اُود	-8788
▁بازارءَ	-8789
get	-8790
بنی	-8791
سیگ	-8792
ants	-8793
rote	-8794
▁آکسی	-8795
▁ارزشتے	-8796
▁زہگانی	-8797
ody	-8798
▁چگ	-8799
▁جین	-8800
▁شاب	-8801
▁شالا	-8802
▁یکجاھی	-8803
ڈین	-8804
▁هیال	-8805
▁آئیئَ	-8806
▁جمبراں	-8807
▁کارروائی	-8808
تگی	-8809
▁؟‘‘	-8810
▁حاط	-8811
▁سلو	-8812
▁کَل	-8813
ively	-8814
▁ملّا	-8815
▁build	-8816
▁ایوان	-8817
▁بُوَگ	-8818
▁علمءِ	-8819
▁لسانی	-8820
▁حالتاک	-8821
▁دانشور	-8822
ویر	-8823
ّیت	-8824
▁خل	-8825
▁ابدل	-8826
▁ایسی	-8827
▁سادہ	-8828
▁معنہ	-8829
▁پورٹ	-8830
▁کرتی	-8831
▁world	-8832
▁ریکانی	-8833
▁۔۔۔۔۔۔۔۔۔	-8834
yc	-8835
نگال	-8836
▁Dec	-8837
▁late	-8838
▁کشان	-8839
▁بنگالی	-8840
و۔	-8841
▁دھک	-8842
نائیں	-8843
▁شادی	-8844
▁ملاق	-8845
▁ویڈیو	-8846
▁کانودی	-8847
▁لق	-8848
▁لاک	-8849
▁مَٹ	-8850
▁نگہ	-8851
▁تازی	-8852
▁تشدد	-8853
▁سبزی	-8854
▁کوار	-8855
▁مراگشے	-8856
هِ	-8857
وناک	-8858
▁غری	-8859
▁July	-8860
▁جلوہ	-8861
▁مستی	-8862
▁اسپتال	-8863
▁شوھازگ	-8864
▁پیداوار	-8865
مھ	-8866
ایم	-8867
ُتگ	-8868
▁رض	-8869
▁جئی	-8870
▁فیصل	-8871
▁wrote	-8872
▁بامرد	-8873
▁گیشین	-8874
▁ھمنکس	-8875
▁سرگرمی	-8876
▁دُراہیں	-8877
اڑی	-8878
ھین	-8879
empt	-8880
ائیل	-8881
نیمگ	-8882
▁مشن	-8883
▁وڑی	-8884
▁پیت	-8885
راموش	-8886
▁بٗوہ	-8887
▁جہانءِ	-8888
▁ماہناز	-8889
▁چُکانی	-8890
▁کلومیٹر	-8891
فل	-8892
تیت	-8893
ِرّ	-8894
ball	-8895
چوکہ	-8896
▁باث	-8897
▁حشک	-8898
▁بژنی	-8899
▁ساہت	-8900
▁شاتک	-8901
▁انجمن	-8902
▁اولاد	-8903
▁مونجا	-8904
▁نیستی	-8905
▁گوشیں	-8906
▁):	-8907
▁آنک	-8908
▁روژن	-8909
▁مکنت	-8910
▁اوتاگ	-8911
▁برابری	-8912
by	-8913
esp	-8914
▁ثق	-8915
آزات	-8916
▁الح	-8917
▁وَه	-8918
▁بیگہ	-8919
▁Europ	-8920
▁ارسطو	-8921
ret	-8922
ئرا	-8923
دپی	-8924
▁نل	-8925
اکار	-8926
▁لَگ	-8927
▁مضبوط	-8928
▁کاران	-8929
▁تنکہ	-8930
▁مچّی	-8931
▁ناگت	-8932
▁گُٹّ	-8933
▁انت۔آ	-8934
▁ھیالے	-8935
▁نازینک	-8936
▁چوناہا	-8937
▁اُستمان	-8938
پدی	-8939
▁won	-8940
▁دانی	-8941
▁مُرید	-8942
▁پیسرءَ	-8943
app	-8944
لسل	-8945
▁حرف	-8946
▁دیں	-8947
▁مجم	-8948
▁چرس	-8949
▁سامنے	-8950
▁مُرگے	-8951
▁گندیم	-8952
▁ْ	-8953
مءِ	-8954
▁پے	-8955
ideo	-8956
▁بوچ	-8957
تیناں	-8958
▁ھجال	-8959
▁ناکیں	-8960
▁اِتاں۔	-8961
▁species	-8962
sion	-8963
▁آلو	-8964
▁تنت	-8965
▁حصہ	-8966
▁دھلی	-8967
▁دیمے	-8968
▁رفیق	-8969
▁دیمترءَ	-8970
▁عبدالواحد	-8971
ians	-8972
گوشت	-8973
▁انار	-8974
▁رودی	-8975
▁child	-8976
▁بُندر	-8977
▁مقبول	-8978
▁راجدوستیں	-8979
▁زبر	-8980
▁نکت	-8981
شاعری	-8982
▁کپاں	-8983
▁ڈولداری	-8984
omet	-8985
▁درے	-8986
▁چَمّ	-8987
▁بُوگءَ	-8988
▁سرپدیں	-8989
▁اُم	-8990
اریءَ	-8991
▁پہلی	-8992
▁یاتگ	-8993
▁ایریں	-8994
▁طریقہ	-8995
▁سربازی	-8996
▁نبشتانکانی	-8997
iod	-8998
▁Can	-8999
▁چاب	-9000
▁conf	-9001
▁much	-9002
▁port	-9003
▁دزگٹ	-9004
▁دراجی	-9005
▁During	-9006
بِ	-9007
▁serv	-9008
▁وعدہ	-9009
▁افسوس	-9010
▁عجبیں	-9011
▁سیاستدان	-9012
.“	-9013
،(	-9014
ech	-9015
▁کێ	-9016
▁ایٹ	-9017
▁camp	-9018
▁جهان	-9019
▁دگری	-9020
▁کمکی	-9021
▁ھالے	-9022
ection	-9023
▁مشرقی	-9024
▁گیابان	-9025
ؤنڈ	-9026
▁پگ	-9027
اِتگ	-9028
کمیں	-9029
▁ref	-9030
▁بلہ	-9031
▁ھید	-9032
▁دیار	-9033
▁راسک	-9034
▁گڑاں	-9035
▁گْوھار	-9036
▁ھورانی	-9037
arn	-9038
▁دک	-9039
▁due	-9040
▁تاچی	-9041
▁کہتے	-9042
▁short	-9043
▁جائیکہ	-9044
▁دومیءَ	-9045
▁راجدپترءِ	-9046
▁آح	-9047
pril	-9048
▁روٹ	-9049
▁دیری	-9050
▁April	-9051
▁allow	-9052
▁نوشکے	-9053
▁چراگے	-9054
▁ھوناں	-9055
▁single	-9056
▁ابیتکی	-9057
▁بنیاتی	-9058
سکی	-9059
▁ابت	-9060
▁بَھر	-9061
▁تھار	-9062
▁جذبہ	-9063
▁اُوشت	-9064
▁سرانی	-9065
▁منانک	-9066
▁سرداری	-9067
▁لوزانی	-9068
▁واکیات	-9069
▁انسانءَ	-9070
▁بادشاہی	-9071
▁بہہ	-9072
▁دوت	-9073
▁دول	-9074
▁سمو	-9075
▁قتل	-9076
▁ٹین	-9077
▁just	-9078
▁پِگر	-9079
▁ھورت	-9080
▁زردیں	-9081
▁لہتین	-9082
▁ھروھد	-9083
▁differ	-9084
▁چمشانکے	-9085
▁چونائیا	-9086
ھدہ	-9087
راہم	-9088
▁سبر	-9089
▁شلی	-9090
▁بُند	-9091
▁ناما	-9092
▁تربیت	-9093
▁رومان	-9094
▁پیغمبر	-9095
▁جبری	-9096
▁میرو	-9097
▁گُنگ	-9098
▁جیڑاں	-9099
▁افریقہ	-9100
▁رنگانی	-9101
ذمت	-9102
َگی	-9103
چاکر	-9104
▁بَس	-9105
▁کٹّ	-9106
▁قریش	-9107
▁ارشاد	-9108
▁دوہمی	-9109
▁بحر	-9110
▁مُھ	-9111
▁وبا	-9112
انسان	-9113
▁اصغر	-9114
▁death	-9115
▁وابءَ	-9116
▁سنگانی	-9117
▁پیشگال	-9118
▁کۆ	-9119
▁نگن	-9120
▁گست	-9121
▁دوزہ	-9122
▁شیدا	-9123
▁سائیکل	-9124
▁مستقبل	-9125
▁گوانکو	-9126
▁درستانی	-9127
▁چمگ	-9128
▁گردش	-9129
ically	-9130
ission	-9131
▁اختلاف	-9132
▁بیتگین	-9133
ملک	-9134
ital	-9135
ract	-9136
▁تاث	-9137
▁فیل	-9138
▁نپس	-9139
▁star	-9140
▁خدائی	-9141
▁صائمہ	-9142
▁جاگہءَ	-9143
▁پولکار	-9144
▁راجدوستی	-9145
▁بیگواھیانی	-9146
▁30	-9147
▁sl	-9148
omin	-9149
▁gun	-9150
▁غماں	-9151
▁گرام	-9152
▁ساھتاں	-9153
چُک	-9154
▁لم	-9155
جاگہ	-9156
یستگ	-9157
▁جیم	-9158
▁موم	-9159
▁تمنی	-9160
▁فطرت	-9161
▁آنلاین	-9162
▁پیرزال	-9163
ai	-9164
سوب	-9165
▁Mc	-9166
▁And	-9167
▁انّ	-9168
▁وین	-9169
▁درنج	-9170
▁کستر	-9171
▁گرنچ	-9172
▁جاڑیگ	-9173
▁داخلہ	-9174
▁دستءِ	-9175
▁دودءُ	-9176
ورگ	-9177
▁جسد	-9178
▁ٹپّ	-9179
▁حبیب	-9180
▁سھیل	-9181
▁مریت	-9182
▁another	-9183
کزئی	-9184
▁ٹائ	-9185
ینیت۔	-9186
▁رشتگ	-9187
▁سوگہ	-9188
▁جاورا	-9189
▁ھالاں	-9190
▁سروکاں	-9191
▁ھمیشانی	-9192
▁included	-9193
جک	-9194
کّیں	-9195
▁Mus	-9196
▁old	-9197
▁الگ	-9198
▁درب	-9199
تاریخ	-9200
▁poss	-9201
▁فورس	-9202
▁بہادری	-9203
▁ایرانشھر	-9204
▁ڈولداریں	-9205
ham	-9206
▁حالی	-9207
▁راشن	-9208
دیر	-9209
پری	-9210
▁tri	-9211
روانی	-9212
▁ماسی	-9213
▁ورلڈ	-9214
▁لاشار	-9215
▁ڈولءَ	-9216
▁دیوکیں	-9217
باگ	-9218
عار	-9219
▁Ge	-9220
▁vis	-9221
▁آپءَ	-9222
▁سدکی	-9223
▁چلیم	-9224
▁storm	-9225
▁نگاری	-9226
ابے	-9227
مہر	-9228
نند	-9229
▁طل	-9230
▁ڈوک	-9231
▁بیورغ	-9232
▁حدائی	-9233
▁علامت	-9234
▁کندیل	-9235
▁بلوچوں	-9236
▁January	-9237
▁زانتکاراں	-9238
▁تحفظ	-9239
▁وهدا	-9240
▁سینیٹ	-9241
▁گشنت۔	-9242
نائ	-9243
▁par	-9244
▁مَر	-9245
ایانی	-9246
▁اسکی	-9247
▁جاند	-9248
▁پترت	-9249
▁اُودا	-9250
▁کافکا	-9251
▁گوستانک	-9252
▁اوپ	-9253
▁مدا	-9254
▁even	-9255
▁left	-9256
▁list	-9257
▁لالچ	-9258
▁ابیتک	-9259
▁بیگواه	-9260
▁کنائینت	-9261
▁دُرٛاہیں	-9262
یدار	-9263
▁دزم	-9264
▁ورا	-9265
▁ژند	-9266
▁prog	-9267
▁جاتے	-9268
▁within	-9269
▁افسانہ	-9270
▁England	-9271
نْ	-9272
ple	-9273
لَّ	-9274
ڈیل	-9275
▁وج	-9276
▁بیک	-9277
رنگیں	-9278
▁بانل	-9279
▁تِہا	-9280
▁appro	-9281
▁ہاران	-9282
نتی	-9283
وکر	-9284
▁بغ	-9285
ازیں	-9286
▁کھر	-9287
▁اوار	-9288
▁جہدے	-9289
▁سیشن	-9290
▁شیہک	-9291
▁لوٹیں	-9292
▁پہمئن	-9293
▁ہژدری	-9294
▁زمانگءِ	-9295
,,	-9296
▁جنگا	-9297
▁کہانی	-9298
▁دلپروش	-9299
▁پیرمرد	-9300
▁کراچیءَ	-9301
وقی	-9302
▁جِن	-9303
▁ہمت	-9304
اریءِ	-9305
▁گرند	-9306
▁کاریت۔	-9307
ger	-9308
رِد	-9309
موش	-9310
گئے	-9311
گاه	-9312
لوچی	-9313
ولانی	-9314
▁جنزان	-9315
▁درٛاج	-9316
▁۔ھمیش	-9317
▁بلوچیں	-9318
ops	-9319
orp	-9320
▁وے	-9321
ایوک	-9322
کوئٹہ	-9323
▁سادگ	-9324
▁پچار	-9325
itions	-9326
▁named	-9327
▁اشکتگ	-9328
▁برائی	-9329
▁جبران	-9330
▁عیسوی	-9331
▁بلۆچستان	-9332
ُکی	-9333
▁based	-9334
▁estab	-9335
▁الفاظ	-9336
▁قانونی	-9337
inc	-9338
یما	-9339
▁if	-9340
▁جڑ	-9341
▁۔د	-9342
▁ختم	-9343
▁سُہ	-9344
▁لکّ	-9345
▁مَہ	-9346
▁نازی	-9347
▁لوٹوک	-9348
▁کشتگ۔	-9349
▁اُتمان	-9350
▁کوٛہنیں	-9351
▁آئے	-9352
▁درش	-9353
آیانی	-9354
▁إیشی	-9355
▁سران	-9356
▁گڈاں	-9357
▁ماریت	-9358
▁گورکی	-9359
▁ھمینچو	-9360
▁although	-9361
یسہ	-9362
اماں	-9363
▁إیش	-9364
▁بڑھ	-9365
▁کردگ	-9366
▁ایراں	-9367
▁ھرابی	-9368
▁attempt	-9369
رادی	-9370
▁top	-9371
▁خاطر	-9372
▁سرکن	-9373
▁پبلی	-9374
▁ایوبؔ	-9375
▁آسودگی	-9376
▁ہمینچو	-9377
▁ابراہیم	-9378
▁تیابدپی	-9379
،’	-9380
ولے	-9381
▁ترم	-9382
▁مدد	-9383
▁دَست	-9384
▁ماتءَ	-9385
▁نرمیں	-9386
وانگ	-9387
▁قدم	-9388
▁تُری	-9389
▁سستگ	-9390
▁ڈولا	-9391
▁جئیند	-9392
▁تمہ	-9393
▁حدّ	-9394
▁کھڑ	-9395
▁باتن	-9396
ودر	-9397
ولا	-9398
ilar	-9399
دوست	-9400
▁سبق	-9401
▁شیل	-9402
▁very	-9403
▁ساحل	-9404
▁موقع	-9405
▁کنین	-9406
▁track	-9407
▁اسلوب	-9408
▁خانءِ	-9409
▁گوشان	-9410
جاں	-9411
شنگ	-9412
ونہ	-9413
▁ڈو	-9414
بیار	-9415
گواه	-9416
▁hum	-9417
▁آهاں	-9418
▁belie	-9419
تب	-9420
ards	-9421
▁bre	-9422
▁نیاز	-9423
▁third	-9424
▁سپریم	-9425
▁پولنگ	-9426
▁گْواچن	-9427
دگی	-9428
▁شدت	-9429
▁قسمت	-9430
▁پروٹ	-9431
ماہتاک	-9432
▁انچُش	-9433
▁کرمان	-9434
▁مناس	-9435
▁نوری	-9436
▁March	-9437
▁water	-9438
▁احسان	-9439
▁اہمیں	-9440
▁باہوٹ	-9441
▁مالوم	-9442
▁پروری	-9443
ene	-9444
▁دراَ	-9445
▁وزار	-9446
▁کروس	-9447
▁games	-9448
▁organ	-9449
▁نگیگیں	-9450
▁ڈیپارٹمنٹ	-9451
مءَ	-9452
▁ءّ	-9453
▁حص	-9454
ched	-9455
ونکہ	-9456
▁حان	-9457
▁نیش	-9458
▁آپاں	-9459
▁ھپتگے	-9460
▁بچاریں	-9461
▁سروکانی	-9462
▁عص	-9463
▁beg	-9464
▁بلّ	-9465
▁رون	-9466
▁لوڈ	-9467
▁کوْ	-9468
ently	-9469
سٹائی	-9470
▁آرداد	-9471
▁کارندھے	-9472
▁۔س	-9473
اتین	-9474
▁اُگ	-9475
▁لوپ	-9476
▁نزد	-9477
▁آپسر	-9478
▁باسکے	-9479
▁جندءَ	-9480
▁جنکاں	-9481
▁ھمراھاں	-9482
شّ	-9483
واس	-9484
گءُ	-9485
یرو	-9486
▁قو	-9487
▁بڑے	-9488
▁نقل	-9489
▁کساں	-9490
▁ھالی	-9491
▁رستگ۔	-9492
▁شعوری	-9493
▁آدمانی	-9494
▁میتگانی	-9495
▁انگریزانی	-9496
بیہ	-9497
ملا	-9498
بستگ	-9499
▁لاز	-9500
▁مٹی	-9501
▁کبول	-9502
▁power	-9503
▁بارت۔	-9504
▁غلامی	-9505
▁منصور	-9506
▁گوٛستگیں	-9507
▁نفس	-9508
▁مردک	-9509
▁event	-9510
▁حیالے	-9511
▁family	-9512
▁school	-9513
▁پھازگی	-9514
▁previous	-9515
▁گت	-9516
▁صنف	-9517
▁قومے	-9518
▁باوری	-9519
▁ماحولی	-9520
ms	-9521
▁اِں	-9522
▁ٹوی	-9523
▁پُھ	-9524
urric	-9525
▁best	-9526
▁بوتن	-9527
▁گُڈّ	-9528
ulation	-9529
روچیگیں	-9530
▁فاضلءِ	-9531
▁November	-9532
موت	-9533
ances	-9534
▁عکسے	-9535
▁دیست۔	-9536
▁مهلوک	-9537
▁کوریں	-9538
▁سپاھیگ	-9539
▁پیسرگیں	-9540
▁men	-9541
▁بُنز	-9542
▁period	-9543
▁review	-9544
▁شئیرءِ	-9545
▁زمانگاں	-9546
ِرد	-9547
ھاد	-9548
▁یڪ	-9549
▁His	-9550
▁way	-9551
▁ڈنگ	-9552
▁دُزّ	-9553
▁سوچگ	-9554
▁ضرور	-9555
▁کسےءَ	-9556
▁ہمارے	-9557
▁مانشان	-9558
▁مھروان	-9559
▁ڈائریکٹر	-9560
به	-9561
ھہ	-9562
جنیں	-9563
رانز	-9564
▁تخت	-9565
▁سیف	-9566
▁پلّ	-9567
▁اراد	-9568
▁ساچگ	-9569
▁لیلو	-9570
▁کشءَ	-9571
پمیشکا	-9572
▁جْوان	-9573
▁انٹیلی	-9574
▁بیت۔۔۔	-9575
▁ماتانی	-9576
لَ	-9577
لچ	-9578
جائے	-9579
▁پاھ	-9580
▁رُمب	-9581
▁مھتر	-9582
▁نتیجہ	-9583
▁تواراں	-9584
que	-9585
▁وگ	-9586
ونیں	-9587
▁زنڈ	-9588
aster	-9589
گانیں	-9590
▁expl	-9591
▁تعریف	-9592
▁گوزیت	-9593
▁ردانکی	-9594
شتاں	-9595
▁بگا	-9596
▁چکا	-9597
▁home	-9598
▁آترا	-9599
▁خانءَ	-9600
▁چیخوف	-9601
▁چیزّے	-9602
▁کیمرہ	-9603
▁Europe	-9604
▁شاعرءِ	-9605
▁شونگال	-9606
ناصر	-9607
▁fur	-9608
▁آؤٹ	-9609
▁پکن	-9610
ومانی	-9611
▁بْیا	-9612
▁جانا	-9613
▁ھیلی	-9614
▁اجتماعی	-9615
ظر	-9616
ریہ	-9617
عیت	-9618
رنگی	-9619
▁داؤ	-9620
▁۔چہ	-9621
▁کہتا	-9622
▁گالی	-9623
▁یاسر	-9624
▁آدمءِ	-9625
▁خاموش	-9626
▁شھراں	-9627
▁ساحرءِ	-9628
▁کارستے	-9629
▁کورونا	-9630
▁government	-9631
جوڑ	-9632
ختی	-9633
▁By	-9634
▁typ	-9635
▁بوؤ	-9636
▁فیک	-9637
▁کھڈ	-9638
مزنیں	-9639
▁سکتا	-9640
▁کِشت	-9641
▁االله	-9642
▁ارشاں	-9643
▁شہرءَ	-9644
▁گندگا	-9645
▁منتگیں	-9646
ّنی	-9647
▁Ph	-9648
وشتگ	-9649
▁دُزی	-9650
▁مانش	-9651
▁نزام	-9652
▁پیشرد	-9653
▁جہمنند	-9654
▁قمبرانی	-9655
▁لوگبانک	-9656
▁مُرگانی	-9657
گّ	-9658
َگءَ	-9659
▁لیا	-9660
▁نیب	-9661
ience	-9662
▁اداں	-9663
▁کمار	-9664
▁بیہار	-9665
▁پیماز	-9666
گرے	-9667
وشمے	-9668
▁سرف	-9669
▁ونگ	-9670
▁رشتہ	-9671
پرچاکہ	-9672
▁معیار	-9673
▁وھدئے	-9674
▁کُلّیں	-9675
غے	-9676
▁ڈب	-9677
ڑانی	-9678
▁192	-9679
▁جبز	-9680
▁جدا	-9681
▁کُم	-9682
▁turn	-9683
▁ایئر	-9684
▁رومن	-9685
▁سربی	-9686
▁پائپ	-9687
▁الکاپ	-9688
▁درٛچک	-9689
▁مھراب	-9690
▁بیاریت	-9691
▁جُنزان	-9692
▁مطالعہ	-9693
▁ویکسین	-9694
▁December	-9695
اؔ	-9696
که	-9697
▁cap	-9698
▁جگہ	-9699
▁شهید	-9700
▁تنکیں	-9701
▁بوتیں۔	-9702
▁ترسینگ	-9703
▁سْیادی	-9704
▁شہیدانی	-9705
▁خدمت	-9706
▁گاڈی	-9707
▁جہدءَ	-9708
▁لیکہی	-9709
▁زمینءَ	-9710
ئک	-9711
let	-9712
بود	-9713
▁مہل	-9714
▁بُوگی	-9715
▁ماتءِ	-9716
▁جنوکیں	-9717
▁ماھکان	-9718
▁بیڑبرتگ	-9719
▁لشکرکشی	-9720
▁أت	-9721
کھان	-9722
ature	-9723
▁سُور	-9724
▁سیاه	-9725
▁those	-9726
▁تباہی	-9727
▁زانگی	-9728
▁صنعتی	-9729
▁کہولاں	-9730
َان	-9731
▁فض	-9732
▁بخت	-9733
▁پدّ	-9734
▁hand	-9735
▁روتگ	-9736
▁سفار	-9737
▁ہواں	-9738
▁حالاں	-9739
▁پجارگ	-9740
avy	-9741
▁ہڈ	-9742
َنت۔	-9743
▁لُٹ	-9744
▁بیغ۔	-9745
▁لاشع	-9746
▁There	-9747
▁اشیءَ	-9748
▁بوئگی	-9749
▁ورگءَ	-9750
▁گِران	-9751
▁شُمارا	-9752
▁ھاموشی	-9753
فن	-9754
سٹری	-9755
▁جلّ	-9756
▁پاچ	-9757
▁یکی	-9758
▁مزاج	-9759
▁پبلک	-9760
▁پکیر	-9761
▁گْوَ	-9762
▁ھسین	-9763
▁سلطنت	-9764
▁مرداں	-9765
▁رستگیں	-9766
▁کربانی	-9767
▁پھناتاں	-9768
رر	-9769
▁سچ	-9770
▁بُل	-9771
▁ھیک	-9772
▁وتاک	-9773
▁place	-9774
▁جاپان	-9775
▁دئیگا	-9776
▁کشّیت	-9777
▁بالگتر	-9778
▁آپے	-9779
▁قاص	-9780
▁مہے	-9781
ached	-9782
▁لنکک	-9783
▁یونس	-9784
▁دینت۔	-9785
▁زوراں	-9786
▁گرپتار	-9787
▁ایدگرانی	-9788
▁انو	-9789
▁رِچ	-9790
▁سُک	-9791
▁قرن	-9792
اَنت۔	-9793
▁گپان	-9794
▁روایر	-9795
▁سانتی	-9796
▁آوارجنی	-9797
بارہ	-9798
▁med	-9799
▁بکن۔	-9800
▁ترتیب	-9801
▁تکلیف	-9802
▁داروک	-9803
▁دیمءِ	-9804
▁ناولٹ	-9805
▁ارسانی	-9806
▁انت۔من	-9807
▁تھاریں	-9808
▁شونکار	-9809
▁دُنیاءِ	-9810
مبل	-9811
hest	-9812
▁تیم	-9813
▁واش	-9814
▁پُٹ	-9815
▁City	-9816
▁عطاء	-9817
▁story	-9818
ٰی	-9819
ایک	-9820
درو	-9821
aged	-9822
oint	-9823
راتی	-9824
ارگاہ	-9825
وکائی	-9826
▁اَرس	-9827
▁دلبر	-9828
▁مکمل	-9829
▁ٹپّی	-9830
▁برآمد	-9831
▁بُوت۔	-9832
▁پیگام	-9833
نکاں	-9834
▁لۆٹ	-9835
▁ٹِک	-9836
▁ثواب	-9837
▁دمگے	-9838
▁ٹِکّ	-9839
▁کلاگ	-9840
▁گیا۔	-9841
▁built	-9842
▁مضمون	-9843
▁لشکریانی	-9844
amb	-9845
▁۔پ	-9846
eder	-9847
▁سُچ	-9848
▁تاری	-9849
▁واہش	-9850
بنت۔	-9851
▁وتیگ	-9852
▁great	-9853
▁گرماگ	-9854
▁مردمانءِ	-9855
ئم	-9856
▁dr	-9857
ense	-9858
▁100	-9859
▁آسک	-9860
▁جێڑ	-9861
ences	-9862
▁اتوں	-9863
▁اُسے	-9864
▁رویہ	-9865
▁کردی	-9866
▁اگبال	-9867
▁ایکسپ	-9868
▁زانتے	-9869
▁چارگی	-9870
▁عیسائی	-9871
▁روبرکتی	-9872
▁راھبندانی	-9873
سام	-9874
یسا	-9875
▁!!	-9876
اردو	-9877
▁ئنت	-9878
▁سرس	-9879
▁ائیر	-9880
▁وسوس	-9881
پاکستان	-9882
▁person	-9883
▁تھیوری	-9884
▁عبدالصمد	-9885
iven	-9886
پتگ۔	-9887
▁عاص	-9888
فارسی	-9889
▁سربوتگ	-9890
▁command	-9891
دءُ	-9892
چیا	-9893
کرہ	-9894
▁نێم	-9895
▁ٹوپ	-9896
▁ڈان	-9897
▁kill	-9898
▁رازی	-9899
▁وسیم	-9900
▁پیتی	-9901
▁دژمنی	-9902
▁علاقے	-9903
▁واکاں	-9904
▁کارپد	-9905
▁ایڈوکیٹ	-9906
▁ھیالداری	-9907
oci	-9908
ّین	-9909
▁Fl	-9910
▁نغ	-9911
عزیز	-9912
▁چپّ	-9913
▁When	-9914
▁month	-9915
▁کیشنز	-9916
▁ناجوڑی	-9917
▁نزیکءَ	-9918
▁انت۔بلے	-9919
▁باقاعدہ	-9920
جاھے	-9921
دنیا	-9922
▁لذت	-9923
▁نوٹ	-9924
▁دُوا	-9925
▁نگور	-9926
▁کُلاں	-9927
▁ھبراں	-9928
▁کمزوری	-9929
elt	-9930
ارتی	-9931
▁بِر	-9932
▁خرچ	-9933
itary	-9934
▁sent	-9935
▁شناخت	-9936
▁تاوانے	-9937
▁پریاتاں	-9938
بہر	-9939
ڑتال	-9940
▁opp	-9941
▁بچے	-9942
▁روپ	-9943
▁گوا	-9944
▁سنگے	-9945
▁نسیب	-9946
▁کنگء	-9947
▁اِنسان	-9948
شام	-9949
گون	-9950
▁ھؤ	-9951
▁ءِے	-9952
▁کدیر	-9953
▁گولہ	-9954
▁افراد	-9955
▁اندگہ	-9956
▁چارات	-9957
▁چیزءِ	-9958
▁تھنائی	-9959
▁میانجی	-9960
▁سلاھانی	-9961
▁سیکریٹری	-9962
▁اوشتاتگیں	-9963
مداد	-9964
▁بَچ	-9965
▁دیگا	-9966
▁رونت	-9967
▁ہوری	-9968
▁شیرکنیں	-9969
▁original	-9970
▁ھمگرنچیں	-9971
کجا	-9972
▁کث	-9973
▁زاد	-9974
▁ملّ	-9975
▁کَم	-9976
▁make	-9977
▁بزّگی	-9978
▁دلجمیں	-9979
▁گْوشاں	-9980
iversity	-9981
▁اِنت۔اے	-9982
▁چِہ	-9983
▁دینا	-9984
▁پداں	-9985
▁گھتر	-9986
▁سکندر	-9987
▁زانتءُ	-9988
▁زرداری	-9989
ھچ	-9990
oad	-9991
احت	-9992
ماد	-9993
▁hal	-9994
▁بزّ	-9995
▁requ	-9996
▁روگن	-9997
▁ٹیکس	-9998
▁ھندو	-9999
▁مخلوق	-10000
▁گوٛست	-10001
▁جتاھیں	-10002
▁دنیایے	-10003
▁دْرستیں	-10004
ves	-10005
لاع	-10006
لچہ	-10007
▁Pr	-10008
ides	-10009
▁eng	-10010
▁بُہ	-10011
▁داگ	-10012
▁زیل	-10013
▁گا۔	-10014
▁گوہ	-10015
▁نامانی	-10016
▁وانگءِ	-10017
▁شاتکامی	-10018
▁National	-10019
▁ہمراہیءَ	-10020
gy	-10021
سفر	-10022
▁Or	-10023
▁مقص	-10024
▁2009	-10025
▁امبر	-10026
ention	-10027
▁باوجود	-10028
.........	-10029
صیر	-10030
ness	-10031
▁جتہ	-10032
▁2010	-10033
▁auth	-10034
▁مڑاہ	-10035
▁گولی	-10036
ہو	-10037
یمہ	-10038
▁جگ	-10039
▁وص	-10040
▁پہاز	-10041
▁video	-10042
▁دیگءِ	-10043
▁زامات	-10044
▁۔بلئے	-10045
▁پاکستانءَ	-10046
يں	-10047
شاعر	-10048
▁کُچ	-10049
▁کھی	-10050
▁زیرد	-10051
▁شوکیں	-10052
▁مردیں	-10053
▁الکاپیں	-10054
▁دوستانی	-10055
▁دُرٛستیں	-10056
لوگ	-10057
▁2008	-10058
▁منظر	-10059
▁پتءَ	-10060
▁واھگے	-10061
bs	-10062
چیزے	-10063
▁ant	-10064
▁dem	-10065
▁شگر	-10066
▁حرام	-10067
▁ژانگ	-10068
▁کنغ۔	-10069
▁گامے	-10070
▁اقوام	-10071
▁دُرست	-10072
▁فراہم	-10073
▁مزاری	-10074
▁ملامتی	-10075
▁مُدامی	-10076
▁نیکراہ	-10077
▁بستارءَ	-10078
،‘‘	-10079
▁إت	-10080
ison	-10081
ھالی	-10082
▁گَپ	-10083
▁گہہ	-10084
▁سکّی	-10085
▁مارے	-10086
▁کارہ	-10087
▁شیوار	-10088
▁پگرءِ	-10089
▁میزائل	-10090
▁کہنگیں	-10091
▁ارزانیں	-10092
▁دْرائیں	-10093
کیم	-10094
▁..	-10095
شکیل	-10096
▁sug	-10097
▁ابا	-10098
▁mark	-10099
▁بئے۔	-10100
▁ہانی	-10101
▁اژدری	-10102
▁کندگے	-10103
ruction	-10104
▁حکومتی	-10105
▁ڈگاراں	-10106
▁گدارءِ	-10107
akes	-10108
line	-10109
▁اِز	-10110
▁زِرد	-10111
▁هساب	-10112
▁کانٹ	-10113
▁برتگ۔	-10114
▁حبراں	-10115
▁مزدور	-10116
▁گیشگی	-10117
▁present	-10118
▁دربرجاہ	-10119
▁دیستگیں	-10120
سءَ	-10121
▁آھتگ	-10122
▁شتیں	-10123
▁قریب	-10124
▁پیرین	-10125
▁وم	-10126
سٹنٹ	-10127
▁منو	-10128
▁مپت	-10129
▁کوم	-10130
▁ألبت	-10131
▁بلّے	-10132
▁تبلی	-10133
▁مُہر	-10134
▁شکایت	-10135
▁جنوزام	-10136
▁بنگپانی	-10137
امہ	-10138
▁روا	-10139
▁شیت	-10140
▁کلّ	-10141
▁کیک	-10142
▁آپانی	-10143
▁اتحاد	-10144
▁اگرچہ	-10145
▁چارگا	-10146
▁کورءَ	-10147
▁اِستان	-10148
▁رھبندے	-10149
▁لنٹانی	-10150
▁مُرتگیں	-10151
ھنگ	-10152
▁leg	-10153
▁آئر	-10154
▁بیلہ	-10155
▁زبرد	-10156
▁منوک	-10157
▁نیّت	-10158
▁ناکام	-10159
▁جہاندپتر	-10160
اتءَ	-10161
▁قاب	-10162
▁حسنی	-10163
▁دْرچ	-10164
▁روگا	-10165
▁گوْش	-10166
▁گپتہ	-10167
▁روژنا	-10168
▁۔۔۔۔۔۔	-10169
▁بارکھان	-10170
نِ	-10171
▁ئُ	-10172
▁سْر	-10173
▁عرف	-10174
▁ورز	-10175
▁درصد	-10176
▁دہمی	-10177
دامرزی	-10178
▁ائ	-10179
▁ڈھا	-10180
▁club	-10181
▁زیند	-10182
▁سرور	-10183
▁سرون	-10184
▁پاری	-10185
▁آسٹری	-10186
▁درویش	-10187
▁پھازگ	-10188
▁کورءِ	-10189
جین	-10190
پُر	-10191
نتءُ	-10192
▁سخت	-10193
▁شنک	-10194
▁خصوص	-10195
▁پانچ	-10196
▁بندان	-10197
▁پنچیں	-10198
▁برادری	-10199
▁دیستگ۔	-10200
َک	-10201
ولر	-10202
▁جائ	-10203
▁سون	-10204
▁شهر	-10205
▁کلا	-10206
▁گرک	-10207
▁بروب	-10208
▁رَوت	-10209
▁چنان	-10210
▁کُشی	-10211
▁ہمُک	-10212
▁زرکاری	-10213
▁شیرکنی	-10214
▁واجکار	-10215
▁وانوکانی	-10216
نڈا	-10217
ڈنگ	-10218
▁Man	-10219
▁اَے	-10220
▁جمھ	-10221
یگانی	-10222
▁زوری	-10223
▁چاگی	-10224
▁انشپی	-10225
▁شموشگ	-10226
▁صورتءَ	-10227
▁وشیانی	-10228
▁شرگداریءِ	-10229
جز	-10230
علم	-10231
ٹیف	-10232
خواہ	-10233
▁آغا	-10234
▁اشر	-10235
▁الق	-10236
▁رین	-10237
▁کشا	-10238
rench	-10239
▁آگہی	-10240
▁چدءُ	-10241
▁River	-10242
▁یکشلیں	-10243
ival	-10244
آئرا	-10245
▁موش	-10246
▁ٹرم	-10247
▁پڑھ	-10248
مندیں	-10249
▁view	-10250
▁نزیر	-10251
▁ٹرین	-10252
▁مدرسہ	-10253
▁مرگءِ	-10254
▁معیشت	-10255
▁گندان	-10256
▁کیونکہ	-10257
▁برتانیہ	-10258
▁Bro	-10259
▁جود	-10260
▁جۆڑ	-10261
▁جیک	-10262
▁انچۆ	-10263
▁رائے	-10264
▁شُبین	-10265
▁شھیدی	-10266
▁اُودءَ	-10267
▁برک	-10268
riend	-10269
چوشکہ	-10270
▁خیبر	-10271
▁پیال	-10272
▁لیکہے	-10273
▁میانءَ	-10274
▁انتظامی	-10275
پنج	-10276
oard	-10277
کجام	-10278
▁کسب	-10279
▁repl	-10280
▁شہرے	-10281
▁غیرت	-10282
▁منطق	-10283
▁وپسگ	-10284
▁چِلّ	-10285
ograph	-10286
چاگردی	-10287
▁تیراں	-10288
▁زندگاں	-10289
▁دیوالانی	-10290
چکان	-10291
▁دکھ	-10292
▁۔یک	-10293
زوریں	-10294
‘‘،’’	-10295
▁capt	-10296
▁بالو	-10297
▁بلبل	-10298
▁پلاس	-10299
▁چراغ	-10300
▁ڈولے	-10301
▁کالم	-10302
▁یکمی	-10303
▁کِساس	-10304
▁جستانی	-10305
alk	-10306
شار	-10307
▁آغ	-10308
▁پث	-10309
▁پکا	-10310
▁کیو	-10311
▁still	-10312
▁آوکیں	-10313
▁بوئگا	-10314
▁دورءُ	-10315
▁گْوار	-10316
▁حکمران	-10317
▁نادراه	-10318
▁ھرابیں	-10319
ساد	-10320
▁مائ	-10321
▁ڈرا	-10322
دیوان	-10323
▁واشک	-10324
▁پارک	-10325
▁local	-10326
▁moved	-10327
▁چکّاس	-10328
▁بێگواه	-10329
eng	-10330
جانی	-10331
ینوک	-10332
▁تتک	-10333
▁منء	-10334
▁عنقا	-10335
▁stand	-10336
▁الہان	-10337
▁حبرءَ	-10338
▁ھمساھ	-10339
▁ماندارگ	-10340
▁تحصیلدار	-10341
ادم	-10342
▁led	-10343
▁اِل	-10344
▁بڑا	-10345
▁دزی	-10346
▁سنٹ	-10347
▁گوی	-10348
▁role	-10349
▁درءَ	-10350
▁چانگ	-10351
▁وانین	-10352
▁چیدگی	-10353
▁ھاوند	-10354
ott	-10355
▁تلا	-10356
مبارک	-10357
▁افری	-10358
▁سہیل	-10359
▁اینچک	-10360
▁دوستے	-10361
▁نوشیر	-10362
▁اتکگاں	-10363
▁دورانی	-10364
▁بنداتءَ	-10365
حص	-10366
خاب	-10367
گْر	-10368
aken	-10369
مداری	-10370
▁بَند	-10371
▁واپس	-10372
aining	-10373
▁درآیگ	-10374
▁درکپگ	-10375
▁گدارے	-10376
▁history	-10377
▁پُرایمنیں	-10378
رّ	-10379
ler	-10380
▁ذم	-10381
▁وشت	-10382
▁وڈھ	-10383
▁came	-10384
▁term	-10385
▁اَنگ	-10386
▁مندر	-10387
▁پشین	-10388
▁ہاؤس	-10389
جاھانی	-10390
▁جنگءُ	-10391
▁وانان	-10392
▁وڑےءَ	-10393
▁گْوازینگ	-10394
ung	-10395
کسان	-10396
▁iss	-10397
▁حیا	-10398
▁گٹّ	-10399
▁dest	-10400
▁آساپ	-10401
▁ممبر	-10402
▁دُرّا	-10403
▁واناں	-10404
▁جنیانی	-10405
▁سامراج	-10406
▁شوہازگ	-10407
اٹ	-10408
بع	-10409
یبت	-10410
▁إش	-10411
▁دَی	-10412
ories	-10413
▁اُرد	-10414
▁لطیف	-10415
▁جوریں	-10416
▁منگچر	-10417
▁گپتار	-10418
▁بلوچان	-10419
▁سیائیں	-10420
mp	-10421
لین	-10422
وگی	-10423
idge	-10424
side	-10425
نویس	-10426
▁عَل	-10427
▁لٹّ	-10428
▁مڑا	-10429
▁بستہ	-10430
▁سَرا	-10431
▁نشتہ	-10432
▁بندیک	-10433
▁تجزیہ	-10434
▁تپاسگ	-10435
▁لیاقت	-10436
▁دنیائے	-10437
▁گوشانی	-10438
▁جاھمنند	-10439
بلک	-10440
ماڑہ	-10441
▁تہران	-10442
▁دیکھا	-10443
▁قیمتی	-10444
▁وزارت	-10445
▁کنئگی	-10446
▁ہمدردی	-10447
▁کْوہنیں	-10448
▁dra	-10449
▁شین	-10450
▁فنڈ	-10451
▁چاد	-10452
▁رَدی	-10453
▁ھمُک	-10454
▁اسپین	-10455
▁دروشمءَ	-10456
ِگ	-10457
▁دکی	-10458
▁بھشت	-10459
▁وارس	-10460
▁زمزیل	-10461
▁چیزءَ	-10462
▁ھرچیز	-10463
▁آکسیجن	-10464
▁کسہانی	-10465
▁الرحمان	-10466
sh	-10467
▁مێ	-10468
سائی	-10469
▁شرا	-10470
مروچی	-10471
▁جملہ	-10472
▁ساوڑ	-10473
▁سجّه	-10474
▁often	-10475
▁دیرءَ	-10476
▁گُشت۔	-10477
▁common	-10478
urricane	-10479
▁ایدگراں	-10480
▁addition	-10481
َنْ	-10482
یسک	-10483
▁الص	-10484
▁تاچ	-10485
▁سِد	-10486
▁پلگ	-10487
▁چدا	-10488
▁ھول	-10489
▁caus	-10490
▁کشاری	-10491
▁ملاقات	-10492
▁ھسابءَ	-10493
▁سفرنامہ	-10494
کاٹ	-10495
▁ڈُک	-10496
▁جدلی	-10497
▁خانگ	-10498
▁روچان	-10499
▁ملتان	-10500
▁بچکندے	-10501
▁ؔءِ	-10502
▁بوه	-10503
▁دبا	-10504
▁ایشن	-10505
▁مرکز	-10506
▁نئیں	-10507
▁کریں	-10508
▁تجربگ	-10509
▁شئیری	-10510
▁نئیت۔	-10511
▁ٹوہیں	-10512
▁پیلوی	-10513
lev	-10514
باس	-10515
▁اِی	-10516
▁رمگ	-10517
برانی	-10518
▁جنَگ	-10519
▁داوا	-10520
▁کمکے	-10521
▁اودءِ	-10522
▁سرہال	-10523
▁گِستا	-10524
▁بلۆچانی	-10525
▁دُژمنیں	-10526
▁پرشتگیں	-10527
▁جدگ	-10528
▁مچھ	-10529
▁Comp	-10530
▁باطن	-10531
▁سمیر	-10532
▁ھُنر	-10533
▁اتکاں	-10534
▁دلیری	-10535
▁بادگیر	-10536
▁دْراجیں	-10537
▁ڑ	-10538
سءِ	-10539
▁No	-10540
atter	-10541
▁trad	-10542
▁تضاد	-10543
▁حالے	-10544
▁لبزپہ	-10545
▁کنانءَ	-10546
▁سرکارءَ	-10547
▁ڈیموکری	-10548
الت	-10549
▁کرے	-10550
▁تبیں	-10551
▁تگرانی	-10552
▁صلاحیت	-10553
▁نبشتکار	-10554
دن	-10555
rew	-10556
▁Ab	-10557
read	-10558
احمد	-10559
اربس	-10560
بندے	-10561
▁few	-10562
▁لبر	-10563
▁باند	-10564
▁گوشے	-10565
▁اصلاح	-10566
▁دوراں	-10567
▁دینار	-10568
▁Char	-10569
▁کینگی	-10570
▁شائرانی	-10571
▁We	-10572
▁صور	-10573
▁نیو	-10574
▁دوسد	-10575
▁نسیر	-10576
▁تواریں	-10577
▁suggest	-10578
▁وانندگیں	-10579
--	-10580
lu	-10581
پھ	-10582
شنت	-10583
وٹے	-10584
▁آگے	-10585
ister	-10586
▁2007	-10587
▁next	-10588
▁تراکی	-10589
▁رحمان	-10590
▁سلسلہ	-10591
▁فکرءُ	-10592
▁effect	-10593
▁اسسٹنٹ	-10594
▁مارکسی	-10595
▁نشتگاں	-10596
▁پہریزگ	-10597
▁considered	-10598
بخش	-10599
دور	-10600
▁اکا	-10601
▁شھم	-10602
▁ٹنگ	-10603
▁انہی	-10604
▁ھبدہ	-10605
▁اسٹیج	-10606
▁امبار	-10607
▁درورے	-10608
▁رمزان	-10609
▁آریپیں	-10610
▁پہلوان	-10611
▁گلائیش	-10612
▁گوٛشاں	-10613
▁گذ	-10614
کنت۔	-10615
▁One	-10616
▁bas	-10617
▁deb	-10618
▁دَپ	-10619
▁آچار	-10620
▁بلیک	-10621
▁لالہ	-10622
▁وادی	-10623
▁کمّو	-10624
▁باران	-10625
▁یہودی	-10626
▁player	-10627
قط	-10628
نش	-10629
ior	-10630
جنس	-10631
راء	-10632
گُل	-10633
▁ھز	-10634
راتک	-10635
ریءِ	-10636
▁mid	-10637
▁cour	-10638
▁لهتے	-10639
▁نادل	-10640
▁پورہ	-10641
astern	-10642
▁اعتبار	-10643
▁پروجیکٹ	-10644
گِ	-10645
َيْ	-10646
▁Tr	-10647
دربر	-10648
پدءَ	-10649
▁هور	-10650
▁ٹری	-10651
▁help	-10652
▁شہار	-10653
▁کرتاں	-10654
.......	-10655
▁اِشیءِ	-10656
▁مروارد	-10657
▁English	-10658
ead	-10659
مجید	-10660
▁exper	-10661
▁اوستا	-10662
▁حقیقی	-10663
▁پدردی	-10664
▁کُتیں	-10665
▁گراناز	-10666
روت	-10667
uted	-10668
اگون	-10669
چکیں	-10670
▁ماپ	-10671
شتانی	-10672
▁پتءِ	-10673
▁آدماں	-10674
▁حالات	-10675
▁French	-10676
▁career	-10677
▁زانتیں	-10678
▁گپّانی	-10679
طین	-10680
والی	-10681
ومیں	-10682
▁side	-10683
▁سندی	-10684
▁کانی	-10685
▁دوبارہ	-10686
▁نگرانی	-10687
▁similar	-10688
▁زنداناں	-10689
▁قبرستان	-10690
▁21	-10691
▁گژ	-10692
▁بابو	-10693
▁حفاظ	-10694
▁نقطہ	-10695
▁قبائل	-10696
▁بداریت	-10697
▁سرگوست	-10698
▁گِنداں	-10699
▁رئیسانی	-10700
▁رہشوناں	-10701
▁recorded	-10702
تّ	-10703
ays	-10704
نکہ	-10705
پنچ	-10706
کیچ	-10707
اہے۔	-10708
َالَ	-10709
▁منہ	-10710
▁ولا	-10711
▁Batt	-10712
▁دُمب	-10713
▁واکی	-10714
▁ھالو	-10715
انکانی	-10716
▁right	-10717
▁ملکءَ	-10718
▁حیرانی	-10719
▁سلاہاں	-10720
ولو	-10721
گیا	-10722
▁لع	-10723
▁win	-10724
▁پشو	-10725
▁ہنگ	-10726
ریانی	-10727
▁بندن	-10728
▁زانا	-10729
▁وومن	-10730
▁ٹپیگ	-10731
▁آفیسر	-10732
▁متعلق	-10733
▁مولاب	-10734
آتک	-10735
ئشتر	-10736
پوری	-10737
▁ساب	-10738
واراں	-10739
▁init	-10740
▁بَلّ	-10741
▁جرگہ	-10742
▁مہلہ	-10743
▁گِلگ	-10744
▁بدواہ	-10745
▁ترٛان	-10746
▁درساں	-10747
▁ساحلی	-10748
▁import	-10749
▁رجانکی	-10750
▁Te	-10751
اینت	-10752
ینچک	-10753
▁Acc	-10754
▁فہم	-10755
▁ملگ	-10756
▁جاگه	-10757
▁ہوگا	-10758
▁طوفان	-10759
کدی	-10760
ابید	-10761
▁پلے	-10762
طانوی	-10763
▁real	-10764
▁آسرے	-10765
▁بیگل	-10766
▁جارج	-10767
▁ریچگ	-10768
▁گُشے	-10769
کپت	-10770
گوادر	-10771
ھاشمی	-10772
▁رویں	-10773
▁سکھت	-10774
▁مَٹّ	-10775
▁مہار	-10776
▁ڈنءَ	-10777
▁کشّی	-10778
▁ہلاپ	-10779
رائیلی	-10780
▁اتیں۔	-10781
▁اسٹیٹس	-10782
▁ایسوسی	-10783
▁جْوانی	-10784
▁شنگکار	-10785
▁وانندگ	-10786
▁دودمانی	-10787
▁پانکجنیں	-10788
سیر	-10789
▁اذ	-10790
self	-10791
▁Rec	-10792
▁یاک	-10793
▁جلسہ	-10794
▁ایجوک	-10795
▁تحریر	-10796
▁انجینئر	-10797
▁ہمیشانی	-10798
▁دوستیگیں	-10799
ونٹ	-10800
▁حط	-10801
رائع	-10802
▁اێر	-10803
آہانی	-10804
▁باتی	-10805
▁حاتر	-10806
▁رائی	-10807
▁سواس	-10808
▁چپیں	-10809
▁claim	-10810
▁ہاسٹل	-10811
▁سُہریں	-10812
be	-10813
دَ	-10814
▁یگ	-10815
▁چَک	-10816
▁arch	-10817
▁اشکت	-10818
▁cover	-10819
▁اسٹال	-10820
▁آجوئیں	-10821
▁بارہءَ	-10822
▁بریگیڈ	-10823
▁ترّینت	-10824
▁درنیامءَ	-10825
وڈک	-10826
▁۔چ	-10827
جنین	-10828
نیست	-10829
پاکی	-10830
▁دێم	-10831
▁لچھ	-10832
ining	-10833
▁دباؤ	-10834
▁رزان	-10835
▁زراں	-10836
▁سھیگ	-10837
▁کھند	-10838
▁گلاس	-10839
▁ات۔من	-10840
▁کِسّه	-10841
▁گوئشگ	-10842
▁اوشتیت	-10843
▁company	-10844
▁شاعریءَ	-10845
ؤش	-10846
ردہ	-10847
وبا	-10848
▁23	-10849
▁لَس	-10850
▁هون	-10851
▁town	-10852
▁لوٹے	-10853
▁اخبار	-10854
▁بیگءَ	-10855
▁حالرس	-10856
▁published	-10857
▁امل	-10858
▁sold	-10859
▁دارنت	-10860
▁تہرانی	-10861
▁زاهدان	-10862
▁continued	-10863
لٹ	-10864
البت	-10865
▁پُس	-10866
انکاں	-10867
▁اکثر	-10868
▁ٹاھی	-10869
ایشانی	-10870
▁refer	-10871
▁اطلاع	-10872
▁چارئے	-10873
▁ھدایت	-10874
▁دئینت۔	-10875
▁سوشلسٹ	-10876
▁پہناتانی	-10877
شئے	-10878
▁exc	-10879
▁اَڑ	-10880
▁پنّ	-10881
▁ہم۔	-10882
▁سُنٹ	-10883
▁مرچیگ	-10884
▁ٹوئٹر	-10885
▁لشکریاں	-10886
ہائی	-10887
▁اَر	-10888
▁wind	-10889
▁ادراک	-10890
▁بالکل	-10891
▁وتواج	-10892
▁دارگءِ	-10893
▁دریائی	-10894
▁سنگینی	-10895
▁شیرانی	-10896
▁ودارءَ	-10897
▁شوروانی	-10898
▁کہولانی	-10899
▁different	-10900
▁بلوچستانء	-10901
ِہ	-10902
▁جک	-10903
▁you	-10904
▁آسن	-10905
▁وٹس	-10906
▁گِل	-10907
▁داؤد	-10908
▁سجدہ	-10909
▁نرمی	-10910
▁ڈاکٹ	-10911
▁یلیں	-10912
▁ھاکمی	-10913
▁مُلکاں	-10914
▁پُرّیں	-10915
▁پیژگاہ	-10916
▁گالریچ	-10917
نور	-10918
▁الہ	-10919
▁دیش	-10920
▁کنا	-10921
▁ھئی	-10922
▁take	-10923
▁رائٹ	-10924
▁سیوی	-10925
▁انسٹی	-10926
▁رنگےءَ	-10927
▁کارجاہ	-10928
▁without	-10929
▁پجارینگ	-10930
ternational	-10931
▁نکل	-10932
▁بلاہ	-10933
▁songs	-10934
▁بکننت	-10935
▁محبوبہ	-10936
▁کنائین	-10937
ھا۔	-10938
▁جغ	-10939
وبکر	-10940
▁tot	-10941
▁بائ	-10942
▁دپا	-10943
▁روی	-10944
▁سوک	-10945
▁ٹاک	-10946
ایران	-10947
▁With	-10948
▁اھدی	-10949
▁ریلی	-10950
▁لَبز	-10951
▁ھاجی	-10952
▁دریاو	-10953
▁پشتءَ	-10954
▁گسانی	-10955
yn	-10956
شعر	-10957
▁فَ	-10958
▁Per	-10959
▁ساس	-10960
▁مَل	-10961
▁ہَم	-10962
▁Port	-10963
▁road	-10964
▁بلین	-10965
▁جستے	-10966
▁دامگ	-10967
▁ستار	-10968
▁لائی	-10969
▁زمانے	-10970
▁اِنت۔۔	-10971
▁سرفراز	-10972
▁ھیالءَ	-10973
▁دیوانءِ	-10974
ارو	-10975
سئے	-10976
▁لام	-10977
▁لوغ	-10978
▁polit	-10979
▁ارجان	-10980
▁نازان	-10981
▁نانکہ	-10982
▁former	-10983
▁ساچشتانی	-10984
ژم	-10985
گْ	-10986
:’’	-10987
ٹیو	-10988
▁tw	-10989
ابیں	-10990
وڑیں	-10991
▁Bar	-10992
▁tem	-10993
▁زرے	-10994
▁کدّ	-10995
▁held	-10996
▁اندو	-10997
▁شاہد	-10998
▁ورگی	-10999
▁ہمود	-11000
▁مہرءِ	-11001
▁زانتاں	-11002
ڈم	-11003
ches	-11004
▁برس	-11005
▁قبل	-11006
▁بَنت	-11007
▁لوٹی	-11008
▁چشین	-11009
▁۔ھمے	-11010
▁داکٹر	-11011
▁کانون	-11012
▁گوارگ	-11013
▁انساناں	-11014
▁رھبنداں	-11015
▁رجینتگیں	-11016
زہر	-11017
▁ازل	-11018
▁ھنی	-11019
▁memb	-11020
▁نفرت	-11021
▁پِسّ	-11022
▁چکار	-11023
▁کہدہ	-11024
▁among	-11025
▁نگیگی	-11026
▁لیکہاں	-11027
▁ادارانی	-11028
ning	-11029
میتگ	-11030
▁سگگ	-11031
▁تنگی	-11032
▁طاہر	-11033
▁level	-11034
▁دئیان	-11035
▁شہراں	-11036
▁متھدہ	-11037
▁ٹُکّر	-11038
▁یاسین	-11039
▁بادشاھی	-11040
▁راستیءِ	-11041
▁گوادرءَ	-11042
گ۔	-11043
روی	-11044
▁,,	-11045
▁el	-11046
▁آشک	-11047
▁رُو	-11048
▁پمے	-11049
▁Will	-11050
▁آدین	-11051
▁بانز	-11052
▁مِکّ	-11053
▁پرنس	-11054
▁رُدوم	-11055
ُس	-11056
نڈگ	-11057
مانے	-11058
▁mag	-11059
▁افز	-11060
انگیں	-11061
▁ڈسٹر	-11062
▁field	-11063
par	-11064
نَّ	-11065
▁Am	-11066
▁بچی	-11067
▁ضیا	-11068
▁جلیل	-11069
▁عامر	-11070
▁مُشت	-11071
▁کبزہ	-11072
▁elect	-11073
▁بودشت	-11074
▁بوھان	-11075
▁منشیات	-11076
▁مہکمیں	-11077
▁چُکّاں	-11078
▁اَنت۔اے	-11079
مٰ	-11080
▁فرز	-11081
▁کرو	-11082
▁بمبے	-11083
▁جبکہ	-11084
▁دلکش	-11085
▁کلاں	-11086
▁دومیگ	-11087
▁کربان	-11088
ner	-11089
غانی	-11090
iment	-11091
▁الحق	-11092
▁جائز	-11093
▁حامد	-11094
▁وسیں	-11095
▁۔منی	-11096
▁وابیں	-11097
▁میاریگ	-11098
▁چریشیءَ	-11099
uss	-11100
خیر	-11101
▁av	-11102
▁حَ	-11103
جمنٹ	-11104
زانہ	-11105
▁راک	-11106
▁بیاں	-11107
▁درمی	-11108
▁دروہ	-11109
▁لائک	-11110
▁لکیر	-11111
▁سوزیں	-11112
▁گْوزان	-11113
▁چارشمبے	-11114
ویت	-11115
▁ذی	-11116
itar	-11117
سنگت	-11118
▁del	-11119
▁طاق	-11120
▁نِی	-11121
▁prop	-11122
▁ماڈر	-11123
▁چندر	-11124
▁کتار	-11125
▁کہیں	-11126
inning	-11127
▁عاقبت	-11128
▁گلباگ	-11129
▁مُرگاں	-11130
▁written	-11131
ّد	-11132
ھتگ	-11133
iter	-11134
▁باع	-11135
▁لیڈ	-11136
▁کیپ	-11137
▁جلدی	-11138
▁حاضر	-11139
▁عشقی	-11140
▁مانپ	-11141
▁وفات	-11142
resent	-11143
▁every	-11144
▁لشکرے	-11145
▁واتری	-11146
▁کلاسیک	-11147
▁وانگجاھاں	-11148
سرت	-11149
زیشن	-11150
▁آیت	-11151
▁مہم	-11152
▁آئیگ	-11153
▁چمّے	-11154
▁کاکڑ	-11155
▁State	-11156
▁اڑاند	-11157
▁ببیت۔	-11158
▁حاطرا	-11159
▁برطانوی	-11160
▁مرادساحر	-11161
کِ	-11162
ھھ	-11163
لسی	-11164
▁26	-11165
▁بعض	-11166
▁قات	-11167
▁‘‘(	-11168
▁ملنگ	-11169
▁مُنیر	-11170
▁چونکہ	-11171
▁اورماڑہ	-11172
▁وارتگیں	-11173
▁ماحولیاتی	-11174
گن	-11175
ایی	-11176
▁قس	-11177
▁۔ا	-11178
انزگ	-11179
▁آنا	-11180
▁شہہ	-11181
▁میا	-11182
▁ہام	-11183
▁بِنا	-11184
▁مادہ	-11185
▁گلءِ	-11186
▁ھیرو	-11187
estern	-11188
▁مستری	-11189
▁کانال	-11190
▁گوشتہ	-11191
▁commun	-11192
▁چولانی	-11193
▁راجدوست	-11194
▁سرداراں	-11195
▁لوگواجہ	-11196
عش	-11197
چا	-11198
پاس	-11199
قادر	-11200
▁Ear	-11201
▁سُه	-11202
پمشکہ	-11203
▁half	-11204
▁مکّہ	-11205
▁ھجبر	-11206
▁نوخیں	-11207
▁وانشت	-11208
▁کُشیت	-11209
▁گوشئے	-11210
▁دیدگانی	-11211
دنی	-11212
▁24	-11213
lear	-11214
▁یلو	-11215
▁آمید	-11216
▁بساک	-11217
▁سرئَ	-11218
▁آسودگ	-11219
▁تھسیل	-11220
▁وفاقی	-11221
▁ٹرانسپورٹ	-11222
yle	-11223
روض	-11224
انین	-11225
گندگ	-11226
▁الط	-11227
▁گجر	-11228
▁یمن	-11229
▁کشاں	-11230
▁اجبیں	-11231
▁تریاک	-11232
▁پرویز	-11233
▁پیادگ	-11234
▁ڈیھاں	-11235
ampions	-11236
▁ایردستی	-11237
▁Division	-11238
۔من	-11239
▁اغ	-11240
▁ولے	-11241
چیاکہ	-11242
▁2011	-11243
▁اُلس	-11244
▁زالے	-11245
▁عالی	-11246
▁پجّی	-11247
▁گْری	-11248
▁بالاں	-11249
▁بنتءُ	-11250
▁محبوب	-11251
▁ڈھاڈر	-11252
▁إیرانی	-11253
▁بروبری	-11254
▁واریاں	-11255
▁release	-11256
ried	-11257
وکار	-11258
▁تبے	-11259
▁اُشک	-11260
▁دیمء	-11261
▁ماہے	-11262
▁گیران	-11263
▁ہَمَا	-11264
▁ٹولیانی	-11265
▁ھمراھداری	-11266
جب	-11267
ستین	-11268
▁مِک	-11269
▁پجی	-11270
▁آثار	-11271
▁جیڑھ	-11272
▁بُوّگ	-11273
▁رسینت	-11274
▁دژمناں	-11275
▁کنت۔۔۔	-11276
▁further	-11277
▁رھشوناں	-11278
▁شاہوانی	-11279
ots	-11280
زادہ	-11281
ھیال	-11282
▁کاؤ	-11283
▁west	-11284
▁ریلو	-11285
▁سماج	-11286
▁لوار	-11287
▁مریض	-11288
▁چنگی	-11289
ماھتاک	-11290
▁.....	-11291
▁مچکدگ	-11292
▁become	-11293
▁نوشتانک	-11294
▁کُرتگیں	-11295
▁چلو	-11296
▁کوڈ	-11297
▁گنا	-11298
▁2006	-11299
▁اَکس	-11300
▁رستر	-11301
▁شعیب	-11302
▁کرکٹ	-11303
ensive	-11304
▁آہیءِ	-11305
▁بروبر	-11306
▁تُپنگ	-11307
▁ہلاسی	-11308
▁اسپیکر	-11309
▁ریکوڈک	-11310
▁نیزگار	-11311
▁یونائی	-11312
▁بوتگنت۔	-11313
▁کارہندہ	-11314
▁According	-11315
enc	-11316
بدل	-11317
▁cr	-11318
rodu	-11319
▁شِر	-11320
▁مصط	-11321
▁کات	-11322
▁طائر	-11323
▁کورس	-11324
▁church	-11325
▁strong	-11326
▁روحانی	-11327
▁سیاستءِ	-11328
▁Although	-11329
تخ	-11330
دریں	-11331
▁ابی	-11332
▁داس	-11333
▁جوزہ	-11334
▁گْوں	-11335
پمیشکہ	-11336
▁راہءُ	-11337
▁سویڈن	-11338
▁ڈیوٹی	-11339
▁ھردیں	-11340
▁بیمناکیں	-11341
▁تہل	-11342
▁موز	-11343
▁پتی	-11344
▁گْر	-11345
▁days	-11346
▁fore	-11347
▁دینے	-11348
▁اناگت	-11349
▁نازرک	-11350
▁ڈنّءَ	-11351
▁یکےءَ	-11352
▁however	-11353
▁ہزارانی	-11354
▁اسرائیلی	-11355
▁کْوھنگیں	-11356
سب	-11357
چُ	-11358
یح	-11359
roy	-11360
بَر	-11361
لنگ	-11362
▁زا	-11363
▁دلچ	-11364
▁ماک	-11365
▁find	-11366
▁ءَرا	-11367
▁بُگش	-11368
▁خلیج	-11369
▁هُدا	-11370
▁Canad	-11371
▁جرنیل	-11372
▁پیداور	-11373
▁پجاروکی	-11374
▁',	-11375
▁زخ	-11376
▁"")	-11377
▁سھت	-11378
▁مِڑ	-11379
▁هِچ	-11380
▁عورت	-11381
▁گوَشت	-11382
▁رجینتگ	-11383
ices	-11384
اِت۔	-11385
ریاں	-11386
▁cur	-11387
▁زْر	-11388
▁ھمت	-11389
▁east	-11390
▁ٹریف	-11391
▁آشکار	-11392
▁دئیگی	-11393
▁سینیٹر	-11394
▁مہربان	-11395
▁تراکانی	-11396
ختہ	-11397
▁22	-11398
▁بلی	-11399
▁تلب	-11400
▁حمی	-11401
▁خار	-11402
▁مرح	-11403
▁ٹوٹ	-11404
ising	-11405
▁بوته	-11406
▁نوید	-11407
▁کِسہ	-11408
▁گمیگ	-11409
▁Count	-11410
▁اوتھل	-11411
▁روشنی	-11412
▁شُتیں	-11413
▁میرین	-11414
▁درمانی	-11415
▁version	-11416
جاز	-11417
کّے	-11418
augh	-11419
▁beh	-11420
▁spe	-11421
▁شاگ	-11422
▁foot	-11423
▁اسکے	-11424
▁جادو	-11425
▁مونج	-11426
▁واراں	-11427
▁مشکلیں	-11428
▁پاکستانء	-11429
▁particular	-11430
نین	-11431
کَن	-11432
دیجہ	-11433
سیمی	-11434
ویژن	-11435
▁ریت	-11436
▁شتہ	-11437
▁ھَر	-11438
ering	-11439
وناکی	-11440
▁بوّگ	-11441
▁دورد	-11442
▁سھرا	-11443
▁مٹیں	-11444
▁پرتو	-11445
▁گردگ	-11446
▁ھورک	-11447
▁گریشگ	-11448
گم	-11449
ize	-11450
ِری	-11451
▁my	-11452
ebru	-11453
ھنیں	-11454
▁low	-11455
▁بوس	-11456
▁آنگو	-11457
▁اصول	-11458
▁باشد	-11459
▁دیئگ	-11460
▁غازی	-11461
▁فعال	-11462
▁پریم	-11463
▁Gener	-11464
▁مھرنگ	-11465
▁Church	-11466
▁ابدمان	-11467
▁ھاندان	-11468
▁واہگانی	-11469
ڈگ	-11470
وتے	-11471
کسہ	-11472
ادیں	-11473
پیسر	-11474
▁آدر	-11475
▁خاک	-11476
▁صدا	-11477
▁prof	-11478
▁البر	-11479
▁عاصم	-11480
▁عاقل	-11481
▁نجیب	-11482
▁نیوی	-11483
▁کنڈی	-11484
▁title	-11485
▁ترینگ	-11486
▁compet	-11487
▁جغرافی	-11488
▁جیڑہاں	-11489
▁کماشاں	-11490
▁بازارءِ	-11491
▁دلوتانی	-11492
▁کسانکیں	-11493
▁کُربانی	-11494
▁position	-11495
▁آرگنائزیشن	-11496
▁داث	-11497
▁محل	-11498
▁ڈلگ	-11499
ھارٹی	-11500
▁مجاہ	-11501
▁پُھر	-11502
▁کلان	-11503
▁مسائل	-11504
▁پہناتاں	-11505
▁کارکنوکیں	-11506
نڈر	-11507
ُرٛ	-11508
پرو	-11509
▁پؤ	-11510
▁ملٹ	-11511
▁West	-11512
▁جناح	-11513
▁لیکھ	-11514
▁ٹُکّ	-11515
▁کامل	-11516
▁گورم	-11517
▁محتاج	-11518
▁مُلکے	-11519
▁پرمات	-11520
▁بناربس	-11521
▁بیستمی	-11522
▁روچتاک	-11523
اہم	-11524
سرم	-11525
رگاہ	-11526
▁مجن	-11527
▁پجہ	-11528
▁چائ	-11529
▁ھمل	-11530
▁اشکر	-11531
▁تیری	-11532
▁شمال	-11533
▁کاسگ	-11534
▁author	-11535
▁درنگاز	-11536
▁رہشونی	-11537
▁زانگءَ	-11538
▁پھریزگ	-11539
▁دژمنانی	-11540
▁military	-11541
عات	-11542
لاہ	-11543
▁بنڈ	-11544
▁ٹار	-11545
▁conv	-11546
▁سدلی	-11547
▁مولد	-11548
▁نباں	-11549
▁واکہ	-11550
▁پکری	-11551
▁Roman	-11552
▁راہءِ	-11553
▁شاباش	-11554
▁لنٹاں	-11555
▁مہراں	-11556
▁ھاسٹل	-11557
▁آزمانگ	-11558
▁دَروَر	-11559
▁ورنائے	-11560
▁زمینانی	-11561
▁آمن	-11562
▁بُگ	-11563
▁لوچ	-11564
▁ڈار	-11565
▁شفیع	-11566
▁علما	-11567
▁عملے	-11568
▁اُرشک	-11569
▁داتیں	-11570
▁میوزک	-11571
▁پادان	-11572
▁ڈسٹرکٹ	-11573
جاج	-11574
ٹیں	-11575
یون	-11576
reen	-11577
یکشن	-11578
▁تہت	-11579
▁ربّ	-11580
▁نکا	-11581
▁هاک	-11582
▁appe	-11583
▁جیڑا	-11584
▁مھلب	-11585
▁گوئی	-11586
▁جنگلے	-11587
▁ترْانگ	-11588
▁دارگءَ	-11589
▁شئرانی	-11590
▁راجکاری	-11591
▁مانزمان	-11592
تھی	-11593
کیت	-11594
ترجم	-11595
▁جزب	-11596
▁رمس	-11597
▁ریٹ	-11598
▁اسپی	-11599
▁هلاس	-11600
▁گُشی	-11601
▁order	-11602
▁المیہ	-11603
▁League	-11604
▁بکناں۔	-11605
▁لیکہءِ	-11606
ندک	-11607
انگو	-11608
▁اجب	-11609
وجانی	-11610
گوازی	-11611
▁زرءِ	-11612
▁شاھد	-11613
▁لیوس	-11614
▁مسیح	-11615
▁کشتی	-11616
outher	-11617
سرجمیں	-11618
▁اِنچو	-11619
▁منزلے	-11620
▁گیریں	-11621
▁آئیڈیل	-11622
▁ابوبکر	-11623
▁بکرتیں	-11624
▁بہرانی	-11625
▁جنجالے	-11626
▁شریدار	-11627
▁آزمانکی	-11628
دیق	-11629
کئے	-11630
ront	-11631
▁sol	-11632
▁مُہ	-11633
▁ویت	-11634
▁چود	-11635
▁کاش	-11636
ittle	-11637
▁اِتہ	-11638
▁برءَ	-11639
▁دیتے	-11640
▁سیال	-11641
▁مئیگ	-11642
▁مذھب	-11643
▁وحید	-11644
▁پشمبے	-11645
▁کمانڈ	-11646
▁کوہءِ	-11647
لبزانکی	-11648
جُ	-11649
▁بتا	-11650
▁band	-11651
▁تجرب	-11652
▁تقری	-11653
▁دیبا	-11654
▁زہرگ	-11655
▁شیرا	-11656
▁لاشے	-11657
▁پیرو	-11658
▁سُتکگ	-11659
▁ماوتی	-11660
▁ہمیشہ	-11661
▁۔اگاں	-11662
outhern	-11663
▁control	-11664
▁دستبندی	-11665
▁نادراہجاہ	-11666
aces	-11667
▁سُد	-11668
▁پشی	-11669
▁Song	-11670
▁ات۔آ	-11671
▁رنگا	-11672
▁سنٹر	-11673
▁عزّت	-11674
▁چاہی	-11675
▁times	-11676
▁اِیں۔	-11677
▁نازءِ	-11678
▁ھرکسی	-11679
▁انتظار	-11680
▁دیوانا	-11681
▁بوتگ۔اے	-11682
شھ	-11683
قبہ	-11684
▁Af	-11685
pped	-11686
▁fre	-11687
▁ران	-11688
▁طبق	-11689
▁ابّا	-11690
▁اومر	-11691
▁Febru	-11692
▁امداد	-11693
▁رسائی	-11694
▁سرکنگ	-11695
▁عہدءِ	-11696
▁نوداں	-11697
▁پشاور	-11698
▁ھرجاہ	-11699
▁شاعرءُ	-11700
▁بنگلزئی	-11701
▁February	-11702
▁ورناھانی	-11703
ابیت	-11704
ڑینگ	-11705
▁نْی	-11706
▁کی۔	-11707
▁یکہ	-11708
▁مروچ	-11709
▁ھیات	-11710
▁لانگو	-11711
▁چیزئے	-11712
▁کوریا	-11713
▁۔بلوچی	-11714
آنی	-11715
▁وژ	-11716
راِت	-11717
گوات	-11718
سیادی	-11719
سیاسی	-11720
▁دلیں	-11721
▁پیٹر	-11722
▁انچین	-11723
▁دزبمب	-11724
▁شاھین	-11725
ینکہ	-11726
▁Ass	-11727
▁چَر	-11728
▁گَر	-11729
▁less	-11730
▁ثناء	-11731
▁مجمو	-11732
▁گوئر	-11733
وہدیکہ	-11734
▁اِیشی	-11735
▁تعداد	-11736
▁دْرست	-11737
▁سْیاہ	-11738
▁مستیں	-11739
▁پہکیں	-11740
▁اِنّاں	-11741
▁اللَّهُ	-11742
شت۔	-11743
وین	-11744
ٹیک	-11745
▁اؤ	-11746
ylan	-11747
لائن	-11748
ِنت۔	-11749
▁ڪُت	-11750
▁گسر	-11751
▁گلا	-11752
▁Geor	-11753
▁defe	-11754
▁gave	-11755
▁vict	-11756
▁بُست	-11757
▁دانا	-11758
▁لٹری	-11759
▁نوشت	-11760
▁بہرءَ	-11761
▁دستور	-11762
▁project	-11763
osp	-11764
سپی	-11765
ڈیں	-11766
روہی	-11767
▁بوتک	-11768
▁کچھی	-11769
▁انگلش	-11770
▁داتءُ	-11771
▁نزدیک	-11772
▁بچارئے	-11773
▁نامگال	-11774
▁نامینگ	-11775
▁کمیونزم	-11776
▁ایمانداری	-11777
شین	-11778
▁ریز	-11779
▁اجزا	-11780
▁بیٹھ	-11781
▁کسھے	-11782
▁Dylan	-11783
▁chang	-11784
▁بوتوں	-11785
▁دُکان	-11786
▁کرتیں	-11787
▁اَنت۔۔	-11788
▁members	-11789
▁اتھارٹی	-11790
▁بگنداِت	-11791
▁وتکاریں	-11792
▁پوریاگر	-11793
▁گالوارے	-11794
▁reported	-11795
ذیر	-11796
لوت	-11797
▁تَل	-11798
▁شرک	-11799
▁کچّ	-11800
مُلّا	-11801
▁nort	-11802
▁ابدی	-11803
▁دفتر	-11804
▁دَرا	-11805
▁ورزی	-11806
▁باپار	-11807
▁نازاں	-11808
▁ٹریفک	-11809
▁ہوشام	-11810
▁ڈاکٹرے	-11811
▁گْوانک	-11812
ِے	-11813
پَ	-11814
▁28	-11815
rick	-11816
مبشت	-11817
▁دھم	-11818
▁Park	-11819
▁شناس	-11820
▁ٹائی	-11821
▁اولسر	-11822
▁جنکیں	-11823
▁میریں	-11824
▁جاورحال	-11825
▁کمیونٹی	-11826
▁رھشونانی	-11827
سس	-11828
arm	-11829
شکر	-11830
▁بِد	-11831
▁سنا	-11832
تکاری	-11833
▁اَھد	-11834
▁بندہ	-11835
▁موٹل	-11836
▁شہرءِ	-11837
▁مصیبت	-11838
▁کردیا	-11839
▁ھزانگ	-11840
▁چنانچہ	-11841
▁گوٛازی	-11842
▁اَنت۔۔۔۔	-11843
ہچ	-11844
▁nov	-11845
▁تیس	-11846
▁خور	-11847
▁زتک	-11848
▁شرح	-11849
▁صاب	-11850
▁نگو	-11851
زاناں	-11852
▁بلدی	-11853
▁جوزگ	-11854
▁وشتر	-11855
▁پھلی	-11856
▁بدنءِ	-11857
▁گنجائش	-11858
▁ھورکیں	-11859
▁جاہمنند	-11860
▁produced	-11861
طنی	-11862
▁شگ	-11863
کیشن	-11864
▁ٹیچ	-11865
▁stat	-11866
▁آسری	-11867
▁ھندے	-11868
▁total	-11869
▁راہاں	-11870
▁معنایے	-11871
▁پژدرءَ	-11872
▁کمانڈر	-11873
levision	-11874
▁بلوچانءِ	-11875
▁آزمانکاری	-11876
isc	-11877
حسن	-11878
▁شۆ	-11879
▁لز	-11880
eter	-11881
hern	-11882
سوار	-11883
▁آحت	-11884
▁تپر	-11885
▁ہیگ	-11886
▁2012	-11887
▁تگرد	-11888
▁رکین	-11889
▁سنگھ	-11890
▁همیش	-11891
▁اسلءَ	-11892
▁لنکُک	-11893
▁علاقوں	-11894
▁واقعات	-11895
▁گنوکیں	-11896
▁زمیندار	-11897
▁Old	-11898
▁ماز	-11899
▁کُن	-11900
▁ینگ	-11901
aying	-11902
▁زالم	-11903
▁بارڈر	-11904
▁ماہءَ	-11905
▁کشّان	-11906
▁مرادانی	-11907
لاپ	-11908
▁ٹِ	-11909
iety	-11910
▁arr	-11911
▁برُ	-11912
▁آیگی	-11913
▁ترءُ	-11914
▁سَوب	-11915
▁تْرمپ	-11916
▁لوٹنت	-11917
▁کارئے	-11918
▁اتحادی	-11919
▁دنیائی	-11920
جَ	-11921
جیٹل	-11922
ینڈر	-11923
▁جاس	-11924
▁جَنت	-11925
▁رِدا	-11926
▁مغرب	-11927
▁وتکُ	-11928
▁ولید	-11929
▁اسرار	-11930
▁پارست	-11931
▁رُژنائی	-11932
▁اوشتوکیں	-11933
ْن	-11934
ارف	-11935
مزن	-11936
پءَ	-11937
بارت	-11938
ینکس	-11939
▁لیس	-11940
▁ہچی	-11941
ailed	-11942
▁cult	-11943
▁شادہ	-11944
▁مابع	-11945
▁کیوں	-11946
▁گریبی	-11947
▁popular	-11948
▁اگبالانی	-11949
esc	-11950
پشت	-11951
oung	-11952
پاری	-11953
▁ter	-11954
▁آنگ	-11955
▁سیا	-11956
▁گؤں	-11957
▁fire	-11958
▁بہتر	-11959
▁سوبا	-11960
▁ظالم	-11961
▁گولے	-11962
▁انجام	-11963
▁اپسوز	-11964
▁جانور	-11965
▁کوہاں	-11966
▁تخلیقی	-11967
▁ندارگے	-11968
▁production	-11969
گڈ	-11970
urs	-11971
بیل	-11972
ّتے	-11973
ھمک	-11974
apan	-11975
کرار	-11976
یتءُ	-11977
▁بیثہ	-11978
▁راجہ	-11979
▁پدری	-11980
▁ھُبّ	-11981
▁برگیڈ	-11982
▁دلجان	-11983
▁شوهاز	-11984
▁پُژدر	-11985
▁۔ایشی	-11986
▁منندیں	-11987
▁یونائیٹڈ	-11988
hem	-11989
ست۔	-11990
شور	-11991
کند	-11992
ہری	-11993
▁؟”	-11994
▁obs	-11995
▁چِن	-11996
▁کٹی	-11997
▁شدید	-11998
▁پَدا	-11999
▁کینی	-12000
ارینتگ	-12001
▁حوالے	-12002
▁دیستہ	-12003
▁ذرائع	-12004
▁رائٹس	-12005
▁قریشی	-12006
▁جمھوری	-12007
▁جونانی	-12008
▁دُرستاں	-12009
▁سوبمندیں	-12010
▁لوٹائینت	-12011
هُ	-12012
▁Pol	-12013
▁Sim	-12014
▁بگی	-12015
▁جسے	-12016
▁فوک	-12017
▁ڈوم	-12018
▁آنگر	-12019
▁بیگی	-12020
▁چندن	-12021
▁بندگی	-12022
▁وشھال	-12023
ression	-12024
▁سمندری	-12025
▁ناسرپد	-12026
▁tropical	-12027
مدل	-12028
ُمْ	-12029
ّام	-12030
▁أَ	-12031
▁وض	-12032
ؤرتگ	-12033
تکان	-12034
عربی	-12035
▁بسّ	-12036
▁وژن	-12037
▁کؤر	-12038
▁post	-12039
▁شیری	-12040
▁صباء	-12041
▁ناکۆ	-12042
▁ملگور	-12043
▁اداراں	-12044
▁لُنٹاں	-12045
▁کردانی	-12046
▁یاداشت	-12047
▁دردناکیں	-12048
ؤٹ	-12049
▁Ha	-12050
▁بتی	-12051
▁عیش	-12052
▁غصہ	-12053
▁پجا	-12054
▁پرگ	-12055
▁۔کہ	-12056
▁آسءَ	-12057
▁تائی	-12058
▁دفاع	-12059
▁رکھا	-12060
▁عبید	-12061
▁کردہ	-12062
▁ہست۔	-12063
▁تصویر	-12064
▁رپتار	-12065
▁ندارگاں	-12066
▁عبدالمالک	-12067
ولپ	-12068
علوم	-12069
▁وزی	-12070
▁پیٹ	-12071
....!	-12072
▁سرکش	-12073
▁مھلو	-12074
▁تہلیں	-12075
▁جیڑیت	-12076
▁کنگءُ	-12077
▁ہمگرٛ	-12078
▁دراَتک	-12079
▁لاگریں	-12080
▁کتابءَ	-12081
بیان	-12082
▁Ste	-12083
▁ھَم	-12084
▁ازاب	-12085
▁دماگ	-12086
▁زہگے	-12087
ائینت۔	-12088
بیگواہ	-12089
▁ٹپانی	-12090
▁critic	-12091
▁forces	-12092
▁ایردست	-12093
▁فلسطین	-12094
▁پراموش	-12095
▁رہبنداں	-12096
▁ریگستان	-12097
▁مُلکانی	-12098
جہل	-12099
مرز	-12100
ھنچ	-12101
ford	-12102
▁برہ	-12103
▁رکش	-12104
▁فال	-12105
▁کَپ	-12106
▁عادل	-12107
▁چُنڈ	-12108
▁گڈّی	-12109
▁Japan	-12110
▁سفارت	-12111
▁پرزند	-12112
▁انچشکہ	-12113
▁تچوکیں	-12114
▁فیکٹری	-12115
▁مشینری	-12116
▁گْونڈیں	-12117
▁children	-12118
زب	-12119
ush	-12120
هار	-12121
وٹو	-12122
کناں	-12123
ھدار	-12124
▁pat	-12125
▁کچہ	-12126
▁مُپت	-12127
▁پرائ	-12128
▁گسءَ	-12129
▁برائے	-12130
▁بیائے	-12131
▁سبارگ	-12132
▁سوبیں	-12133
▁مخالف	-12134
▁ملکیت	-12135
▁histor	-12136
▁مسترین	-12137
▁آزمانکءِ	-12138
شہر	-12139
▁Ed	-12140
▁ترپ	-12141
▁خدم	-12142
▁سُب	-12143
▁درپش	-12144
▁گرما	-12145
▁بلیدی	-12146
▁درستی	-12147
▁ساپیں	-12148
▁ویروس	-12149
▁کنوکے	-12150
▁ہرچیز	-12151
▁having	-12152
▁چاریگی	-12153
▁include	-12154
▁سرگْوست	-12155
مق	-12156
ایس	-12157
ژنے	-12158
▁غذ	-12159
echn	-12160
گْوش	-12161
▁حاجت	-12162
▁حقیق	-12163
▁لپرز	-12164
▁نشت۔	-12165
▁۔پدا	-12166
▁رفتار	-12167
▁ناکوز	-12168
▁کندان	-12169
▁آوانءِ	-12170
▁جیڑھاں	-12171
▁سرکارا	-12172
▁مردانی	-12173
▁مہلوکءِ	-12174
▁انگریزاں	-12175
▁ھمروچیگیں	-12176
▁............	-12177
ald	-12178
شال	-12179
ورد	-12180
بتان	-12181
▁بَد	-12182
▁هدا	-12183
▁پمێ	-12184
▁اَمب	-12185
▁خمار	-12186
▁مسجد	-12187
▁پیروک	-12188
▁جہلانک	-12189
ne	-12190
ڑد	-12191
ھشت	-12192
ours	-12193
ring	-12194
رانہ	-12195
▁فرم	-12196
▁ڈیز	-12197
▁ڈیہ	-12198
▁surv	-12199
▁اشتگ	-12200
▁بابل	-12201
▁حجال	-12202
▁شہدگ	-12203
▁influ	-12204
▁invol	-12205
▁جاورے	-12206
▁راھاں	-12207
▁شعرءَ	-12208
▁ناجوڑ	-12209
▁نہیں۔	-12210
▁پاساں	-12211
▁چاروک	-12212
▁ھاٹیگ	-12213
▁شَرّیں	-12214
هم	-12215
▁sk	-12216
غلام	-12217
▁آتی	-12218
▁اتا	-12219
▁دِی	-12220
▁سخی	-12221
▁سنس	-12222
▁واڑ	-12223
▁گی۔	-12224
alion	-12225
▁جھلی	-12226
▁لگور	-12227
▁مردگ	-12228
▁پیمے	-12229
▁ڈَنّ	-12230
▁لاطینی	-12231
▁نبشتہی	-12232
رَ	-12233
میز	-12234
rent	-12235
جوئی	-12236
ولاں	-12237
▁بحت	-12238
▁همک	-12239
▁lost	-12240
▁آتکہ	-12241
▁جنّت	-12242
▁ستکگ	-12243
▁ڈاؤن	-12244
▁تْرند	-12245
▁دمانی	-12246
▁سہریں	-12247
▁لوزاں	-12248
▁متلبے	-12249
▁ھیالی	-12250
▁Su	-12251
atic	-12252
▁aff	-12253
▁جُر	-12254
▁اوّل	-12255
▁دردی	-12256
▁رویش	-12257
▁given	-12258
▁امانت	-12259
▁باتیں	-12260
▁دشتار	-12261
▁وشیاں	-12262
▁پہلوی	-12263
▁إیشیءِ	-12264
▁country	-12265
."	-12266
کیو	-12267
نسٹی	-12268
▁برم	-12269
چاراں	-12270
▁want	-12271
▁اِش۔	-12272
▁تھیں	-12273
▁رِند	-12274
▁سامی	-12275
▁ہمبل	-12276
▁بلکنہ	-12277
▁ذریعے	-12278
▁آبادیں	-12279
▁بربادی	-12280
▁سلکاری	-12281
▁ایرانءَ	-12282
عمل	-12283
ڈیم	-12284
ably	-12285
▁تما	-12286
▁ہول	-12287
انگیر	-12288
▁ترسے	-12289
▁روزی	-12290
▁سماہ	-12291
▁ورزش	-12292
▁پردگ	-12293
▁کنڈگ	-12294
▁ھمّل	-12295
▁بخاری	-12296
▁ڈویژن	-12297
▁کتگءُ	-12298
▁ہردیں	-12299
▁انگریزوں	-12300
▁represent	-12301
اکے	-12302
ّیگ	-12303
work	-12304
▁سدی	-12305
▁پئو	-12306
...‘‘	-12307
رداری	-12308
▁ایٹم	-12309
▁غفور	-12310
▁اَنگت	-12311
▁بھیسہ	-12312
▁جانءِ	-12313
▁حداءَ	-12314
▁دارئے	-12315
▁دیاں۔	-12316
▁لبزءُ	-12317
▁موسمے	-12318
▁گارءُ	-12319
▁شوربند	-12320
▁نزانتگ	-12321
▁کامران	-12322
▁بزانتیں	-12323
▁دُرستیں	-12324
▁کارکردگی	-12325
بلا	-12326
نا۔	-12327
▁El	-12328
omen	-12329
ختون	-12330
ہوار	-12331
▁شَپ	-12332
▁ڈبہ	-12333
▁کپی	-12334
▁برنج	-12335
▁مشتر	-12336
▁پورم	-12337
▁گُپت	-12338
▁یانی	-12339
▁اُگدہ	-12340
▁مہلنج	-12341
▁مَردُم	-12342
▁ھمایاں	-12343
▁ھُشکیں	-12344
▁signific	-12345
فری	-12346
▁Dav	-12347
▁لزت	-12348
▁Cent	-12349
▁شرین	-12350
▁مجیب	-12351
▁منءُ	-12352
▁ندوی	-12353
▁manag	-12354
▁بستگ۔	-12355
▁حالگش	-12356
▁راجءَ	-12357
▁چارِت	-12358
▁دْراہیں	-12359
▁راستیءَ	-12360
ope	-12361
غنی	-12362
▁یق	-12363
ploy	-12364
▁ظال	-12365
▁بروس	-12366
▁زراب	-12367
▁سربر	-12368
▁چھوڑ	-12369
▁press	-12370
▁رنجاں	-12371
▁شومیں	-12372
▁نامءِ	-12373
▁پکراں	-12374
▁کمپان	-12375
▁کپتیں	-12376
▁اقتدار	-12377
▁بُوئیگ	-12378
▁خواتین	-12379
▁General	-12380
▁جنگوجانی	-12381
...........	-12382
ئشت	-12383
واه	-12384
ٹنگ	-12385
▁۔ک	-12386
vers	-12387
لائی	-12388
▁equ	-12389
▁جنے	-12390
▁رہن	-12391
▁صوت	-12392
▁2013	-12393
▁جندے	-12394
▁ضمان	-12395
▁لبرل	-12396
▁وتکش	-12397
▁تنیگہ	-12398
▁حفاظت	-12399
▁دوداں	-12400
▁رنگءِ	-12401
▁ھندءُ	-12402
ges	-12403
لوہ	-12404
ولہ	-12405
پال	-12406
شریں	-12407
▁شمب	-12408
ارینت	-12409
▁Miss	-12410
▁comb	-12411
▁مزید	-12412
▁پُھل	-12413
▁کِنز	-12414
▁eight	-12415
▁بیلاں	-12416
▁گارڈز	-12417
▁السلام	-12418
▁محکمیں	-12419
ades	-12420
reet	-12421
اسٹر	-12422
رینہ	-12423
▁sit	-12424
▁وہی	-12425
رلینڈ	-12426
▁seen	-12427
▁site	-12428
▁تسلا	-12429
▁بنگال	-12430
▁درہیں	-12431
▁ناگیگ	-12432
▁program	-12433
▁دُراھیں	-12434
▁مھروانیں	-12435
▁زھرشانیانی	-12436
لر	-12437
irc	-12438
▁ٹن	-12439
▁سجہ	-12440
▁ھم۔	-12441
راہاں	-12442
▁آمین	-12443
▁تماہ	-12444
▁رژنا	-12445
▁صحیح	-12446
▁وَتی	-12447
▁پدرد	-12448
▁ہوا۔	-12449
▁ازمءُ	-12450
▁اِنکس	-12451
▁سرتاک	-12452
▁کرناں	-12453
▁گشیت۔	-12454
▁رُستگیں	-12455
▁لُنٹانی	-12456
sp	-12457
ones	-12458
▁تَو	-12459
ادگیں	-12460
▁جنزگ	-12461
▁منئَ	-12462
▁نِزّ	-12463
▁اشعار	-12464
▁جنینی	-12465
▁خیرات	-12466
▁دارال	-12467
▁عبدالکریم	-12468
زک	-12469
ۆش	-12470
oon	-12471
ینٹ	-12472
▁خم	-12473
چیءَ	-12474
▁آتش	-12475
▁تبی	-12476
▁سلی	-12477
▁عدم	-12478
▁چَٹ	-12479
▁گُو	-12480
راَنت	-12481
▁اعلی	-12482
▁مِرگ	-12483
▁نوٹس	-12484
▁گندی	-12485
▁ہوکر	-12486
ration	-12487
▁Afric	-12488
▁match	-12489
▁never	-12490
▁دکانے	-12491
▁ماراں	-12492
▁making	-12493
▁ھمدردی	-12494
▁کماندان	-12495
▁کردارانی	-12496
ٹش	-12497
رود	-12498
▁50	-12499
سرپد	-12500
مانا	-12501
▁fem	-12502
▁ذیل	-12503
▁پُت	-12504
▁بحری	-12505
▁پانز	-12506
▁اندام	-12507
▁کرپشن	-12508
▁establ	-12509
▁stated	-12510
▁الکاپی	-12511
▁واجہیں	-12512
▁گيئشتر	-12513
▁پاسپورٹ	-12514
لن	-12515
روم	-12516
یمیں	-12517
▁لیم	-12518
▁ٹکٹ	-12519
▁یکد	-12520
ither	-12521
چریشی	-12522
▁body	-12523
▁plan	-12524
▁بیبو	-12525
▁ٹرمپ	-12526
▁پلنگ	-12527
▁۔ہمے	-12528
▁اجزاء	-12529
▁وانگا	-12530
▁ریاستے	-12531
▁زُرتگ۔	-12532
▁شائراں	-12533
ائٹ	-12534
حکم	-12535
ہمیش	-12536
▁ord	-12537
▁سحر	-12538
▁مزل	-12539
▁پلس	-12540
▁کَر	-12541
▁fact	-12542
▁read	-12543
▁اکسے	-12544
▁بیوس	-12545
▁فرید	-12546
▁لاگر	-12547
▁پیکر	-12548
▁چَکّ	-12549
▁چھٹی	-12550
▁دُزّی	-12551
▁شادان	-12552
▁should	-12553
▁بتلانی	-12554
▁عربانی	-12555
▁نادریں	-12556
▁بارکزئی	-12557
لِ	-12558
اید	-12559
بشک	-12560
جرت	-12561
▁ءِ۔	-12562
▁شکی	-12563
کرتگ۔	-12564
▁توصی	-12565
▁جُهد	-12566
▁ریگی	-12567
▁سہتے	-12568
▁مُچّ	-12569
▁While	-12570
▁انڈین	-12571
▁بْرمش	-12572
▁تباھی	-12573
▁جنگلی	-12574
▁شالءِ	-12575
▁مناسب	-12576
▁دانائی	-12577
▁پُرشتگ	-12578
▁رہشونانی	-12579
▁سانتیاگون	-12580
اصل	-12581
▁Ev	-12582
sequ	-12583
ائشت	-12584
خانہ	-12585
▁!!!	-12586
▁جوک	-12587
▁دمبر	-12588
▁وارڈ	-12589
▁کلیت	-12590
سفرخان	-12591
▁ایدیم	-12592
▁بدیاں	-12593
▁لوٹتگ	-12594
▁مجاہد	-12595
▁بندیگی	-12596
▁دَرونت	-12597
▁گیشوار	-12598
▁اسمائیل	-12599
▁داراِیت	-12600
جہد	-12601
ator	-12602
▁برق	-12603
▁علت	-12604
▁لوک	-12605
▁موٹ	-12606
▁چتو	-12607
▁انجن	-12608
▁انکل	-12609
▁بجنت	-12610
▁سریگ	-12611
▁چہار	-12612
▁سُرین	-12613
▁ماسکو	-12614
▁ناوان	-12615
▁گێشتر	-12616
▁دھلیءِ	-12617
▁ایمنسٹی	-12618
▁returned	-12619
▁University	-12620
fic	-12621
مرگ	-12622
بشتہ	-12623
▁soc	-12624
▁بها	-12625
▁جذب	-12626
بنداں	-12627
▁روپی	-12628
▁لبزی	-12629
▁مکان	-12630
▁مہتر	-12631
▁پادے	-12632
▁کراس	-12633
▁انعام	-12634
▁بوت۔۔۔	-12635
▁واجہاں	-12636
▁دیمروہی	-12637
▁وانوکیں	-12638
▁ورناھاں	-12639
▁ھمسیادی	-12640
دت	-12641
میح	-12642
وشن	-12643
ێنت	-12644
زادی	-12645
▁رفت	-12646
▁پهک	-12647
▁گلّ	-12648
انسال	-12649
ردوسی	-12650
▁اٹلی	-12651
▁جَتگ	-12652
▁جذبات	-12653
▁ساعتے	-12654
▁ودّان	-12655
▁گُڈسر	-12656
▁گِراں	-12657
▁سینزدہ	-12658
ological	-12659
▁ادارگانی	-12660
بءِ	-12661
دءِ	-12662
چاپ	-12663
▁27	-12664
▁ft	-12665
ربری	-12666
یروز	-12667
▁ازت	-12668
▁غور	-12669
▁پاپ	-12670
▁کہنا	-12671
▁ربیتی	-12672
▁نِزور	-12673
▁پشومان	-12674
▁آسٹریلیا	-12675
aun	-12676
▁er	-12677
▁بۆ	-12678
یشتر	-12679
یگان	-12680
▁آتا	-12681
▁وکٹ	-12682
▁ٹکی	-12683
▁ٹیگ	-12684
▁کٹم	-12685
▁ہوج	-12686
▁آیات	-12687
▁نکاح	-12688
▁وارے	-12689
▁کُدر	-12690
▁اَت۔۔	-12691
▁بہرام	-12692
▁جنگاں	-12693
▁قَالَ	-12694
▁پرورد	-12695
▁گواہی	-12696
▁بوئگءَ	-12697
▁بیتاں۔	-12698
▁وشحالی	-12699
▁حیالداری	-12700
ape	-12701
ٗور	-12702
▁یز	-12703
امیت	-12704
▁190	-12705
▁پرْ	-12706
▁اپیل	-12707
▁سالا	-12708
▁sound	-12709
▁اصلیں	-12710
▁بالیگ	-12711
▁بندءُ	-12712
▁مشورہ	-12713
▁بودناکی	-12714
▁دیوالاں	-12715
rem	-12716
اتہ	-12717
چیز	-12718
ھند	-12719
▁how	-12720
▁سیْ	-12721
▁نوی	-12722
▁دمَگ	-12723
▁سعدی	-12724
▁فراز	-12725
▁لگیت	-12726
▁اِشتگ	-12727
▁بیھال	-12728
▁ھمیشاں	-12729
▁گورنمنٹ	-12730
..........	-12731
فے	-12732
بنگ	-12733
فیہ	-12734
▁Ne	-12735
زادگ	-12736
صاحب	-12737
▁gen	-12738
گیشتر	-12739
▁محسن	-12740
▁نائی	-12741
▁پترگ	-12742
▁گونگ	-12743
▁These	-12744
▁بندوب	-12745
▁ربیّت	-12746
▁زمینے	-12747
▁قاضیؔ	-12748
▁ھالیگ	-12749
▁island	-12750
▁حبرانی	-12751
▁راھانی	-12752
▁زبانءُ	-12753
▁کوشانی	-12754
▁America	-12755
▁کامیابی	-12756
▁نمائندگی	-12757
غات	-12758
▁cou	-12759
▁زهر	-12760
▁۔ما	-12761
▁earl	-12762
▁جارے	-12763
▁عمان	-12764
▁فورم	-12765
▁ماحل	-12766
▁مُدّ	-12767
▁ٹیچر	-12768
▁ships	-12769
▁حیاتی	-12770
▁شالءَ	-12771
▁مرگءَ	-12772
▁کھڑکی	-12773
▁یکشلی	-12774
▁announ	-12775
▁struct	-12776
▁بزّگیں	-12777
▁پُترتگ	-12778
▁دریگتیں	-12779
▁مسلماناں	-12780
▁established	-12781
اشم	-12782
▁زح	-12783
▁بیو	-12784
▁دُگ	-12785
▁غلط	-12786
▁کزا	-12787
▁ھترہ	-12788
...!‘‘	-12789
▁بھرام	-12790
▁غمانی	-12791
▁جاھانی	-12792
▁رسینتگ	-12793
▁طاقتور	-12794
▁منظوری	-12795
▁انت۔آئی	-12796
▁بمبگواری	-12797
▁زانتکارے	-12798
▁ورناہانی	-12799
ampionship	-12800
af	-12801
ّم	-12802
اکت	-12803
گرد	-12804
آہاں	-12805
▁god	-12806
▁Jack	-12807
▁ایاز	-12808
▁جھدے	-12809
▁مُزّ	-12810
▁پیرس	-12811
▁چُلّ	-12812
▁ڈکشن	-12813
▁کَلّ	-12814
▁یدار	-12815
▁chart	-12816
▁اینگل	-12817
▁توانا	-12818
▁جیڑہے	-12819
▁حشکیں	-12820
▁دراھی	-12821
▁پیوست	-12822
▁ground	-12823
▁ڈگارءَ	-12824
▁سرمچارے	-12825
▁population	-12826
یع	-12827
aff	-12828
▁jo	-12829
▁ڈِ	-12830
ream	-12831
▁cat	-12832
▁div	-12833
▁وند	-12834
▁چلّ	-12835
▁یکم	-12836
راستی	-12837
▁جاہی	-12838
▁شانز	-12839
▁روٹکی	-12840
▁سیدءِ	-12841
▁لوٹِت	-12842
▁گردان	-12843
▁ہاسیں	-12844
▁کشمیری	-12845
▁reached	-12846
▁کارستاں	-12847
بچک	-12848
▁غز	-12849
آنکہ	-12850
▁مُس	-12851
▁وصف	-12852
▁پچے	-12853
▁اِسپ	-12854
▁سورس	-12855
▁گنبد	-12856
ground	-12857
▁برٛات	-12858
▁روگءِ	-12859
▁زردار	-12860
▁کوہءَ	-12861
▁میاریں	-12862
▁کِرّءَ	-12863
▁ترسناکیں	-12864
▁دزمانجنی	-12865
.(	-12866
نیڈ	-12867
▁ڈؤ	-12868
view	-12869
آوار	-12870
▁Ire	-12871
▁اِم	-12872
▁سدل	-12873
▁ولد	-12874
▁گفت	-12875
▁گُن	-12876
▁وفاق	-12877
▁پیسہ	-12878
▁چیری	-12879
شتیاری	-12880
▁light	-12881
▁noted	-12882
▁اوزار	-12883
▁زرّاں	-12884
▁نیمگی	-12885
▁کوچگی	-12886
▁کینسر	-12887
▁سانمند	-12888
▁نامداری	-12889
▁گوادرءِ	-12890
ki	-12891
ُد	-12892
ڈہ	-12893
aul	-12894
▁فہ	-12895
▁بْی	-12896
▁جُت	-12897
▁میچ	-12898
▁away	-12899
▁حوری	-12900
▁کتہ۔	-12901
▁Black	-12902
▁ماتاں	-12903
▁friend	-12904
▁دارایت	-12905
▁معناءُ	-12906
▁ڈیجیٹل	-12907
▁Ireland	-12908
▁راجدپترءَ	-12909
ffic	-12910
ille	-12911
used	-12912
ترین	-12913
igade	-12914
ument	-12915
▁قاصد	-12916
▁اسٹیٹ	-12917
▁براتی	-12918
▁دردءُ	-12919
▁تقریبا	-12920
▁ورناہاں	-12921
▁ہمراہاں	-12922
کرو	-12923
▁بُڈ	-12924
▁هند	-12925
▁گھڑ	-12926
▁شاید	-12927
▁فارس	-12928
▁بئیگا	-12929
▁دائما	-12930
▁دشمنی	-12931
▁نصیحت	-12932
ination	-12933
▁زورگری	-12934
▁استالاں	-12935
na	-12936
ese	-12937
oll	-12938
تاور	-12939
ریان	-12940
پریس	-12941
▁Reg	-12942
▁lim	-12943
▁داغ	-12944
▁زھی	-12945
▁گنی	-12946
▁کُبل	-12947
▁دْروت	-12948
▁رُدیت	-12949
▁شعرءُ	-12950
▁across	-12951
▁حسابءَ	-12952
▁پمێشکا	-12953
▁thought	-12954
▁گیشواری	-12955
▁developed	-12956
▁لوٹائینتگ	-12957
▁throughout	-12958
غت	-12959
iec	-12960
جند	-12961
▁بسی	-12962
▁پوت	-12963
بزانت	-12964
▁Lond	-12965
▁Mich	-12966
▁سوڑگ	-12967
▁شتگ۔	-12968
▁مفتی	-12969
▁مَنی	-12970
▁ترّان	-12971
▁ذگریں	-12972
▁رازاں	-12973
▁لانچر	-12974
▁هئیال	-12975
▁چیدگے	-12976
▁ایرانء	-12977
▁وتواجھی	-12978
▁پشومانی	-12979
لاق	-12980
▁ڈڈ	-12981
ords	-12982
فاضل	-12983
▁حدے	-12984
▁متو	-12985
▁ناخ	-12986
▁نثر	-12987
▁چدو	-12988
▁چرچ	-12989
انچیں	-12990
▁جاسک	-12991
▁درکا	-12992
▁دکتر	-12993
▁نااُ	-12994
▁لیکچر	-12995
▁نِمدی	-12996
▁کِشار	-12997
رجانکار	-12998
▁بکشاتگ	-12999
▁عَ	-13000
خالق	-13001
یشیا	-13002
▁بدو	-13003
▁خرا	-13004
▁سکھ	-13005
▁فلاں	-13006
▁لرزگ	-13007
▁مشرف	-13008
▁ھَست	-13009
▁seven	-13010
▁بابتء	-13011
▁توازن	-13012
▁تُرند	-13013
▁دوھیں	-13014
▁مذھبی	-13015
▁مراقبہ	-13016
▁مولابخش	-13017
▁عبدالحکیم	-13018
میل	-13019
aint	-13020
قرار	-13021
گوشگ	-13022
یشان	-13023
▁cast	-13024
▁گونی	-13025
▁somet	-13026
▁آئیئِ	-13027
▁بلاول	-13028
▁تسلسل	-13029
▁نیادی	-13030
▁گرٛان	-13031
▁ھوشام	-13032
▁تامدار	-13033
▁موسماں	-13034
▁روزگاری	-13035
▁زالبولیں	-13036
ٗو	-13037
یدا	-13038
▁gl	-13039
ster	-13040
پرچے	-13041
▁فعل	-13042
▁proc	-13043
▁تانا	-13044
▁میڑہ	-13045
▁گساں	-13046
▁گھنٹ	-13047
روکپتی	-13048
▁دردءِ	-13049
▁مُلاّ	-13050
▁نیلیں	-13051
▁London	-13052
▁آئوکیں	-13053
▁زبانوں	-13054
▁William	-13055
▁نگدکاری	-13056
سما	-13057
میا	-13058
ُکم	-13059
▁إِ	-13060
انگر	-13061
زانک	-13062
نامگ	-13063
▁pra	-13064
▁rad	-13065
▁پام	-13066
▁اونٹ	-13067
▁بدلا	-13068
▁الیاس	-13069
▁اینٹی	-13070
▁پُشدر	-13071
▁گواتے	-13072
▁introdu	-13073
▁ھردوئیں	-13074
روگ	-13075
واد	-13076
▁ٹٹ	-13077
امرد	-13078
غنت۔	-13079
مولی	-13080
▁رؤف	-13081
▁good	-13082
▁روئگ	-13083
▁صغیر	-13084
▁ھونی	-13085
بوتگیں	-13086
▁Feder	-13087
▁using	-13088
▁درھیں	-13089
▁سوبءَ	-13090
▁مسکیں	-13091
▁بچاریت	-13092
▁دانکاں	-13093
▁دیستیں	-13094
▁زانوگر	-13095
▁سْیاسی	-13096
▁گْوشیت	-13097
▁himself	-13098
▁ایجوکیشن	-13099
▁پروردگار	-13100
▁development	-13101
دوس	-13102
پءِ	-13103
انگت	-13104
یسنگ	-13105
▁ٹیر	-13106
▁ھنک	-13107
▁نوان	-13108
▁ھئور	-13109
▁نشانے	-13110
▁پُترگ	-13111
▁سستگیں	-13112
▁ناگتیں	-13113
▁عبدالصبور	-13114
ٹہ	-13115
شّی	-13116
میتی	-13117
▁نسب	-13118
iness	-13119
نداری	-13120
▁حلقہ	-13121
▁دُرس	-13122
▁رحمن	-13123
▁سائٹ	-13124
▁ڈولی	-13125
▁ڈیلہ	-13126
▁black	-13127
▁ادارے	-13128
▁بدنءَ	-13129
▁زورءُ	-13130
▁ماڈرن	-13131
▁ماھاں	-13132
▁پاہار	-13133
▁پٹرول	-13134
▁گوٛات	-13135
▁ہرکسی	-13136
▁زورآور	-13137
▁شوندات	-13138
▁ٹریکٹر	-13139
▁انچائیں	-13140
▁مہربانی	-13141
عظم	-13142
ین۔	-13143
▁صَ	-13144
▁سَد	-13145
▁پڑی	-13146
▁چکی	-13147
▁سینہ	-13148
▁لینن	-13149
▁وڑءُ	-13150
▁پجاہ	-13151
▁ڈیوا	-13152
▁کاپی	-13153
▁بوگءِ	-13154
▁دانکے	-13155
▁ریاضی	-13156
omb	-13157
لوس	-13158
یمگ	-13159
▁رع	-13160
▁زک	-13161
▁۔گ	-13162
▁شلو	-13163
▁ٹول	-13164
▁گپا	-13165
نتریں	-13166
پارگی	-13167
چاریں	-13168
▁دہلی	-13169
▁رکھی	-13170
▁ٹُکر	-13171
▁کرنچ	-13172
▁کُٹم	-13173
▁ائولی	-13174
▁تُربت	-13175
▁مومنٹ	-13176
▁نشتاں	-13177
▁ریگزار	-13178
▁ساربان	-13179
▁سرجمءَ	-13180
▁پئیمیں	-13181
▁پیمانہ	-13182
▁ھندانی	-13183
▁بوتگاں۔	-13184
▁ایکسپریس	-13185
▁عبدالغفار	-13186
مث	-13187
ۆر	-13188
ِیں	-13189
▁فش	-13190
مانہ	-13191
کنئگ	-13192
▁Har	-13193
▁hig	-13194
▁الا	-13195
▁بدا	-13196
▁حوص	-13197
▁خال	-13198
▁نسر	-13199
▁نُک	-13200
▁گپی	-13201
▁ھَو	-13202
▁آبات	-13203
▁ارزش	-13204
▁ارسی	-13205
▁ازیت	-13206
▁بلاک	-13207
▁ڈھان	-13208
▁گئیں	-13209
▁ایپلی	-13210
▁نازُر	-13211
▁گیپت۔	-13212
▁کێنگءِ	-13213
ریق	-13214
هان	-13215
▁رق	-13216
aren	-13217
reek	-13218
امان	-13219
بندگ	-13220
ُران	-13221
▁ide	-13222
▁شاخ	-13223
▁ٹھی	-13224
▁کمر	-13225
▁ینت	-13226
▁felt	-13227
▁ارتق	-13228
▁اماں	-13229
▁سباہ	-13230
▁کنڈے	-13231
▁گندے	-13232
idence	-13233
▁human	-13234
▁توصیف	-13235
▁چنگیز	-13236
▁جاپانی	-13237
▁ھمودءَ	-13238
▁بندرگاہ	-13239
▁اِنت۔۔۔۔	-13240
▁Australia	-13241
▁گیشگیواری	-13242
▁significant	-13243
بے۔	-13244
ٗوک	-13245
utes	-13246
▁Air	-13247
▁آکہ	-13248
▁جبل	-13249
▁رھم	-13250
▁چَپ	-13251
▁آسءِ	-13252
▁بقول	-13253
▁حضور	-13254
▁نائک	-13255
▁بیگْو	-13256
▁مالاں	-13257
▁چوگان	-13258
▁ھمداں	-13259
▁ریسکیو	-13260
▁گالرِد	-13261
اجو	-13262
جتگ	-13263
عکس	-13264
ٹین	-13265
ڑھی	-13266
▁ها	-13267
▁wat	-13268
▁ببا	-13269
▁لهت	-13270
▁وہم	-13271
▁جِنک	-13272
▁سَوت	-13273
▁زیراں	-13274
▁سوتکگ	-13275
▁میراس	-13276
▁روایات	-13277
▁درہائیں	-13278
▁ژانگولیں	-13279
▁performed	-13280
ump	-13281
▁ین	-13282
▁bar	-13283
▁آتے	-13284
▁سسّ	-13285
▁مشہ	-13286
ھاراں	-13287
▁جُتا	-13288
▁شِیر	-13289
▁مرضی	-13290
▁ازمءِ	-13291
▁ترینت	-13292
▁رکھتے	-13293
▁چادرے	-13294
▁گندگی	-13295
▁ھانزا	-13296
▁بُرزءَ	-13297
▁تروتاب	-13298
▁گِندئے	-13299
▁آزمانءَ	-13300
▁إیرانءِ	-13301
▁important	-13302
حمل	-13303
‘،’	-13304
▁Gl	-13305
ivil	-13306
most	-13307
▁Atl	-13308
▁adm	-13309
▁ہمہ	-13310
▁یله	-13311
▁توام	-13312
▁لوڑی	-13313
▁مولا	-13314
▁مہلب	-13315
▁پمّا	-13316
وھدیکہ	-13317
▁ضمانت	-13318
▁ھبرءَ	-13319
▁ہماری	-13320
▁اسٹریٹ	-13321
▁زانگءِ	-13322
▁ھونانی	-13323
▁انگلینڈ	-13324
عم	-13325
نده	-13326
ُور	-13327
ائنس	-13328
ستگی	-13329
وتین	-13330
ُرتگ	-13331
ینیں	-13332
▁حرچ	-13333
▁معص	-13334
itive	-13335
▁تھرو	-13336
▁کٗوہ	-13337
▁گراد	-13338
▁night	-13339
▁باھند	-13340
▁سِلاہ	-13341
▁نازءَ	-13342
▁writing	-13343
▁آزمانءِ	-13344
آش	-13345
اپہ	-13346
▁Ex	-13347
▁آق	-13348
▁٭۔	-13349
▁ٹل	-13350
▁Pal	-13351
▁fun	-13352
▁،’’	-13353
▁آکس	-13354
▁لاڑ	-13355
▁Rich	-13356
▁اذیت	-13357
▁الما	-13358
▁ایرک	-13359
▁تؤکا	-13360
▁واکب	-13361
▁کنَگ	-13362
▁ھمدپ	-13363
▁شیریں	-13364
▁چتکان	-13365
▁ھرتال	-13366
▁ھوراں	-13367
زہرشانی	-13368
▁دُگنیا	-13369
▁destroy	-13370
▁زندگیءَ	-13371
▁پلگاریں	-13372
▁گوشداران	-13373
▁bo	-13374
▁عد	-13375
شنبہ	-13376
وامی	-13377
▁Mag	-13378
▁واگ	-13379
antic	-13380
▁بوتت	-13381
▁تانہ	-13382
▁ڈُکّ	-13383
▁کوری	-13384
▁miles	-13385
▁جامعہ	-13386
▁زاننت	-13387
▁ساہتے	-13388
▁father	-13389
▁modern	-13390
▁تجابان	-13391
▁واجہءَ	-13392
▁مہلوکءَ	-13393
گس	-13394
فون	-13395
▁دَز	-13396
▁مکّ	-13397
▁وشک	-13398
▁اِلم	-13399
▁جمعی	-13400
▁دزاپ	-13401
▁دُعا	-13402
▁دۆست	-13403
▁شیعہ	-13404
▁مٹھا	-13405
▁کسہی	-13406
▁جانءَ	-13407
▁درانی	-13408
▁ناگتی	-13409
▁واناک	-13410
▁آورتگ۔	-13411
▁انچوکہ	-13412
▁انیگیں	-13413
▁دیووند	-13414
▁سُتکگیں	-13415
▁جوانتریں	-13416
▁television	-13417
ّّ	-13418
ائب	-13419
وئے	-13420
▁آڈ	-13421
▁Roy	-13422
▁آفت	-13423
▁مفت	-13424
▁کاڑ	-13425
▁اباب	-13426
▁توشگ	-13427
▁چکان	-13428
▁گنتر	-13429
مردماں	-13430
▁حمیدہ	-13431
▁سربیت	-13432
▁گْوزگ	-13433
▁تعلیمی	-13434
▁زانتءِ	-13435
▁وشھالی	-13436
▁various	-13437
▁interest	-13438
▁اھوالکارانی	-13439
ief	-13440
▁زلف	-13441
▁سمج	-13442
▁سنڈ	-13443
▁ژوب	-13444
osaur	-13445
▁بیئگ	-13446
▁پجیگ	-13447
▁پِکر	-13448
▁کیسے	-13449
▁areas	-13450
▁دربُر	-13451
▁واسطہ	-13452
▁میرانی	-13453
▁ربیدگانی	-13454
▁مبارکیءَ	-13455
▁عبدالمجید	-13456
ناف	-13457
▁اسم	-13458
▁مڈل	-13459
▁tour	-13460
▁بانی	-13461
▁بلّک	-13462
▁تولگ	-13463
▁ضمیر	-13464
▁متاہ	-13465
▁white	-13466
▁بئیت۔	-13467
▁سادگی	-13468
▁پُرشت	-13469
▁کسہاں	-13470
▁ہپتاد	-13471
imately	-13472
▁بچاراں	-13473
▁دروشمیں	-13474
▁عبدالرحمن	-13475
rab	-13476
بیگ	-13477
کام	-13478
گاڑی	-13479
▁چلا	-13480
▁گاں	-13481
▁full	-13482
▁بوگا	-13483
▁ملار	-13484
▁پھلو	-13485
▁چربی	-13486
▁داکتر	-13487
▁مڈیاں	-13488
▁کسارت	-13489
▁گُلاب	-13490
▁انتخاب	-13491
▁زورگیر	-13492
▁جیڑگانی	-13493
▁دْروشمے	-13494
ogn	-13495
rie	-13496
ریکے	-13497
یلاں	-13498
▁Cal	-13499
▁enc	-13500
▁ten	-13501
▁جاؤ	-13502
▁دیغ	-13503
▁راد	-13504
▁مجھ	-13505
▁کَچ	-13506
field	-13507
بوتیں	-13508
▁died	-13509
▁look	-13510
▁باعث	-13511
▁قاتل	-13512
▁activ	-13513
▁آہیءَ	-13514
▁تُرسی	-13515
▁پہوال	-13516
▁گُبار	-13517
▁آنلائن	-13518
▁دلسیاہ	-13519
▁رہبندے	-13520
▁واجہءِ	-13521
ael	-13522
بکش	-13523
زیم	-13524
یبی	-13525
▁هک	-13526
aign	-13527
▁law	-13528
▁نیر	-13529
▁کنی	-13530
▁کیگ	-13531
▁went	-13532
▁بلاه	-13533
▁مسام	-13534
▁مولم	-13535
▁پُلگ	-13536
▁المّی	-13537
▁آتکگیں	-13538
▁لوٹاں۔	-13539
▁کردگالی	-13540
آخر	-13541
اکس	-13542
▁ء۔	-13543
▁اٹھ	-13544
▁دھا	-13545
▁need	-13546
▁دَری	-13547
▁رَوگ	-13548
▁زانے	-13549
▁وَھد	-13550
▁ٹائپ	-13551
پرچیکہ	-13552
▁Rober	-13553
▁تسلیم	-13554
▁دابءَ	-13555
▁دیوتا	-13556
▁مراگہ	-13557
▁مشکلات	-13558
فاق	-13559
ّگا	-13560
▁عُ	-13561
تربت	-13562
▁tro	-13563
▁سرج	-13564
▁مہذ	-13565
▁ھتم	-13566
پمشکا	-13567
▁does	-13568
▁prim	-13569
▁بات۔	-13570
▁ذوال	-13571
▁مارت	-13572
▁مہرگ	-13573
▁ودان	-13574
▁اشارگ	-13575
▁اصلءَ	-13576
▁انّوں	-13577
▁مختار	-13578
▁گیشنگ	-13579
▁ہستیں	-13580
▁events	-13581
▁successful	-13582
بھر	-13583
▁اض	-13584
افتی	-13585
امری	-13586
ریات	-13587
پراں	-13588
▁ھچی	-13589
▁یوں	-13590
▁Road	-13591
▁جُہل	-13592
▁راھا	-13593
▁مشکت	-13594
▁آروہی	-13595
▁تعاون	-13596
▁نگران	-13597
▁چاگِرد	-13598
▁بازاراں	-13599
▁ناشرکار	-13600
▁ھمایانی	-13601
ico	-13602
▁تے	-13603
▁red	-13604
▁فنا	-13605
▁واژ	-13606
▁بیدے	-13607
▁زورے	-13608
▁نشار	-13609
▁نوبل	-13610
▁پاہو	-13611
▁آئینی	-13612
▁دروگے	-13613
▁دْروگ	-13614
▁لوٹئے	-13615
▁ات۔آئی	-13616
▁امروہی	-13617
▁بہرگاں	-13618
▁گیشتری	-13619
▁ساچشتاں	-13620
اھد	-13621
عہد	-13622
وڑا	-13623
نماز	-13624
ینءَ	-13625
▁عدل	-13626
▁نذر	-13627
▁دیئے	-13628
▁ملنڈ	-13629
▁پیلہ	-13630
▁کورے	-13631
▁پنتءُ	-13632
▁کسےءِ	-13633
ization	-13634
▁اثرمند	-13635
▁دوزواہ	-13636
▁ملکموت	-13637
▁پیدائش	-13638
▁کُربان	-13639
▁دْرستاں	-13640
▁راھبندے	-13641
▁discover	-13642
▁نوشیروانی	-13643
نڈو	-13644
ْرَ	-13645
ھاز	-13646
اتنت	-13647
▁طائ	-13648
▁باہر	-13649
▁تچیت	-13650
▁جواز	-13651
▁رست۔	-13652
▁پاور	-13653
▁کسمت	-13654
▁گلّہ	-13655
▁الزام	-13656
▁ایٹمی	-13657
▁تقسیم	-13658
▁جائیں	-13659
▁سالون	-13660
▁وَاست	-13661
▁پگرءُ	-13662
▁players	-13663
▁started	-13664
▁مردُمانی	-13665
▁عبدالرحیم	-13666
▁گْوازینتگ	-13667
▁To	-13668
▁mm	-13669
▁ھنگ	-13670
یدگیں	-13671
▁decl	-13672
▁مئیت	-13673
▁مقرر	-13674
▁James	-13675
▁پُریں	-13676
▁کرتءُ	-13677
▁کرزیت	-13678
▁ھیروپ	-13679
▁اوژناگ	-13680
▁منّوگر	-13681
▁زانتانی	-13682
مط	-13683
con	-13684
reg	-13685
ادب	-13686
درا	-13687
سور	-13688
▁کک	-13689
alth	-13690
ript	-13691
حانی	-13692
نصیر	-13693
▁see	-13694
▁إیر	-13695
▁ظاہ	-13696
▁غرض	-13697
▁ball	-13698
▁شفیق	-13699
▁کھیت	-13700
▁ہمرا	-13701
▁تلمیح	-13702
▁دُراہ	-13703
▁سیاھی	-13704
▁قومءِ	-13705
▁رنجانی	-13706
▁رندانی	-13707
▁موسیقی	-13708
▁پلاسٹک	-13709
▁کمانچر	-13710
▁شاعریئِ	-13711
▁عبدالقادر	-13712
ks	-13713
ارش	-13714
بیتگ	-13715
صبور	-13716
وشاں	-13717
▁دوم	-13718
iting	-13719
بالاچ	-13720
▁feet	-13721
▁شنبہ	-13722
▁نواں	-13723
▁گوشی	-13724
▁ھاؤس	-13725
▁house	-13726
▁بیانے	-13727
▁تشبیہ	-13728
▁رحمدل	-13729
▁فائنل	-13730
▁formed	-13731
▁زالکار	-13732
▁شھریاں	-13733
▁جہلانکی	-13734
▁ریزمانک	-13735
▁کاگدانی	-13736
▁دستونکئِ	-13737
رُ	-13738
ِـ	-13739
اشک	-13740
▁حو	-13741
ourn	-13742
ملکت	-13743
▁wid	-13744
▁لِچ	-13745
▁کوڑ	-13746
▁۔تو	-13747
َيْهِ	-13748
▁poem	-13749
▁سمار	-13750
▁مُھر	-13751
▁پراس	-13752
▁techn	-13753
▁روکپت	-13754
▁شانیں	-13755
▁میکسم	-13756
▁ایرجیگ	-13757
▁ایرگیج	-13758
▁بہائیں	-13759
▁مراگاہ	-13760
▁منزلءَ	-13761
ئول	-13762
شرف	-13763
▁mix	-13764
▁ببو	-13765
▁ٹھا	-13766
چکانی	-13767
گْرنچ	-13768
▁تیوک	-13769
▁سوچن	-13770
▁سکول	-13771
▁مافی	-13772
▁مثلا	-13773
▁پیشہ	-13774
▁چانس	-13775
▁کرشن	-13776
▁range	-13777
▁باتاں	-13778
▁بگاوت	-13779
▁وھدان	-13780
▁پلانٹ	-13781
▁ھپتمی	-13782
▁اوشتات۔	-13783
▁گواتانی	-13784
ارز	-13785
ہیر	-13786
انوں	-13787
▁پرم	-13788
▁sett	-13789
▁جھاؤ	-13790
▁دیا۔	-13791
▁رَنگ	-13792
▁پجّہ	-13793
▁پشّی	-13794
▁پگرے	-13795
▁کمبل	-13796
▁ہمیر	-13797
▁Mount	-13798
▁آئیگا	-13799
▁شماری	-13800
▁یکتنا	-13801
▁County	-13802
▁درستان	-13803
▁سنسکرت	-13804
▁زانتیکہ	-13805
▁ملافاضل	-13806
▁پرایمنیں	-13807
▁performance	-13808
زلہ	-13809
وٹل	-13810
rest	-13811
ایت۔	-13812
▁put	-13813
▁sum	-13814
▁شتر	-13815
▁vill	-13816
▁بیلی	-13817
▁زرءَ	-13818
▁زینت	-13819
▁منٹو	-13820
▁ٹاؤن	-13821
▁ٹکرے	-13822
▁style	-13823
▁برواں	-13824
▁ماہءِ	-13825
▁گزران	-13826
▁یکجائی	-13827
▁building	-13828
▁relations	-13829
شاھ	-13830
ٹرک	-13831
کول	-13832
▁ke	-13833
abor	-13834
ورین	-13835
ہدری	-13836
▁age	-13837
▁too	-13838
▁جُه	-13839
▁محض	-13840
انانی	-13841
▁لیفٹ	-13842
▁نارو	-13843
▁پردہ	-13844
▁force	-13845
▁الحاق	-13846
▁بجائے	-13847
▁براتے	-13848
▁تگران	-13849
▁خواہش	-13850
▁نمونہ	-13851
▁گنوکے	-13852
▁گُشاد	-13853
▁ھردوک	-13854
▁caused	-13855
▁دریاءِ	-13856
▁مانیت۔	-13857
▁مھرانی	-13858
▁میوزیم	-13859
▁وپتگیں	-13860
▁بندوبست	-13861
▁پولیٹیکل	-13862
▁میرسفرخان	-13863
▁نادراھیانی	-13864
آت	-13865
ana	-13866
ریح	-13867
ہدہ	-13868
مدام	-13869
چارگ	-13870
▁جتک	-13871
▁سرش	-13872
▁آھان	-13873
▁بروک	-13874
▁لَگّ	-13875
▁پروس	-13876
▁گِری	-13877
▁ہَست	-13878
▁تفصیل	-13879
▁سرچمگ	-13880
▁سِستگ	-13881
▁کوارٹر	-13882
▁ھالتاک	-13883
▁دروشماں	-13884
▁سرکنوکیں	-13885
▁ٹالسٹائی	-13886
دْ	-13887
شش	-13888
ٗر	-13889
ino	-13890
بودی	-13891
نگٹن	-13892
▁درم	-13893
▁ٹہک	-13894
epend	-13895
▁بتلے	-13896
▁تُمپ	-13897
▁منظم	-13898
▁پُرٛ	-13899
▁کباب	-13900
▁ھبکہ	-13901
▁دانگے	-13902
▁زُرت۔	-13903
▁لازمی	-13904
▁گشتگ۔	-13905
▁دمگدار	-13906
▁کارگال	-13907
▁مبارکیں	-13908
▁ناتپاکی	-13909
▁پاگواجہ	-13910
▁گیشّینگ	-13911
▁ڈیموکریٹک	-13912
!!!	-13913
ara	-13914
رتی	-13915
▁زڑ	-13916
inal	-13917
▁ٹرا	-13918
▁پوچ	-13919
▁ھمب	-13920
رجنسی	-13921
▁تْرا	-13922
▁حطرہ	-13923
▁سیٹل	-13924
▁نبیل	-13925
▁یکسد	-13926
▁بُرّگ	-13927
▁ترکیب	-13928
▁درایگ	-13929
▁شتگیں	-13930
▁عملءِ	-13931
▁پتاتگ	-13932
▁پراھگ	-13933
▁کپودر	-13934
▁گمراہ	-13935
▁اناگاہ	-13936
▁شاھگان	-13937
▁ابیتکیں	-13938
▁اشکرانی	-13939
▁Ke	-13940
یتیں	-13941
▁مھم	-13942
▁چُر	-13943
▁ھکل	-13944
ublic	-13945
دوئیں	-13946
چکزئی	-13947
▁اربی	-13948
▁بھتی	-13949
▁شاھو	-13950
▁گوگل	-13951
▁relig	-13952
▁تھریک	-13953
▁تیزیں	-13954
▁جناور	-13955
▁زورگر	-13956
▁ملکان	-13957
▁تبدیلی	-13958
▁ساچشتے	-13959
▁قلمکار	-13960
▁ویکاری	-13961
▁چارمکن	-13962
▁گناھیں	-13963
▁ادارگاں	-13964
▁روشنائی	-13965
▁دروازگءَ	-13966
ُوا	-13967
ڈان	-13968
▁sw	-13969
▁ضد	-13970
ened	-13971
ءَرا	-13972
دالط	-13973
▁Cro	-13974
▁تاز	-13975
▁مغل	-13976
▁نۆک	-13977
▁چرگ	-13978
▁انگه	-13979
▁جوھر	-13980
▁سکتے	-13981
▁پَٹّ	-13982
▁چنال	-13983
▁ہورت	-13984
▁novel	-13985
▁اَتیں	-13986
▁بُنزہ	-13987
▁زربار	-13988
▁زیملی	-13989
▁سروکے	-13990
▁مخصوص	-13991
▁گیگان	-13992
▁بمبترا	-13993
▁تُرندی	-13994
▁سیمسرانی	-13995
عَ	-13996
اشا	-13997
پین	-13998
امنی	-13999
نتگی	-14000
▁189	-14001
▁pri	-14002
▁ماخ	-14003
▁چۆن	-14004
▁بِگر	-14005
▁جینی	-14006
▁رئوت	-14007
▁ماضی	-14008
▁هرکس	-14009
▁ھَور	-14010
▁سرکپت	-14011
▁پندلے	-14012
▁کماشے	-14013
▁ایوکیں	-14014
▁بالگرد	-14015
▁جوانسال	-14016
حقی	-14017
زتک	-14018
▁نۆ	-14019
▁۔ب	-14020
iers	-14021
▁داز	-14022
▁وتء	-14023
isted	-14024
▁الخط	-14025
▁شائع	-14026
▁مَست	-14027
▁پتھر	-14028
▁ھرچے	-14029
▁ٹیکسی	-14030
▁شاریءِ	-14031
▁کنت۔اے	-14032
▁کوٹیءَ	-14033
▁created	-14034
▁یکپارگی	-14035
▁official	-14036
day	-14037
idd	-14038
ادے	-14039
اگر	-14040
دْر	-14041
fall	-14042
مندی	-14043
ھائی	-14044
▁اَز	-14045
▁توش	-14046
▁رکا	-14047
▁واض	-14048
▁گشتن	-14049
elling	-14050
▁حرابی	-14051
▁حوصلہ	-14052
▁سینئر	-14053
▁محاور	-14054
▁مردان	-14055
▁نێمگا	-14056
▁وانیں	-14057
▁پسانی	-14058
▁فاروقی	-14059
▁معاہدہ	-14060
▁واھُند	-14061
▁characters	-14062
حیال	-14063
ریدی	-14064
▁Ang	-14065
▁Som	-14066
▁آبے	-14067
▁آہی	-14068
▁ئین	-14069
▁کہر	-14070
▁کہہ	-14071
asing	-14072
▁2004	-14073
▁آرڈر	-14074
▁ارشے	-14075
▁دزرس	-14076
▁سجاد	-14077
▁صباؔ	-14078
▁لچّه	-14079
▁مصری	-14080
▁نورل	-14081
▁چونا	-14082
▁ہفتگ	-14083
▁اتکیں	-14084
▁دزکشی	-14085
▁سفرءَ	-14086
▁لیکیت	-14087
▁مصطفی	-14088
▁کوسٹل	-14089
▁یکوئی	-14090
▁ڈیھانی	-14091
▁کُلّاں	-14092
▁گزرانی	-14093
▁نمائندہ	-14094
▁چُکّانی	-14095
ym	-14096
eth	-14097
عطا	-14098
وائ	-14099
کُت	-14100
گشت	-14101
▁جج	-14102
نامی	-14103
▁pit	-14104
▁خشک	-14105
▁لوڑ	-14106
▁ڪنت	-14107
آبادی	-14108
وراکی	-14109
▁2005	-14110
▁بزیر	-14111
▁خداب	-14112
▁مَلّ	-14113
▁ناظم	-14114
▁کوہی	-14115
▁دوزحہ	-14116
▁دیوار	-14117
▁وردنی	-14118
▁entire	-14119
▁ارمانی	-14120
▁ایرموش	-14121
▁بیاراں	-14122
▁پیشکان	-14123
▁پرائمری	-14124
▁راھبنداں	-14125
▁پارٹیانی	-14126
▁بیگواہیانی	-14127
gr	-14128
ڈاں	-14129
یتا	-14130
یتہ	-14131
▁Ol	-14132
less	-14133
الٹی	-14134
ودار	-14135
▁son	-14136
▁جھگ	-14137
▁able	-14138
▁جاهے	-14139
▁حالا	-14140
▁منڈی	-14141
▁coast	-14142
▁بابتا	-14143
▁جائزہ	-14144
▁سیارہ	-14145
▁عرفان	-14146
▁عمرءَ	-14147
▁فیروز	-14148
▁گوْشت	-14149
▁گُھار	-14150
▁دامنءَ	-14151
▁ساھدار	-14152
▁سُرینت	-14153
▁معمولی	-14154
▁نویساں	-14155
▁political	-14156
▁کّ	-14157
ries	-14158
رینگ	-14159
▁ریں	-14160
▁چِت	-14161
▁ڈور	-14162
▁ڈون	-14163
▁High	-14164
▁اوور	-14165
▁دلءُ	-14166
▁سِند	-14167
▁شُشت	-14168
▁مساف	-14169
▁مچار	-14170
ressed	-14171
▁بہراں	-14172
▁تعمیر	-14173
▁کتگین	-14174
▁مالدار	-14175
▁مرگانی	-14176
▁چوہدری	-14177
▁ڈاکٹرد	-14178
▁ناروائی	-14179
سرو	-14180
نلڈ	-14181
چکی	-14182
▁لد	-14183
▁چؤ	-14184
حمدی	-14185
▁Sec	-14186
▁ste	-14187
▁آہم	-14188
▁اما	-14189
▁بی۔	-14190
▁تیں	-14191
▁زہم	-14192
▁منے	-14193
▁نوہ	-14194
ality	-14195
▁آفیس	-14196
▁اُوں	-14197
▁برٹش	-14198
▁حذمت	-14199
▁زندء	-14200
▁نیچر	-14201
▁گانی	-14202
▁ہوسک	-14203
▁بدنام	-14204
▁مقدمہ	-14205
▁ناروے	-14206
▁چکاسگ	-14207
▁کیوبا	-14208
▁گیتکگ	-14209
▁others	-14210
▁دُرسیں	-14211
▁ساھگءَ	-14212
▁مشاہدہ	-14213
▁پدرائی	-14214
▁سانکلاں	-14215
▁کمبرانی	-14216
::	-14217
نار	-14218
رزاق	-14219
▁Ham	-14220
▁get	-14221
▁أت۔	-14222
▁جلا	-14223
▁دلر	-14224
▁مِھ	-14225
▁چشم	-14226
▁چھی	-14227
▁آباں	-14228
▁بوشت	-14229
▁سفیر	-14230
▁سِست	-14231
▁لانس	-14232
▁گبار	-14233
▁ات۔اے	-14234
▁اجازہ	-14235
▁بُرت۔	-14236
▁تپّاس	-14237
▁زِرءَ	-14238
▁سرائی	-14239
▁شاہین	-14240
▁گوْرا	-14241
▁اسکولءِ	-14242
▁construction	-14243
؟!	-14244
دز	-14245
وتک	-14246
یتءِ	-14247
▁ترز	-14248
▁تَہ	-14249
▁روٗ	-14250
▁چتگ	-14251
▁چُپ	-14252
چوشیں	-14253
▁bird	-14254
▁cert	-14255
▁pred	-14256
▁زانو	-14257
▁پبلش	-14258
▁پرسی	-14259
▁کانچ	-14260
▁اسنائ	-14261
▁مثالے	-14262
▁چونین	-14263
▁promot	-14264
▁حالکار	-14265
▁نگدکار	-14266
ردل	-14267
▁هو	-14268
ases	-14269
ائری	-14270
▁اَم	-14271
▁خوف	-14272
▁پیڑ	-14273
ندگیں	-14274
▁کندی	-14275
▁بندءَ	-14276
▁ٹیکسٹ	-14277
▁battle	-14278
▁نیکراہی	-14279
▁ہندوستانی	-14280
br	-14281
ؤت	-14282
هئے	-14283
▁لت	-14284
ways	-14285
▁چوت	-14286
▁ہوم	-14287
بلکنا	-14288
تکنیک	-14289
▁Town	-14290
▁اَرو	-14291
▁جنئک	-14292
▁دُرا	-14293
▁ریپی	-14294
▁لگام	-14295
▁وریں	-14296
▁چکیں	-14297
▁کُرد	-14298
▁کُڈّ	-14299
▁اسکال	-14300
▁اوباد	-14301
▁ترمپے	-14302
▁جنوبی	-14303
▁ات۔بلے	-14304
▁دمبرتگ	-14305
▁دیمرہی	-14306
▁زرتگیں	-14307
▁مادنیں	-14308
▁کُشندہ	-14309
▁گُلامی	-14310
▁national	-14311
acy	-14312
وڑے	-14313
ّتی	-14314
گنج	-14315
ریچی	-14316
▁بَز	-14317
اشانی	-14318
راحمد	-14319
▁جمڑی	-14320
▁پنجگ	-14321
▁پہاڑ	-14322
▁گریڈ	-14323
▁ھنگت	-14324
▁occur	-14325
▁ثقافت	-14326
▁تنقیدی	-14327
▁درابیت	-14328
▁گوادری	-14329
▁انتہائی	-14330
▁اَت۔آئی	-14331
txt	-14332
جست	-14333
واز	-14334
ّتگ	-14335
چاہ	-14336
▁29	-14337
▁31	-14338
▁val	-14339
▁جدل	-14340
▁سدّ	-14341
▁فاط	-14342
▁لیپ	-14343
▁مجب	-14344
oming	-14345
▁رُست	-14346
▁مینگ	-14347
▁گوٹھ	-14348
▁ھدیس	-14349
▁ناموس	-14350
▁ھاکاں	-14351
▁ھجالت	-14352
▁شاہگان	-14353
▁کاریاں	-14354
حسین	-14355
روضی	-14356
قاضی	-14357
ّیاں	-14358
▁ثمر	-14359
▁مکی	-14360
▁کچی	-14361
▁بیشک	-14362
▁خُدا	-14363
▁دروغ	-14364
▁دزکش	-14365
▁گَپّ	-14366
▁تئوار	-14367
▁سرمچاری	-14368
▁پُرشتگیں	-14369
اذ	-14370
یکت	-14371
▁Sw	-14372
ّےءَ	-14373
▁fig	-14374
▁درز	-14375
▁سِر	-14376
▁ڈنڈ	-14377
ample	-14378
▁بارش	-14379
▁سئید	-14380
▁شیشہ	-14381
▁عومر	-14382
▁وہاب	-14383
▁کہیر	-14384
▁ہیرو	-14385
▁اینگو	-14386
▁بھرتی	-14387
▁روئیں	-14388
▁سیاہی	-14389
▁مھکمی	-14390
▁پئیما	-14391
▁چارلس	-14392
▁چھوٹے	-14393
▁کنئگا	-14394
▁ھشتمی	-14395
▁یکشلہ	-14396
▁بیگانگ	-14397
▁جاورال	-14398
▁رخشانی	-14399
▁ڈگارءِ	-14400
▁ابداللہ	-14401
▁اُرشکار	-14402
▁دستاویز	-14403
▁ساچشتکار	-14404
ابو	-14405
یمے	-14406
play	-14407
اھاھ	-14408
▁lik	-14409
▁اتن	-14410
▁بدر	-14411
▁بَے	-14412
▁گرے	-14413
ament	-14414
▁Hist	-14415
▁once	-14416
▁آسمی	-14417
▁اگان	-14418
▁بَرے	-14419
▁جرنل	-14420
▁جِنّ	-14421
▁روشے	-14422
▁واهگ	-14423
▁کوڑی	-14424
▁گزشت	-14425
ficult	-14426
▁اَلّم	-14427
▁رستری	-14428
▁لبزان	-14429
▁واہشت	-14430
▁چیزان	-14431
▁بازارے	-14432
▁ترسناک	-14433
▁پرمائی	-14434
▁اسنائپر	-14435
لول	-14436
▁کؤ	-14437
ئوار	-14438
بینگ	-14439
ندگہ	-14440
کوپگ	-14441
▁fac	-14442
▁توس	-14443
▁لہر	-14444
▁کاھ	-14445
▁کید	-14446
▁گرْ	-14447
▁ذاتے	-14448
▁قسمے	-14449
▁گرنت	-14450
▁گروہ	-14451
▁ازگار	-14452
▁بیت۔۔	-14453
▁ھدیسے	-14454
▁ھمگام	-14455
انگریزی	-14456
▁نظریاتی	-14457
▁remained	-14458
▁ھندوستانی	-14459
por	-14460
اسٹ	-14461
خصت	-14462
▁Bra	-14463
▁بغا	-14464
▁بچہ	-14465
▁رُک	-14466
▁صبی	-14467
▁گان	-14468
▁ہین	-14469
اسحاق	-14470
شتاتگ	-14471
ھدربر	-14472
▁Care	-14473
▁دادے	-14474
▁دپار	-14475
▁ساگر	-14476
▁سپرے	-14477
▁سیٹھ	-14478
▁لکھا	-14479
دستونک	-14480
▁رسینگ	-14481
▁زوتیں	-14482
▁لبزءِ	-14483
▁کنئے۔	-14484
▁گرگءَ	-14485
▁مھربان	-14486
▁نابودی	-14487
▁ھمساھگ	-14488
▁located	-14489
▁رژنائیں	-14490
▁پائیدار	-14491
▁tradition	-14492
جنک	-14493
خدا	-14494
پیس	-14495
▁بط	-14496
▁صب	-14497
▁فت	-14498
▁ئیت	-14499
▁سدو	-14500
▁دَمگ	-14501
▁رازے	-14502
▁منیت	-14503
▁میڑے	-14504
▁وهدی	-14505
▁پکرے	-14506
▁ڈوبر	-14507
▁ہژدہ	-14508
▁mount	-14509
▁تُرسے	-14510
▁نوعیت	-14511
▁ترینتگ	-14512
▁نادراھ	-14513
▁کاؤنٹر	-14514
▁مردینانی	-14515
ِم	-14516
پچ	-14517
ترّ	-14518
ِست	-14519
▁سۆ	-14520
enth	-14521
ivid	-14522
چشکہ	-14523
▁آئن	-14524
▁الت	-14525
▁اوب	-14526
▁تنہ	-14527
▁عین	-14528
▁لیں	-14529
▁rock	-14530
▁آغاز	-14531
▁سببے	-14532
▁وتاس	-14533
▁وختے	-14534
▁پرکے	-14535
▁works	-14536
▁برجاه	-14537
▁حیوان	-14538
▁شیراں	-14539
▁معتبر	-14540
▁نہایت	-14541
▁کولیس	-14542
▁scored	-14543
▁اِستال	-14544
▁فردوسی	-14545
▁Kingdom	-14546
▁رودراتک	-14547
▁ڈاکٹرانی	-14548
▁difficult	-14549
ٰہ	-14550
ata	-14551
،،،	-14552
بکن	-14553
جون	-14554
ھیل	-14555
نتیں	-14556
▁Mon	-14557
▁آنے	-14558
▁بدھ	-14559
▁لجّ	-14560
▁کسا	-14561
craft	-14562
▁guns	-14563
▁redu	-14564
▁آرکی	-14565
▁انیس	-14566
▁بُرو	-14567
▁تاجر	-14568
▁جذبگ	-14569
▁جھدا	-14570
▁حقوق	-14571
▁خواب	-14572
▁مسلہ	-14573
lected	-14574
▁جوابی	-14575
▁پْراہ	-14576
▁گُداں	-14577
▁Island	-14578
▁produc	-14579
▁بکرتین	-14580
▁جہگیری	-14581
▁شررنگی	-14582
▁ناسرجم	-14583
▁پوائنٹ	-14584
▁یورپءِ	-14585
▁ویرانیں	-14586
▁campaign	-14587
▁میارباری	-14588
لز	-14589
لیب	-14590
▁وچ	-14591
ُکاں	-14592
پداں	-14593
کّاں	-14594
▁Cup	-14595
▁tre	-14596
▁آھم	-14597
▁موں	-14598
▁ہائ	-14599
ڈریشن	-14600
▁meet	-14601
▁رھوت	-14602
▁Grand	-14603
▁cross	-14604
▁stars	-14605
▁جدگال	-14606
▁داشتہ	-14607
▁ریلوے	-14608
▁صبیحہ	-14609
▁عابدؔ	-14610
▁منطقی	-14611
▁دریافت	-14612
▁وتکُشی	-14613
▁ھیلکاری	-14614
▁announced	-14615
▁completed	-14616
▁Australian	-14617
▁آنت	-14618
▁حاد	-14619
▁وتئ	-14620
▁rank	-14621
▁اشکن	-14622
▁دیتا	-14623
▁رَست	-14624
▁سوتے	-14625
▁قیام	-14626
▁محرم	-14627
▁چمّگ	-14628
▁ڈیھی	-14629
▁گرئگ	-14630
▁ہجبر	-14631
▁جاگاہ	-14632
▁منّیت	-14633
▁موداں	-14634
▁پُلیں	-14635
▁کیامت	-14636
▁ہونا۔	-14637
▁region	-14638
▁بیمناک	-14639
▁اطلاعات	-14640
▁دکاندار	-14641
▁شادمانی	-14642
▁گْرانیں	-14643
▁دروازگءِ	-14644
▁عبدالعزیز	-14645
گه	-14646
”؟	-14647
ett	-14648
عمر	-14649
نجر	-14650
ورٹ	-14651
▁تڑ	-14652
▁فِ	-14653
بشکن	-14654
دلیں	-14655
ّہیں	-14656
گوزی	-14657
▁حاج	-14658
▁شگل	-14659
▁فصل	-14660
▁فلو	-14661
▁للہ	-14662
▁لیو	-14663
▁ھرس	-14664
ساچیں	-14665
▁hold	-14666
▁اکتر	-14667
▁درشت	-14668
▁پائے	-14669
▁کمّی	-14670
▁کِرا	-14671
▁گورگ	-14672
▁تچکءَ	-14673
▁دوارگ	-14674
▁مملکت	-14675
▁پٹھان	-14676
▁گواھی	-14677
▁سوداگر	-14678
▁لوزانت	-14679
▁پیٹرول	-14680
▁ھزاریں	-14681
▁ھمگرنچی	-14682
▁چیروکائی	-14683
غوث	-14684
چوک	-14685
چکے	-14686
ique	-14687
orse	-14688
ounc	-14689
ورنا	-14690
▁nuc	-14691
▁squ	-14692
▁ڈؤل	-14693
لہتیں	-14694
مانءِ	-14695
▁تھرا	-14696
▁سانی	-14697
▁پکّا	-14698
▁کالب	-14699
▁تماشا	-14700
▁رُژنا	-14701
▁کُشیں	-14702
▁ہشتاد	-14703
▁احترام	-14704
▁سگریٹے	-14705
▁شموشتگ	-14706
▁کاپرءِ	-14707
▁گہتریں	-14708
▁لوٹائینگ	-14709
▁سائنسداناں	-14710
off	-14711
جنٹ	-14712
ورڈ	-14713
▁۔ہ	-14714
arch	-14715
جنگی	-14716
َگءِ	-14717
▁جنج	-14718
▁گَم	-14719
itted	-14720
برجاہ	-14721
ہداری	-14722
▁goal	-14723
▁grow	-14724
▁اثرے	-14725
▁رہوت	-14726
▁زرت۔	-14727
▁سیری	-14728
▁شائی	-14729
▁کسٹم	-14730
▁colle	-14731
▁super	-14732
▁آزماں	-14733
▁درآتک	-14734
▁شہدیں	-14735
▁گوْشگ	-14736
گوستگیں	-14737
▁ایرکنگ	-14738
▁دشمنیں	-14739
▁کلاکاں	-14740
▁Company	-14741
▁سرجمیءَ	-14742
▁سوداگری	-14743
▁سکریٹری	-14744
▁شھریانی	-14745
▁مردُماں	-14746
▁بندیگجاہ	-14747
▁حالرسانی	-14748
oid	-14749
umb	-14750
اگن	-14751
لیس	-14752
نیگ	-14753
َام	-14754
َت۔	-14755
ٗوش	-14756
▁40	-14757
▁سز	-14758
بھتی	-14759
▁fav	-14760
▁let	-14761
enced	-14762
▁conn	-14763
▁رِپک	-14764
▁گلءَ	-14765
▁گنجی	-14766
▁سوویت	-14767
▁سوچیت	-14768
▁والوں	-14769
▁پروشی	-14770
▁ہمساہ	-14771
▁یکدار	-14772
▁little	-14773
▁نگاہاں	-14774
▁process	-14775
▁سمالانی	-14776
aly	-14777
omp	-14778
ray	-14779
عون	-14780
چرے	-14781
▁آذ	-14782
اَت۔	-14783
▁الر	-14784
▁سخن	-14785
▁لگے	-14786
▁پمپ	-14787
▁چکن	-14788
▁کفن	-14789
انگاں	-14790
▁آکبت	-14791
▁اجکہ	-14792
▁امجد	-14793
▁بوجی	-14794
▁ناں۔	-14795
rought	-14796
▁fight	-14797
▁front	-14798
▁بروان	-14799
▁سردیں	-14800
▁مرکءِ	-14801
▁چمدار	-14802
▁کلوھے	-14803
▁گڈسرا	-14804
▁اندازگ	-14805
▁بلوٹیت	-14806
▁بُنجاہ	-14807
▁کودکیں	-14808
▁کوٹیءِ	-14809
▁instead	-14810
▁جمبرانی	-14811
▁۔۔۔۔۔۔۔	-14812
▁امریکائی	-14813
▁عبدالنبی	-14814
▁پدمنتگیں	-14815
▁ھمراھانی	-14816
“،	-14817
انص	-14818
مرو	-14819
ندم	-14820
▁کع	-14821
▁Act	-14822
▁ریا	-14823
▁آوہد	-14824
▁سرام	-14825
▁سرجن	-14826
▁سرحد	-14827
▁نقشہ	-14828
▁پڑاں	-14829
▁گولا	-14830
▁گِیش	-14831
▁آزمود	-14832
▁اِتءُ	-14833
▁ترانک	-14834
▁ریموٹ	-14835
▁وابجاہ	-14836
▁اِنسانی	-14837
▁معلومات	-14838
ky	-14839
ک۔	-14840
ابا	-14841
صرہ	-14842
ِت۔	-14843
▁فز	-14844
ئٹرز	-14845
ازین	-14846
بزان	-14847
قیوم	-14848
وزئی	-14849
▁اوک	-14850
▁لڑے	-14851
▁لگی	-14852
▁وھم	-14853
▁پلک	-14854
▁ہوٹ	-14855
انچوش	-14856
▁circ	-14857
▁cond	-14858
▁آخرت	-14859
▁بادی	-14860
▁جانؔ	-14861
▁ماڈی	-14862
▁مصنف	-14863
▁ورنت	-14864
▁ڈوھد	-14865
▁ھانل	-14866
▁added	-14867
▁نیامی	-14868
▁پترتگ	-14869
▁پرچکہ	-14870
▁کوٛہن	-14871
▁الماری	-14872
▁جاگھاں	-14873
▁ساسانی	-14874
▁لاشعور	-14875
▁پیلویں	-14876
▁واشنگٹن	-14877
▁کراچیءِ	-14878
▁مہروانیں	-14879
▁کارکنانی	-14880
▁کولیسٹرول	-14881
▁کاروائیانی	-14882
مٹ	-14883
پن	-14884
here	-14885
leet	-14886
▁Mor	-14887
▁آشن	-14888
▁رائ	-14889
▁لسٹ	-14890
▁ڈسپ	-14891
▁ابھی	-14892
▁حساس	-14893
▁دورہ	-14894
▁سداں	-14895
▁شامی	-14896
▁لہجہ	-14897
▁چارد	-14898
▁چاغی	-14899
▁گردی	-14900
▁آؤرت۔	-14901
▁دوسرا	-14902
▁مسکرہ	-14903
▁کوہلو	-14904
▁گرنیڈ	-14905
▁ادبیات	-14906
▁شدکشیں	-14907
▁مالانی	-14908
▁سرھالانی	-14909
▁کاروائیاں	-14910
omm	-14911
اؤں	-14912
بست	-14913
کتہ	-14914
▁تت	-14915
▁کز	-14916
duct	-14917
بیدگ	-14918
▁بِت	-14919
▁کدہ	-14920
▁بیزن	-14921
▁مانچ	-14922
▁ملکا	-14923
▁نجات	-14924
▁ویلی	-14925
▁گیمر	-14926
▁ہندے	-14927
▁least	-14928
▁ازمون	-14929
▁بیراں	-14930
▁تجارت	-14931
▁دنیگت	-14932
▁رازیگ	-14933
▁فوجءِ	-14934
▁نازین	-14935
▁ڈگارے	-14936
▁کندیت	-14937
▁کْوھن	-14938
▁پاداتک	-14939
▁پروٹین	-14940
▁پیشیگیں	-14941
▁چارمکنڈ	-14942
▁یاتگیری	-14943
▁followed	-14944
▁سانمندیں	-14945
▁اھوالکاراں	-14946
ََ	-14947
ءَ۔	-14948
انو	-14949
دہی	-14950
ننگ	-14951
روتی	-14952
پرنس	-14953
▁لاگ	-14954
رھبند	-14955
▁Bill	-14956
▁know	-14957
▁peak	-14958
▁ازلی	-14959
▁کیچی	-14960
▁گرفت	-14961
▁گریں	-14962
▁گوئش	-14963
▁استین	-14964
▁اِزمی	-14965
▁ٹائمز	-14966
▁اِشکنگ	-14967
▁تالانی	-14968
▁نبیسوک	-14969
▁کانونی	-14970
▁کلمکار	-14971
▁اُستانی	-14972
▁بانداتے	-14973
▁appeared	-14974
خہ	-14975
ندءَ	-14976
▁آزگ	-14977
▁یاز	-14978
آجوئی	-14979
▁born	-14980
▁تبءَ	-14981
▁دلوں	-14982
▁سرپر	-14983
▁سِنچ	-14984
▁شُمے	-14985
▁کشءُ	-14986
▁گُژن	-14987
▁لۆگئے	-14988
▁میزاں	-14989
▁killed	-14990
▁اسرمند	-14991
▁کاملیں	-14992
▁گریبیں	-14993
▁بہارگاہ	-14994
صور	-14995
angu	-14996
کپتگ	-14997
ھونی	-14998
یتاں	-14999
▁آبد	-15000
▁ببر	-15001
▁گچک	-15002
داداد	-15003
▁سلاھ	-15004
▁شکیل	-15005
▁لذّت	-15006
▁ڈاچی	-15007
▁کَپت	-15008
اداریں	-15009
رالائی	-15010
▁آبانی	-15011
▁بوھگی	-15012
▁تالاں	-15013
▁جاڑیں	-15014
▁شہیدی	-15015
▁مرتگ۔	-15016
▁months	-15017
▁انونیں	-15018
▁رودپتر	-15019
▁رومانی	-15020
▁سرپراز	-15021
▁اسکولءَ	-15022
▁southern	-15023
▁داستانانی	-15024
▁originally	-15025
فس	-15026
urb	-15027
▁ھپ	-15028
oice	-15029
جمان	-15030
وراک	-15031
▁جوْ	-15032
▁لگگ	-15033
▁کڈّ	-15034
زندگی	-15035
نبشتگ	-15036
▁Army	-15037
▁wife	-15038
▁ریسٹ	-15039
▁مہنگ	-15040
▁کپٹن	-15041
▁درنجگ	-15042
▁وشنود	-15043
▁ٹکرءَ	-15044
▁بیزاری	-15045
▁سلاماں	-15046
▁ملگزار	-15047
▁وانگءُ	-15048
▁comment	-15049
▁بیت۔بلے	-15050
▁جنگوجانیؔ	-15051
▁درّائینت۔	-15052
ھڑ	-15053
ota	-15054
پوت	-15055
▁سرخ	-15056
▁کچل	-15057
▁کھں	-15058
▁stri	-15059
▁اشار	-15060
▁بابر	-15061
▁برئے	-15062
▁بچاں	-15063
▁دواز	-15064
▁چوھد	-15065
▁گسءِ	-15066
▁گولڈ	-15067
▁یےءِ	-15068
▁David	-15069
▁بندءِ	-15070
▁بوتگت	-15071
▁ذاتءِ	-15072
▁ٹہینگ	-15073
▁کامیو	-15074
▁گوانز	-15075
▁منتوار	-15076
▁چیرمین	-15077
▁اللَّهِ	-15078
▁پرمائیت	-15079
mar	-15080
تگار	-15081
▁fif	-15082
▁اکو	-15083
▁گاج	-15084
▁گمے	-15085
▁ہوگ	-15086
ابانی	-15087
سردار	-15088
شانیں	-15089
ُکانی	-15090
▁loss	-15091
▁امیج	-15092
▁سکتی	-15093
▁لہڑی	-15094
▁مہرک	-15095
▁وائے	-15096
▁چونی	-15097
▁study	-15098
▁انٹرو	-15099
▁بچکاں	-15100
▁جمعیت	-15101
▁دستءُ	-15102
▁وٹامن	-15103
▁ڈکّال	-15104
▁ھیرات	-15105
▁mother	-15106
▁افسانے	-15107
▁ندیستگ	-15108
▁واجھیں	-15109
▁آئیوکیں	-15110
.”	-15111
ius	-15112
مبری	-15113
▁جاڑ	-15114
▁کفر	-15115
▁ھدّ	-15116
▁ہید	-15117
▁تھئی	-15118
▁سیکس	-15119
▁پسیل	-15120
▁کلاہ	-15121
▁کلیر	-15122
▁گشیں	-15123
▁women	-15124
▁الطاف	-15125
▁ریشاں	-15126
▁ستارہ	-15127
▁سہبءَ	-15128
▁لاپءَ	-15129
▁ٹپاسگ	-15130
▁گفتار	-15131
▁associ	-15132
▁بانوری	-15133
▁جزباتی	-15134
▁پُلّیں	-15135
▁کوالٹی	-15136
▁کھندان	-15137
▁پاسداری	-15138
▁پدمنتگی	-15139
▁مابعدالط	-15140
▁ندارگانی	-15141
▁hurricane	-15142
ھدا	-15143
ects	-15144
باید	-15145
▁اںت	-15146
▁ردو	-15147
▁گے۔	-15148
▁cell	-15149
▁بداں	-15150
▁تئیگ	-15151
▁دزگہ	-15152
▁رکشہ	-15153
▁زینب	-15154
▁مھرن	-15155
▁کلیم	-15156
▁Music	-15157
▁جوہان	-15158
▁خواجہ	-15159
▁دردءَ	-15160
▁زیریت	-15161
▁سجہیں	-15162
▁لیگار	-15163
▁کِشکے	-15164
▁دومیءِ	-15165
▁مشترکہ	-15166
▁جاڑیگیں	-15167
▁سیدھاشمی	-15168
آد	-15169
▁هں	-15170
ston	-15171
آیاں	-15172
▁non	-15173
▁sex	-15174
▁آکر	-15175
▁تیغ	-15176
▁سرٛ	-15177
▁شکس	-15178
antry	-15179
چونیں	-15180
▁agre	-15181
▁mass	-15182
▁مرگے	-15183
▁پھرہ	-15184
▁پیام	-15185
▁کئوم	-15186
▁کنفی	-15187
▁کوھے	-15188
▁ident	-15189
▁اورنگ	-15190
▁بیبرگ	-15191
▁چاکری	-15192
▁ھلکءِ	-15193
▁دْرچکے	-15194
▁ماھانی	-15195
▁گلستان	-15196
▁گورگیج	-15197
▁eastern	-15198
▁مبارکیءِ	-15199
▁گالبندانی	-15200
):	-15201
خاص	-15202
▁."	-15203
▁إن	-15204
▁دڑ	-15205
▁نژ	-15206
راسی	-15207
▁ایتھ	-15208
▁جانش	-15209
▁ٹریڈ	-15210
▁ٹیوٹ	-15211
▁چنڈے	-15212
▁کئور	-15213
▁ھرام	-15214
▁ھَند	-15215
▁باتیل	-15216
▁جہانے	-15217
▁دوسال	-15218
▁سیکنڈ	-15219
▁چاپءُ	-15220
▁گُراب	-15221
▁گْواہ	-15222
زورگریں	-15223
▁دُرّیں	-15224
▁نبشتگ۔	-15225
▁وارتگ۔	-15226
▁ھجالتی	-15227
▁حالانکہ	-15228
▁ریاستءِ	-15229
▁چُکچینی	-15230
▁گُشتانک	-15231
▁نادْراھی	-15232
▁relationship	-15233
)"	-15234
”،	-15235
ycl	-15236
جتا	-15237
رسی	-15238
ڈیز	-15239
▁پّ	-15240
▁ھے	-15241
ئیگی	-15242
بیست	-15243
▁185	-15244
▁aud	-15245
▁انش	-15246
▁2003	-15247
▁2015	-15248
▁اکاؤ	-15249
▁بلید	-15250
▁بناء	-15251
▁منان	-15252
▁منصب	-15253
▁پکنک	-15254
▁چاھے	-15255
▁یاری	-15256
بادشاہ	-15257
▁award	-15258
▁broad	-15259
▁الّما	-15260
▁ساھگے	-15261
▁فرشتہ	-15262
▁مروشی	-15263
مردمانی	-15264
▁شورہاں	-15265
▁وانوکے	-15266
▁گُشندہ	-15267
▁critics	-15268
▁نیشنلزم	-15269
▁کماشانی	-15270
▁ٹا	-15271
▁حسی	-15272
▁سوا	-15273
▁ظاھ	-15274
▁محق	-15275
▁معی	-15276
▁ھوس	-15277
دانکہ	-15278
دوستی	-15279
▁anim	-15280
▁چداں	-15281
▁کولی	-15282
▁کویت	-15283
▁ھِشت	-15284
▁ہمار	-15285
▁ہماں	-15286
▁درتکگ	-15287
▁طائرؔ	-15288
▁لاشاں	-15289
▁نیلیت	-15290
▁ھرچنت	-15291
▁آلودگی	-15292
▁انکاری	-15293
▁اچکزئی	-15294
▁نیمونے	-15295
▁ھیرانی	-15296
▁آزادیءِ	-15297
▁دزکپتگیں	-15298
▁eventually	-15299
شَ	-15300
لھ	-15301
شکے	-15302
ئیت۔	-15303
▁ترگ	-15304
▁جَل	-15305
▁رَہ	-15306
▁لڈگ	-15307
▁کتب	-15308
▁ایڈو	-15309
▁دلیر	-15310
▁سُست	-15311
▁کورچ	-15312
▁آتراپ	-15313
▁ابتدا	-15314
▁اعلیٰ	-15315
▁ترانت	-15316
▁فرانز	-15317
▁درچکاں	-15318
▁ساعتاں	-15319
▁مارشتی	-15320
▁نوبتاں	-15321
▁کشتگیں	-15322
▁profess	-15323
▁ازمکاری	-15324
▁زمستانی	-15325
▁علاقائی	-15326
▁کاروانے	-15327
▁features	-15328
ابد	-15329
اها	-15330
سٹن	-15331
aper	-15332
پروش	-15333
کماش	-15334
▁God	-15335
▁bus	-15336
▁voc	-15337
▁تکہ	-15338
▁صبح	-15339
▁فاض	-15340
▁مرغ	-15341
▁نمک	-15342
▁پرُ	-15343
زمانگ	-15344
▁انّی	-15345
▁دراھ	-15346
▁رۆچے	-15347
▁طریق	-15348
▁فیلڈ	-15349
▁لہڑگ	-15350
▁هوار	-15351
▁پاکی	-15352
▁پلیں	-15353
▁کسّی	-15354
▁Other	-15355
▁young	-15356
▁بغاوت	-15357
▁دارگا	-15358
olution	-15359
▁recogn	-15360
▁اکسانی	-15361
▁ایڈیشن	-15362
▁توپانی	-15363
▁مہروان	-15364
▁وشتریں	-15365
▁پائیدگ	-15366
▁پبلشرز	-15367
▁میاربار	-15368
▁z	-15369
gin	-15370
این	-15371
ردگ	-15372
ully	-15373
یشنز	-15374
▁روغ	-15375
▁رچگ	-15376
▁زگر	-15377
▁یان	-15378
کّانی	-15379
▁live	-15380
▁دلوش	-15381
▁رَسُ	-15382
▁سوتک	-15383
▁مدرس	-15384
▁چوری	-15385
▁ڈیوڈ	-15386
ements	-15387
▁سانکل	-15388
▁شاہدی	-15389
▁شیراز	-15390
▁قندیل	-15391
▁مارٹر	-15392
▁گپتءُ	-15393
▁France	-15394
▁بوھگءِ	-15395
▁بگرداں	-15396
▁تندجاہ	-15397
▁شئیراں	-15398
▁کردگار	-15399
▁کُہنیں	-15400
▁دزکپتگ۔	-15401
▁ھاکمانی	-15402
▁لورالائی	-15403
▁گوئستگیں	-15404
رار	-15405
منت	-15406
ودے	-15407
ٹءَ	-15408
دیما	-15409
▁Ser	-15410
▁اصح	-15411
▁رَم	-15412
▁کھث	-15413
آھانی	-15414
ندگاں	-15415
▁aver	-15416
▁براث	-15417
▁برگی	-15418
▁دمکے	-15419
▁سروگ	-15420
▁شربت	-15421
▁لیٹی	-15422
▁ناپی	-15423
▁ٹھوس	-15424
▁کُنر	-15425
▁taken	-15426
▁دَرور	-15427
▁زندئے	-15428
▁نیمءَ	-15429
▁ھمدءَ	-15430
▁fourth	-15431
▁ردومءِ	-15432
▁زورگءَ	-15433
ؤک	-15434
ask	-15435
emy	-15436
ناس	-15437
ینس	-15438
▁۔ت	-15439
ارین	-15440
ازاں	-15441
▁اُف	-15442
▁ہوس	-15443
استاد	-15444
ایشاں	-15445
سندھی	-15446
▁آزیز	-15447
▁خالی	-15448
▁رسین	-15449
▁فلاس	-15450
▁لمبر	-15451
▁مسقط	-15452
▁کدیں	-15453
انسانی	-15454
ایشیءِ	-15455
▁estim	-15456
▁route	-15457
▁سیمین	-15458
▁ماہیں	-15459
▁نادان	-15460
▁پادءَ	-15461
▁پنّام	-15462
▁بچکانی	-15463
▁زُوریت	-15464
▁مُروار	-15465
▁چوھدری	-15466
▁سرائیکی	-15467
▁کلاسیکی	-15468
▁عَلَيْهِ	-15469
▁سانتیاگونصر	-15470
صح	-15471
▁حذ	-15472
cher	-15473
▁Ber	-15474
▁Two	-15475
▁رتک	-15476
▁رکگ	-15477
▁منج	-15478
▁کوئ	-15479
▁اۆدا	-15480
▁جامع	-15481
▁ذاکر	-15482
▁شیرے	-15483
▁پارس	-15484
▁گرگی	-15485
▁گیڑھ	-15486
ستانءِ	-15487
▁بیتہ۔	-15488
▁ماشین	-15489
▁ہرجاہ	-15490
▁served	-15491
▁اُمیتے	-15492
▁دئیگءَ	-15493
▁دلگران	-15494
▁انفرادی	-15495
▁شاہگانی	-15496
▁ڈاکٹرءِ	-15497
جبر	-15498
کّگ	-15499
▁هی	-15500
▁۔ق	-15501
liam	-15502
ores	-15503
ورتگ	-15504
کسّہ	-15505
▁جمپ	-15506
▁حُب	-15507
▁چُل	-15508
▁کرگ	-15509
▁گزی	-15510
istic	-15511
▁بُنڈ	-15512
▁عیبے	-15513
▁کسّه	-15514
▁آنہاں	-15515
▁اعجاز	-15516
▁بگلءَ	-15517
▁غریبی	-15518
▁ناراض	-15519
▁نْیام	-15520
▁چاکرؔ	-15521
▁کائیں	-15522
▁گلوبل	-15523
▁گِرَگ	-15524
▁ثقافتی	-15525
▁نوکنڈی	-15526
▁وکٹانی	-15527
▁سرداروں	-15528
▁شوہازءَ	-15529
▁آسراتیاں	-15530
▁ایمرجنسی	-15531
جنت	-15532
لّے	-15533
illa	-15534
آیان	-15535
▁أگر	-15536
▁جدو	-15537
▁مِس	-15538
▁هوش	-15539
▁ٹکے	-15540
راتاں	-15541
▁بنند	-15542
▁تلوس	-15543
▁دُوت	-15544
▁دپءِ	-15545
▁قران	-15546
▁نانی	-15547
▁ورگا	-15548
▁پائد	-15549
▁پندے	-15550
▁پولگ	-15551
▁چاڑے	-15552
▁چمپل	-15553
▁چَنڈ	-15554
▁کارل	-15555
▁کَسّ	-15556
▁ھالت	-15557
▁prote	-15558
▁درملک	-15559
▁شَرّی	-15560
▁پیگور	-15561
▁گشادی	-15562
▁گپتیں	-15563
ography	-15564
▁commer	-15565
▁دُرٛست	-15566
▁مراداں	-15567
▁گیشینت	-15568
▁appoint	-15569
▁انقلابی	-15570
▁درپشوکیں	-15571
▁دُرٛستاں	-15572
▁دْرچکانی	-15573
ama	-15574
ائق	-15575
▁Co	-15576
▁ھژ	-15577
chie	-15578
omes	-15579
ئنت۔	-15580
وگری	-15581
گوشی	-15582
▁far	-15583
▁سپا	-15584
▁فین	-15585
▁لھم	-15586
▁موڑ	-15587
▁نہہ	-15588
▁ھڈّ	-15589
▁ہیم	-15590
▁lack	-15591
▁آتار	-15592
▁راگے	-15593
▁ضلعی	-15594
▁مرشی	-15595
▁مێتگ	-15596
▁نابل	-15597
▁گَٹّ	-15598
▁آرامی	-15599
▁تھران	-15600
▁زورگی	-15601
▁شہزاد	-15602
▁عاشقی	-15603
▁پنڈوک	-15604
▁damage	-15605
▁بُوتگ۔	-15606
▁حاندان	-15607
▁زھیراں	-15608
▁مارِشت	-15609
▁decided	-15610
▁نصراللہ	-15611
▁اُمیتانی	-15612
unk	-15613
انج	-15614
▁Mad	-15615
▁پرپ	-15616
▁ھسن	-15617
azine	-15618
igned	-15619
▁Part	-15620
▁رہیم	-15621
▁شورو	-15622
▁heavy	-15623
▁رواجی	-15624
▁شھزاد	-15625
▁پادری	-15626
▁گوران	-15627
▁درکئیت	-15628
▁دیوالے	-15629
▁ساہدار	-15630
▁امیدوار	-15631
▁شاھگانی	-15632
▁نمیرانی	-15633
وه	-15634
سبز	-15635
موس	-15636
ۆکا	-15637
▁Im	-15638
▁ذخ	-15639
▁cor	-15640
▁بَی	-15641
▁جمّ	-15642
▁دُژ	-15643
▁پھز	-15644
▁گسے	-15645
ائیءَ	-15646
▁base	-15647
▁آوھد	-15648
▁برنت	-15649
▁بیدء	-15650
▁رومی	-15651
▁رہتا	-15652
▁لَڈّ	-15653
▁نوار	-15654
▁پرتگ	-15655
▁پرسن	-15656
▁چاند	-15657
ــــــ	-15658
▁آروسی	-15659
▁آشوبے	-15660
▁اسٹار	-15661
▁اکوام	-15662
▁تفسیر	-15663
▁رندءِ	-15664
▁رودرآ	-15665
▁شازاد	-15666
▁نندیں	-15667
▁either	-15668
▁داروگہ	-15669
▁کردارے	-15670
▁یاسمین	-15671
▁ناسرپدی	-15672
▁بشکھندگی	-15673
▁Battalion	-15674
▁ازمءُگوازی	-15675
فک	-15676
افہ	-15677
خیس	-15678
رفت	-15679
لّو	-15680
کسم	-15681
گپّ	-15682
▁arm	-15683
▁برئ	-15684
▁ہیڈ	-15685
وانین	-15686
گرمیں	-15687
▁insp	-15688
▁اکان	-15689
▁بھاگ	-15690
▁ستون	-15691
▁میکس	-15692
▁وَال	-15693
▁پنڈگ	-15694
▁کپئگ	-15695
iation	-15696
▁impro	-15697
▁separ	-15698
▁زروان	-15699
▁شیڈول	-15700
▁نوائے	-15701
▁کِمار	-15702
▁condom	-15703
▁proble	-15704
▁عکسانی	-15705
▁چھاپءُ	-15706
▁رودینتگ	-15707
▁مھرنھاد	-15708
▁سربیتگیں	-15709
▁واقعہانی	-15710
▁جاورھالانی	-15711
val	-15712
ُون	-15713
ورات	-15714
ڈینگ	-15715
▁آدت	-15716
▁آہر	-15717
▁اہت	-15718
▁خطر	-15719
▁خلق	-15720
▁دوش	-15721
▁مرچ	-15722
ought	-15723
▁حقاں	-15724
▁عموم	-15725
▁قطار	-15726
▁کسہے	-15727
▁ہورک	-15728
▁باگیں	-15729
▁عاروس	-15730
▁Robert	-15731
▁behind	-15732
▁خیالات	-15733
▁ہاترءَ	-15734
▁special	-15735
▁توارانی	-15736
▁خوبصورت	-15737
▁مہرانکی	-15738
▁نمدیانی	-15739
▁آرگنائزر	-15740
▁خدائیداد	-15741
هت	-15742
ica	-15743
ida	-15744
نون	-15745
نّی	-15746
کّی	-15747
ecut	-15748
اباں	-15749
وائے	-15750
ّگءَ	-15751
▁عنا	-15752
▁وتے	-15753
▁پڑے	-15754
▁کثہ	-15755
▁ہنی	-15756
ساچشت	-15757
▁Love	-15758
▁coll	-15759
▁بَرگ	-15760
▁شعرا	-15761
▁نمای	-15762
▁ہوں۔	-15763
gether	-15764
▁بہرءُ	-15765
▁حرماگ	-15766
▁شھداد	-15767
▁نظرہی	-15768
▁پِسءِ	-15769
▁کپتنت	-15770
▁درابوت	-15771
▁دربرتگ	-15772
▁نگاھاں	-15773
▁چراگاں	-15774
▁گوٛہار	-15775
▁ھمراھے	-15776
▁individ	-15777
▁زہیرانی	-15778
▁نیزگاری	-15779
▁believed	-15780
▁together	-15781
▁استادانی	-15782
eal	-15783
▁ہڑ	-15784
ency	-15785
ادمی	-15786
لّاں	-15787
کہول	-15788
کیاں	-15789
▁arg	-15790
▁آاے	-15791
▁بیھ	-15792
▁ٹام	-15793
▁کاز	-15794
ھنچوش	-15795
▁quar	-15796
▁جبزگ	-15797
▁خوار	-15798
▁ریتک	-15799
▁غفار	-15800
▁نیلگ	-15801
▁وانت	-15802
▁ہمدپ	-15803
iction	-15804
▁تمباک	-15805
▁دیماں	-15806
▁زاھدہ	-15807
▁نکناں	-15808
▁پچگرگ	-15809
▁چہرءُ	-15810
liament	-15811
▁باھوٹی	-15812
▁کُٹانی	-15813
▁ناکوزتک	-15814
▁اُتمانءَ	-15815
ipp	-15816
حدا	-15817
قات	-15818
گوز	-15819
▁35	-15820
aves	-15821
سیاہ	-15822
▁آھر	-15823
▁فقط	-15824
▁نیپ	-15825
▁clos	-15826
▁آمنی	-15827
▁سرئے	-15828
▁سلاه	-15829
▁گُوش	-15830
ouncil	-15831
▁سرریچ	-15832
▁سیریں	-15833
▁میڑاں	-15834
▁کلانچ	-15835
▁آدینکے	-15836
▁جہانءَ	-15837
▁دوہزار	-15838
▁آزاتیءِ	-15839
▁جُتائیں	-15840
▁نزوریاں	-15841
سِ	-15842
rap	-15843
اشد	-15844
تہا	-15845
چوں	-15846
▁ا۔	-15847
cial	-15848
rict	-15849
جیکل	-15850
▁ردء	-15851
▁لپا	-15852
▁کَٹ	-15853
بندات	-15854
درائی	-15855
▁آرٹس	-15856
▁بدلہ	-15857
▁ثانی	-15858
▁زگری	-15859
▁لوکل	-15860
▁مِنْ	-15861
▁Carey	-15862
▁Royal	-15863
▁mater	-15864
▁ادیرہ	-15865
▁دنیاء	-15866
▁ملائی	-15867
▁گوشتے	-15868
▁ترونگل	-15869
▁جیڑگءَ	-15870
▁دبستان	-15871
▁دلچسپی	-15872
▁ناگتءَ	-15873
▁گھڑیال	-15874
▁playing	-15875
▁بیت۔۔۔۔	-15876
▁بیگْواہ	-15877
▁سلیمانی	-15878
▁سیاستءَ	-15879
▁گوستگال	-15880
iber	-15881
لیکہ	-15882
کساس	-15883
کلات	-15884
▁Red	-15885
▁dou	-15886
▁حور	-15887
▁نمی	-15888
▁پست	-15889
▁burn	-15890
▁بیرو	-15891
▁دیگ۔	-15892
▁منیگ	-15893
▁ہُدا	-15894
aching	-15895
▁انگیں	-15896
▁شھادت	-15897
▁غذائی	-15898
▁ٹھیکہ	-15899
▁پختون	-15900
▁پُرسی	-15901
▁چیھال	-15902
▁جاہانی	-15903
▁بیوروکری	-15904
iol	-15905
تیر	-15906
▁Du	-15907
▁ir	-15908
قدوس	-15909
▁Med	-15910
▁Min	-15911
▁اوٗ	-15912
▁جاں	-15913
▁جُل	-15914
▁move	-15915
▁الاق	-15916
▁سَنگ	-15917
▁ویلے	-15918
▁گئے۔	-15919
▁گرائ	-15920
▁تلوار	-15921
▁جزیرہ	-15922
▁دستیں	-15923
▁رَوَگ	-15924
▁سنگیں	-15925
▁شادءَ	-15926
▁مردما	-15927
▁چرآئی	-15928
▁accept	-15929
▁پنجاپی	-15930
▁استاراں	-15931
▁وتساچیں	-15932
▁چیدگانی	-15933
ساہ	-15934
ٗون	-15935
پیگ	-15936
▁bi	-15937
▁چێ	-15938
بارگ	-15939
بگند	-15940
مدان	-15941
▁Hen	-15942
▁Mex	-15943
▁dev	-15944
▁vol	-15945
▁بوک	-15946
▁خیل	-15947
▁زُل	-15948
▁نجی	-15949
▁وسّ	-15950
▁ولو	-15951
▁پسے	-15952
▁تُشے	-15953
▁جاگی	-15954
▁درخت	-15955
▁مدئے	-15956
▁پارل	-15957
▁کوہن	-15958
▁گشند	-15959
▁close	-15960
▁creat	-15961
▁langu	-15962
▁round	-15963
▁البرٹ	-15964
▁درآھگ	-15965
▁درکرت	-15966
▁دوائی	-15967
▁رجسٹر	-15968
▁پاھار	-15969
▁اَنچُش	-15970
▁درباری	-15971
▁شہرانی	-15972
▁example	-15973
▁آسراتیانی	-15974
gg	-15975
زین	-15976
صیح	-15977
▁188	-15978
▁اهل	-15979
▁بنچ	-15980
▁حید	-15981
▁گڑی	-15982
▁Some	-15983
▁رتکگ	-15984
▁زهیر	-15985
▁سافٹ	-15986
▁شپاد	-15987
▁فرقہ	-15988
▁نانے	-15989
▁وسیل	-15990
▁وَشّ	-15991
▁ٹوئی	-15992
▁ہسین	-15993
عطاشاد	-15994
▁المین	-15995
▁بؤکیں	-15996
▁بتایا	-15997
▁تصدیق	-15998
▁داتاں	-15999
▁سنگاں	-16000
▁مارشل	-16001
▁مُجاں	-16002
▁پرانی	-16003
▁گالرد	-16004
▁almost	-16005
▁جنینءَ	-16006
▁شیرازی	-16007
▁ماراِت	-16008
▁کارآمد	-16009
▁درامدیں	-16010
▁شائریءَ	-16011
▁مہروانی	-16012
▁نادْراہ	-16013
▁نشانیاں	-16014
▁جہلانکیں	-16015
▁نادراھانی	-16016
َش	-16017
گھ	-16018
alt	-16019
مُر	-16020
ests	-16021
▁اَں	-16022
▁باخ	-16023
▁ناق	-16024
▁پنگ	-16025
▁چرپ	-16026
▁ڈین	-16027
▁باگی	-16028
▁دودے	-16029
▁سفرے	-16030
▁صحاب	-16031
▁فوٹو	-16032
▁نہنت	-16033
▁پاچن	-16034
▁چنڈگ	-16035
▁کلین	-16036
پشوکیں	-16037
▁بئیں۔	-16038
▁گلائش	-16039
▁بالیچہ	-16040
▁service	-16041
▁دزگیریں	-16042
▁ابدمانیں	-16043
▁زوربیگواہ	-16044
ze	-16045
دِ	-16046
وو	-16047
اگہ	-16048
اریت	-16049
روسی	-16050
فاقی	-16051
▁دہر	-16052
▁مدگ	-16053
▁نای	-16054
▁sour	-16055
▁امتی	-16056
▁ساخت	-16057
▁وحدت	-16058
▁کنٹگ	-16059
▁گِسر	-16060
▁سیندک	-16061
▁گھنٹہ	-16062
▁ھرجان	-16063
عبداللہ	-16064
▁جنگلات	-16065
▁پاسدار	-16066
▁پھزدار	-16067
▁کپوکیں	-16068
▁گرفتار	-16069
▁leading	-16070
▁حاکمانی	-16071
▁پُلّانی	-16072
▁European	-16073
ترس	-16074
سنی	-16075
ُوک	-16076
odes	-16077
▁Rep	-16078
▁جرا	-16079
▁نِز	-16080
بوتگ۔	-16081
داشتی	-16082
▁fall	-16083
▁بشام	-16084
▁جنێن	-16085
▁لوگا	-16086
▁کلمت	-16087
▁گرءُ	-16088
▁White	-16089
▁اِشان	-16090
▁بندئے	-16091
▁سوالی	-16092
▁صورتے	-16093
▁نزیکا	-16094
▁پولیو	-16095
▁ہپتگے	-16096
▁آنکھوں	-16097
▁تحقیقی	-16098
▁کسھانی	-16099
▁کمٹمنٹ	-16100
▁Federer	-16101
▁درٛاجیں	-16102
▁generally	-16103
▁رسانکجاھاں	-16104
oph	-16105
اما	-16106
ندا	-16107
▁ce	-16108
▁أف	-16109
ارسط	-16110
فقیر	-16111
ماتی	-16112
▁saw	-16113
▁اوگ	-16114
▁رَب	-16115
▁گرّ	-16116
ators	-16117
▁"","	-16118
▁دازن	-16119
▁دیوی	-16120
▁شادؔ	-16121
▁لینا	-16122
▁وتار	-16123
▁ہنچش	-16124
▁بحالی	-16125
▁بژنیگ	-16126
▁رکھنے	-16127
▁شمشتگ	-16128
▁پُراں	-16129
▁opened	-16130
▁احمدان	-16131
▁نادُرٛ	-16132
▁پربستگ	-16133
▁کوچگاں	-16134
▁towards	-16135
▁انت۔۔۔۔	-16136
▁مردمےءِ	-16137
▁کندگانی	-16138
▁ہردوئیں	-16139
▁elements	-16140
▁لبزانتانی	-16141
جس	-16142
ْک	-16143
▁Kh	-16144
ابوت	-16145
مُلک	-16146
کاءِ	-16147
کیءَ	-16148
▁miss	-16149
▁تلاش	-16150
▁توجہ	-16151
▁توکہ	-16152
▁سندگ	-16153
▁ناگہ	-16154
▁کرسٹ	-16155
▁گرین	-16156
▁باراں	-16157
▁داناں	-16158
▁زِندگ	-16159
▁واقعی	-16160
▁انگتءَ	-16161
▁بوہگءَ	-16162
▁بھارتی	-16163
▁مودانی	-16164
▁کورانی	-16165
▁ابتدائی	-16166
▁مشہوریں	-16167
▁گدارانی	-16168
▁روژنائیں	-16169
رہے	-16170
نسٹ	-16171
ہین	-16172
▁تز	-16173
uter	-16174
جانک	-16175
کیءِ	-16176
▁اَس	-16177
▁زرا	-16178
▁سیپ	-16179
▁پتن	-16180
▁چُٹ	-16181
▁کپن	-16182
▁ییں	-16183
oring	-16184
ندانی	-16185
▁تبءِ	-16186
▁ننگر	-16187
▁پھول	-16188
▁گُرک	-16189
▁weeks	-16190
▁معراج	-16191
▁مُھکم	-16192
▁نامءُ	-16193
▁جذباتی	-16194
▁ناشریں	-16195
▁نزّیکی	-16196
▁Brigade	-16197
▁brought	-16198
▁general	-16199
▁دروازگے	-16200
▁کاریانی	-16201
▁ہمگرٛنچ	-16202
ُٹ	-16203
فلس	-16204
ْوز	-16205
ceed	-16206
دّار	-16207
▁mot	-16208
▁آرپ	-16209
▁چمی	-16210
▁Game	-16211
▁Pres	-16212
▁draw	-16213
▁ایڈی	-16214
▁جُمپ	-16215
▁سویت	-16216
▁سیما	-16217
▁شرپی	-16218
▁ویسٹ	-16219
▁گھڑی	-16220
بندانی	-16221
▁Wales	-16222
▁تنگیں	-16223
▁دریاب	-16224
▁سپائی	-16225
▁سیاہگ	-16226
▁شموشت	-16227
▁مختصر	-16228
▁ملٹری	-16229
▁منزور	-16230
▁بختاور	-16231
▁finished	-16232
▁دراتکگیں	-16233
۔۔۔۔۔۔۔۔۔۔۔	-16234
▁عبدالرحمان	-16235
▁International	-16236
ساز	-16237
لال	-16238
ورو	-16239
▁تغ	-16240
▁سّ	-16241
stit	-16242
▁زرگ	-16243
▁عوض	-16244
▁کُو	-16245
▁کیر	-16246
▁گرز	-16247
داللہ	-16248
لَّمَ	-16249
▁Flor	-16250
▁laun	-16251
▁ٹھیک	-16252
▁پشدر	-16253
▁کادر	-16254
▁گودی	-16255
▁ھِچّ	-16256
▁ہالو	-16257
▁ہنری	-16258
ندرانی	-16259
▁باپشت	-16260
▁بندین	-16261
▁مادنی	-16262
▁مصرعہ	-16263
▁مُشکل	-16264
▁نیمگء	-16265
▁پُلّے	-16266
▁چارئگ	-16267
▁ہڑتال	-16268
▁ارزشتی	-16269
▁جہدانی	-16270
▁پُلانی	-16271
▁ڈھانچہ	-16272
▁مھلوکءِ	-16273
▁مہنگائی	-16274
بیس	-16275
جیگ	-16276
درد	-16277
▁یر	-16278
▁ےَ	-16279
انچش	-16280
َگیں	-16281
▁تفت	-16282
▁فرہ	-16283
▁قطر	-16284
▁وَل	-16285
▁چِر	-16286
راھاں	-16287
▁host	-16288
▁wall	-16289
▁جیسی	-16290
▁خوبی	-16291
[...]
