<pad>	0
<unk>	0
<s>	0
</s>	0
[CLS]	0
[SEP]	0
[MASK]	0
<0x00>	0
<0x01>	0
<0x02>	0
<0x03>	0
<0x04>	0
<0x05>	0
<0x06>	0
<0x07>	0
<0x08>	0
<0x09>	0
<0x0A>	0
<0x0B>	0
<0x0C>	0
<0x0D>	0
<0x0E>	0
<0x0F>	0
<0x10>	0
<0x11>	0
<0x12>	0
<0x13>	0
<0x14>	0
<0x15>	0
<0x16>	0
<0x17>	0
<0x18>	0
<0x19>	0
<0x1A>	0
<0x1B>	0
<0x1C>	0
<0x1D>	0
<0x1E>	0
<0x1F>	0
<0x20>	0
<0x21>	0
<0x22>	0
<0x23>	0
<0x24>	0
<0x25>	0
<0x26>	0
<0x27>	0
<0x28>	0
<0x29>	0
<0x2A>	0
<0x2B>	0
<0x2C>	0
<0x2D>	0
<0x2E>	0
<0x2F>	0
<0x30>	0
<0x31>	0
<0x32>	0
<0x33>	0
<0x34>	0
<0x35>	0
<0x36>	0
<0x37>	0
<0x38>	0
<0x39>	0
<0x3A>	0
<0x3B>	0
<0x3C>	0
<0x3D>	0
<0x3E>	0
<0x3F>	0
<0x40>	0
<0x41>	0
<0x42>	0
<0x43>	0
<0x44>	0
<0x45>	0
<0x46>	0
<0x47>	0
<0x48>	0
<0x49>	0
<0x4A>	0
<0x4B>	0
<0x4C>	0
<0x4D>	0
<0x4E>	0
<0x4F>	0
<0x50>	0
<0x51>	0
<0x52>	0
<0x53>	0
<0x54>	0
<0x55>	0
<0x56>	0
<0x57>	0
<0x58>	0
<0x59>	0
<0x5A>	0
<0x5B>	0
<0x5C>	0
<0x5D>	0
<0x5E>	0
<0x5F>	0
<0x60>	0
<0x61>	0
<0x62>	0
<0x63>	0
<0x64>	0
<0x65>	0
<0x66>	0
<0x67>	0
<0x68>	0
<0x69>	0
<0x6A>	0
<0x6B>	0
<0x6C>	0
<0x6D>	0
<0x6E>	0
<0x6F>	0
<0x70>	0
<0x71>	0
<0x72>	0
<0x73>	0
<0x74>	0
<0x75>	0
<0x76>	0
<0x77>	0
<0x78>	0
<0x79>	0
<0x7A>	0
<0x7B>	0
<0x7C>	0
<0x7D>	0
<0x7E>	0
<0x7F>	0
<0x80>	0
<0x81>	0
<0x82>	0
<0x83>	0
<0x84>	0
<0x85>	0
<0x86>	0
<0x87>	0
<0x88>	0
<0x89>	0
<0x8A>	0
<0x8B>	0
<0x8C>	0
<0x8D>	0
<0x8E>	0
<0x8F>	0
<0x90>	0
<0x91>	0
<0x92>	0
<0x93>	0
<0x94>	0
<0x95>	0
<0x96>	0
<0x97>	0
<0x98>	0
<0x99>	0
<0x9A>	0
<0x9B>	0
<0x9C>	0
<0x9D>	0
<0x9E>	0
<0x9F>	0
<0xA0>	0
<0xA1>	0
<0xA2>	0
<0xA3>	0
<0xA4>	0
<0xA5>	0
<0xA6>	0
<0xA7>	0
<0xA8>	0
<0xA9>	0
<0xAA>	0
<0xAB>	0
<0xAC>	0
<0xAD>	0
<0xAE>	0
<0xAF>	0
<0xB0>	0
<0xB1>	0
<0xB2>	0
<0xB3>	0
<0xB4>	0
<0xB5>	0
<0xB6>	0
<0xB7>	0
<0xB8>	0
<0xB9>	0
<0xBA>	0
<0xBB>	0
<0xBC>	0
<0xBD>	0
<0xBE>	0
<0xBF>	0
<0xC0>	0
<0xC1>	0
<0xC2>	0
<0xC3>	0
<0xC4>	0
<0xC5>	0
<0xC6>	0
<0xC7>	0
<0xC8>	0
<0xC9>	0
<0xCA>	0
<0xCB>	0
<0xCC>	0
<0xCD>	0
<0xCE>	0
<0xCF>	0
<0xD0>	0
<0xD1>	0
<0xD2>	0
<0xD3>	0
<0xD4>	0
<0xD5>	0
<0xD6>	0
<0xD7>	0
<0xD8>	0
<0xD9>	0
<0xDA>	0
<0xDB>	0
<0xDC>	0
<0xDD>	0
<0xDE>	0
<0xDF>	0
<0xE0>	0
<0xE1>	0
<0xE2>	0
<0xE3>	0
<0xE4>	0
<0xE5>	0
<0xE6>	0
<0xE7>	0
<0xE8>	0
<0xE9>	0
<0xEA>	0
<0xEB>	0
<0xEC>	0
<0xED>	0
<0xEE>	0
<0xEF>	0
<0xF0>	0
<0xF1>	0
<0xF2>	0
<0xF3>	0
<0xF4>	0
<0xF5>	0
<0xF6>	0
<0xF7>	0
<0xF8>	0
<0xF9>	0
<0xFA>	0
<0xFB>	0
<0xFC>	0
<0xFD>	0
<0xFE>	0
<0xFF>	0
▁ء	-2.1033
▁کہ	-4.04229
▁انت	-4.13511
,	-4.29395
▁اے	-4.76559
▁ات	-4.86734
▁,	-4.91393
▁نہ	-4.94902
▁وتی	-4.99238
ء	-5.03393
▁چہ	-5.09794
▁۔	-5.22546
▁من	-5.22612
▁یک	-5.27892
▁ائی	-5.28151
▁	-5.31289
▁ا	-5.39459
▁انت۔	-5.40044
▁بیت	-5.41727
▁گوں	-5.4765
▁کنگ	-5.47895
▁بہ	-5.52061
▁پہ	-5.52241
▁و	-5.56402
▁(	-5.59437
▁:	-5.61105
▁سر	-5.79616
▁بلوچ	-5.79979
▁بوتگ	-5.80162
انی	-5.82275
▁)	-5.88571
▁.	-5.90205
▁the	-5.93365
▁بلے	-5.96276
یں	-5.99236
▁منی	-5.99663
▁ئے	-6.00308
s	-6.03312
▁کنت	-6.06096
▁ھم	-6.10138
▁کتگ	-6.10753
▁تو	-6.11452
اں	-6.11579
▁بوت	-6.1315
۔	-6.17055
▁بیتگ	-6.18958
)	-6.22253
▁بے	-6.22391
▁مردم	-6.23669
▁کن	-6.24758
:	-6.2477
.	-6.25156
▁ئ	-6.25372
▁بلوچستان	-6.25389
▁ما	-6.30215
ے	-6.33334
▁تہ	-6.35795
▁ھمے	-6.3674
▁تہا	-6.36786
▁دیم	-6.37867
▁یا	-6.41024
ed	-6.43109
▁"	-6.4344
▁بلوچی	-6.44053
▁پد	-6.44091
▁کت	-6.4444
▁کار	-6.45373
ی	-6.45766
▁مئے	-6.45999
▁دگہ	-6.46054
▁گپ	-6.50965
▁ہم	-6.53341
▁’’	-6.5335
▁ات۔	-6.55211
▁وت	-6.56897
▁گڑا	-6.59185
▁تئی	-6.60046
▁روچ	-6.60048
▁سرا	-6.65234
▁of	-6.65931
▁دو	-6.66701
▁دل	-6.68005
▁کے	-6.72352
▁نام	-6.73323
▁رد	-6.7341
▁ایت	-6.74652
▁بنت	-6.77124
▁کرتگ	-6.77256
▁and	-6.77643
▁جنگ	-6.77942
▁پدا	-6.78818
▁زبان	-6.80026
▁بیت۔	-6.81069
▁ھما	-6.82032
?	-6.82111
ا	-6.82165
▁اگاں	-6.83661
▁گوشتگ	-6.84395
▁باز	-6.84496
▁بازیں	-6.85518
▁را	-6.87043
‘‘	-6.87895
▁ہمے	-6.88753
▁ہما	-6.89661
▁ایشی	-6.89982
▁بی	-6.90442
▁چو	-6.91548
▁سے	-6.92378
▁اں	-6.93399
▁دست	-6.93449
▁لوٹ	-6.94491
▁ماں	-6.9509
▁یے	-6.95244
▁پر	-6.95843
▁تہء	-6.97053
▁ائیء	-6.97919
▁کی	-6.98979
▁in	-6.991
▁to	-6.99702
▁مردمانی	-7.00378
▁نیمگ	-7.0369
▁مہ	-7.04589
▁میں	-7.04795
▁پاکستانی	-7.06443
▁ایں	-7.06855
▁a	-7.07891
▁چے	-7.08004
▁ھال	-7.10262
▁زند	-7.11448
▁جوڑ	-7.11803
▁دومی	-7.12276
▁در	-7.12303
▁کرت	-7.12433
▁نبشتہ	-7.12815
(	-7.13102
▁زانت	-7.15064
▁وھد	-7.15133
▁مزنیں	-7.15348
▁پوج	-7.15826
▁دیگ	-7.16091
▁‘‘	-7.16744
▁ترا	-7.16948
▁اور	-7.16999
▁واجہ	-7.17711
▁نوں	-7.17969
▁سک	-7.18001
▁که	-7.18925
...	-7.19553
▁دور	-7.20722
▁اس	-7.21468
▁داتگ	-7.21717
!	-7.2303
▁دات	-7.23372
▁گل	-7.23425
▁پیش	-7.23625
▁چار	-7.24854
▁رند	-7.25413
▁خان	-7.25539
▁بند	-7.2587
▁مردماں	-7.28188
▁ہر	-7.28764
▁ھچ	-7.29047
ing	-7.29529
▁گیش	-7.29564
▁رنگ	-7.29892
▁کنت۔	-7.30102
▁دمگ	-7.3024
▁￴	-7.30559
▁نوکیں	-7.30795
▁=	-7.30979
▁زانگ	-7.31366
▁شنگ	-7.32033
▁ایر	-7.33094
▁داں	-7.33193
▁ارش	-7.33323
▁شپ	-7.33392
▁سال	-7.3412
▁سرء	-7.3501
▁جان	-7.35794
▁ھر	-7.35996
▁گوشت	-7.36376
▁کنان	-7.36406
▁مارا	-7.36583
▁اللہ	-7.36625
▁کتاب	-7.37998
▁کس	-7.38937
▁جست	-7.39239
ن	-7.41253
▁نیست	-7.4166
▁اپ	-7.41987
▁راج	-7.42147
▁کا	-7.43034
▁جاہ	-7.43534
▁بوتگ۔	-7.43579
ہ	-7.44415
▁اوار	-7.44484
▁ہے	-7.45041
▁راہ	-7.46145
▁ایش	-7.46628
▁گوش	-7.46975
”	-7.47172
▁اش	-7.47268
ئے	-7.48049
▁ھوار	-7.48085
▁وش	-7.48266
▁ایانی	-7.48388
▁گوشگ	-7.48645
▁گیشتر	-7.48885
’’	-7.48891
▁میر	-7.49013
▁دنیا	-7.50642
▁لوگ	-7.50744
▁لشکر	-7.50856
▁”	-7.51035
y	-7.51735
▁اتگ	-7.52697
▁کم	-7.53363
▁اوں	-7.54521
▁توار	-7.54842
▁اولی	-7.55063
▁'	-7.56377
▁وھدے	-7.56585
"	-7.58303
▁سی	-7.58558
▁گوستگیں	-7.59066
▁گندگ	-7.59101
▁وڑ	-7.59166
▁بیگواہ	-7.5928
▁کو	-7.59803
▁مان	-7.60035
▁یکے	-7.60118
▁جتگ	-7.60348
▁او	-7.60381
▁“	-7.60453
▁بزاں	-7.63618
▁بوگ	-7.6437
▁was	-7.65324
▁چک	-7.6537
▁وڑیں	-7.65591
▁گشتگ	-7.66642
▁گشت	-7.66711
▁کش	-7.66733
▁دوست	-7.668
▁پاکستان	-7.67228
▁بلئے	-7.67681
▁بس	-7.6791
▁بلکیں	-7.67917
▁لبزانک	-7.681
▁برجاہ	-7.68967
@	-7.69506
▁دار	-7.69508
▁چیزے	-7.69602
▁@	-7.70488
▁ماہ	-7.71333
▁مردمے	-7.71575
▁چم	-7.71575
▁درشان	-7.71609
▁ھست	-7.71904
▁دیما	-7.72172
▁گون	-7.72355
▁ابید	-7.72848
▁اتکگ	-7.73694
▁اچ	-7.73744
▁مروچی	-7.73784
▁وانگ	-7.75361
▁چیز	-7.75494
▁محمد	-7.75767
▁کسے	-7.76656
▁گ	-7.76679
▁پشت	-7.76871
▁زور	-7.76998
▁شاعری	-7.77392
▁بیتگیں	-7.78083
▁زمین	-7.78612
▁شال	-7.78645
▁چشکہ	-7.78996
▁The	-7.79505
▁ائرا	-7.79667
▁￵	-7.79697
▁سرجمیں	-7.8002
▁بیران	-7.80171
▁منا	-7.8027
▁زھرشانی	-7.80701
▁بندات	-7.80743
▁بن	-7.81389
▁سرپد	-7.81558
▁ازمانک	-7.8181
▁راجی	-7.81832
▁دنت	-7.82284
▁اتک	-7.82384
▁بدل	-7.82431
▁اتنت	-7.82673
▁مدام	-7.82911
▁سوب	-7.83043
▁ملک	-7.83509
▁انگت	-7.83981
▁مرچی	-7.84278
▁مزن	-7.84334
-	-7.84484
▁مات	-7.84543
▁چست	-7.84673
▁مراد	-7.84883
▁[...]	-7.85391
ان	-7.85603
▁کناں	-7.85936
▁دارگ	-7.85953
▁ھیال	-7.86499
▁ڈاکٹر	-7.86596
▁سیاسی	-7.86779
▁برے	-7.86785
▁انچیں	-7.87146
وں	-7.87258
▁میان	-7.87954
▁ان	-7.8841
▁بنت۔	-7.88511
▁نے	-7.89441
▁انسان	-7.89461
▁پچ	-7.90014
▁کر	-7.90202
▁دیوان	-7.90373
▁کپتگ	-7.90465
▁تاں	-7.90553
▁ہچ	-7.90864
▁دی	-7.90946
▁کدی	-7.91037
▁کشگ	-7.91088
▁واب	-7.91112
▁بوتگیں	-7.91695
اے	-7.9177
▁انچو	-7.92231
▁شر	-7.92308
▁حیال	-7.92312
▁پاد	-7.92362
▁ئیں	-7.92516
ly	-7.92585
▁بوت۔	-7.9271
▁تر	-7.93075
▁این	-7.93102
▁ن	-7.94607
ئ	-7.94692
▁کسہ	-7.95351
▁کجام	-7.95614
▁سلاہ	-7.9594
▁ادا	-7.95974
▁پی	-7.95982
▁است	-7.96244
▁رجانک	-7.96834
▁شما	-7.96993
▁مرد	-7.97047
▁ایاں	-7.97122
▁سبب	-7.99349
▁پٹ	-7.99454
▁شت	-7.99976
▁بہر	-8.00063
▁پرچا	-8.00134
▁دروشم	-8.00198
ں	-8.00753
▁کمک	-8.00884
▁جتائیں	-8.01159
▁کراچی	-8.0121
▁پت	-8.01683
▁جتا	-8.02139
▁جارکش	-8.02636
من	-8.03231
‘	-8.03462
ت	-8.03544
▁زر	-8.03605
▁چی	-8.04435
▁سرجم	-8.0444
▁جند	-8.04687
▁پولیس	-8.04858
▁ایشانی	-8.05013
▁that	-8.05188
▁گڈا	-8.05335
▁چه	-8.06039
▁as	-8.06257
▁ملا	-8.06633
▁with	-8.06776
▁یل	-8.06809
▁اباد	-8.06907
▁ایوک	-8.06974
▁on	-8.07169
▁دپ	-8.07291
▁گور	-8.08177
نگ	-8.08784
▁تران	-8.08959
▁زندء	-8.09123
▁گار	-8.09626
▁پنچ	-8.09656
▁for	-8.09775
▁گاڑی	-8.09902
▁اجوئی	-8.09956
▁مرگ	-8.10283
▁کجا	-8.10329
▁?	-8.10375
▁بابت	-8.10452
▁چاگرد	-8.10511
▁حال	-8.1103
▁برتگ	-8.11952
▁کتگ۔	-8.12999
▁کیچ	-8.1352
▁واستا	-8.13632
▁انسانی	-8.14145
▁شھر	-8.14469
▁پیسر	-8.14498
▁نزیک	-8.14689
▁ایل	-8.15142
▁بیان	-8.15209
▁کرتگ۔	-8.154
▁دراھیں	-8.15862
کہ	-8.16545
▁بھر	-8.17218
▁پوسٹ	-8.17405
▁بیگ	-8.17634
▁اتاں	-8.17709
▁کت۔	-8.18044
▁اسر	-8.18777
▁ایک	-8.18797
▁راست	-8.19186
▁بر	-8.19438
▁زندگ	-8.19966
▁by	-8.20185
▁شاہ	-8.20435
▁جھد	-8.20444
▁جت	-8.21276
▁چیر	-8.21405
▁لیکہ	-8.21503
▁جنین	-8.21645
▁کپ	-8.21683
▁وہد	-8.21775
▁میتگ	-8.21973
▁!	-8.21976
▁چریشی	-8.22299
▁الم	-8.22383
▁کارمرز	-8.22531
▁بیست	-8.2257
▁گشگ	-8.22779
▁ترس	-8.23035
▁ودی	-8.23058
▁زندگی	-8.23108
▁زورانسری	-8.23228
▁سنگت	-8.23744
▁ھاتر	-8.23928
▁سید	-8.24072
▁روگ	-8.24118
▁is	-8.24147
▁بکن	-8.24442
▁کیت	-8.2473
▁بندیں	-8.24843
▁چون	-8.24873
ین	-8.24972
▁پجار	-8.25027
▁اہانی	-8.25154
▁بیا	-8.25209
▁راستی	-8.25379
▁جن	-8.25553
▁پیم	-8.25801
▁یات	-8.25865
▁اود	-8.26232
▁دوئیں	-8.26931
▁گوادر	-8.27123
▁تیرگواری	-8.27517
▁کسانیں	-8.27874
▁واری	-8.2806
▁منء	-8.28228
▁￶	-8.28307
▁نشانگ	-8.28312
▁جہد	-8.28447
▁اشی	-8.28451
▁برز	-8.29181
▁ھالانی	-8.29238
▁چارگ	-8.29242
▁گپت	-8.29629
▁کپت	-8.29834
▁وڑا	-8.29922
▁وئیل	-8.30265
▁تربت	-8.30289
▁be	-8.30768
▁مستریں	-8.30827
▁درد	-8.30931
▁ایم	-8.31314
▁درگت	-8.31351
▁مہر	-8.31438
▁ادم	-8.31796
▁نشتگ	-8.31829
▁شہ	-8.31846
▁وھدیکہ	-8.3209
▁شریں	-8.32285
▁چوش	-8.32294
▁برات	-8.32704
گ	-8.33259
▁ٹی	-8.33611
▁تاوان	-8.33712
▁دیست	-8.33828
▁ے	-8.33856
▁’	-8.34599
ائی	-8.34627
▁نا	-8.34692
▁ڈی	-8.35494
▁ہیں	-8.35712
▁گرگ	-8.35757
▁جوانیں	-8.35771
▁کساس	-8.35874
▁برگ	-8.36013
▁بیتگ۔	-8.36345
▁په	-8.36863
▁کنگء	-8.37223
▁زمانگ	-8.37476
▁ساری	-8.37501
▁گر	-8.37538
▁زمہ	-8.37547
’	-8.37614
▁پدر	-8.37879
“	-8.37996
▁داریت	-8.38124
▁ھند	-8.38861
▁ملکی	-8.38909
▁ارگ	-8.3895
▁شاعر	-8.39375
▁بلکنا	-8.39923
▁سرکار	-8.39951
▁علی	-8.40145
▁کاری	-8.40538
▁کنوکیں	-8.40605
▁وہدے	-8.40628
▁ورنا	-8.40912
▁؂	-8.40928
▁کوہ	-8.41177
▁تب	-8.41245
▁ہے۔	-8.41325
▁روان	-8.42144
▁کئے	-8.42461
▁سد	-8.42608
▁یلہ	-8.42706
▁چشیں	-8.4341
▁بنی	-8.43419
▁داد	-8.43579
▁یہ	-8.43787
▁کارے	-8.4398
▁نبشتانک	-8.44113
▁اسلام	-8.44164
▁زاناں	-8.44201
▁چاگردی	-8.44299
▁نی	-8.44501
▁کتگیں	-8.44668
▁شتگ	-8.44716
▁گپتگ	-8.44752
▁زرتگ	-8.4527
▁سما	-8.45521
▁شعر	-8.45628
▁دلء	-8.45643
▁زان	-8.45655
▁ناں	-8.45694
▁جنت	-8.45731
▁روچے	-8.45933
▁اھانی	-8.4597
▁سیادی	-8.46591
▁بازار	-8.46756
▁سرمچاراں	-8.46933
▁ار	-8.46983
▁جنک	-8.47011
▁لچہ	-8.47068
▁وزیر	-8.47077
▁دلگوش	-8.47214
▁نیم	-8.47656
▁ورگ	-8.47705
▁چاپ	-8.4772
▁دیر	-8.47995
▁اد	-8.48077
▁نوک	-8.4811
▁گڈی	-8.48273
▁کرتگیں	-8.48989
▁شش	-8.4919
▁ھمک	-8.49462
▁ٹپی	-8.49662
▁تک	-8.49734
▁جیڑہ	-8.4988
▁داشت	-8.50071
ک	-8.50082
▁تھا	-8.50246
▁اردو	-8.50276
▁کاروان	-8.50426
▁ایس	-8.50457
▁سردار	-8.50502
و	-8.50571
▁ھبر	-8.50719
▁جاگہ	-8.50724
▁بھی	-8.50793
▁from	-8.51001
▁پول	-8.5113
▁ایت۔	-8.51262
▁گران	-8.51306
▁کھول	-8.51648
▁ھلاپ	-8.51693
▁زہرشانی	-8.51821
▁جی	-8.52006
▁ھمیش	-8.52034
▁لس	-8.52147
▁دیمء	-8.52206
▁نیمگا	-8.52222
▁بوھگ	-8.52291
▁ایرانی	-8.53048
▁دگ	-8.53106
▁ایران	-8.53368
▁چماں	-8.53763
▁ھاترا	-8.54044
▁هم	-8.54114
▁مارشت	-8.54187
▁اہاں	-8.54191
▁پل	-8.54338
▁گمان	-8.54524
▁ردء	-8.55141
d	-8.55504
▁کنیں	-8.55692
▁اماچ	-8.55718
▁راجدپتر	-8.56059
▁سروک	-8.5606
▁لہتیں	-8.56084
▁باریں	-8.5609
▁ازم	-8.56491
▁جو	-8.56699
▁وہ	-8.56748
▁گس	-8.56827
▁his	-8.57169
▁ھلاس	-8.57254
▁مھلوک	-8.57365
▁بچار	-8.5737
▁لوٹیت	-8.57629
▁بنجاھی	-8.57794
▁دژمن	-8.58321
▁دیستگ	-8.58638
بلے	-8.58952
▁لبز	-8.59183
▁شیر	-8.59289
▁at	-8.59503
▁گش	-8.59649
▁رس	-8.60053
▁گورا	-8.60679
▁درست	-8.60762
▁کرد	-8.61094
▁دزگیر	-8.6125
▁دئیگ	-8.61515
▁گال	-8.61747
▁بوان	-8.62081
▁تاک	-8.62442
▁بیگواھیں	-8.62564
▁کور	-8.62922
▁پنجگور	-8.62959
▁لبزانکی	-8.63205
▁جاور	-8.63297
▁ایشیء	-8.63396
▁تا	-8.63441
▁زدگ	-8.63699
▁وار	-8.63743
▁ڈن	-8.64041
▁نیام	-8.64053
▁پس	-8.64108
▁ایشاں	-8.64112
▁ہوار	-8.64291
▁بگیری	-8.6432
▁کل	-8.64687
▁گوات	-8.65321
▁الله	-8.65332
▁رسول	-8.65442
▁یکیں	-8.65551
▁احمد	-8.65577
چہ	-8.65585
e	-8.6572
▁زوت	-8.65862
▁کشتگ	-8.66135
▁واستہ	-8.66582
▁دہ	-8.66636
▁کمیٹی	-8.6667
▁وھدی	-8.66722
▁کلات	-8.66777
......	-8.66864
وتی	-8.66934
▁باں	-8.67221
▁درا	-8.67242
▁پسو	-8.67556
▁لبریش	-8.67701
▁بار	-8.67971
▁وتا	-8.68049
▁نہیں	-8.68382
▁گند	-8.6852
▁مال	-8.68814
▁بلوچانی	-8.69077
▁مہلوک	-8.69594
▁گپے	-8.69765
▁لٹ	-8.70041
▁کوش	-8.70085
▁چوں	-8.70231
▁رو	-8.70301
▁were	-8.70786
▁روچاں	-8.7126
▁کوئٹہ	-8.71334
▁کنگی	-8.71533
▁جہل	-8.71537
▁لگ	-8.71991
▁ایدگہ	-8.72115
▁جون	-8.72224
;	-8.72262
▁بندی	-8.72492
▁بکنت	-8.72553
۔۔۔	-8.72718
▁شہر	-8.72723
نہ	-8.72794
..	-8.72797
▁ریاست	-8.72853
▁وتء	-8.73607
▁بنجل	-8.73648
▁رنگیں	-8.73755
▁المی	-8.73827
▁دمگاں	-8.74462
▁ساہ	-8.74488
▁بد	-8.74596
▁علم	-8.75065
▁نودربر	-8.75098
▁it	-8.75132
▁بخش	-8.75191
▁توک	-8.75199
زورگریں	-8.75469
▁پمیشا	-8.757
▁‘	-8.7582
▁کٹ	-8.75886
▁ساحر	-8.76036
▁داشتگ	-8.76062
▁کشی	-8.76274
▁عمل	-8.76342
▁دمگی	-8.76408
▁شھید	-8.76511
▁ایف	-8.76724
▁بو	-8.76847
▁تچک	-8.77073
▁زالبول	-8.77074
▁ناشناسیں	-8.77123
▁سرکاری	-8.77365
▁تاکدیم	-8.77471
▁دے	-8.7751
▁کاراں	-8.77559
▁زوراکی	-8.77616
▁حکومت	-8.7805
▁اھاں	-8.782
▁رسانکدر	-8.78402
▁لاش	-8.78648
▁وشی	-8.79092
▁سیاہ	-8.79109
▁زرت	-8.79187
▁سئے	-8.79297
▁کارانی	-8.79526
▁پیداک	-8.79608
▁انی	-8.79753
▁روکپتی	-8.79908
▁پمیشکا	-8.79948
▁درستیں	-8.80102
▁چمانی	-8.80189
سگ	-8.80221
▁گچین	-8.80272
▁ک	-8.80373
▁اودا	-8.80798
▁اشانی	-8.80802
نت	-8.81157
▁سیاست	-8.81268
▁نیمگء	-8.81289
▁نه	-8.81381
▁عمر	-8.8145
▁ازات	-8.81635
▁قوم	-8.81664
▁دنیاء	-8.81796
▁استاد	-8.81985
▁چیا	-8.82202
▁جار	-8.82242
▁وسلم	-8.82395
▁بات	-8.82537
▁ئی	-8.82594
ر	-8.82765
▁""	-8.82834
▁درائیں	-8.82994
▁دانکہ	-8.83008
▁کئیت	-8.83087
▁باسک	-8.83171
▁کچ	-8.83232
▁مکران	-8.83602
▁ھزار	-8.84147
▁شمئے	-8.84166
▁سرپدی	-8.84595
▁روت	-8.84628
م	-8.85173
▁فلسفہ	-8.85213
▁بال	-8.85276
▁کیا	-8.85389
▁پریس	-8.85587
▁زھگ	-8.85672
انت	-8.85775
▁شائری	-8.85922
منی	-8.86016
▁ڈول	-8.86278
▁مھر	-8.8646
▁کہول	-8.86659
▁ٹک	-8.86701
▁زورگ	-8.86837
▁چیریں	-8.87016
▁درور	-8.87108
▁ت	-8.87167
▁گدار	-8.87349
▁دوستی	-8.87386
▁بستگ	-8.87479
▁کسی	-8.87624
▁پیلو	-8.87669
▁امیت	-8.87716
▁گیر	-8.87727
▁صاحب	-8.87859
▁تہنا	-8.8793
▁تاریخ	-8.8798
▁گیشیں	-8.88243
▁ادء	-8.88276
▁وشیں	-8.88356
▁ھدا	-8.88489
▁ئے۔	-8.88911
▁بچ	-8.89042
▁اکیڈمی	-8.89183
یک	-8.89222
▁گشیت	-8.89484
▁چش	-8.89517
▁سفر	-8.89737
▁شری	-8.89953
▁کننت	-8.90068
▁واتر	-8.90078
▁تیر	-8.90116
▁In	-8.90117
▁he	-8.90205
▁پیر	-8.90231
▁ہو	-8.91166
▁ہست	-8.91287
▁نسبت	-8.91421
▁بزانت	-8.91558
▁an	-8.9157
▁ارمی	-8.91606
▁تانکہ	-8.91645
▁کسان	-8.91687
▁ہند	-8.92109
▁بل	-8.92211
▁ھساب	-8.92217
▁حق	-8.92225
تو	-8.92327
▁پروش	-8.92378
▁نبشتگ	-8.92481
▁سنگ	-8.9256
▁بوئگ	-8.92858
▁ایگ	-8.92876
▁ھور	-8.92944
▁نند	-8.93036
▁مند	-8.93143
بلوچی	-8.93152
▁واھگ	-8.93237
....	-8.93296
▁دود	-8.93314
▁استمانی	-8.9333
▁کنوک	-8.93535
▁شوھاز	-8.94237
پہ	-8.94243
▁بندوک	-8.94307
▁وارت	-8.94474
▁گوازی	-8.94967
▁چونیں	-8.95202
▁جنان	-8.95284
▁دین	-8.95444
▁چپ	-8.95689
▁حدا	-8.95699
▁نشان	-8.9578
▁بانک	-8.95874
▁چوشیں	-8.95891
▁had	-8.95946
▁بنا	-8.96043
▁مچی	-8.96353
▁دیمروئی	-8.96355
▁۔۔۔	-8.96397
▁اتنت۔	-8.96507
▁حساب	-8.96695
▁کنگا	-8.96746
▁معنا	-8.96844
▁کنئگ	-8.96972
▁سیمی	-8.97062
▁بیڑ	-8.97093
▁پگر	-8.97192
▁ہمک	-8.97753
▁درستاں	-8.97997
▁باروا	-8.98071
▁انچش	-8.98235
▁مری	-8.98245
▁مانا	-8.98299
▁;	-8.98401
▁به	-8.98436
▁ادارہ	-8.98446
▁گپاں	-8.98494
گوں	-8.98725
▁which	-8.98772
▁برجم	-8.98882
▁ارزشت	-8.98903
▁لاپ	-8.98982
▁ہمیش	-8.99139
▁ردا	-8.99191
▁بگٹی	-8.99286
▁ٹولی	-8.99411
▁کارمند	-8.99794
ل	-8.99808
▁مرتگ	-9.00008
▁قصہ	-9.00069
▁ادب	-9.00159
▁چاران	-9.00193
▁گم	-9.00308
▁هما	-9.00379
▁پارٹی	-9.00385
▁نندانک	-9.00499
ات	-9.00501
▁فاضل	-9.00769
▁نان	-9.00855
▁مار	-9.00939
▁سنگتاں	-9.01117
▁ھشت	-9.01353
▁سپر	-9.01371
▁کماش	-9.01675
▁پکر	-9.01835
▁مٹ	-9.01931
▁بگر	-9.02098
▁دیان	-9.021
▁نامیں	-9.02451
▁دم	-9.02642
▁کشت	-9.02872
▁بوتیں	-9.02911
▁مچ	-9.02915
▁بیگواہیں	-9.03027
▁حبر	-9.03565
▁ازمان	-9.03585
▁گوست	-9.03731
▁ایں۔	-9.03907
▁کارء	-9.03946
▁بنیاد	-9.04051
▁ساڑی	-9.04206
▁دنت۔	-9.04263
▁قاضی	-9.04521
▁جنی	-9.04536
▁دراج	-9.04561
▁یکجاہ	-9.04609
▁چل	-9.04728
▁فارسی	-9.05405
▁همے	-9.05694
▁میجر	-9.05824
▁دستونک	-9.05826
انء	-9.05892
یا	-9.05956
▁تراک	-9.0618
▁بمب	-9.0632
▁ہی	-9.06453
▁شرگداری	-9.06494
▁رنگے	-9.06551
▁برت	-9.06732
▁اودء	-9.06738
▁اف	-9.06779
▁کمے	-9.06878
▁بئے	-9.07008
▁وسیلہ	-9.07092
▁جھمنند	-9.0731
▁گٹ	-9.07311
▁لھتے	-9.075
▁جنگی	-9.07514
▁روک	-9.07722
▁اھت	-9.07732
▁گپء	-9.07937
▁کپیت	-9.07967
▁ہیں۔	-9.08004
▁نظام	-9.08101
▁م	-9.08193
▁جندء	-9.08478
▁باید	-9.08526
▁دروازگ	-9.08584
▁منت	-9.08686
▁دمان	-9.08758
▁عليه	-9.08943
▁سلامتی	-9.09101
▁چینل	-9.09438
▁صل	-9.09695
▁هر	-9.09813
▁دری	-9.10001
▁وڑے	-9.10083
ش	-9.10388
▁غلام	-9.10511
▁حسین	-9.10546
▁وانوک	-9.10598
▁نندوک	-9.10632
▁رستگ	-9.11092
▁حمل	-9.11137
▁د	-9.11176
▁دراجیں	-9.11404
▁ناز	-9.11496
▁پیدا	-9.11633
▁ر	-9.11814
▁حسن	-9.11882
▁ازاتی	-9.12068
▁میار	-9.12324
▁باور	-9.12341
▁بادشاہ	-9.1242
▁بستار	-9.1251
ێں	-9.12748
▁دراہ	-9.1276
▁مکن	-9.12787
بہ	-9.12805
▁ایان	-9.12812
▁وھدء	-9.12871
▁نشت	-9.12901
▁مں	-9.13257
▁دات۔	-9.134
▁کرا	-9.1355
▁وتارا	-9.14045
▁بیرم	-9.14056
▁نادراہ	-9.14181
▁داری	-9.14187
▁شئیر	-9.14388
▁جاھے	-9.1447
▁بنداتی	-9.14502
▁تریں	-9.14506
▁رامین	-9.14535
▁ترندیں	-9.14581
▁زبانء	-9.14945
▁ھمراہ	-9.15084
▁لوٹاں	-9.15187
▁ی	-9.15344
▁نیکہ	-9.15355
▁سکیں	-9.15553
▁پوجی	-9.15782
▁ہزار	-9.15815
▁are	-9.15877
▁انگریزی	-9.16026
▁ھپت	-9.16176
▁داتگ۔	-9.1619
▁موسم	-9.16263
▁بونگ	-9.16611
▁منیر	-9.16627
▁امریکہ	-9.16678
...!	-9.1668
▁درچک	-9.16719
▁سیر	-9.1673
▁ڈیھ	-9.16732
▁گوشیت	-9.16808
▁کارست	-9.16884
▁کوٹی	-9.16964
▁تیاب	-9.17032
بے	-9.17047
▁کتہ	-9.17482
▁لھتیں	-9.17837
▁پرچے	-9.17862
▁اکس	-9.17914
▁ناکو	-9.18063
▁عکس	-9.18126
▁٭	-9.18446
▁پیما	-9.18458
▁اثر	-9.18502
▁اپنے	-9.18557
▁یونیورسٹی	-9.18665
t	-9.18704
▁سوار	-9.1884
▁ریاستی	-9.19068
▁دریا	-9.19124
▁پسہ	-9.19207
▁مھمد	-9.19459
▁چاکر	-9.19476
al	-9.19519
ه	-9.19539
▁بیگاہ	-9.19847
▁داتگیں	-9.19946
▁شمبے	-9.19972
▁بنکی	-9.19977
▁س	-9.20161
▁سندھ	-9.202
▁A	-9.20301
▁اندر	-9.20399
▁یار	-9.20572
▁منزل	-9.20585
▁کرت۔	-9.20717
▁اجو	-9.20813
▁جاھاں	-9.20855
▁بارو	-9.20953
▁بندگ	-9.21139
▁چین	-9.21243
▁مبارک	-9.21262
▁ایشرا	-9.21263
▁مالی	-9.21347
▁اسکول	-9.21586
▁اں۔	-9.21679
▁نادراھی	-9.21742
▁ندارگ	-9.21806
▁کچے	-9.21923
▁دستء	-9.21986
▁تھنا	-9.22007
▁ناول	-9.22091
▁دیمروی	-9.22123
▁جہان	-9.22247
▁شک	-9.22335
▁دستاں	-9.22342
▁گوشاں	-9.22366
▁بدلی	-9.22421
▁ساز	-9.22484
▁مردے	-9.22836
▁راستیں	-9.22843
▁فیصلہ	-9.23088
▁منگ	-9.23147
▁ای	-9.23158
▁بندیگ	-9.23205
▁ہ	-9.23219
▁رنگء	-9.23315
▁پیمیں	-9.23442
▁بنگپ	-9.23588
▁گیشتریں	-9.23735
▁بلوچستانء	-9.23852
▁گام	-9.23869
▁تکنیک	-9.23888
▁اوشتاتگ	-9.24023
▁ودار	-9.24117
▁کاینت	-9.24296
▁نیشنل	-9.24368
?‘‘	-9.24381
▁مراگش	-9.24545
▁تاب	-9.24684
▁اول	-9.24708
▁قومی	-9.24723
▁بدن	-9.24749
▁ڈگار	-9.24804
▁درچ	-9.24824
▁کلیں	-9.24848
▁شائر	-9.25161
▁شاد	-9.25191
▁کاروبار	-9.25479
▁درشانی	-9.25768
▁گامگیج	-9.25786
▁انچوش	-9.25836
س	-9.25938
▁نور	-9.25974
▁البت	-9.26145
▁نصیر	-9.26566
▁جنز	-9.26823
▁اکبر	-9.26841
▁فکر	-9.26974
▁گشئے	-9.27049
▁جواب	-9.27063
▁نمدی	-9.27334
▁بابتء	-9.27371
▁وجود	-9.27384
▁اگر	-9.27519
▁شمارا	-9.27669
▁ببیت	-9.27833
▁دز	-9.27902
▁بالی	-9.27924
▁جوان	-9.27994
▁their	-9.28239
▁تیار	-9.28243
▁پاک	-9.28248
▁پدء	-9.2828
▁لہتے	-9.28695
▁سوج	-9.28699
▁دئے	-9.28945
نی	-9.28973
▁بوہگ	-9.29005
▁ھو	-9.29136
▁ارس	-9.29138
▁اڈ	-9.29159
▁داب	-9.29204
▁روچء	-9.29318
▁رھبند	-9.29389
▁شاری	-9.29582
▁19	-9.29627
▁سائنس	-9.29737
▁وائس	-9.2978
▁but	-9.29891
▁ھون	-9.29917
▁بکش	-9.30051
▁اصل	-9.30105
▁خیال	-9.30247
▁صورت	-9.3027
▁بست	-9.30861
▁کوھنیں	-9.30901
▁تنے	-9.31017
▁کشک	-9.3103
▁not	-9.31071
▁لوگء	-9.31285
▁چیزانی	-9.31407
▁درشانے	-9.31506
▁مئی	-9.31595
▁first	-9.31604
‘‘(	-9.31612
▁عزت	-9.31896
▁مستونگ	-9.32096
▁کلب	-9.32164
▁......	-9.32206
▁اشاں	-9.32242
▁بہا	-9.32291
▁تالان	-9.32326
▁خدا	-9.32455
▁ئیگ	-9.32465
▁ھکانی	-9.32468
▁مولانا	-9.32484
▁گنگ	-9.32597
▁مول	-9.32754
▁برو	-9.32834
▁کریم	-9.32917
▁رسیت	-9.32937
ز	-9.32972
ما	-9.33012
▁نماز	-9.33144
▁شہید	-9.33149
▁زرد	-9.33164
▁پرچاکہ	-9.33198
▁اب	-9.33375
▁ال	-9.3357
▁نامداریں	-9.33891
▁نیست۔	-9.34042
th	-9.34368
▁ارواہ	-9.34551
▁باندا	-9.34581
▁دپتر	-9.34587
▁مارچ	-9.34593
▁بامن	-9.34742
▁جانی	-9.34918
▁وس	-9.34925
▁ماس	-9.35095
▁سہب	-9.35105
ies	-9.35117
▁دورء	-9.3514
▁ایپ	-9.35148
▁بوتاں	-9.35168
▁چوکہ	-9.35535
▁نو	-9.3576
▁پرس	-9.35827
▁نبیسگ	-9.35857
▁عطا	-9.35901
▁امان	-9.36091
▁وی	-9.36308
▁پڑ	-9.36412
▁ھمراھی	-9.36416
▁سرمایہ	-9.36489
▁گوستگ	-9.36598
▁زانتکار	-9.36629
▁امیدگس	-9.3685
▁بگیر	-9.36877
▁کمیں	-9.3692
▁شے	-9.37254
▁ماہی	-9.37304
▁ویل	-9.37404
▁پیسلہ	-9.37583
▁ارام	-9.37938
▁ازاد	-9.37952
▁کیس	-9.38058
▁چھاپ	-9.381
▁چاریں	-9.38168
▁وہدء	-9.38235
▁ادبی	-9.38274
▁انکہ	-9.38431
also	-9.38517
▁سزا	-9.38541
▁اھوالانی	-9.38593
بلوچ	-9.38598
▁پاس	-9.38718
▁...	-9.38759
▁ستک	-9.38926
▁جھان	-9.38956
▁ترقی	-9.38984
▁باندات	-9.39083
▁ساچشت	-9.39086
▁or	-9.39106
▁لیب	-9.39164
▁رپورٹ	-9.39218
▁کئی	-9.3924
▁تها	-9.39326
▁بوتنت	-9.39335
n	-9.39385
▁نامی	-9.39455
▁عربی	-9.39467
▁وان	-9.39525
▁مالیات	-9.3956
▁ھرچ	-9.39716
▁its	-9.39725
▁کارندہ	-9.39766
er	-9.39916
▁تمپ	-9.39951
▁انکس	-9.40031
▁ائے	-9.40059
▁روزگار	-9.40436
▁ہلاس	-9.40501
▁ردوم	-9.40543
▁ھب	-9.40617
▁سھب	-9.40656
▁اھتگ	-9.4076
a	-9.40895
▁her	-9.41197
▁دراہیں	-9.41224
▁دروگ	-9.41364
▁گلام	-9.41378
▁مدت	-9.41411
▁ربیدگ	-9.41649
▁ونتگ	-9.41834
▁بچک	-9.41859
▁سالی	-9.41995
▁بارت	-9.42159
▁چٹ	-9.42226
▁تنی	-9.42323
▁وھداں	-9.42386
▁اپنی	-9.42524
▁پرچہ	-9.42538
▁کپگ	-9.4254
▁جس	-9.42627
▁یاد	-9.42822
▁گیشی	-9.43005
▁جاورانی	-9.43107
▁جوانی	-9.43216
▁دیمتر	-9.43408
▁بیگواہی	-9.43514
▁وارتگ	-9.43635
▁کمو	-9.43748
▁زانتگ	-9.43768
▁جاوراں	-9.4383
▁رھشون	-9.43929
▁کردار	-9.44137
▁گراں	-9.44427
بلوچستان	-9.44473
▁بنگیج	-9.44501
▁ھک	-9.44991
▁ذات	-9.45144
▁چیزاں	-9.45181
▁درمان	-9.45185
▁اواران	-9.45217
▁زبانانی	-9.45376
▁غم	-9.45456
▁از	-9.45862
▁میل	-9.46244
▁رواں	-9.4627
▁نسل	-9.46317
▁بولان	-9.46401
▁ندر	-9.46425
▁have	-9.46466
▁زیر	-9.46479
▁طرح	-9.46864
▁رست	-9.46915
▁ساھت	-9.46924
▁مسنگ	-9.46987
▁ماما	-9.47198
▁نودربرانی	-9.4721
▁دیاں	-9.47275
▁شعری	-9.47275
▁لیکن	-9.47323
ئیں	-9.47436
▁دشت	-9.47527
▁سازی	-9.4765
▁زاھدان	-9.47837
▁زہگ	-9.47886
▁مثال	-9.47895
▁ورنایے	-9.4794
▁زلم	-9.47969
▁فار	-9.48003
سر	-9.48019
▁رندا	-9.48119
▁پھر	-9.4841
▁اگں	-9.48686
▁one	-9.48796
▁نمبر	-9.48819
▁اگست	-9.48947
▁اسراتی	-9.49245
▁بنشون	-9.49292
▁has	-9.49438
▁گرم	-9.49442
▁نزور	-9.49526
▁ارشانی	-9.4964
▁تلگرام	-9.49772
▁کمی	-9.49899
▁دیمی	-9.50122
▁بالاد	-9.50167
▁ایندگہ	-9.50226
▁گپانی	-9.50303
▁چراگ	-9.5045
▁نواب	-9.50497
▁مشکل	-9.50574
▁بہرے	-9.50668
▁ڈیرہ	-9.50695
▁ہمراہ	-9.507
▁ہور	-9.50719
▁مڈی	-9.5073
▁سلام	-9.5074
▁باروء	-9.50758
▁۔اے	-9.5084
▁نئے	-9.50881
▁گیس	-9.5096
▁پمشکا	-9.50966
▁کچک	-9.51044
▁جوڈ	-9.51148
▁یکشل	-9.51254
ھمے	-9.51378
▁سند	-9.51631
▁بلوچاں	-9.51651
▁چوکی	-9.51793
▁زندمان	-9.51936
▁been	-9.52013
▁ھواریں	-9.52065
▁اسے	-9.52143
▁نھ	-9.52176
▁اھوالکار	-9.52207
▁کلدار	-9.5226
▁ھرکس	-9.52297
▁با	-9.52471
▁عبداللہ	-9.52473
▁two	-9.52498
▁رندء	-9.52633
▁شکار	-9.52716
▁تامر	-9.52748
▁تباہ	-9.5276
▁جنجال	-9.52775
▁He	-9.52789
▁نز	-9.528
▁روانک	-9.52942
▁who	-9.53123
▁چنچو	-9.53323
▁زوریں	-9.53398
▁جنرل	-9.53614
▁پرائی	-9.53624
▁اوتی	-9.53642
▁کنئے	-9.53649
▁گورء	-9.53672
▁وڑء	-9.54015
▁بلکہ	-9.54021
▁سرجمی	-9.5413
▁ارا	-9.54392
▁لئے	-9.54607
▁جھانی	-9.54619
▁درسیں	-9.54626
▁ساھگ	-9.54657
▁ارمان	-9.55038
▁منوک	-9.55061
▁عشق	-9.55127
▁جیڑگ	-9.55128
▁رسانک	-9.55234
▁بزان	-9.55245
▁گشنت	-9.55342
▁جنگل	-9.5539
▁دوشی	-9.55513
▁رندے	-9.55515
▁چاگردء	-9.55536
▁کسانی	-9.55795
▁سیل	-9.5591
▁چنت	-9.5595
▁امر	-9.56221
▁دگه	-9.56263
▁پاھو	-9.56381
▁سری	-9.56426
▁نظر	-9.56513
واجہ	-9.5653
▁سالاں	-9.56605
▁برزی	-9.56839
▁ترند	-9.5687
▁گنداں	-9.56895
▁پرسنز	-9.56982
▁ور	-9.57226
▁گنوک	-9.57285
▁گڈ	-9.57312
▁دزبندی	-9.57319
د	-9.57535
▁this	-9.57562
▁نصیب	-9.5759
▁مجید	-9.57682
▁چوشکہ	-9.57699
تئی	-9.57915
▁لاچار	-9.5796
▁گوھرام	-9.57964
▁عرب	-9.58072
▁رواج	-9.58137
▁چیء	-9.58192
▁منصوبہ	-9.58225
▁هچ	-9.58555
▁جنگء	-9.58672
▁بوگء	-9.58705
st	-9.58796
▁چرے	-9.58985
▁رہبند	-9.5917
▁نویس	-9.59176
▁وطن	-9.59226
▁بالاچ	-9.59354
▁پنجاہ	-9.59359
▁ب	-9.59383
▁گد	-9.59479
▁ابادی	-9.59647
▁عقل	-9.59678
▁نامء	-9.59684
▁دشتی	-9.5973
▁مینگل	-9.5976
▁پریشان	-9.59805
▁پمن	-9.60129
▁چگل	-9.60182
▁جیڑ	-9.60191
▁ھنچش	-9.60198
▁واک	-9.60296
▁مہمد	-9.60378
▁پری	-9.60412
▁نندگ	-9.60416
▁زال	-9.60426
▁دکان	-9.60491
تہ	-9.60522
▁سرمچار	-9.60729
▁دوھزار	-9.60736
▁سکین	-9.60761
▁سامان	-9.60767
▁تی	-9.60798
▁تہر	-9.60943
▁زرمبشت	-9.60947
▁ذمہ	-9.60968
▁اپریشن	-9.60996
▁مرک	-9.61066
▁بیار	-9.61109
▁بئیت	-9.61202
▁بارہ	-9.61205
▁شور	-9.61211
▁کارمنداں	-9.61308
▁نومبر	-9.61484
▁مزار	-9.61621
نے	-9.61904
▁ساتھ	-9.61974
▁کمشنر	-9.62007
اگاں	-9.62088
▁بشیر	-9.62174
▁اوشتوک	-9.62188
▁year	-9.62248
▁مہمان	-9.62263
▁پتر	-9.62363
▁مر	-9.62554
▁شرتر	-9.62684
▁نشہ	-9.62743
▁کوئی	-9.62787
▁گو	-9.62932
▁I	-9.62939
▁سنگتانی	-9.63047
▁مرید	-9.63142
▁پاداں	-9.63237
▁نیمگے	-9.63287
▁زہر	-9.63404
▁گرانیں	-9.63406
▁گوزگ	-9.63547
▁سندھی	-9.63602
▁رژن	-9.63817
▁رحیم	-9.63853
▁اخر	-9.63912
▁سگ	-9.63968
▁اوانی	-9.64042
▁چیدگ	-9.6405
▁روس	-9.64066
▁تیوگیں	-9.64109
..!	-9.64155
▁براں	-9.64182
▁ؤ	-9.64189
▁لبزانی	-9.64321
▁زبانے	-9.64434
▁پوہ	-9.64442
▁لک	-9.64638
▁امام	-9.64692
▁سور	-9.64711
▁شرپ	-9.64807
▁کاروائی	-9.64862
▁اڑ	-9.64943
▁کتابانی	-9.6498
▁حاصل	-9.65046
▁قدیر	-9.65079
▁پمیشکہ	-9.65082
▁ھاشمی	-9.65104
▁سہ	-9.65123
▁کتابے	-9.65136
▁روچی	-9.65184
es	-9.65212
▁تنگ	-9.65287
▁زی	-9.6532
▁مدامی	-9.65335
▁اجازت	-9.65506
▁کاگد	-9.65606
▁کوہنیں	-9.65682
▁دعا	-9.65683
▁ازمی	-9.65829
▁معاشی	-9.65928
▁ایمنی	-9.66046
▁ھزدار	-9.66068
▁ایمان	-9.66232
▁منند	-9.66306
▁کرونا	-9.66354
▁رب	-9.66363
▁نوشکی	-9.66737
▁یاکہ	-9.6683
▁گیدی	-9.6684
▁پیمء	-9.66922
▁انگور	-9.66927
▁روڈ	-9.66929
▁مست	-9.67053
▁ٹکر	-9.67156
▁سوت	-9.67309
▁داستان	-9.67467
▁غیر	-9.67472
▁دان	-9.67473
▁گوازینگ	-9.67562
▁توکا	-9.67583
▁کالج	-9.67643
▁شام	-9.67646
▁ڈنی	-9.67847
▁شمے	-9.67854
▁شکل	-9.67856
▁صدر	-9.68123
▁ماڑی	-9.68456
▁ہوا	-9.6852
▁زھر	-9.68613
ێن	-9.68619
▁کنوکاں	-9.68647
▁نیاد	-9.68676
▁جم	-9.68828
▁اشوب	-9.68839
▁تیز	-9.6892
▁دیمپان	-9.68988
▁انوں	-9.69138
▁دسمبر	-9.6935
▁زبانا	-9.69381
▁دوا	-9.69382
▁کنائینگ	-9.69493
▁ترک	-9.69504
▁مزنین	-9.69529
▁جا	-9.6956
▁دیوال	-9.69602
▁جنوری	-9.69606
▁نشتگیں	-9.69658
▁لیویز	-9.69707
▁ممکن	-9.69709
▁چکاس	-9.698
▁گوناپ	-9.69824
▁خبر	-9.69945
▁ورنائیں	-9.69955
▁چاہ	-9.70005
▁درائینت	-9.70103
▁موجود	-9.70122
▁سلیم	-9.70481
یت	-9.70598
▁واہگ	-9.70715
▁@,@	-9.70806
▁شان	-9.70858
▁دزگیری	-9.70961
▁مستر	-9.7101
▁شپء	-9.71153
▁نودربراں	-9.71195
▁بت	-9.71196
▁after	-9.71227
▁گوشان	-9.71244
▁ترانگ	-9.71279
▁ادگہ	-9.71281
▁ربیت	-9.71468
▁کوکار	-9.71479
▁والا	-9.71482
▁کنٹرول	-9.71536
▁فرنٹ	-9.71543
کے	-9.71604
▁ماتی	-9.71625
▁پسنی	-9.71698
▁پسند	-9.71713
▁ازمانکانی	-9.71725
▁اگن	-9.71783
▁اوشتات	-9.71838
▁کنڈ	-9.7193
▁شراب	-9.71949
▁بزگ	-9.7202
▁بتل	-9.72059
▁1	-9.72077
▁دروگیں	-9.72087
▁شریف	-9.72263
▁طاقت	-9.72389
▁شکر	-9.72447
▁یکجھتی	-9.72521
▁بنجاہی	-9.72807
▁دروت	-9.72866
▁کمال	-9.72928
▁لال	-9.72943
▁اشیء	-9.72959
▁نود	-9.73043
۔۔۔۔	-9.73054
▁گلزمین	-9.73066
▁بیگواھی	-9.73121
▁بید	-9.73135
▁قلات	-9.73175
▁فوج	-9.7327
▁امید	-9.7339
▁ادارھانی	-9.73436
▁عمران	-9.73479
▁اوگانستان	-9.7348
▁گیری	-9.73511
▁مذہب	-9.73524
▁گناہ	-9.73653
▁ایچ	-9.73678
▁کپتگیں	-9.73684
▁دؤر	-9.73767
▁تپاک	-9.74039
▁دیمپانی	-9.74067
▁جب	-9.74084
▁پمشکہ	-9.74205
▁حد	-9.74326
▁میڈیا	-9.74337
▁قران	-9.74368
▁تن	-9.74545
▁رکینگ	-9.74919
▁وائی	-9.75015
▁ردی	-9.75104
▁سروکی	-9.75133
▁امیر	-9.75148
▁سیت	-9.75208
▁کرنے	-9.75213
▁ھاسیں	-9.75251
▁اورتگ	-9.75284
▁ھلک	-9.75366
▁اینچو	-9.75371
▁تل	-9.75415
▁شعرء	-9.75459
▁چکانی	-9.75511
▁شوہاز	-9.75699
▁جام	-9.75833
▁ڈولیں	-9.75938
▁زیبائی	-9.75961
▁اھوال	-9.75972
▁برکت	-9.76031
▁It	-9.76063
▁نشانی	-9.76111
▁بنداں	-9.76232
▁چکاں	-9.76232
▁داریں	-9.76256
▁تھی	-9.76272
▁اکتوبر	-9.76402
▁زوراکیانی	-9.76668
▁مناں	-9.76711
▁('	-9.76747
▁تیل	-9.76908
▁اسلم	-9.76977
یے	-9.7705
▁ترندی	-9.77066
▁جتاجتائیں	-9.77168
▁ہوئے	-9.77276
▁ہال	-9.77391
▁اواز	-9.777
▁۔۔	-9.77701
▁ایوکء	-9.77701
▁گرد	-9.77887
▁سبز	-9.7802
▁بعد	-9.78143
ب	-9.78188
▁ٹپ	-9.78248
▁other	-9.78462
▁جھل	-9.78582
▁ونت	-9.7864
▁حضرت	-9.78777
مئے	-9.78835
▁بہت	-9.78841
▁چنکس	-9.78854
▁time	-9.78901
اناں	-9.7893
▁حاجی	-9.78953
▁واقعہ	-9.79023
▁چوناھا	-9.79048
▁جنیں	-9.79077
کی	-9.79089
▁لشکری	-9.79152
▁برجاھیں	-9.79278
▁دزکپتگ	-9.79285
▁تئو	-9.79305
▁نپ	-9.79537
▁ھنکین	-9.79667
▁اگہ	-9.79708
ہمے	-9.79742
▁عہد	-9.79816
▁پنام	-9.7983
▁چیاکہ	-9.7985
▁تام	-9.79991
▁کرار	-9.80023
▁تاج	-9.80042
▁چاراں	-9.80145
▁بان	-9.80211
▁متلب	-9.80289
▁گچکی	-9.80303
▁الس	-9.80338
بی	-9.80341
▁شد	-9.80381
▁ایرانء	-9.8048
▁نوشتہ	-9.80508
▁ویبجاہ	-9.80565
▁بھا	-9.80663
▁بدیں	-9.80715
▁کننت۔	-9.80733
▁اندرء	-9.80734
▁مرچاں	-9.80817
▁into	-9.80828
▁راجے	-9.80892
▁ہرکس	-9.81071
▁گول	-9.8112
▁انگریز	-9.81179
▁ل	-9.81224
▁اتکگیں	-9.81451
▁سرڈگار	-9.81477
▁ایوکیں	-9.81533
▁بیم	-9.81541
▁دشتیاری	-9.81586
▁2	-9.81685
▁بله	-9.81707
▁زندان	-9.81722
▁شون	-9.81748
▁روچانی	-9.81804
▁انت۔۔۔	-9.81829
▁پانزدہ	-9.81898
▁دپء	-9.8198
▁رگ	-9.82044
▁نزیکی	-9.82092
▁شھدگ	-9.82096
را	-9.82127
▁کنوکانی	-9.82252
▁رسم	-9.8232
▁گندیت	-9.82404
▁اسمبلی	-9.82481
▁ہوں	-9.82555
▁هست	-9.82651
بزاں	-9.82667
▁بیرانی	-9.82685
▁واجه	-9.82781
▁انہی	-9.82836
▁کارمرد	-9.82878
▁مردمان	-9.82909
▁داروکیں	-9.82958
▁مارگ	-9.8299
ماں	-9.8306
▁زندے	-9.83125
▁کمپنی	-9.83183
▁زیارت	-9.83262
▁گری	-9.83272
▁کشیت	-9.83334
▁بوتہ	-9.83642
▁فروری	-9.83671
▁نزوری	-9.83729
▁بود	-9.83821
▁پرے	-9.83862
▁دامن	-9.83874
▁کازی	-9.83897
وکیں	-9.83905
▁چد	-9.83961
▁راجانی	-9.84012
▁بڈ	-9.84057
'	-9.8411
▁جولائی	-9.84209
▁کج	-9.84269
▁کناں۔	-9.84326
▁وانگء	-9.84361
▁ہرچی	-9.84405
▁سائنسی	-9.8453
▁وا	-9.84564
▁لوز	-9.84615
▁مھکم	-9.84649
▁وہدیکہ	-9.84655
▁انگر	-9.84787
▁پاکستانء	-9.84824
▁استان	-9.84839
▁واحد	-9.84854
▁پانگس	-9.84964
▁would	-9.84992
▁بھتام	-9.85087
o	-9.85148
▁انساپ	-9.85176
▁بلاھیں	-9.85178
▁صنعت	-9.85301
▁عالم	-9.85381
▁تہاری	-9.85435
گیں	-9.85525
▁اپریل	-9.85616
▁دستی	-9.85643
▁حقیقت	-9.85767
▁دمانے	-9.85775
▁لوٹوکیں	-9.8587
▁واکدار	-9.85894
▁مسیت	-9.85907
▁یوسف	-9.85978
▁نیک	-9.8599
▁more	-9.8603
▁سنگر	-9.86099
▁براس	-9.86107
▁گدان	-9.86183
▁بانگ	-9.86257
▁ستمبر	-9.86299
▁تھے	-9.86326
▁شبین	-9.86456
▁دشمن	-9.86506
▁ہاترا	-9.8654
▁کرنا	-9.86568
▁ٹیم	-9.86613
▁ش	-9.86629
▁پالیسیانی	-9.8673
▁ملکاں	-9.86751
▁کد	-9.86769
▁اوپار	-9.8677
▁اوست	-9.8683
▁پروفیسر	-9.86863
▁علاقہ	-9.86864
▁رسگ	-9.86885
▁گچینی	-9.87003
▁مرچیگیں	-9.87233
▁اتاں۔	-9.87284
▁کشار	-9.87317
▁یکبرے	-9.87373
▁نیٹورک	-9.87416
▁صد	-9.87434
▁مرزی	-9.87539
▁قبیلہ	-9.87615
▁انت۔اے	-9.87704
▁ردانک	-9.8782
▁لبزانکء	-9.87872
▁نرم	-9.87885
▁حکم	-9.88037
▁برجا	-9.88053
▁دوازدہ	-9.88128
l	-9.88136
▁کیت۔	-9.88161
▁کلوہ	-9.88164
▁جنکے	-9.88222
▁لگت	-9.88225
▁افغانستان	-9.88366
▁سبک	-9.88411
▁انسانء	-9.88414
▁ھیل	-9.88418
▁ھاترء	-9.88457
▁کرن	-9.8848
▁سہر	-9.8851
▁پ	-9.88535
▁وانگی	-9.88727
▁کمیشن	-9.8876
▁بندش	-9.88814
▁گیوار	-9.88816
▁شمار	-9.88852
ھم	-9.88993
▁بدئے	-9.89005
▁پیک	-9.89013
▁گہار	-9.89077
▁سول	-9.89084
▁بستگیں	-9.89086
▁خاصیں	-9.89086
▁ج	-9.89108
▁گیا	-9.89267
تاکدیم	-9.89471
دومی	-9.89474
▁مجلس	-9.89486
▁حب	-9.89538
▁گلانی	-9.8954
▁ھنچیں	-9.89557
▁سکی	-9.8967
یء	-9.89682
▁over	-9.89784
▁مردء	-9.89811
mber	-9.89823
▁سالے	-9.89873
se	-9.89926
▁اسمان	-9.89975
▁دینت	-9.9003
!‘‘	-9.90068
▁شعرانی	-9.90135
▁دوستیں	-9.90275
▁شاعرے	-9.90364
▁ادینک	-9.90409
۔اے	-9.90436
▁تحریک	-9.9045
▁F	-9.90485
ائیء	-9.90654
▁اسلامی	-9.9067
▁ہونا	-9.90804
▁فوجی	-9.90806
▁زالبولانی	-9.90868
▁نگد	-9.9087
▁کاریت	-9.9089
▁ہشت	-9.90986
▁دائم	-9.91171
▁تاریخی	-9.91186
▁چنڈ	-9.91201
▁سرکماش	-9.91244
▁سیمسر	-9.9132
▁نزینک	-9.91358
چے	-9.9144
▁کندگ	-9.91518
▁برزیں	-9.91526
▁نئیت	-9.91535
▁سسا	-9.91549
▁چیئرمین	-9.91562
▁موہ	-9.91576
▁اشتر	-9.91579
▁گونڈیں	-9.91653
▁کارگس	-9.91672
▁طور	-9.91716
▁چکے	-9.91725
▁پیریں	-9.91903
ار	-9.92112
▁پادانی	-9.92156
▁سنگتے	-9.92441
▁تواری	-9.92446
▁all	-9.92529
گڑا	-9.92565
▁نیوز	-9.92601
▁ساچشتی	-9.92746
▁ڈک	-9.92812
▁مئیں	-9.92833
▁لڈ	-9.9301
▁ماھتاک	-9.93011
▁سمی	-9.93029
▁استیں	-9.93073
▁گندگء	-9.93081
▁جل	-9.93268
▁خاص	-9.93304
▁نادراہی	-9.93314
▁ہکانی	-9.93379
▁مک	-9.93527
▁نویسگ	-9.93539
▁ادار	-9.93579
▁ملکء	-9.93678
▁رؤگ	-9.93685
▁رنج	-9.93688
▁لکھ	-9.9376
▁یورپ	-9.93827
▁مومن	-9.93958
▁دگر	-9.94014
▁لیے	-9.94015
▁جیئند	-9.94016
▁اشکنگ	-9.94152
▁پژدر	-9.9416
▁پہک	-9.94296
▁جاہے	-9.94303
▁اتیں	-9.94323
▁جمالدینی	-9.94352
▁دچار	-9.94427
▁انصاف	-9.94543
▁وتن	-9.94646
▁اسکواڈ	-9.94674
▁ہرچ	-9.9468
▁ریل	-9.94694
▁ساجد	-9.94828
▁گستا	-9.94866
▁حیران	-9.94918
▁تھا۔	-9.94986
▁پارسی	-9.95195
نوکیں	-9.95238
▁کنیں۔	-9.95311
▁گالوار	-9.95353
▁راز	-9.95367
▁لڑ	-9.95424
▁گشاں	-9.95441
▁ماسٹر	-9.9547
▁فائدہ	-9.95536
▁گیپت	-9.95622
▁توامیں	-9.95825
▁ایا	-9.95848
▁بلیدہ	-9.96021
▁دیوانے	-9.96251
▁ھمگرنچ	-9.96298
▁یازدہ	-9.96299
▁ماہتاک	-9.9631
▁بینک	-9.96313
▁3	-9.96322
▁چارمی	-9.96363
▁بک	-9.96364
▁معلوم	-9.96438
▁٭٭٭	-9.96531
▁اناں	-9.96573
▁زمانگء	-9.96577
▁نزاناں	-9.96599
▁پاکیں	-9.96674
▁واست	-9.96746
▁ساپ	-9.96751
نوں	-9.96776
▁سپت	-9.96819
▁چہر	-9.96823
▁اؤرتگ	-9.96831
▁خیر	-9.96923
▁ناماں	-9.96946
▁نگ	-9.96952
▁پلہ	-9.97072
▁ملکانی	-9.97148
▁رسانکدراں	-9.9719
▁ڈپٹی	-9.97253
▁خود	-9.97253
▁کچھ	-9.97281
▁چارت	-9.97299
▁بلک	-9.97307
▁قدر	-9.97341
▁مردین	-9.97367
▁کرتے	-9.97404
▁اروس	-9.97454
▁اسپیت	-9.97497
ئی	-9.97516
▁۔۔۔۔	-9.97534
▁شئے	-9.97605
▁مہناز	-9.97696
▁نقصان	-9.97708
▁بروت	-9.97711
▁کمالان	-9.97711
▁اسرائیل	-9.97737
▁ھمود	-9.97812
▁بدی	-9.97886
▁اتگ۔	-9.97923
▁زیان	-9.97979
▁when	-9.98019
▁she	-9.98055
on	-9.98129
▁نادراھجاہ	-9.98141
▁مرز	-9.98187
▁نزانت	-9.98195
▁بچکند	-9.98254
▁18	-9.98281
▁اورت	-9.9831
▁جاہاں	-9.98348
▁B	-9.98492
▁دوبر	-9.98514
▁ھیر	-9.9857
▁مطلب	-9.98676
▁اسپ	-9.98805
▁واھند	-9.98812
▁بوگی	-9.98903
▁براہ	-9.98991
▁گندئے	-9.99027
▁پراہ	-9.99033
▁کانود	-9.99057
▁امن	-9.99064
▁مردمء	-9.99153
▁دگنیا	-9.99226
▁مسلم	-9.99298
▁چینی	-9.99407
▁ھراب	-9.9943
▁بگش	-9.99473
▁پیسرا	-9.99482
▁غزل	-9.99615
▁راہء	-9.99738
▁دروشمے	-9.99828
▁بگ	-9.99831
▁ئا	-9.99924
▁وقت	-9.99957
▁سیاھیں	-9.99975
▁T	-9.99982
▁کوشست	-10.0002
▁یکجہتی	-10.0004
▁ھوش	-10.0008
▁مذہبی	-10.0009
▁دستیگ	-10.0009
▁بگوش	-10.0012
▁موبائل	-10.0015
▁S	-10.0016
▁حصہ	-10.0024
▁گلاں	-10.0031
▁گریوگ	-10.0034
دو	-10.0097
ری	-10.0104
▁لوٹت	-10.0107
▁ز	-10.0109
▁ورناہ	-10.0111
▁شیخ	-10.0111
▁سوبین	-10.0114
▁زرتگ۔	-10.0117
▁ہوٹل	-10.0121
▁گنج	-10.0123
▁نمیران	-10.0124
▁مل	-10.0134
▁یو	-10.0139
▁سان	-10.0147
▁انتزامیہ	-10.0149
▁دلجم	-10.0153
▁لوگانی	-10.0156
▁most	-10.0158
▁پکار	-10.0164
▁گوما	-10.0166
▁up	-10.0184
▁وانینگ	-10.0185
▁چارات	-10.0185
▁صوبہ	-10.0187
▁چادر	-10.0189
▁کورٹ	-10.0205
▁اتگیں	-10.0206
ےء	-10.0208
▁جناں	-10.0212
▁ہپت	-10.0213
▁دراتک	-10.0213
▁سربوتگیں	-10.0221
▁بیر	-10.0223
during	-10.0224
▁پنجاب	-10.023
▁سارتیں	-10.0233
▁تچکیں	-10.0234
نا	-10.0239
▁جتگ۔	-10.024
▁سب	-10.0243
▁دلجمی	-10.025
▁ہبر	-10.0254
▁ارب	-10.0262
▁بام	-10.0268
▁لوٹیت۔	-10.0271
▁ناصر	-10.0276
▁ایراد	-10.0284
ary	-10.0291
▁زیادہ	-10.0298
▁سوشل	-10.0317
▁سوچ	-10.0325
▁نیکراھی	-10.0329
▁ھچبر	-10.0333
▁گا	-10.0336
▁ھشک	-10.034
▁ھواری	-10.0343
▁پوست	-10.0344
▁زباناں	-10.0345
▁game	-10.0348
▁جندئیگ	-10.0353
▁میری	-10.0354
▁گوم	-10.0357
▁سبزیں	-10.0361
▁only	-10.0367
▁راه	-10.037
ج	-10.0373
▁وهد	-10.0382
▁زیرگ	-10.0393
▁ہاشمی	-10.041
▁سانگ	-10.0411
▁ٹیکنالوجی	-10.0411
▁جتائی	-10.0418
▁شرتریں	-10.043
▁الی	-10.0436
▁ہوتا	-10.0442
▁شست	-10.0443
▁کسمانک	-10.0444
▁زانتی	-10.0445
▁سا	-10.0449
▁کند	-10.0457
▁نیں	-10.0459
▁وفا	-10.0459
▁گشے	-10.0461
▁عزیز	-10.0472
▁پھل	-10.0482
▁رہشون	-10.0483
▁زندگیں	-10.0484
▁زئی	-10.049
in	-10.0497
▁بیگا	-10.0503
▁نامہ	-10.0508
▁ہنچو	-10.0521
▁گوشت۔	-10.0546
چو	-10.0546
▁گاڑیانی	-10.0549
▁سگریٹ	-10.0549
▁درس	-10.0555
▁دیگر	-10.0555
▁ریش	-10.0561
▁مقصد	-10.0571
▁بلوچء	-10.0571
▁تاکت	-10.0574
▁شتاں	-10.0574
▁پوشاک	-10.0576
▁ندکار	-10.0577
▁وهدے	-10.0597
▁داراں	-10.0607
▁نیامء	-10.0613
▁اسل	-10.0615
▁امریکی	-10.0618
▁بلکن	-10.0621
▁وڈ	-10.0622
▁احت	-10.0627
کار	-10.0627
ion	-10.0632
▁کاف	-10.0658
▁نزیکیں	-10.066
▁زیبا	-10.0663
▁جاہء	-10.0666
۔۔	-10.067
▁ارشاں	-10.0673
▁سارت	-10.0677
▁اؤرت	-10.0691
▁ڪہ	-10.0699
▁تنک	-10.0701
▁ھندی	-10.0701
▁روگء	-10.0702
▁بج	-10.0704
▁گالبند	-10.0705
▁شرف	-10.0708
▁مسلمان	-10.0713
▁]	-10.0719
▁کتاباں	-10.0729
▁روایت	-10.073
▁برابر	-10.0733
tween	-10.0734
▁راھے	-10.0736
▁دگے	-10.0742
▁بنیادم	-10.0748
▁وانگجاہ	-10.0759
▁ھرچی	-10.076
▁ھمدا	-10.0764
▁سئیں	-10.0768
▁اسی	-10.0771
▁بوہان	-10.0775
▁ھاک	-10.0775
▁نامے	-10.0781
▁میڑ	-10.0786
▁کونسل	-10.0802
▁صبا	-10.0807
about	-10.081
▁باری	-10.0816
▁پرک	-10.0817
▁سالانی	-10.0817
داں	-10.0819
▁اہوالکار	-10.0823
▁out	-10.0826
▁پیشی	-10.0826
می	-10.0831
▁لین	-10.0834
▁حاترا	-10.0847
▁راجء	-10.0849
▁ھانی	-10.0864
▁زاھر	-10.0874
▁سرمچارانی	-10.0876
▁him	-10.088
▁سوال	-10.0886
▁بور	-10.0892
▁علمی	-10.0895
دل	-10.0896
▁دیدگ	-10.0902
▁رضا	-10.0906
▁لا	-10.0908
▁سالء	-10.0916
▁گواہ	-10.0916
▁علیہ	-10.0921
▁لیگ	-10.0925
▁ارت	-10.0926
تی	-10.0934
▁کامیاب	-10.0937
▁ایوب	-10.0942
▁نیکی	-10.0944
▁پرواز	-10.0948
▁علاج	-10.0949
▁گوئشت	-10.0954
▁یاں	-10.0955
▁مگر	-10.0956
▁کینگ	-10.0966
▁کام	-10.0969
▁تمام	-10.0975
▁سلامت	-10.0975
▁اوشت	-10.0978
▁کلام	-10.098
ce	-10.0989
ال	-10.0989
▁چارگء	-10.0994
▁ثابت	-10.1001
▁","	-10.1004
▁اھگ	-10.1005
▁ڈیک	-10.1008
▁کول	-10.1008
▁پشتء	-10.1014
▁انگتہ	-10.1015
▁play	-10.1015
▁کشندہ	-10.1018
▁ادارہانی	-10.1019
انت۔	-10.1025
▁ذاتی	-10.1028
▁شپے	-10.1028
▁نون	-10.103
▁دزی	-10.1033
▁حلک	-10.1036
▁جاه	-10.1038
▁again	-10.1038
▁پورا	-10.1042
▁بلوچے	-10.1042
▁بیوکیں	-10.1048
▁مشکے	-10.1049
▁سلمان	-10.1064
▁ادارھاں	-10.1072
▁نامدار	-10.1072
▁ظلم	-10.1074
!......	-10.1076
▁حون	-10.1076
▁رھادگ	-10.1083
▁three	-10.1088
▁داریت۔	-10.1088
▁بوھیر	-10.1092
وت	-10.1092
▁ھمائی	-10.1098
▁باج	-10.1098
▁ظاہر	-10.1103
▁ورنایانی	-10.1108
▁رؤت	-10.1113
▁نکش	-10.1115
▁چاردہ	-10.1119
▁گوشئے	-10.1119
نت۔	-10.1125
▁پروشگ	-10.1136
▁بکناں	-10.1139
▁پالیسی	-10.1141
▁لبزانت	-10.1144
▁۔ائی	-10.115
▁باپاری	-10.115
▁کپان	-10.1154
▁season	-10.1155
ہم	-10.1162
▁فضل	-10.1166
دی	-10.1168
▁زامران	-10.1169
▁دماغ	-10.1171
▁درک	-10.1173
▁کوپگ	-10.1173
▁ادمین	-10.1173
▁بکنت۔	-10.1173
▁عام	-10.1175
▁محبت	-10.1175
▁استمان	-10.1177
▁لیک	-10.1178
▁''	-10.1181
▁فکشن	-10.1194
r	-10.12
▁بران	-10.1206
▁بدار	-10.1209
▁گڈسر	-10.1213
▁اسپیتیں	-10.123
▁چیک	-10.1234
ish	-10.1236
▁نبیس	-10.1238
▁چ	-10.1243
▁اؤکیں	-10.1246
▁ساعت	-10.1247
▁انور	-10.1255
▁نیت	-10.1259
▁گشت۔	-10.1262
▁وکیل	-10.1268
▁کلی	-10.1271
▁وائرس	-10.1273
▁چن	-10.1276
▁تچان	-10.128
▁گیشینگ	-10.1286
▁تجربہ	-10.1289
▁سعید	-10.1293
▁On	-10.1294
▁باگ	-10.1299
▁us	-10.1299
▁چند	-10.1303
▁المیں	-10.1306
گی	-10.1312
▁ڈیہہ	-10.1324
▁بئیں	-10.1326
▁ولی	-10.1335
▁شاعریء	-10.1336
▁جز	-10.1342
▁قاسم	-10.1343
▁کبر	-10.1349
▁ستا	-10.135
▁تعلیم	-10.1356
▁زرء	-10.1358
▁than	-10.136
▁ہائی	-10.1387
▁ردیں	-10.1387
▁گوک	-10.1392
▁کارمرزی	-10.1398
▁ائیا	-10.14
▁دمک	-10.14
یہ	-10.1405
▁دوستین	-10.1407
▁شاعرانی	-10.1421
▁انگہ	-10.1421
▁ادینگ	-10.1432
▁باسکاں	-10.1433
▁کردے	-10.1435
▁زرباری	-10.144
▁دلبڈی	-10.1452
▁بنجاہ	-10.1454
▁پترت	-10.1455
▁السی	-10.1459
...?	-10.146
▁')	-10.1465
▁بگل	-10.1468
▁امین	-10.1486
▁سنچ	-10.1493
▁قول	-10.1495
▁نبی	-10.1497
▁نظم	-10.1499
▁گالاں	-10.1499
▁زوریت	-10.1502
▁C	-10.1503
▁بجٹ	-10.1504
▁سرے	-10.1515
▁ضرورت	-10.1524
▁تئ	-10.1526
غ	-10.1537
▁بئیگ	-10.1539
▁لانچ	-10.1539
▁موکل	-10.1545
▁through	-10.1564
اس	-10.1565
▁گلہ	-10.1567
▁اومان	-10.1567
▁غنی	-10.157
▁جاتا	-10.1571
▁سسٹم	-10.1576
▁سوبمند	-10.1579
▁اندیم	-10.1581
▁راجمان	-10.1584
▁رحم	-10.1586
▁نبشتگیں	-10.1595
▁لوگاں	-10.1602
▁کشیں	-10.161
▁پونز	-10.1614
▁سست	-10.1615
▁سیاد	-10.1616
▁وڈیں	-10.1621
▁دودمان	-10.1621
▁حانی	-10.1631
▁جاگہے	-10.1633
▁پلانی	-10.1639
▁لبزاں	-10.1641
▁تہار	-10.1645
▁ترکی	-10.1649
▁راشد	-10.1657
▁فون	-10.1659
▁زیمر	-10.1661
▁تگ	-10.1662
▁بہار	-10.1662
▁5	-10.167
▁ھندوستان	-10.1671
▁صفت	-10.1672
▁ہوش	-10.1678
▁بازینے	-10.168
▁عملی	-10.1689
▁دولت	-10.1698
▁بزگی	-10.1701
▁جنئگ	-10.171
▁ھردو	-10.1712
▁m	-10.1722
▁زیب	-10.1729
▁میدان	-10.173
▁[	-10.1734
▁سرکارء	-10.1736
▁سمجھ	-10.1739
▁چندے	-10.1744
▁دلیل	-10.175
▁ابرم	-10.1751
▁لوگے	-10.1756
▁قانون	-10.1767
▁پند	-10.1768
▁تاکہ	-10.1778
▁لائن	-10.178
▁فرق	-10.1784
▁later	-10.1786
▁ھیران	-10.1787
▁گوز	-10.1793
▁while	-10.1796
▁پہنات	-10.1806
▁یعنی	-10.1815
▁درداں	-10.182
گوشتگ	-10.1828
▁مے	-10.1828
▁متاثر	-10.183
▁دینی	-10.1839
▁حاکم	-10.1842
▁مرگء	-10.1843
▁روش	-10.1848
▁جنوک	-10.1851
▁پیرک	-10.1854
▁کوٹ	-10.1854
▁پیچ	-10.1867
▁ماتء	-10.1869
▁منظور	-10.1873
تگیں	-10.1876
▁دیا	-10.1887
▁صاف	-10.1888
دگہ	-10.1889
▁بگندئے	-10.189
▁ہندوستان	-10.1894
▁چتور	-10.1903
▁ہندی	-10.1909
▁نیکیں	-10.1912
▁زیات	-10.1913
▁اچہ	-10.1918
▁زوال	-10.1919
▁ارواح	-10.1923
▁some	-10.1925
▁ربیدگی	-10.1926
▁لازم	-10.1926
▁گی	-10.193
▁قبر	-10.193
▁نظریہ	-10.1931
▁زالبولے	-10.1935
▁ارزان	-10.1937
▁پا	-10.1937
▁روسی	-10.1943
▁گوھار	-10.1949
▁پرپٹ	-10.1952
▁کمبر	-10.1953
▁ریچ	-10.1955
▁تہی	-10.1962
▁راجمانی	-10.1963
▁وانندہ	-10.1971
▁لعل	-10.1975
▁رندی	-10.1988
▁بلد	-10.1993
پدا	-10.2003
▁کلاں	-10.2007
made	-10.2008
▁کپت۔	-10.2012
▁باریگ	-10.2015
▁حاصیں	-10.2031
▁زیبائیں	-10.2035
▁رجینگ	-10.2036
▁نندوکیں	-10.2037
▁انا	-10.2052
▁وزن	-10.2052
▁چمشانک	-10.2059
▁قرار	-10.2074
▁چوک	-10.2078
?”	-10.2085
▁مروچیگیں	-10.2098
▁کیمپ	-10.21
▁گوشنت	-10.21
▁گلامی	-10.2104
▁ھمنچو	-10.2106
▁خاران	-10.2107
▁سینگ	-10.2108
▁شیئر	-10.2114
▁بوتین	-10.2117
تگ	-10.2118
▁گوشدارگ	-10.2129
▁گہگیری	-10.213
▁4	-10.2144
▁ائید	-10.2144
▁تپاس	-10.2147
▁گردن	-10.2149
▁دژمنیں	-10.215
ون	-10.2162
دیم	-10.2164
▁جگر	-10.2164
▁مردمی	-10.2166
▁دگرے	-10.2168
یاں	-10.2169
▁می	-10.217
▁زرمبش	-10.2176
▁توارے	-10.2182
▁پش	-10.2186
▁ھستی	-10.2187
”.	-10.2189
▁دستا	-10.2201
▁خاندان	-10.2203
▁گڑ	-10.2205
▁گہرام	-10.2206
▁گلے	-10.2207
▁پرشت	-10.2211
able	-10.2213
ھو	-10.2215
▁سبی	-10.2218
▁درامد	-10.2224
▁گواچن	-10.2225
▁صرف	-10.2225
▁پرواہ	-10.2226
▁گراب	-10.2235
▁لوٹگ	-10.2236
▁ھار	-10.2243
▁گلیں	-10.2244
▁زار	-10.2244
▁اگدہ	-10.2245
▁۔من	-10.2246
▁ایوکا	-10.2246
▁دیگء	-10.2256
▁ورنائی	-10.2262
▁میڈیکل	-10.2262
▁نوزدہ	-10.2282
▁شت۔	-10.2282
▁ھنچوش	-10.229
▁مرت	-10.2292
▁رجانکار	-10.2296
▁شاعراں	-10.23
▁جماعت	-10.2308
▁اتک۔	-10.2308
▁ھنچو	-10.2311
▁ہمرائی	-10.2319
▁لج	-10.2326
▁پاٹی	-10.2327
▁چھ	-10.2327
▁دریں	-10.2334
▁استال	-10.2335
▁اسان	-10.2343
▁کہنیں	-10.2351
▁ظفر	-10.2353
▁درچکانی	-10.2355
▁کمپیوٹر	-10.236
▁یونین	-10.2361
▁تہاریں	-10.2364
▁گوزان	-10.2365
▁بوئیگ	-10.2369
▁نواز	-10.2372
▁طرف	-10.2375
▁زھیر	-10.2378
▁چاریت	-10.2382
▁ضلع	-10.2385
▁پرمان	-10.2385
▁ڈیٹا	-10.2386
▁تچگ	-10.2391
▁چمے	-10.2392
▁گلگ	-10.2396
▁زانشت	-10.242
ity	-10.2422
▁اسحاق	-10.2427
▁پدریچ	-10.2428
▁زمینء	-10.2429
▁امریکا	-10.2431
ھما	-10.2442
▁مئیل	-10.2446
▁حقانی	-10.2448
▁تاکبند	-10.2453
بیت	-10.2454
▁تہہ	-10.2469
▁پندل	-10.2474
▁تم	-10.2476
▁شپاں	-10.2479
▁دپی	-10.2479
i	-10.2481
▁کایاں	-10.2482
▁زات	-10.2483
us	-10.2488
▁ڈیتھ	-10.2491
▁ارشے	-10.2494
تاکدیم۔	-10.2494
پد	-10.2495
▁دیمترا	-10.2499
▁خانہ	-10.25
▁اختر	-10.2502
ھ	-10.2512
▁پنت	-10.2513
▁درشانداب	-10.2523
▁واکداراں	-10.2526
▁قبول	-10.2531
▁ھان	-10.2539
▁چر	-10.2539
▁کولواہ	-10.2541
▁رک	-10.2549
▁ھستیں	-10.255
▁اتار	-10.2555
▁کاروباری	-10.2556
▁سار	-10.2557
▁بائد	-10.2562
▁لوٹانی	-10.2567
▁پروگرام	-10.2568
▁دلوت	-10.2569
▁جہاں	-10.257
▁شھدربرجاہ	-10.2577
▁صلی	-10.2579
▁لے	-10.2586
▁پریات	-10.2589
▁حرکت	-10.259
▁ازادی	-10.2595
▁زہیر	-10.2597
▁مدتے	-10.2603
▁کارمندانی	-10.2611
▁میتگء	-10.2612
▁سوگند	-10.2613
▁بزگیں	-10.2613
▁بجلی	-10.2614
▁گرمیں	-10.2626
▁ہوئی	-10.263
▁ریڈیو	-10.2638
▁یوکرین	-10.2645
▁راجدپتری	-10.2645
▁بنزہ	-10.2651
▁جاری	-10.2656
ٹ	-10.2656
▁اپء	-10.2664
▁جنینے	-10.267
▁ٹاہ	-10.2674
ever	-10.2676
▁کانفرنس	-10.2687
▁پاگ	-10.2691
▁میاں	-10.2695
▁new	-10.2696
▁اندری	-10.2698
▁حداء	-10.2701
▁رن	-10.2705
▁قدیم	-10.2708
▁شازادگ	-10.2711
▁چنگ	-10.2711
▁ہمودا	-10.2716
▁ڈس	-10.2717
▁درملکی	-10.2718
▁کھ	-10.272
یانی	-10.2722
▁where	-10.2724
▁نمیرانیں	-10.2734
▁جوش	-10.2734
such	-10.2736
▁وران	-10.2737
▁زبہر	-10.2738
▁زانتکاری	-10.2742
نبشتانک	-10.2749
▁دیراں	-10.2761
▁پناہ	-10.277
▁درگیجگ	-10.2772
▁چیرء	-10.2773
▁ادارگ	-10.279
▁ات۔۔۔	-10.2797
▁زھری	-10.2805
▁them	-10.2808
▁ساد	-10.2812
▁دوری	-10.2812
▁کنغ	-10.2814
▁مہرء	-10.2818
▁کوھانی	-10.2823
▁نویسی	-10.2829
▁شروع	-10.2829
▁جیل	-10.2836
▁کوچگ	-10.2836
▁کمتر	-10.2841
▁انوگیں	-10.2845
▁دریگ	-10.285
▁عابد	-10.285
▁محمود	-10.2859
▁مولوی	-10.2861
▁ترین	-10.2866
▁پلاں	-10.2872
▁غوث	-10.2875
▁پائدگ	-10.2875
▁number	-10.2876
▁ساہگ	-10.2884
▁ھاران	-10.2887
▁روح	-10.2888
▁اہم	-10.289
▁بدنت	-10.2908
▁چرائی	-10.291
▁M	-10.2911
▁تجربت	-10.2917
▁سرھال	-10.2928
▁بندر	-10.2928
▁بز	-10.2934
▁نت	-10.2938
▁مز	-10.294
▁ساچ	-10.2946
▁گونڈو	-10.2958
▁وجہ	-10.2962
▁وتکشی	-10.2962
▁مکسد	-10.2969
▁دانگ	-10.2986
▁پرشتگ	-10.2988
▁مرتگیں	-10.2991
▁رہ	-10.3002
▁ادیم	-10.3008
▁بری	-10.3009
▁جہدء	-10.3011
▁نیاما	-10.3013
▁ھنر	-10.3013
","	-10.3013
▁اشوبی	-10.3014
▁شرگدار	-10.3019
▁دانک	-10.3022
▁چیرا	-10.3024
▁بازین	-10.3029
▁بندوکیں	-10.303
▁چوپ	-10.3031
▁پور	-10.3031
▁follow	-10.3033
▁ام	-10.3039
▁وابانی	-10.304
▁بژن	-10.3055
▁ھمیشی	-10.3056
▁ہچبر	-10.3058
▁ستر	-10.3059
▁خالد	-10.306
▁جد	-10.3066
میں	-10.3075
▁برمش	-10.3079
▁امروز	-10.3083
▁This	-10.3084
▁مساپر	-10.3089
▁مالک	-10.309
▁ھپتاد	-10.3092
▁ھسپتال	-10.3096
▁بلوچیء	-10.3105
پ	-10.3134
▁پازل	-10.3136
▁جمبر	-10.3137
▁بنیادی	-10.3141
▁پنچمی	-10.3142
▁ذکر	-10.3142
اپ	-10.3144
▁سود	-10.3149
▁قلم	-10.3152
▁درسد	-10.3156
باز	-10.3157
▁ہمدا	-10.3159
▁گوانک	-10.3162
▁سرین	-10.3168
▁جنکانی	-10.318
▁گھار	-10.3184
▁film	-10.3203
▁گژن	-10.3207
کنگ	-10.3212
▁ھشکیں	-10.3215
▁being	-10.3215
▁نسیم	-10.3216
▁چینچو	-10.3227
▁استار	-10.3227
▁دستگیر	-10.3228
۔بلے	-10.3233
▁رندگیری	-10.3234
▁زندگانی	-10.3238
▁تاکدیم۔	-10.324
▁واکدارانی	-10.3241
▁پتء	-10.3246
▁کشان	-10.3248
▁بنیات	-10.3254
▁000	-10.3276
▁یعنے	-10.3278
▁record	-10.3281
▁سوسائٹی	-10.3283
▁New	-10.3284
▁song	-10.3288
............	-10.3293
▁ڈرائیور	-10.3296
▁لیاری	-10.3302
▁چکچینی	-10.3303
▁بینگ	-10.3307
▁وہداں	-10.3309
▁کسء	-10.3319
▁رہے	-10.332
▁before	-10.3323
▁part	-10.3328
▁مین	-10.3334
▁سیاھگ	-10.3339
▁سنی	-10.3344
▁ترجمہ	-10.3344
▁پدی	-10.3344
▁دمب	-10.3345
جی	-10.3347
▁ھکم	-10.3351
▁وانوکاں	-10.3352
▁فقیر	-10.3357
▁ھبرے	-10.3363
▁گالانی	-10.3366
▁سرزمین	-10.3366
▁کورء	-10.3375
▁اشنا	-10.3376
▁تپاوت	-10.338
▁مارشتانی	-10.3392
ڈ	-10.3397
▁مروچاں	-10.3399
▁نوکی	-10.3406
▁سرحال	-10.3429
▁تری	-10.344
▁کپیت۔	-10.3441
▁کلگ	-10.3441
▁دائمی	-10.3445
▁e	-10.3445
مہ	-10.3446
او	-10.345
▁قوت	-10.3452
▁تپنگ	-10.3459
▁درکپت	-10.3464
▁استعمال	-10.3469
▁موتک	-10.3474
▁شعور	-10.3477
▁دراں	-10.3479
▁ہوتی	-10.348
▁برپ	-10.3485
▁ماه	-10.3487
▁مواد	-10.3493
▁ملکے	-10.3505
▁ھوٹل	-10.351
▁اہگ	-10.352
▁یونانی	-10.3521
▁جاگہہ	-10.3522
▁راھبند	-10.3525
▁ازمانکے	-10.3525
▁سیکورٹی	-10.3526
▁درکانودی	-10.3526
▁second	-10.353
▁باوست	-10.3531
ایشی	-10.3534
▁ابن	-10.3536
▁ایشان	-10.3548
▁اخلاقی	-10.3557
ڈاکٹر	-10.356
مراد	-10.3562
ع	-10.3562
▁اشک	-10.3564
▁معاملہ	-10.3569
▁شاعرء	-10.3576
▁ناچ	-10.3576
▁عباس	-10.3584
▁زیت	-10.3585
▁دلے	-10.3589
le	-10.3591
▁نبیت	-10.3603
▁بالا	-10.3604
▁پرشتگیں	-10.3606
▁نزوریں	-10.3606
▁پہر	-10.3612
▁ننگ	-10.3615
▁بزدار	-10.362
▁گوازینتگ	-10.3636
▁گیگ	-10.3639
▁جہانی	-10.3646
gan	-10.3646
▁الدین	-10.365
▁جنجالانی	-10.3652
▁وئیلاں	-10.3656
▁جنزان	-10.3657
▁دنیگا	-10.3658
▁گپتگیں	-10.3661
▁نیل	-10.3665
▁دیوانء	-10.3665
▁ابا	-10.3666
▁وہدی	-10.3674
▁رم	-10.3682
▁ہان	-10.3694
ایاں	-10.3696
▁ژا	-10.3705
▁خلاف	-10.3709
▁سریں	-10.3714
▁توان	-10.3715
▁سیٹ	-10.3716
▁بیگء	-10.372
▁اقبال	-10.3729
▁کرتا	-10.3747
▁under	-10.3753
▁اختیار	-10.376
▁ادمی	-10.3766
ائیں	-10.3768
▁ازار	-10.3781
▁وام	-10.3782
▁سیم	-10.379
▁work	-10.379
▁کاہ	-10.3792
▁ایگء	-10.38
▁حمید	-10.3802
▁هبر	-10.3804
۔۔۔۔۔	-10.3811
▁مہرانی	-10.3818
▁لندن	-10.3829
▁کتابء	-10.3829
▁al	-10.3833
▁گۆں	-10.3834
▁رہا	-10.3835
▁سیاہیں	-10.3836
▁سعودی	-10.3837
▁call	-10.3839
▁بھرے	-10.384
▁صدی	-10.3841
▁ری	-10.3844
▁اشکتگ	-10.3857
بلئے	-10.3865
▁پما	-10.3868
▁جستے	-10.387
▁گنوکی	-10.3877
▁گونڈ	-10.3884
▁شئر	-10.3886
▁روگی	-10.3896
▁چپی	-10.3898
▁دیدگاں	-10.3908
▁کریمہ	-10.391
تر	-10.3912
▁انکار	-10.3913
▁عدالت	-10.3914
▁دگرانی	-10.3916
▁نیاں	-10.3916
▁اہمد	-10.3922
▁تنقید	-10.3922
an	-10.3926
▁چا	-10.3933
▁end	-10.3939
▁ہمگرنچ	-10.3941
▁سواریں	-10.3942
▁سو	-10.3948
▁مارشتاں	-10.395
▁سرشون	-10.3952
▁وثی	-10.3966
▁صوبائی	-10.3967
▁تاھیر	-10.3975
▁نوکین	-10.3978
▁جانسلامتی	-10.3979
▁گماں	-10.3981
▁سراوان	-10.3984
▁وپت	-10.3986
▁سببء	-10.3995
▁شھری	-10.3998
ترا	-10.3999
▁انسانے	-10.4005
▁گشان	-10.4017
▁can	-10.402
▁مجبور	-10.402
▁حکیم	-10.4027
▁چول	-10.4028
▁وابے	-10.4029
▁ڈکال	-10.403
▁بابا	-10.4032
▁منافع	-10.4032
▁چونائی	-10.4033
▁خانء	-10.4038
▁مود	-10.404
▁دگانی	-10.4041
انہ	-10.4064
▁تبک	-10.407
▁کنے	-10.4071
▁وتگڑیں	-10.4073
▁high	-10.4073
▁de	-10.4074
شپ	-10.4083
▁روچگ	-10.4085
▁بوتگنت	-10.4085
▁سن	-10.4095
▁زھگانی	-10.4096
▁large	-10.41
▁حبرے	-10.4103
▁area	-10.4105
▁شاھی	-10.4113
▁اھد	-10.4115
▁الاج	-10.4118
▁گپت۔	-10.4119
▁there	-10.4123
▁ڈالر	-10.4126
▁album	-10.4135
▁شوربندی	-10.4146
چی	-10.415
▁جستانی	-10.4151
▁زد	-10.4155
▁کارمندے	-10.4156
land	-10.4157
▁کتیں	-10.4159
▁ھزاراں	-10.4161
▁نثار	-10.4164
▁درانگازی	-10.4167
▁series	-10.4167
▁تعلق	-10.4171
▁رودراتکی	-10.4172
▁جتگیں	-10.4188
▁جنت۔	-10.419
▁جرم	-10.4192
▁چاچ	-10.4197
▁واہند	-10.4213
▁قبائلی	-10.4214
▁ابرمی	-10.4215
▁فیض	-10.4215
▁سلیمان	-10.4215
سی	-10.4224
▁حمزہ	-10.4227
▁روژنائی	-10.4228
▁نهانت	-10.4237
▁اسماعیل	-10.4239
تا	-10.4259
▁موت	-10.4259
ف	-10.4263
▁ھمودا	-10.4274
▁رسیت۔	-10.4274
▁کرتنت	-10.4277
▁حالت	-10.428
▁اسٹوڈنٹس	-10.4281
▁توسیپ	-10.4282
▁ایوکی	-10.4284
▁پولی	-10.4289
▁افسر	-10.4289
▁بزور	-10.4292
▁پوش	-10.4295
▁re	-10.4298
▁دراتکگ	-10.4301
▁گندیں	-10.4315
▁پشتی	-10.4317
▁زمستان	-10.4317
▁نگاہ	-10.4318
▁توپک	-10.4321
▁کستریں	-10.4325
▁لنٹ	-10.4333
▁چاگردے	-10.4334
▁گھر	-10.4339
▁بازارء	-10.4341
▁سھر	-10.4341
یناں	-10.4346
▁جیہند	-10.435
▁دن	-10.4351
▁حیات	-10.4358
▁ہمراہی	-10.436
▁تمن	-10.4364
▁لاہور	-10.4377
▁ملامت	-10.438
▁قبضہ	-10.4397
▁عیسیٰ	-10.4402
رد	-10.4406
▁ھپتگ	-10.4406
▁اتکگ۔	-10.4407
▁حیالانی	-10.441
▁وسی	-10.4415
▁اشارہ	-10.4416
▁روکیں	-10.4419
▁جائے	-10.4425
▁نودربرے	-10.4427
▁کھولانی	-10.4428
▁کلاک	-10.4429
▁رمضان	-10.443
بلکیں	-10.4442
▁خالق	-10.4443
▁والے	-10.4449
▁جت۔	-10.4452
▁both	-10.4456
▁دلی	-10.4459
▁کوھی	-10.446
▁راکٹ	-10.4462
▁نیٹ	-10.4462
..?	-10.4465
▁میزان	-10.4468
▁پشک	-10.4468
▁کشء	-10.4469
▁ممتاز	-10.4477
▁کساسے	-10.4478
▁احساس	-10.4479
▁گوراں	-10.4482
▁no	-10.4485
▁چیزء	-10.4488
▁بازی	-10.4494
▁مزاحمت	-10.4501
▁پڑء	-10.4502
▁ڈنء	-10.4503
▁includ	-10.4518
▁پریں	-10.4519
▁نال	-10.452
▁عطاشاد	-10.4526
▁سہی	-10.4529
▁لمب	-10.4529
▁بندیت	-10.4539
▁کپوت	-10.454
▁نوکری	-10.4544
▁برزء	-10.4551
▁نیمون	-10.4552
▁سوبمندی	-10.4553
▁دیریں	-10.4556
▁ساحرء	-10.4565
▁پولکاری	-10.4566
▁درچکے	-10.4571
▁استحکام	-10.4574
▁مسافر	-10.4577
▁هال	-10.4578
?......	-10.4582
▁ہنچیں	-10.4593
▁سراں	-10.4595
▁کلاس	-10.4595
▁صابر	-10.4598
▁چمان	-10.4598
▁سارتی	-10.4603
▁گھگیری	-10.4605
▁کوشش	-10.4607
▁ھنداں	-10.4608
▁بندانی	-10.4609
▁عظیم	-10.4612
▁ضروری	-10.4612
▁چات	-10.4617
▁دوچار	-10.4624
▁زیمل	-10.4626
▁قادر	-10.4628
▁گریب	-10.463
▁گلزار	-10.4633
▁ناکہ	-10.4634
▁فرانس	-10.4636
▁درکار	-10.4642
▁زالبولاں	-10.4646
▁اوگان	-10.4652
▁راگ	-10.4653
▁پچیں	-10.4655
▁بدے	-10.4657
▁اعظم	-10.4658
▁کوہء	-10.4668
▁بریں	-10.4671
▁شانک	-10.4673
▁برداشت	-10.4673
came	-10.4674
▁then	-10.4674
▁form	-10.4679
▁مارکیٹ	-10.468
▁چوٹ	-10.4686
S	-10.4686
▁نیمگاں	-10.4688
▁گلاب	-10.4688
▁اولس	-10.4692
’’(	-10.4693
▁حراب	-10.4695
▁زاہر	-10.4699
▁عیب	-10.4701
▁خون	-10.4702
▁جاوید	-10.4703
▁بزانکہ	-10.4717
▁well	-10.4722
▁برانز	-10.4724
▁گئی	-10.4725
▁ھوں	-10.4725
▁زوراک	-10.4727
▁دمگانی	-10.4729
اش	-10.4732
▁مکہ	-10.4739
▁اینڈ	-10.4752
▁اماچیں	-10.4752
▁show	-10.4757
▁چیردستی	-10.4757
▁جیڑھانی	-10.4762
▁سمندر	-10.4764
▁گاریں	-10.4765
▁راجدپترء	-10.4767
▁بارے	-10.4773
▁باسکانی	-10.4776
▁موومنٹ	-10.478
▁known	-10.478
▁شہرء	-10.4781
تے	-10.4781
▁ازمکار	-10.4787
▁episode	-10.4788
▁درانگاز	-10.479
▁گزر	-10.4796
▁تهنا	-10.4799
▁ڈکھ	-10.48
▁واھگانی	-10.48
در	-10.48
▁۔بلے	-10.4801
▁ووٹ	-10.4803
▁حوالہ	-10.4806
▁قرض	-10.4806
دار	-10.4806
▁بیرک	-10.4808
▁نازک	-10.4808
▁توارء	-10.481
▁فدا	-10.4815
▁ترمپ	-10.4822
▁کپتگ۔	-10.4825
▁کوھن	-10.4828
▁گۆن	-10.4836
▁اواں	-10.4837
▁زری	-10.4841
out	-10.4842
▁بیل	-10.4844
▁زورگیریں	-10.4845
پر	-10.4847
▁عید	-10.4849
▁بنگلہ	-10.4863
▁بحث	-10.4866
▁6	-10.4868
▁ابراھیم	-10.4871
میر	-10.4874
▁اناگہ	-10.4879
▁ہیال	-10.4879
▁پگرء	-10.488
▁دنز	-10.488
▁اپی	-10.4885
▁بدلیاں	-10.4887
.....	-10.4889
▁وشبو	-10.4889
▁دا	-10.4913
▁یکوارے	-10.4913
▁کرء	-10.4923
▁نبشتانکے	-10.4926
▁مھکمیں	-10.4934
▁لفظ	-10.4939
▁چندیں	-10.4951
▁درجہ	-10.4951
▁پروم	-10.4961
▁زبیر	-10.4964
▁پیری	-10.4966
▁سرد	-10.4977
▁پیشانی	-10.4979
▁اوان	-10.4985
▁گشتانک	-10.4988
▁دستانی	-10.4989
▁دردء	-10.4992
▁ھاکم	-10.4993
یگ	-10.4995
▁سیمسراں	-10.4997
▁زنگ	-10.5003
▁دوچ	-10.5004
▁دربرگ	-10.5005
▁زمان	-10.5007
▁قسم	-10.5017
▁جهد	-10.5022
▁کست	-10.5022
▁بیتہ	-10.5026
▁کشکے	-10.5028
▁زندگیء	-10.5033
▁بادینی	-10.5043
▁میرے	-10.5045
est	-10.5055
▁اھمد	-10.5056
▁پشتون	-10.5058
▁شائریء	-10.5067
▁پلاٹ	-10.508
▁like	-10.5085
▁گلء	-10.5088
▁سہرا	-10.5102
ے۔	-10.5108
▁many	-10.5116
▁عبدالحمید	-10.512
▁پلیں	-10.5121
▁میتگے	-10.5122
▁کوپگاں	-10.5122
▁ناگمان	-10.513
▁پہل	-10.5141
▁لگتمالی	-10.5144
▁گچینکاری	-10.5149
▁رجانکاری	-10.5158
▁مشہور	-10.516
▁فارم	-10.5162
▁ہار	-10.5165
▁رژنائی	-10.5168
▁تصور	-10.5169
▁ڈل	-10.5174
though	-10.5175
!!	-10.5176
▁بیبگر	-10.5177
▁زانش	-10.5185
▁یکین	-10.5185
▁انقلاب	-10.5186
▁داران	-10.5186
▁جمعہ	-10.519
▁حملہ	-10.5192
▁10	-10.5194
▁گواری	-10.5198
▁پشی	-10.5198
▁تیاری	-10.5204
▁As	-10.5206
▁جسم	-10.5207
▁ارساں	-10.5209
▁دروشمء	-10.5209
▁found	-10.5213
▁ھ	-10.5223
▁گوزیت	-10.5224
▁مانیت	-10.5229
▁تھے۔	-10.523
؂	-10.5232
▁ٹاور	-10.5233
▁رزا	-10.5234
▁شہری	-10.5237
nited	-10.5239
▁رپک	-10.5244
▁یورپی	-10.5253
▁ندارہ	-10.5253
▁سمین	-10.5258
سید	-10.526
▁ہمائی	-10.526
▁ہلک	-10.5264
▁مختلف	-10.5265
▁مسئلہ	-10.5268
▁زبانی	-10.5268
نگیں	-10.5279
▁نیا	-10.5282
▁ناشرکاری	-10.5283
▁رئیس	-10.5283
▁ناہ	-10.5284
▁طاہرہ	-10.5288
▁پار	-10.5291
▁تور	-10.5297
▁والی	-10.5305
▁راجدوست	-10.5309
بازیں	-10.5321
▁زمانگے	-10.5329
▁ملور	-10.533
▁لوگی	-10.5332
▁جزبگ	-10.5333
▁مقام	-10.5335
▁long	-10.5341
▁بہادر	-10.5348
▁R	-10.5352
▁خلیل	-10.5355
▁ایمن	-10.5357
▁سهیگ	-10.5357
▁جدید	-10.5359
▁سلطان	-10.5369
▁۔۔۔۔۔	-10.5378
▁چکء	-10.5384
▁گئے	-10.5389
▁قیمتانی	-10.5389
▁جیڑہانی	-10.5389
▁D	-10.5403
▁رشید	-10.5406
▁اخراجات	-10.5407
▁تچ	-10.541
▁use	-10.5411
▁تپاکی	-10.5413
▁سمو	-10.5416
▁داتہ	-10.5417
▁بزنجو	-10.5419
تریں	-10.5423
▁ٹارگٹ	-10.5434
ص	-10.5435
▁فتح	-10.5447
▁ارادہ	-10.5449
▁پون	-10.545
۔۔۔۔۔۔۔۔۔۔۔۔۔۔۔۔	-10.5451
▁بیھار	-10.5458
▁شورو	-10.5467
▁اشکت	-10.5469
▁فلسفی	-10.5476
▁زراں	-10.5478
بس	-10.5479
▁مانداشتگ	-10.5481
ic	-10.5487
▁درمیان	-10.5488
▁گورنر	-10.5489
▁صبر	-10.5492
▁منتگ	-10.5496
▁پرچیکہ	-10.5497
▁سوئی	-10.55
▁گوازینت	-10.5504
▁شات	-10.5508
▁ازمانکار	-10.5509
▁الیکشن	-10.551
▁حیالء	-10.551
▁بلاش	-10.5513
▁زین	-10.5515
▁ٹال	-10.5516
................	-10.5517
▁بانور	-10.5523
▁دلانی	-10.5529
▁century	-10.5536
▁یہاں	-10.5541
▁رستگیں	-10.5543
▁پکرء	-10.5544
▁ہونے	-10.5545
▁محنت	-10.556
ملا	-10.5561
▁انداز	-10.5562
▁جمیل	-10.5566
▁گیج	-10.5573
▁موٹر	-10.5576
▁جاک	-10.5576
▁پانی	-10.5583
▁تان	-10.5586
▁دگراں	-10.559
▁ریک	-10.559
▁کترینا	-10.5598
▁جنگے	-10.5602
▁نکنت	-10.5602
▁دردے	-10.5607
▁فاروق	-10.5607
▁دیدار	-10.5612
▁چاڑ	-10.5613
ٹی	-10.5616
ٰ	-10.5621
▁نوکتریں	-10.5627
▁تژن	-10.563
▁ہاں	-10.5638
▁four	-10.5639
▁کسےء	-10.5641
جاہ	-10.5642
▁گنجیں	-10.5644
▁گشاد	-10.5646
▁درامدیں	-10.5653
▁کمکیں	-10.5654
▁مشین	-10.5657
▁مندی	-10.5659
▁لالا	-10.566
▁کرم	-10.5665
▁دلگوشی	-10.567
▁پہلے	-10.567
▁اندازہ	-10.5674
▁چڑھاؤ	-10.5675
▁گوادرء	-10.5678
▁مجھے	-10.5679
▁مطابق	-10.568
سے	-10.5689
▁After	-10.569
▁کڈن	-10.5691
▁اشتاپ	-10.5693
▁پتو	-10.5698
▁گراہک	-10.5702
▁ٹیلی	-10.5704
ہر	-10.5706
▁بیدار	-10.5706
گل	-10.5708
▁ھیالانی	-10.5709
▁بگند	-10.571
▁بباں	-10.5711
▁so	-10.5714
▁سوگات	-10.5716
▁پرستی	-10.5717
▁سطح	-10.5725
▁فکری	-10.573
▁طالبان	-10.5731
▁دوئمی	-10.5734
▁گواچنی	-10.5747
ھر	-10.5748
▁کن۔	-10.5749
▁تہذیب	-10.575
▁کشمیر	-10.575
▁شانزدہ	-10.5755
▁ماث	-10.5762
▁توپان	-10.5769
▁بلو	-10.577
▁sever	-10.5772
▁American	-10.5773
▁اسد	-10.5775
کیں	-10.5776
▁عارف	-10.578
▁قائم	-10.5784
▁مندیں	-10.5787
▁گمانی	-10.579
▁ایکشن	-10.5795
▁میران	-10.5799
▁گرمی	-10.5804
▁پروشتگ	-10.5805
▁پابندی	-10.5805
▁کواس	-10.5806
▁ابد	-10.5812
▁جہت	-10.5815
▁ازاتیں	-10.5816
▁کمکار	-10.5816
ت۔	-10.5818
اد	-10.5819
▁دئینت	-10.5823
▁جیگ	-10.5823
▁ٹپاس	-10.5828
▁فلسفہء	-10.5828
▁بوھگء	-10.5834
▁درونت	-10.584
▁زبھر	-10.584
▁دنتان	-10.5846
▁کروڑ	-10.5849
▁پلامرزی	-10.5853
▁دعوت	-10.5871
▁راستیء	-10.5878
▁ماھل	-10.5883
▁تھت	-10.5885
▁N	-10.5894
▁براتاں	-10.5896
▁درخواست	-10.5898
▁تخلیق	-10.5899
▁رنداں	-10.5901
▁چیف	-10.5902
▁سروزیر	-10.5904
▁بیلٹ	-10.5909
▁پڑا	-10.5916
▁اڑے	-10.5917
▁بوتگاں	-10.5923
▁ف	-10.5925
مردم	-10.5937
کن	-10.594
▁کارستانی	-10.5941
▁Brit	-10.5945
▁ند	-10.5946
▁نزر	-10.5951
ائے	-10.5954
▁دیوانجاه	-10.596
▁مجگ	-10.596
▁دلا	-10.5964
▁ماھیگ	-10.5966
▁کائے	-10.5967
▁دیوک	-10.597
▁پروشت	-10.5971
▁تار	-10.5971
▁پسندی	-10.5973
▁ماھے	-10.5975
▁یے۔	-10.598
▁نازرکیں	-10.5984
▁ڈگارانی	-10.5985
▁مقابلہ	-10.5987
▁برطانیہ	-10.5998
▁ھمد	-10.6004
کا	-10.6007
▁۔ا	-10.6014
▁ڈولدار	-10.6019
▁پھک	-10.602
▁پیسری	-10.602
▁زھگاں	-10.6022
▁team	-10.6022
▁پلے	-10.6024
▁ہواریں	-10.6025
▁تراکے	-10.603
▁مھتل	-10.603
▁تیلانک	-10.6034
▁گوہر	-10.6036
▁سپاہی	-10.6046
▁علمء	-10.6046
▁near	-10.6049
▁زھگے	-10.605
▁سیستان	-10.6052
▁پلو	-10.6055
▁مرگے	-10.6063
▁لسبیلہ	-10.6068
▁غریب	-10.6068
▁نگیگ	-10.6076
▁مادن	-10.6081
▁جنگانی	-10.6089
▁بندیگیں	-10.6094
▁جہانء	-10.6097
cause	-10.6101
▁حمایت	-10.6102
▁سڑک	-10.6109
▁دستے	-10.611
▁صحت	-10.6112
▁خضدار	-10.6116
▁کاینت۔	-10.6117
▁زورگر	-10.6117
▁گسء	-10.612
ق	-10.6121
▁دابیں	-10.6125
▁ہندو	-10.6128
▁پرایمن	-10.6128
▁شرکت	-10.6128
▁کمار	-10.613
▁شاکر	-10.6135
▁چمگ	-10.6135
▁ھیالاں	-10.6136
▁ہستی	-10.6138
▁اپس	-10.6149
▁سماجی	-10.615
▁پک	-10.6153
▁دوریں	-10.6158
▁زوتاں	-10.616
▁جسٹس	-10.6161
▁شار	-10.6163
▁ماتیں	-10.6165
▁ایکس	-10.6169
▁الما	-10.6171
رجانک	-10.6178
▁نک	-10.6185
▁میراث	-10.6192
▁دردانی	-10.6195
▁قدرتی	-10.6196
▁ائیئ	-10.6197
▁زمینی	-10.6199
دست	-10.62
▁ورنایاں	-10.6201
▁عجب	-10.6202
▁جنازہ	-10.6204
▁توکلی	-10.6205
▁گریت	-10.6213
▁ھد	-10.6215
▁سورت	-10.6219
▁پکا	-10.6221
▁حاک	-10.6223
▁remain	-10.6224
بیا	-10.6227
▁مہکم	-10.623
▁فرانسیسی	-10.6236
▁گوشیں	-10.6243
▁دلپدردی	-10.6243
▁اصف	-10.6248
▁ویران	-10.6249
ح	-10.6251
▁تلار	-10.6252
▁زید	-10.6255
▁یاگی	-10.6264
▁امیری	-10.6269
▁عادت	-10.627
▁پارٹیء	-10.6274
▁وخت	-10.6275
▁تین	-10.6275
▁جاڑیگ	-10.6276
▁دارگء	-10.6282
▁ھژدہ	-10.629
▁سریاب	-10.6293
▁شعرے	-10.6297
▁دوار	-10.6298
▁ریکی	-10.6299
▁محکم	-10.6306
▁براتانی	-10.6307
ھانی	-10.6311
▁گروک	-10.6312
▁عذاب	-10.6316
▁دوران	-10.6318
▁ادیب	-10.6318
▁ھژدری	-10.6319
▁کابل	-10.6323
▁ذہن	-10.6324
▁کربانی	-10.6326
▁پن	-10.6329
▁براھوئی	-10.6338
▁دلبند	-10.634
اولی	-10.6341
▁درائی	-10.6342
▁کارندھاں	-10.6355
▁لنٹانی	-10.6357
▁حاتم	-10.6365
▁کرسی	-10.6366
▁سرگوست	-10.6369
▁early	-10.6373
▁زمانہ	-10.6375
▁سیزدہ	-10.6376
▁سودا	-10.6378
▁انڈیا	-10.638
▁واہ	-10.6382
▁could	-10.6382
▁رھبندانی	-10.6384
▁دربار	-10.6393
▁کرتہ	-10.6395
▁نبشته	-10.6396
▁لوزانک	-10.6397
▁زلورت	-10.6403
▁عبادت	-10.641
ازمانک	-10.6413
▁محفوظ	-10.6415
▁پاشک	-10.6419
▁امارات	-10.642
▁وارث	-10.642
▁جمال	-10.6423
▁کارچ	-10.6428
▁زوربیگواہ	-10.643
▁گرک	-10.643
جان	-10.6432
بن	-10.6442
ھاں	-10.6445
▁ذہنی	-10.6447
▁سیکرٹری	-10.6449
▁مسال	-10.645
▁مهر	-10.6451
▁did	-10.6459
▁final	-10.6459
▁سمل	-10.6462
▁8	-10.6462
▁گیں	-10.6462
▁ریکارڈ	-10.6463
▁0	-10.6465
▁شتیں	-10.6465
▁احوال	-10.6468
▁جہلی	-10.6477
▁چھبار	-10.6479
▁صادق	-10.6491
▁پنجابی	-10.6491
▁جرمنی	-10.6493
▁گشی	-10.6503
▁سببا	-10.6503
▁اہ	-10.6508
▁توانائی	-10.6509
▁غالب	-10.651
▁ہمیشی	-10.6511
▁شامل	-10.6522
▁وپتگ	-10.6532
▁جاتی	-10.6533
▁کارندھانی	-10.6536
▁کلمتی	-10.6539
▁ڈبلیو	-10.6545
▁شم	-10.6545
▁ترینت	-10.6546
▁یونان	-10.6547
نام	-10.655
کت	-10.655
▁گہتر	-10.6551
وش	-10.6559
▁کتابی	-10.6563
▁زرے	-10.6563
▁7	-10.6564
▁مور	-10.6565
▁سلاھاں	-10.6566
▁اج	-10.6567
ہما	-10.6569
▁تالبان	-10.6573
▁گلی	-10.6573
▁توبہ	-10.6574
▁زانیں	-10.6574
▁راجاں	-10.6577
▁ہوتے	-10.6589
▁سنج	-10.6596
▁کتنت	-10.6597
▁رحمت	-10.6599
▁گوریچانی	-10.6607
▁کیسگ	-10.6614
▁اهانی	-10.6615
▁پیشدارگ	-10.6616
▁بوہ	-10.6617
▁دیگی	-10.6624
▁پیداگ	-10.6628
▁ٹوھیں	-10.663
▁اشت	-10.6636
▁رنگی	-10.6636
▁بجار	-10.6638
▁خلافا	-10.664
▁جنینانی	-10.6643
▁درایگ	-10.6644
▁ہیل	-10.6646
▁معناء	-10.6648
▁along	-10.6649
▁جمالی	-10.6649
▁ذریعہ	-10.665
▁شخصیت	-10.6655
▁پنجاپ	-10.6656
کس	-10.6658
▁درء	-10.666
▁امل	-10.6666
▁مھمان	-10.6679
▁عاشق	-10.6683
▁تچکی	-10.6689
▁جرمن	-10.6689
▁توجیل	-10.6693
▁گے	-10.6697
کنت	-10.6698
▁کتابجاہ	-10.67
▁کئیت۔	-10.6701
▁مبارکی	-10.6702
▁کارکن	-10.6702
▁ساریء	-10.6703
▁پسء	-10.6704
کگ	-10.6705
▁کراچیء	-10.6717
▁لبزء	-10.6718
▁اوشتگ	-10.6718
▁زہری	-10.6722
▁اپنا	-10.6724
زبان	-10.6726
▁ہواری	-10.6731
▁شل	-10.6731
▁گز	-10.6732
▁کشاں	-10.6734
▁روئے	-10.6734
man	-10.6736
▁پٹء	-10.6738
وک	-10.6739
▁دوئینانی	-10.6741
▁تیوگ	-10.6742
▁دودا	-10.6743
▁حفیظ	-10.6745
▁may	-10.6746
▁پال	-10.6747
▁بلال	-10.6757
▁زھم	-10.6758
▁واباں	-10.6759
▁سنگتی	-10.6759
▁لیٹ	-10.6759
روچ	-10.676
▁شکاری	-10.6761
▁دبئی	-10.6762
▁اسٹیشن	-10.6763
سک	-10.6772
▁جھمنندیں	-10.6774
▁اظہار	-10.6776
um	-10.6778
▁تھانہ	-10.6781
▁مردمانء	-10.6783
▁sai	-10.6783
▁داشتگیں	-10.6783
▁لب	-10.6788
▁وردن	-10.679
▁تپ	-10.6795
▁وابء	-10.6798
▁صبور	-10.6799
▁place	-10.6816
▁نزینکی	-10.682
▁سہریں	-10.6824
▁بشکھندگ	-10.6826
▁فن	-10.6831
▁سیہ	-10.6836
▁جسمانی	-10.6841
▁مارکس	-10.6847
▁اصلی	-10.6848
▁زنڈیں	-10.6861
▁ابو	-10.6861
▁شئیرانی	-10.6865
▁نوبت	-10.6866
▁نیمروچ	-10.6868
▁پئیم	-10.6879
▁است۔	-10.688
▁اشتاپی	-10.6882
ایانی	-10.6882
▁گرانی	-10.6882
▁برا	-10.6882
▁نائب	-10.6888
▁شخص	-10.6889
▁ارزانی	-10.6892
کو	-10.6893
▁یکجا	-10.6894
▁ایمنیں	-10.6894
▁رہادگ	-10.6895
▁مس	-10.6898
▁تاکاں	-10.691
▁شوک	-10.6915
▁بحرین	-10.6915
▁عوامی	-10.6916
▁رکھینگ	-10.6916
▁تیزی	-10.6918
▁ھڈ	-10.6922
▁کپتہ	-10.6926
▁زانت۔	-10.6932
▁بزیں	-10.6932
▁عالمی	-10.6936
▁پدائی	-10.6939
▁کاپر	-10.694
▁میانی	-10.6945
۔ہمے	-10.6957
▁بیانیہ	-10.6957
▁چمن	-10.6963
گپ	-10.6967
▁سستگ	-10.6968
▁پہم	-10.697
▁بنپد	-10.6974
▁لی	-10.6975
نبشتہ	-10.6976
▁حافظ	-10.6979
▁بندء	-10.6982
▁درستانی	-10.6986
▁9	-10.6989
▁ببنت	-10.6991
▁سالونک	-10.6991
▁لذت	-10.6992
▁منوگر	-10.6992
▁ننداں	-10.6993
▁سمائی	-10.6998
ھے	-10.6998
▁پرنٹ	-10.6999
▁مرگانی	-10.7003
▁بروکیں	-10.7012
ي	-10.7012
▁ھست۔	-10.7017
▁راہبند	-10.7018
▁کاریں	-10.702
▁بوج	-10.7021
ریں	-10.703
▁سوشلزم	-10.7032
▁ڈرامہ	-10.7033
▁وسائل	-10.7033
▁کاردار	-10.7037
▁جنسی	-10.7045
خان	-10.7051
▁گیٹ	-10.7055
▁توکء	-10.7057
▁دیت	-10.706
▁تکانسر	-10.706
▁ہنر	-10.7067
▁سئی	-10.7069
▁زانتء	-10.7071
▁درکپتگ	-10.7076
برے	-10.7078
▁پکرانی	-10.7084
▁حلاپ	-10.7088
▁ھلاسی	-10.709
▁بنگیجی	-10.7091
▁شگان	-10.7092
▁ہمنچو	-10.7096
▁داشتگ۔	-10.7096
▁پلگار	-10.7115
▁بستارے	-10.7126
▁She	-10.7127
▁تاکے	-10.7129
چ	-10.7129
▁E	-10.7133
اور	-10.7133
▁انسانیت	-10.7133
▁افلاطون	-10.7136
▁کامریڈ	-10.7142
▁بکار	-10.7143
▁صدیق	-10.7144
▁کمزور	-10.7144
▁لنکک	-10.7144
▁ھمل	-10.7146
▁اخلاق	-10.7151
▁مریت	-10.7153
▁فکرء	-10.7158
▁حاکمی	-10.7163
▁ھزارانی	-10.7164
▁بوجیگ	-10.7164
▁لنٹاں	-10.7173
▁تعالیٰ	-10.7174
▁کوہن	-10.7175
▁unti	-10.7176
▁کارا	-10.7178
▁دوت	-10.7179
▁مه	-10.7186
▁زگریں	-10.7186
▁کاگدے	-10.7195
▁لئیب	-10.7195
▁زاتی	-10.7197
▁بهر	-10.7198
▁سپاھی	-10.7199
▁سٹی	-10.72
▁back	-10.7201
en	-10.7216
▁شھیدانی	-10.7221
▁جیونی	-10.7223
▁کٹم	-10.7225
▁تحت	-10.7226
▁یعقوب	-10.7228
▁اسکانی	-10.7229
▁زانگء	-10.7233
▁گرنچ	-10.7234
▁شبیر	-10.7235
▁شلوار	-10.7237
ام	-10.7238
▁بجن	-10.7239
▁سنت	-10.724
▁لینگویج	-10.7244
▁دمانء	-10.7249
▁جہگیر	-10.7253
▁راستے	-10.7255
▁نماسگ	-10.7255
▁city	-10.7258
▁براہوئی	-10.726
▁چئیرمین	-10.7266
▁وپا	-10.7271
▁مشکول	-10.7285
▁same	-10.7286
▁لو	-10.7286
▁original	-10.7288
▁روت۔	-10.7288
▁گروپ	-10.729
▁روتاک	-10.729
▁12	-10.729
▁کارڈ	-10.7292
▁گیرت	-10.7296
▁تھ	-10.7298
round	-10.7308
▁منٹ	-10.7309
▁نئیکہ	-10.7309
▁ٹنگ	-10.731
▁کائنات	-10.731
▁کھولاں	-10.7322
▁w	-10.7322
▁یاتانی	-10.7326
▁لیکگ	-10.7329
▁حکمت	-10.7333
▁وراک	-10.7334
▁دئیں	-10.7334
▁نیتکگ	-10.7345
▁کارمستر	-10.7355
▁بغیر	-10.7357
▁قابل	-10.7359
▁فورسز	-10.736
▁ناشرکار	-10.736
▁شیطان	-10.7361
▁سنگین	-10.7364
▁باب	-10.7369
▁بندے	-10.7375
▁ته	-10.7376
پیش	-10.7377
▁اینکس	-10.7378
▁ستکگ	-10.7387
▁16	-10.739
▁انت۔بلے	-10.7391
▁انت۔۔۔۔	-10.7393
▁بدنء	-10.7398
▁بستارء	-10.7405
▁پھ	-10.7406
▁ڈرون	-10.7407
▁بگندے	-10.7408
▁زاہد	-10.7409
▁میتگاں	-10.7414
▁day	-10.742
▁million	-10.7421
▁نازء	-10.7428
▁گوشے	-10.743
▁people	-10.7431
▁سرباز	-10.7438
▁درکنگ	-10.744
▁شئیرء	-10.744
▁وھدا	-10.745
▁return	-10.7452
▁جلال	-10.7454
▁گاڑیاں	-10.7458
▁any	-10.7459
بر	-10.746
▁داخل	-10.746
▁ماہء	-10.7468
▁سالیں	-10.7471
▁مڑ	-10.7472
▁پٹی	-10.7479
▁قیمت	-10.7479
▁جہہ	-10.7481
▁مسعود	-10.7483
اللہ	-10.7487
▁حنیف	-10.7489
▁گوانکو	-10.749
▁چاریگ	-10.7497
▁سربازی	-10.7506
▁زانتکاریں	-10.7511
▁سواری	-10.7512
▁player	-10.7519
▁km	-10.7525
▁ٹوک	-10.7544
▁مصر	-10.7546
دے	-10.7547
▁میٹر	-10.7548
▁دابے	-10.7549
▁انگیر	-10.7555
▁راہے	-10.7555
▁بچکے	-10.7556
▁ارشکار	-10.7557
▁کاپٹر	-10.7557
▁عاجز	-10.7561
▁اسرء	-10.7566
▁مرزا	-10.7567
▁تبء	-10.7573
▁گوھر	-10.7573
▁At	-10.7577
▁ندیم	-10.7578
▁ھاں	-10.7579
▁جنجالاں	-10.7579
▁شیشگ	-10.7583
▁اسکی	-10.7585
▁قربان	-10.7585
▁They	-10.7588
▁محدود	-10.7589
▁خطرہ	-10.7591
خ	-10.7598
▁کشگء	-10.7599
▁ڈیہی	-10.7599
▁اخری	-10.7604
""	-10.7606
▁main	-10.761
مان	-10.7611
▁پجارگ	-10.7612
▁قدرت	-10.7613
▁اکرم	-10.7619
▁گوستانک	-10.762
▁ورگء	-10.7621
▁رمگ	-10.7623
▁پادا	-10.7624
▁force	-10.7626
▁کپتاں	-10.763
▁درگتء	-10.7632
اہانی	-10.7634
▁ہزاراں	-10.7635
▁پجہ	-10.7638
▁کمیونسٹ	-10.7641
▁باھوٹ	-10.7641
▁جلد	-10.7645
▁وارت۔	-10.7651
شر	-10.7657
▁زوراکیں	-10.766
▁لیڈر	-10.7665
▁؂۔	-10.7668
▁جوڑشت	-10.7683
▁باد	-10.7684
▁شا	-10.7686
▁حیثیت	-10.7687
▁جنس	-10.7687
▁ول	-10.7694
▁بلۆچ	-10.7695
▁جہاز	-10.7698
▁برائی	-10.7698
▁مردگ	-10.7703
▁how	-10.7708
▁موسیٰ	-10.7709
▁میز	-10.7711
▁ساڑا	-10.7713
▁عہدی	-10.7713
▁ششمی	-10.7714
▁عثمان	-10.7717
▁ایسا	-10.772
▁بہشت	-10.7727
▁un	-10.773
▁ازمانکاں	-10.773
▁ھشتاد	-10.773
▁کارگشاد	-10.7738
▁How	-10.7739
▁انچوشکہ	-10.7745
▁ہب	-10.7751
▁اوتاک	-10.7754
▁گواتء	-10.7758
▁اوگام	-10.7759
▁گدارء	-10.7769
▁ریپبلکن	-10.7769
▁رۆچ	-10.7769
▁الرحمن	-10.7773
▁زوان	-10.7774
▁شدت	-10.7777
▁کربان	-10.7778
▁John	-10.7782
بند	-10.7784
▁شود	-10.7786
▁ship	-10.779
▁زاہ	-10.7792
▁North	-10.7794
▁جتیں	-10.7798
''	-10.7799
▁شانگ	-10.78
▁بھت	-10.7803
▁تکاں	-10.7805
▁August	-10.7805
▁ایشیا	-10.7808
▁اییا	-10.781
▁South	-10.781
▁جمہوریت	-10.781
▁راھشون	-10.7811
▁مشک	-10.7813
▁name	-10.7813
▁دعویٰ	-10.7815
ات۔	-10.7816
▁قومانی	-10.7822
▁محکمہ	-10.7825
▁رہی	-10.7827
▁سادگیں	-10.7827
▁ڈیل	-10.7832
▁اپسر	-10.7833
▁شعراں	-10.7834
▁سہت	-10.7835
▁شرط	-10.7843
▁اولاک	-10.7843
▁گشندہ	-10.7846
▁انٹرنیٹ	-10.7848
▁دلپروش	-10.7856
▁اوداں	-10.7856
▁سرگ	-10.7858
▁کپنت	-10.7863
▁بہرء	-10.7869
▁زوراکیاں	-10.787
▁مغربی	-10.7871
▁فلم	-10.7879
▁May	-10.7879
▁down	-10.788
▁تھاری	-10.7882
▁رؤکیں	-10.7882
▁گڑاں	-10.7886
▁صلاح	-10.7886
▁پلیٹ	-10.7888
▁P	-10.7892
▁دوسرے	-10.7907
▁گوازین	-10.7907
▁زانتکارانی	-10.7909
▁releas	-10.7912
▁وڈا	-10.7925
▁دوئیناں	-10.7926
▁اہیء	-10.7932
▁دیمرئی	-10.7936
▁ادمء	-10.7938
▁سراج	-10.7941
▁حیر	-10.7942
▁کنٹ	-10.7943
▁انہیں	-10.7949
▁ارتگ	-10.795
▁لوگوں	-10.7951
▁مڈیانی	-10.7954
▁زبر	-10.7955
▁ارزی	-10.7961
▁جامگ	-10.7966
اوں	-10.7968
▁اگوں	-10.7972
▁روز	-10.7972
▁مشت	-10.7974
▁ڈگارء	-10.7976
▁کمان	-10.7977
▁پترگ	-10.7979
ھی	-10.7984
▁گالے	-10.7984
▁دلمراد	-10.7991
▁ازت	-10.7993
▁جمع	-10.7996
▁گوشتی	-10.8
▁پیرا	-10.8001
▁پریشر	-10.8001
▁یکرندے	-10.8003
▁معنی	-10.8003
▁درگتا	-10.801
▁ھؤر	-10.8019
▁رادگ	-10.802
یکے	-10.8023
▁بلاہیں	-10.803
▁17	-10.8039
▁کشتگ۔	-10.8039
▁یونٹ	-10.8044
▁مادی	-10.8047
ناں	-10.805
▁بیسہ	-10.8051
▁وئیلے	-10.8056
تاں	-10.806
▁فاضلء	-10.8061
▁تاگت	-10.8064
▁مارشتے	-10.8068
▁پیگمبر	-10.8072
▁support	-10.8073
▁زیکیں	-10.8074
▁ٹرک	-10.8077
▁دمکاں	-10.8078
▁رے	-10.808
▁رگام	-10.8081
▁جھدکار	-10.8082
▁ازباب	-10.8085
روان	-10.8086
▁سازگ	-10.8088
▁بلند	-10.8088
▁قلعہ	-10.8091
▁سوراب	-10.8091
▁٭٭	-10.8093
▁انہوں	-10.8096
▁ترسینگ	-10.8096
nother	-10.8111
▁گومازی	-10.8114
▁بانل	-10.8114
▁سوبی	-10.8115
▁لیبی	-10.8115
▁ٹیسٹ	-10.8116
▁ساچان	-10.8116
دہ	-10.8118
▁چیل	-10.8121
▁لینڈ	-10.8121
▁درکیت	-10.8122
▁حبرء	-10.8127
▁بارگیں	-10.8131
▁بلائیں	-10.8137
▁دلاں	-10.8142
▁پشتو	-10.8143
▁احتگ	-10.8148
▁جستء	-10.8148
▁بیغ	-10.8149
▁پگری	-10.8149
▁لحاظ	-10.8153
مارا	-10.8156
▁ھمرائی	-10.8158
▁نپس	-10.816
▁مہری	-10.8163
▁تمامیں	-10.8164
▁چت	-10.8167
▁شودگ	-10.8169
▁شیپ	-10.8172
▁ڈالچار	-10.8178
▁ھاموش	-10.8182
▁انتظامیہ	-10.8183
▁دارایت	-10.8184
▁مزاحمتی	-10.8189
▁کھن	-10.8203
▁جہدے	-10.8204
▁مید	-10.8211
▁مبیت	-10.8212
▁small	-10.8212
▁مسک	-10.8214
▁بوؤکیں	-10.8219
▁یکدم	-10.822
▁نفسیات	-10.822
▁lead	-10.822
▁گیجگ	-10.8229
▁ودان	-10.8236
▁لوٹوک	-10.8239
▁کماندار	-10.8247
▁قربانی	-10.8249
▁مت	-10.8251
▁بہتام	-10.8251
▁نگدی	-10.8253
▁پابند	-10.8257
▁نقش	-10.8261
▁off	-10.8261
▁ریس	-10.8264
▁ہدا	-10.8267
▁نکان	-10.8268
▁تیرانی	-10.8271
▁20	-10.828
▁life	-10.8283
▁مدان	-10.8291
▁نوجوان	-10.8291
▁اہمیت	-10.8293
▁گشنت۔	-10.8294
▁ھردوکیں	-10.8296
▁پانک	-10.83
▁سبزل	-10.8302
▁مہلوکء	-10.8304
▁بلا	-10.8308
▁بیں	-10.8309
▁اسکور	-10.831
▁سیمسری	-10.831
▁درجگ	-10.831
▁شانی	-10.8324
▁ظاھر	-10.8325
▁عہدء	-10.8326
اب	-10.8328
▁واریں	-10.8329
▁بھ	-10.833
▁شہداد	-10.8336
▁مولاداد	-10.8337
▁ریفرنس	-10.8339
ھیں	-10.8339
▁روا	-10.8342
▁روم	-10.8343
▁group	-10.8348
▁ھاس	-10.8359
▁اداں	-10.8364
▁لانگ	-10.8367
?"	-10.8367
▁لولی	-10.8367
▁سنٹ	-10.8368
▁منانک	-10.8371
▁start	-10.8373
▁نعمت	-10.8376
▁روانکے	-10.8376
▁بوتاں۔	-10.838
▁امد	-10.838
▁نبیسی	-10.838
▁ثبوت	-10.8381
▁Septe	-10.8382
▁مریم	-10.8386
وھدے	-10.8387
▁پھم	-10.8388
▁شریک	-10.839
▁حیالاں	-10.8392
▁لاچاری	-10.8397
▁پریشانی	-10.84
اہاں	-10.8402
▁ترء	-10.8405
▁دروریں	-10.8414
▁دہک	-10.8414
▁each	-10.8417
▁بین	-10.8418
▁بنء	-10.8423
▁مدینہ	-10.8423
▁توکل	-10.8427
▁مپت	-10.8437
▁ترسے	-10.8439
▁سیاستء	-10.8439
▁receiv	-10.8451
داد	-10.8452
چار	-10.8457
▁مرو	-10.8459
▁صفحہ	-10.8462
▁برتگ۔	-10.8463
▁طارق	-10.8466
▁دومیء	-10.8468
▁پگار	-10.8473
▁البتہ	-10.8475
▁تھر	-10.848
▁شناسی	-10.8483
▁امبازاں	-10.8485
▁وه	-10.8488
?’’	-10.8488
▁زانئے	-10.8492
▁کرنل	-10.8496
▁لبزے	-10.8499
▁بارگ	-10.85
▁سدکی	-10.8501
▁قحطانی	-10.8506
▁مثل	-10.8509
ber	-10.8511
▁دانشور	-10.8512
▁حل	-10.8517
▁وتئی	-10.8517
▁عطاء	-10.8522
▁ڈاہ	-10.8522
▁مزنی	-10.8525
▁اییئے	-10.8525
▁زاری	-10.8527
▁German	-10.8529
▁پرز	-10.8532
▁World	-10.8533
▁ناک	-10.8534
▁اکر	-10.8535
▁تتکگ	-10.8543
▁مقامی	-10.8547
▁لائبریری	-10.8551
▁میش	-10.8553
▁دێما	-10.8558
▁توئے	-10.856
▁ویب	-10.8561
▁بش	-10.8565
▁دریاء	-10.8565
▁شیرین	-10.8566
▁نہاد	-10.8567
▁زوران	-10.8569
▁ھائی	-10.857
▁گوار	-10.8575
بل	-10.859
▁لاشانی	-10.8593
▁سیالی	-10.8599
▁رھشونی	-10.86
▁War	-10.8603
▁ھکومت	-10.8614
▁فٹ	-10.8614
▁برباد	-10.8615
▁دمے	-10.8626
▁وسیلگ	-10.8626
▁لچھ	-10.8627
▁ہا	-10.8627
▁دزگٹ	-10.8627
ہاں	-10.863
▁ھنچشیں	-10.8632
▁15	-10.864
▁زانشتی	-10.8641
▁وال	-10.8644
رے	-10.866
▁عرض	-10.866
▁شائرے	-10.866
▁کلچر	-10.8664
▁محراب	-10.8665
▁نندیت	-10.8674
▁کبھی	-10.8677
▁سبا	-10.8681
▁سقراط	-10.8682
گاں	-10.8684
▁five	-10.8685
▁دستان	-10.8691
▁شکست	-10.8693
▁single	-10.8698
▁چریشاں	-10.8703
▁بوتہ۔	-10.8704
▁امباز	-10.8707
▁دارگی	-10.8713
▁سھیل	-10.8714
▁بچکندگ	-10.8716
▁مستی	-10.8719
▁تکنیکی	-10.8723
▁حشک	-10.8729
▁متحدہ	-10.873
▁برورد	-10.8736
▁اہان	-10.8749
▁result	-10.8757
▁پو	-10.8759
▁سہبء	-10.8766
ok	-10.8767
▁سکا	-10.8774
▁ون	-10.8774
▁اشتگ	-10.8775
▁زحم	-10.8777
▁مزدور	-10.8779
▁اپوزیشن	-10.8783
▁بزگر	-10.8784
▁کمکے	-10.879
▁گسر	-10.879
▁ڈگری	-10.8792
کم	-10.8796
▁سل	-10.8801
▁appear	-10.8804
▁نادر	-10.881
▁یکشمبے	-10.8811
▁تنکیں	-10.8816
▁سروس	-10.8818
▁پترتگ	-10.882
▁رات	-10.882
▁فٹبال	-10.8822
▁شہم	-10.8823
▁دراجی	-10.8825
▁جنگا	-10.8828
▁رضی	-10.883
▁حالے	-10.8834
▁عقلی	-10.8839
▁بھار	-10.8846
▁بنگپانی	-10.885
▁منارا	-10.885
▁یکےء	-10.885
▁کافی	-10.8854
▁اتوں	-10.8864
▁سردارانی	-10.8865
▁گپتگ۔	-10.8866
ue	-10.8867
▁ازمانء	-10.8869
▁کیلئے	-10.8869
▁کنائینتگ	-10.8873
▁اشرف	-10.8876
شت	-10.8877
▁ڈ	-10.8878
▁بوچ	-10.8882
▁ہفت	-10.8882
مرچی	-10.8884
▁ٹیکی	-10.8884
▁دارو	-10.889
▁علامت	-10.889
▁ص	-10.8897
▁رپتگ	-10.89
▁نوش	-10.89
لچہ	-10.8902
▁وداریگ	-10.8903
اشی	-10.8904
▁شہباز	-10.8908
▁Al	-10.8909
▁باقی	-10.8909
جنگ	-10.891
▁تھی۔	-10.8913
▁مڑدم	-10.8917
▁گاماں	-10.8922
ation	-10.8924
▁own	-10.8924
▁describ	-10.8928
▁دوشمبے	-10.8928
▁دیمونی	-10.8931
▁زہگاں	-10.8932
▁لگتمال	-10.8936
▁پیپلزپارٹی	-10.8938
▁جانے	-10.8938
▁ہدایت	-10.8939
▁جننت	-10.894
▁کلاسیکل	-10.894
▁حیدر	-10.8951
▁ماھی	-10.8956
یر	-10.8957
▁یقین	-10.896
▁لاھور	-10.8963
▁attack	-10.8965
▁دوستاں	-10.8966
▁کسہانی	-10.8967
▁شالء	-10.897
▁ماتے	-10.8971
▁مگرب	-10.8971
▁نازل	-10.8977
▁وراں	-10.8981
▁ایردستیں	-10.8982
▁تعلقداری	-10.8984
▁ناگت	-10.8988
▁music	-10.899
▁کنز	-10.8991
گر	-10.8994
▁مگسی	-10.8997
▁ع	-10.9005
▁پسگ	-10.9005
▁کوہانی	-10.9005
▁ھرنائی	-10.9011
▁پہمگ	-10.9011
▁بڑی	-10.9013
▁سبر	-10.9015
▁ٹپیگ	-10.9017
ایر	-10.9023
▁بکنیں	-10.9026
▁سنگے	-10.9027
▁راھی	-10.903
▁انگو	-10.9031
▁دالبندین	-10.9036
▁معنائی	-10.9039
▁طبقہ	-10.9043
▁شوق	-10.9044
▁بلڈ	-10.9053
▁انت۔ائی	-10.9056
▁سدانی	-10.906
▁گورم	-10.9061
▁گیت	-10.9062
▁سالروچ	-10.9067
▁اثرات	-10.9068
ور	-10.907
▁تحقیق	-10.9074
▁گونگیں	-10.9078
▁جے	-10.9081
▁واد	-10.9083
▁great	-10.9085
▁مکتب	-10.9085
▁داتنت	-10.909
▁کالونی	-10.9099
▁یکروچے	-10.91
▁مزل	-10.91
▁مردی	-10.9101
کل	-10.9103
▁نزیکء	-10.9106
شما	-10.9107
▁June	-10.9108
▁واہش	-10.9111
▁رئیسی	-10.9112
▁اینچک	-10.9115
▁11	-10.9118
▁کابینہ	-10.9121
▁ظہور	-10.9122
▁احسان	-10.9124
▁باھو	-10.9126
▁ورک	-10.9129
▁consider	-10.913
▁لانک	-10.9135
▁زندہ	-10.9137
▁زندمانی	-10.9142
▁گپتار	-10.9144
▁پژدرء	-10.9146
▁ادریس	-10.9148
▁رنگاں	-10.9149
▁درج	-10.9151
▁تاہیر	-10.9153
▁ہون	-10.9155
▁گپان	-10.9155
▁نشنل	-10.9158
▁پریشی	-10.916
▁ازمء	-10.916
▁کرکے	-10.9162
▁پلان	-10.917
▁Dur	-10.9174
▁بدلء	-10.9178
▁بلۆچی	-10.9179
?“	-10.9179
▁زاھد	-10.9181
▁ئت	-10.9181
▁شئیرے	-10.9189
▁وانیت	-10.9189
▁هدا	-10.9189
▁پارلیمنٹ	-10.9201
▁ملین	-10.9201
▁دورے	-10.9206
▁ترینگ	-10.9207
▁سبزی	-10.9209
▁بیزار	-10.9218
▁باں۔	-10.9219
▁انسانانی	-10.922
▁ٹو	-10.9223
▁دنیگہ	-10.9225
▁قسمت	-10.9226
▁نگن	-10.9232
▁ٹیبل	-10.9235
▁گت	-10.9236
▁point	-10.9242
▁جک	-10.9244
دور	-10.9245
▁افغان	-10.9249
▁دارے	-10.9254
▁ارزشتے	-10.9257
▁زانشی	-10.9258
▁زردیں	-10.9259
▁ھوت	-10.9259
▁بورڈ	-10.9261
▁دنیائے	-10.9264
▁ساچی	-10.9266
▁گلائیش	-10.9269
2	-10.927
▁وکٹ	-10.9272
▁کشاری	-10.9274
▁لیکہء	-10.9274
وی	-10.9281
▁مبارکیء	-10.9283
▁اگاہ	-10.9286
▁ڈیم	-10.9289
▁نفسیاتی	-10.9291
▁مہتل	-10.9292
▁الا	-10.9294
▁دیواناں	-10.9298
▁جاگھے	-10.931
u	-10.9317
▁ٹکرے	-10.9318
▁جزم	-10.9318
▁جامی	-10.9318
▁سیکیورٹی	-10.9321
▁زورء	-10.933
▁ملیر	-10.933
چم	-10.9331
▁O	-10.9333
▁دوسری	-10.9333
▁بنیاتی	-10.9333
▁order	-10.9339
▁ات۔من	-10.9342
▁یت	-10.9344
▁since	-10.9345
▁دیار	-10.9346
▁انٹرنیشنل	-10.9348
▁what	-10.935
▁ماڈل	-10.9352
▁جیسے	-10.9352
▁شوکت	-10.9352
▁ویڈیو	-10.9354
▁تراکناک	-10.9357
▁نعیم	-10.9362
▁خوش	-10.9362
▁سئیل	-10.9363
▁گاہ	-10.9366
▁پھریز	-10.937
▁تکانسری	-10.937
▁روچا	-10.9375
▁ھیالء	-10.9378
▁دیمترء	-10.938
▁رابطہ	-10.9384
▁میرو	-10.9385
▁States	-10.9387
▁ھوشاپ	-10.9388
▁برابری	-10.9388
▁بلبل	-10.939
▁نبوتگ	-10.939
▁تیرے	-10.9392
▁سنگانی	-10.9393
▁اندگہ	-10.9393
لبزانک	-10.9395
▁نوکر	-10.9406
کر	-10.9408
مزنیں	-10.9414
▁جلوہ	-10.9414
▁مرکء	-10.9415
▁جبر	-10.9426
▁سانمند	-10.9427
▁پوک	-10.9429
▁کبرستان	-10.943
▁K	-10.943
▁راجدوستی	-10.9431
▁سنگینیں	-10.9431
▁سینٹر	-10.9432
▁مسلمانانی	-10.9433
▁کلم	-10.9436
▁میانء	-10.9437
▁توری	-10.9438
▁پریدہ	-10.9443
▁شپانی	-10.9445
ایک	-10.9448
▁زاکر	-10.9449
▁بھارت	-10.9451
▁ایلیٹ	-10.9457
▁جنکاں	-10.9459
۔۔۔۔۔۔	-10.9462
▁گرند	-10.947
داریں	-10.9471
▁شو	-10.9473
▁گندء	-10.9475
بوتگ	-10.9476
بوت	-10.9476
▁گیشین	-10.9476
▁گیابان	-10.9479
▁جانء	-10.9484
▁کڑی	-10.9484
▁دودء	-10.9486
▁ایسے	-10.9489
▁ہاتھ	-10.9494
species	-10.9496
زند	-10.9503
▁روایتی	-10.9507
▁پجی	-10.9509
▁سواد	-10.9512
▁مھروان	-10.9512
▁ترگ	-10.9522
▁ساہت	-10.9523
پرچا	-10.9526
▁کوسٹ	-10.9528
▁لرز	-10.9529
▁t	-10.9532
▁رپ	-10.9533
▁ورد	-10.9538
زانت	-10.9538
▁کلو	-10.954
▁بوٹ	-10.9542
▁پارلیمانی	-10.9543
▁ھزمت	-10.9549
▁لنگ	-10.955
▁دارانی	-10.9559
▁ترسء	-10.9561
▁ماحول	-10.9566
▁کمکی	-10.9569
▁واھشت	-10.9569
▁قیامت	-10.9573
▁جنیناں	-10.9574
▁بیت۔اے	-10.9578
▁بھٹو	-10.9583
▁کماشیں	-10.9585
m	-10.9587
▁ہزدار	-10.9589
▁انفارمیشن	-10.9589
▁سگگ	-10.959
▁توم	-10.9591
▁حبیب	-10.9591
▁پیسریگیں	-10.9594
▁بچاں	-10.9595
▁لونجان	-10.9599
▁کوھلو	-10.9602
▁گاری	-10.9603
▁ریاض	-10.9603
▁ائین	-10.961
▁انت۔من	-10.9613
son	-10.9616
▁جبین	-10.962
▁جمبراں	-10.9621
▁اماں	-10.9621
▁طرز	-10.9624
▁منیت	-10.9628
▁رژنا	-10.9629
▁ہنکین	-10.963
▁رزاق	-10.9631
▁لیکھ	-10.9631
▁ہک	-10.9632
▁سگی۔	-10.9635
▁موسمانی	-10.9638
▁درنیام	-10.9639
▁state	-10.9639
▁late	-10.9641
▁نوٹ	-10.9643
▁مروارد	-10.9643
▁مکنت	-10.9644
▁تپاسگ	-10.9646
▁کستر	-10.9647
▁استت	-10.9648
▁شعبہ	-10.9649
▁پان	-10.965
▁دونوں	-10.9652
▁ڈولا	-10.9653
▁وشیانی	-10.9655
▁جسد	-10.966
!’’	-10.9661
ry	-10.9668
▁گارڈ	-10.9668
▁ھورت	-10.967
▁کتء	-10.9671
▁پجاہ	-10.9673
▁گوئشان	-10.9678
▁ھسین	-10.9691
▁یکجاھی	-10.9694
▁ونڈ	-10.9696
▁بیماری	-10.9696
▁شپانک	-10.9697
▁اسء	-10.9699
ہی	-10.9703
▁کوھاں	-10.9704
شاہ	-10.9705
▁قانود	-10.9708
▁مرکزی	-10.9709
انا	-10.971
▁دودانی	-10.9716
▁چوناہا	-10.9719
▁علاوہ	-10.9719
▁ہنداں	-10.9719
▁باتن	-10.972
▁ھورانی	-10.9725
▁line	-10.9725
▁سوبء	-10.9725
▁انتظام	-10.973
▁شوھازگ	-10.9733
▁نبشتانکاں	-10.9733
▁کانال	-10.9735
▁مراگشے	-10.9738
▁لیکہانی	-10.9739
▁بانزل	-10.9741
▁فی	-10.9741
▁گوری	-10.9747
▁جهان	-10.9747
▁ساھتے	-10.975
▁تشدد	-10.975
▁will	-10.9752
▁لاشاری	-10.9754
▁جیڑھے	-10.9761
▁بسمل	-10.9761
▁اردوء	-10.9763
▁درے	-10.9768
یگیں	-10.9771
▁اتکاں	-10.9771
▁last	-10.9771
▁پورسز	-10.9772
▁شموش	-10.9773
▁حدائی	-10.9774
چک	-10.9775
▁کوریں	-10.978
▁پورٹ	-10.9781
▁Octo	-10.9784
▁معنہ	-10.9786
▁زون	-10.9796
▁رہبندانی	-10.9797
▁یاتاں	-10.9798
▁گرگء	-10.98
▁کانودی	-10.9808
▁دگری	-10.9809
▁ایجنسی	-10.9813
▁نزء	-10.9813
▁تمنی	-10.9816
▁برء	-10.9821
▁کوچ	-10.9823
▁system	-10.9824
▁شوانگ	-10.9831
▁فیصل	-10.9832
▁بلہ	-10.9832
▁میم	-10.9851
▁بٹ	-10.9856
▁ات۔ائی	-10.9857
▁لوگبانک	-10.9858
▁دژمنی	-10.9859
▁بیچ	-10.986
▁تھام	-10.9862
▁شاہی	-10.9862
▁عابدہ	-10.9864
▁week	-10.9864
▁famil	-10.9865
▁لہتین	-10.9868
▁راضی	-10.987
منا	-10.9871
ئیگ	-10.9872
▁....	-10.9873
▁ابیتک	-10.9878
▁ھوری	-10.9882
▁دلمانگ	-10.9882
▁لاشار	-10.9885
▁چۆ	-10.9887
▁گدارے	-10.9888
▁مرگاں	-10.9889
▁ڈبہ	-10.9889
▁دھلی	-10.9892
▁اقتصادی	-10.9893
▁داشت۔	-10.9893
▁نازینک	-10.9894
گندگ	-10.9896
▁مدار	-10.9898
مات	-10.9909
▁اوتاگ	-10.9912
▁بودلئیر	-10.9914
▁مونجا	-10.9915
▁تاکانی	-10.9915
▁شالا	-10.9916
▁واھگاں	-10.9917
▁نفس	-10.9918
▁پسندیں	-10.9919
▁ھمنکس	-10.9922
▁دھکان	-10.9928
▁کاران	-10.993
علی	-10.9936
ten	-10.994
▁جاگہاں	-10.9942
rote	-10.9943
اتی	-10.9945
▁شمس	-10.9946
محمد	-10.9947
▁کسانکیں	-10.9949
گڈا	-10.9949
▁ریکانی	-10.9952
▁کیا۔	-10.9953
▁سٹ	-10.9955
▁مردک	-10.9958
▁هزار	-10.9959
▁کمرہ	-10.996
▁واجکار	-10.9961
▁ادارہاں	-10.9962
▁ایرانشھر	-10.9963
▁قریش	-10.9966
پاکستانی	-10.9968
▁چپیں	-10.9969
▁بوتنت۔	-10.997
▁اتیں۔	-10.9972
▁رفیق	-10.9974
▁جور	-10.9979
▁وہاں	-10.9988
▁وہدا	-10.9991
▁محسوس	-10.9993
▁نزام	-10.9993
▁کوشت	-10.9995
▁یہی	-10.9996
▁سازیں	-11.0004
▁ھندء	-11.0008
▁نر	-11.0008
اھانی	-11.0012
▁وزم	-11.0013
if	-11.0017
▁نعرہ	-11.0019
▁تنکہ	-11.0021
▁گڈاں	-11.0021
▁اپہ	-11.0022
▁ھوناں	-11.0026
uch	-11.0031
▁پیسرء	-11.0031
▁Ap	-11.0031
▁ہو۔	-11.0032
▁ریسرچ	-11.0032
ril	-11.0037
▁جنزگ	-11.0041
▁ادمے	-11.0054
▁شتہ	-11.0056
▁ارسطو	-11.0058
▁طلب	-11.0061
▁ایسی	-11.0063
▁world	-11.0067
ers	-11.0072
▁واجہی	-11.0075
▁رستگ۔	-11.0078
▁پے	-11.0082
▁ردانکی	-11.0082
▁ماہیگ	-11.0084
▁زہگانی	-11.0085
▁راشن	-11.0093
▁کپتگاں	-11.0093
▁پولنگ	-11.0094
▁رکین	-11.0109
▁قید	-11.011
انچو	-11.011
▁دویں	-11.011
شہ	-11.0111
▁گوارگ	-11.0111
▁رونت	-11.0111
▁کوٹیء	-11.0112
▁مٹیں	-11.0113
▁now	-11.0117
▁قد	-11.0118
▁اہت	-11.012
▁reach	-11.0123
▁گسانی	-11.0123
▁کیں	-11.0129
▁پیداوار	-11.0133
▁role	-11.0134
▁لوزانی	-11.0141
▁تئیی	-11.0146
▁اوں۔	-11.015
▁set	-11.0153
▁بچے	-11.0153
▁جوہر	-11.0154
▁تہرے	-11.0157
▁بخت	-11.0157
▁جعفر	-11.016
▁واقع	-11.0162
▁جاگہء	-11.0163
▁سپاہ	-11.0163
▁دروازگء	-11.0164
▁کپاں	-11.0169
▁ناکیں	-11.0171
▁کردء	-11.0171
▁دوستدار	-11.0174
▁مضبوط	-11.0176
▁طریقہ	-11.0177
▁ڈولء	-11.0186
▁شرت	-11.0192
▁ارٹ	-11.0197
▁پیادگ	-11.0202
▁won	-11.0203
▁سامنے	-11.0203
▁take	-11.0204
▁صوفی	-11.0206
ھا	-11.0207
▁جیڑاں	-11.0207
▁شاپ	-11.0209
▁اسکولء	-11.0215
▁بزرگ	-11.0216
▁بیورغ	-11.0217
▁منتگیں	-11.022
▁چمشانکے	-11.0221
▁چراگے	-11.0234
ton	-11.0241
بچار	-11.0241
▁نیاتکگ	-11.0243
▁خراب	-11.0244
▁باغ	-11.0258
▁گہتری	-11.026
▁صورتء	-11.0263
▁پہلی	-11.0266
▁تربیت	-11.0268
▁چکر	-11.027
▁لچ	-11.0275
۔اگاں	-11.0276
▁کسہاں	-11.0283
▁عجبیں	-11.0285
▁child	-11.0286
▁داروک	-11.0289
▁نیستی	-11.0289
▁بولی	-11.0291
اچ	-11.0292
▁ماہناز	-11.0294
▁مشرقی	-11.0299
▁تنت	-11.0301
▁قتل	-11.0301
▁بوتن	-11.0302
▁شرگداریء	-11.0312
▁بحر	-11.0313
▁همک	-11.0314
لی	-11.0316
▁ایجنٹ	-11.0319
▁home	-11.0319
زر	-11.032
▁شومیں	-11.0323
▁وابی	-11.0325
▁رپت	-11.0326
▁روشن	-11.0327
▁کسه	-11.0331
۔من	-11.0331
▁ہسپتال	-11.0332
▁چونائیا	-11.0334
▁فرد	-11.0335
▁دیوکیں	-11.0336
▁ساھتاں	-11.0336
▁روگن	-11.0337
▁ھیالے	-11.0339
▁برف	-11.0341
▁خاطر	-11.0343
▁پربند	-11.0345
▁بلی	-11.035
▁بیگواھیانی	-11.0352
▁بہادری	-11.0359
اردو	-11.036
▁بہہ	-11.037
▁افسوس	-11.0371
ork	-11.0374
▁ہمینچو	-11.0378
▁due	-11.0379
▁شاه	-11.038
▁روانی	-11.038
▁اہل	-11.0383
▁لوپ	-11.0384
▁اسکے	-11.0389
▁ژند	-11.039
▁زوراں	-11.039
▁پہریز	-11.039
▁سفرء	-11.0396
▁دیں	-11.0397
▁جائیکہ	-11.0397
▁فطرت	-11.0402
▁دروہ	-11.0403
very	-11.0405
▁وعدہ	-11.0406
▁نوری	-11.0406
▁چلیم	-11.0409
▁ساحل	-11.0412
▁نوشکے	-11.0414
▁میت	-11.0415
▁منصور	-11.0418
▁دنیایے	-11.0421
▁ارشاد	-11.0423
▁امبار	-11.0423
▁مستقبل	-11.0427
▁کسھے	-11.0428
▁بیمار	-11.0429
▁ڈولداریں	-11.0429
▁چشین	-11.0441
▁?‘‘	-11.0444
▁مسکرا	-11.0446
▁بامرد	-11.045
▁کیفیت	-11.0452
▁درساں	-11.0458
▁چاری	-11.0466
▁واز	-11.0467
▁ورلڈ	-11.0469
▁ہمت	-11.0476
▁رویہ	-11.0476
▁بوہگء	-11.0486
▁سیشن	-11.0489
▁............	-11.0489
▁تازی	-11.0493
▁death	-11.0496
▁اسلوب	-11.0497
▁جبران	-11.0504
▁بالگرد	-11.0506
▁درورے	-11.051
▁گپتہ	-11.051
▁سرپ	-11.0513
▁بیاریت	-11.0514
▁allow	-11.0517
▁اؤٹ	-11.0522
▁ق	-11.0523
▁مقبول	-11.0528
▁ایریں	-11.0528
▁پیغام	-11.0528
گا	-11.0529
▁شرم	-11.0529
▁لائق	-11.053
گے	-11.0531
▁عبدالواحد	-11.0532
▁همراه	-11.0532
▁ڈوک	-11.0533
▁غماں	-11.0534
▁اصغر	-11.0537
▁صائمہ	-11.0542
▁ناولٹ	-11.0544
▁ٹوپ	-11.0552
کجام	-11.0553
وا	-11.0554
▁انچۆ	-11.0555
▁سردی	-11.0558
▁اناگت	-11.0561
▁direct	-11.0562
▁دہکان	-11.0563
▁تیابدپ	-11.0565
▁نگور	-11.0566
▁وهدا	-11.0567
▁اسپتال	-11.0568
اھاں	-11.0572
▁ناگیگ	-11.0572
▁سرداری	-11.0578
▁نگیگیں	-11.058
▁کبول	-11.0582
▁نبشتانکانی	-11.0586
▁سوچگ	-11.0586
.“	-11.0587
▁داخلہ	-11.0588
▁ہژدری	-11.0588
▁سوری	-11.0591
▁تخت	-11.0591
▁زانتکاراں	-11.0592
▁بیتگین	-11.0593
▁نرمیں	-11.0595
▁فرض	-11.0598
▁راہی	-11.0599
▁ابراہیم	-11.0603
▁ساچگ	-11.0603
▁رشتگ	-11.0604
▁اتا	-11.0608
▁تحفظ	-11.0609
▁کسب	-11.0609
▁سینگار	-11.061
▁کلومیٹر	-11.061
ادا	-11.0614
▁فری	-11.0624
▁بوگا	-11.0626
▁ختم	-11.0627
▁سدل	-11.0627
ارا	-11.0634
▁head	-11.0638
کسہ	-11.0639
▁Janu	-11.0641
منء	-11.0641
▁included	-11.0641
▁پورہ	-11.0642
▁سینیٹ	-11.0644
▁اهاں	-11.0646
▁پبلی	-11.0649
▁پرست	-11.0649
▁صالح	-11.065
▁اتحاد	-11.0651
▁مرکز	-11.0652
▁عمرء	-11.0653
▁کنائینت	-11.0655
▁انشپی	-11.0655
ازم	-11.0655
▁فرمان	-11.0659
▁پجارینگ	-11.066
▁اولاد	-11.0662
▁کیف	-11.0664
▁لالچ	-11.0665
▁storm	-11.0668
گوش	-11.067
▁اسانی	-11.0671
▁معیشت	-11.0672
▁مھلوکء	-11.0672
▁نشتہ	-11.0673
▁سہیل	-11.0674
▁علت	-11.068
▁گھتر	-11.0681
▁ونگ	-11.0681
▁روتگ	-11.0684
▁سپریم	-11.0685
▁کشتگیں	-11.0685
▁جاتے	-11.0689
▁اوت	-11.0693
▁six	-11.0695
▁کہتے	-11.0696
▁سروکاں	-11.0697
ھچ	-11.0698
▁بادشاہی	-11.0699
▁کلاگ	-11.07
▁سبارگ	-11.0703
▁اؤ	-11.0706
▁کرمان	-11.0706
▁ماسی	-11.0707
▁گین	-11.0709
▁left	-11.0711
▁سادگ	-11.0711
▁غلامی	-11.0713
▁لوار	-11.0714
▁شیرکنیں	-11.0714
▁کارستے	-11.0718
▁ہاران	-11.0722
▁دینت۔	-11.0722
▁پھازگی	-11.0723
▁اش۔	-11.0724
▁معیار	-11.0728
▁صباء	-11.073
▁سرپدیں	-11.0731
▁ٹل	-11.0733
▁عراق	-11.0739
▁England	-11.0739
▁government	-11.074
▁شادی	-11.0742
▁دام	-11.0744
کاری	-11.0745
▁ھمینچو	-11.075
▁افسانہ	-11.0752
▁زرداری	-11.0755
▁دئیگا	-11.0771
▁دید	-11.0772
▁وانندگ	-11.0773
▁گندان	-11.0777
▁درہیں	-11.0777
▁سوگہ	-11.0777
▁شموشگ	-11.078
▁کلک	-11.0786
▁ڈولداری	-11.0786
▁نگاری	-11.0786
▁لگیت	-11.0788
▁شونگال	-11.0793
▁video	-11.0798
▁چکا	-11.0805
h	-11.0806
▁ھپتگے	-11.0811
▁include	-11.0812
▁کوم	-11.0813
▁جئیند	-11.0813
▁position	-11.0814
▁بیہار	-11.0814
▁سیدء	-11.0823
▁لیا	-11.0827
▁L	-11.0828
▁عملء	-11.0828
▁۔ھمیش	-11.0829
▁ماریت	-11.083
▁وغیرہ	-11.083
▁اسودگی	-11.083
▁ھنی	-11.083
▁پلک	-11.0833
▁نھاد	-11.0833
▁شی	-11.0834
▁ھمیشانی	-11.0834
▁دوہمی	-11.0838
▁تھاریں	-11.0843
▁کارندھے	-11.0844
▁الفاظ	-11.0845
▁ھمراھاں	-11.0846
▁قانونی	-11.0852
▁بڑے	-11.0858
▁کورونا	-11.0859
ese	-11.0861
▁اوارجنی	-11.0866
▁گرپتار	-11.0869
▁گرماگ	-11.0874
▁لزت	-11.0875
▁ملافاضل	-11.0876
▁قومے	-11.0877
▁جذبہ	-11.0878
▁ارسانی	-11.0879
▁30	-11.0883
▁شلی	-11.0885
▁attempt	-11.0886
▁اشان	-11.0887
ہو	-11.0889
▁ڈان	-11.089
▁سسی	-11.0892
▁گداں	-11.0894
▁افیسر	-11.0897
▁خرچ	-11.0901
▁March	-11.0902
▁موقع	-11.0905
▁بچاریں	-11.0906
▁پائپ	-11.091
▁فیس	-11.0911
▁جتک	-11.0915
▁چیلنج	-11.0918
▁ائ	-11.0918
▁ماھکان	-11.0919
▁ازل	-11.092
▁ابیتکی	-11.0923
▁کنڈے	-11.0923
▁عیسوی	-11.0924
▁کرز	-11.0928
▁ڈائریکٹر	-11.0931
▁انجمن	-11.0931
▁جتہ	-11.0935
▁اژدری	-11.0938
▁general	-11.0948
▁موسمی	-11.0948
▁چارء	-11.0953
▁نمونگ	-11.0953
▁war	-11.0956
▁پروری	-11.0957
▁بیث	-11.0959
▁زرت۔	-11.096
▁گردش	-11.0962
▁خ	-11.0966
▁ارداد	-11.0967
","","","","","	-11.0971
▁دریگتیں	-11.0973
▁مکمل	-11.0976
▁منیرء	-11.0981
▁گورکی	-11.0984
▁میزائل	-11.0985
▁کاریت۔	-11.0988
▁گندگا	-11.0988
ایش	-11.0989
▁third	-11.099
▁کرے	-11.0992
زور	-11.0993
▁قرن	-11.0994
▁گراناز	-11.0996
▁ھل	-11.0997
▁سستگیں	-11.0997
▁ھیلی	-11.0998
▁پیشرد	-11.0999
▁پجاروکی	-11.1
▁شیہک	-11.1001
▁دمگے	-11.1002
▁بیڑبرتگ	-11.1005
▁ایڈوکیٹ	-11.1005
▁چدء	-11.1007
▁اہد	-11.101
▁مشن	-11.1013
کتاب	-11.102
▁ھمگرنچیں	-11.1025
▁پانکجن	-11.1027
▁short	-11.1028
▁کشکء	-11.1029
▁نل	-11.103
▁تسلا	-11.103
▁اقوام	-11.1034
▁سرچمگ	-11.1035
▁بھائی	-11.1036
▁شعوری	-11.1037
▁کارروائی	-11.1042
▁بیگواه	-11.1043
▁ھالے	-11.1046
▁ست	-11.1048
▁ھاش	-11.105
▁شنک	-11.1051
▁ھبرء	-11.1054
▁الکاپیں	-11.1058
مرگ	-11.1059
▁انت۔۔	-11.106
▁دئور	-11.1064
▁تعریف	-11.1066
▁ٹکرء	-11.1068
▁کرتی	-11.1077
▁13	-11.1079
▁اہمیں	-11.1081
▁پلگ	-11.1084
▁انگریزانی	-11.1087
▁پیسرگیں	-11.1091
▁ستکگیں	-11.1092
▁خدمت	-11.1098
▁خاموش	-11.1098
▁قمبرانی	-11.1101
▁قدم	-11.1101
ھمیش	-11.1104
▁games	-11.1104
▁میا	-11.1106
▁بیتاں	-11.1108
▁عوام	-11.1117
▁ناما	-11.1121
▁ترمپے	-11.1122
▁ہیر	-11.1123
▁مدد	-11.1124
▁become	-11.1124
▁previous	-11.1124
▁پھناتاں	-11.1124
▁مھراب	-11.1127
▁پیلوی	-11.1127
▁No	-11.1127
▁نزان	-11.1134
▁Nove	-11.1135
▁ھرچیز	-11.1136
▁north	-11.1137
▁شپی	-11.1139
▁عکسے	-11.1143
▁سائیکل	-11.1146
▁ڈیپارٹمنٹ	-11.1148
▁سروکانی	-11.1148
▁کردی	-11.1151
▁چیخوف	-11.1153
▁بیتگاں	-11.1156
▁اجتماعی	-11.1158
▁شھراں	-11.116
▁وڑےء	-11.116
▁شیوار	-11.1161
▁گواتے	-11.1169
▁کنٹگ	-11.117
▁اجب	-11.1171
▁بارت۔	-11.1174
▁بڑا	-11.1175
▁پولکار	-11.1177
کراچی	-11.1178
▁شگر	-11.1179
ment	-11.1179
کتگ	-11.1179
▁پیروک	-11.118
وکین	-11.1182
▁جگہ	-11.1183
▁اھان	-11.1184
▁ملاقات	-11.1184
▁باسکے	-11.119
▁ہساب	-11.1198
▁جاورھال	-11.1198
▁جنوکیں	-11.1199
▁نیاز	-11.1203
▁سارتر	-11.1206
▁ٹ	-11.1208
▁ہمارے	-11.1209
▁ملتان	-11.1209
▁ھمبل	-11.121
▁گڈسرء	-11.1214
▁ماندارگ	-11.1218
▁پرچی	-11.1219
یل	-11.1222
▁شاریء	-11.1224
▁دلجمیں	-11.1226
▁الہان	-11.1228
▁ترتیب	-11.123
▁design	-11.1235
▁لشکرکشی	-11.1236
▁پریاتاں	-11.1238
▁اھوالکارانی	-11.124
▁گواز	-11.1245
▁حرام	-11.1252
▁ترسناکیں	-11.1253
▁موضوع	-11.1255
▁گہہ	-11.1256
▁release	-11.1261
▁وبا	-11.1261
▁اڑاند	-11.1263
▁پارک	-11.1264
▁رومن	-11.1266
▁چدا	-11.1269
▁رشتہ	-11.1272
▁یاسر	-11.1272
▁دھک	-11.1273
ماہتاک	-11.1273
▁یدار	-11.1273
▁چارگی	-11.1274
▁کیمرہ	-11.1274
▁school	-11.1277
▁open	-11.1278
▁رمب	-11.1281
▁اتکہ	-11.1282
▁حیالے	-11.1282
▁سلاھانی	-11.1285
▁نقل	-11.1286
جو	-11.1289
▁نزیر	-11.129
▁نوروز	-11.1291
▁ناجوڑی	-11.1301
▁دینا	-11.1307
▁جاپان	-11.1315
▁ارزانیں	-11.1315
گوشت	-11.1316
▁زمانگاں	-11.1316
▁سکندر	-11.1317
▁چرس	-11.1321
▁نمب	-11.1323
▁فراہم	-11.1323
▁بنگالی	-11.1325
▁بالگتر	-11.1327
▁دکی	-11.1328
▁Dece	-11.1338
وہدے	-11.1341
ren	-11.1342
▁ایراں	-11.1346
▁وتاک	-11.1347
▁do	-11.1348
▁تہنائی	-11.1355
▁بلوچوں	-11.1356
▁مطالعہ	-11.1359
رند	-11.1368
▁W	-11.137
▁14	-11.1372
▁سربوتگ	-11.1373
▁کساں	-11.1376
شاعری	-11.1377
▁ایدگرانی	-11.1378
▁یکمی	-11.1379
▁ہمراہیء	-11.1379
▁بھشت	-11.1387
▁ادمانی	-11.1389
▁bas	-11.1389
▁نسیب	-11.1391
▁سلطنت	-11.1392
کاں	-11.1394
▁ترو	-11.1407
▁اھم	-11.1407
▁جنکو	-11.1411
▁انٹر	-11.1412
چشکہ	-11.1413
▁مرداں	-11.1415
▁پکیر	-11.1419
▁south	-11.1422
▁major	-11.1424
▁اپے	-11.1427
▁کرتیں	-11.1427
▁کندیل	-11.1428
▁شیرانی	-11.1429
▁کافر	-11.1431
▁نتیجہ	-11.1435
▁داگ	-11.1436
▁title	-11.1439
▁حدیث	-11.1441
▁جہ	-11.1443
▁Man	-11.1443
▁وھدئے	-11.1443
▁هور	-11.1447
▁go	-11.1448
▁اسن	-11.145
▁جہمنند	-11.1455
▁men	-11.1459
▁ملامتی	-11.1461
▁وزارت	-11.1468
▁میتگانی	-11.1468
▁سجدہ	-11.148
▁جوریں	-11.1482
▁رنگانی	-11.1482
[	-11.1488
▁His	-11.1492
▁صنعتی	-11.1493
▁بابو	-11.1494
▁افراد	-11.1495
▁ودارء	-11.1499
▁develop	-11.1504
▁تنظیم	-11.1504
▁جتاھیں	-11.1504
▁character	-11.1505
▁شاتکامی	-11.1506
▁تباہی	-11.1507
▁perform	-11.1508
▁وسیم	-11.151
▁ئنت	-11.1512
▁نگار	-11.1516
▁لیکہی	-11.1516
▁دہمی	-11.1517
▁واجہء	-11.1518
▁زامات	-11.1521
▁جانب	-11.1523
▁کیو	-11.1524
▁روبرکتی	-11.1526
▁پجا	-11.1526
▁اوشتاتگیں	-11.1527
▁سپاھیگ	-11.1528
▁فدائی	-11.153
▁کندگے	-11.1532
▁دوزہ	-11.1533
▁زندانی	-11.1537
▁شہیدانی	-11.1539
▁پچار	-11.1541
▁یونس	-11.1545
▁کتار	-11.1547
▁پہریزگ	-11.1548
باریں	-11.155
ست	-11.1554
▁کہتا	-11.1554
▁رھبندے	-11.1557
▁City	-11.1557
▁مضمون	-11.1557
▁شناخت	-11.1559
▁ھیالداری	-11.1561
▁ہواں	-11.1562
▁پھازگ	-11.1564
▁گندیم	-11.1568
▁افریقہ	-11.1572
▁مالوم	-11.1573
راہ	-11.1574
▁ارد	-11.1577
▁book	-11.1579
▁just	-11.1583
▁شوکیں	-11.1585
▁گولہ	-11.1585
▁اتکگاں	-11.1585
▁دژمناں	-11.1597
▁بیغ۔	-11.1599
▁پرنگی	-11.16
▁طالب	-11.16
▁اوشتیت	-11.1607
▁چاگی	-11.1607
ند	-11.1611
▁جدا	-11.1613
▁ہاتر	-11.1616
▁ششت	-11.1619
▁buil	-11.1619
▁چارگا	-11.1625
▁کان	-11.1627
▁Jul	-11.163
▁شونکار	-11.1631
▁بوئگء	-11.1638
▁راھبندانی	-11.164
▁حشکیں	-11.164
▁ات۔اے	-11.1641
▁ٹیکس	-11.1641
▁استانی	-11.1643
▁وپسگ	-11.1643
▁دیمے	-11.1646
▁دێم	-11.1647
▁باوری	-11.1651
▁باقاعدہ	-11.1652
▁برتانیہ	-11.1653
▁گوشگء	-11.1655
▁ھالاں	-11.1657
▁نبوت	-11.1659
▁سخت	-11.1661
▁مھتر	-11.1661
▁علاقے	-11.1668
▁سبق	-11.1675
▁سیائیں	-11.1681
▁حاص	-11.1682
▁پشدر	-11.1682
▁سندی	-11.1685
▁make	-11.1687
▁باہوٹ	-11.1688
▁پث	-11.1689
▁نشتگاں	-11.1689
▁water	-11.1692
▁تکلیف	-11.1694
غیں	-11.1695
▁best	-11.1695
▁ماتانی	-11.1696
▁When	-11.1699
▁month	-11.1699
پت	-11.17
▁شھیدی	-11.1701
▁لیاقت	-11.1702
▁By	-11.1705
▁رود	-11.1712
▁اسرے	-11.1714
▁فورس	-11.1714
▁دکانے	-11.1714
▁اسک	-11.1715
▁۔چہ	-11.1715
یئ	-11.1716
▁version	-11.1716
▁ھاموشی	-11.1718
▁بلوچانء	-11.1723
چاگردی	-11.1723
انکہ	-11.1723
▁سلکاری	-11.1723
▁ھبراں	-11.1727
▁چراغ	-11.1727
▁publish	-11.1729
▁بلاہ	-11.1729
▁سویڈن	-11.1733
▁االله	-11.1736
▁مزاج	-11.1737
▁جنزء	-11.1739
▁بستہ	-11.1741
▁اێر	-11.1742
▁وڈھ	-11.1747
▁پبلک	-11.175
▁گامے	-11.1751
▁کدیر	-11.1752
▁مارے	-11.1752
▁پیشگال	-11.1759
▁تاوانے	-11.1763
▁مزاری	-11.1764
▁چنڈے	-11.1768
▁بودشت	-11.1768
▁کلکشان	-11.1769
ہے	-11.177
▁کنگے	-11.177
▁ضرور	-11.1772
وہ	-11.1773
▁بروبر	-11.1776
▁II	-11.1781
▁کوه	-11.1784
▁برادری	-11.1785
▁پدردی	-11.1785
▁نبشتکار	-11.1786
▁لیلو	-11.1787
▁واکاں	-11.179
▁ملٹ	-11.1796
▁باوجود	-11.1797
▁ھروھد	-11.1798
▁کالم	-11.1802
▁اغا	-11.1803
▁روژنا	-11.1805
▁ترینتگ	-11.1805
▁اپاں	-11.181
▁پیماز	-11.1814
▁پرسی	-11.1816
▁دربرتگ	-11.1819
▁حالاں	-11.1819
▁تواراں	-11.1819
▁All	-11.1822
▁ناسر	-11.1826
▁period	-11.1827
▁بارکھان	-11.1829
▁بوتیں۔	-11.1829
▁زرکاری	-11.1831
▁ڪت	-11.1833
▁اگ	-11.1835
انے	-11.1836
▁وارس	-11.1838
▁There	-11.1838
▁بچکندے	-11.184
▁کریں	-11.1841
▁گیا۔	-11.1842
▁بادشاه	-11.1847
▁رازی	-11.1848
▁قریب	-11.185
▁اصول	-11.185
▁نابود	-11.1851
▁تیراں	-11.1851
▁continu	-11.1859
▁2009	-11.186
▁سمیر	-11.1865
▁!!	-11.187
▁دیگا	-11.187
▁غیرت	-11.1871
▁وشیاں	-11.1875
▁2010	-11.1877
▁اوستا	-11.1879
▁گشتن	-11.188
▁جنے	-11.188
▁مشکلیں	-11.1882
زئی	-11.1883
▁way	-11.1883
▁زانگی	-11.1886
▁حر	-11.1889
▁شہرے	-11.1891
▁local	-11.1891
▁تحصیلدار	-11.1894
که	-11.1897
▁جانا	-11.1899
▁۔بلئے	-11.1905
▁حکومتی	-11.1905
▁شوم	-11.1905
▁تجارت	-11.1906
▁درصد	-11.1907
۔ھمے	-11.1908
▁دارء	-11.1908
▁ایوان	-11.1908
▁کیلو	-11.1919
▁2008	-11.1926
▁National	-11.1926
▁دوسد	-11.1927
▁جلسہ	-11.1928
▁اختلاف	-11.1933
▁گساں	-11.1936
▁واشک	-11.1938
▁شتگ۔	-11.1943
ڑی	-11.1945
▁ٹپانی	-11.195
▁اھدی	-11.1954
▁جہاندپتر	-11.1958
▁چکی	-11.1961
▁ڈگاراں	-11.1966
▁جمہوری	-11.1966
▁شاھد	-11.1968
▁سھت	-11.1971
▁جھدے	-11.1973
▁بکن۔	-11.1974
▁ھمت	-11.1975
▁even	-11.1977
▁تھار	-11.1981
▁مستری	-11.1994
▁وانان	-11.2
▁نین	-11.2001
▁عنقا	-11.2001
▁اگہی	-11.2003
▁ھکل	-11.2004
▁جادو	-11.2005
▁دیست۔	-11.2006
▁کشا	-11.2013
▁واھگے	-11.2015
▁River	-11.2017
▁ارجان	-11.2018
کنوکیں	-11.202
▁سرہال	-11.2023
▁لوٹیں	-11.2027
▁تجزیہ	-11.2027
ڑ	-11.2028
▁کنغ۔	-11.2029
▁گوانزگ	-11.203
▁دراھگ	-11.2031
▁ریڈ	-11.2034
▁انگ	-11.2036
▁اگرچہ	-11.2041
▁سیکریٹری	-11.2041
▁کردانی	-11.2042
▁ائر	-11.2046
▁ملی	-11.2046
▁برواں	-11.2048
▁سوز	-11.205
▁ملازم	-11.205
ty	-11.2054
▁25	-11.2055
▁کاسگ	-11.2057
▁واپس	-11.2057
▁سیاستدان	-11.206
لا	-11.2064
▁ڈولے	-11.207
▁ہمدردی	-11.2073
شریں	-11.2081
پمیشا	-11.2082
▁بابل	-11.2085
▁بندان	-11.2086
▁روگا	-11.2086
▁سادہ	-11.2088
▁nam	-11.2089
▁حالات	-11.209
▁کونڈ	-11.2091
▁مہکمیں	-11.2092
▁تبد	-11.2092
▁شیرکنی	-11.2098
▁ٹوہیں	-11.2099
▁زورگء	-11.21
▁حبراں	-11.2102
▁مچکدگ	-11.2104
▁club	-11.2107
▁دئیگء	-11.211
▁اوکیں	-11.2116
▁رستر	-11.2118
▁مڑاہ	-11.2119
▁ھسابء	-11.2121
▁ناکام	-11.2127
▁بیلہ	-11.2129
▁گا۔	-11.2129
▁وڑی	-11.2132
▁کبل	-11.2134
▁ریچگ	-11.2136
▁سیف	-11.2144
▁زنڈ	-11.2146
▁درکپگ	-11.2151
▁اجبیں	-11.2153
▁پشین	-11.2155
▁دربرجاہ	-11.2157
▁الرحمان	-11.2158
▁باران	-11.2162
ive	-11.2166
▁شنگکار	-11.217
▁سرور	-11.217
▁کیشنز	-11.2175
ائرا	-11.218
▁میانجی	-11.2187
▁شهر	-11.2192
▁شرین	-11.2193
▁کیونکہ	-11.2193
▁public	-11.2194
▁بوئگا	-11.2206
▁اکسیجن	-11.2208
ness	-11.2215
▁ہانی	-11.2216
▁لطیف	-11.2221
‘‘,’’	-11.2221
▁لهتے	-11.2226
▁ھرابیں	-11.223
تاریخ	-11.223
▁امکان	-11.2233
▁ورگی	-11.2233
▁وتیگ	-11.2237
▁زانا	-11.2239
▁راسک	-11.224
▁establish	-11.2241
▁اندوہ	-11.2241
▁جنیانی	-11.2242
▁کنئگی	-11.2245
▁سرگرمی	-11.2246
▁گالرد	-11.225
ایشانی	-11.225
▁ہمیں	-11.225
▁Be	-11.2251
▁رژنائیں	-11.2251
▁ابدمان	-11.2252
▁وانوکانی	-11.2255
▁تبیں	-11.2257
▁بوھان	-11.2261
▁امیتے	-11.2262
▁دیوالانی	-11.2262
▁پیرزال	-11.2269
▁کمزوری	-11.227
▁بداریت	-11.227
▁گڈسرا	-11.227
▁still	-11.2276
▁روئگ	-11.2276
▁چیدگی	-11.2277
▁ایسوسی	-11.2277
▁درویش	-11.2279
▁زانتے	-11.2283
▁درنگ	-11.2288
▁وانندگیں	-11.2289
▁زندگاں	-11.2289
▁درائینت۔	-11.229
▁نفسی	-11.2291
▁لاف	-11.2293
▁پرش	-11.2293
▁منگچر	-11.2293
▁نپاد	-11.2296
▁ماسء	-11.2296
کسے	-11.2297
▁وپس	-11.2305
▁یڪ	-11.2307
...............	-11.2308
▁مردیں	-11.231
▁گردگ	-11.2313
▁گوشی	-11.2315
▁بنداتء	-11.2318
▁دیستگیں	-11.2319
▁قومء	-11.2322
▁گلاس	-11.2326
▁کتہ۔	-11.2328
▁feature	-11.2329
▁وانگا	-11.2332
▁گشیت۔	-11.2334
▁جاھمنند	-11.2334
▁انتظامی	-11.2335
▁ساه	-11.2335
▁ذاتء	-11.2336
▁شوہازگ	-11.2336
▁طوفان	-11.2338
▁ھبدہ	-11.2338
▁تھنائی	-11.234
▁لہڑ	-11.2341
▁قیمتی	-11.2343
▁career	-11.2344
رو	-11.2344
راست	-11.2345
▁دلیری	-11.2348
تیں	-11.2349
▁بلیک	-11.2353
▁کانٹ	-11.2354
▁اکسے	-11.2357
▁تجربگ	-11.2358
ماہ	-11.2358
▁history	-11.236
▁دپا	-11.2363
نیں	-11.2364
▁برگء	-11.2364
▁مستاگ	-11.2365
▁زوراور	-11.2367
▁ھردیں	-11.2369
▁ایشن	-11.237
▁گلباگ	-11.2375
▁common	-11.2377
▁لڈگ	-11.2378
▁بندن	-11.2378
▁بئے۔	-11.238
▁اسپیکر	-11.238
▁نقطہ	-11.2391
▁شیدا	-11.2401
▁اگے	-11.2402
▁رؤ	-11.2402
▁جوزگ	-11.2404
▁St	-11.2408
▁چھر	-11.2409
▁زنداناں	-11.2418
▁مہلہ	-11.2418
▁جمپ	-11.2419
▁شهید	-11.242
▁مٹی	-11.2429
▁اسودگ	-11.2429
▁ایدگراں	-11.2433
▁نیکراہ	-11.2434
▁گشتے	-11.2434
▁پروجیکٹ	-11.2436
▁اعتبار	-11.2438
▁دوستیگیں	-11.2443
▁لہڑگ	-11.2443
▁غصہ	-11.2447
▁زمیندار	-11.245
▁اریپیں	-11.2451
▁مندر	-11.2452
▁شائرانی	-11.2457
▁امبر	-11.2458
▁کورس	-11.2459
▁ادراک	-11.2464
▁لاپء	-11.2464
▁چری	-11.2464
▁اساپ	-11.2466
▁اسٹیٹس	-11.2466
▁پلنگ	-11.2466
▁رودراتک	-11.2467
▁گنجائش	-11.2468
▁مدرسہ	-11.2469
▁گجر	-11.247
▁میرا	-11.2471
▁بلین	-11.2472
ێا	-11.2475
▁تنگی	-11.2478
▁ڈنگ	-11.2479
▁لیکہے	-11.2481
▁ھجبر	-11.2482
▁led	-11.2486
▁گشیں	-11.2486
▁شکایت	-11.2489
▁گشگء	-11.2489
▁پنچیں	-11.249
▁۔۔۔۔۔۔	-11.2494
▁دیکھا	-11.2494
▁واناں	-11.2494
▁often	-11.2497
▁کنین	-11.2498
▁جۆڑ	-11.2499
▁سکھت	-11.2499
▁منشیات	-11.25
▁100	-11.2501
▁بیت۔۔۔	-11.2501
▁present	-11.2503
▁دارنت	-11.2503
▁ابدال	-11.2504
▁سھیگ	-11.2504
▁وتکش	-11.2506
uent	-11.2507
▁old	-11.2509
▁الگ	-11.2509
▁شادء	-11.251
▁بلۆچانی	-11.2512
▁نبشت	-11.2516
▁b	-11.2516
کئے	-11.252
▁کلان	-11.2524
▁site	-11.2527
▁دوراں	-11.2528
▁حقیقی	-11.2531
▁برت۔	-11.2532
▁وسیں	-11.2533
▁گہ	-11.2534
▁دوستانی	-11.2538
▁An	-11.2541
▁top	-11.255
▁حیا	-11.255
▁سلسلہ	-11.2553
▁اسسٹنٹ	-11.2553
▁پرکار	-11.2556
▁سجہیں	-11.2557
▁دزاپ	-11.2558
▁ویکسین	-11.2558
▁اھی	-11.2559
▁بکننت	-11.2561
▁پرتو	-11.2561
▁زہ	-11.2563
▁ازیز	-11.2564
▁ھلکء	-11.2564
▁محل	-11.2572
▁گڈگ	-11.2572
▁side	-11.2572
▁ھدایت	-11.2577
▁رائے	-11.2577
▁تہران	-11.258
▁کرتاں	-11.2581
▁چتو	-11.2582
▁اسرار	-11.2583
▁دیرء	-11.2586
▁میاریگ	-11.2586
▁دوبارہ	-11.2588
پاکستان	-11.2602
▁مہے	-11.2608
▁گولی	-11.2613
جن	-11.2614
▁رئیسانی	-11.2629
▁few	-11.2637
▁درنیامء	-11.2638
▁سکتا	-11.2639
▁رویں	-11.264
گء	-11.2642
▁کاریز	-11.2643
▁di	-11.2644
انسان	-11.2645
▁کرکٹ	-11.2647
▁ملنگ	-11.2648
▁بول	-11.2649
▁ھچی	-11.2649
▁شاعریئ	-11.2651
▁نیاتک	-11.2651
▁ھردوک	-11.2653
▁رمزان	-11.2653
▁ہچی	-11.2654
company	-11.2655
▁سلیں	-11.2659
▁رمس	-11.2659
▁کسہے	-11.2662
▁رھبنداں	-11.2664
▁One	-11.2664
▁list	-11.2665
▁ھید	-11.267
▁شریء	-11.2671
▁روچان	-11.2672
▁ٹوئٹر	-11.2673
▁جرنیل	-11.2674
▁ثواب	-11.2675
▁فوجء	-11.2676
▁جرگہ	-11.2676
▁نگر	-11.2679
▁کینگی	-11.268
▁مڑد	-11.2683
▁طاقتور	-11.2686
▁نفرت	-11.2687
▁ساوڑ	-11.2687
▁next	-11.269
▁2007	-11.269
▁درستی	-11.269
▁اشکر	-11.2694
▁رحمان	-11.2694
واب	-11.2694
کوئٹہ	-11.2694
▁پکری	-11.2699
▁مارکسی	-11.2701
▁چکار	-11.2701
▁دودمانی	-11.2709
▁ائولی	-11.271
▁پہلو	-11.2712
▁سرئے	-11.2715
▁دامگ	-11.2715
▁ایردست	-11.2718
▁کنڈگ	-11.2718
▁شناس	-11.2719
▁پمے	-11.272
▁وشتر	-11.2721
فارسی	-11.2721
▁ھرابی	-11.2725
▁شئیری	-11.2738
▁دیستگ۔	-11.2741
▁help	-11.2743
▁وومن	-11.2743
▁اجوئیں	-11.2744
▁ھاجی	-11.2746
▁رنگےء	-11.2751
▁سھرا	-11.2752
▁یلیں	-11.2755
▁arm	-11.2756
▁حالتاک	-11.2759
▁بتی	-11.276
▁English	-11.2761
▁کافکا	-11.2761
▁سگار	-11.2761
▁جنگلے	-11.2762
▁بگندات	-11.2762
▁دروشماں	-11.2764
▁building	-11.2765
▁نگرانی	-11.2767
▁حالی	-11.277
▁بیمناکیں	-11.2777
▁کوھنگیں	-11.2783
ڈی	-11.2784
کش	-11.2784
▁ھاوند	-11.2786
▁کران	-11.2787
▁یاسین	-11.279
▁برزا	-11.279
▁نازرک	-11.2791
▁اجکہ	-11.2791
▁French	-11.2797
يں	-11.2798
▁لائک	-11.2798
ہچ	-11.2801
شرگداری	-11.2801
▁بارہء	-11.2801
▁ھبکہ	-11.2802
▁بیگل	-11.2804
▁ح	-11.2807
▁سدک	-11.2808
▁منظر	-11.2809
▁درھیں	-11.281
▁گوشانی	-11.2812
▁جھدء	-11.2812
▁ملام	-11.2813
▁similar	-11.2814
▁تھیوری	-11.2817
▁عیسائی	-11.2819
▁گوشتن	-11.282
▁گوشتہ	-11.282
▁ارگء	-11.2827
▁سربوت	-11.2832
▁بساک	-11.284
▁حالء	-11.284
▁حدے	-11.285
▁گالی	-11.285
▁تہرء	-11.2851
▁ھج	-11.2852
▁سرینت	-11.286
▁متعلق	-11.2862
▁گوہار	-11.2863
▁مج	-11.2866
▁دومیگ	-11.287
▁یوک	-11.287
▁بادشاھی	-11.2871
▁اند	-11.2876
▁سوزیں	-11.2879
▁لالہ	-11.2879
▁ردیت	-11.288
▁سروز	-11.2882
وز	-11.2885
▁بریگیڈ	-11.2886
▁بعض	-11.2889
▁کارئے	-11.289
▁چتگ	-11.289
▁مرادانی	-11.2891
▁دوستے	-11.2896
مروچی	-11.2897
▁سرئ	-11.2898
▁ھاکمی	-11.2904
▁مخلوق	-11.2905
▁ساحلی	-11.2906
▁کدرت	-11.2907
▁رہشوناں	-11.2908
▁بلوچان	-11.291
▁جلیل	-11.2913
▁رسینت	-11.2913
▁کسہی	-11.2916
??	-11.2925
▁طاہر	-11.2926
ملک	-11.2926
▁چولانی	-11.2927
▁پھلی	-11.2933
▁لکیر	-11.2934
▁دریائی	-11.2935
▁داکٹر	-11.2936
▁اما	-11.2942
▁مرچیگ	-11.2942
▁کانون	-11.2943
held	-11.2951
▁ڈب	-11.2951
▁مغل	-11.2955
▁گمیگ	-11.2956
▁power	-11.2956
▁right	-11.2961
▁قصہانی	-11.2964
▁تگرانی	-11.2964
▁دماگ	-11.2966
▁ادماں	-11.2967
▁اسلء	-11.297
▁تبے	-11.2972
▁عامر	-11.2974
▁دئیان	-11.2976
▁دباؤ	-11.2977
سرجمیں	-11.2977
▁سلاح	-11.2979
▁دلبر	-11.2979
▁اکثر	-11.298
▁رش	-11.298
▁نئیت۔	-11.2981
▁تہرانی	-11.2984
ماھتاک	-11.2987
▁ود	-11.2988
▁انچین	-11.2989
نو	-11.2998
3	-11.2999
▁محبوبہ	-11.3002
▁اسٹیج	-11.3007
▁سیوی	-11.3011
▁یورپء	-11.3012
▁کہدہ	-11.3015
▁دینار	-11.3016
رنگ	-11.3017
▁سندء	-11.3019
▁اثار	-11.3022
▁گن	-11.3025
▁لنجیں	-11.3028
▁ورزی	-11.3029
▁came	-11.3029
▁شاگرد	-11.303
▁بوتگانت	-11.3039
▁دیکھ	-11.304
کدی	-11.304
▁چارئے	-11.3042
▁کسہء	-11.3043
▁جگ	-11.3044
▁گرء	-11.3044
▁عبد	-11.3045
▁باث	-11.3046
وس	-11.3049
▁پہناتانی	-11.3049
▁جلدی	-11.3051
▁کبزہ	-11.3051
ایت	-11.3054
▁produc	-11.3055
▁ڈھاڈر	-11.3059
▁کنگ۔	-11.3061
▁بیستمی	-11.3063
▁سلاہاں	-11.3067
▁With	-11.3068
▁ارگنائزیشن	-11.3068
▁برطانیا	-11.3068
▁چارشمبے	-11.3071
▁ہمود	-11.3072
▁تھسیل	-11.3073
▁نێست	-11.3073
▁بالکل	-11.3074
▁نثر	-11.3075
▁ڈیھاں	-11.3075
▁دژمنانی	-11.3079
شنگ	-11.308
▁نانکہ	-11.3083
▁رجانکی	-11.3086
▁seven	-11.3086
▁اوتھل	-11.3087
▁ھانل	-11.3087
▁بکرتیں	-11.3088
▁مزارء	-11.309
چون	-11.3092
▁سدلی	-11.3095
▁ستار	-11.3097
▁زاهدان	-11.31
▁ھالو	-11.31
▁شہار	-11.3101
▁مولد	-11.3103
سرا	-11.3104
▁کلیت	-11.3106
▁پادء	-11.3108
▁نسیر	-11.3108
▁لوغ	-11.3111
▁بیرگ	-11.3111
▁سرکنگ	-11.3114
▁you	-11.3117
▁نیلیں	-11.3118
▁ہاؤس	-11.3119
▁کپگء	-11.3123
▁level	-11.3123
▁بروبری	-11.3123
▁جاہمنند	-11.3126
زانگ	-11.3128
پی	-11.3129
▁خمار	-11.313
▁تتک	-11.3132
کوہ	-11.3134
▁وفات	-11.3134
▁شھم	-11.3135
▁رھشوناں	-11.3136
▁زیک	-11.3137
age	-11.314
▁عاقل	-11.314
▁writ	-11.314
زمین	-11.314
▁متھدہ	-11.3143
پل	-11.3148
▁ٹکے	-11.3148
▁انہ	-11.3151
▁پھریزگ	-11.3151
▁کنانء	-11.3152
شاعر	-11.3153
▁شریدار	-11.3154
▁بێگواه	-11.3156
▁قال	-11.3158
از	-11.3159
▁تلب	-11.316
▁واکی	-11.316
▁تشے	-11.316
▁چمء	-11.3161
▁وانگجاھاں	-11.3162
▁half	-11.3163
▁عبدالصمد	-11.3164
▁حاضر	-11.3168
▁نرمی	-11.3168
▁برنج	-11.317
▁مہم	-11.3172
▁مھروانیں	-11.3179
ern	-11.3181
▁نیب	-11.3182
▁ات۔بلے	-11.3182
▁رچ	-11.3184
▁ہمیشانی	-11.3187
▁ولے	-11.3191
▁For	-11.3193
▁شتگیں	-11.3195
▁claim	-11.3196
ئگ	-11.32
▁میوزک	-11.32
▁ھمراھداری	-11.3201
▁گرنت	-11.3202
▁Division	-11.3215
▁songs	-11.3215
▁ہردو	-11.3217
مہر	-11.3218
▁former	-11.3219
▁زمانے	-11.322
▁ببیت۔	-11.3221
زی	-11.3222
داری	-11.3223
▁ھاٹیگ	-11.3224
▁pass	-11.3226
▁نئیں	-11.3227
▁لوگواجہ	-11.323
▁ایات	-11.3231
▁دئینت۔	-11.3231
▁پہلوان	-11.3232
▁عاقبت	-11.3235
▁ادارانی	-11.3236
▁وفاقی	-11.3236
▁رجینتگیں	-11.3241
▁کنر	-11.3244
▁گاڈی	-11.3244
▁ھورک	-11.3244
▁حاطرا	-11.3251
▁ترسگ	-11.3252
▁بچارئے	-11.3253
▁contain	-11.3254
▁ایٹم	-11.3255
▁دینے	-11.3259
ث	-11.3259
▁though	-11.326
▁شاھین	-11.326
▁للہ	-11.3263
▁دپترء	-11.3269
▁among	-11.3271
▁شہراں	-11.3272
▁شاہد	-11.3277
▁مسکیں	-11.328
▁رجینتگ	-11.328
▁واتری	-11.3281
▁صنف	-11.3284
▁زباد	-11.3287
▁شب	-11.329
گوشگ	-11.3291
▁fire	-11.3291
▁لوڈ	-11.3292
▁برطانوی	-11.3292
▁رحمن	-11.3293
▁ڈال	-11.3294
گور	-11.3295
▁گندے	-11.3295
▁شہہ	-11.3297
▁جنوزام	-11.3298
▁اسرمند	-11.3302
▁یگ	-11.3303
گوادر	-11.3306
▁قبائل	-11.3311
▁نما	-11.3313
▁درکپ	-11.3314
▁جاگه	-11.3314
▁کڈک	-11.3316
لے	-11.3318
▁جیڑھ	-11.3319
▁turn	-11.3322
▁ٹرانسپورٹ	-11.3325
▁رکگ	-11.3327
▁اپانی	-11.3331
▁امداد	-11.3333
▁الکاپ	-11.3334
▁پوریاگر	-11.3335
▁المیہ	-11.3337
▁مناسب	-11.334
▁حسابء	-11.3341
▁دلوتانی	-11.3342
▁عاصم	-11.3344
▁مادہ	-11.3345
▁ساچشتانی	-11.3347
▁want	-11.3347
▁سج	-11.3348
▁کوریا	-11.3349
▁بم	-11.335
▁دشتار	-11.3351
▁هلاس	-11.3354
▁De	-11.3357
▁منہ	-11.336
▁جبکہ	-11.3363
▁اسرا	-11.3363
▁شعیب	-11.3367
▁ھرکسی	-11.3374
▁وارتگیں	-11.3374
▁State	-11.3376
et	-11.3376
▁ینگ	-11.3376
▁دیدگانی	-11.3377
▁جملہ	-11.3385
▁پچے	-11.3385
▁امیتانی	-11.3386
▁زالے	-11.3388
▁زرتگیں	-11.3393
▁انو	-11.3395
▁کزا	-11.3395
▁کنائین	-11.3398
▁خلیج	-11.3399
▁چیزئے	-11.3399
▁حسنی	-11.34
ینگ	-11.3401
ether	-11.3402
▁وانین	-11.3402
▁کشگا	-11.3402
▁لٹک	-11.3404
▁ھا	-11.3405
▁church	-11.3406
سیمی	-11.3409
▁سیرء	-11.341
▁رچگ	-11.3412
▁بالاں	-11.3412
▁روحانی	-11.3412
by	-11.3413
▁مھرنگ	-11.3414
▁شادہ	-11.3418
▁پنجگ	-11.3421
▁production	-11.3423
▁تحصیل	-11.3425
دنیا	-11.3426
▁ھاسٹل	-11.3428
▁اربی	-11.343
▁ثناء	-11.3431
▁درملک	-11.3437
▁کٹگ	-11.3439
▁رکھ	-11.3442
▁سماج	-11.3444
▁full	-11.3446
دوست	-11.3452
▁جبری	-11.3452
اتنت	-11.3453
▁ازاب	-11.3453
▁ڈاکٹرء	-11.3453
▁کلاتء	-11.3454
▁ابدل	-11.3456
کجا	-11.3465
▁لانگو	-11.3468
▁زراب	-11.3469
▁کون	-11.3469
▁دیئگ	-11.347
▁اسرائیلی	-11.3473
▁suggest	-11.3476
▁مہار	-11.3477
▁ایردستی	-11.3479
▁population	-11.3479
▁ریکوڈک	-11.3481
▁گوشدار	-11.3481
▁دس	-11.3481
سیاسی	-11.3482
▁ماحولیاتی	-11.3486
▁اوانء	-11.3492
▁تواریں	-11.3493
▁زردء	-11.3493
▁تریت	-11.3493
▁گیران	-11.3495
▁حامد	-11.3495
▁الحق	-11.3497
▁جود	-11.3499
ا۔	-11.3502
▁سریگ	-11.3505
is	-11.3509
▁مئیگ	-11.3511
▁گالریچ	-11.3511
▁جہلانکی	-11.3512
▁شاہوانی	-11.3515
▁کورے	-11.3515
یات	-11.3517
▁پهک	-11.3517
▁نوید	-11.3519
▁مچھ	-11.3521
▁review	-11.3522
▁total	-11.3524
▁جنینء	-11.3524
▁گردان	-11.3525
▁مادر	-11.3525
▁اوشتوکیں	-11.3527
▁تراکانی	-11.353
▁ماری	-11.353
▁نوخیں	-11.3532
▁پوری	-11.3533
▁روء	-11.3534
▁عن	-11.3535
▁ات۔۔	-11.3535
▁سدو	-11.3539
▁مسائل	-11.3539
▁ازمانکاری	-11.354
یم	-11.3541
▁انجام	-11.3542
▁جنکیں	-11.3546
▁مستیں	-11.3548
▁چونکہ	-11.3549
▁پادان	-11.355
▁خانگ	-11.355
▁واراں	-11.355
▁لسانی	-11.3551
▁دیوتا	-11.3552
▁منزلء	-11.3552
▁ٹیچر	-11.3553
▁ھؤ	-11.3555
▁further	-11.3556
▁انتظار	-11.3557
▁درین	-11.3557
▁H	-11.3561
▁close	-11.3562
▁درنگاز	-11.3564
▁لیکہاں	-11.3564
▁بندرء	-11.3565
▁پیداور	-11.3567
▁پشمبے	-11.3569
▁ھیک	-11.357
▁اخبار	-11.357
▁الف	-11.3571
وار	-11.3572
▁نوداں	-11.3575
▁2011	-11.3575
▁نباں	-11.3576
▁جناح	-11.3577
چوش	-11.3577
▁جال	-11.3581
▁مرگی	-11.3582
▁field	-11.3582
▁ہاسٹل	-11.3589
پٹ	-11.359
▁زن	-11.3597
▁زتک	-11.3599
▁چرت	-11.3599
▁ئیء	-11.36
▁پیرمرد	-11.3602
▁add	-11.3602
▁یلو	-11.3604
▁کڈ	-11.3605
▁پلی	-11.3606
▁سماء	-11.3607
▁دیش	-11.3608
▁different	-11.3614
▁ڈسٹرکٹ	-11.3615
▁اولسر	-11.3617
▁سوڑگ	-11.3618
▁ھئور	-11.3623
▁۔یک	-11.3625
وئی	-11.3625
▁حج	-11.3627
▁ہورء	-11.3628
▁گلا	-11.3629
▁پات	-11.3631
▁مو	-11.3634
▁اشکار	-11.3635
▁بیس	-11.3641
▁گپی	-11.3642
▁J	-11.3646
▁اپسوز	-11.3646
▁ابدی	-11.3649
انچیں	-11.365
▁According	-11.3653
▁2006	-11.3653
▁پاداتک	-11.3655
▁نجیب	-11.3656
▁سرفراز	-11.3659
▁یکوئی	-11.3661
▁راجکاری	-11.3664
▁دانی	-11.3666
▁باند	-11.3667
▁کیل	-11.3667
▁بڑ	-11.3668
▁کاکڑ	-11.3669
▁بگٹیء	-11.3669
▁Church	-11.3672
▁واقعات	-11.3673
نیم	-11.3673
▁نادراہجاہ	-11.368
▁ڈڈ	-11.3681
▁سوچن	-11.3681
کنان	-11.3681
▁جہلیں	-11.3682
▁کارکنوکیں	-11.3682
▁وابیں	-11.3683
ism	-11.3689
▁ازمانکء	-11.3692
▁گریشگ	-11.3694
▁رفتار	-11.3695
▁کھڈ	-11.3696
▁مجیب	-11.3697
▁داؤد	-11.3698
▁ہل	-11.3698
▁ٹولیانی	-11.3699
▁سدی	-11.37
spite	-11.37
▁run	-11.3702
▁اگبالانی	-11.3704
▁سینیٹر	-11.3706
▁پرویز	-11.3707
▁محبوب	-11.3709
▁هون	-11.3711
▁کماشاں	-11.3713
چیاکہ	-11.3714
▁برگی	-11.3717
▁طبی	-11.3717
▁اژ	-11.3721
▁روشنی	-11.373
▁بدواہ	-11.3736
▁تریاک	-11.3739
▁مارات	-11.374
▁مد	-11.374
▁تاس	-11.3741
▁ارپ	-11.3744
▁مسجد	-11.3747
گوستگیں	-11.3751
لوگ	-11.3755
▁days	-11.3756
▁پراموش	-11.3758
▁بودناکی	-11.3759
▁پگرے	-11.3761
ie	-11.3762
▁ندارگاں	-11.3763
▁حاجت	-11.3764
▁جھلی	-11.3765
▁مشینری	-11.3765
▁مذھب	-11.3768
▁بنگلزئی	-11.377
▁سواس	-11.3771
▁militar	-11.3772
▁بامنء	-11.3774
▁انساناں	-11.3777
▁نگیگی	-11.3778
بتل	-11.378
▁ھورکیں	-11.3784
▁کروس	-11.3787
▁شئرانی	-11.379
▁ویروس	-11.3791
▁بوتگ۔اے	-11.3798
اؤ	-11.3799
▁دئیگی	-11.38
▁بمبے	-11.3805
▁کامل	-11.3806
▁چاروک	-11.3808
▁official	-11.3809
▁particular	-11.3809
▁سوشلسٹ	-11.3813
▁نامینگ	-11.3813
▁مانزمان	-11.3814
▁پانگ	-11.3814
▁شاباش	-11.3815
▁اث	-11.3817
▁بندگی	-11.3818
▁رھشونانی	-11.3818
▁زورگری	-11.3818
▁تیری	-11.3822
▁change	-11.3823
▁کمانڈر	-11.3826
▁چریشیء	-11.383
▁سرداراں	-11.3832
▁تنا	-11.3832
▁دستبندی	-11.3835
نک	-11.3837
▁h	-11.384
▁وحید	-11.3841
▁تحریر	-11.3842
▁ہندء	-11.3843
▁درمانی	-11.3843
▁بندہ	-11.3845
چوکہ	-11.3847
وئیں	-11.3851
▁دورانی	-11.3851
پس	-11.3855
▁زالم	-11.3859
▁دستور	-11.386
کور	-11.3863
▁کرنء	-11.3864
▁ورنائے	-11.3865
▁گندی	-11.3866
▁ھرجاہ	-11.3868
▁لگور	-11.3868
▁گورے	-11.3869
▁پیس	-11.3873
▁بناربس	-11.3875
مبارک	-11.3877
▁درستان	-11.3882
▁گیریں	-11.3885
جست	-11.3887
▁پراں	-11.3887
▁جاورال	-11.3888
▁نشت۔	-11.3888
▁جنکء	-11.3891
▁حیرانی	-11.3897
▁لاشے	-11.3898
▁گریبی	-11.39
▁اورماڑہ	-11.3905
▁ٹریفک	-11.3909
▁human	-11.391
▁سنگھ	-11.391
▁بھیسہ	-11.391
▁مانگ	-11.3912
▁منطق	-11.3913
▁گواہی	-11.3915
▁کندان	-11.3915
چیزے	-11.3918
▁گدانی	-11.3922
▁پہناتاں	-11.3922
▁بحت	-11.3924
ول	-11.3925
▁دامنء	-11.393
▁نشتاں	-11.393
▁رپتار	-11.3934
▁رکھا	-11.3936
▁ٹور	-11.3938
▁پیتی	-11.394
▁جما	-11.3942
▁حرف	-11.3943
▁موٹل	-11.3943
▁بیک	-11.3947
▁پداں	-11.3948
▁ہزارانی	-11.3948
▁واریاں	-11.395
▁واہگانی	-11.395
▁عبدالمالک	-11.395
▁چارئگ	-11.3953
▁دانش	-11.3954
▁scor	-11.3954
لبزانکی	-11.3956
▁جنجالے	-11.3959
▁مکرانء	-11.3961
▁درہ	-11.3963
▁بوته	-11.3964
▁باپار	-11.3964
▁ورناھانی	-11.3966
▁ڈیوٹی	-11.3969
▁تگرد	-11.3969
▁رسائی	-11.3969
▁strong	-11.3971
▁دزبمب	-11.3971
▁گزران	-11.3972
▁انگلش	-11.3972
▁ہمیشہ	-11.3974
ؤ	-11.3974
▁بیانے	-11.3981
ou	-11.3981
▁گنتر	-11.3982
▁مهلوک	-11.3983
▁ملائی	-11.3987
▁League	-11.3989
▁ابوبکر	-11.399
▁دھا	-11.399
▁مہراں	-11.3991
▁دیتے	-11.3991
▁every	-11.3992
▁بیگی	-11.3995
▁اوور	-11.3996
▁رتکگ	-11.4001
▁ملکا	-11.4001
▁بجنت	-11.4003
▁سنگینی	-11.4003
▁قبل	-11.4004
▁بمبگواری	-11.4005
▁گوشتانک	-11.4007
▁پانچ	-11.4007
▁increase	-11.4009
▁عملے	-11.4009
▁گونگ	-11.4014
▁جج	-11.4014
▁مجاں	-11.4015
▁عیش	-11.4016
▁وتکاریں	-11.4022
▁ائیگ	-11.4029
▁دکاندار	-11.403
▁رائٹس	-11.4031
▁لشکرے	-11.4033
▁دروگے	-11.4035
▁درتکگ	-11.4036
▁کچھی	-11.4043
▁شمال	-11.4044
▁رکینت	-11.4046
▁ظالم	-11.4046
▁نئی	-11.4046
▁محتاج	-11.405
▁اتھارٹی	-11.405
▁تضاد	-11.405
▁ابی	-11.405
▁اسٹریلیا	-11.4051
▁control	-11.4053
▁السلام	-11.4054
▁مڈیاں	-11.4055
:’’	-11.4055
▁دیوانگ	-11.4055
▁پدرد	-11.4057
▁سھریں	-11.4058
▁اناگاہ	-11.4058
▁):	-11.406
▁ہردیں	-11.4062
▁To	-11.4063
▁نپر	-11.4065
▁نوشتانک	-11.4065
▁ایگی	-11.4067
▁عادل	-11.4068
▁عنہ	-11.407
▁رنگا	-11.407
کیچ	-11.4081
▁استالاں	-11.4081
▁لم	-11.4084
اری	-11.4089
سا	-11.4089
▁ترسناک	-11.4093
▁زرانی	-11.4095
▁یمن	-11.4096
▁گنت	-11.4096
▁کدر	-11.4097
▁پگ	-11.4099
▁ردان	-11.4101
▁صلاحیت	-11.4107
ebru	-11.411
▁هو	-11.411
▁لنک	-11.4112
▁دمبرتگ	-11.4113
گشت	-11.4113
▁لوٹے	-11.4117
▁گرے	-11.4117
▁man	-11.4118
▁شدکش	-11.412
▁کدہ	-11.4123
▁گولے	-11.4124
▁بارڈر	-11.4127
▁پیل	-11.4127
▁service	-11.4131
▁finish	-11.4132
▁جمڑی	-11.4132
▁۔منی	-11.4133
▁دمگدار	-11.4134
▁باشد	-11.4134
▁گیشینت	-11.4136
▁سین	-11.4136
▁جندے	-11.4138
▁بوتوں	-11.414
▁شہدگ	-11.4142
▁کامیو	-11.4148
▁کوچگی	-11.4149
بدل	-11.4152
▁ولد	-11.4154
▁دمگء	-11.4157
▁ترانگاں	-11.4158
▁کسا	-11.416
▁kill	-11.4161
▁track	-11.4162
▁کیشن	-11.4163
▁سوتکگ	-11.4167
▁بها	-11.4167
▁تکہ	-11.4169
▁سامراج	-11.4169
gave	-11.4172
▁ایی	-11.4173
▁کوہاں	-11.4176
▁جیڑھاں	-11.4176
▁گنوکیں	-11.4181
▁روچتاک	-11.4182
▁سوبا	-11.4183
▁پیغمبر	-11.4186
▁لوڑ	-11.4188
▁caus	-11.4189
▁محکمیں	-11.4189
▁ماہے	-11.4189
▁دارانت	-11.419
▁ٹپاں	-11.419
تب	-11.419
کریم	-11.4191
▁تعداد	-11.4191
▁defeat	-11.4192
▁ڈاؤن	-11.4194
▁لوٹنت	-11.4194
▁وادی	-11.42
▁تش	-11.4201
ستان	-11.4205
▁ھندے	-11.4206
▁مانی	-11.4213
▁جیڑہاں	-11.4213
▁‘‘(	-11.4219
▁معنایے	-11.422
▁درچکاں	-11.4221
▁real	-11.4221
▁مگ	-11.4224
▁مولا	-11.4228
▁دلکش	-11.423
▁ماناء	-11.4232
▁تہل	-11.4232
▁Song	-11.4233
▁Dylan	-11.4233
▁شفیع	-11.4233
▁شکلیں	-11.4235
▁تصویر	-11.4236
▁ساھدار	-11.4236
علم	-11.4237
▁پردگ	-11.4238
ھمک	-11.4239
▁فورم	-11.424
ارش	-11.4241
▁جانور	-11.4242
▁کال	-11.4242
▁گزار	-11.4242
▁دردناکیں	-11.4243
▁جسے	-11.4243
▁reported	-11.4244
▁اداراں	-11.4244
▁ایئر	-11.4245
▁مولم	-11.4247
▁گوئر	-11.4253
▁دستونکئ	-11.4254
▁دروشمیں	-11.4257
▁قبرستان	-11.426
▁دربر	-11.426
▁میرین	-11.4261
▁چندن	-11.4262
▁ناجوڑ	-11.4265
▁گمء	-11.4265
▁اچار	-11.4267
▁موم	-11.4267
▁مراں	-11.4269
▁گالوارے	-11.4269
▁منزلے	-11.4272
▁درپ	-11.4277
سال	-11.4277
▁شیری	-11.4279
▁ورزش	-11.428
▁بیائے	-11.4281
▁بلوٹ	-11.4282
▁چنانچہ	-11.4283
▁جوزہ	-11.4284
▁سپا	-11.4284
▁کؤر	-11.4285
1	-11.4286
x	-11.4286
▁زیم	-11.4287
▁تند	-11.4287
▁نزدیک	-11.429
▁باپ	-11.4291
▁ترانت	-11.4293
▁ازیت	-11.4293
▁بنگال	-11.4294
▁تاکء	-11.4295
▁علاقوں	-11.4295
▁ہورت	-11.4296
▁منظم	-11.4298
▁unit	-11.4298
▁شف	-11.4299
▁حفاظت	-11.4303
▁نفر	-11.4303
▁جمھوری	-11.4304
▁سحر	-11.4304
▁بزانتیں	-11.4307
گون	-11.4308
▁دانا	-11.431
▁چلی	-11.4313
moved	-11.4314
▁G	-11.4315
▁موسمء	-11.4315
▁بیثہ	-11.4316
▁مہربان	-11.4316
▁دیوانا	-11.4317
▁دلجان	-11.4317
▁دیبا	-11.432
▁پہکیں	-11.432
▁دنیائی	-11.4321
▁سچ	-11.4324
▁سماہ	-11.4327
▁کشتہ	-11.4329
▁ماوتی	-11.4331
▁لھم	-11.4334
▁ریگستان	-11.4334
▁ماپ	-11.4335
اف	-11.4339
▁story	-11.4341
▁مرتگ۔	-11.4343
▁پشتا	-11.4344
▁انگریزاں	-11.4345
▁بیاں	-11.4345
▁تخلیقی	-11.4347
▁منندیں	-11.4348
▁نیلگ	-11.4348
▁اتمانء	-11.4348
▁مردمےء	-11.435
▁رنجاں	-11.4352
▁سخی	-11.4352
▁اسپین	-11.4353
▁راھاں	-11.4356
▁2012	-11.4357
▁انچوکہ	-11.4359
▁پشاور	-11.436
بو	-11.4363
▁گمراہ	-11.4363
▁گيئشتر	-11.4364
▁۔اگاں	-11.4367
▁جنگول	-11.4371
▁ادارے	-11.4372
▁پنوں	-11.4373
▁مہرک	-11.4375
▁اشارگ	-11.4378
▁رخ	-11.4379
▁land	-11.438
▁کرناں	-11.4381
▁زانتیں	-11.4381
▁تچوکیں	-11.4385
▁لاگریں	-11.4385
▁قریشی	-11.4388
▁یاداشت	-11.439
توار	-11.4391
▁ملکیت	-11.4391
▁سنگتء	-11.4392
▁قمبر	-11.4392
شھلچہ	-11.4392
▁لرزگ	-11.4396
▁چہرء	-11.4396
▁کراس	-11.4399
▁اومر	-11.44
▁تنیگہ	-11.4407
▁body	-11.4408
▁کنوکے	-11.4414
نیمگ	-11.4417
▁ات۔ائیء	-11.4418
▁ببا	-11.4419
▁نصیحت	-11.442
▁کردہ	-11.442
▁معتبر	-11.4422
▁یونائیٹڈ	-11.4422
▁ہست۔	-11.4423
▁موش	-11.4426
▁درنجگ	-11.4428
▁ترونگل	-11.443
▁ہڈ	-11.4431
▁نامانی	-11.4445
▁مہلنج	-11.4445
گو	-11.4453
▁شرح	-11.4454
یں۔	-11.4457
▁پڑاں	-11.4459
▁پیکر	-11.446
▁ٹائم	-11.446
▁تہلیں	-11.4461
▁کنت۔۔۔	-11.4461
▁وتواجھی	-11.4465
▁بشک	-11.4465
▁گؤں	-11.4466
▁دیستہ	-11.4469
▁حالکار	-11.447
▁داوا	-11.4476
▁ریاستء	-11.4477
▁نازاں	-11.4478
▁جڑ	-11.4478
▁گرا	-11.4482
▁کارگال	-11.4486
▁ٹن	-11.4487
▁فلسطین	-11.4487
▁ھمروچیگیں	-11.4488
▁حوالے	-11.449
▁.....	-11.4492
اں۔	-11.4493
▁گێشتر	-11.4495
▁بکناں۔	-11.4497
▁رہبنداں	-11.4498
▁سوبمندیں	-11.4499
▁چاریگی	-11.45
▁cover	-11.4501
زاناں	-11.4502
▁گوریچ	-11.4504
▁جیڑیت	-11.4504
▁match	-11.4505
▁برگیڈ	-11.4505
▁tropic	-11.4506
▁ذرائع	-11.4507
▁دروغ	-11.4508
▁سامی	-11.451
▁ٹکی	-11.451
▁چلگ	-11.4511
▁اسم	-11.4511
▁براتی	-11.4512
▁ردومء	-11.4512
▁چداں	-11.4516
▁پیرس	-11.4517
▁ہرچیز	-11.4518
▁بلیدی	-11.4525
▁General	-11.4525
▁دیری	-11.4531
▁غ	-11.4532
▁بشام	-11.4532
▁باطن	-11.4536
▁شنز	-11.454
▁اشکرانی	-11.4541
یلہ	-11.4546
▁ٹرمپ	-11.4552
▁ازمانکی	-11.4552
▁انار	-11.456
▁بیتیں	-11.456
▁گروہ	-11.456
گشگ	-11.4563
▁لوچ	-11.4563
▁بدیاں	-11.4564
▁کمکء	-11.4566
▁گسے	-11.4567
▁ڈاکٹرے	-11.4568
▁شرک	-11.4568
▁east	-11.4569
▁سمندری	-11.4569
ھوں	-11.4571
▁بالادء	-11.4572
▁لاگر	-11.4574
▁پہلوی	-11.4577
▁بکشاتگ	-11.458
▁استادے	-11.4586
▁ھترہ	-11.4592
▁رہشونی	-11.4593
▁حالگش	-11.4593
▁ندارگے	-11.4596
▁ھمدردی	-11.4597
▁کسانیء	-11.4597
▁air	-11.4597
▁موسی	-11.4602
▁اسری	-11.4604
▁پکراں	-11.4606
▁we	-11.4608
▁تباھی	-11.461
▁لوٹائینت	-11.4612
▁کشکاں	-11.4614
▁ڈیموکریٹ	-11.4615
▁hav	-11.4615
▁زہگے	-11.4618
▁per	-11.4619
▁region	-11.4619
▁فیکٹری	-11.4621
▁ھتم	-11.4624
▁بوتگنت۔	-11.4625
▁متلبے	-11.4627
▁critic	-11.4628
▁برائے	-11.4632
▁Japan	-11.4632
▁بیلاں	-11.4633
▁کارجاہ	-11.4634
▁ٹاپ	-11.4636
▁میڑہ	-11.4646
▁چکاسگ	-11.4651
▁بنڈ	-11.4651
▁times	-11.4653
نان	-11.4657
▁غازی	-11.4658
ط	-11.4659
▁writing	-11.4661
▁ربیتی	-11.4662
▁بلکنہ	-11.4666
▁کرنچ	-11.4666
اوتی	-11.4666
▁تولگ	-11.4666
بنی	-11.4667
▁پورم	-11.4668
▁سینزدہ	-11.4668
▁ندوی	-11.4668
▁بیبو	-11.4673
▁سائنسدان	-11.4673
▁مجاہد	-11.4674
▁بہتر	-11.4675
▁21	-11.4676
seen	-11.4676
▁لوزاں	-11.468
▁همیش	-11.468
مدام	-11.4683
▁قاصد	-11.4684
▁بئیگا	-11.4686
▁fee	-11.4687
▁members	-11.4693
▁جوانتریں	-11.4693
پمشکہ	-11.4694
▁کامران	-11.4699
▁ششتگ	-11.4699
▁لاطینی	-11.4702
▁?”	-11.4702
▁house	-11.4703
▁پسوء	-11.4704
▁ٹیک	-11.4705
اک	-11.4707
▁دزمانجنی	-11.4708
▁کارپد	-11.4708
دوئیں	-11.4709
nd	-11.471
▁کسو	-11.4711
▁کته	-11.4715
▁شکی	-11.4718
▁low	-11.4719
▁کمیونٹی	-11.4719
▁جاورے	-11.4723
▁ساپیں	-11.4726
▁ایڈیشن	-11.4727
ازات	-11.4727
▁بیگاہء	-11.4728
▁عبدال	-11.4733
▁creat	-11.4735
▁سرکارا	-11.4735
▁کیوں	-11.4738
▁توانا	-11.474
▁کارکردگی	-11.474
▁ہنری	-11.4742
▁نزانتگ	-11.4742
▁گندگی	-11.4743
▁base	-11.4744
▁بنام	-11.4747
▁محسن	-11.4749
▁انیگیں	-11.475
▁پرو	-11.4751
▁مغرب	-11.4752
▁انڈین	-11.4753
stead	-11.4755
▁عمان	-11.4757
▁project	-11.4757
▁فرید	-11.4758
اشانی	-11.4762
▁انچائیں	-11.4763
▁عیسی	-11.4763
ٹک	-11.4764
▁ژانگول	-11.4764
▁پارست	-11.4764
▁بانداتء	-11.4764
▁لبرل	-11.4766
▁پدرائی	-11.4766
▁جوانسال	-11.4769
▁پیرو	-11.4772
▁چھو	-11.4773
▁چندر	-11.4773
▁نوٹس	-11.4778
جوڑ	-11.4778
▁گشگا	-11.4783
▁کوشانی	-11.4783
▁ذریعے	-11.4784
▁پجارے	-11.4785
▁سہتے	-11.4786
▁تقریبا	-11.4788
▁نانء	-11.479
راجی	-11.479
▁چنڈگ	-11.4792
▁مسیح	-11.4796
▁ٹکٹ	-11.4799
▁توشگ	-11.4799
▁بیئگ	-11.4801
▁اسمائیل	-11.4807
▁country	-11.4807
▁عبدالکریم	-11.4807
▁راجہ	-11.4809
▁۔بلوچی	-11.4811
▁زہم	-11.4813
است	-11.4816
▁پرینتگ	-11.4816
▁تؤ	-11.4818
▁term	-11.4818
▁وارڈ	-11.4819
▁دارئے	-11.4821
دان	-11.4823
▁America	-11.4825
▁west	-11.4828
▁کارایت	-11.4828
▁کتگین	-11.483
▁زانتاں	-11.483
▁لگگ	-11.483
▁کرپشن	-11.4831
▁پاساں	-11.4832
تک	-11.4834
▁گی۔	-11.484
▁لانچر	-11.4841
▁گشتہ	-11.4842
▁پھنات	-11.4843
▁()	-11.4844
▁چاراتگ	-11.4844
▁مزید	-11.4844
▁تھیں	-11.4846
lost	-11.4847
▁باتیں	-11.4848
▁گوئی	-11.4848
▁ممبر	-11.485
▁ہوکر	-11.4851
▁ھمایاں	-11.4853
▁پاری	-11.4854
▁بچاراں	-11.4854
▁برنت	-11.4855
▁دکتر	-11.4855
▁ٹٹ	-11.4855
▁انتخاب	-11.4858
▁نامگال	-11.4861
▁حس	-11.4862
▁بہرانی	-11.4864
▁پاہو	-11.4866
given	-11.4869
▁سچگ	-11.4869
▁انگریزوں	-11.487
▁گواتانی	-11.4871
▁چما	-11.4871
▁خیبر	-11.4874
▁جنگوجانی	-11.4874
▁ھمسیادی	-11.4875
▁گاڑیء	-11.4875
▁گوزگء	-11.4876
▁ملگ	-11.4876
▁اتش	-11.4876
بار	-11.4881
▁تاپ	-11.4882
▁شادان	-11.4883
▁بندیک	-11.4884
▁بائی	-11.4885
▁ریاستے	-11.4885
▁تربتء	-11.489
▁ازاتیء	-11.4892
uarter	-11.4893
▁خواتین	-11.4894
▁پیمے	-11.4895
▁thought	-11.4905
▁tour	-11.4905
▁برانت	-11.4905
▁زمینانی	-11.4906
▁ھالیگ	-11.4906
▁صوت	-11.4907
▁Whil	-11.4908
▁لوک	-11.4909
▁سئید	-11.491
گیش	-11.491
▁پرمات	-11.4911
▁ڈویژن	-11.4914
▁ھرتال	-11.4916
▁اقتدار	-11.4916
▁گارڈز	-11.4917
▁یکشلی	-11.4917
▁young	-11.4919
▁عدم	-11.4921
▁تماہ	-11.4923
▁ده	-11.4924
▁جاورء	-11.4926
▁ذیل	-11.4926
▁ریگی	-11.493
▁کسھاں	-11.493
▁تنیگ	-11.493
▁کپتیں	-11.4931
▁ڈلگ	-11.4934
▁ابرو	-11.4944
▁دانائی	-11.4947
▁کماندان	-11.4949
▁پہنچ	-11.4955
▁2013	-11.4959
▁سینئر	-11.4959
▁چھٹی	-11.4962
▁مردانی	-11.4963
سفرخان	-11.4965
▁چمی	-11.4967
▁جنگلی	-11.4967
▁سباہ	-11.4968
▁جوڑی	-11.4973
▁هیال	-11.4979
▁حدء	-11.498
▁رسینتگ	-11.498
▁ایمنسٹی	-11.4982
▁روٹکی	-11.4984
▁انچ	-11.4986
▁ھاندان	-11.4986
▁ھزانگ	-11.4986
▁گرئگ	-11.4988
▁شائراں	-11.4989
▁خیرات	-11.4991
▁مجن	-11.4993
▁پشومان	-11.4996
▁دیاں۔	-11.4996
▁منو	-11.4998
▁mak	-11.4999
▁صحیح	-11.4999
▁دیوالاں	-11.5003
▁اشعار	-11.5006
▁مانش	-11.5006
▁میراس	-11.5013
▁دھ	-11.5016
▁بروک	-11.5018
▁جیڑگء	-11.5022
ایوک	-11.5024
▁بخاری	-11.5024
▁فہم	-11.5025
▁بچاریت	-11.5027
▁operation	-11.5028
▁راھانی	-11.5028
▁کیچء	-11.5028
▁سائٹ	-11.503
سن	-11.5031
▁ملار	-11.5032
▁گیشواری	-11.5034
▁ناروے	-11.5039
ous	-11.504
▁سرگوز	-11.5041
▁مسام	-11.5043
▁ترکیب	-11.5043
▁رام	-11.5046
▁style	-11.505
▁ورناھاں	-11.5054
▁نذر	-11.5055
▁ماسکو	-11.5057
went	-11.5058
▁دوداں	-11.5061
▁پیسہ	-11.5061
▁لبزی	-11.5063
▁دشمنی	-11.5063
▁رچان	-11.5068
▁ادارکی	-11.507
niversit	-11.507
▁never	-11.507
▁development	-11.5071
▁ھمساھگ	-11.5074
▁غفور	-11.5074
▁مدگ	-11.5078
▁جذبگ	-11.5079
....!	-11.508
▁جاورحال	-11.5089
▁زا	-11.5091
4	-11.5093
▁مشورہ	-11.5095
▁جاڑی	-11.5098
▁بیگہ	-11.5099
▁پسانی	-11.5101
▁stated	-11.5103
▁کچکے	-11.5104
▁بھرام	-11.5108
▁بیھال	-11.5113
لوٹ	-11.5115
▁ھداء	-11.512
▁ایدیم	-11.512
▁action	-11.512
▁چٹی	-11.5121
▁اجزاء	-11.5121
▁ہلاسی	-11.5121
▁کارستاں	-11.5121
▁گنی	-11.5125
▁سجاد	-11.5126
▁کردارانی	-11.5127
▁جدگال	-11.5127
▁less	-11.5128
▁popular	-11.5129
▁راھبندے	-11.5129
▁ماراں	-11.5129
▁plan	-11.5129
▁range	-11.5131
▁جارج	-11.5132
▁زالکار	-11.5134
▁گیشنگ	-11.514
▁سفرنامہ	-11.514
▁وشحالی	-11.5142
▁گیشوار	-11.5143
▁روی	-11.5144
▁سسائی	-11.5148
▁ٹاک	-11.5149
▁بادگیر	-11.5149
▁لوٹائینتگ	-11.5149
عربی	-11.515
▁فارس	-11.5152
▁نشانے	-11.5156
▁شاھو	-11.5159
اسلام	-11.516
ابید	-11.5162
▁سانتیاگونصر	-11.5162
▁ڈیہ	-11.5162
▁مکر	-11.5163
▁پرسیگ	-11.5166
▁اسٹال	-11.5166
▁موسمے	-11.5168
▁منئ	-11.5172
بنت	-11.5172
▁جذبات	-11.5175
▁award	-11.5176
▁درو	-11.5177
▁پتا	-11.5178
▁جارے	-11.518
▁complete	-11.5183
▁نادریں	-11.5185
▁طائر	-11.5186
ساحر	-11.519
▁اینٹی	-11.5193
▁ہوا۔	-11.5193
▁اتراپ	-11.5193
▁اصلیں	-11.5194
▁لینن	-11.5196
▁بحران	-11.5196
▁گفتار	-11.5197
▁ژ	-11.5199
▁سرمچارے	-11.5201
▁ھیالی	-11.5202
▁کلاسیک	-11.5206
▁حکمران	-11.5209
▁ولید	-11.521
▁استین	-11.5211
▁ضمانت	-11.5212
▁بندری	-11.5212
▁کمپان	-11.5212
▁زانوگر	-11.5213
▁مھم	-11.5213
▁متاہ	-11.5214
کمے	-11.5214
▁ترسیت	-11.5218
▁گریں	-11.5221
▁کسھانی	-11.5221
▁سبکیں	-11.5224
▁جاھانی	-11.5226
▁دمانی	-11.5228
▁۔پدا	-11.5228
▁Park	-11.5229
▁دریافت	-11.5232
▁ایمانداری	-11.5232
ایران	-11.5233
▁کشادگ	-11.5233
▁اسٹیٹ	-11.5235
▁نہیں۔	-11.5243
▁چکیں	-11.5244
▁مارت	-11.5244
▁ہنچش	-11.5246
▁بحری	-11.5247
▁بوتک	-11.5248
▁کپودر	-11.5249
▁بگاوت	-11.5253
▁Australian	-11.5254
▁پجیگ	-11.5255
بیگواہ	-11.5256
▁اذیت	-11.5256
▁گشادی	-11.5256
▁باھند	-11.5258
▁مسلماناں	-11.5259
▁ٹکء	-11.5261
▁کاپرء	-11.5262
▁ضد	-11.5264
▁نسب	-11.5264
ارگ	-11.5265
▁نمائندگی	-11.5266
▁گارء	-11.5267
▁زانتکارے	-11.5269
▁جنینی	-11.527
▁دابء	-11.5272
▁مصری	-11.5272
▁پردہ	-11.5275
▁مومنٹ	-11.5276
▁ft	-11.5277
▁گواھی	-11.5278
▁West	-11.5279
▁ہپتاد	-11.5281
▁ماحل	-11.5281
▁وجودء	-11.5285
▁ساھگء	-11.5288
▁اندام	-11.5288
▁کری	-11.5289
▁جمب	-11.529
▁جیڑہے	-11.5293
مردماں	-11.5293
▁پٹگ	-11.5295
▁کسارت	-11.53
▁فلاں	-11.5301
▁بستگ۔	-11.5301
▁میریں	-11.5304
▁فراز	-11.5304
گار	-11.5305
▁سرانی	-11.5306
▁روزی	-11.5314
▁ینت	-11.5316
▁شھرء	-11.5316
▁خط	-11.5317
جنین	-11.5319
▁اوژناگ	-11.532
▁توازن	-11.5321
▁کلہ	-11.5323
▁رہبندے	-11.5323
▁بتلانی	-11.5323
▁اپیل	-11.5323
▁عربانی	-11.5326
▁پێسر	-11.5327
▁سعدی	-11.5329
ئگا	-11.5329
▁مخالف	-11.533
▁دردی	-11.5331
▁دوستء	-11.5332
رز	-11.5333
▁پرشگ	-11.5334
▁star	-11.5335
▁وانوکیں	-11.5337
▁تانا	-11.5337
▁کارکرد	-11.5337
روکپتی	-11.534
▁پیوست	-11.5342
▁ڈور	-11.5342
▁نگدء	-11.5343
▁تروتاب	-11.5343
▁نئیل	-11.5343
▁گورنمنٹ	-11.5345
coming	-11.5345
▁سوبیں	-11.5345
▁بارکزئی	-11.5345
▁ہرکسی	-11.5348
▁نشار	-11.5348
ؤں	-11.5348
▁۔ہمے	-11.535
▁مشکت	-11.5351
self	-11.5352
▁شاید	-11.5356
▁شتنت	-11.5359
▁وہی	-11.536
▁ساہدار	-11.536
▁کیپ	-11.5363
▁تاجر	-11.5364
▁Ire	-11.5368
▁scene	-11.5369
▁فل	-11.5369
ائع	-11.537
▁پرزند	-11.537
▁دانکاں	-11.5373
▁مریض	-11.5376
گیشتر	-11.5379
▁زهر	-11.538
▁23	-11.538
▁island	-11.5385
▁ھوراں	-11.5387
▁شانتل	-11.5387
▁toward	-11.5389
۔منی	-11.5389
▁فصل	-11.5389
▁مفتی	-11.5392
▁دانگے	-11.5395
نوک	-11.5399
▁گندایت	-11.54
▁اصلء	-11.5401
▁گیپت۔	-11.5404
▁وانشت	-11.5404
▁لوٹتگ	-11.5405
▁چرا	-11.5405
▁ھمدپ	-11.5408
▁اٹلی	-11.541
▁نمونہ	-11.5413
ither	-11.5413
▁ایرموش	-11.5413
ally	-11.5417
یتگ	-11.5419
▁امانت	-11.542
▁پشل	-11.542
▁پروشی	-11.5421
▁میاریں	-11.5422
▁enter	-11.5425
▁chart	-11.5429
ther	-11.5429
▁دریاورد	-11.543
▁گیگان	-11.5431
▁کاپی	-11.5431
▁ابادیں	-11.5433
▁کشیت۔	-11.5434
▁novel	-11.5435
▁hour	-11.5436
▁انگلینڈ	-11.5436
مست	-11.5438
▁ھمودء	-11.544
وھدیکہ	-11.544
▁دوھیں	-11.5442
▁انلاین	-11.5447
▁تہت	-11.5448
▁قلمکار	-11.5448
▁پنڈگ	-11.5449
▁ہاسیں	-11.545
▁کلاہ	-11.5451
▁الہ	-11.5451
▁نبیسوک	-11.5454
▁پنڈوک	-11.5456
▁پیٹ	-11.5458
▁تسلسل	-11.5461
چوشکہ	-11.5468
▁سرتاک	-11.5471
پنچ	-11.5474
▁براتے	-11.5474
غلام	-11.5476
▁light	-11.5477
▁جنگلء	-11.5477
▁مزور	-11.5479
▁join	-11.548
▁داتیں	-11.5481
▁مھرانی	-11.5482
▁issue	-11.5483
...!‘‘	-11.5483
▁منظوری	-11.5483
▁earlie	-11.5486
▁ناسرپد	-11.5486
▁ورناہانی	-11.5486
▁مولابخش	-11.5488
▁منشی	-11.5489
▁لشکرء	-11.5495
▁بہرام	-11.55
▁کرشی	-11.5502
▁town	-11.5502
▁شیرے	-11.5503
شی	-11.5508
▁موسماں	-11.5511
ہوار	-11.5512
▁گوگل	-11.5513
▁یله	-11.5513
▁ھپتمی	-11.5513
▁سینہ	-11.5513
▁غمانی	-11.5515
▁برئے	-11.5516
▁ذگریں	-11.5517
▁واکیات	-11.5517
▁سورس	-11.5517
▁الکاپی	-11.5518
▁ھمیشاں	-11.5518
,’’	-11.5521
▁ھانزا	-11.5521
▁زیراں	-11.5527
واں	-11.5527
استاد	-11.5528
راج	-11.5528
▁گبار	-11.5529
▁یہودی	-11.5532
...‘‘	-11.5534
ای	-11.5534
▁لیکو	-11.5534
▁وفاق	-11.5534
▁چارایت	-11.5535
▁ناامیتی	-11.5536
▁ھونانی	-11.5538
▁پادے	-11.5539
▁اشانء	-11.5539
▁ساعتے	-11.5541
▁writer	-11.5543
وان	-11.5544
▁ارمانی	-11.5544
▁کدیم	-11.5544
▁ناگتی	-11.5548
▁راہاں	-11.5549
▁بدر	-11.5549
▁وارے	-11.5552
▁چنگیز	-11.5552
▁پمێشکا	-11.5552
▁اصطلاح	-11.5554
▁صغیر	-11.5555
▁جدل	-11.5556
▁مڑا	-11.5557
▁کشنت	-11.5561
راستی	-11.5562
▁اگه	-11.5562
▁سفیر	-11.5562
▁پئیمیں	-11.5564
▁گلامیں	-11.5569
▁درہائ	-11.557
▁روایات	-11.5571
▁band	-11.5575
▁اتحادی	-11.5575
پچ	-11.5577
▁بلاک	-11.5579
▁لیس	-11.5579
دیوان	-11.5585
▁پشومانی	-11.5585
▁نجات	-11.5586
▁ھالی	-11.5591
▁white	-11.5591
▁ٹپاسگ	-11.5593
لہتیں	-11.5598
▁50	-11.5598
▁element	-11.5599
."	-11.56
▁نائک	-11.5601
▁سنگء	-11.5607
▁کینسر	-11.5608
▁دائما	-11.5609
▁دلسیاہ	-11.5612
▁ورناہاں	-11.5615
▁مھکمی	-11.5615
▁هرکس	-11.5615
میان	-11.562
▁ھیرو	-11.5621
▁قاتل	-11.5624
▁درپشوکیں	-11.5626
▁پکرے	-11.5627
▁عبدالحکیم	-11.5628
▁توصیف	-11.5631
▁سوا	-11.5632
▁ماھاں	-11.5632
▁وسوسگ	-11.5632
▁چیری	-11.5633
▁نندگء	-11.5635
▁مردان	-11.5636
▁زاننت	-11.5638
▁رتکگیں	-11.5638
▁ببو	-11.5641
۔۔۔۔۔۔۔	-11.5644
felt	-11.5646
یو	-11.565
▁ہمراہاں	-11.5654
▁واناک	-11.5657
▁noted	-11.5657
▁ابرمء	-11.5659
▁بندگء	-11.5659
▁مذھبی	-11.566
▁رھم	-11.5662
▁زمینے	-11.5662
▁شگل	-11.5664
▁رون	-11.5665
ایا	-11.5667
▁چادرے	-11.5668
▁ھیات	-11.567
▁London	-11.567
▁مراقبہ	-11.5671
▁شاھر	-11.5671
▁انگه	-11.5673
▁پیپلز	-11.5673
▁گیشگیواری	-11.5673
▁کێنگء	-11.5674
▁بلاول	-11.5674
▁دانکے	-11.5674
▁کنا	-11.5676
▁گپا	-11.568
▁چونا	-11.5684
▁دپار	-11.5685
across	-11.5688
▁سیا	-11.5689
▁رازاں	-11.5689
▁دادء	-11.569
▁ٹائپ	-11.569
away	-11.569
▁جر	-11.5691
▁درانی	-11.5691
▁حبرانی	-11.5692
▁انگار	-11.5693
▁سرجمء	-11.5693
▁ٹہک	-11.5695
▁Arm	-11.5696
▁شیراں	-11.5697
▁ائوکیں	-11.5698
▁اہدی	-11.5698
▁منتوار	-11.5702
▁عدل	-11.5702
▁ھمداں	-11.5703
▁کتب	-11.5704
▁پاور	-11.5704
▁گلگدار	-11.5706
▁گنبد	-11.5706
▁ھلو	-11.5706
▁چنال	-11.5707
▁route	-11.5709
ley	-11.5709
▁ایرجیگ	-11.5712
▁کیوبا	-11.5717
▁ملنڈ	-11.5718
▁توپ	-11.5719
▁ژوب	-11.5719
▁سندگ	-11.5721
▁رزان	-11.5722
ودی	-11.5722
▁ناگتیں	-11.5722
▁دگرء	-11.5723
▁اشترء	-11.5725
▁درتگیں	-11.5727
▁نگران	-11.5728
▁ڈیجیٹل	-11.5729
▁کشمیری	-11.5732
▁بیاراں	-11.5737
▁کامیابی	-11.5737
▁جلی	-11.5737
▁پہمئن	-11.5741
▁سرون	-11.5741
▁ایجوکیشن	-11.5741
▁ریسکیو	-11.5742
▁بندرگاہ	-11.5742
▁کلانچ	-11.5743
▁قصہی	-11.5744
▁28	-11.5744
▁چانگ	-11.5744
کرت	-11.5745
▁امریکہء	-11.5745
▁تکء	-11.5749
▁زهگ	-11.5749
▁ھردوئیں	-11.5752
▁انعام	-11.5754
دپ	-11.5757
▁مختار	-11.5758
▁توام	-11.5763
▁good	-11.5766
▁himself	-11.5766
▁لازمی	-11.5767
▁پاسپورٹ	-11.5768
▁get	-11.5769
▁رست۔	-11.5771
▁رؤف	-11.5771
▁مسترین	-11.5771
▁بقول	-11.5774
▁حضور	-11.5775
▁برد	-11.5779
لس	-11.5779
▁پلگاریں	-11.578
▁ایپلی	-11.5781
▁شیریں	-11.5783
▁دلگران	-11.5784
▁واکب	-11.5785
وانگ	-11.5787
▁کچکانی	-11.5787
▁گوربام	-11.5788
▁لگام	-11.5788
▁امب	-11.5791
▁سالا	-11.5791
▁تپر	-11.5792
▁کسٹم	-11.5793
▁عبید	-11.5795
▁تچکء	-11.5796
▁فنا	-11.5796
▁زربار	-11.5798
▁win	-11.5798
▁سرو	-11.5798
▁22	-11.5803
▁رستہ	-11.5805
▁جاپانی	-11.5808
مرد	-11.5812
▁تجابان	-11.5814
▁دیوالء	-11.5815
▁روزگاری	-11.5815
▁ایکسپریس	-11.5816
▁زریں	-11.5816
▁ابیتکیں	-11.5818
▁وهدی	-11.5818
▁ابات	-11.5819
▁اصلاح	-11.5822
▁جناور	-11.5825
▁نێمگا	-11.5826
▁ہستیں	-11.5827
▁کہنا	-11.5828
▁میرء	-11.583
▁بکشیت	-11.5831
▁خدائی	-11.5837
▁پیلہ	-11.5837
▁بدلا	-11.5839
▁شاہین	-11.584
▁ڪنت	-11.584
▁پتاتگ	-11.5841
▁پروردگار	-11.5845
▁چتکان	-11.5847
▁age	-11.5848
▁ایاز	-11.5848
▁جامعہ	-11.5849
▁نکس	-11.5851
▁جنئک	-11.5851
▁جین	-11.5854
▁ھمگرنچی	-11.5858
▁ریا	-11.5861
▁رحمدل	-11.5862
hose	-11.5863
ڪ	-11.5863
‘,’	-11.5863
▁تیابء	-11.5864
▁تاچ	-11.5865
▁مقرر	-11.5866
▁وتئ	-11.5866
ها	-11.5866
وھد	-11.5867
▁گوشداران	-11.5867
▁پلاسٹک	-11.5874
▁تے	-11.5874
▁ازلی	-11.5876
▁اک	-11.5876
▁امیدوار	-11.5879
▁پٹان	-11.5882
▁ڈیوا	-11.5883
▁بیدے	-11.5886
▁ملاء	-11.5887
▁وپتگیں	-11.5888
▁گوئشگ	-11.5888
▁بربادی	-11.5889
▁ارڈر	-11.5889
تاک	-11.5889
▁چیدگے	-11.589
اتک	-11.589
▁پیمانہ	-11.5893
▁پڑی	-11.5894
▁دف	-11.5898
▁ھیروپ	-11.5899
▁پلانٹ	-11.5899
▁تبدیلی	-11.5902
▁24	-11.5905
▁مجھ	-11.5906
▁featur	-11.5907
▁ہوری	-11.5907
▁Australia	-11.5908
زہرشانی	-11.591
▁انچشیں	-11.591
▁significant	-11.5912
درد	-11.5912
▁جہلء	-11.5918
▁کشوک	-11.592
▁بوت۔۔۔	-11.5923
▁لیپ	-11.5925
▁پچی	-11.5926
▁تچیت	-11.5926
▁الزام	-11.5926
▁رج	-11.5927
▁سلاحبند	-11.593
▁مہربانی	-11.593
c	-11.5931
▁ٹیل	-11.5933
▁ملوری	-11.5933
▁ہوشام	-11.5935
▁سیال	-11.5939
گوات	-11.5941
▁کمیونزم	-11.5944
▁تانہ	-11.5945
▁ورنت	-11.5946
▁ساہتے	-11.5947
▁حیالداری	-11.5947
▁son	-11.5949
▁مرضی	-11.595
▁باپشت	-11.595
▁وند	-11.5954
▁کرزیت	-11.5958
▁ھاؤس	-11.5961
▁عبدالرحمن	-11.5963
سنگ	-11.5966
▁گرام	-11.5968
▁رستری	-11.5969
▁چھوڑ	-11.5971
▁پسے	-11.5976
▁دراھی	-11.598
▁جمعی	-11.5984
▁important	-11.5984
ھدا	-11.5988
▁نادرا	-11.5989
▁گناھیں	-11.599
پشت	-11.5992
▁حلقہ	-11.5994
▁نگدکاری	-11.5994
▁کیسے	-11.5994
▁مسلہ	-11.5997
▁گنوکے	-11.5998
▁عالی	-11.5999
▁وردنی	-11.6
ical	-11.6001
▁نکاح	-11.6002
▁ساگر	-11.6003
▁حمیدہ	-11.6006
▁ہوت	-11.6008
▁نبشتہی	-11.6008
▁initial	-11.6009
▁تؤکا	-11.6009
▁نکل	-11.6009
▁ٹاؤن	-11.6011
▁شیعہ	-11.6011
▁یکپارگی	-11.6012
▁لاشعور	-11.6016
▁زیند	-11.6019
▁ھشتمی	-11.6021
▁درشت	-11.6021
▁وٹ	-11.6022
▁شاتو	-11.6023
▁دفتر	-11.6024
▁برمشے	-11.6033
▁ھندانی	-11.6035
▁father	-11.6035
▁پیژگاہ	-11.6036
▁ترز	-11.6041
▁مکان	-11.6041
▁ھدائی	-11.6042
▁دیستیں	-11.6045
شان	-11.6051
▁یکسد	-11.6056
رء	-11.6058
▁دیئے	-11.6058
▁چھوٹ	-11.6062
▁عبدالغفار	-11.6062
▁ائیر	-11.6067
▁ھسن	-11.6068
▁sign	-11.6068
▁ہماری	-11.607
▁act	-11.607
▁نکت	-11.6074
▁بنجلے	-11.6076
▁ربیدگانی	-11.6076
▁پرا	-11.6077
▁female	-11.6083
▁television	-11.6083
▁King	-11.6083
▁جرمکار	-11.6086
▁یےء	-11.6086
▁ریشاں	-11.6089
▁مڈل	-11.6089
▁شیک	-11.609
▁miles	-11.609
▁تھریک	-11.6093
▁الیاس	-11.6097
▁see	-11.6098
▁کائی	-11.6101
▁۔ما	-11.6102
▁تیوک	-11.6103
▁کلانی	-11.6103
▁اخرت	-11.6107
چیا	-11.6107
▁زیروک	-11.6107
▁eight	-11.6108
▁ھدے	-11.6108
▁کرچک	-11.6108
▁کردگالی	-11.6108
▁پولیسء	-11.6109
▁ناامیت	-11.6111
▁عبدالمجید	-11.6113
▁چوگان	-11.6116
▁خوب	-11.6117
▁لیوس	-11.6117
▁زروان	-11.6121
▁واسطہ	-11.6123
ہند	-11.6124
▁جوھر	-11.6128
▁ردیاں	-11.613
▁عورت	-11.6132
▁various	-11.6133
▁interest	-11.6133
▁گرگی	-11.6133
▁چربی	-11.6136
▁گلستان	-11.6136
▁اشکنگء	-11.6137
▁ہاک	-11.6138
▁پرینگ	-11.6139
▁سیاہی	-11.614
▁سلہ	-11.614
▁روپ	-11.6142
▁گشتگ۔	-11.6145
▁damage	-11.6145
▁!!!	-11.6151
▁زبانوں	-11.6152
▁بوتت	-11.6154
▁نواں	-11.6154
▁کسمت	-11.6156
سئے	-11.6158
▁minute	-11.6158
▁نادراھیانی	-11.6158
▁پرانی	-11.6162
▁پیدائش	-11.6163
▁لگا	-11.6164
▁مئیت	-11.6166
▁ازادیء	-11.6166
▁بانء	-11.6166
▁یکتنا	-11.6167
▁پرشیت	-11.6168
▁نیو	-11.6171
غنی	-11.6172
▁کوئٹہء	-11.6175
▁بڈا	-11.6176
▁تال	-11.6177
▁گشتگیں	-11.6179
▁مثلا	-11.6181
▁کرو	-11.6183
گڈی	-11.6183
▁تعالی	-11.6192
دیگ	-11.6196
▁شھریاں	-11.6197
▁ادیرہ	-11.6199
▁جھ	-11.6206
▁کلمکار	-11.6207
▁James	-11.6208
▁سنگاں	-11.6208
▁موداں	-11.6209
▁تسلہ	-11.6209
▁ه	-11.6209
▁امروہی	-11.6209
▁ننک	-11.621
▁پراھگ	-11.6213
▁ھیرات	-11.6218
▁باتاں	-11.6221
▁راھا	-11.6224
▁کوڈ	-11.6228
▁باعث	-11.6233
ماتی	-11.6234
▁stage	-11.6238
▁سیاھی	-11.6238
▁تعلیمی	-11.6239
▁بیلی	-11.6239
▁تسلیم	-11.6239
بے۔	-11.624
▁یکجائی	-11.6243
▁گزرانی	-11.6246
▁نارشت	-11.6252
▁شفیق	-11.6255
▁عبدالرحیم	-11.626
▁کرشن	-11.626
▁کی۔	-11.6261
▁چرگ	-11.6263
نیست	-11.6274
▁شموشتگ	-11.6278
▁جاؤ	-11.6278
▁دزکش	-11.6282
▁حملء	-11.6283
▁جھاؤ	-11.6284
▁مراگہ	-11.6285
▁ساچشتاں	-11.6288
▁ڈاک	-11.6288
▁رکھتے	-11.6288
▁نبیل	-11.6289
▁امریکائی	-11.629
▁کھڑکی	-11.629
▁رسینگ	-11.6293
▁جائز	-11.6302
▁کلیر	-11.6303
▁مالاں	-11.6304
▁ایٹمی	-11.6306
▁success	-11.6307
▁اینگو	-11.6308
▁ھڑتال	-11.6308
▁successful	-11.6308
▁case	-11.6309
▁does	-11.631
▁اروہی	-11.6314
▁ھمایانی	-11.6317
▁تعاون	-11.6319
▁میکسم	-11.6322
▁بگو	-11.6322
▁امنی	-11.6322
▁بیوس	-11.6323
▁هک	-11.6324
▁events	-11.6326
▁وشھالی	-11.6328
▁ترانے	-11.6329
▁شوهاز	-11.6329
▁تگران	-11.633
▁دیغ	-11.6331
▁یوں	-11.6333
▁سردارء	-11.6337
▁وصف	-11.6337
▁کمبل	-11.6338
▁داس	-11.6342
▁برکش	-11.6347
گانی	-11.6349
▁بیچار	-11.635
دستونک	-11.6351
دین	-11.6354
▁شاخ	-11.6355
▁چینء	-11.6356
▁موسیقی	-11.6359
▁peak	-11.6359
▁ماتاں	-11.6361
میتگ	-11.6362
▁کفر	-11.6363
▁نوبل	-11.6368
▁جیڑگانی	-11.6369
▁استاداں	-11.637
▁چیزان	-11.6372
▁ناھدا	-11.6372
▁بروان	-11.6373
▁پروشیت	-11.6373
▁درورء	-11.6373
▁نیزگار	-11.6376
▁ہنی	-11.6377
چیء	-11.6378
▁بہرگاں	-11.6381
▁discover	-11.6386
▁political	-11.6388
▁بچہ	-11.6389
▁پنتء	-11.639
▁برج	-11.6393
▁وردی	-11.6393
▁دزکشی	-11.6394
▁بیدء	-11.6395
▁یکدار	-11.6396
▁بات۔	-11.6396
▁استادانی	-11.6397
یکہ	-11.6398
▁تنگیں	-11.64
▁۔تو	-11.6401
▁جاہی	-11.6401
▁گیشینتگ	-11.6401
▁ملکموت	-11.6402
▁نگرہ	-11.6402
▁ناظم	-11.6403
وڑ	-11.6403
▁وشیء	-11.6404
شال	-11.6405
▁live	-11.6407
بالاچ	-11.6408
▁انت۔۔۔۔۔	-11.6408
▁مادنیں	-11.6408
▁انجینئر	-11.6409
▁ائیگا	-11.641
▁نوہ	-11.641
▁کٹی	-11.641
تربت	-11.641
▁ہلاپ	-11.6411
▁تقسیم	-11.6413
▁وہم	-11.6413
▁برئگ	-11.6417
▁منگی	-11.6418
▁حرچ	-11.6419
▁شوہازء	-11.642
کارے	-11.6421
▁کمانچر	-11.6423
پرچے	-11.6425
▁نسر	-11.6426
▁الماری	-11.6426
ادء	-11.6427
▁تماشا	-11.6427
▁دہلی	-11.6429
▁کماشے	-11.643
▁گوں۔	-11.6431
شعر	-11.6432
▁باہر	-11.6435
▁road	-11.6436
▁کلا	-11.6437
چوشیں	-11.6437
زم	-11.6438
▁شوھازء	-11.644
▁Black	-11.6441
▁mm	-11.6441
▁فائنل	-11.6441
▁زیملی	-11.6442
بیت۔	-11.6445
▁سداں	-11.6449
شتگ	-11.6458
▁سیٹھ	-11.6459
▁کارانت	-11.6462
▁بندیگی	-11.6463
▁کوکو	-11.6463
▁مراگاہ	-11.6463
▁میزاں	-11.6464
▁الحاق	-11.6466
ئین	-11.6466
▁زانے	-11.6467
▁زورے	-11.647
▁سوتے	-11.647
▁سات	-11.6472
▁انت۔ائیء	-11.6472
▁بندوبست	-11.6473
▁رنجانی	-11.6474
▁ترکگ	-11.6478
▁دژمنء	-11.6479
▁سیارہ	-11.648
شاد	-11.648
▁مھلب	-11.6481
▁شه	-11.6481
▁حالا	-11.6482
▁درگیج	-11.6488
▁ابداللہ	-11.6489
▁چمدار	-11.649
▁بنگپے	-11.6491
یکیں	-11.6497
▁لیکیت	-11.6499
▁کپٹن	-11.6505
▁ایرکنگ	-11.6506
▁ten	-11.6512
▁poem	-11.6513
▁پرکے	-11.6514
▁چونین	-11.6514
▁look	-11.6515
▁ناتپاکی	-11.6516
▁مشاہدہ	-11.6516
چونیں	-11.6517
▁اھوالکاراں	-11.6517
▁گپتیں	-11.6518
▁کلوھے	-11.6518
▁art	-11.652
▁اگل	-11.6524
▁ابکہ	-11.6527
▁پاگواجہ	-11.6527
▁نزیکا	-11.653
▁پدانک	-11.6531
▁براتء	-11.6535
▁بہائیں	-11.6535
▁انت۔چہ	-11.6539
با	-11.654
▁performance	-11.6541
▁برٹش	-11.6544
▁بجائے	-11.6545
▁بچکاں	-11.6546
▁قہر	-11.6548
لبز	-11.6548
▁ڈیلہ	-11.655
N	-11.6553
▁شاھگان	-11.6556
▁کاگدانی	-11.6556
▁سنسکرت	-11.6557
▁مارگء	-11.6557
▁ائن	-11.656
▁گوادری	-11.6563
رانی	-11.6563
▁کیامت	-11.6565
▁example	-11.6565
▁ڈھل	-11.6565
▁چارمکنڈ	-11.6566
▁need	-11.6566
▁County	-11.6566
▁گنجی	-11.6566
▁ہوارانت۔	-11.6567
▁ضمیر	-11.6568
▁کانچ	-11.6569
▁ثقافت	-11.6572
▁ہم۔	-11.6574
▁مبارکیں	-11.6576
▁کوپ	-11.6579
▁بانی	-11.658
تنت	-11.658
▁درتگ	-11.6582
مال	-11.6587
▁نگدکار	-11.6588
▁چلا	-11.659
▁پربستگ	-11.6591
▁sent	-11.6591
حسن	-11.6592
▁ناگ	-11.6592
▁پولیٹیکل	-11.6593
▁مشکلات	-11.6594
▁لڑے	-11.66
▁کنت۔اے	-11.6601
▁too	-11.6602
▁پنج	-11.6605
▁کٹیت	-11.6606
▁شیرء	-11.6607
▁وریں	-11.6607
▁میاری	-11.6607
▁مثالے	-11.6609
▁اندازگ	-11.6613
▁ازمکاری	-11.6615
▁دیمروئیء	-11.6616
▁۔ایشی	-11.6616
▁انت۔ھمے	-11.6618
▁خوبصورت	-11.6621
▁مصیبت	-11.6621
▁نامداری	-11.6623
▁انس	-11.6624
▁درابیت	-11.6625
▁ارواہء	-11.6628
سٹ	-11.6631
▁دیا۔	-11.6632
▁ناموس	-11.6632
▁ساہء	-11.6634
▁ھورء	-11.6642
▁ڈیھانی	-11.6642
▁چۆن	-11.6645
▁influence	-11.6645
▁جیڑہء	-11.6647
▁عرفان	-11.6647
▁مخصوص	-11.6648
اتاں	-11.6649
▁مجرم	-11.665
▁انلائن	-11.6651
▁ساچشتے	-11.6651
▁واکان	-11.6651
▁سادگی	-11.6653
▁زینت	-11.6655
▁ائینی	-11.6657
▁زہرگ	-11.666
▁یانی	-11.6661
▁ٹالسٹائی	-11.6661
▁ات۔ا	-11.6662
▁هوار	-11.6662
▁سنا	-11.6663
▁سانکلاں	-11.6666
▁معلومات	-11.667
▁رازے	-11.6671
▁تھران	-11.6672
مزن	-11.6673
▁منتء	-11.6676
▁جنیادم	-11.6678
▁مقدمہ	-11.6678
▁سروکے	-11.6679
▁should	-11.668
▁شانیں	-11.6682
▁زگری	-11.6683
یار	-11.6684
g	-11.6686
▁26	-11.6687
▁شمشتگ	-11.669
▁پولگ	-11.6692
▁سیکس	-11.6692
▁سرمگیں	-11.6693
▁مسکرہ	-11.6693
▁مراداں	-11.6694
▁نکتہ	-11.6695
▁effect	-11.6696
▁چوہدری	-11.6697
5	-11.6698
▁دوستیء	-11.6698
▁پرائمری	-11.6699
▁بزیر	-11.6699
▁فعل	-11.6699
▁پہوال	-11.67
▁عبدالقادر	-11.67
کیت	-11.6703
▁ارسطوء	-11.6704
▁مالدار	-11.6704
▁لوٹئے	-11.6706
▁ارادگ	-11.6706
▁ادارگاں	-11.6706
▁پتی	-11.6712
▁modern	-11.6712
▁بتلے	-11.6713
▁ماش	-11.6715
▁بازاراں	-11.6719
▁تلک	-11.6719
▁پچگرگ	-11.6719
▁معاہدہ	-11.672
▁ویکاریو	-11.6723
▁ازمون	-11.6724
▁حساس	-11.6726
▁شدید	-11.6726
▁بڑھ	-11.6729
▁بئیگء	-11.6729
▁تعمیر	-11.673
▁سرجمیء	-11.673
▁نیکراہی	-11.6732
▁تامدار	-11.6732
▁structure	-11.6732
▁نوشیروانی	-11.6733
▁ماضی	-11.6735
▁شوندات	-11.6735
▁سیمسرانی	-11.6741
▁مفت	-11.6744
▁اسنائپر	-11.675
▁حوصلہ	-11.6751
▁ٹائمز	-11.6752
▁احترام	-11.6755
▁ھرچے	-11.6758
چل	-11.6758
▁ریاضی	-11.6762
▁eventual	-11.6767
▁پمپ	-11.6768
▁گچک	-11.6769
▁ویرانیں	-11.6771
▁پدمنتگیں	-11.6772
▁یکشلہ	-11.6773
▁سخن	-11.6774
▁کپوک	-11.6774
▁قطار	-11.6774
▁قصہے	-11.6777
▁black	-11.6777
▁دلیں	-11.6778
ھیال	-11.678
▁ایشانء	-11.6783
▁وھدان	-11.6783
▁پڑے	-11.6784
▁درکرت	-11.6784
▁ناگتء	-11.6784
▁سیاه	-11.6785
▁ابے	-11.6789
▁ھمگام	-11.679
▁ھمدء	-11.6794
▁کفن	-11.6795
▁c	-11.6797
▁محض	-11.68
▁ندیستگ	-11.6801
▁کوہی	-11.6801
▁گوٹھ	-11.6804
▁دوزحہ	-11.6805
▁جائزہ	-11.6811
▁پیشہ	-11.6813
▁سہن	-11.6814
▁بنیں	-11.6817
▁بھرتی	-11.6817
▁ہندے	-11.6818
▁سلاه	-11.6818
▁المء	-11.6818
▁ہژدہ	-11.6818
▁غور	-11.6821
ایں	-11.6823
▁اگان	-11.6825
▁ground	-11.6825
▁چرچ	-11.6828
▁اجازہ	-11.6832
▁تیزیں	-11.6834
▁جبزگ	-11.6835
▁اطلاعات	-11.6837
▁لد	-11.6837
▁وختے	-11.6837
▁برزتر	-11.6839
▁پکائیں	-11.6839
▁لوٹائینگ	-11.6839
▁بگلء	-11.684
▁پائیدگ	-11.6841
▁زمزیل	-11.6842
▁رھوت	-11.6843
▁کدیں	-11.6843
▁بئیت۔	-11.6843
▁اید	-11.6844
▁ٹیکسی	-11.6846
▁بنگ	-11.6847
▁ازاتء	-11.685
سری	-11.6852
▁لوڑی	-11.6853
▁ازماں	-11.6853
▁پتار	-11.6854
▁2004	-11.6856
پرچاکہ	-11.6857
▁معمولی	-11.6858
▁بلوٹیت	-11.6858
▁نیز	-11.686
▁نورل	-11.686
▁ھنگت	-11.6862
▁نویساں	-11.6863
▁جاو	-11.6863
▁شماری	-11.6869
▁گمے	-11.6869
▁characters	-11.687
▁mid	-11.687
▁گونی	-11.6872
▁لوٹاں۔	-11.6874
گال	-11.6876
▁منصب	-11.6879
▁گزشت	-11.6879
▁کمبرانی	-11.688
برجاہ	-11.688
▁ڈگارے	-11.688
پیر	-11.688
▁جنوبی	-11.688
▁entire	-11.6882
▁2005	-11.6882
▁construction	-11.6883
▁پروٹین	-11.6883
▁جستاں	-11.6883
uir	-11.6889
▁نیار	-11.689
▁لیگار	-11.6891
▁اکسانی	-11.6891
▁اغاز	-11.6896
▁جرات	-11.6896
▁ادت	-11.6899
▁ڈر	-11.6905
▁درشتگ	-11.6906
چاپ	-11.6906
▁وشنود	-11.6907
▁سیاہگ	-11.6909
▁پژم	-11.691
▁راھبنداں	-11.6914
▁انٹیلی	-11.6915
▁بکرتین	-11.6916
لیں	-11.6916
▁مانیت۔	-11.6916
▁ہد	-11.6916
▁کالب	-11.6917
▁قسمے	-11.6919
۔۔۔بلے	-11.692
▁برزگ	-11.6924
▁مکی	-11.6926
▁پازلء	-11.6926
▁السء	-11.6926
▁اسمی	-11.6927
▁سپرے	-11.6928
▁سوچیت	-11.693
ئت	-11.6931
▁کودکیں	-11.6931
▁اورتگ۔	-11.6931
▁ڈنگر	-11.6933
▁اروک	-11.6933
▁جاهے	-11.6936
▁خاک	-11.6937
سرپد	-11.6938
▁عومر	-11.6938
ینان	-11.6939
▁ارزش	-11.6942
▁پادری	-11.6943
▁نادراھانی	-11.6946
▁درگ	-11.6948
▁رتک	-11.6951
▁کھر	-11.6953
▁اہی	-11.6954
سندھی	-11.6958
▁represent	-11.6962
▁ہمہ	-11.6966
▁پجارء	-11.6967
▁تاریخء	-11.6968
▁شیشہ	-11.6969
▁روکپت	-11.6975
▁زیریت	-11.6976
▁خواہ	-11.6978
ینت	-11.698
▁ھجالت	-11.6983
▁انونیں	-11.6987
or	-11.6988
▁سرحد	-11.6988
▁حقاں	-11.699
▁شزار	-11.6993
▁گئیں	-11.6993
▁انے	-11.6996
▁ازمانگ	-11.6997
دگ	-11.6998
▁امیتان	-11.6999
▁مرغ	-11.7
▁کشش	-11.7003
▁شاہگان	-11.7003
▁بداں	-11.7003
▁دفاع	-11.7004
▁سدھ	-11.7004
ڈن	-11.7006
▁نظریاتی	-11.7006
▁واجہیں	-11.7007
▁تج	-11.7008
▁بانزلاں	-11.701
برو	-11.7011
▁روشنائی	-11.7011
▁تیغ	-11.7011
▁کرام	-11.7017
▁کاڑ	-11.7018
▁مارء	-11.7021
▁دیمرہی	-11.7022
▁حالرسانی	-11.7022
▁دزاں	-11.7023
▁واهگ	-11.7027
▁میڑے	-11.7028
رگ	-11.703
▁بیتاں۔	-11.703
▁ھدیس	-11.703
▁ھیلکاری	-11.703
▁اںت	-11.703
▁سگریٹے	-11.7032
▁ائیڈیل	-11.7033
▁واجہاں	-11.7035
▁سورء	-11.7039
▁ذاتے	-11.704
▁پکنک	-11.7041
▁انتہائی	-11.7043
▁اثرمند	-11.7043
▁کید	-11.7044
▁نازرکی	-11.7044
▁رویش	-11.7044
▁ہشتاد	-11.7045
▁صبیحہ	-11.7045
ہانی	-11.7046
▁پدریں	-11.7046
▁الخط	-11.7047
▁سمالانی	-11.7048
▁ورگا	-11.7049
▁گاں	-11.7049
▁بوشت	-11.705
▁بارء	-11.7051
▁پئیما	-11.7054
▁دلکشیں	-11.7058
▁ہورک	-11.7062
▁نکن	-11.7063
▁اہتگ	-11.7068
▁گہتریں	-11.7069
▁گهتر	-11.7069
اجوئی	-11.7069
▁ہندوستانی	-11.707
سریں	-11.707
بانک	-11.7072
▁ننگار	-11.7073
▁مملکت	-11.7076
▁announc	-11.7079
▁بازارے	-11.7079
▁عقلء	-11.7082
▁برجاه	-11.7083
اماں	-11.7084
▁کنڈء	-11.7084
▁شامء	-11.7085
▁گمسار	-11.7085
▁جنزاں	-11.7086
▁اباں	-11.7087
▁کباب	-11.7088
▁دوزواہ	-11.7091
▁ماھانی	-11.7092
▁تمبو	-11.7094
▁national	-11.7094
▁دشمنیں	-11.7096
▁رازیگ	-11.7097
▁کندیت	-11.7099
▁راجمانء	-11.71
▁ھدامرزی	-11.7103
▁وہاب	-11.7103
▁ریں	-11.7103
شیا	-11.7103
▁ادبیات	-11.7104
▁مرادساحرء	-11.7105
▁کاملیں	-11.7109
▁ہمگرنچیں	-11.7112
▁تفسیر	-11.7114
▁زگر	-11.7115
▁رہبندء	-11.7115
▁نمائندہ	-11.7115
▁اکبت	-11.7118
▁سربر	-11.712
▁چارلس	-11.7121
▁پیالہ	-11.7123
▁زورگیر	-11.7124
▁برتگیں	-11.7126
▁اکرء	-11.7126
txt	-11.7127
▁others	-11.7127
▁ندارگانی	-11.7128
▁ھاکاں	-11.713
▁رکشہ	-11.713
▁گرانت	-11.713
گرمیں	-11.7131
▁مٹھا	-11.7131
▁تراں	-11.7132
▁حطرہ	-11.7133
▁زبریں	-11.7136
بشکن	-11.7137
▁فوٹو	-11.7138
▁leas	-11.7138
▁لکھا	-11.7139
▁رودینتگ	-11.7141
▁ھوشام	-11.7142
▁رندانی	-11.7143
▁صحب	-11.7144
▁نیمگی	-11.7146
▁سوداگری	-11.7147
▁اوشتات۔	-11.7148
▁جوابی	-11.7149
نز	-11.7149
▁پیشکان	-11.715
▁date	-11.7152
▁نگاہاں	-11.7152
▁locat	-11.7154
▁ڈاکٹردیدگ	-11.7156
▁روشے	-11.7158
▁کاؤنٹر	-11.7158
▁جنزے	-11.7162
▁فنڈ	-11.7163
▁زهیر	-11.7163
▁سرمچاری	-11.7166
مردمانی	-11.7166
▁سرام	-11.7166
▁دنیگت	-11.717
▁ناسرجم	-11.7176
حمل	-11.7176
▁ھندوستانی	-11.7178
▁رخشانی	-11.718
یشن	-11.7181
▁تنقیدی	-11.7181
▁شہدیں	-11.7181
▁ہجبر	-11.7184
▁ڈیھی	-11.7184
▁Road	-11.7185
▁دیتا	-11.7186
▁خشک	-11.7187
▁چولاں	-11.7187
▁شررنگی	-11.7188
▁مردینانی	-11.7188
▁منطقی	-11.7194
▁ازگ	-11.7197
شرف	-11.7197
▁دادے	-11.7197
▁پھمگ	-11.7199
ابا	-11.7203
▁سازء	-11.7204
▁دۆست	-11.7206
▁ٹیکسٹ	-11.7208
▁کوارٹر	-11.721
▁منڈی	-11.7211
▁اشیا	-11.7212
▁ابھی	-11.7213
▁بژنی	-11.7213
▁جاگاہ	-11.7217
▁جاگھاں	-11.7222
▁ثنا	-11.7225
▁کوڑی	-11.7227
▁لسٹ	-11.7228
جنک	-11.7228
▁چاپء	-11.723
▁hurricane	-11.7238
▁تلو	-11.7238
▁پارٹیانی	-11.7241
▁دلیر	-11.7245
▁داشتہ	-11.7246
▁کنات	-11.7248
▁بیبرگ	-11.725
▁واہشت	-11.7253
▁غلط	-11.7253
▁کتبی	-11.7254
▁پندے	-11.7255
▁ھدیسے	-11.7256
▁جمبرانی	-11.7256
اگر	-11.7257
▁پجاروک	-11.7258
▁گرکی	-11.7259
▁بہراں	-11.726
▁کمپین	-11.7261
▁کردارے	-11.7261
رس	-11.7265
▁پاچن	-11.7266
▁دراہگ	-11.7267
▁گرنیڈ	-11.7267
▁کپئگ	-11.7268
▁پائے	-11.7269
▁مکھیں	-11.727
▁بابتا	-11.727
▁یاتگیری	-11.7271
احمد	-11.7273
▁ہشک	-11.7275
▁میارباری	-11.7276
▁دلوں	-11.7277
▁ھول	-11.7277
▁نیادی	-11.7277
▁گدارانی	-11.728
ینتگ	-11.728
▁ئین	-11.7281
▁اکتر	-11.7283
▁انکلاب	-11.7284
▁خیالات	-11.7286
▁چارتگ	-11.7287
▁اتکیں	-11.7287
▁شکے	-11.7289
▁چریک	-11.7292
▁ساچشتکار	-11.7292
▁debut	-11.7293
▁عبدالعزیز	-11.7294
▁ریموٹ	-11.7294
بہر	-11.7294
▁جوہان	-11.7295
▁نوعیت	-11.7295
▁دیووند	-11.7297
▁لنککاں	-11.7298
ێ	-11.7299
▁استاراں	-11.7304
▁ھمراھانی	-11.7306
▁پائیدار	-11.7308
ایشاں	-11.7308
▁لچه	-11.731
▁گیتکگ	-11.731
▁کلاتے	-11.7316
▁نقشہ	-11.7319
▁difficult	-11.7321
▁Kingdom	-11.7321
▁شتاں۔	-11.7321
▁حقوق	-11.7322
▁کدء	-11.7323
▁گورگیج	-11.7323
▁پٹرول	-11.7324
▁شرو	-11.7324
▁دوسرا	-11.7326
سوب	-11.7326
▁جاپر	-11.7329
▁کانونی	-11.7329
▁اثرے	-11.7331
▁ذی	-11.7332
▁رخصت	-11.7335
▁انت۔یک	-11.7336
▁نیمونے	-11.7337
▁سیدھاشمی	-11.7337
رنگیں	-11.7338
دا	-11.7339
▁رومان	-11.7341
▁بوھگی	-11.7341
▁سیری	-11.7342
▁پٹھان	-11.7344
less	-11.7346
▁تشبیہ	-11.7346
▁شیراز	-11.7347
▁سانکل	-11.7348
▁کنڈاں	-11.7348
▁۔کہ	-11.7349
▁ببر	-11.7349
▁campaign	-11.7349
▁چیروکائی	-11.7351
▁چاغی	-11.7352
پمیشکا	-11.7355
انگت	-11.7356
▁خو	-11.7358
▁..	-11.7359
▁دھکانء	-11.7359
▁گیشتری	-11.736
▁چکان	-11.7361
▁رول	-11.7362
▁wide	-11.7362
▁حقء	-11.7362
▁سنٹر	-11.7365
way	-11.7367
شن	-11.7369
▁حذمت	-11.7371
▁provid	-11.7371
▁صدا	-11.7372
▁گریڈ	-11.7372
▁بوتگاں۔	-11.7373
▁سساء	-11.7378
▁سائنسداناں	-11.7378
▁Cup	-11.7378
▁اشوبے	-11.7379
▁انٹرویو	-11.738
▁ریلوے	-11.738
▁بچانی	-11.7382
hind	-11.7383
▁27	-11.7384
▁کنئگا	-11.7384
غوث	-11.7388
▁سکھ	-11.7392
▁ہمدپ	-11.7394
▁ئیت	-11.7397
▁جہلانکیں	-11.7399
▁کلاکاں	-11.7402
▁نہایت	-11.7404
▁انیس	-11.7405
▁victor	-11.7406
▁بچکانی	-11.7406
▁بدھ	-11.7407
▁امجد	-11.7408
▁سوویت	-11.7408
▁ھونی	-11.7409
▁سردیں	-11.741
گدار	-11.7411
▁ولا	-11.7411
▁works	-11.7415
▁تلاہ	-11.7416
▁گناھے	-11.7416
▁انان	-11.7417
▁بابر	-11.7422
▁ستون	-11.7424
▁تبی	-11.7425
▁انت۔منی	-11.7427
▁تیں	-11.7428
▁بنگپی	-11.7428
▁شہد	-11.7428
▁سنگیں	-11.7432
▁انکاری	-11.7432
▁رژناہ	-11.7433
▁واجھیں	-11.7433
▁مہروانیں	-11.7434
▁لمبر	-11.7434
▁ھے	-11.7436
▁وابجاہ	-11.7437
▁موں	-11.7437
▁مچار	-11.7438
▁میوزیم	-11.7444
▁بڈء	-11.7445
بت	-11.7445
▁لہڑی	-11.7446
▁addition	-11.7446
▁گردی	-11.7447
▁زورایت	-11.7449
▁هئیال	-11.7453
▁شائرء	-11.7453
▁کپن	-11.7454
▁guns	-11.7456
▁نابودی	-11.7462
دیما	-11.7462
▁گپتء	-11.7464
▁سرپراز	-11.7465
▁الطاف	-11.7465
▁شارء	-11.7465
▁دراجکش	-11.7465
▁حرابی	-11.7465
▁پندلے	-11.7467
▁شھداد	-11.7469
▁کمب	-11.7472
▁come	-11.7476
▁ریز	-11.7476
▁نوشتگ	-11.7476
▁سوداگر	-11.7479
▁رہوت	-11.748
▁کنک	-11.7481
▁گرو	-11.7487
وچ	-11.7491
▁Company	-11.7491
▁مرادساحر	-11.7491
▁نمائندگ	-11.7493
▁گوازینگء	-11.7493
▁نیامی	-11.7493
▁مارٹر	-11.7495
▁give	-11.7496
▁offer	-11.7498
▁بلۆچستان	-11.7502
▁نرس	-11.7502
▁سوٹ	-11.7503
▁ترانگ۔۔۔	-11.7504
▁پرما	-11.7504
▁چھرگ	-11.7504
▁پرمائیت	-11.7507
گیر	-11.7508
▁ٹکانی	-11.7509
▁موڑ	-11.7511
▁fight	-11.7513
▁ٹھک	-11.7513
z	-11.7514
▁گولڈ	-11.7515
▁وحدت	-11.7517
▁فیروز	-11.7518
▁انوگ	-11.7518
▁complet	-11.7519
پدء	-11.7519
▁کولیسٹرول	-11.752
شعرء	-11.7521
▁Island	-11.7522
▁جھدا	-11.7522
▁وشتریں	-11.7523
▁عبدالنبی	-11.7523
▁تامرے	-11.7525
▁لیں	-11.7526
▁زمستانی	-11.7528
▁ساسانی	-11.7529
اہ	-11.753
ia	-11.753
▁دھر	-11.7531
چشیں	-11.7543
▁بلوچیں	-11.7543
▁بیراں	-11.7543
▁پنجاپی	-11.7545
▁حرماگ	-11.755
▁بادشاہء	-11.7552
▁چیرمین	-11.7553
▁رپتگیں	-11.7555
▁پدمنتگی	-11.7556
▁مودانی	-11.7557
▁پوائنٹ	-11.7558
لو	-11.7559
▁دورہ	-11.756
▁گونڈل	-11.7562
▁انجن	-11.7562
▁highway	-11.7562
▁نمک	-11.7563
▁چاکرء	-11.7564
▁جوانیء	-11.7564
▁سکتے	-11.7566
▁liv	-11.7567
▁بژنیگ	-11.7567
▁کنڈی	-11.7567
▁ہونا۔	-11.7572
▁litt	-11.7576
▁گرفتار	-11.7577
▁ماہر	-11.7579
▁person	-11.758
▁گوشیت۔	-11.758
▁گرداں	-11.7582
کسی	-11.7583
▁خواہش	-11.7586
▁وین	-11.7586
▁جنگاں	-11.7586
▁بانداتے	-11.7586
▁لیو	-11.7587
▁پھول	-11.7587
▁کوچگاں	-11.7588
▁نیلیت	-11.759
▁گندوک	-11.759
▁زھیراں	-11.7591
گش	-11.7591
کانی	-11.7592
▁تما	-11.7593
▁روئیں	-11.7599
بد	-11.7603
▁بینت	-11.7605
ہیں	-11.7605
▁بوء	-11.7606
▁بیزن	-11.7606
▁ازمے	-11.7608
▁ڈوھدار	-11.7608
▁سرریچ	-11.7609
▁کوہلو	-11.7612
▁شکیل	-11.7612
▁کارکنانی	-11.7613
▁ڈیوڈ	-11.7613
گری	-11.7614
▁فاروقی	-11.7617
▁دراتکگیں	-11.7621
▁ابانی	-11.7622
▁گلائش	-11.7623
▁ھرام	-11.7625
دات	-11.7626
▁visit	-11.7628
▁درامدانی	-11.763
▁کھندان	-11.7632
▁جرمے	-11.7633
▁Some	-11.7635
▁اچکزئی	-11.7635
▁کہیر	-11.7635
▁لہجہ	-11.7639
اوار	-11.7642
▁لانس	-11.7647
▁تہاریء	-11.765
▁خیل	-11.7653
▁کشتی	-11.7654
▁زابل	-11.7655
▁انسٹی	-11.7656
▁گڈسری	-11.7658
الم	-11.7658
▁figure	-11.7664
▁کویت	-11.7665
▁ماشین	-11.7668
▁نیشنلزم	-11.7668
▁پاسداری	-11.7668
▁پرین	-11.7671
▁کاروائیاں	-11.7672
▁Love	-11.7675
▁عکسء	-11.7676
▁چیئر	-11.7678
▁سرھالانی	-11.768
▁شھزاد	-11.7682
سنگت	-11.7683
بندات	-11.7689
▁ھزاریں	-11.7693
▁رحمٰن	-11.7694
▁جزباتی	-11.7695
▁لقب	-11.7697
▁male	-11.7697
▁ٹہینگ	-11.7701
▁نزوریاں	-11.7703
▁جمعیت	-11.7703
▁نادراهی	-11.7705
چکہ	-11.7706
راں	-11.7707
▁ڈیھء	-11.7709
شیر	-11.771
▁عمری	-11.7718
▁پھرہ	-11.7718
▁ترانگء	-11.7718
▁Battalion	-11.7722
▁ناکوزتک	-11.7723
▁عصا	-11.7723
ought	-11.7725
▁ذاکر	-11.7725
▁ائیوکیں	-11.7726
▁شتر	-11.7728
▁کلگی	-11.7728
▁تئیگ	-11.7729
▁بختاور	-11.7729
▁سکول	-11.7729
▁موج	-11.773
▁born	-11.773
زندگی	-11.773
▁کوالٹی	-11.7734
▁خواب	-11.7739
▁ماہور	-11.7739
▁ہوگا	-11.774
▁کاگدء	-11.774
▁کھں	-11.774
▁believ	-11.7747
6	-11.7749
▁باتیل	-11.7749
▁تالاں	-11.7751
▁David	-11.7751
▁southern	-11.7751
▁wife	-11.7752
▁ناہک	-11.7752
▁سبزگ	-11.7753
سرء	-11.7755
▁افسانے	-11.7757
▁ثمر	-11.7759
▁ڈبی	-11.776
▁عنبر	-11.776
ھال	-11.7762
▁جاڑیں	-11.7767
▁مروشی	-11.7768
▁ھرچنت	-11.7771
▁میلانک	-11.7772
▁جواں	-11.7772
▁مچانی	-11.7777
▁نندیں	-11.7778
▁France	-11.7779
▁قندیل	-11.778
▁class	-11.7782
▁المین	-11.7783
▁غرض	-11.7783
▁نوکنڈی	-11.7783
▁بیچارگ	-11.7783
▁صبح	-11.7786
▁خواجہ	-11.7786
▁گھنٹہ	-11.7787
▁چاھے	-11.7789
▁تامور	-11.779
▁comment	-11.7795
جتائیں	-11.7796
▁مادری	-11.7796
▁ناکۆ	-11.7803
▁زو	-11.7804
▁اسٹور	-11.7805
▁زیل	-11.7806
▁شادمانی	-11.7807
▁مدئے	-11.781
▁women	-11.781
▁درکئیت	-11.7811
▁وٹامن	-11.7811
▁stars	-11.7812
▁زوتیں	-11.7814
▁جندئے	-11.7815
▁مشترکہ	-11.7816
▁انگیں	-11.7817
کاراں	-11.7818
▁وھم	-11.7821
▁ستارہ	-11.7826
▁دارگا	-11.7826
▁کڑک	-11.7829
دم	-11.7829
۔ائی	-11.783
▁ٹہل	-11.7831
▁شورہاں	-11.7832
▁لڑء	-11.7833
▁سببے	-11.7839
▁Brigade	-11.7839
▁نصراللہ	-11.784
▁study	-11.784
▁ٹھاٹھ	-11.784
▁کئور	-11.7842
▁وصیت	-11.7842
▁هں	-11.7844
▁بوپ	-11.7846
ھوار	-11.7851
▁loss	-11.7852
▁چراگاں	-11.7853
▁تاثر	-11.7857
▁بستر	-11.7858
▁پیلویں	-11.786
▁فعال	-11.7862
▁کراں	-11.7868
▁چوھدری	-11.7869
▁مھرنھاد	-11.7869
▁لورالائی	-11.787
▁دودے	-11.787
▁کنئے۔	-11.7872
▁بھتی	-11.7872
▁فردوسی	-11.7874
▁اصحاب	-11.7874
▁جائیں	-11.7877
▁داستانانی	-11.7878
▁کچی	-11.7883
▁بدنام	-11.7883
▁سیکنڈ	-11.7884
▁حسد	-11.7886
▁کاش	-11.7888
▁سوبے	-11.7891
▁واشنگٹن	-11.7893
▁نشانیاں	-11.7894
▁شانتگ	-11.7895
▁ویلے	-11.7896
▁report	-11.7896
▁رشت	-11.7896
▁زینب	-11.7898
▁بالشت	-11.79
▁تندجاہ	-11.79
▁mother	-11.7901
اگن	-11.7902
▁command	-11.7903
▁هند	-11.7904
▁استا	-11.7906
▁نورخان	-11.7906
▁داکتر	-11.7908
▁ہپتگ	-11.791
▁process	-11.7911
▁وڈے	-11.7911
▁چرپ	-11.7913
▁provide	-11.7914
▁گزی	-11.7915
▁دوسال	-11.7916
▁حالانکہ	-11.7916
▁ھندو	-11.7916
▁نمازء	-11.7918
▁۔۔۔۔۔۔۔	-11.7918
▁والد	-11.792
▁view	-11.7922
▁East	-11.7923
▁Robert	-11.7923
▁امت	-11.7926
انوں	-11.7927
▁میرانی	-11.7928
▁ازمءگوازی	-11.7928
▁eastern	-11.7929
▁ٹھوس	-11.7929
▁continue	-11.7929
▁چاکری	-11.793
▁اکوام	-11.793
▁تالہ	-11.7932
▁انقلابی	-11.7933
▁یاسمین	-11.7933
▁اعلیٰ	-11.7934
▁توپانی	-11.7937
بلکنا	-11.794
ہا	-11.7944
▁بیگانگ	-11.7946
▁ھاکمانی	-11.7947
”?	-11.7948
▁وانوکے	-11.7952
▁انہاں	-11.7952
▁کپے	-11.7954
▁مرا	-11.7956
▁night	-11.7957
▁love	-11.7959
▁relationship	-11.7959
▁اوبادگ	-11.796
▁عین	-11.796
▁الودگی	-11.7961
▁سینٹ	-11.7964
▁ٹھینگ	-11.7966
▁وائے	-11.7968
▁دزانی	-11.7969
▁عیبے	-11.797
▁وانیں	-11.7973
▁گالبندانی	-11.7976
▁بیت۔بلے	-11.7976
▁گرین	-11.7978
▁انفرادی	-11.7982
▁کورانی	-11.7986
شے	-11.7987
▁2015	-11.7988
▁2003	-11.7988
▁نوشت	-11.7989
▁سرینگ	-11.7989
▁داروگہ	-11.7989
ودار	-11.799
▁علاقائی	-11.7991
▁نگاھاں	-11.7992
▁Grand	-11.7992
▁زندئے	-11.7992
▁سچکان	-11.7993
▁سلاماں	-11.7996
▁se	-11.8
▁برق	-11.8
ist	-11.8003
▁گوئستگیں	-11.8004
▁کندگانی	-11.8006
▁پہمئنء	-11.801
▁ازگار	-11.801
جت	-11.8011
انگریزی	-11.8011
▁ناشریں	-11.8012
▁رۆچے	-11.8012
▁ایمرجنسی	-11.8019
▁نکسان	-11.802
▁گیڑھ	-11.8021
▁کالجء	-11.8022
▁سحب	-11.8022
▁سویت	-11.8024
▁نوبتاں	-11.8025
چاکر	-11.8025
▁روانبد	-11.8025
▁image	-11.8026
▁بندئے	-11.8034
▁امیتی	-11.8034
▁بزھگ	-11.8036
▁مہروان	-11.8038
▁پیرکی	-11.8039
▁دیوالے	-11.804
▁کاریاں	-11.8041
▁چاڑے	-11.8045
▁زیبائیء	-11.8048
▁افزائش	-11.8048
▁سیندک	-11.8049
مے	-11.8051
▁ہاترء	-11.8052
▁گرامر	-11.8052
▁ایشیئ	-11.8053
کہول	-11.8057
D	-11.806
▁پسیل	-11.806
▁اسراتیاں	-11.806
▁دیوار	-11.8064
پاد	-11.8064
▁لچہانی	-11.8064
▁مائی	-11.8064
▁جوک	-11.8065
▁ہیڈ	-11.8066
چاگرد	-11.8076
▁ودینگ	-11.8076
▁ساعتاں	-11.8077
▁ماڈرن	-11.8077
▁جاورھالانی	-11.8077
▁گوشتے	-11.8079
▁Other	-11.8079
▁میچل	-11.808
▁بنھشت	-11.808
▁کاروانے	-11.8083
▁نبشتانکء	-11.8083
▁سهر	-11.8086
da	-11.8087
▁ڈولی	-11.8088
▁کپتنت	-11.8088
▁پادگ	-11.809
▁بوجگ	-11.8094
▁ےء	-11.8094
▁سراپ	-11.8095
ران	-11.8095
▁کثہ	-11.8097
لگ	-11.8099
زندء	-11.81
▁ہسین	-11.81
▁مشگ	-11.81
▁دارئگ	-11.8105
▁اؤرت۔	-11.8106
▁واھگء	-11.8106
▁برس	-11.8109
▁جاندراھی	-11.8111
▁فائدگ	-11.8114
▁بوٹگ	-11.8115
▁دوارگ	-11.8117
▁چادرء	-11.8117
▁کماشانی	-11.8118
▁بیمناک	-11.8118
▁ڈنک	-11.812
▁وٹس	-11.812
▁جمبور	-11.8121
▁سرداروں	-11.8122
▁اصطلاحات	-11.8122
▁شاہدی	-11.8123
▁پیگام	-11.8125
▁زوراوریں	-11.8128
▁زرتہ	-11.8128
▁ابادء	-11.8129
▁بشارت	-11.8132
▁اشکی	-11.8132
▁نالگ	-11.8135
▁سربیت	-11.8135
▁ہیران	-11.8136
▁بغاوت	-11.8136
▁رئوت	-11.8137
▁ریشگ	-11.8138
▁ي	-11.814
▁ارگنائزر	-11.8141
▁تئوار	-11.8141
▁taken	-11.8141
▁مسقط	-11.8141
▁fourth	-11.8142
▁مرشی	-11.8142
▁پرسن	-11.8142
▁اۆدا	-11.8143
▁اسپر	-11.8146
▁درچکء	-11.8147
▁٭۔	-11.8147
▁گریتگ	-11.8148
▁سدء	-11.8149
?!	-11.8151
▁move	-11.8151
▁اشکن	-11.8151
▁امبری	-11.8154
▁حوری	-11.8155
▁مارشتء	-11.8156
▁ساھگے	-11.8158
▁کلاسیکی	-11.8159
▁کسھی	-11.8159
▁نانے	-11.816
▁پاھار	-11.816
ادب	-11.8163
▁جزماں	-11.8167
▁خالی	-11.8168
▁non	-11.8169
▁اهد	-11.8169
▁ثقافتی	-11.817
▁ٹیوٹ	-11.8172
▁Music	-11.8173
▁لٹریچر	-11.8173
▁انون	-11.8177
▁کسانین	-11.8178
▁جیڑت	-11.818
▁مریء	-11.8183
سور	-11.8184
▁مالانی	-11.8186
▁بیزاری	-11.8188
.........	-11.8196
▁Europe	-11.82
▁دیدگء	-11.82
▁پبلشرز	-11.82
▁European	-11.8201
▁بوک	-11.8205
▁چینکس	-11.8206
▁زاد	-11.8212
▁مقابل	-11.8213
▁دھکاں	-11.8214
▁جات	-11.8215
▁ملکان	-11.8215
▁سربیتگیں	-11.8215
▁ہلاک	-11.8216
▁گوشتگیں	-11.8217
▁تاگ	-11.8217
اولس	-11.8219
▁مارشتی	-11.8219
▁بدلہ	-11.8219
▁افسرے	-11.822
▁غفار	-11.822
▁ناراض	-11.8221
▁ابدمانیں	-11.8221
▁انت۔ا	-11.8222
▁مہرانکی	-11.8226
▁لاشاں	-11.8227
▁coast	-11.8228
▁بیتہ۔	-11.823
▁تناظر	-11.8231
re	-11.8233
▁کردستان	-11.8234
▁جگا	-11.8235
▁دزکپتگ۔	-11.8236
▁دکانء	-11.8238
▁goal	-11.824
▁شہیدی	-11.8242
▁وسء	-11.8244
▁جوانین	-11.8245
▁شئیراں	-11.8245
▁ماڈی	-11.8246
عطا	-11.8246
یت۔	-11.8248
▁تفصیل	-11.8249
▁مانشانتگ	-11.825
▁کلیم	-11.825
▁نادان	-11.8254
▁ارامی	-11.8255
▁اوزار	-11.8256
▁وتاس	-11.8257
▁اروسی	-11.8257
▁exist	-11.8257
شک	-11.8258
▁مبات	-11.826
▁کھور	-11.826
▁استونک	-11.8261
▁پتلون	-11.8263
▁بگوشاں	-11.8263
▁خدائیداد	-11.8264
▁چمپل	-11.8265
▁بندیگجاہ	-11.8267
▁Roman	-11.8269
▁بوؤگء	-11.8269
▁نمیرانی	-11.827
▁بانکیں	-11.8271
▁ہرجاہ	-11.8276
▁گے۔	-11.8278
▁سرمگ	-11.8281
▁face	-11.8284
▁بوتل	-11.8285
وری	-11.8286
▁بگشاں	-11.8286
▁وانوکء	-11.8288
▁جواز	-11.829
▁مومنء	-11.8291
▁سرگوستے	-11.8294
▁ساجو	-11.8295
▁جھلانکی	-11.8295
▁decided	-11.8296
▁نازی	-11.8296
الوں	-11.8298
▁چاک	-11.8299
▁بؤکیں	-11.8299
el	-11.8301
▁سیریں	-11.8303
نٹ	-11.8303
▁مجتی	-11.8305
▁میک	-11.8305
▁رہیم	-11.8306
▁مارشل	-11.8308
▁پھزدار	-11.8312
▁ھیرانی	-11.8313
▁باگیں	-11.8313
▁مختصر	-11.8315
▁کاھان	-11.8321
▁گردیں	-11.8321
▁افس	-11.8322
▁تامربند	-11.8324
▁heavy	-11.8324
▁نداتگ	-11.8326
▁دلچسپی	-11.833
▁زوریت۔	-11.833
▁ھمراھے	-11.8331
▁امیتء	-11.8332
▁چرک	-11.8333
▁نکناں	-11.8333
▁رستیں	-11.8335
▁بلور	-11.8337
لٹ	-11.8338
▁idea	-11.834
▁ارٹس	-11.834
▁مران	-11.8342
۔بزاں	-11.8345
▁تالانی	-11.8347
▁کنزگ	-11.835
دری	-11.835
▁race	-11.8354
▁گرئے	-11.8355
▁بیٹ	-11.8356
▁کچء	-11.8356
▁پولیو	-11.8356
▁گولا	-11.8357
▁اکیڈیمی	-11.8357
▁سکریٹری	-11.8357
▁مہتر	-11.8357
▁۔ائیء	-11.8358
cy	-11.8359
▁اتکء	-11.836
▁گندک	-11.8362
▁واڑ	-11.8362
▁گھڑی	-11.8363
▁کیمت	-11.8363
▁دمکے	-11.8364
▁ملٹری	-11.8364
ford	-11.8368
▁پاچ	-11.8368
▁کیچی	-11.8368
▁گوستگال	-11.8368
▁ضلعی	-11.8369
▁نزارگ	-11.837
▁دریگء	-11.8371
▁مادگ	-11.8374
▁پچاں	-11.8376
▁ملوک	-11.8376
▁ناسرپدی	-11.8378
▁ایشر	-11.8379
▁باکس	-11.838
▁problem	-11.8386
▁ازر	-11.8386
▁جہانے	-11.8387
▁ساچشتء	-11.8388
▁بشکھندگی	-11.8388
▁sold	-11.8388
▁امشپی	-11.8388
▁White	-11.839
کنت۔	-11.8392
▁باھوٹی	-11.8392
▁فلیٹ	-11.8393
▁لاک	-11.8394
▁سوک	-11.8399
▁گلو	-11.8401
▁گورانی	-11.8401
▁کنزان	-11.8405
▁پتھر	-11.8405
▁بچی	-11.8406
▁نوائے	-11.8406
▁پشکپتگیں	-11.8408
▁تاریک	-11.841
ance	-11.841
▁دریکگ	-11.8412
▁بانوری	-11.8412
▁لوزانت	-11.8413
▁رسانکجاھ	-11.8414
▁40	-11.8418
▁اوستانی	-11.8419
▁رواجی	-11.842
▁میڑاں	-11.842
▁بناء	-11.8422
▁سرائیکی	-11.8424
▁شپک	-11.8425
▁کوهن	-11.8428
▁رودینگ	-11.8428
▁کرداں	-11.8433
▁نویسے	-11.8435
کارانی	-11.8435
▁ارزشتی	-11.8435
▁فیلڈ	-11.8436
▁لوکل	-11.8437
▁گوست۔	-11.8438
▁program	-11.8442
▁رستم	-11.8443
▁پٹاں	-11.8448
▁individual	-11.8448
▁tog	-11.8451
▁گوہرام	-11.8453
▁ریھان	-11.8459
▁سچیت	-11.8461
▁درباری	-11.8464
تہا	-11.8466
▁توجہ	-11.847
▁ندی	-11.8472
▁ھرجان	-11.8472
▁کادر	-11.8474
جوانیں	-11.8475
▁تلوار	-11.8477
▁دروشمانی	-11.8479
▁سوغات	-11.8479
▁lack	-11.848
▁سیما	-11.8481
▁ہوٹلء	-11.8481
▁جزیرہ	-11.8483
▁دوز	-11.8485
وہدیکہ	-11.8488
▁ندات	-11.849
▁کماشء	-11.8491
▁شیرکن	-11.8493
▁ھجالتی	-11.8493
▁چکگ	-11.8494
▁زاھدہ	-11.8496
II	-11.8496
کنئگ	-11.8497
▁ناوشیں	-11.8499
▁کوھے	-11.85
▁mi	-11.8501
▁زہیرانی	-11.8502
▁consist	-11.8503
▁خلق	-11.8504
▁دریاب	-11.8508
▁زھن	-11.8509
▁پارٹیز	-11.851
▁condom	-11.8511
▁فقط	-11.8514
▁ٹھیکہ	-11.8517
▁نوان	-11.8519
▁ستاہ	-11.8524
کرتگ	-11.8525
▁داوت	-11.8525
▁جبل	-11.8526
▁cell	-11.8527
▁We	-11.8527
▁زریت	-11.853
▁دلوش	-11.8531
▁ارسی	-11.8534
▁وشال	-11.8536
▁غار	-11.8537
▁put	-11.8537
▁بسم	-11.8538
▁نمای	-11.8538
▁اوٹ	-11.8539
انچش	-11.8541
▁limit	-11.8542
▁rule	-11.8543
▁Earl	-11.8543
▁Carey	-11.8544
▁rest	-11.8544
▁اعجاز	-11.8545
▁عبدالرحمان	-11.8545
▁گودی	-11.8546
▁درخانی	-11.8548
▁قاضیء	-11.855
کمیں	-11.8551
▁پتاں	-11.8554
▁جہگیری	-11.8556
▁ہڑتال	-11.8561
▁ازمکارے	-11.8561
چوں	-11.8564
▁ملان	-11.8565
▁کردگار	-11.8565
▁لینا	-11.8567
▁غذائی	-11.8573
▁Royal	-11.8575
▁کک	-11.8575
▁تصدیق	-11.8576
▁رائی	-11.8576
▁عاشقی	-11.8576
!!!	-11.8576
▁جپت	-11.8578
▁گانی	-11.8578
▁زامرانی	-11.858
▁گوزوکیں	-11.8581
▁me	-11.8582
▁اچے	-11.8582
▁عاروس	-11.8584
▁دلوتاں	-11.8588
▁اندرا	-11.8588
▁سلیمانی	-11.8591
▁شدہ	-11.8592
مار	-11.8594
▁مکرانی	-11.8596
▁دازن	-11.8597
سہ	-11.8598
▁شپاد	-11.8603
بندی	-11.8603
▁سالار	-11.8604
▁ھمائیء	-11.8605
▁جهل	-11.8605
▁مالء	-11.8605
▁ارسے	-11.8605
▁سہل	-11.8607
▁گندات	-11.8607
▁مدافعت	-11.8608
▁برقرار	-11.8608
▁accept	-11.8609
▁چریشانی	-11.8611
▁منڈ	-11.8611
▁معراج	-11.8611
▁وتساچیں	-11.8611
▁انٹیلیجنس	-11.8611
▁زیور	-11.8613
ma	-11.8617
▁رپورٹس	-11.8624
▁روژنائیں	-11.8624
▁گوریچان	-11.8626
▁اغہ	-11.8627
کسانیں	-11.8627
اسر	-11.8635
▁بتایا	-11.8636
گین	-11.8636
▁ویسٹ	-11.8638
▁begin	-11.864
▁shot	-11.8641
▁ساھیل	-11.8641
▁بئیں۔	-11.8642
▁اکساں	-11.8642
▁ھوالگ	-11.8642
▁کوھیں	-11.8644
▁وارتگ۔	-11.8645
▁communit	-11.8647
▁ڈاکٹرانی	-11.8649
.......	-11.8649
▁پٹک	-11.8651
نازک	-11.8652
▁احوالکار	-11.8653
▁خوار	-11.8654
▁جاں	-11.8654
▁پٹے	-11.8655
حیال	-11.8656
▁قطر	-11.8656
چارگ	-11.8658
▁پنگ	-11.8669
▁سنگتان	-11.8669
▁وشین	-11.8669
▁احمدان	-11.8671
▁مشرف	-11.8671
▁سافٹ	-11.8672
▁مزھب	-11.8672
▁دوچگ	-11.8677
▁جاھی	-11.8677
▁قوتانی	-11.8679
▁گھ	-11.868
▁my	-11.868
▁واقعی	-11.8681
▁نظیر	-11.8691
▁شاہگانی	-11.8692
▁village	-11.8693
▁بدنت۔	-11.8695
▁درامدے	-11.8695
▁رژنے	-11.8698
▁post	-11.8702
▁کچل	-11.8702
▁ناوشی	-11.8705
▁کنڈیرا	-11.8705
▁حسی	-11.8706
▁انکھوں	-11.8707
▁گئے۔	-11.8707
▁ننگر	-11.8707
▁سروسز	-11.8707
▁گندئگ	-11.8712
ایان	-11.8713
▁تعلقات	-11.8718
▁جنێن	-11.872
▁جنگلات	-11.8722
▁ہوں۔	-11.8722
▁کاریء	-11.8727
▁نیوگ	-11.8728
▁تلاش	-11.8729
▁چور	-11.8735
▁protein	-11.8735
▁اکانومی	-11.8735
▁Federer	-11.8735
▁بینر	-11.8736
▁سکتی	-11.8736
k	-11.8737
▁سوالی	-11.8738
▁تحقیقی	-11.8738
▁کرتء	-11.8738
▁جھینگا	-11.8738
▁ساربان	-11.8739
▁سیلاب	-11.874
▁البرٹ	-11.8742
▁چشمک	-11.8743
▁کمر	-11.8746
▁چھاپء	-11.8746
▁رخشان	-11.8747
▁منان	-11.8747
▁بھائیں	-11.875
▁روانت	-11.8752
ئنت	-11.8752
▁ڈنگی	-11.8753
▁ہپتگے	-11.8754
▁زیردستیں	-11.8754
▁بٹے	-11.8754
▁ترجمان	-11.8755
▁رجانکارء	-11.8759
▁اچھا	-11.8762
▁ہالو	-11.8762
▁29	-11.8763
ities	-11.8763
عمر	-11.8764
▁چانسلر	-11.8768
یان	-11.8768
▁سؤب	-11.8768
▁ربیتے	-11.8769
▁اجز	-11.8769
▁فرقہ	-11.877
▁کلمت	-11.8771
▁مشہوریں	-11.8771
▁حاکمانی	-11.8772
▁لیبیاں	-11.8773
▁co	-11.8773
▁شرپی	-11.8773
▁شانت	-11.8775
▁حدود	-11.8775
▁عبدالصبور	-11.8776
▁نشتگ۔	-11.8776
▁fall	-11.8777
▁خوف	-11.8777
برگ	-11.8777
▁بستی	-11.8778
▁کمیت	-11.8778
▁ارگی	-11.8779
سردار	-11.8782
▁ازمانی	-11.8783
▁کوشکار	-11.8784
اڑے	-11.8785
▁ترانگانی	-11.8786
▁کساسء	-11.8786
▁گرپتاری	-11.8786
▁سرک	-11.8787
▁اشکانی	-11.8789
▁شدیگ	-11.8789
▁رکھتا	-11.8791
▁سالیگیں	-11.8792
▁دھمی	-11.8793
▁پرشتہ	-11.8793
▁رودپتر	-11.8794
▁دروازگے	-11.8796
ھان	-11.8797
▁اسراتیانی	-11.8797
▁دوائی	-11.8799
▁باجی	-11.8799
▁چورہ	-11.88
▁منزور	-11.8801
▁رکھنے	-11.8802
▁مشھد	-11.8803
▁پرنسپل	-11.8804
▁مڑدے	-11.8808
▁پتینکاں	-11.8808
▁ورناء	-11.881
▁چیٹ	-11.8811
▁شناست	-11.8811
▁پرگ	-11.8812
▁source	-11.8812
▁کربلا	-11.8812
▁داغ	-11.8812
▁director	-11.8813
▁بحالی	-11.8813
اراں	-11.8815
▁گورکوپ	-11.8816
▁ہردوئیں	-11.8817
مند	-11.8818
▁چیدگانی	-11.8819
▁عکسانی	-11.8821
▁جیک	-11.8822
▁gun	-11.8823
▁بھارتی	-11.8823
▁عشقی	-11.8826
▁front	-11.8826
▁شورہ	-11.8827
▁انیگ	-11.8827
▁نودی	-11.8827
▁نیما	-11.883
▁اشکنوک	-11.883
▁گالوارء	-11.8832
▁International	-11.8832
▁George	-11.8833
▁بشی	-11.8833
▁مشکلے	-11.8834
▁گرمائشت	-11.8834
▁نیکشھر	-11.8834
▁ہاجی	-11.8835
▁میاربار	-11.8837
▁manager	-11.8837
▁William	-11.8838
▁سرپرہ	-11.8838
▁غریبی	-11.884
▁پیز	-11.884
▁گيئش	-11.8845
▁mov	-11.8846
▁جیسی	-11.8848
▁دلئ	-11.8849
▁دوئم	-11.8852
▁کارنت	-11.8855
۔پدا	-11.8857
▁جیسا	-11.8857
▁میٹرک	-11.8859
▁زبانےء	-11.886
▁زورگپت	-11.8864
▁لنککانی	-11.8864
▁شیتان	-11.8865
ve	-11.8868
▁center	-11.8868
▁رزق	-11.8868
▁میس	-11.8868
▁روپگ	-11.887
▁ااے	-11.8871
روگ	-11.8872
▁سورج	-11.8873
▁رسمء	-11.8874
▁سرکش	-11.8875
ine	-11.8875
▁گامگیجے	-11.8876
شہر	-11.888
one	-11.8881
▁برگا	-11.8882
▁استعارہ	-11.8882
▁ہاشم	-11.8883
▁activit	-11.8886
▁بنیادمء	-11.8888
▁گہیں	-11.8889
▁کارہندہ	-11.8891
▁ناں۔	-11.8893
▁خداء	-11.8896
▁language	-11.8898
▁Wales	-11.8898
▁مھناز	-11.8901
▁شاھگانیں	-11.8902
▁شومک	-11.8906
▁نیمء	-11.8907
▁دوہ	-11.8909
▁مصرعہ	-11.891
▁involv	-11.8912
▁پیشء	-11.8913
▁دلپروشی	-11.8916
▁ماھو	-11.8916
▁کندن	-11.8918
▁جنوب	-11.892
▁نیزگاری	-11.8923
▁ٹویٹ	-11.8924
باید	-11.8925
▁هنچو	-11.8926
الی	-11.8927
دیر	-11.8928
▁مودی	-11.893
▁اسکولے	-11.893
▁ڈیمز	-11.893
▁رکست	-11.893
▁کما	-11.8931
▁چڑو	-11.8931
▁ڈھانچہ	-11.8931
▁میدانی	-11.8932
▁بٹاک	-11.8933
▁مشق	-11.8934
▁کرگ	-11.8937
▁لہر	-11.8937
▁member	-11.8937
▁کبرانی	-11.8938
▁نادینت	-11.894
▁تمردی	-11.8944
▁opening	-11.8945
▁کپی	-11.8946
▁گج	-11.8951
▁ٹرین	-11.8954
▁کائیگر	-11.8955
▁بیشک	-11.8959
▁دھوت	-11.8961
▁صورتے	-11.8961
▁God	-11.8961
▁regular	-11.8964
▁current	-11.8964
▁صفائی	-11.8966
▁ناس	-11.8966
▁سومری	-11.8967
▁زیرک	-11.8967
▁واضح	-11.8968
تم	-11.8968
▁wall	-11.8969
▁ra	-11.897
▁ask	-11.8972
▁ات۔۔۔۔	-11.8973
▁دمکانی	-11.8973
▁قاری	-11.8973
▁زنگی	-11.8974
▁مادنی	-11.8974
▁مرادے	-11.8975
▁بشکندگ	-11.8975
▁دکھ	-11.8977
▁ڑ	-11.8978
▁دیوی	-11.8986
▁باراں	-11.8986
▁درشانگ	-11.899
ين	-11.8992
▁گردہ	-11.8997
▁دؤ	-11.8998
▁جدلیات	-11.8999
▁سپرء	-11.9001
▁نجی	-11.9002
▁مشیر	-11.9002
▁تصوف	-11.9003
▁نبشتگ۔	-11.9003
▁tho	-11.9004
▁نیزگاریں	-11.9005
▁دستونکء	-11.9007
▁سائیٹ	-11.901
ship	-11.9012
▁درکپان	-11.9013
چست	-11.9013
جارکش	-11.9014
▁امنہ	-11.9015
▁چگین	-11.9016
▁داناں	-11.9019
▁سرکتگ	-11.9023
▁عبدالقیوم	-11.903
▁تھئی	-11.903
▁راولپنڈی	-11.9031
▁پسگاں	-11.9032
▁اسٹاف	-11.9032
▁چلشت	-11.9039
مچ	-11.9039
▁ہمائیء	-11.904
rought	-11.9041
ircraft	-11.9042
▁جماز	-11.9043
▁لنج	-11.9047
▁شاپی	-11.9047
▁دوم	-11.9047
نومبر	-11.9048
▁کسهے	-11.9048
▁کارل	-11.9048
▁سوزمان	-11.905
▁destroy	-11.9053
اسحاق	-11.9054
▁subse	-11.9055
▁دیتگ	-11.9055
▁واپار	-11.9057
▁پپ	-11.9059
K	-11.9061
▁پروشان	-11.9061
▁گواش	-11.9063
▁مانچسٹر	-11.9064
.”	-11.9066
▁مش	-11.907
▁زہن	-11.9073
▁اریائی	-11.9073
▁موکہ	-11.9076
▁توکی	-11.9076
▁ادینکے	-11.9077
یش	-11.9077
▁سینما	-11.9077
▁پوره	-11.9078
▁ہیک	-11.9079
▁درونتاں	-11.9079
▁بلکین	-11.9081
▁بیپاری	-11.9082
▁لبنان	-11.9085
گٹ	-11.9085
▁حاندان	-11.9088
▁Hero	-11.9089
نس	-11.9091
▁رسین	-11.9091
▁پہلا	-11.9091
▁درپش	-11.9091
▁مڑگ	-11.9092
▁تورات	-11.9093
▁گورگ	-11.9094
اتکگ	-11.9097
▁clear	-11.9097
▁خلیات	-11.9097
▁مارکسزم	-11.9099
▁طویل	-11.9099
▁مانگیش	-11.91
▁House	-11.91
ld	-11.9102
▁کارمرزگ	-11.9104
▁wh	-11.9105
▁زرورت	-11.9105
سد	-11.9108
▁گوستء	-11.9108
▁بٹن	-11.9114
▁prais	-11.9117
▁بہتامے	-11.9117
▁اکل	-11.9119
▁بلڈنگ	-11.9119
▁کپتان	-11.9119
▁far	-11.912
▁لکانی	-11.9121
▁ہمبل	-11.9121
▁ھزارہ	-11.9123
▁پہنچا	-11.9123
▁رھبندء	-11.9124
کشگ	-11.9124
▁اعلان	-11.9125
▁صابرء	-11.9125
▁شاھگانی	-11.9126
▁خر	-11.9128
▁لۆگئے	-11.9129
▁توجیلے	-11.913
▁Street	-11.9131
▁افیشل	-11.9134
۔پمیشکہ	-11.9137
▁بھاگ	-11.9138
▁کوشاں	-11.914
▁باطنی	-11.914
▁شرتگ	-11.9141
▁دیتی	-11.9145
ورگ	-11.9146
▁مہماناں	-11.9147
▁نیادے	-11.915
▁محرم	-11.9152
▁ھردوکانی	-11.9154
حال	-11.9156
اوانی	-11.9156
▁زردار	-11.9156
جا	-11.9158
▁طالع	-11.916
▁recording	-11.9164
▁Championship	-11.9164
▁نورمحمد	-11.9165
▁جیڑگاں	-11.9165
▁مہنگائی	-11.9165
▁الھان	-11.9166
▁مھلہ	-11.9167
▁ٹریک	-11.9168
▁طاھر	-11.9169
▁بندین	-11.917
▁رؤت۔	-11.9171
▁فاطمہ	-11.9171
▁ever	-11.9172
▁نزوریانی	-11.9172
▁کتکار	-11.9173
▁کوپگانی	-11.9175
روسی	-11.9175
▁نندان	-11.9176
▁شمالی	-11.9177
▁کب	-11.9179
▁بڑگ	-11.918
ناصر	-11.9182
▁ھالتاک	-11.9185
▁ماتو	-11.9187
▁زلمانی	-11.9188
▁مہرنگ	-11.9189
▁کین	-11.9189
▁مافیا	-11.9189
حق	-11.9192
▁ریگزار	-11.9195
▁واہگاں	-11.9196
▁باتنء	-11.9198
▁artist	-11.9198
▁Follow	-11.9198
▁براں۔	-11.9198
▁زندمانء	-11.9199
▁ٹائر	-11.9201
▁مردیناں	-11.9202
▁موجودگی	-11.9202
▁ماشکیل	-11.9204
▁رودین	-11.9204
▁بیاات	-11.9206
▁رودینی	-11.9207
▁شاھوانی	-11.9208
▁یاری	-11.921
▁پترت۔	-11.9211
▁پھزداری	-11.9211
▁زیبدار	-11.9212
▁رجانکء	-11.9212
▁خوبی	-11.9215
▁ساهگ	-11.9216
▁جونے	-11.9219
▁جمر	-11.922
▁قبرء	-11.9225
▁بلیت	-11.9227
▁تمردیں	-11.9228
▁ابتدائی	-11.9231
▁Jordan	-11.9232
ٹر	-11.9233
p	-11.9233
▁دفعہ	-11.9235
▁ندار	-11.9237
▁بانڑی	-11.9237
ۆکێں	-11.9238
▁میلان	-11.924
▁ہاتھوں	-11.9242
▁appearance	-11.9242
▁سمیت	-11.9246
یس	-11.9246
عر	-11.9246
▁دگاں	-11.9248
بیان	-11.9248
▁hit	-11.925
▁کانی	-11.9251
▁گداری	-11.9252
▁کردیا	-11.9254
▁ابر	-11.9255
▁لچہی	-11.9257
▁پورے	-11.9258
▁لوگا	-11.9258
▁دروراں	-11.9259
▁mix	-11.9259
▁اھدء	-11.926
ھموداں	-11.9261
نبشتگ	-11.9261
نشتگ	-11.9263
▁دگء	-11.9263
▁پتن	-11.9263
گان	-11.9263
▁From	-11.9266
▁evidence	-11.9266
▁regard	-11.9266
▁معشیت	-11.9266
▁commercial	-11.9266
▁عبدالقدوس	-11.9268
▁نویسانی	-11.9268
▁استی	-11.9269
▁حور	-11.927
▁وسیع	-11.9271
▁ماہل	-11.9272
2014	-11.9273
▁تہراں	-11.9274
▁درانڈیھ	-11.9274
▁چینچک	-11.9276
▁ببارت	-11.9277
▁ٹینک	-11.9277
▁واھش	-11.928
▁anti	-11.9283
▁ییں	-11.9283
▁ٹاپار	-11.9283
▁کلاکے	-11.9284
A	-11.9286
▁گوج	-11.9286
▁ہمد	-11.9288
تران	-11.9288
▁ساہگء	-11.9289
▁"","	-11.929
▁yard	-11.9292
▁دلار	-11.9293
▁central	-11.9293
▁کسانسال	-11.9295
عبداللہ	-11.9298
▁بیچارگیں	-11.93
▁gain	-11.9301
▁ھالتران	-11.9302
▁راجداری	-11.9302
▁لہڑئگ	-11.9303
▁غزہ	-11.9303
▁گٹء	-11.9304
▁وجودی	-11.9304
........	-11.9308
▁کھنت	-11.9311
▁بارش	-11.9312
▁شہرانی	-11.9314
▁جذباتی	-11.9315
▁جمالیاتی	-11.9315
▁وانگیانی	-11.9315
▁Christian	-11.9316
▁لائکی	-11.9317
▁اوپن	-11.9325
ایے	-11.9326
ian	-11.933
▁سہولت	-11.9335
▁hand	-11.9336
▁بندنت	-11.9336
▁کرامات	-11.9336
▁رچیت	-11.9336
▁سوزش	-11.9337
▁پوشاکاں	-11.934
▁وسیلہء	-11.934
▁مکہیں	-11.9341
▁رہتا	-11.9341
▁ھاجت	-11.9342
▁قدیمی	-11.9343
▁ایدا	-11.9344
▁جہتء	-11.9346
حدا	-11.9346
▁شخصی	-11.9347
▁مرتبہ	-11.9349
▁کٹوکیں	-11.935
▁بچوں	-11.9351
▁کؤل	-11.9351
▁پسگانی	-11.9352
▁اولسرء	-11.9352
▁ڈاچی	-11.9354
▁بیتگینانی	-11.9357
▁بائیکاٹ	-11.9358
▁نادانی	-11.9359
▁گوستگین	-11.9361
▁گشینگ	-11.9362
▁Le	-11.9362
▁چاچے	-11.9365
▁درشانتگ	-11.9366
▁پوسٹے	-11.9367
▁agree	-11.9368
▁کمکین	-11.9371
▁find	-11.9371
▁ڈپارٹمنٹ	-11.9371
▁سواراں	-11.9372
▁ہجرت	-11.9372
▁اہر	-11.9372
▁لڈء	-11.9372
▁مشتمل	-11.9373
▁ترات	-11.9375
▁لکھوڑ	-11.9375
▁cit	-11.9377
▁بکال	-11.938
▁دیگری	-11.9381
▁سرکچ	-11.9383
▁ترپ	-11.9385
▁راگے	-11.9387
▁ساماناں	-11.9387
▁اچھی	-11.9389
▁گب	-11.939
تن	-11.9391
▁کوتاہ	-11.9392
▁سیمک	-11.9396
▁200	-11.9396
▁اپسرے	-11.9397
▁زانگول	-11.9399
▁Red	-11.9401
▁ردے	-11.9406
▁تقدیر	-11.9407
▁کرنانی	-11.9407
▁اسکا	-11.9407
▁ھوالہ	-11.9407
▁ورناھے	-11.9411
▁saw	-11.9412
▁free	-11.9415
▁ات۔کہ	-11.9415
▁میچ	-11.9418
▁کوری	-11.9419
▁grow	-11.9419
▁بایدیں	-11.9422
▁مرادجان	-11.9423
▁زانتانی	-11.9424
مین	-11.9428
دریا	-11.9428
▁Part	-11.9428
▁گراک	-11.9429
▁کدرتی	-11.9429
▁ھیبتان	-11.943
▁شموشت	-11.9431
▁draw	-11.9432
امیت	-11.9433
غاں	-11.9434
▁سالہ	-11.9436
باں	-11.9436
▁پێش	-11.9437
▁اسٹاپ	-11.9437
▁بوتگت	-11.9437
▁برجمیں	-11.9437
▁ٹیچنگ	-11.9438
▁داتء	-11.9439
▁پشکپتگ	-11.944
▁براھوی	-11.9441
▁نیویارک	-11.9441
▁دروشمی	-11.9442
▁زلف	-11.9444
▁سرجمین	-11.9448
▁کرنا۔	-11.9448
▁واهند	-11.9449
▁ترہ	-11.9452
▁دانے	-11.9453
te	-11.9453
▁ہتم	-11.9455
)"	-11.9457
▁عمرے	-11.9458
▁جدیدیت	-11.9458
▁سلوات	-11.9459
▁ایماندار	-11.946
▁پگرانی	-11.9461
▁زدگیں	-11.9462
▁مالداری	-11.9463
▁یکمشت	-11.9465
▁ھش	-11.9465
▁استالانی	-11.9466
ways	-11.9467
▁منٹو	-11.9468
▁تبلیغ	-11.947
▁شمسی	-11.9471
▁نکہ	-11.9472
▁نصر	-11.9472
▁reveal	-11.9472
▁رھیم	-11.9473
▁درمانے	-11.9473
▁اوشتاتگ۔	-11.9474
▁تاہم	-11.9475
جہ	-11.9476
95	-11.9476
▁پزور	-11.9477
▁نسلی	-11.9478
▁روباہ	-11.9479
▁لاری	-11.9481
▁اژناگ	-11.9481
▁وترا	-11.9483
▁سوجے	-11.9487
▁معاف	-11.9489
▁لپرزگ	-11.949
▁experience	-11.9492
▁نیچے	-11.9493
▁سرگوات	-11.9493
▁افسوز	-11.9496
▁سهب	-11.9498
▁Mary	-11.9501
▁بنند	-11.9502
▁جاہو	-11.9502
▁کامی	-11.9503
▁وشان	-11.9503
▁اگا	-11.9505
▁گورتگ	-11.9505
▁Nav	-11.9506
▁مورے	-11.9507
▁الاقوامی	-11.9507
..."	-11.9507
▁نصیرء	-11.9508
▁شکور	-11.9508
▁troops	-11.951
▁ھلیل	-11.9512
▁ہشکیں	-11.9512
▁replac	-11.9513
▁سفرے	-11.9514
▁کائیں	-11.9515
▁ہجری	-11.9517
▁اران	-11.952
▁size	-11.9521
▁معاشرتی	-11.9521
ہمک	-11.9523
▁اسٹار	-11.9524
▁پلیت	-11.9526
▁اشترانی	-11.9528
▁هاترا	-11.9529
▁گڑی	-11.9529
▁ترمیم	-11.9531
▁مزد	-11.9531
▁دیدانک	-11.9532
▁گوشداروک	-11.9532
upon	-11.9533
▁مجاھد	-11.9534
▁launch	-11.9534
▁battle	-11.9537
▁ذ	-11.9538
▁پدرا	-11.9538
▁کنیت	-11.9541
▁جنء	-11.9542
▁northern	-11.9543
▁پیراں	-11.9543
▁نزانتکاری	-11.9544
▁event	-11.9544
▁مکسک	-11.9545
▁افتاب	-11.9546
▁عنایت	-11.9546
▁سیادانی	-11.9547
▁اجل	-11.955
بیست	-11.9551
▁اھتک	-11.9551
▁بوهگ	-11.9553
بیل	-11.9553
▁ماجد	-11.9555
▁ھرمردم	-11.9557
▁کاسد	-11.9558
▁سرپر	-11.9562
▁زھنی	-11.9562
▁گوٹ	-11.9564
امان	-11.9565
▁خراسان	-11.9567
▁دہل	-11.9568
▁انکی	-11.957
▁Rock	-11.9574
ham	-11.9574
▁rank	-11.9575
▁پھکیں	-11.9575
▁سپاہیگ	-11.9575
▁لگے	-11.9576
▁بکشگ	-11.9577
▁روئٹرز	-11.9577
▁امتحان	-11.9578
▁پریمئیر	-11.9578
▁ٹہشت	-11.9578
▁چابک	-11.9579
▁اسکرین	-11.958
▁پوریا	-11.958
▁بانگواہ	-11.9582
▁اماچی	-11.9583
▁عصر	-11.9583
▁گڑھ	-11.9583
▁دیمروہی	-11.9584
▁ہول	-11.9585
▁ٹریننگ	-11.9588
▁جامع	-11.9589
داتگ	-11.9595
۔پرچاکہ	-11.9597
▁ارباب	-11.9601
▁مھری	-11.9601
▁ملیں	-11.9602
▁جوڑینگ	-11.9602
▁ھئیال	-11.9604
▁نپرت	-11.9605
کان	-11.9608
▁رکینگء	-11.9608
▁درزن	-11.9611
▁کیمتی	-11.9611
کاف	-11.9613
▁عشقء	-11.9613
نمدی	-11.9614
▁ڈوبر	-11.9615
▁مزھبی	-11.9616
▁دائرہ	-11.9619
▁ساتھی	-11.9622
▁رسگء	-11.9623
▁منیگ	-11.9626
▁اسانیں	-11.9626
▁yards	-11.9628
▁درجنگ	-11.9628
▁نیاریت	-11.9628
▁دران	-11.9629
▁rock	-11.9629
▁کدو	-11.963
▁شریعت	-11.963
▁اھوگ	-11.963
lorida	-11.9632
▁چڑ	-11.9632
▁تنیگا	-11.9635
پولیس	-11.9637
▁مرکب	-11.964
▁بچکندگے	-11.9641
شل	-11.9642
فکشن	-11.9645
▁زرتء	-11.9645
▁لچہے	-11.9648
▁section	-11.9648
▁ولگوج	-11.9649
▁توکہ	-11.965
▁عبدالرزاق	-11.965
▁گشوک	-11.9652
▁سانیٹ	-11.9652
▁حیدراباد	-11.9652
▁جدائی	-11.9653
▁واہد	-11.9653
▁تفتان	-11.9653
▁بهداشتی	-11.9653
▁سنداں	-11.9656
▁Game	-11.9656
▁لیٹر	-11.9658
▁مارتگ	-11.9661
▁گدے	-11.9662
▁منکر	-11.9665
▁کشے	-11.9665
ھست	-11.9666
▁پرکاری	-11.9667
▁مڑائی	-11.967
▁بیٹا	-11.967
▁درتہ	-11.967
▁اباتی	-11.967
چارمی	-11.9671
▁رپکاں	-11.9671
▁پاگاس	-11.9672
▁گرگا	-11.9674
مر	-11.9677
▁کساسیں	-11.9677
▁San	-11.9678
▁river	-11.968
▁فطری	-11.968
▁مکسدے	-11.9682
▁شریپ	-11.9682
▁جفا	-11.9684
اول	-11.9684
▁Tech	-11.9684
▁عکساں	-11.9684
▁جنید	-11.9685
▁possible	-11.9686
▁location	-11.9687
▁مسیتء	-11.9688
▁کاٹ	-11.9688
▁انگلستان	-11.9691
▁شفیقہ	-11.9692
▁سیپ	-11.9692
مری	-11.9692
دیمرھی	-11.9692
دانکہ	-11.9697
▁Her	-11.9698
▁فکرے	-11.9701
شمے	-11.9702
▁دراز	-11.9703
▁ہیگل	-11.9704
رہ	-11.9704
uest	-11.9706
ٹو	-11.9711
▁outside	-11.9712
▁پہناد	-11.9713
▁دزگہار	-11.9714
۔مئے	-11.9714
منیر	-11.9715
▁رژنء	-11.9716
▁رگء	-11.9717
▁کانپرنس	-11.9717
▁محکمی	-11.9718
▁عطاشادء	-11.9718
▁league	-11.9719
▁crew	-11.9719
فاضل	-11.9719
ذ	-11.972
▁گژنگ	-11.972
▁داعش	-11.972
▁پاہار	-11.972
▁جائیداد	-11.9721
▁Paul	-11.9722
▁saying	-11.9725
▁ہائیکو	-11.9726
▁لبزیات	-11.9726
▁مرتگاں	-11.9727
وٹ	-11.9727
ولی	-11.9727
▁نهات	-11.973
▁نامگ	-11.9731
▁کارکناں	-11.9731
▁درابوت	-11.9732
▁الو	-11.9735
▁رہیں	-11.9735
▁دربہ	-11.9736
▁تهار	-11.9737
▁گوستگ۔	-11.9737
▁زم	-11.9738
▁انام	-11.9738
مستریں	-11.9739
▁اسرات	-11.974
▁دلسیاھی	-11.9741
بگ	-11.9741
▁پتہ	-11.9744
▁دنزاں	-11.9746
▁شیرازی	-11.9749
▁بدبھتی	-11.9751
▁هساب	-11.9753
▁competition	-11.9755
▁تشریح	-11.9756
▁فصیح	-11.9757
▁زیشان	-11.9757
▁نذیر	-11.9757
▁ناسرجمیں	-11.9759
▁پڈ	-11.976
▁گڑتی	-11.9762
▁جنئگء	-11.9764
▁پیشدار	-11.9765
▁سوتانی	-11.9766
▁سئیمی	-11.9766
▁نندگی	-11.977
▁مناک	-11.977
▁مھکمہ	-11.9771
▁راستیاں	-11.9772
▁استنت	-11.9773
▁ساخت	-11.9774
▁پساں	-11.9774
▁شپا	-11.9775
▁شموشکار	-11.9778
▁سستی	-11.9778
اج	-11.9783
▁واپاری	-11.9783
▁حاموش	-11.9784
ساچشت	-11.9785
▁برھنگ	-11.9787
▁working	-11.9788
▁پاسپان	-11.9789
▁ط	-11.9789
▁دپتری	-11.979
▁effort	-11.979
▁international	-11.979
▁ایڈووکیٹ	-11.979
▁500	-11.9791
▁سنڈیمن	-11.9791
لیکہ	-11.9792
▁whom	-11.9793
uick	-11.9795
▁گٹے	-11.9795
▁یوٹیوب	-11.9798
▁فلسطینی	-11.9799
▁مزائیں	-11.9799
▁گالوارانی	-11.98
▁باہند	-11.9801
لہ	-11.9801
▁Most	-11.9802
▁مجبوری	-11.9803
▁سمبل	-11.9804
▁زندئ	-11.9806
▁31	-11.9806
▁گنجے	-11.9807
▁شکلے	-11.9807
▁گوران	-11.9808
حاجی	-11.981
▁کانگریس	-11.9811
▁پروشیں	-11.9812
▁سادے	-11.9812
▁عوض	-11.9814
▁ھدوناک	-11.9815
▁سران	-11.9817
▁break	-11.982
side	-11.9821
▁چال	-11.9823
▁بالیچہ	-11.9824
▁وندر	-11.9826
▁ناروائی	-11.9826
▁ولیعہد	-11.9827
▁گلوبل	-11.9828
▁شؤر	-11.9829
▁کشکانی	-11.9829
▁سچان	-11.983
▁مبنی	-11.983
▁خیالی	-11.9835
▁چلہ	-11.984
▁تۆکا	-11.9844
▁یقینی	-11.9844
▁شرانت	-11.9846
▁گٹی	-11.9846
▁نندء	-11.9848
▁مھنت	-11.9849
فن	-11.9849
▁فریاد	-11.985
جگ	-11.985
▁حقدار	-11.9851
سربوتگیں	-11.9851
▁عمومدار	-11.9854
▁زاهر	-11.9856
▁contract	-11.9857
▁cast	-11.9859
▁مھربان	-11.9863
▁Hurricane	-11.9863
▁Missouri	-11.9863
گاڑی	-11.9863
▁ممبئی	-11.9863
▁poor	-11.9864
▁extend	-11.9864
▁ہیالء	-11.9864
▁جھدکاراں	-11.9865
▁شمشکار	-11.9866
▁introduc	-11.9867
▁ماہیں	-11.9868
▁اسپتیں	-11.987
▁بکشات	-11.9871
▁دوستناک	-11.9871
▁average	-11.9872
جام	-11.9873
▁براث	-11.9877
▁جنجالی	-11.9879
ایشیء	-11.9882
۔بلئے	-11.9883
یوں	-11.9883
▁چیھال	-11.9885
▁شیرگ	-11.9885
▁بکتیں	-11.9889
▁mean	-11.9894
I	-11.9897
▁flood	-11.9898
▁راستین	-11.9899
▁2001	-11.9899
▁فروغ	-11.9899
▁ظریف	-11.9899
▁پیرین	-11.99
کٹ	-11.9901
▁reason	-11.9901
▁گوشدارگء	-11.9901
▁مہلونک	-11.9903
▁ککڑ	-11.9904
▁اہدء	-11.9904
▁سھی	-11.9905
▁گندیت۔	-11.9906
▁ندکاراں	-11.9908
▁دوئین	-11.9908
واہ	-11.9908
▁مصرء	-11.9908
▁فر	-11.9913
▁مہراب	-11.9916
▁کیفے	-11.9916
ium	-11.9916
▁جوانتر	-11.9919
▁هاتر	-11.992
▁زیمرء	-11.9921
▁ادبء	-11.9921
زمانہ	-11.9922
▁بسے	-11.9923
ar	-11.9924
رحیم	-11.9927
▁مکتبہ	-11.9927
▁شربت	-11.9929
▁سہرء	-11.9929
▁لہم	-11.9929
▁کھیر	-11.993
▁۔مئے	-11.993
▁length	-11.9932
▁ناٹک	-11.9933
wood	-11.9935
▁بریت	-11.9935
▁حیوان	-11.9935
▁مینجمنٹ	-11.9936
▁لبزتکنیک	-11.9936
▁مصنف	-11.9937
▁Port	-11.9938
▁ہرنائی	-11.9938
▁بامسار	-11.9941
▁شریان	-11.9941
ترین	-11.9942
▁چیار	-11.9943
▁مردماناں	-11.9943
▁شاہء	-11.9944
▁چدو	-11.9946
▁خوشی	-11.9947
▁هرچی	-11.9952
field	-11.9953
▁پرینت	-11.9957
▁جاوران	-11.9957
▁قندھار	-11.9959
▁ریزمانک	-11.9959
نزیک	-11.996
▁ملایانی	-11.9963
قران	-11.9969
ناکو	-11.9969
▁جنئے	-11.997
▁ہائوس	-11.9972
▁ایکٹ	-11.9972
▁نظریات	-11.9973
▁کستء	-11.9978
▁ہیومن	-11.998
▁میوہ	-11.998
▁ھی	-11.9982
▁تسلی	-11.9982
▁کدین	-11.9984
mph	-11.9985
▁پارس	-11.9987
▁کوشء	-11.9987
▁قدرء	-11.9991
▁مھران	-11.9991
▁برین	-11.9992
▁ہاکمی	-11.9993
▁بیت۔من	-11.9994
▁ھاشم	-11.9997
▁مظہر	-11.9998
اومان	-11.9998
▁گشتی	-11.9999
tlantic	-12.0002
▁مہروانی	-12.0004
▁زلوری	-12.0004
▁گؤن	-12.0004
درستیں	-12.0004
▁شیڈول	-12.0007
▁بازانت	-12.0008
▁material	-12.0008
▁سلحہ	-12.0009
▁قائد	-12.0009
▁پیچیدہ	-12.0011
▁نندے	-12.0011
▁ابرار	-12.0012
▁کینیڈا	-12.0012
▁سہمی	-12.0012
▁ھمساھگیں	-12.0013
▁voice	-12.0018
▁دزرس	-12.0019
▁عقیدہ	-12.0019
▁کدم	-12.002
▁سلامتیں	-12.0021
▁زھیروک	-12.0021
▁امریکن	-12.0022
▁مرادء	-12.0022
▁هاک	-12.0022
▁لاپتہ	-12.0023
یری	-12.0023
▁تخیل	-12.0026
▁تازہ	-12.0027
served	-12.0029
▁producer	-12.003
▁سوگاتے	-12.0031
قاضی	-12.0032
▁موسمیات	-12.0032
▁افضل	-12.0037
▁بیٹے	-12.0038
▁مردینے	-12.0039
▁بداتیں	-12.0039
▁بست۔	-12.004
▁appoint	-12.0043
▁متن	-12.0045
▁برامدات	-12.0047
▁یافتہ	-12.0048
▁فرنٹیئر	-12.0048
▁پذا	-12.0048
▁مردا	-12.0049
اگ	-12.0049
▁تمثیل	-12.0052
وخ	-12.0054
▁نبیستگ	-12.0054
▁ابابگر	-12.0055
▁ہسابء	-12.0055
▁بازیابی	-12.0058
▁بوہگا	-12.0059
▁بگنداں	-12.0059
▁معصوم	-12.0059
▁رندان	-12.006
▁نندئے	-12.0062
▁ھمید	-12.0064
▁پوزیشن	-12.0065
▁ذہنیت	-12.0066
مکران	-12.0067
▁گیجیت	-12.0068
▁روتگاں	-12.0069
▁متھ	-12.0069
▁ہیرو	-12.0074
▁گندہ	-12.0074
▁زھیرانی	-12.0076
▁گویا	-12.0077
▁لعنت	-12.0078
▁اتکنت	-12.0079
ید	-12.0079
▁account	-12.008
بیتگ	-12.008
▁واقف	-12.0081
▁تھرے	-12.0081
▁دارالعلوم	-12.0083
▁نیر	-12.0083
▁تمرد	-12.0083
▁سالانہ	-12.0084
▁گریہان	-12.0084
▁اردشیر	-12.0085
▁ہمگرنچی	-12.0087
▁فائر	-12.0087
▁ڈو	-12.0087
▁ریت	-12.0088
▁تھرو	-12.0089
▁بوس	-12.009
▁قلندر	-12.0095
انسانی	-12.0098
▁پرماتگ	-12.0099
▁گاراں	-12.0099
مئی	-12.0099
▁حسابا	-12.0101
▁زورگی	-12.0103
▁تامرانی	-12.0104
▁چکاریں	-12.0104
▁درگاہ	-12.0105
▁استادء	-12.0106
▁اشترے	-12.0108
▁ورئے	-12.0108
▁سحار	-12.0109
▁ھدابند	-12.011
▁بیٹھ	-12.0112
▁زبانئ	-12.0113
▁زوراکانی	-12.0114
▁وامدار	-12.0114
▁تیس	-12.0115
▁اڑء	-12.0117
▁Indian	-12.0118
▁کیک	-12.0118
▁قصہاں	-12.0119
▁نگہداشت	-12.0119
▁stay	-12.0119
▁magazine	-12.0119
▁نہنت	-12.012
▁سون	-12.0121
▁مہرے	-12.0123
▁پارٹیاں	-12.0124
▁زیتون	-12.0126
▁امران	-12.0128
▁تیرء	-12.0133
▁فوک	-12.0134
▁حیالی	-12.0134
▁کڑ	-12.0135
▁دراتک۔	-12.0135
کائی	-12.0136
▁چالاک	-12.0137
▁پرشان	-12.0137
▁سرکپت	-12.0137
▁نوار	-12.0138
▁cause	-12.0139
▁تپد	-12.0142
▁اھوالکاری	-12.0144
▁گوئش	-12.0146
▁دوستر	-12.015
▁گرماگی	-12.0151
▁بیگاه	-12.0151
▁امرے	-12.0155
▁conduct	-12.0155
▁سارے	-12.0156
▁learn	-12.0156
▁حقیں	-12.0156
▁Great	-12.0156
▁پورس	-12.0159
▁رومی	-12.0161
▁ہوشاپ	-12.0162
▁مرتب	-12.0162
▁قدح	-12.0163
▁کچہ	-12.0166
▁نانی	-12.0168
▁لیکچر	-12.0169
▁station	-12.017
▁۔۔۔۔۔۔۔۔	-12.0172
هر	-12.0173
▁جہدکار	-12.0173
▁leave	-12.0177
▁شیئری	-12.0177
▁کلانیں	-12.0178
▁چاتے	-12.0179
▁پونزء	-12.018
▁شھزانتی	-12.018
ارے	-12.0181
▁کپات	-12.0182
▁کوٹیانی	-12.0184
▁پلگاری	-12.0184
▁تلگ	-12.0187
▁بئیان	-12.0187
▁Me	-12.0188
▁arriv	-12.0189
▁مھراں	-12.0191
▁لوٹیتگ	-12.0191
▁سامراجی	-12.0192
▁بیوروکریسی	-12.0193
▁First	-12.0194
▁سپلائی	-12.0194
▁شہادت	-12.0195
▁منفی	-12.0195
▁availab	-12.0195
ne	-12.0197
▁Best	-12.0197
▁استانے	-12.0199
▁نقاد	-12.02
▁عبدالغفور	-12.02
▁ماھیں	-12.02
▁لنکا	-12.0204
▁دیماارگ	-12.0204
▁زیمی	-12.0204
▁ہیت	-12.0205
▁دزگ	-12.0208
▁مالا	-12.0209
پرچیکہ	-12.0209
▁ھکیکت	-12.0209
▁تاپگ	-12.0211
▁court	-12.0214
▁چاند	-12.0217
▁جھاز	-12.0217
▁تھل	-12.0219
دود	-12.0227
▁پتریت	-12.0228
▁Michael	-12.0228
b	-12.0229
▁قیاس	-12.0229
▁شیدائی	-12.023
▁decision	-12.0231
▁1970	-12.0231
▁condition	-12.0231
▁بہارگاہ	-12.0234
▁صفتء	-12.0235
▁بنچ	-12.0235
▁ہمیشاں	-12.0238
▁پیشتر	-12.0241
▁براہوی	-12.0242
▁مبو	-12.0244
▁."	-12.0245
▁تنء	-12.0246
▁رجانکانی	-12.0247
▁گروکیں	-12.0248
▁گرائمر	-12.0249
▁چنکے	-12.0249
▁ھدوناکی	-12.0251
▁رانا	-12.0255
▁رسگا	-12.0255
▁کائینت	-12.0256
▁گزل	-12.0256
▁چلو	-12.0257
▁گلشن	-12.0257
▁چنکہ	-12.0262
▁ھمش	-12.0263
▁رسترانی	-12.0263
▁ایڈ	-12.0264
▁محمدخان	-12.0265
▁پنڈ	-12.0265
▁ستم	-12.0266
▁ھنکینی	-12.0266
▁بائدیں	-12.0268
▁چودھری	-12.027
▁براھیم	-12.0271
▁پادمال	-12.0272
▁دیو	-12.0272
▁کسمانکی	-12.0273
▁اہو	-12.0274
۔چہ	-12.0274
▁کاریانی	-12.0276
▁پاروک	-12.0276
▁جوھان	-12.0277
منٹ	-12.028
▁winds	-12.0281
▁نمی	-12.0282
▁کیے	-12.0283
▁approach	-12.0283
▁گوازینگی	-12.0283
▁چاراہ	-12.0284
▁دراصل	-12.0285
▁سدگ	-12.0285
پا	-12.0287
گام	-12.0291
▁امینی	-12.0291
▁مینگلء	-12.0291
▁Re	-12.0293
▁دژمنے	-12.0295
▁red	-12.0296
uence	-12.0296
▁ندکارے	-12.0302
▁ربیدگاں	-12.0306
▁کاریزکار	-12.0307
▁above	-12.0307
▁دیتہ	-12.0308
▁جغرافیہ	-12.031
▁اسپیشل	-12.031
▁travel	-12.031
▁نادیہ	-12.0311
▁دلیریں	-12.0311
▁ریچی	-12.0315
▁پاکی	-12.0315
▁رسانکدری	-12.0317
▁بگرد	-12.0318
▁اگاھی	-12.0321
▁شوانگے	-12.0325
▁قالب	-12.0326
▁روڑ	-12.0327
▁سائنسء	-12.0327
▁سہیں	-12.0328
▁امیج	-12.0329
more	-12.033
▁فرشتہ	-12.0331
f	-12.0331
▁عطر	-12.0331
▁اھر	-12.0333
▁بیسہی	-12.0333
▁باسکی	-12.0333
▁مارکیز	-12.0334
▁نکشہ	-12.0335
▁عنصر	-12.0337
▁رکاوٹ	-12.0338
▁بخشش	-12.0339
▁حلب	-12.0339
▁تیگ	-12.034
▁چاہے	-12.0343
▁نظرہیہ	-12.0344
▁گوازینان	-12.0345
▁کانپریس	-12.0345
▁Day	-12.0345
▁لهتیں	-12.0346
▁بوارت	-12.0346
▁تاھیری	-12.0348
ورنا	-12.0348
▁پتے	-12.0349
▁Sun	-12.035
▁درخت	-12.035
▁واجھ	-12.0353
دہی	-12.0355
▁پراھی	-12.0356
بگیری	-12.0356
▁قلمی	-12.0356
▁رۆچا	-12.0357
line	-12.0357
کمک	-12.0358
▁بینجو	-12.036
▁چرائیء	-12.036
▁چیلک	-12.0362
▁دریگاں	-12.0367
▁کوہے	-12.0368
▁ترست	-12.0369
▁زوربیگواہی	-12.037
▁Bay	-12.0371
شش	-12.0374
▁ھلوت	-12.0376
▁بیرہ	-12.0378
▁نلی	-12.0378
▁وحی	-12.0379
▁met	-12.038
▁کندگاں	-12.0381
ory	-12.0381
▁horse	-12.0382
▁positive	-12.0382
▁زوم	-12.0382
▁جھدکارانی	-12.0382
ves	-12.0382
▁اکبال	-12.0383
▁Jack	-12.0383
▁نویستگ	-12.0384
▁٭٭٭٭	-12.0384
▁soon	-12.0384
▁ڈولین	-12.0384
▁درامدی	-12.0384
▁حرکتء	-12.0387
▁ہورکیں	-12.0387
▁ویتنام	-12.0388
سیاہ	-12.0389
▁اگاہی	-12.0391
دروشم	-12.0391
▁ماڑیانی	-12.0392
▁فرزند	-12.0393
▁وزبت	-12.0394
▁دوہیں	-12.0394
▁استالے	-12.0394
▁round	-12.0396
▁بیرگیری	-12.0396
read	-12.0399
هم	-12.0401
▁ball	-12.0405
▁ھمکوپگ	-12.0405
▁ملگور	-12.0406
▁ایرجنگ	-12.0408
▁پندلانی	-12.0409
▁ھسابے	-12.041
▁تلوسگ	-12.041
▁نتھا	-12.0411
▁لۆگ	-12.0413
▁گرابانی	-12.0415
▁راہشون	-12.0416
▁شھرے	-12.0418
▁office	-12.042
▁business	-12.042
▁studio	-12.042
اصل	-12.042
▁اسٹریٹجک	-12.0422
▁لوہار	-12.0423
▁اه	-12.0423
▁ہمراہداری	-12.0423
▁یاں۔	-12.0424
▁ھرروچ	-12.0424
لال	-12.0425
▁نادراہانی	-12.0425
▁هچبر	-12.0427
چیر	-12.0427
▁جیمز	-12.0428
بال	-12.0428
▁بارکان	-12.0428
▁دروتے	-12.0432
▁دگنیاء	-12.0433
▁سروکیء	-12.0433
▁زیادتی	-12.0435
▁داز	-12.0437
▁موز	-12.044
▁کہدا	-12.044
▁زکر	-12.0443
▁کوراں	-12.0443
▁نادرائی	-12.0445
▁خاصیت	-12.0447
گس	-12.0447
▁درزی	-12.0447
▁گجرات	-12.0448
▁pre	-12.045
▁چاڑی	-12.0451
▁شہریانی	-12.0454
▁پائی	-12.0456
▁بغداد	-12.0456
▁ہماہانی	-12.0457
▁maintain	-12.0459
▁ثبت	-12.0459
▁Africa	-12.0459
▁مظلوم	-12.0459
▁بالو	-12.046
▁گھشی	-12.0463
▁plann	-12.0463
▁زاھری	-12.0466
▁وڑوڑیں	-12.0468
▁ٹاہینگ	-12.0468
▁امدام	-12.0469
▁شرگدارے	-12.0471
اشاں	-12.0471
▁ھوریں	-12.0473
▁زالمیں	-12.0475
▁پراھیں	-12.0475
▁عیسیٰء	-12.0476
▁ھسا	-12.0478
▁ٹیپ	-12.048
▁دہر	-12.0481
rd	-12.0484
▁مہمانداری	-12.0484
▁And	-12.0484
▁سالگیں	-12.0486
▁ناشری	-12.0488
▁کندگء	-12.049
▁say	-12.0491
▁مہرگ	-12.0493
ڑو	-12.0493
▁ڈؤل	-12.0493
▁estimat	-12.0494
مل	-12.0494
▁وسعت	-12.0495
▁پولیسا	-12.0496
▁ھذمت	-12.0497
▁Canada	-12.0497
واری	-12.0497
▁کنوں	-12.0499
▁tree	-12.05
▁letter	-12.05
▁پلسپہ	-12.05
▁مسلسل	-12.0502
▁نتا	-12.0503
▁والہ	-12.0506
▁پینل	-12.0507
▁مرہ	-12.0508
▁محاورہ	-12.0508
▁رنگین	-12.0511
▁شانے	-12.0512
بکن	-12.0512
▁پندلاں	-12.0515
▁جیڑه	-12.0515
ھور	-12.0515
▁بیوی	-12.0516
▁گرانڈ	-12.0516
▁دوہزار	-12.0517
▁سنگی	-12.0521
▁دراهیں	-12.0522
▁اولا	-12.0522
▁ہفتگ	-12.0524
▁score	-12.0526
▁کچکول	-12.0527
▁ساهت	-12.0529
▁کودکی	-12.0531
▁کوشی	-12.0534
▁میڈیاء	-12.0534
▁ریسگ	-12.0537
▁معاشرے	-12.0537
▁President	-12.0537
▁فزکس	-12.0538
▁ڈپریشن	-12.0539
▁طورپر	-12.054
▁چپء	-12.0542
▁نھنگ	-12.0543
جند	-12.0548
قومی	-12.0549
▁ملیشیا	-12.055
▁ایرگیجگ	-12.0553
▁مشان	-12.0553
کناں	-12.0554
وڑیں	-12.0554
▁سجهێن	-12.0554
▁نیبگ	-12.0555
▁کاسم	-12.0555
▁چڑکہ	-12.0556
▁چاگرداں	-12.0558
▁گناه	-12.0559
▁دپترے	-12.0559
▁ھبرانی	-12.056
وء	-12.056
▁سازش	-12.056
▁دال	-12.0561
▁درشاندابے	-12.0565
▁stor	-12.0565
▁2000	-12.0566
▁construct	-12.0566
▁اچانک	-12.0569
▁شیواری	-12.057
town	-12.0571
▁کنوکین	-12.0572
▁دئے۔	-12.0574
▁Henry	-12.0575
▁ساؤتھ	-12.0575
▁ہکل	-12.0576
▁authorit	-12.0576
▁جھالاوان	-12.0577
▁سنیانلاین	-12.0577
▁گریوان	-12.0578
▁سم	-12.0579
▁نسخہ	-12.0579
▁واگ	-12.058
▁پرائیوٹ	-12.0581
▁referr	-12.0581
▁پربندانی	-12.0583
اخر	-12.0584
▁نمادار	-12.0585
▁بہرگ	-12.0588
۔بلکیں	-12.0589
▁زرناز	-12.0589
▁وڑین	-12.059
▁پوشیں	-12.0591
▁پکائی	-12.0592
▁زیانی	-12.0594
▁اوپر	-12.0595
▁کلیات	-12.0595
▁نشتیں	-12.0596
▁۔ہمیش	-12.0597
▁سازاں	-12.0598
▁دلدار	-12.0599
لشکر	-12.0604
▁king	-12.0604
▁بحال	-12.0608
▁لڑائی	-12.0609
▁کمٹمنٹ	-12.0609
▁مہلب	-12.0609
ینیت	-12.061
▁کبلہ	-12.061
▁India	-12.061
uadron	-12.0613
▁وشاتک	-12.0614
▁ریتک	-12.0614
▁تنیگت	-12.0615
▁سجهێں	-12.0615
گران	-12.0615
▁وقار	-12.0616
▁۔۔۔۔۔۔۔۔۔	-12.0618
▁خلیفہ	-12.0619
▁سکت	-12.062
▁machine	-12.062
▁ٹکراں	-12.0621
▁روشنا	-12.0622
▁چھت	-12.0623
▁دیمااہتگ	-12.0625
▁بوانیت	-12.0626
▁لگوریں	-12.0627
▁دریائے	-12.0629
▁ضیاء	-12.063
▁بالیگ	-12.0631
▁مرے	-12.0631
بوان	-12.0633
▁جندی	-12.0634
▁ٹریکٹر	-12.0635
▁مچء	-12.0636
▁بچکنداں	-12.0637
۔بلوچی	-12.0641
ئے۔	-12.0646
▁نادراھیں	-12.0647
جنت	-12.065
سرمچاراں	-12.0651
ادگہ	-12.0651
▁ماھان	-12.0651
▁Oldham	-12.0652
▁1990	-12.0653
▁متہدہ	-12.0653
▁پلانگری	-12.0653
▁اھت۔	-12.0654
▁گهار	-12.0654
▁عبدالغنی	-12.0654
▁سیبی	-12.0656
▁کیپٹن	-12.0656
▁عروض	-12.0657
▁غسل	-12.0658
???	-12.0658
▁ماد	-12.0658
▁شاھرگ	-12.0658
once	-12.0659
▁اومیت	-12.0659
▁metre	-12.0662
▁جہلگ	-12.0663
▁طبیب	-12.0666
▁گراؤنڈ	-12.0667
تین	-12.0669
مانا	-12.0669
▁سباء	-12.0673
▁اڈہ	-12.0676
▁ورئگ	-12.068
▁interview	-12.0681
▁لامحدود	-12.0681
▁ٹویٹر	-12.0684
▁ولیم	-12.0685
▁وانت	-12.0686
▁پچگ	-12.0686
▁مشرق	-12.0691
▁داتگین	-12.0691
▁law	-12.0691
▁sometime	-12.0692
▁social	-12.0692
▁ہمینچک	-12.0693
▁اہستہ	-12.0693
▁پادیں	-12.0693
▁ستاشانی	-12.0693
▁سیاھگء	-12.0695
▁usual	-12.0696
▁پدری	-12.0696
▁ڈنا	-12.0698
▁حزب	-12.0699
▁گرز	-12.0702
▁اقدار	-12.0703
▁مازگ	-12.0703
▁انت۔بلوچی	-12.0704
▁امرء	-12.0705
▁Times	-12.0707
')	-12.0708
▁نظامے	-12.0709
▁ریپینگ	-12.071
▁قمر	-12.0711
▁اداره	-12.0713
▁شھباز	-12.0716
▁ٹر	-12.0717
▁کائنت	-12.0717
▁Chin	-12.0718
نئے	-12.0719
▁شہمات	-12.0726
▁اسلی	-12.0728
▁گپتاراں	-12.0729
▁وشدل	-12.0731
▁عبدالستار	-12.0731
▁Olivier	-12.0731
کاریں	-12.0731
▁ٹرالنگ	-12.0732
▁قرنانی	-12.0734
▁کپیں	-12.0735
▁فراق	-12.0737
▁thing	-12.0737
گچین	-12.0737
▁وانگجاھانی	-12.0737
▁گشین	-12.0737
▁“”	-12.0738
▁سجئیں	-12.0738
▁ڈلگیں	-12.0738
▁شھادت	-12.0739
▁توارانی	-12.0741
▁دراھاں	-12.0742
▁بندانت	-12.0742
▁burn	-12.0744
▁ھوس	-12.0744
▁احتنت	-12.0746
▁سنجیدگی	-12.0746
▁اجوئیء	-12.0746
▁زانان	-12.0748
▁ترامجا	-12.0752
دراھیں	-12.0753
▁بوتیناں	-12.0754
▁مہریں	-12.0755
▁گڈانی	-12.0755
▁مردےء	-12.0761
▁پتران	-12.0761
▁لہ	-12.0762
▁ایرجتگ	-12.0763
▁دہقان	-12.0763
▁ترسیں	-12.0764
▁دیمتری	-12.0767
▁special	-12.0768
▁ترامجاھاں	-12.0772
▁western	-12.0772
▁پکنت	-12.0772
▁سلوک	-12.0772
▁lower	-12.0774
▁تعبیر	-12.0774
▁واجھی	-12.0774
▁گریو	-12.0774
▁ھگم	-12.0775
▁کوت	-12.0775
اریں	-12.0776
▁nine	-12.0777
▁علامہ	-12.0777
▁سرنامگ	-12.0779
لیکن	-12.078
▁زپت	-12.0781
▁داستانے	-12.0781
وف	-12.0782
▁بکنئے	-12.0782
▁پوچ	-12.0782
▁دیمیگ	-12.0783
▁سرگوستاں	-12.0784
▁مرشد	-12.0785
▁احتجاج	-12.0788
▁ئرا	-12.0789
▁بگوشیت	-12.079
عمل	-12.0794
▁بچگ	-12.0794
▁deal	-12.0795
▁focus	-12.0798
▁ریم	-12.0798
▁ہروہد	-12.08
اگہ	-12.08
▁ئنت۔	-12.0803
جار	-12.0809
▁امیدگسی	-12.081
▁concert	-12.081
▁response	-12.081
▁کجائے	-12.081
▁نویسوک	-12.0812
▁توسیف	-12.0813
▁قابض	-12.0813
شئیر	-12.0813
▁اسباب	-12.0814
▁write	-12.0815
▁پیڑ	-12.0816
▁قدرانی	-12.0817
▁نیادانی	-12.0817
▁ہارون	-12.0817
▁نزار	-12.0817
▁اسلیں	-12.0817
▁دیریگیں	-12.0819
▁وشھال	-12.0819
▁بھادر	-12.0824
▁چارٹر	-12.0825
▁استارانی	-12.0826
▁وژن	-12.0826
▁ارتقاء	-12.0827
خدا	-12.0828
▁ویئر	-12.0828
▁کوکارء	-12.0832
▁تکانی	-12.0837
▁ہشتمی	-12.0839
▁ایشنت	-12.084
▁ارز	-12.0842
▁چاء	-12.0845
بلوچانی	-12.0845
▁کپوتے	-12.0846
چاریں	-12.0848
▁رانی	-12.0849
▁Regiment	-12.085
▁ٹورنمنٹ	-12.085
▁recent	-12.085
▁قہریں	-12.0851
ial	-12.0851
▁taking	-12.0851
▁mention	-12.0852
▁بهار	-12.0853
▁نوشی	-12.0854
▁شیرزال	-12.0854
▁مروک	-12.0857
بادشاہ	-12.0858
▁توپانے	-12.0859
▁اکادمی	-12.0859
▁پؤج	-12.086
▁تھرا	-12.086
ایرانی	-12.0861
بان	-12.0861
▁مچیء	-12.0862
▁ناگیگی	-12.0863
▁ٹاھینگ	-12.0863
▁گیمرتگیں	-12.0866
▁شاگ	-12.0868
day	-12.0869
▁روبرکت	-12.0871
▁چونی	-12.0871
▁دیوانانی	-12.0872
▁زادہ	-12.0873
▁گوپگ	-12.0874
▁فخر	-12.0876
▁پرچیا	-12.0876
▁ناکی	-12.0876
▁رسمی	-12.0877
▁goals	-12.0881
▁گوئشیت	-12.0882
▁رازء	-12.0883
▁ورگاں	-12.0885
▁جمیں	-12.0888
▁Mexico	-12.089
▁School	-12.089
▁religious	-12.089
ietnam	-12.089
▁انحصار	-12.089
▁شدء	-12.0891
بیگ	-12.0891
▁Later	-12.0891
▁مروچگیں	-12.0892
▁کارامد	-12.0893
▁زانشتجاہ	-12.0893
▁بھارگاہ	-12.0893
▁اون	-12.0893
▁اینگلز	-12.0894
▁لٹء	-12.0895
ch	-12.0896
▁ضیا	-12.0896
▁گوئشتگ	-12.0896
▁ئے۔۔۔	-12.0898
▁اہمے	-12.09
▁Ma	-12.0901
▁تنگو	-12.0902
▁پتانی	-12.0904
بوگ	-12.0904
▁لاشعوری	-12.0904
▁ہفتاد	-12.0906
▁زہیراں	-12.0906
▁یتکگ	-12.0908
▁تراس	-12.0908
▁نیائے	-12.0909
▁اروچ	-12.091
▁car	-12.0911
▁گلگل	-12.0911
▁فرعون	-12.0912
گمان	-12.0912
▁گذر	-12.0913
▁اڑزان	-12.0913
▁بورخیس	-12.0914
امریکہ	-12.0915
▁همدا	-12.0916
▁ھوٹلے	-12.0918
▁دستگ	-12.0919
▁میرگل	-12.0919
▁امروزء	-12.092
▁پنیر	-12.0923
▁ے۔	-12.0924
▁دمگا	-12.0925
▁وانینت	-12.0929
▁Irish	-12.093
▁پراسیس	-12.0931
▁پروا	-12.0932
▁پیمائش	-12.0932
▁test	-12.0932
▁تشکیل	-12.0934
▁خورشید	-12.0936
▁پیرء	-12.0936
▁Mark	-12.0939
▁نازانتی	-12.0942
مھر	-12.0942
▁درسی	-12.0944
▁جتء	-12.0951
▁جاگهے	-12.0951
▁براھندگ	-12.0951
▁ایشاناں	-12.0953
▁parts	-12.0953
▁ھمبلاں	-12.0954
▁پژ	-12.0956
▁زوراوری	-12.0956
سرکاری	-12.0957
ترس	-12.0958
▁سیادے	-12.0958
▁فیل	-12.096
▁اقرار	-12.0961
▁ہریک	-12.0962
زندگ	-12.0964
▁سیٹلائٹ	-12.0968
▁ائیڈل	-12.0969
▁پولء	-12.0969
▁prevent	-12.0971
▁مداخلت	-12.0971
▁گلین	-12.0971
۔۔۔۔۔۔۔۔	-12.0971
▁لیبارٹری	-12.0972
▁عبدالحق	-12.0972
▁بادشاھے	-12.0972
▁تہمبل	-12.0973
▁پدمنتگ	-12.0975
▁پیچھے	-12.0975
▁تلمیح	-12.0976
▁جیکب	-12.0977
▁...............	-12.0982
▁مردما	-12.0984
▁نار	-12.0985
▁اولگا	-12.0986
▁ها	-12.0987
▁مبوتین	-12.0988
▁سورو	-12.0989
▁چنچک	-12.099
▁جنگلانی	-12.0991
▁گراباں	-12.0992
▁سنگار	-12.0993
▁پنجگوری	-12.0995
▁اھوالاں	-12.0996
▁ایت۔۔۔	-12.0996
▁ہمئے	-12.0996
▁سریچ	-12.0997
▁transport	-12.0999
▁ڈیزل	-12.1
▁حکمرانی	-12.1005
▁اورت۔	-12.1005
▁چوری	-12.1005
▁توانمند	-12.1007
▁brother	-12.1011
▁رینجرز	-12.1011
▁یوسپ	-12.1012
▁هاشمی	-12.1013
▁ونتگ۔	-12.1013
▁ارسیگ	-12.1015
▁ھمنچک	-12.1017
▁شھیداں	-12.1018
▁تورگ	-12.1019
▁سفارش	-12.1023
▁گلاسے	-12.1024
▁امیدگساں	-12.1024
▁نیٹو	-12.1024
▁صحبت	-12.1025
▁بواں	-12.1027
▁کرتنت۔	-12.1028
دژمن	-12.103
کلات	-12.1031
ریاست	-12.1033
وشیں	-12.1035
▁واٹر	-12.1037
جاھاں	-12.1038
......!	-12.1039
فضل	-12.1039
▁سلا	-12.1039
▁سنجیدگ	-12.1041
▁دیگ۔	-12.1043
▁وشھالیں	-12.1043
▁خیالا	-12.1043
▁ھلار	-12.1044
▁زوراکاں	-12.1045
▁ہمساہگ	-12.1045
▁ہردک	-12.1046
▁پھاز	-12.1048
▁دربرت	-12.1048
▁پکگ	-12.1049
▁اتراپاں	-12.105
▁چس	-12.1051
▁flight	-12.1052
▁Thomas	-12.1052
▁Canadian	-12.1052
▁سلامے	-12.1052
▁sea	-12.1055
▁نمائش	-12.1055
▁کارکنگ	-12.1055
▁گزین	-12.1055
▁همش	-12.1057
ہمیش	-12.1057
فقیر	-12.1058
دلگوش	-12.1058
▁سرپداں	-12.1059
▁ڈائیلاگ	-12.106
▁کھثہ	-12.106
▁مجموعہ	-12.106
▁پریب	-12.106
▁نادلگوشی	-12.1063
▁تیوگی	-12.1065
▁Peter	-12.1067
▁دبستان	-12.1068
زان	-12.1068
▁چارینگ	-12.1068
▁شھمیر	-12.1068
▁اشرپ	-12.1069
▁امدنی	-12.107
▁مریں	-12.107
▁football	-12.107
▁چہار	-12.1073
▁stone	-12.1075
▁شنبہ	-12.1075
لک	-12.1075
▁زوالی	-12.1076
▁کدام	-12.1078
▁چوشی	-12.108
▁همود	-12.108
دارگ	-12.108
▁زیمراں	-12.1082
▁پیام	-12.1083
▁سرگردان	-12.1086
▁شدیک	-12.1087
▁must	-12.1088
▁لگوشت	-12.1088
▁پروازء	-12.109
▁اہن	-12.1091
▁subject	-12.1092
▁مخاطب	-12.1093
سو	-12.1096
▁انجینئرنگ	-12.1097
▁جیڑگی	-12.1098
▁کسم	-12.1099
▁مفکر	-12.1101
▁بھنگ	-12.1101
▁انتہا	-12.1104
▁رئوگ	-12.1104
▁واژہ	-12.1105
▁وانینتگ	-12.1106
▁چلے	-12.1108
▁باگی	-12.1109
▁واھگدار	-12.111
▁املی	-12.1111
▁لینے	-12.1115
▁کارگرگ	-12.1115
کساس	-12.1116
▁شول	-12.1116
▁سریت	-12.1116
▁طاقتے	-12.1118
▁پورو	-12.1121
▁سرینان	-12.1121
▁ڪتگ	-12.1125
▁broke	-12.1128
▁شررنگیں	-12.1129
▁گھس	-12.113
▁بچارات	-12.113
▁شرپے	-12.1133
▁Mount	-12.1133
▁باس	-12.1133
▁slow	-12.1134
▁ٹارچر	-12.1135
▁کمپ	-12.1136
▁تنت۔	-12.1137
▁دراہی	-12.1138
▁ٹولیاں	-12.1138
▁مدے	-12.1138
▁جنگلاں	-12.1138
▁میرچاکر	-12.1138
▁کریک	-12.1139
▁شہزاد	-12.114
▁ملوریں	-12.114
▁capital	-12.1141
▁ہؤ	-12.1142
▁سبوت	-12.1143
▁forward	-12.1144
▁رپیک	-12.1148
▁زرینہ	-12.1149
▁دستاویز	-12.1153
▁پیوند	-12.1156
▁ناپگ	-12.1156
▁شاہو	-12.1157
▁مع	-12.1158
▁حمد	-12.1159
▁پہازگ	-12.1162
▁بیگار	-12.1163
▁بایدانت	-12.1166
پور	-12.1173
▁برازیل	-12.1173
▁explain	-12.1175
▁network	-12.1175
▁pressure	-12.1175
▁ناکامی	-12.1175
▁surface	-12.1176
▁چمروک	-12.1176
▁پختہ	-12.1177
▁داتاں	-12.1178
قصہ	-12.1178
▁خاتون	-12.1178
▁پلیری	-12.1179
▁میلادی	-12.118
دز	-12.1181
▁وزیرستان	-12.1183
▁کلر	-12.1183
▁زریات	-12.1186
▁في	-12.1187
ی۔	-12.1187
▁لائقی	-12.1187
▁کاگداں	-12.1188
▁بھیر	-12.1188
▁سہیگ	-12.1189
▁پادایگ	-12.1195
▁بچارے	-12.1196
▁کودک	-12.1197
▁واش	-12.1197
▁یادگار	-12.1197
▁ٹپے	-12.1199
▁اوگانی	-12.1199
▁سرجاہ	-12.1201
▁۔وتی	-12.1201
▁ات۔منی	-12.1203
▁ملایاں	-12.1204
▁وشبواں	-12.1204
▁ذال	-12.1205
▁بالیگراب	-12.1205
▁درنگازی	-12.1207
▁Du	-12.1209
سلام	-12.1209
▁نیند	-12.1211
▁شتیں۔	-12.1212
▁hold	-12.1214
▁قیام	-12.1215
▁ترپگ	-12.1215
▁Hall	-12.1216
▁1960	-12.1216
▁intend	-12.1219
تاکبند	-12.1219
▁فساد	-12.1219
▁لمہ	-12.1221
▁شنزگ	-12.1221
▁یورش	-12.1222
▁بدرنگ	-12.1225
▁پکی	-12.1227
▁سپائی	-12.1228
▁دیناں	-12.1228
▁دانائیں	-12.1231
▁studie	-12.1232
..!‘‘	-12.1232
▁رھبندی	-12.1232
▁حیالان	-12.1234
▁نامرد	-12.1235
▁دلکشی	-12.1235
▁سربراہ	-12.1236
▁دیھ	-12.1237
▁اڑان	-12.1237
▁رجحان	-12.1241
▁ناکامیں	-12.1242
▁پراہی	-12.1244
▁بروتاں	-12.1248
▁وروک	-12.1248
▁غزلے	-12.1249
▁ببات	-12.125
▁کلاکانی	-12.1251
▁ردیانی	-12.1251
▁تپنگء	-12.1252
▁بگندیت	-12.1252
▁صلہ	-12.1255
▁زخم	-12.1256
▁برامد	-12.1256
▁سکہ	-12.1257
▁ڈے	-12.1257
▁Guitar	-12.1257
▁approximate	-12.1257
▁increasing	-12.1257
▁وضاحت	-12.1261
▁piece	-12.1261
▁تازگ	-12.1263
▁تنہا	-12.1264
▁کیگد	-12.1264
den	-12.1265
▁جتائیء	-12.1266
▁پرستیں	-12.1266
▁ہید	-12.1267
nion	-12.1267
▁Air	-12.1268
▁پھلوان	-12.1269
▁صف	-12.1269
▁انجیر	-12.1269
▁ہیرت	-12.1273
شھید	-12.1274
▁standard	-12.1276
▁دردانہ	-12.1277
▁بیرگیں	-12.128
▁زاہدان	-12.128
ll	-12.1281
▁نبنت	-12.1285
.(	-12.1285
▁ھکاں	-12.1286
▁اسودگیں	-12.1286
▁گھتری	-12.1286
▁ڪار	-12.1286
▁پیرجان	-12.1286
▁کارچے	-12.1288
▁Richard	-12.1289
▁علیه	-12.1289
98	-12.129
▁زیاد	-12.129
▁زالء	-12.1291
▁بیتگنت۔	-12.1291
▁چلتن	-12.1293
سندھ	-12.1293
▁حقیقتے	-12.1294
▁مشکلانی	-12.1295
▁نشگ	-12.1296
۔نوں	-12.1296
▁پیدائشت	-12.1296
▁گیتک	-12.1297
▁foot	-12.1297
▁شرابی	-12.1297
▁That	-12.1299
جنگی	-12.13
▁professional	-12.1301
▁ملگزار	-12.1301
▁برازتک	-12.1301
▁گوزاں	-12.1302
▁پزل	-12.1302
▁وفائی	-12.1302
▁عائشہ	-12.1303
▁هرچ	-12.1305
▁ٹکگ	-12.1305
▁ایجاد	-12.1307
▁مزنێن	-12.1308
▁بیٹنگ	-12.1308
▁ٹونا	-12.1308
▁انگراں	-12.1309
▁بیکار	-12.131
tic	-12.1312
▁دیمھونی	-12.1312
یاکہ	-12.1313
کوش	-12.1317
▁ارٹیکل	-12.1317
▁ضامن	-12.132
▁شھار	-12.1322
▁سھتے	-12.1322
▁جہداں	-12.1322
▁زران	-12.1323
▁چاہیے	-12.1324
▁Per	-12.1325
▁پارلیمان	-12.1325
▁انت۔کہ	-12.1325
مٹ	-12.133
کچک	-12.1331
▁حجالتی	-12.1332
▁زمزیلاں	-12.1333
▁سھبء	-12.1334
▁specific	-12.1336
▁کردن	-12.1337
▁تراتگ	-12.1338
▁گلگدارے	-12.1338
▁کلہے	-12.1339
▁چہرے	-12.1341
▁سکون	-12.1341
▁cost	-12.1343
▁بہشتء	-12.1343
▁ہوس	-12.1344
▁وھاب	-12.1344
▁مجموعی	-12.1345
▁لوٹگء	-12.1345
▁اخلاقیات	-12.1347
▁تسپ	-12.1347
▁actor	-12.1348
▁جتاہیں	-12.1351
▁مشکلاں	-12.1352
▁یکجاھیں	-12.1359
▁جارچین	-12.136
▁بزاناں	-12.1361
▁دنتاناں	-12.1361
▁راستہ	-12.1362
▁شنگیں	-12.1362
▁میلے	-12.1362
▁گواریت	-12.1363
▁p	-12.1363
▁دپتراں	-12.1363
▁نشاناں	-12.1363
▁پوریاگرانی	-12.1365
▁اٹھ	-12.1367
▁پا۔	-12.1368
▁رہتے	-12.1368
▁عکاسی	-12.137
▁تکمیل	-12.137
▁سازے	-12.1371
▁ایاناں	-12.1379
▁lines	-12.138
▁نبا	-12.1381
▁past	-12.1382
▁دلشاد	-12.1382
رک	-12.1382
▁پرسء	-12.1382
▁typical	-12.1384
▁create	-12.1385
▁بوھوکیں	-12.1385
▁relative	-12.1385
انک	-12.1386
▁fact	-12.1386
▁پھریزی	-12.1387
▁قیدی	-12.1387
▁ڪن	-12.1389
▁Sea	-12.1389
▁ترجمے	-12.139
▁بنیادء	-12.1391
▁کمپنیاں	-12.1393
نور	-12.1393
کفایت	-12.1394
▁ھامین	-12.1395
▁جناب	-12.1395
▁گئی۔	-12.1397
▁تکنیکے	-12.1397
▁جاہانی	-12.1398
▁My	-12.1402
low	-12.1405
▁fly	-12.1408
▁یورپا	-12.1408
▁دلاور	-12.1409
▁گوستہ	-12.1414
▁ہاکم	-12.1415
nder	-12.1417
▁تکینک	-12.1418
▁زادگ	-12.1418
▁برادر	-12.142
▁کشیتگ	-12.1425
▁مستحکم	-12.1426
▁ذمواری	-12.1426
▁چائنا	-12.1426
▁هیران	-12.1427
▁election	-12.1427
▁هلک	-12.1429
▁دراھ	-12.1429
▁ھفت	-12.143
▁کتکاری	-12.1432
امین	-12.1434
▁مترجم	-12.1434
▁گوازینتگ۔	-12.1439
▁جہانگیر	-12.1444
▁قطب	-12.1444
▁انگتء	-12.1448
ایم	-12.1449
ئن	-12.145
▁تمباک	-12.1452
▁هزاراں	-12.1452
▁جہلانک	-12.1453
▁پتات	-12.1453
▁ائل	-12.1455
▁سوجکار	-12.1455
▁بدکاری	-12.1456
▁ویرانی	-12.1457
▁چاہء	-12.1457
▁بیت۔۔۔۔	-12.1458
ض	-12.1459
▁تامل	-12.1461
▁یادگہ	-12.1461
نگی	-12.1461
▁ہوٹلے	-12.1462
▁عزتء	-12.1463
▁اکاؤنٹ	-12.1464
▁دیوانگی	-12.1464
▁ہوپ	-12.1465
▁شمشت	-12.1465
▁سربار	-12.1466
▁مہمانی	-12.1466
▁جائے۔	-12.1466
▁رهبند	-12.1467
▁territor	-12.1467
▁certain	-12.1468
▁winning	-12.1468
▁injur	-12.1468
▁might	-12.1468
▁بہارگہ	-12.147
▁حسینء	-12.147
▁خدیجہ	-12.147
▁seem	-12.147
▁بندروشم	-12.1471
▁بروس	-12.1472
▁سارا	-12.1473
▁صدیقی	-12.1474
▁اٹکل	-12.1475
شمس	-12.1477
▁سربوگ	-12.1477
▁شمارہ	-12.1477
▁pitch	-12.1478
▁اٹھا	-12.148
▁مروچ	-12.1481
▁بندپتر	-12.1481
▁تھء	-12.1482
▁یکجاہی	-12.1483
▁وارثاں	-12.1485
▁تلاراں	-12.1485
دودا	-12.1485
▁لکھن	-12.1485
▁دنتانانی	-12.1486
▁جنزیت	-12.1487
▁لمبء	-12.1487
▁کوار	-12.1487
ter	-12.1489
جب	-12.1489
special	-12.1491
▁قوماں	-12.1492
▁additional	-12.1492
▁تپاوتے	-12.1492
▁واکیہ	-12.1494
▁ایسٹ	-12.1497
▁سربتگ	-12.1501
نیکہ	-12.1503
▁ازگاریں	-12.1504
جنوری	-12.1506
ball	-12.1507
▁نوح	-12.1508
وشی	-12.1508
▁Brown	-12.1509
▁بیپار	-12.1509
▁جیش	-12.1509
▁60	-12.1509
!‘	-12.1509
▁immediate	-12.151
▁Pacific	-12.151
▁division	-12.1511
▁چیزے۔	-12.1512
▁معناہ	-12.1512
▁هوش	-12.1512
▁صدو	-12.1513
▁failed	-12.1514
▁چوناھیگا	-12.1514
▁گریشہ	-12.1515
▁عبدالخالق	-12.1516
▁موجودہ	-12.1516
▁نادینگ	-12.1518
▁تہلی	-12.152
▁اتمان	-12.152
▁شتوں	-12.1522
▁police	-12.1522
▁شاپک	-12.1522
▁ہمید	-12.1523
چه	-12.1523
▁پیٹر	-12.1524
▁نہادی	-12.1524
▁چتر	-12.1525
▁سعد	-12.1526
▁وسواس	-12.1527
گراں	-12.1527
▁دئیوک	-12.153
رندء	-12.1531
▁ھالت	-12.154
▁سرکشی	-12.1541
▁بشامی	-12.1541
وانی	-12.1549
▁پمیش	-12.155
▁بدء	-12.155
▁ماہکان	-12.1551
▁display	-12.1553
▁Light	-12.1553
▁depression	-12.1553
▁detail	-12.1553
غی	-12.1555
▁ایوارڈ	-12.1555
▁موچی	-12.1555
▁بدئے۔	-12.1556
▁movement	-12.1556
▁حرص	-12.1556
▁سلسلے	-12.1557
▁ٹھ	-12.1558
▁علوم	-12.1559
▁دیمدرائی	-12.1559
▁بگرتاں	-12.1561
▁حالان	-12.1563
جتا	-12.1563
ناکیں	-12.1564
▁پراہیں	-12.1564
▁00	-12.1565
▁دلدوستیں	-12.1565
▁وہدئ	-12.1565
▁دینء	-12.1568
▁پاسے	-12.1568
▁بچکء	-12.1568
▁ایسپ	-12.157
▁انکھیں	-12.157
پرچہ	-12.1573
▁پؤجی	-12.1573
▁ریحان	-12.1573
▁شھدیں	-12.1573
چراگ	-12.1576
▁مونجائی	-12.1579
▁ریتکگ	-12.1582
▁ہیوم	-12.1582
▁حامل	-12.1583
▁نفی	-12.1583
▁مبوتیں	-12.1585
▁راؤنڈ	-12.1587
nough	-12.1588
▁گزراں	-12.1588
▁روشناھی	-12.1589
▁شکون	-12.1589
۔وہدے	-12.1589
▁لانچء	-12.1591
▁کرداراں	-12.1591
اچہ	-12.1592
▁گھڑیال	-12.1593
▁تجریدی	-12.1593
▁رپورٹے	-12.1594
▁اسٹوڈنس	-12.1596
▁beginning	-12.1596
▁Wheeler	-12.1596
▁according	-12.1596
▁hard	-12.1598
▁خدابخش	-12.1598
▁اسامہ	-12.1599
▁دھل	-12.1599
▁training	-12.1601
▁نریان	-12.1602
▁ریسٹ	-12.1602
▁رواں۔	-12.1604
▁دوشیگیں	-12.1606
▁Histor	-12.1606
▁تکے	-12.1608
▁occurr	-12.1608
▁عذابے	-12.1608
▁دوتل	-12.1608
▁La	-12.161
▁ٹونی	-12.1612
▁forest	-12.1612
▁عامیں	-12.1615
▁رنز	-12.1616
▁برسیت	-12.1618
▁ایگا	-12.1624
▁مجازی	-12.163
▁دشتیء	-12.1631
▁مردار	-12.1632
▁states	-12.1633
▁گردینت	-12.1633
▁دزبمبے	-12.1634
▁ازمود	-12.1635
▁مجلساں	-12.1635
▁ریپ	-12.1636
illa	-12.1636
▁کنائینتگ۔	-12.1638
▁food	-12.1639
▁شانزدھمی	-12.1639
▁gold	-12.1639
▁2002	-12.1639
▁کپتاں۔	-12.164
▁چراہاں	-12.1644
▁منتقل	-12.1644
▁بادی	-12.1646
این	-12.1646
انہی	-12.1648
▁للک	-12.1649
▁ٹینکر	-12.1651
▁دوستگیں	-12.1651
▁resident	-12.1653
▁نقاب	-12.1653
▁ھالد	-12.1654
▁names	-12.1654
▁تھری	-12.1654
▁گوزنت	-12.1654
▁اندیمیں	-12.1655
▁سیاھک	-12.1656
▁گپے۔	-12.1658
▁charge	-12.166
▁کاه	-12.1662
▁ہتھیار	-12.1662
▁پریم	-12.1663
▁یونیورسٹیء	-12.1663
▁جنتر	-12.1663
▁سابر	-12.1665
▁نکنت۔	-12.1666
▁compar	-12.1667
99	-12.1671
▁یکدمے	-12.1671
▁تعین	-12.1671
زوریں	-12.1675
▁کیسگء	-12.1676
کئی	-12.1678
▁مسیتے	-12.1678
▁port	-12.1681
▁Film	-12.1682
▁غلطی	-12.1683
▁daughter	-12.1683
stein	-12.1684
▁ڈرگ	-12.1685
▁جوائنٹ	-12.1685
▁ونت۔	-12.1686
▁لکھتے	-12.1686
▁روانہ	-12.1686
▁مسل	-12.1689
▁سوبینی	-12.169
▁سنگراں	-12.169
یٹ	-12.1692
▁دھن	-12.1694
▁روہ	-12.1695
▁نئیم	-12.1695
▁علماء	-12.1695
▁ازگر	-12.1696
▁مزاح	-12.1698
▁گنگیں	-12.1701
▁جاگها	-12.1701
▁جاکر	-12.1701
▁سردارے	-12.1702
براس	-12.1702
▁بکر	-12.1704
▁چراگء	-12.1705
,,,	-12.1705
latter	-12.1706
▁بارام	-12.1708
▁مانایے	-12.1709
▁بوئے	-12.171
▁اعتماد	-12.1711
▁بردار	-12.1711
▁مردہ	-12.1712
▁بنگپء	-12.1715
▁حکایت	-12.1717
▁سورتء	-12.1718
▁تابء	-12.1719
▁شہریاں	-12.1722
▁شپانکے	-12.1723
چمشانکے	-12.1724
▁ترسی	-12.1726
▁ٹکنالوجی	-12.1726
▁مالے	-12.1726
▁ہیلتھ	-12.1726
▁زانتگیں	-12.1727
▁صورتحال	-12.1727
▁ٹیلیفون	-12.1727
▁گلزمینء	-12.1728
▁نویسیت	-12.1728
▁leg	-12.1728
▁تراکینگ	-12.1728
▁پلوا	-12.173
▁fund	-12.173
▁کئیا	-12.173
▁ٹول	-12.1732
▁کلیدی	-12.1733
ney	-12.1734
▁Jin	-12.1734
▁کوٹھی	-12.1735
▁بالادیں	-12.1737
▁لٹے	-12.1737
▁راجدار	-12.1738
▁ھمسپر	-12.1738
▁کلاسء	-12.1738
▁بہتی	-12.1739
▁کشت۔	-12.1741
▁friend	-12.1741
▁رستراں	-12.1742
کاھان	-12.1742
▁زکت	-12.1742
▁پلگارگ	-12.1745
▁نسرالل	-12.1745
▁گردء	-12.1745
پژدر	-12.1747
▁مرحوم	-12.1748
▁مدیر	-12.1749
کپتگ	-12.1753
▁بولک	-12.1754
ھوناک	-12.1754
▁سریچک	-12.1754
▁ارواه	-12.1754
▁ندارگء	-12.1755
▁ہنرکاری	-12.1757
کماش	-12.1757
▁فنکشن	-12.176
▁جوسک	-12.1761
چر	-12.1762
ده	-12.1762
▁نظامء	-12.1762
▁نیشتگ	-12.1764
نچێں	-12.1765
▁میڑھ	-12.1766
▁وپاداری	-12.1767
▁battalion	-12.1769
▁گلزادی	-12.1769
▁مضامین	-12.177
▁دزکپگ	-12.177
▁ہومر	-12.177
▁گھرام	-12.1771
▁قدوس	-12.1772
▁برصغیر	-12.1776
▁chose	-12.1776
دئیگ	-12.1777
ونی	-12.1778
▁خزانہ	-12.1779
▁گزہ	-12.1779
▁تاثیر	-12.1779
▁رگانی	-12.178
▁فرانسء	-12.178
شری	-12.1781
▁صدانی	-12.1782
▁کیز	-12.1782
نصیر	-12.1785
▁گندنت	-12.1786
▁captur	-12.1787
▁ثانی	-12.1787
▁لوذ	-12.1789
▁spen	-12.179
▁گیواری	-12.179
▁زرین	-12.1792
▁Awards	-12.1792
▁جمعه	-12.1793
▁عنہا	-12.1793
▁چگ	-12.1793
▁ائیارا	-12.1794
بک	-12.1794
گپت	-12.1801
درائیں	-12.1803
▁برانزاں	-12.1803
▁پرنس	-12.1803
▁سگیت	-12.1805
یگاں	-12.1805
▁چراگانی	-12.1805
▁ناکوء	-12.1806
▁گنوکاں	-12.1806
▁rate	-12.1807
▁مزنێں	-12.1808
▁ھرکجا	-12.181
▁ٹریڈ	-12.1811
▁ہمیرنگ	-12.1811
▁رمیز	-12.1812
▁زوری	-12.1812
▁یکر	-12.1813
▁صلح	-12.1813
▁Catholic	-12.1813
▁coach	-12.1813
دنیاء	-12.1815
▁Force	-12.1816
▁ھوا	-12.1816
▁گستائی	-12.1818
▁اساطیر	-12.1818
▁ایلن	-12.1818
▁ملمہ	-12.1818
▁room	-12.182
▁گوریلا	-12.1821
وخیں	-12.1821
▁کمانڈ	-12.1821
▁think	-12.1821
▁درمحمد	-12.1822
▁کاگدیں	-12.1823
▁تجھے	-12.1826
▁جناورانی	-12.1828
▁g	-12.183
▁سرنگ	-12.183
▁واجهء	-12.1831
▁ناشناساں	-12.1832
▁منج	-12.1832
▁اناں۔	-12.1834
▁کوھستگ	-12.1834
▁گٹو	-12.1835
▁نابلد	-12.1836
▁لیوا	-12.1836
▁مارکسء	-12.1841
▁ڈیزائن	-12.1843
▁کئیل	-12.1846
ایی	-12.1846
▁دنزے	-12.1847
▁اپدا	-12.1848
چین	-12.1848
▁host	-12.1854
▁سالم	-12.1854
▁گوازینیت	-12.1855
▁گوازینت۔	-12.1856
مہلوک	-12.1856
▁know	-12.1857
▁مھبت	-12.1858
▁ہیلی	-12.1858
▁ھلاف	-12.1858
▁چہرگ	-12.1858
▁متوازن	-12.1859
▁ذخیرہ	-12.1859
▁ہمنچک	-12.1859
▁بریفنگ	-12.186
▁دربارء	-12.186
[...]
