{
  "version": "1.0",
  "truncation": null,
  "padding": null,
  "added_tokens": [
    {
      "id": 0,
      "content": "[PAD]",
      "single_word": false,
      "lstrip": false,
      "rstrip": false,
      "normalized": false,
      "special": true
    },
    {
      "id": 1,
      "content": "[UNK]",
      "single_word": false,
      "lstrip": false,
      "rstrip": false,
      "normalized": false,
      "special": true
    },
    {
      "id": 2,
      "content": "[CLS]",
      "single_word": false,
      "lstrip": false,
      "rstrip": false,
      "normalized": false,
      "special": true
    },
    {
      "id": 3,
      "content": "[SEP]",
      "single_word": false,
      "lstrip": false,
      "rstrip": false,
      "normalized": false,
      "special": true
    },
    {
      "id": 4,
      "content": "[MASK]",
      "single_word": false,
      "lstrip": false,
      "rstrip": false,
      "normalized": false,
      "special": true
    }
  ],
  "normalizer": {
    "type": "NFKC"
  },
  "pre_tokenizer": {
    "type": "Sequence",
    "pretokenizers": [
      {
        "type": "Whitespace"
      },
      {
        "type": "Punctuation",
        "behavior": "Isolated"
      },
      {
        "type": "Digits",
        "individual_digits": true
      }
    ]
  },
  "post_processor": null,
  "decoder": null,
  "model": {
    "type": "WordPiece",
    "unk_token": "[UNK]",
    "continuing_subword_prefix": "##",
    "max_input_chars_per_word": 100,
    "vocab": {
      "[PAD]": 0,
      "[UNK]": 1,
      "[CLS]": 2,
      "[SEP]": 3,
      "[MASK]": 4,
      "\u0004": 5,
      "\b": 6,
      "!": 7,
      "\"": 8,
      "#": 9,
      "$": 10,
      "%": 11,
      "&": 12,
      "'": 13,
      "(": 14,
      ")": 15,
      "*": 16,
      "+": 17,
      ",": 18,
      "-": 19,
      ".": 20,
      "/": 21,
      "0": 22,
      "1": 23,
      "2": 24,
      "3": 25,
      "4": 26,
      "5": 27,
      "6": 28,
      "7": 29,
      "8": 30,
      "9": 31,
      ":": 32,
      ";": 33,
      "<": 34,
      "=": 35,
      ">": 36,
      "?": 37,
      "@": 38,
      "A": 39,
      "B": 40,
      "C": 41,
      "D": 42,
      "E": 43,
      "F": 44,
      "G": 45,
      "H": 46,
      "I": 47,
      "J": 48,
      "K": 49,
      "L": 50,
      "M": 51,
      "N": 52,
      "O": 53,
      "P": 54,
      "Q": 55,
      "R": 56,
      "S": 57,
      "T": 58,
      "U": 59,
      "V": 60,
      "W": 61,
      "X": 62,
      "Y": 63,
      "Z": 64,
      "[": 65,
      "\\": 66,
      "]": 67,
      "^": 68,
      "_": 69,
      "`": 70,
      "a": 71,
      "b": 72,
      "c": 73,
      "d": 74,
      "e": 75,
      "f": 76,
      "g": 77,
      "h": 78,
      "i": 79,
      "j": 80,
      "k": 81,
      "l": 82,
      "m": 83,
      "n": 84,
      "o": 85,
      "p": 86,
      "q": 87,
      "r": 88,
      "s": 89,
      "t": 90,
      "u": 91,
      "v": 92,
      "w": 93,
      "x": 94,
      "y": 95,
      "z": 96,
      "|": 97,
      "}": 98,
      "~": 99,
      "": 100,
      "": 101,
      "¡": 102,
      "¢": 103,
      "£": 104,
      "¥": 105,
      "§": 106,
      "°": 107,
      "±": 108,
      "·": 109,
      "¿": 110,
      "Á": 111,
      "Ä": 112,
      "Å": 113,
      "Æ": 114,
      "Ç": 115,
      "É": 116,
      "Í": 117,
      "Î": 118,
      "Ñ": 119,
      "Ó": 120,
      "Ö": 121,
      "×": 122,
      "Ø": 123,
      "Ú": 124,
      "Ü": 125,
      "Þ": 126,
      "ß": 127,
      "à": 128,
      "á": 129,
      "â": 130,
      "ã": 131,
      "ä": 132,
      "å": 133,
      "æ": 134,
      "ç": 135,
      "è": 136,
      "é": 137,
      "ê": 138,
      "ë": 139,
      "ì": 140,
      "í": 141,
      "î": 142,
      "ï": 143,
      "ð": 144,
      "ñ": 145,
      "ò": 146,
      "ó": 147,
      "ô": 148,
      "ö": 149,
      "ø": 150,
      "ù": 151,
      "ú": 152,
      "û": 153,
      "ü": 154,
      "ý": 155,
      "þ": 156,
      "Ā": 157,
      "ā": 158,
      "ă": 159,
      "ą": 160,
      "ć": 161,
      "Č": 162,
      "č": 163,
      "Đ": 164,
      "đ": 165,
      "Ē": 166,
      "ē": 167,
      "Ĕ": 168,
      "ĕ": 169,
      "ė": 170,
      "ę": 171,
      "ğ": 172,
      "ħ": 173,
      "ī": 174,
      "İ": 175,
      "ı": 176,
      "Ľ": 177,
      "Ł": 178,
      "ł": 179,
      "ń": 180,
      "Ō": 181,
      "ō": 182,
      "œ": 183,
      "ř": 184,
      "Ś": 185,
      "ś": 186,
      "Ş": 187,
      "ş": 188,
      "Š": 189,
      "š": 190,
      "ţ": 191,
      "ũ": 192,
      "ū": 193,
      "ů": 194,
      "ų": 195,
      "ź": 196,
      "Ż": 197,
      "ż": 198,
      "Ž": 199,
      "ž": 200,
      "ơ": 201,
      "ư": 202,
      "ǎ": 203,
      "ǔ": 204,
      "Ș": 205,
      "ș": 206,
      "ț": 207,
      "ȯ": 208,
      "ɐ": 209,
      "ɑ": 210,
      "ɒ": 211,
      "ɔ": 212,
      "ə": 213,
      "ɛ": 214,
      "ɜ": 215,
      "ɡ": 216,
      "ɢ": 217,
      "ɪ": 218,
      "ɫ": 219,
      "ɬ": 220,
      "ɳ": 221,
      "ɽ": 222,
      "ɾ": 223,
      "ʁ": 224,
      "ʃ": 225,
      "ʊ": 226,
      "ʋ": 227,
      "ʒ": 228,
      "ʔ": 229,
      "ʕ": 230,
      "ʻ": 231,
      "ʼ": 232,
      "ʾ": 233,
      "ʿ": 234,
      "ˈ": 235,
      "ˌ": 236,
      "ː": 237,
      "˳": 238,
      "́": 239,
      "̃": 240,
      "̋": 241,
      "̍": 242,
      "̤": 243,
      "̥": 244,
      "̯": 245,
      "͍": 246,
      "Α": 247,
      "Δ": 248,
      "Κ": 249,
      "Ν": 250,
      "Π": 251,
      "Τ": 252,
      "Φ": 253,
      "Χ": 254,
      "Ω": 255,
      "ά": 256,
      "έ": 257,
      "ή": 258,
      "ί": 259,
      "α": 260,
      "β": 261,
      "γ": 262,
      "δ": 263,
      "ε": 264,
      "η": 265,
      "θ": 266,
      "ι": 267,
      "κ": 268,
      "λ": 269,
      "μ": 270,
      "ν": 271,
      "ξ": 272,
      "ο": 273,
      "π": 274,
      "ρ": 275,
      "ς": 276,
      "σ": 277,
      "τ": 278,
      "υ": 279,
      "χ": 280,
      "ψ": 281,
      "ω": 282,
      "ό": 283,
      "ύ": 284,
      "ώ": 285,
      "А": 286,
      "Б": 287,
      "В": 288,
      "Г": 289,
      "И": 290,
      "К": 291,
      "Л": 292,
      "П": 293,
      "Р": 294,
      "С": 295,
      "Т": 296,
      "У": 297,
      "Х": 298,
      "Э": 299,
      "Я": 300,
      "а": 301,
      "б": 302,
      "в": 303,
      "г": 304,
      "д": 305,
      "е": 306,
      "ж": 307,
      "з": 308,
      "и": 309,
      "й": 310,
      "к": 311,
      "л": 312,
      "м": 313,
      "н": 314,
      "о": 315,
      "п": 316,
      "р": 317,
      "с": 318,
      "т": 319,
      "у": 320,
      "х": 321,
      "ц": 322,
      "ч": 323,
      "ш": 324,
      "щ": 325,
      "ъ": 326,
      "ы": 327,
      "ь": 328,
      "ю": 329,
      "я": 330,
      "є": 331,
      "ֵ": 332,
      "ֶ": 333,
      "ָ": 334,
      "ֹ": 335,
      "ּ": 336,
      "א": 337,
      "ב": 338,
      "ג": 339,
      "ד": 340,
      "ה": 341,
      "ו": 342,
      "ז": 343,
      "ח": 344,
      "י": 345,
      "ל": 346,
      "ם": 347,
      "מ": 348,
      "ן": 349,
      "נ": 350,
      "ס": 351,
      "ף": 352,
      "פ": 353,
      "צ": 354,
      "ר": 355,
      "ש": 356,
      "ת": 357,
      "؁": 358,
      "؂": 359,
      "؍": 360,
      "؎": 361,
      "؏": 362,
      "ؒ": 363,
      "ؓ": 364,
      "ؔ": 365,
      "ء": 366,
      "ؤ": 367,
      "ئ": 368,
      "ا": 369,
      "ب": 370,
      "ة": 371,
      "ت": 372,
      "ث": 373,
      "ج": 374,
      "ح": 375,
      "خ": 376,
      "د": 377,
      "ذ": 378,
      "ر": 379,
      "ز": 380,
      "س": 381,
      "ش": 382,
      "ص": 383,
      "ض": 384,
      "ط": 385,
      "ظ": 386,
      "ع": 387,
      "غ": 388,
      "ف": 389,
      "ق": 390,
      "ك": 391,
      "ل": 392,
      "م": 393,
      "ن": 394,
      "ه": 395,
      "و": 396,
      "ى": 397,
      "ي": 398,
      "ً": 399,
      "ٌ": 400,
      "ٍ": 401,
      "َ": 402,
      "ُ": 403,
      "ِ": 404,
      "ّ": 405,
      "ْ": 406,
      "ٓ": 407,
      "ٔ": 408,
      "ٗ": 409,
      "٘": 410,
      "ٙ": 411,
      "ٛ": 412,
      "٠": 413,
      "١": 414,
      "٢": 415,
      "٣": 416,
      "٤": 417,
      "٥": 418,
      "٦": 419,
      "٧": 420,
      "٨": 421,
      "٩": 422,
      "٪": 423,
      "٫": 424,
      "٬": 425,
      "٭": 426,
      "ٰ": 427,
      "ٲ": 428,
      "ٳ": 429,
      "ٴ": 430,
      "ٹ": 431,
      "ٻ": 432,
      "ټ": 433,
      "ٽ": 434,
      "پ": 435,
      "ٿ": 436,
      "ڀ": 437,
      "ځ": 438,
      "ڃ": 439,
      "ڄ": 440,
      "څ": 441,
      "چ": 442,
      "ڇ": 443,
      "ڈ": 444,
      "ډ": 445,
      "ڊ": 446,
      "ڋ": 447,
      "ڌ": 448,
      "ڍ": 449,
      "ڏ": 450,
      "ڑ": 451,
      "ړ": 452,
      "ڕ": 453,
      "ږ": 454,
      "ڗ": 455,
      "ژ": 456,
      "ڙ": 457,
      "ښ": 458,
      "ڥ": 459,
      "ک": 460,
      "ڪ": 461,
      "ګ": 462,
      "گ": 463,
      "ڰ": 464,
      "ڱ": 465,
      "ڳ": 466,
      "ڷ": 467,
      "ں": 468,
      "ڻ": 469,
      "ھ": 470,
      "ۀ": 471,
      "ہ": 472,
      "ۂ": 473,
      "ۃ": 474,
      "ۆ": 475,
      "ۉ": 476,
      "ی": 477,
      "ۍ": 478,
      "ێ": 479,
      "ۏ": 480,
      "ې": 481,
      "ے": 482,
      "ۓ": 483,
      "۔": 484,
      "۝": 485,
      "۞": 486,
      "۟": 487,
      "۠": 488,
      "ۡ": 489,
      "ۤ": 490,
      "۩": 491,
      "۪": 492,
      "۫": 493,
      "ۯ": 494,
      "۰": 495,
      "۱": 496,
      "۲": 497,
      "۳": 498,
      "۴": 499,
      "۵": 500,
      "۶": 501,
      "۷": 502,
      "۸": 503,
      "۹": 504,
      "۽": 505,
      "۾": 506,
      "ܐ": 507,
      "ܕ": 508,
      "ܗ": 509,
      "ܝ": 510,
      "ܠ": 511,
      "ܢ": 512,
      "ܬ": 513,
      "ܲ": 514,
      "ܵ": 515,
      "ݔ": 516,
      "ހ": 517,
      "ނ": 518,
      "ވ": 519,
      "ދ": 520,
      "ި": 521,
      "ް": 522,
      "ࢨ": 523,
      "ࣿ": 524,
      "ं": 525,
      "अ": 526,
      "ई": 527,
      "क": 528,
      "ग": 529,
      "ण": 530,
      "त": 531,
      "द": 532,
      "न": 533,
      "प": 534,
      "ब": 535,
      "भ": 536,
      "म": 537,
      "य": 538,
      "र": 539,
      "ल": 540,
      "व": 541,
      "स": 542,
      "ह": 543,
      "ा": 544,
      "ि": 545,
      "ी": 546,
      "ु": 547,
      "ू": 548,
      "े": 549,
      "ै": 550,
      "्": 551,
      "আ": 552,
      "ঝ": 553,
      "ত": 554,
      "প": 555,
      "ল": 556,
      "হ": 557,
      "া": 558,
      "্": 559,
      "ਅ": 560,
      "ਲ": 561,
      "ਹ": 562,
      "ਾ": 563,
      "ੁ": 564,
      "ੱ": 565,
      "അ": 566,
      "ള": 567,
      "ഹ": 568,
      "ാ": 569,
      "്": 570,
      "ก": 571,
      "ค": 572,
      "ง": 573,
      "ช": 574,
      "ซ": 575,
      "ญ": 576,
      "ฐ": 577,
      "ณ": 578,
      "ด": 579,
      "ต": 580,
      "น": 581,
      "บ": 582,
      "ป": 583,
      "พ": 584,
      "ภ": 585,
      "ม": 586,
      "ย": 587,
      "ร": 588,
      "ล": 589,
      "ว": 590,
      "ศ": 591,
      "ษ": 592,
      "ส": 593,
      "ห": 594,
      "อ": 595,
      "ฮ": 596,
      "ะ": 597,
      "ั": 598,
      "า": 599,
      "ิ": 600,
      "ี": 601,
      "ึ": 602,
      "เ": 603,
      "แ": 604,
      "ไ": 605,
      "็": 606,
      "่": 607,
      "้": 608,
      "๊": 609,
      "์": 610,
      "Ⴀ": 611,
      "Ⴂ": 612,
      "Ⴃ": 613,
      "Ⴈ": 614,
      "Ⴌ": 615,
      "Ⴕ": 616,
      "Ⴟ": 617,
      "ა": 618,
      "ბ": 619,
      "გ": 620,
      "დ": 621,
      "ე": 622,
      "ვ": 623,
      "ზ": 624,
      "თ": 625,
      "ი": 626,
      "კ": 627,
      "ლ": 628,
      "მ": 629,
      "ნ": 630,
      "ო": 631,
      "პ": 632,
      "ჟ": 633,
      "რ": 634,
      "ს": 635,
      "ტ": 636,
      "უ": 637,
      "ფ": 638,
      "ქ": 639,
      "ღ": 640,
      "ყ": 641,
      "შ": 642,
      "ჩ": 643,
      "ც": 644,
      "ძ": 645,
      "წ": 646,
      "ჭ": 647,
      "ხ": 648,
      "ჯ": 649,
      "ჰ": 650,
      "ჱ": 651,
      "ჲ": 652,
      "ჳ": 653,
      "ჴ": 654,
      "ჵ": 655,
      "ჶ": 656,
      "ჷ": 657,
      "ჸ": 658,
      "ჹ": 659,
      "ჺ": 660,
      "჻": 661,
      "ᵻ": 662,
      "ḍ": 663,
      "ḏ": 664,
      "Ḥ": 665,
      "ḥ": 666,
      "ḷ": 667,
      "ṃ": 668,
      "ṅ": 669,
      "ṇ": 670,
      "ṛ": 671,
      "ṣ": 672,
      "ṭ": 673,
      "ṯ": 674,
      "ạ": 675,
      "ả": 676,
      "ấ": 677,
      "ầ": 678,
      "ậ": 679,
      "ắ": 680,
      "ễ": 681,
      "ệ": 682,
      "ị": 683,
      "ọ": 684,
      "ỏ": 685,
      "ỗ": 686,
      "ộ": 687,
      "ớ": 688,
      "ứ": 689,
      "ử": 690,
      "ữ": 691,
      "ỳ": 692,
      "ỹ": 693,
      "ἀ": 694,
      "ἰ": 695,
      "ὀ": 696,
      "ὁ": 697,
      "ὑ": 698,
      "​": 699,
      "‎": 700,
      "‐": 701,
      "–": 702,
      "—": 703,
      "―": 704,
      "‘": 705,
      "’": 706,
      "“": 707,
      "”": 708,
      "„": 709,
      "†": 710,
      "‡": 711,
      "•": 712,
      "‪": 713,
      "‫": 714,
      "‬": 715,
      "′": 716,
      "‹": 717,
      "›": 718,
      "※": 719,
      "⁄": 720,
      "⁠": 721,
      "⁦": 722,
      "⁨": 723,
      "⁩": 724,
      "₣": 725,
      "₤": 726,
      "€": 727,
      "₹": 728,
      "⃣": 729,
      "↑": 730,
      "→": 731,
      "↔": 732,
      "↘": 733,
      "↪": 734,
      "⇦": 735,
      "⇨": 736,
      "⇩": 737,
      "∆": 738,
      "−": 739,
      "∗": 740,
      "√": 741,
      "∴": 742,
      "∵": 743,
      "≈": 744,
      "≡": 745,
      "≤": 746,
      "≥": 747,
      "⏪": 748,
      "⏰": 749,
      "⏲": 750,
      "⏳": 751,
      "⏺": 752,
      "─": 753,
      "█": 754,
      "▓": 755,
      "■": 756,
      "▪": 757,
      "▫": 758,
      "▶": 759,
      "◀": 760,
      "◄": 761,
      "○": 762,
      "●": 763,
      "◻": 764,
      "◼": 765,
      "◽": 766,
      "◾": 767,
      "☀": 768,
      "☄": 769,
      "★": 770,
      "☆": 771,
      "☉": 772,
      "☘": 773,
      "☜": 774,
      "☝": 775,
      "☫": 776,
      "♀": 777,
      "♂": 778,
      "♡": 779,
      "♢": 780,
      "♣": 781,
      "♥": 782,
      "♦": 783,
      "♨": 784,
      "♭": 785,
      "♯": 786,
      "♻": 787,
      "⚓": 788,
      "⚔": 789,
      "⚛": 790,
      "⚠": 791,
      "⚡": 792,
      "⚫": 793,
      "⚳": 794,
      "⛅": 795,
      "⛈": 796,
      "⛔": 797,
      "⛰": 798,
      "⛲": 799,
      "✄": 800,
      "✅": 801,
      "✋": 802,
      "✌": 803,
      "✍": 804,
      "✎": 805,
      "✏": 806,
      "✒": 807,
      "✓": 808,
      "✔": 809,
      "✘": 810,
      "✨": 811,
      "✳": 812,
      "✴": 813,
      "❀": 814,
      "❄": 815,
      "❇": 816,
      "❊": 817,
      "❌": 818,
      "❎": 819,
      "❓": 820,
      "❖": 821,
      "❗": 822,
      "❣": 823,
      "❤": 824,
      "❶": 825,
      "❷": 826,
      "❸": 827,
      "❹": 828,
      "❺": 829,
      "➏": 830,
      "➐": 831,
      "➖": 832,
      "➡": 833,
      "➣": 834,
      "⦿": 835,
      "⩽": 836,
      "⬅": 837,
      "⬇": 838,
      "⬛": 839,
      "⭐": 840,
      "⭕": 841,
      "、": 842,
      "。": 843,
      "〆": 844,
      "〇": 845,
      "〈": 846,
      "〉": 847,
      "《": 848,
      "》": 849,
      "〜": 850,
      "〰": 851,
      "あ": 852,
      "い": 853,
      "う": 854,
      "お": 855,
      "か": 856,
      "が": 857,
      "き": 858,
      "ぎ": 859,
      "く": 860,
      "ぐ": 861,
      "け": 862,
      "こ": 863,
      "ご": 864,
      "さ": 865,
      "し": 866,
      "す": 867,
      "ず": 868,
      "ぜ": 869,
      "た": 870,
      "だ": 871,
      "ち": 872,
      "っ": 873,
      "つ": 874,
      "と": 875,
      "な": 876,
      "に": 877,
      "の": 878,
      "は": 879,
      "ば": 880,
      "ひ": 881,
      "ふ": 882,
      "ほ": 883,
      "ま": 884,
      "み": 885,
      "め": 886,
      "も": 887,
      "ゃ": 888,
      "ゆ": 889,
      "ょ": 890,
      "ら": 891,
      "り": 892,
      "る": 893,
      "れ": 894,
      "わ": 895,
      "を": 896,
      "ん": 897,
      "ァ": 898,
      "ア": 899,
      "ィ": 900,
      "イ": 901,
      "ゥ": 902,
      "ェ": 903,
      "エ": 904,
      "ォ": 905,
      "オ": 906,
      "カ": 907,
      "ガ": 908,
      "キ": 909,
      "ク": 910,
      "グ": 911,
      "ゲ": 912,
      "コ": 913,
      "サ": 914,
      "シ": 915,
      "ジ": 916,
      "ス": 917,
      "ズ": 918,
      "セ": 919,
      "タ": 920,
      "ダ": 921,
      "チ": 922,
      "ッ": 923,
      "ツ": 924,
      "テ": 925,
      "デ": 926,
      "ト": 927,
      "ド": 928,
      "ナ": 929,
      "ニ": 930,
      "ネ": 931,
      "ノ": 932,
      "ハ": 933,
      "バ": 934,
      "パ": 935,
      "フ": 936,
      "ブ": 937,
      "プ": 938,
      "ヘ": 939,
      "ベ": 940,
      "マ": 941,
      "ミ": 942,
      "ム": 943,
      "モ": 944,
      "ャ": 945,
      "ュ": 946,
      "ョ": 947,
      "ラ": 948,
      "リ": 949,
      "ル": 950,
      "レ": 951,
      "ロ": 952,
      "ン": 953,
      "ヴ": 954,
      "・": 955,
      "ー": 956,
      "一": 957,
      "七": 958,
      "下": 959,
      "世": 960,
      "丙": 961,
      "中": 962,
      "主": 963,
      "乃": 964,
      "之": 965,
      "乙": 966,
      "九": 967,
      "乡": 968,
      "二": 969,
      "云": 970,
      "人": 971,
      "今": 972,
      "付": 973,
      "作": 974,
      "侗": 975,
      "依": 976,
      "信": 977,
      "備": 978,
      "傳": 979,
      "儚": 980,
      "充": 981,
      "光": 982,
      "全": 983,
      "兵": 984,
      "其": 985,
      "具": 986,
      "円": 987,
      "再": 988,
      "出": 989,
      "判": 990,
      "前": 991,
      "剛": 992,
      "劇": 993,
      "劉": 994,
      "動": 995,
      "化": 996,
      "北": 997,
      "华": 998,
      "厂": 999,
      "去": 1000,
      "古": 1001,
      "可": 1002,
      "台": 1003,
      "史": 1004,
      "同": 1005,
      "名": 1006,
      "君": 1007,
      "吳": 1008,
      "周": 1009,
      "命": 1010,
      "和": 1011,
      "咲": 1012,
      "善": 1013,
      "四": 1014,
      "國": 1015,
      "園": 1016,
      "圣": 1017,
      "在": 1018,
      "坂": 1019,
      "堤": 1020,
      "場": 1021,
      "塘": 1022,
      "夕": 1023,
      "大": 1024,
      "天": 1025,
      "夫": 1026,
      "女": 1027,
      "妙": 1028,
      "姚": 1029,
      "子": 1030,
      "孟": 1031,
      "守": 1032,
      "安": 1033,
      "宋": 1034,
      "完": 1035,
      "宗": 1036,
      "宝": 1037,
      "宫": 1038,
      "寝": 1039,
      "寺": 1040,
      "小": 1041,
      "少": 1042,
      "尾": 1043,
      "山": 1044,
      "岳": 1045,
      "川": 1046,
      "州": 1047,
      "巳": 1048,
      "市": 1049,
      "師": 1050,
      "平": 1051,
      "广": 1052,
      "庆": 1053,
      "府": 1054,
      "座": 1055,
      "廬": 1056,
      "延": 1057,
      "建": 1058,
      "式": 1059,
      "張": 1060,
      "彌": 1061,
      "彩": 1062,
      "彼": 1063,
      "後": 1064,
      "御": 1065,
      "德": 1066,
      "思": 1067,
      "愛": 1068,
      "憑": 1069,
      "憶": 1070,
      "應": 1071,
      "懷": 1072,
      "战": 1073,
      "戦": 1074,
      "扈": 1075,
      "技": 1076,
      "拉": 1077,
      "拳": 1078,
      "挑": 1079,
      "揺": 1080,
      "攻": 1081,
      "放": 1082,
      "政": 1083,
      "散": 1084,
      "斯": 1085,
      "方": 1086,
      "日": 1087,
      "旦": 1088,
      "旭": 1089,
      "昌": 1090,
      "明": 1091,
      "星": 1092,
      "春": 1093,
      "晋": 1094,
      "景": 1095,
      "曦": 1096,
      "月": 1097,
      "望": 1098,
      "未": 1099,
      "本": 1100,
      "李": 1101,
      "村": 1102,
      "杜": 1103,
      "束": 1104,
      "来": 1105,
      "林": 1106,
      "桜": 1107,
      "梶": 1108,
      "棘": 1109,
      "椎": 1110,
      "楊": 1111,
      "楚": 1112,
      "榮": 1113,
      "橘": 1114,
      "機": 1115,
      "正": 1116,
      "殻": 1117,
      "殿": 1118,
      "母": 1119,
      "水": 1120,
      "汉": 1121,
      "沂": 1122,
      "沙": 1123,
      "河": 1124,
      "泗": 1125,
      "波": 1126,
      "泣": 1127,
      "洪": 1128,
      "淹": 1129,
      "清": 1130,
      "湯": 1131,
      "漢": 1132,
      "澄": 1133,
      "澤": 1134,
      "火": 1135,
      "灯": 1136,
      "灵": 1137,
      "灼": 1138,
      "焼": 1139,
      "熱": 1140,
      "物": 1141,
      "狐": 1142,
      "狸": 1143,
      "玄": 1144,
      "王": 1145,
      "玩": 1146,
      "珂": 1147,
      "珙": 1148,
      "球": 1149,
      "理": 1150,
      "琦": 1151,
      "琪": 1152,
      "瓊": 1153,
      "生": 1154,
      "田": 1155,
      "畢": 1156,
      "番": 1157,
      "瘡": 1158,
      "白": 1159,
      "皮": 1160,
      "真": 1161,
      "砲": 1162,
      "礮": 1163,
      "祈": 1164,
      "神": 1165,
      "祠": 1166,
      "秋": 1167,
      "空": 1168,
      "立": 1169,
      "精": 1170,
      "約": 1171,
      "絵": 1172,
      "織": 1173,
      "義": 1174,
      "翠": 1175,
      "者": 1176,
      "耕": 1177,
      "肖": 1178,
      "胡": 1179,
      "膀": 1180,
      "臂": 1181,
      "興": 1182,
      "良": 1183,
      "花": 1184,
      "芳": 1185,
      "芽": 1186,
      "若": 1187,
      "英": 1188,
      "藕": 1189,
      "藥": 1190,
      "蘄": 1191,
      "蘇": 1192,
      "行": 1193,
      "裁": 1194,
      "規": 1195,
      "覺": 1196,
      "观": 1197,
      "解": 1198,
      "記": 1199,
      "誓": 1200,
      "誡": 1201,
      "誰": 1202,
      "謎": 1203,
      "许": 1204,
      "谭": 1205,
      "豪": 1206,
      "豫": 1207,
      "費": 1208,
      "贵": 1209,
      "赤": 1210,
      "趙": 1211,
      "足": 1212,
      "跡": 1213,
      "転": 1214,
      "辛": 1215,
      "逆": 1216,
      "遇": 1217,
      "運": 1218,
      "過": 1219,
      "遠": 1220,
      "選": 1221,
      "邦": 1222,
      "邱": 1223,
      "部": 1224,
      "郭": 1225,
      "都": 1226,
      "酈": 1227,
      "里": 1228,
      "野": 1229,
      "金": 1230,
      "銃": 1231,
      "鋼": 1232,
      "錄": 1233,
      "錡": 1234,
      "鍵": 1235,
      "鐵": 1236,
      "钱": 1237,
      "铁": 1238,
      "關": 1239,
      "防": 1240,
      "阿": 1241,
      "陈": 1242,
      "陳": 1243,
      "陽": 1244,
      "隊": 1245,
      "階": 1246,
      "集": 1247,
      "雪": 1248,
      "雲": 1249,
      "霖": 1250,
      "霹": 1251,
      "靂": 1252,
      "韓": 1253,
      "願": 1254,
      "顯": 1255,
      "颜": 1256,
      "马": 1257,
      "高": 1258,
      "龍": 1259,
      "대": 1260,
      "독": 1261,
      "라": 1262,
      "립": 1263,
      "병": 1264,
      "보": 1265,
      "부": 1266,
      "알": 1267,
      "연": 1268,
      "제": 1269,
      "": 1270,
      "": 1271,
      "": 1272,
      "": 1273,
      "": 1274,
      "": 1275,
      "": 1276,
      "": 1277,
      "": 1278,
      "": 1279,
      "": 1280,
      "": 1281,
      "﴾": 1282,
      "﴿": 1283,
      "﷽": 1284,
      "️": 1285,
      "﻿": 1286,
      "￴": 1287,
      "￵": 1288,
      "￶": 1289,
      "￷": 1290,
      "￸": 1291,
      "�": 1292,
      "𑹄": 1293,
      "🆔": 1294,
      "🇦": 1295,
      "🇧": 1296,
      "🇨": 1297,
      "🇪": 1298,
      "🇱": 1299,
      "🌅": 1300,
      "🌈": 1301,
      "🌎": 1302,
      "🌐": 1303,
      "🌓": 1304,
      "🌙": 1305,
      "🌚": 1306,
      "🌟": 1307,
      "🌠": 1308,
      "🌧": 1309,
      "🌨": 1310,
      "🌱": 1311,
      "🌲": 1312,
      "🌳": 1313,
      "🌴": 1314,
      "🌵": 1315,
      "🌶": 1316,
      "🌷": 1317,
      "🌸": 1318,
      "🌹": 1319,
      "🌺": 1320,
      "🌻": 1321,
      "🌼": 1322,
      "🌾": 1323,
      "🌿": 1324,
      "🍀": 1325,
      "🍁": 1326,
      "🍂": 1327,
      "🍃": 1328,
      "🍅": 1329,
      "🎀": 1330,
      "🎄": 1331,
      "🎇": 1332,
      "🎉": 1333,
      "🎋": 1334,
      "🎓": 1335,
      "🎤": 1336,
      "🎥": 1337,
      "🎧": 1338,
      "🎮": 1339,
      "🎴": 1340,
      "🎵": 1341,
      "🏃": 1342,
      "🏙": 1343,
      "🏝": 1344,
      "🏞": 1345,
      "🏠": 1346,
      "🏴": 1347,
      "🏻": 1348,
      "🏼": 1349,
      "🏽": 1350,
      "🐉": 1351,
      "🐍": 1352,
      "🐑": 1353,
      "🐓": 1354,
      "🐪": 1355,
      "👀": 1356,
      "👆": 1357,
      "👇": 1358,
      "👈": 1359,
      "👉": 1360,
      "👌": 1361,
      "👍": 1362,
      "👏": 1363,
      "👑": 1364,
      "👗": 1365,
      "👤": 1366,
      "👦": 1367,
      "👧": 1368,
      "👨": 1369,
      "👲": 1370,
      "👳": 1371,
      "💀": 1372,
      "💊": 1373,
      "💌": 1374,
      "💎": 1375,
      "💐": 1376,
      "💓": 1377,
      "💔": 1378,
      "💕": 1379,
      "💖": 1380,
      "💗": 1381,
      "💘": 1382,
      "💝": 1383,
      "💞": 1384,
      "💟": 1385,
      "💠": 1386,
      "💡": 1387,
      "💥": 1388,
      "💦": 1389,
      "💧": 1390,
      "💫": 1391,
      "💬": 1392,
      "💭": 1393,
      "📃": 1394,
      "📇": 1395,
      "📋": 1396,
      "📌": 1397,
      "📍": 1398,
      "📎": 1399,
      "📑": 1400,
      "📒": 1401,
      "📓": 1402,
      "📔": 1403,
      "📕": 1404,
      "📖": 1405,
      "📗": 1406,
      "📘": 1407,
      "📙": 1408,
      "📚": 1409,
      "📜": 1410,
      "📝": 1411,
      "📞": 1412,
      "📡": 1413,
      "📢": 1414,
      "📣": 1415,
      "📤": 1416,
      "📥": 1417,
      "📦": 1418,
      "📮": 1419,
      "📰": 1420,
      "📲": 1421,
      "🔁": 1422,
      "🔃": 1423,
      "🔄": 1424,
      "🔅": 1425,
      "🔆": 1426,
      "🔊": 1427,
      "🔍": 1428,
      "🔖": 1429,
      "🔗": 1430,
      "🔘": 1431,
      "🔥": 1432,
      "🔦": 1433,
      "🔭": 1434,
      "🔮": 1435,
      "🔰": 1436,
      "🔲": 1437,
      "🔴": 1438,
      "🔵": 1439,
      "🔶": 1440,
      "🔷": 1441,
      "🔸": 1442,
      "🔹": 1443,
      "🔺": 1444,
      "🔻": 1445,
      "🕋": 1446,
      "🕌": 1447,
      "🕴": 1448,
      "🕵": 1449,
      "🖊": 1450,
      "🖋": 1451,
      "🖌": 1452,
      "🖤": 1453,
      "🗓": 1454,
      "🗣": 1455,
      "🗯": 1456,
      "😀": 1457,
      "😁": 1458,
      "😂": 1459,
      "😄": 1460,
      "😇": 1461,
      "😉": 1462,
      "😊": 1463,
      "😍": 1464,
      "😎": 1465,
      "😏": 1466,
      "😔": 1467,
      "😜": 1468,
      "😢": 1469,
      "😥": 1470,
      "😨": 1471,
      "😭": 1472,
      "😰": 1473,
      "😳": 1474,
      "🙏": 1475,
      "🚀": 1476,
      "🚌": 1477,
      "🚍": 1478,
      "🚢": 1479,
      "🚨": 1480,
      "🚫": 1481,
      "🚶": 1482,
      "🛌": 1483,
      "🛑": 1484,
      "🤐": 1485,
      "🤔": 1486,
      "🤖": 1487,
      "🤝": 1488,
      "🤣": 1489,
      "🤪": 1490,
      "🤫": 1491,
      "🤲": 1492,
      "🥀": 1493,
      "🥗": 1494,
      "🦅": 1495,
      "🦜": 1496,
      "🧐": 1497,
      "🧙": 1498,
      "🧠": 1499,
      "🧿": 1500,
      "🩷": 1501,
      "🩸": 1502,
      "🩹": 1503,
      "🪒": 1504,
      "🫀": 1505,
      "##ل": 1506,
      "##ا": 1507,
      "##ی": 1508,
      "##ء": 1509,
      "##ز": 1510,
      "##ن": 1511,
      "##و": 1512,
      "##د": 1513,
      "##ج": 1514,
      "##ر": 1515,
      "##پ": 1516,
      "##ش": 1517,
      "##e": 1518,
      "##t": 1519,
      "##i": 1520,
      "##c": 1521,
      "##n": 1522,
      "##ت": 1523,
      "##ھ": 1524,
      "##م": 1525,
      "##ئ": 1526,
      "##ں": 1527,
      "##ے": 1528,
      "##s": 1529,
      "##m": 1530,
      "##ف": 1531,
      "##َ": 1532,
      "##f": 1533,
      "##g": 1534,
      "##u": 1535,
      "##a": 1536,
      "##r": 1537,
      "##d": 1538,
      "##ح": 1539,
      "##س": 1540,
      "##گ": 1541,
      "##ُ": 1542,
      "##ِ": 1543,
      "##ہ": 1544,
      "##ک": 1545,
      "##ب": 1546,
      "##ێ": 1547,
      "##ه": 1548,
      "##p": 1549,
      "##o": 1550,
      "##ڪ": 1551,
      "##ژ": 1552,
      "##ع": 1553,
      "##خ": 1554,
      "##l": 1555,
      "##x": 1556,
      "##h": 1557,
      "##ڈ": 1558,
      "##ق": 1559,
      "##چ": 1560,
      "##ڑ": 1561,
      "##k": 1562,
      "##b": 1563,
      "##y": 1564,
      "##ذ": 1565,
      "##غ": 1566,
      "##ض": 1567,
      "##ؤ": 1568,
      "##w": 1569,
      "##ۆ": 1570,
      "##ص": 1571,
      "##z": 1572,
      "##ظ": 1573,
      "##ث": 1574,
      "##ٹ": 1575,
      "##ي": 1576,
      "##ط": 1577,
      "##ۃ": 1578,
      "##v": 1579,
      "##ۓ": 1580,
      "##E": 1581,
      "##L": 1582,
      "##A": 1583,
      "##R": 1584,
      "##H": 1585,
      "##O": 1586,
      "##U": 1587,
      "##T": 1588,
      "##ā": 1589,
      "##ٰ": 1590,
      "##ٙ": 1591,
      "##S": 1592,
      "##ń": 1593,
      "##j": 1594,
      "##ك": 1595,
      "##M": 1596,
      "##D": 1597,
      "##ạ": 1598,
      "##F": 1599,
      "##é": 1600,
      "##ã": 1601,
      "##ى": 1602,
      "##q": 1603,
      "##ắ": 1604,
      "##ة": 1605,
      "##🥀": 1606,
      "##W": 1607,
      "##🌴": 1608,
      "##I": 1609,
      "##P": 1610,
      "##V": 1611,
      "##ې": 1612,
      "##が": 1613,
      "##う": 1614,
      "##ø": 1615,
      "##ː": 1616,
      "##ə": 1617,
      "##ǎ": 1618,
      "##á": 1619,
      "##ۡ": 1620,
      "##🏽": 1621,
      "##N": 1622,
      "##ّ": 1623,
      "##B": 1624,
      "##🚀": 1625,
      "##🔸": 1626,
      "##💝": 1627,
      "##ĕ": 1628,
      "##G": 1629,
      "##同": 1630,
      "##C": 1631,
      "##ा": 1632,
      "##न": 1633,
      "##ू": 1634,
      "##ˈ": 1635,
      "##ɑ": 1636,
      "##ٴ": 1637,
      "##ۏ": 1638,
      "##": 1639,
      "##è": 1640,
      "##🙏": 1641,
      "##K": 1642,
      "##Y": 1643,
      "##ٳ": 1644,
      "##ñ": 1645,
      "##í": 1646,
      "##ۉ": 1647,
      "##ࣿ": 1648,
      "##ۀ": 1649,
      "##ó": 1650,
      "##ۂ": 1651,
      "##უ": 1652,
      "##ს": 1653,
      "##ხ": 1654,
      "##ა": 1655,
      "##星": 1656,
      "##汉": 1657,
      "##技": 1658,
      "##ä": 1659,
      "##ú": 1660,
      "##X": 1661,
      "##е": 1662,
      "##с": 1663,
      "##м": 1664,
      "##и": 1665,
      "##л": 1666,
      "##а": 1667,
      "##ö": 1668,
      "##J": 1669,
      "##ۤ": 1670,
      "##ž": 1671,
      "##ò": 1672,
      "##ç": 1673,
      "##ル": 1674,
      "##セ": 1675,
      "##リ": 1676,
      "##オ": 1677,
      "##ス": 1678,
      "##п": 1679,
      "##р": 1680,
      "##н": 1681,
      "##о": 1682,
      "##к": 1683,
      "##Р": 1684,
      "##з": 1685,
      "##у": 1686,
      "##ь": 1687,
      "##т": 1688,
      "##ы": 1689,
      "##б": 1690,
      "##ч": 1691,
      "##ć": 1692,
      "##ü": 1693,
      "##ؔ": 1694,
      "##​": 1695,
      "##🌻": 1696,
      "##覺": 1697,
      "##イ": 1698,
      "##ڙ": 1699,
      "##ł": 1700,
      "##ỳ": 1701,
      "##ê": 1702,
      "##ḥ": 1703,
      "##つ": 1704,
      "##を": 1705,
      "##ٓ": 1706,
      "##â": 1707,
      "##α": 1708,
      "##👍": 1709,
      "##👏": 1710,
      "##👌": 1711,
      "##🫀": 1712,
      "##🌹": 1713,
      "##🌷": 1714,
      "##ڷ": 1715,
      "##Q": 1716,
      "##❤": 1717,
      "##ą": 1718,
      "##🔅": 1719,
      "##в": 1720,
      "##大": 1721,
      "##ğ": 1722,
      "##ı": 1723,
      "##я": 1724,
      "##Z": 1725,
      "##ï": 1726,
      "##ū": 1727,
      "##礮": 1728,
      "##波": 1729,
      "##義": 1730,
      "##信": 1731,
      "##ٗ": 1732,
      "##ٍ": 1733,
      "##其": 1734,
      "##琪": 1735,
      "##依": 1736,
      "##子": 1737,
      "##🌱": 1738,
      "##⃣": 1739,
      "##ß": 1740,
      "##た": 1741,
      "##り": 1742,
      "##の": 1743,
      "##足": 1744,
      "##跡": 1745,
      "##✨": 1746,
      "##🍀": 1747,
      "##💐": 1748,
      "##👨": 1749,
      "##👧": 1750,
      "##ō": 1751,
      "##っ": 1752,
      "##し": 1753,
      "##ょ": 1754,
      "##に": 1755,
      "##ࢨ": 1756,
      "##ц": 1757,
      "##ڋ": 1758,
      "##ʻ": 1759,
      "##ً": 1760,
      "##散": 1761,
      "##關": 1762,
      "##★": 1763,
      "##方": 1764,
      "##å": 1765,
      "##靂": 1766,
      "##火": 1767,
      "##砲": 1768,
      "##ڌ": 1769,
      "##📚": 1770,
      "##ô": 1771,
      "##ړ": 1772,
      "##ਲ": 1773,
      "##ਹ": 1774,
      "##ੁ": 1775,
      "##珙": 1776,
      "##х": 1777,
      "##г": 1778,
      "##ă": 1779,
      "##殻": 1780,
      "##機": 1781,
      "##動": 1782,
      "##隊": 1783,
      "##ٛ": 1784,
      "##ল": 1785,
      "##ṯ": 1786,
      "##ή": 1787,
      "##μ": 1788,
      "##η": 1789,
      "##τ": 1790,
      "##ρ": 1791,
      "##ڃ": 1792,
      "##ڻ": 1793,
      "##母": 1794,
      "##殿": 1795,
      "##ị": 1796,
      "##æ": 1797,
      "##✋": 1798,
      "##ܕ": 1799,
      "##ܝ": 1800,
      "##ܢ": 1801,
      "##ܬ": 1802,
      "##在": 1803,
      "##ٻ": 1804,
      "##č": 1805,
      "##ร": 1806,
      "##ี": 1807,
      "##š": 1808,
      "##🏻": 1809,
      "##ई": 1810,
      "##ވ": 1811,
      "##؂": 1812,
      "##👆": 1813,
      "##ɡ": 1814,
      "##ᵻ": 1815,
      "##ů": 1816,
      "##ば": 1817,
      "##ږ": 1818,
      "##ۍ": 1819,
      "##λ": 1820,
      "##ν": 1821,
      "##ς": 1822,
      "##ו": 1823,
      "##פ": 1824,
      "##ה": 1825,
      "##ī": 1826,
      "##日": 1827,
      "##も": 1828,
      "##い": 1829,
      "##だ": 1830,
      "##花": 1831,
      "##ހ": 1832,
      "##バ": 1833,
      "##ト": 1834,
      "##ള": 1835,
      "##塘": 1836,
      "##🌺": 1837,
      "##🌾": 1838,
      "##和": 1839,
      "##川": 1840,
      "##ぎ": 1841,
      "##去": 1842,
      "##思": 1843,
      "##出": 1844,
      "##狐": 1845,
      "##🌸": 1846,
      "##💞": 1847,
      "##ブ": 1848,
      "##ْ": 1849,
      "##ュ": 1850,
      "##ナ": 1851,
      "##ミ": 1852,
      "##ũ": 1853,
      "##光": 1854,
      "##世": 1855,
      "##ټ": 1856,
      "##à": 1857,
      "##π": 1858,
      "##ό": 1859,
      "##ο": 1860,
      "##ڀ": 1861,
      "##狸": 1862,
      "##精": 1863,
      "##ი": 1864,
      "##ʊ": 1865,
      "##彌": 1866,
      "##遠": 1867,
      "##ù": 1868,
      "##რ": 1869,
      "##ー": 1870,
      "##テ": 1871,
      "##ィ": 1872,
      "##ア": 1873,
      "##✍": 1874,
      "##👇": 1875,
      "##州": 1876,
      "##ڍ": 1877,
      "##🏼": 1878,
      "##٘": 1879,
      "##ś": 1880,
      "##广": 1881,
      "##ɐ": 1882,
      "##ỏ": 1883,
      "##ş": 1884,
      "##れ": 1885,
      "##Л": 1886,
      "##ڗ": 1887,
      "##д": 1888,
      "##พ": 1889,
      "##🍃": 1890,
      "##な": 1891,
      "##る": 1892,
      "##全": 1893,
      "##ε": 1894,
      "##ξ": 1895,
      "##✏": 1896,
      "##邦": 1897,
      "##昌": 1898,
      "##χ": 1899,
      "##έ": 1900,
      "##錡": 1901,
      "##ल": 1902,
      "##村": 1903,
      "##ɪ": 1904,
      "##ỹ": 1905,
      "##ל": 1906,
      "##י": 1907,
      "##ם": 1908,
      "##ț": 1909,
      "##シ": 1910,
      "##ἰ": 1911,
      "##β": 1912,
      "##ι": 1913,
      "##‎": 1914,
      "##ิ": 1915,
      "##ภ": 1916,
      "##า": 1917,
      "##ด": 1918,
      "##ω": 1919,
      "##ṃ": 1920,
      "##🖌": 1921,
      "##ð": 1922,
      "##ш": 1923,
      "##🔹": 1924,
      "##đ": 1925,
      "##￴": 1926,
      "##揺": 1927,
      "##か": 1928,
      "##ご": 1929,
      "##۟": 1930,
      "##云": 1931,
      "##清": 1932,
      "##憑": 1933,
      "##き": 1934,
      "##ɒ": 1935,
      "##こ": 1936,
      "##ん": 1937,
      "##ۯ": 1938,
      "##💎": 1939,
      "##۫": 1940,
      "##球": 1941,
      "##運": 1942,
      "##命": 1943,
      "##戦": 1944,
      "##乙": 1945,
      "##女": 1946,
      "##ệ": 1947,
      "##ź": 1948,
      "##ṇ": 1949,
      "##景": 1950,
      "##エ": 1951,
      "##タ": 1952,
      "##デ": 1953,
      "##ɜ": 1954,
      "##😂": 1955,
      "##🤣": 1956,
      "##ъ": 1957,
      "##ж": 1958,
      "##✅": 1959,
      "##￵": 1960,
      "##本": 1961,
      "##﻿": 1962,
      "##ण": 1963,
      "##ि": 1964,
      "##ं": 1965,
      "##ग": 1966,
      "##ţ": 1967,
      "##二": 1968,
      "##ì": 1969,
      "##î": 1970,
      "##作": 1971,
      "##ș": 1972,
      "##ɳ": 1973,
      "##✳": 1974,
      "##淹": 1975,
      "##金": 1976,
      "##山": 1977,
      "##ë": 1978,
      "##ึ": 1979,
      "##ڰ": 1980,
      "##ю": 1981,
      "##⁦": 1982,
      "##‪": 1983,
      "##巳": 1984,
      "##泣": 1985,
      "##蘄": 1986,
      "##錄": 1987,
      "##υ": 1988,
      "##💟": 1989,
      "##ė": 1990,
      "##之": 1991,
      "##平": 1992,
      "##ォ": 1993,
      "##ゥ": 1994,
      "##څ": 1995,
      "##😁": 1996,
      "##曦": 1997,
      "##ư": 1998,
      "##ơ": 1999,
      "##й": 2000,
      "##ڄ": 2001,
      "##ễ": 2002,
      "##神": 2003,
      "##￶": 2004,
      "##ų": 2005,
      "##स": 2006,
      "##ु": 2007,
      "##延": 2008,
      "##თ": 2009,
      "##ვ": 2010,
      "##؎": 2011,
      "##ڊ": 2012,
      "##建": 2013,
      "##华": 2014,
      "##ṅ": 2015,
      "##ラ": 2016,
      "##ッ": 2017,
      "##フ": 2018,
      "##ะ": 2019,
      "##ช": 2020,
      "##อ": 2021,
      "##น": 2022,
      "##ח": 2023,
      "##מ": 2024,
      "##ד": 2025,
      "##め": 2026,
      "##銃": 2027,
      "##瘡": 2028,
      "##月": 2029,
      "##解": 2030,
      "##放": 2031,
      "##ก": 2032,
      "##ว": 2033,
      "##ษ": 2034,
      "##ฐ": 2035,
      "##ڏ": 2036,
      "##θ": 2037,
      "##贵": 2038,
      "##🌳": 2039,
      "##ݔ": 2040,
      "##ტ": 2041,
      "##ე": 2042,
      "##灵": 2043,
      "##宫": 2044,
      "##ά": 2045,
      "##愛": 2046,
      "##ず": 2047,
      "##誡": 2048,
      "##豫": 2049,
      "##ί": 2050,
      "##ָ": 2051,
      "##ֶ": 2052,
      "##ั": 2053,
      "##🏝": 2054,
      "##ּ": 2055,
      "##א": 2056,
      "##付": 2057,
      "##द": 2058,
      "##ę": 2059,
      "##ェ": 2060,
      "##園": 2061,
      "##ṣ": 2062,
      "##ह": 2063,
      "##ɛ": 2064,
      "##正": 2065,
      "##芳": 2066,
      "##ც": 2067,
      "##ン": 2068,
      "##ズ": 2069,
      "##ˌ": 2070,
      "##束": 2071,
      "##お": 2072,
      "##守": 2073,
      "##鋼": 2074,
      "##四": 2075,
      "##式": 2076,
      "##拳": 2077,
      "##乃": 2078,
      "##灼": 2079,
      "##熱": 2080,
      "##都": 2081,
      "##市": 2082,
      "##ซ": 2083,
      "##ộ": 2084,
      "##🚍": 2085,
      "##🇪": 2086,
      "##あ": 2087,
      "##ē": 2088,
      "##臂": 2089,
      "##膀": 2090,
      "##ी": 2091,
      "##ż": 2092,
      "##🩷": 2093,
      "##レ": 2094,
      "##ʁ": 2095,
      "##さ": 2096,
      "##祈": 2097,
      "##🌲": 2098,
      "##γ": 2099,
      "##ロ": 2100,
      "##ド": 2101,
      "##ב": 2102,
      "##ר": 2103,
      "##備": 2104,
      "##κ": 2105,
      "##ٽ": 2106,
      "##選": 2107,
      "##☘": 2108,
      "##ო": 2109,
      "##名": 2110,
      "##ٌ": 2111,
      "##ứ": 2112,
      "##📎": 2113,
      "##ש": 2114,
      "##צ": 2115,
      "##ʃ": 2116,
      "##🇱": 2117,
      "##📘": 2118,
      "##📖": 2119,
      "##宋": 2120,
      "##中": 2121,
      "##興": 2122,
      "##岳": 2123,
      "##王": 2124,
      "##傳": 2125,
      "##田": 2126,
      "##ګ": 2127,
      "##拉": 2128,
      "##再": 2129,
      "##遇": 2130,
      "##🇧": 2131,
      "##δ": 2132,
      "##े": 2133,
      "##क": 2134,
      "##ค": 2135,
      "##ต": 2136,
      "##💓": 2137,
      "##ล": 2138,
      "##ง": 2139,
      "##ไ": 2140,
      "##ย": 2141,
      "##ჲ": 2142,
      "##充": 2143,
      "##と": 2144,
      "##ٔ": 2145,
      "##ް": 2146,
      "##🍁": 2147,
      "##化": 2148,
      "##⚛": 2149,
      "##გ": 2150,
      "##ლ": 2151,
      "##堤": 2152,
      "##ỗ": 2153,
      "##😄": 2154,
      "##藥": 2155,
      "##師": 2156,
      "##ן": 2157,
      "##ჳ": 2158,
      "##📕": 2159,
      "##丙": 2160,
      "##ډ": 2161,
      "##台": 2162,
      "##ܠ": 2163,
      "##ܗ": 2164,
      "##ܐ": 2165,
      "##🌐": 2166,
      "##ノ": 2167,
      "##û": 2168,
      "##翠": 2169,
      "##英": 2170,
      "##ツ": 2171,
      "##ネ": 2172,
      "##チ": 2173,
      "##妙": 2174,
      "##观": 2175,
      "##プ": 2176,
      "##🐪": 2177,
      "##番": 2178,
      "##宝": 2179,
      "##物": 2180,
      "##ぐ": 2181,
      "##み": 2182,
      "##ښ": 2183,
      "##ả": 2184,
      "##春": 2185,
      "##🍂": 2186,
      "##ڇ": 2187,
      "##ώ": 2188,
      "##❀": 2189,
      "##ャ": 2190,
      "##モ": 2191,
      "##庆": 2192,
      "##河": 2193,
      "##ɔ": 2194,
      "##ʔ": 2195,
      "##ḷ": 2196,
      "##円": 2197,
      "##寺": 2198,
      "##व": 2199,
      "##ɾ": 2200,
      "##❣": 2201,
      "##颜": 2202,
      "##宗": 2203,
      "##望": 2204,
      "##เ": 2205,
      "##ป": 2206,
      "##ʿ": 2207,
      "##მ": 2208,
      "##წ": 2209,
      "##ფ": 2210,
      "##र": 2211,
      "##ř": 2212,
      "##립": 2213,
      "##보": 2214,
      "##병": 2215,
      "##연": 2216,
      "##대": 2217,
      "##ま": 2218,
      "##ฮ": 2219,
      "##🌎": 2220,
      "##💖": 2221,
      "##規": 2222,
      "##Ē": 2223,
      "##ậ": 2224,
      "##ṛ": 2225,
      "##라": 2226,
      "##劇": 2227,
      "##場": 2228,
      "##💫": 2229,
      "##ấ": 2230,
      "##憶": 2231,
      "##棘": 2232,
      "##є": 2233,
      "##ס": 2234,
      "##雪": 2235,
      "##─": 2236,
      "##😜": 2237,
      "##📰": 2238,
      "##ṭ": 2239,
      "##懷": 2240,
      "##♥": 2241,
      "##政": 2242,
      "##侗": 2243,
      "##沂": 2244,
      "##生": 2245,
      "##σ": 2246,
      "##ύ": 2247,
      "##ɽ": 2248,
      "##💗": 2249,
      "##👉": 2250,
      "##咲": 2251,
      "##く": 2252,
      "##ầ": 2253,
      "##🤪": 2254,
      "##😀": 2255,
      "##ヴ": 2256,
      "##ァ": 2257,
      "##キ": 2258,
      "##榮": 2259,
      "##絵": 2260,
      "##わ": 2261,
      "##ク": 2262,
      "##祠": 2263,
      "##誓": 2264,
      "##琦": 2265,
      "##ੱ": 2266,
      "##ਾ": 2267,
      "##̃": 2268,
      "##ნ": 2269,
      "##珂": 2270,
      "##尾": 2271,
      "##雲": 2272,
      "##玩": 2273,
      "##具": 2274,
      "##厂": 2275,
      "##ぜ": 2276,
      "##ḏ": 2277,
      "##明": 2278,
      "##ؒ": 2279,
      "##●": 2280,
      "##ै": 2281,
      "##来": 2282,
      "##ら": 2283,
      "##挑": 2284,
      "##者": 2285,
      "##ử": 2286,
      "##œ": 2287,
      "##瓊": 2288,
      "##ܲ": 2289,
      "##ܵ": 2290,
      "##ョ": 2291,
      "##空": 2292,
      "##ḍ": 2293,
      "##ガ": 2294,
      "##夫": 2295,
      "##人": 2296,
      "##ữ": 2297,
      "##サ": 2298,
      "##☆": 2299,
      "##म": 2300,
      "##्": 2301,
      "##ؓ": 2302,
      "##Ĕ": 2303,
      "##נ": 2304,
      "##転": 2305,
      "##裁": 2306,
      "##判": 2307,
      "##國": 2308,
      "##秋": 2309,
      "##後": 2310,
      "##集": 2311,
      "##霖": 2312,
      "##۠": 2313,
      "##鍵": 2314,
      "##ֹ": 2315,
      "##ף": 2316,
      "##旦": 2317,
      "##澤": 2318,
      "##♂": 2319,
      "##🌙": 2320,
      "##グ": 2321,
      "##ダ": 2322,
      "##ム": 2323,
      "##ǔ": 2324,
      "##ֵ": 2325,
      "##📝": 2326,
      "##ọ": 2327,
      "##￷": 2328,
      "##ち": 2329,
      "##ქ": 2330,
      "##დ": 2331,
      "##少": 2332,
      "##ニ": 2333,
      "##漢": 2334,
      "##ớ": 2335,
      "##❊": 2336,
      "##す": 2337,
      "##ひ": 2338,
      "##￸": 2339,
      "##त": 2340,
      "##ת": 2341,
      "##É": 2342,
      "##👗": 2343,
      "##ゆ": 2344,
      "##ჱ": 2345,
      "##☀": 2346,
      "##ȯ": 2347,
      "##ψ": 2348,
      "##マ": 2349,
      "##主": 2350,
      "##部": 2351,
      "##安": 2352,
      "##良": 2353,
      "##防": 2354,
      "##御": 2355,
      "##战": 2356,
      "##া": 2357,
      "##হ": 2358,
      "##⁩": 2359,
      "##ɫ": 2360,
      "##剛": 2361,
      "##君": 2362,
      "##願": 2363,
      "##щ": 2364,
      "##🖋": 2365,
      "##ാ": 2366,
      "##ഹ": 2367,
      "##💀": 2368,
      "##天": 2369,
      "##府": 2370,
      "##夕": 2371,
      "##焼": 2372,
      "##け": 2373,
      "##ʒ": 2374,
      "##ި": 2375,
      "##沙": 2376,
      "##😔": 2377,
      "##🆔": 2378,
      "##Ä": 2379,
      "##ނ": 2380,
      "##ゃ": 2381,
      "##彩": 2382,
      "##顯": 2383,
      "##ณ": 2384,
      "##ม": 2385,
      "##🎤": 2386,
      "##兵": 2387,
      "##里": 2388,
      "##🌧": 2389,
      "##🌨": 2390,
      "##⛅": 2391,
      "##ý": 2392,
      "##ڕ": 2393,
      "##แ": 2394,
      "##ان": 2395,
      "ءَ": 2396,
      "ءِ": 2397,
      "##ار": 2398,
      "##نت": 2399,
      "##یں": 2400,
      "ءُ": 2401,
      "##اں": 2402,
      "##تگ": 2403,
      "انت": 2404,
      "##انی": 2405,
      "کہ": 2406,
      "##ست": 2407,
      "##ند": 2408,
      "##نگ": 2409,
      "##ئی": 2410,
      "بی": 2411,
      "بل": 2412,
      "گو": 2413,
      "##را": 2414,
      "ات": 2415,
      "##ال": 2416,
      "##ءَ": 2417,
      "##وچ": 2418,
      "من": 2419,
      "ای": 2420,
      "##ری": 2421,
      "##تی": 2422,
      "بو": 2423,
      "اے": 2424,
      "##رد": 2425,
      "##ور": 2426,
      "##ام": 2427,
      "##اہ": 2428,
      "سر": 2429,
      "بلوچ": 2430,
      "##یم": 2431,
      "##ءِ": 2432,
      "##شت": 2433,
      "نہ": 2434,
      "ھم": 2435,
      "##ات": 2436,
      "وتی": 2437,
      "یک": 2438,
      "##وک": 2439,
      "##یر": 2440,
      "##ین": 2441,
      "ائی": 2442,
      "##اد": 2443,
      "چہ": 2444,
      "##از": 2445,
      "بیت": 2446,
      "##اک": 2447,
      "در": 2448,
      "##ئے": 2449,
      "کن": 2450,
      "بہ": 2451,
      "مرد": 2452,
      "کنگ": 2453,
      "##ول": 2454,
      "تہ": 2455,
      "##می": 2456,
      "کار": 2457,
      "##اب": 2458,
      "پہ": 2459,
      "دو": 2460,
      "##یت": 2461,
      "را": 2462,
      "گوں": 2463,
      "##انک": 2464,
      "بوتگ": 2465,
      "مردم": 2466,
      "ہم": 2467,
      "کر": 2468,
      "ان": 2469,
      "##اری": 2470,
      "##ون": 2471,
      "بر": 2472,
      "او": 2473,
      "تو": 2474,
      "##ستان": 2475,
      "##اھ": 2476,
      "دی": 2477,
      "پر": 2478,
      "پد": 2479,
      "##شی": 2480,
      "##اس": 2481,
      "اس": 2482,
      "##یک": 2483,
      "کت": 2484,
      "##he": 2485,
      "دیم": 2486,
      "##ید": 2487,
      "##وش": 2488,
      "کنت": 2489,
      "##ءُ": 2490,
      "بوت": 2491,
      "##نی": 2492,
      "##بر": 2493,
      "بلے": 2494,
      "##ھد": 2495,
      "##شتگ": 2496,
      "##ائ": 2497,
      "##انگ": 2498,
      "لو": 2499,
      "##یش": 2500,
      "ئے": 2501,
      "کتگ": 2502,
      "منی": 2503,
      "کس": 2504,
      "گپ": 2505,
      "ار": 2506,
      "بیتگ": 2507,
      "##شک": 2508,
      "باز": 2509,
      "ال": 2510,
      "بند": 2511,
      "دل": 2512,
      "##گہ": 2513,
      "##یل": 2514,
      "تر": 2515,
      "ما": 2516,
      "رو": 2517,
      "##دار": 2518,
      "##گی": 2519,
      "##یس": 2520,
      "مر": 2521,
      "the": 2522,
      "##ائی": 2523,
      "کم": 2524,
      "##er": 2525,
      "بلوچستان": 2526,
      "جن": 2527,
      "سی": 2528,
      "نو": 2529,
      "کو": 2530,
      "وت": 2531,
      "##ھر": 2532,
      "وھد": 2533,
      "##مان": 2534,
      "##گاں": 2535,
      "زند": 2536,
      "بے": 2537,
      "روچ": 2538,
      "##انت": 2539,
      "نب": 2540,
      "وا": 2541,
      "چی": 2542,
      "می": 2543,
      "##کی": 2544,
      "جو": 2545,
      "ھمے": 2546,
      "راج": 2547,
      "##دی": 2548,
      "##ڑا": 2549,
      "نی": 2550,
      "مہ": 2551,
      "##ما": 2552,
      "از": 2553,
      "##دا": 2554,
      "##in": 2555,
      "نام": 2556,
      "##نا": 2557,
      "##گو": 2558,
      "مل": 2559,
      "چار": 2560,
      "##ران": 2561,
      "##بان": 2562,
      "##لی": 2563,
      "سو": 2564,
      "جنگ": 2565,
      "دا": 2566,
      "##اپ": 2567,
      "##لہ": 2568,
      "مئے": 2569,
      "مز": 2570,
      "گوش": 2571,
      "##on": 2572,
      "##گر": 2573,
      "یا": 2574,
      "##ed": 2575,
      "لوٹ": 2576,
      "نیم": 2577,
      "##وکیں": 2578,
      "بلوچی": 2579,
      "اب": 2580,
      "کپ": 2581,
      "گل": 2582,
      "پو": 2583,
      "کرتگ": 2584,
      "پاک": 2585,
      "##کار": 2586,
      "کی": 2587,
      "دست": 2588,
      "بنت": 2589,
      "دگہ": 2590,
      "رد": 2591,
      "مار": 2592,
      "دار": 2593,
      "##شانی": 2594,
      "درا": 2595,
      "زبان": 2596,
      "ایت": 2597,
      "گڑا": 2598,
      "##چی": 2599,
      "##ٹی": 2600,
      "##اگ": 2601,
      "کل": 2602,
      "تہا": 2603,
      "##nd": 2604,
      "تئی": 2605,
      "##وار": 2606,
      "##من": 2607,
      "نبشت": 2608,
      "##نج": 2609,
      "##وان": 2610,
      "##ستگ": 2611,
      "سرا": 2612,
      "##تر": 2613,
      "##at": 2614,
      "کش": 2615,
      "##or": 2616,
      "##es": 2617,
      "گی": 2618,
      "##بز": 2619,
      "شر": 2620,
      "چو": 2621,
      "دم": 2622,
      "زور": 2623,
      "اد": 2624,
      "اپ": 2625,
      "نیمگ": 2626,
      "بز": 2627,
      "وڑ": 2628,
      "##ٹر": 2629,
      "مزن": 2630,
      "اں": 2631,
      "##در": 2632,
      "گر": 2633,
      "زر": 2634,
      "##نچ": 2635,
      "ھما": 2636,
      "اگاں": 2637,
      "##ھی": 2638,
      "ایشی": 2639,
      "##سی": 2640,
      "زم": 2641,
      "بد": 2642,
      "##مد": 2643,
      "##ar": 2644,
      "##یال": 2645,
      "##کیں": 2646,
      "##وت": 2647,
      "##en": 2648,
      "گند": 2649,
      "##ہد": 2650,
      "##نگت": 2651,
      "##کن": 2652,
      "کے": 2653,
      "انچ": 2654,
      "ور": 2655,
      "##جہ": 2656,
      "جت": 2657,
      "ھر": 2658,
      "ھال": 2659,
      "سال": 2660,
      "اتک": 2661,
      "##جم": 2662,
      "ترا": 2663,
      "##گیں": 2664,
      "است": 2665,
      "گش": 2666,
      "##اش": 2667,
      "ایں": 2668,
      "##وں": 2669,
      "چیز": 2670,
      "رنگ": 2671,
      "of": 2672,
      "اش": 2673,
      "پدا": 2674,
      "رند": 2675,
      "##an": 2676,
      "نز": 2677,
      "گوشتگ": 2678,
      "لبز": 2679,
      "کرت": 2680,
      "جا": 2681,
      "بازیں": 2682,
      "بار": 2683,
      "سل": 2684,
      "سک": 2685,
      "##al": 2686,
      "جی": 2687,
      "in": 2688,
      "چم": 2689,
      "زانت": 2690,
      "رس": 2691,
      "اھ": 2692,
      "ایر": 2693,
      "##مب": 2694,
      "##شان": 2695,
      "##it": 2696,
      "سا": 2697,
      "##ستانی": 2698,
      "ہمے": 2699,
      "##ڑی": 2700,
      "##جاہ": 2701,
      "یے": 2702,
      "##ing": 2703,
      "داتگ": 2704,
      "بیگو": 2705,
      "ماں": 2706,
      "##کس": 2707,
      "دات": 2708,
      "##یا": 2709,
      "کا": 2710,
      "##چار": 2711,
      "##وم": 2712,
      "که": 2713,
      "دور": 2714,
      "##is": 2715,
      "نبشتہ": 2716,
      "##بند": 2717,
      "سے": 2718,
      "and": 2719,
      "##as": 2720,
      "پیش": 2721,
      "##بی": 2722,
      "انس": 2723,
      "##ود": 2724,
      "##چک": 2725,
      "##اع": 2726,
      "چک": 2727,
      "ام": 2728,
      "گیش": 2729,
      "شپ": 2730,
      "##یگ": 2731,
      "دومی": 2732,
      "ہر": 2733,
      "اور": 2734,
      "##ستی": 2735,
      "کتاب": 2736,
      "ہما": 2737,
      "وش": 2738,
      "مردمانی": 2739,
      "ازم": 2740,
      "##ولی": 2741,
      "واجہ": 2742,
      "جان": 2743,
      "جوڑ": 2744,
      "چے": 2745,
      "##کر": 2746,
      "دیگ": 2747,
      "##یکہ": 2748,
      "##کش": 2749,
      "پی": 2750,
      "زان": 2751,
      "ایش": 2752,
      "مح": 2753,
      "مان": 2754,
      "پوج": 2755,
      "تھ": 2756,
      "to": 2757,
      "##نیا": 2758,
      "شہ": 2759,
      "پاکستانی": 2760,
      "اہ": 2761,
      "##ائیں": 2762,
      "##شتر": 2763,
      "مو": 2764,
      "برا": 2765,
      "##پت": 2766,
      "##کہ": 2767,
      "بن": 2768,
      "میں": 2769,
      "پس": 2770,
      "ھچ": 2771,
      "سرجم": 2772,
      "##ic": 2773,
      "##ئیں": 2774,
      "مھ": 2775,
      "خان": 2776,
      "لوگ": 2777,
      "کج": 2778,
      "شاع": 2779,
      "گڈ": 2780,
      "مد": 2781,
      "مزنیں": 2782,
      "##ou": 2783,
      "##سٹ": 2784,
      "اج": 2785,
      "##دہ": 2786,
      "گوشت": 2787,
      "جاہ": 2788,
      "##لا": 2789,
      "تہءَ": 2790,
      "نوں": 2791,
      "دز": 2792,
      "##بت": 2793,
      "میر": 2794,
      "سرپ": 2795,
      "راہ": 2796,
      "ارش": 2797,
      "ہے": 2798,
      "ماہ": 2799,
      "نیست": 2800,
      "##وئی": 2801,
      "پرچ": 2802,
      "##اگرد": 2803,
      "##لم": 2804,
      "##انیں": 2805,
      "##اج": 2806,
      "دنیا": 2807,
      "مس": 2808,
      "مارا": 2809,
      "##زی": 2810,
      "وانگ": 2811,
      "داں": 2812,
      "##re": 2813,
      "##ion": 2814,
      "##گا": 2815,
      "##وری": 2816,
      "##وب": 2817,
      "جست": 2818,
      "دمگ": 2819,
      "ھوار": 2820,
      "تاک": 2821,
      "سنگت": 2822,
      "چاگرد": 2823,
      "##الی": 2824,
      "زانگ": 2825,
      "##نڈ": 2826,
      "توار": 2827,
      "شنگ": 2828,
      "مردماں": 2829,
      "لبزانک": 2830,
      "پل": 2831,
      "##گءَ": 2832,
      "##راہ": 2833,
      "##مر": 2834,
      "##شن": 2835,
      "گشت": 2836,
      "##یب": 2837,
      "بیگواہ": 2838,
      "نوکیں": 2839,
      "مرا": 2840,
      "##زار": 2841,
      "پاد": 2842,
      "ملک": 2843,
      "##ازی": 2844,
      "##تے": 2845,
      "جیڑ": 2846,
      "اوار": 2847,
      "##om": 2848,
      "چون": 2849,
      "##وی": 2850,
      "لشک": 2851,
      "##ادی": 2852,
      "ھل": 2853,
      "اتگ": 2854,
      "گیشتر": 2855,
      "نا": 2856,
      "دوست": 2857,
      "ڈی": 2858,
      "مات": 2859,
      "پول": 2860,
      "##ستگیں": 2861,
      "وہد": 2862,
      "پاکستان": 2863,
      "کنان": 2864,
      "جہ": 2865,
      "##تیں": 2866,
      "##رے": 2867,
      "نند": 2868,
      "بگ": 2869,
      "سوب": 2870,
      "شم": 2871,
      "##وال": 2872,
      "سب": 2873,
      "##وا": 2874,
      "تی": 2875,
      "وار": 2876,
      "گور": 2877,
      "بس": 2878,
      "درشان": 2879,
      "##گار": 2880,
      "با": 2881,
      "مع": 2882,
      "اوں": 2883,
      "##امی": 2884,
      "مست": 2885,
      "##اسی": 2886,
      "##ریں": 2887,
      "اللہ": 2888,
      "کھ": 2889,
      "##کاری": 2890,
      "##وچی": 2891,
      "پیس": 2892,
      "وھدے": 2893,
      "##اتر": 2894,
      "دپ": 2895,
      "دنت": 2896,
      "##el": 2897,
      "ایانی": 2898,
      "یکے": 2899,
      "##تک": 2900,
      "رج": 2901,
      "جھ": 2902,
      "ھست": 2903,
      "لشکر": 2904,
      "هم": 2905,
      "نم": 2906,
      "پیم": 2907,
      "ازمانک": 2908,
      "پشت": 2909,
      "واست": 2910,
      "##il": 2911,
      "کرا": 2912,
      "ھیال": 2913,
      "جتگ": 2914,
      "زمین": 2915,
      "جند": 2916,
      "پت": 2917,
      "th": 2918,
      "اولی": 2919,
      "واب": 2920,
      "##وس": 2921,
      "شت": 2922,
      "پری": 2923,
      "جار": 2924,
      "گوشگ": 2925,
      "##اھی": 2926,
      "بوگ": 2927,
      "مرچی": 2928,
      "دیوان": 2929,
      "بلکیں": 2930,
      "گشتگ": 2931,
      "تا": 2932,
      "انگ": 2933,
      "##مل": 2934,
      "##ھگ": 2935,
      "اتنت": 2936,
      "شع": 2937,
      "راجی": 2938,
      "##شکہ": 2939,
      "بال": 2940,
      "زہ": 2941,
      "شھ": 2942,
      "بزاں": 2943,
      "اف": 2944,
      "گندگ": 2945,
      "باب": 2946,
      "ناد": 2947,
      "##مند": 2948,
      "##پی": 2949,
      "چیر": 2950,
      "بھ": 2951,
      "وس": 2952,
      "کرد": 2953,
      "ڈاک": 2954,
      "زھر": 2955,
      "سرپد": 2956,
      "ائیءِ": 2957,
      "##ھیں": 2958,
      "##ent": 2959,
      "##ec": 2960,
      "##تگیں": 2961,
      "##ورا": 2962,
      "وڑیں": 2963,
      "##مانی": 2964,
      "گا": 2965,
      "سرءَ": 2966,
      "بنج": 2967,
      "##دگ": 2968,
      "اچ": 2969,
      "انسان": 2970,
      "اتکگ": 2971,
      "##بد": 2972,
      "##رام": 2973,
      "درست": 2974,
      "##سر": 2975,
      "مروچی": 2976,
      "گوستگیں": 2977,
      "بیگ": 2978,
      "##نے": 2979,
      "بلئے": 2980,
      "##لام": 2981,
      "##ینی": 2982,
      "پچ": 2983,
      "##گے": 2984,
      "گون": 2985,
      "کناں": 2986,
      "انگت": 2987,
      "ائ": 2988,
      "گال": 2989,
      "##نتگ": 2990,
      "##لوک": 2991,
      "##کانی": 2992,
      "##اتی": 2993,
      "##کان": 2994,
      "بنی": 2995,
      "چیزے": 2996,
      "##کے": 2997,
      "##ڈی": 2998,
      "ادار": 2999,
      "جھد": 3000,
      "این": 3001,
      "کسے": 3002,
      "منا": 3003,
      "##ادر": 3004,
      "چوش": 3005,
      "ڈاکٹر": 3006,
      "مراد": 3007,
      "تب": 3008,
      "ابید": 3009,
      "پٹ": 3010,
      "تیر": 3011,
      "جم": 3012,
      "##st": 3013,
      "رھ": 3014,
      "وان": 3015,
      "درو": 3016,
      "زال": 3017,
      "اگ": 3018,
      "پھ": 3019,
      "بندات": 3020,
      "##رین": 3021,
      "سرجمیں": 3022,
      "سہ": 3023,
      "##گت": 3024,
      "##اھیں": 3025,
      "حال": 3026,
      "شال": 3027,
      "بان": 3028,
      "مردمے": 3029,
      "##فر": 3030,
      "لی": 3031,
      "##am": 3032,
      "درد": 3033,
      "برجاہ": 3034,
      "رجانک": 3035,
      "نگ": 3036,
      "##گانی": 3037,
      "دیما": 3038,
      "دروش": 3039,
      "میان": 3040,
      "پج": 3041,
      "کسہ": 3042,
      "##ئیل": 3043,
      "##وٹ": 3044,
      "امی": 3045,
      "مدام": 3046,
      "پوسٹ": 3047,
      "کوہ": 3048,
      "سیاسی": 3049,
      "##رم": 3050,
      "محمد": 3051,
      "پمی": 3052,
      "##ur": 3053,
      "ائیءَ": 3054,
      "گار": 3055,
      "ایوک": 3056,
      "جاور": 3057,
      "کپتگ": 3058,
      "سرم": 3059,
      "##نٹ": 3060,
      "##رانی": 3061,
      "نزیک": 3062,
      "ملا": 3063,
      "پنج": 3064,
      "چش": 3065,
      "راست": 3066,
      "اود": 3067,
      "برے": 3068,
      "دروشم": 3069,
      "الم": 3070,
      "##قی": 3071,
      "نبشتانک": 3072,
      "دری": 3073,
      "##et": 3074,
      "بھر": 3075,
      "رہ": 3076,
      "اند": 3077,
      "پار": 3078,
      "شاعری": 3079,
      "شو": 3080,
      "چست": 3081,
      "پیر": 3082,
      "میتگ": 3083,
      "##وز": 3084,
      "حیال": 3085,
      "ھند": 3086,
      "##ad": 3087,
      "شاہ": 3088,
      "اح": 3089,
      "##چہ": 3090,
      "مج": 3091,
      "حس": 3092,
      "##گیری": 3093,
      "##کت": 3094,
      "##ol": 3095,
      "دارگ": 3096,
      "##پر": 3097,
      "##ac": 3098,
      "بکن": 3099,
      "بدل": 3100,
      "زھرشانی": 3101,
      "زورا": 3102,
      "##کم": 3103,
      "##راب": 3104,
      "ترس": 3105,
      "چه": 3106,
      "انچو": 3107,
      "##ئگ": 3108,
      "بابت": 3109,
      "تاں": 3110,
      "سنگ": 3111,
      "ورنا": 3112,
      "گاڑی": 3113,
      "نش": 3114,
      "ری": 3115,
      "شما": 3116,
      "##بول": 3117,
      "was": 3118,
      "انچیں": 3119,
      "کور": 3120,
      "##ro": 3121,
      "دگ": 3122,
      "##بل": 3123,
      "لہ": 3124,
      "عبد": 3125,
      "##بار": 3126,
      "نوک": 3127,
      "کجام": 3128,
      "بیتگیں": 3129,
      "برز": 3130,
      "##ئیگ": 3131,
      "##نک": 3132,
      "##جی": 3133,
      "اجوئی": 3134,
      "کپت": 3135,
      "کشگ": 3136,
      "سبب": 3137,
      "##شون": 3138,
      "##دربر": 3139,
      "سرمچار": 3140,
      "سد": 3141,
      "##دیم": 3142,
      "##اه": 3143,
      "ہچ": 3144,
      "اوشت": 3145,
      "نشتگ": 3146,
      "لیکہ": 3147,
      "کراچی": 3148,
      "دژ": 3149,
      "The": 3150,
      "پرچا": 3151,
      "کمی": 3152,
      "یل": 3153,
      "سرد": 3154,
      "##ئیت": 3155,
      "بیران": 3156,
      "کدی": 3157,
      "اشی": 3158,
      "پید": 3159,
      "پنچ": 3160,
      "ریا": 3161,
      "اتاں": 3162,
      "on": 3163,
      "ایاں": 3164,
      "زی": 3165,
      "بنگ": 3166,
      "کمک": 3167,
      "بہر": 3168,
      "گپت": 3169,
      "جنین": 3170,
      "##داری": 3171,
      "بوتگیں": 3172,
      "اباد": 3173,
      "چشکہ": 3174,
      "عبدال": 3175,
      "##لس": 3176,
      "کچ": 3177,
      "##سری": 3178,
      "##انکہ": 3179,
      "نودربر": 3180,
      "ایشانی": 3181,
      "##زم": 3182,
      "ھاتر": 3183,
      "##ارا": 3184,
      "شی": 3185,
      "##ly": 3186,
      "ائرا": 3187,
      "ئیں": 3188,
      "ہو": 3189,
      "##اکہ": 3190,
      "سلاہ": 3191,
      "##دان": 3192,
      "ایم": 3193,
      "##یشن": 3194,
      "مرگ": 3195,
      "نے": 3196,
      "مھر": 3197,
      "ادا": 3198,
      "دژمن": 3199,
      "مہر": 3200,
      "تران": 3201,
      "پیسر": 3202,
      "##ir": 3203,
      "##le": 3204,
      "کیت": 3205,
      "##شتی": 3206,
      "سیم": 3207,
      "##بہ": 3208,
      "په": 3209,
      "رسانک": 3210,
      "شھر": 3211,
      "پجار": 3212,
      "اسر": 3213,
      "##ژن": 3214,
      "for": 3215,
      "مال": 3216,
      "سند": 3217,
      "شیر": 3218,
      "سید": 3219,
      "##نس": 3220,
      "راجد": 3221,
      "چری": 3222,
      "واھ": 3223,
      "گچ": 3224,
      "##iv": 3225,
      "##کنت": 3226,
      "توک": 3227,
      "##کاں": 3228,
      "##کا": 3229,
      "##کھ": 3230,
      "فر": 3231,
      "برات": 3232,
      "جارکش": 3233,
      "جہد": 3234,
      "##اترا": 3235,
      "ایل": 3236,
      "گری": 3237,
      "زمانگ": 3238,
      "گڈا": 3239,
      "بیا": 3240,
      "مول": 3241,
      "کارمر": 3242,
      "تپ": 3243,
      "نس": 3244,
      "پرو": 3245,
      "یات": 3246,
      "##گیر": 3247,
      "ہیں": 3248,
      "وز": 3249,
      "جتائیں": 3250,
      "##فی": 3251,
      "##ونی": 3252,
      "گران": 3253,
      "##ter": 3254,
      "شائ": 3255,
      "کجا": 3256,
      "##id": 3257,
      "تل": 3258,
      "##سم": 3259,
      "##رائی": 3260,
      "رب": 3261,
      "##نیں": 3262,
      "روگ": 3263,
      "##اچ": 3264,
      "انسانی": 3265,
      "اخ": 3266,
      "##وہ": 3267,
      "پولیس": 3268,
      "##ھے": 3269,
      "دیر": 3270,
      "کوش": 3271,
      "##ورت": 3272,
      "ادم": 3273,
      "جتا": 3274,
      "##ot": 3275,
      "شھید": 3276,
      "ٹی": 3277,
      "##اح": 3278,
      "لھ": 3279,
      "##ig": 3280,
      "واستا": 3281,
      "جاگہ": 3282,
      "نظ": 3283,
      "ایس": 3284,
      "##ردو": 3285,
      "زندگی": 3286,
      "زالبول": 3287,
      "گن": 3288,
      "##یسی": 3289,
      "##شکا": 3290,
      "راستی": 3291,
      "as": 3292,
      "سروک": 3293,
      "##ھانی": 3294,
      "##اض": 3295,
      "ایک": 3296,
      "بست": 3297,
      "وہ": 3298,
      "بیان": 3299,
      "دیمر": 3300,
      "ودی": 3301,
      "##ow": 3302,
      "ناز": 3303,
      "ڈول": 3304,
      "مری": 3305,
      "##راھی": 3306,
      "باد": 3307,
      "##زان": 3308,
      "برتگ": 3309,
      "دیست": 3310,
      "##تا": 3311,
      "زندگ": 3312,
      "بیست": 3313,
      "##جر": 3314,
      "##ریشن": 3315,
      "لگ": 3316,
      "ساھ": 3317,
      "st": 3318,
      "کساس": 3319,
      "ایران": 3320,
      "داد": 3321,
      "شری": 3322,
      "دہ": 3323,
      "ھبر": 3324,
      "##کل": 3325,
      "کیچ": 3326,
      "فار": 3327,
      "سرکار": 3328,
      "اشک": 3329,
      "ہند": 3330,
      "زوران": 3331,
      "باس": 3332,
      "##ith": 3333,
      "درگت": 3334,
      "کارمرز": 3335,
      "##ay": 3336,
      "##نچو": 3337,
      "گوادر": 3338,
      "چین": 3339,
      "##em": 3340,
      "گشگ": 3341,
      "گوازی": 3342,
      "مک": 3343,
      "ساچ": 3344,
      "واک": 3345,
      "##پتر": 3346,
      "سگ": 3347,
      "ساہ": 3348,
      "##im": 3349,
      "بچک": 3350,
      "روک": 3351,
      "##تاک": 3352,
      "دراھیں": 3353,
      "چھ": 3354,
      "جیڑہ": 3355,
      "##بو": 3356,
      "گس": 3357,
      "شاعر": 3358,
      "##ut": 3359,
      "دود": 3360,
      "تم": 3361,
      "چریشی": 3362,
      "##پتگ": 3363,
      "##گان": 3364,
      "اسک": 3365,
      "ماھ": 3366,
      "بلک": 3367,
      "واری": 3368,
      "بچار": 3369,
      "یہ": 3370,
      "وئیل": 3371,
      "بچ": 3372,
      "##گوش": 3373,
      "سما": 3374,
      "علی": 3375,
      "مارشت": 3376,
      "چارگ": 3377,
      "شعر": 3378,
      "زوراکی": 3379,
      "کٹ": 3380,
      "جاھ": 3381,
      "گام": 3382,
      "##اص": 3383,
      "کنوک": 3384,
      "سردار": 3385,
      "##ation": 3386,
      "##رہ": 3387,
      "پروش": 3388,
      "لس": 3389,
      "جنک": 3390,
      "##زا": 3391,
      "##اہی": 3392,
      "##ھاں": 3393,
      "سم": 3394,
      "ھس": 3395,
      "تاوان": 3396,
      "##ندیں": 3397,
      "##تل": 3398,
      "زرتگ": 3399,
      "be": 3400,
      "جنت": 3401,
      "اما": 3402,
      "زورانسری": 3403,
      "that": 3404,
      "##ندہ": 3405,
      "ارگ": 3406,
      "اک": 3407,
      "with": 3408,
      "##زل": 3409,
      "مستریں": 3410,
      "##ێن": 3411,
      "کھول": 3412,
      "ھمک": 3413,
      "زہر": 3414,
      "گہ": 3415,
      "ھمیش": 3416,
      "تک": 3417,
      "کند": 3418,
      "وھدیکہ": 3419,
      "کسانیں": 3420,
      "شریں": 3421,
      "کاری": 3422,
      "منءَ": 3423,
      "نیام": 3424,
      "نشانگ": 3425,
      "بازار": 3426,
      "دوئیں": 3427,
      "روان": 3428,
      "لا": 3429,
      "عر": 3430,
      "نه": 3431,
      "##یلہ": 3432,
      "کتگیں": 3433,
      "ناں": 3434,
      "سلام": 3435,
      "تھا": 3436,
      "##گریں": 3437,
      "##ؤر": 3438,
      "به": 3439,
      "شتگ": 3440,
      "ناک": 3441,
      "گھ": 3442,
      "مھلوک": 3443,
      "تربت": 3444,
      "بندیں": 3445,
      "کنیں": 3446,
      "اص": 3447,
      "##ازگ": 3448,
      "برگ": 3449,
      "ارز": 3450,
      "گپتگ": 3451,
      "##یاں": 3452,
      "کارمند": 3453,
      "##ےءَ": 3454,
      "وزیر": 3455,
      "##قت": 3456,
      "##است": 3457,
      "گرگ": 3458,
      "امری": 3459,
      "پدر": 3460,
      "اہانی": 3461,
      "داشت": 3462,
      "ساری": 3463,
      "جوانیں": 3464,
      "اسلام": 3465,
      "اھوال": 3466,
      "لیک": 3467,
      "تاکدیم": 3468,
      "##ارت": 3469,
      "بج": 3470,
      "داریت": 3471,
      "کان": 3472,
      "##بیت": 3473,
      "اماچ": 3474,
      "##نگی": 3475,
      "is": 3476,
      "زمہ": 3477,
      "سپ": 3478,
      "دراج": 3479,
      "##شا": 3480,
      "اسپ": 3481,
      "##ers": 3482,
      "##زگ": 3483,
      "##گواری": 3484,
      "گڈی": 3485,
      "جل": 3486,
      "وڑا": 3487,
      "بخ": 3488,
      "ھلاپ": 3489,
      "##مہ": 3490,
      "مشک": 3491,
      "درک": 3492,
      "##us": 3493,
      "ھزار": 3494,
      "زاناں": 3495,
      "کارے": 3496,
      "##ts": 3497,
      "##واہ": 3498,
      "چاگردی": 3499,
      "زھگ": 3500,
      "##انءِ": 3501,
      "##اریں": 3502,
      "##اف": 3503,
      "re": 3504,
      "##اناں": 3505,
      "wh": 3506,
      "چشیں": 3507,
      "گوات": 3508,
      "##اسیں": 3509,
      "بات": 3510,
      "گرد": 3511,
      "راجدپتر": 3512,
      "ناش": 3513,
      "اھانی": 3514,
      "شش": 3515,
      "چل": 3516,
      "حک": 3517,
      "لٹ": 3518,
      "لچہ": 3519,
      "##ہی": 3520,
      "by": 3521,
      "##مبر": 3522,
      "##ul": 3523,
      "ھور": 3524,
      "مش": 3525,
      "اول": 3526,
      "تام": 3527,
      "لوٹیت": 3528,
      "ورن": 3529,
      "ڈن": 3530,
      "انگری": 3531,
      "لب": 3532,
      "مق": 3533,
      "بوھگ": 3534,
      "al": 3535,
      "تچ": 3536,
      "##ch": 3537,
      "چاپ": 3538,
      "تیرگواری": 3539,
      "داشتگ": 3540,
      "لاش": 3541,
      "روچے": 3542,
      "سرمچاراں": 3543,
      "##له": 3544,
      "##ندی": 3545,
      "##مت": 3546,
      "ھو": 3547,
      "گیر": 3548,
      "##رات": 3549,
      "چوک": 3550,
      "زوت": 3551,
      "##لے": 3552,
      "##انا": 3553,
      "وہدے": 3554,
      "##یلو": 3555,
      "con": 3556,
      "##ce": 3557,
      "تن": 3558,
      "کئے": 3559,
      "تاری": 3560,
      "دھ": 3561,
      "ھالانی": 3562,
      "ھاترا": 3563,
      "سائ": 3564,
      "ورگ": 3565,
      "اردو": 3566,
      "استاد": 3567,
      "نیک": 3568,
      "##ver": 3569,
      "گم": 3570,
      "یلہ": 3571,
      "ریاست": 3572,
      "##یے": 3573,
      "باریں": 3574,
      "سیادی": 3575,
      "ملکی": 3576,
      "تع": 3577,
      "دلگوش": 3578,
      "##اکر": 3579,
      "##دے": 3580,
      "##ئٹ": 3581,
      "ھلاس": 3582,
      "سیاست": 3583,
      "اسٹ": 3584,
      "کنوکیں": 3585,
      "نص": 3586,
      "سھ": 3587,
      "فلس": 3588,
      "ہوار": 3589,
      "##and": 3590,
      "حق": 3591,
      "پم": 3592,
      "فی": 3593,
      "##os": 3594,
      "دیستگ": 3595,
      "##گور": 3596,
      "##نام": 3597,
      "##یران": 3598,
      "##اراں": 3599,
      "زیب": 3600,
      "at": 3601,
      "##عت": 3602,
      "##وگ": 3603,
      "دمان": 3604,
      "بادش": 3605,
      "کشتگ": 3606,
      "##ینت": 3607,
      "گچین": 3608,
      "##ورس": 3609,
      "##اتگ": 3610,
      "زرت": 3611,
      "قوم": 3612,
      "##ارے": 3613,
      "##نز": 3614,
      "زھ": 3615,
      "ته": 3616,
      "##گیج": 3617,
      "ماس": 3618,
      "##حر": 3619,
      "گدار": 3620,
      "##فت": 3621,
      "کلات": 3622,
      "ساز": 3623,
      "##فہ": 3624,
      "##عہ": 3625,
      "کاروان": 3626,
      "##ھا": 3627,
      "شہر": 3628,
      "جہل": 3629,
      "بکنت": 3630,
      "##با": 3631,
      "تاریخ": 3632,
      "پسو": 3633,
      "##ونک": 3634,
      "باں": 3635,
      "گمان": 3636,
      "چماں": 3637,
      "رسانکدر": 3638,
      "##ain": 3639,
      "دراہ": 3640,
      "کری": 3641,
      "بندی": 3642,
      "##ag": 3643,
      "##ئر": 3644,
      "##صہ": 3645,
      "بھی": 3646,
      "fr": 3647,
      "یکیں": 3648,
      "اید": 3649,
      "جنز": 3650,
      "ٹپی": 3651,
      "##ادگ": 3652,
      "کرتگیں": 3653,
      "کماش": 3654,
      "##ئیر": 3655,
      "عل": 3656,
      "بلکنا": 3657,
      "##her": 3658,
      "بام": 3659,
      "##ومت": 3660,
      "پال": 3661,
      "وشی": 3662,
      "an": 3663,
      "##بانی": 3664,
      "درچک": 3665,
      "ھدا": 3666,
      "ھنچ": 3667,
      "بگیری": 3668,
      "جون": 3669,
      "##av": 3670,
      "سیاہ": 3671,
      "ارس": 3672,
      "ہمی": 3673,
      "##um": 3674,
      "##ێں": 3675,
      "منت": 3676,
      "رپ": 3677,
      "گوست": 3678,
      "پگر": 3679,
      "ایرانی": 3680,
      "بیگواھیں": 3681,
      "پا": 3682,
      "##دارگ": 3683,
      "##جود": 3684,
      "##th": 3685,
      "##مبے": 3686,
      "##est": 3687,
      "##ومی": 3688,
      "مچ": 3689,
      "پرس": 3690,
      "درور": 3691,
      "رح": 3692,
      "کنگی": 3693,
      "##گش": 3694,
      "دین": 3695,
      "##وپ": 3696,
      "داب": 3697,
      "درس": 3698,
      "برت": 3699,
      "تح": 3700,
      "##یدگ": 3701,
      "گپے": 3702,
      "عمل": 3703,
      "بلوچانی": 3704,
      "واہ": 3705,
      "پمیشکا": 3706,
      "ازات": 3707,
      "##ثر": 3708,
      "اہاں": 3709,
      "##لیں": 3710,
      "نشت": 3711,
      "ٹک": 3712,
      "تال": 3713,
      "زیر": 3714,
      "نبشتگ": 3715,
      "شاد": 3716,
      "وه": 3717,
      "احمد": 3718,
      "##انہ": 3719,
      "کوھ": 3720,
      "امیت": 3721,
      "دئیگ": 3722,
      "بوہ": 3723,
      "ادارہ": 3724,
      "مہلوک": 3725,
      "بنیاد": 3726,
      "زندءِ": 3727,
      "پڑ": 3728,
      "کوئٹ": 3729,
      "مند": 3730,
      "پتر": 3731,
      "ہل": 3732,
      "گورا": 3733,
      "بنجاھی": 3734,
      "##داریں": 3735,
      "##یلی": 3736,
      "مٹ": 3737,
      "زہرشانی": 3738,
      "ڈگار": 3739,
      "گوئ": 3740,
      "بوان": 3741,
      "نہیں": 3742,
      "ایشاں": 3743,
      "لہتیں": 3744,
      "##ینک": 3745,
      "نیمگا": 3746,
      "کوئٹہ": 3747,
      "عمر": 3748,
      "چوں": 3749,
      "اڑ": 3750,
      "##پان": 3751,
      "کننت": 3752,
      "کمیٹی": 3753,
      "##od": 3754,
      "##انز": 3755,
      "هر": 3756,
      "دزگیر": 3757,
      "ئی": 3758,
      "پنجگور": 3759,
      "نبیس": 3760,
      "پارٹی": 3761,
      "پکر": 3762,
      "علم": 3763,
      "دے": 3764,
      "روت": 3765,
      "##تین": 3766,
      "##ورٹ": 3767,
      "انی": 3768,
      "سری": 3769,
      "واج": 3770,
      "his": 3771,
      "ھون": 3772,
      "##نہ": 3773,
      "وال": 3774,
      "سبز": 3775,
      "زورگریں": 3776,
      "بانک": 3777,
      "##فا": 3778,
      "سار": 3779,
      "##گل": 3780,
      "برو": 3781,
      "رست": 3782,
      "چپ": 3783,
      "تچک": 3784,
      "بارو": 3785,
      "##جال": 3786,
      "زورگ": 3787,
      "لبزانکی": 3788,
      "نور": 3789,
      "##وج": 3790,
      "وتا": 3791,
      "بکش": 3792,
      "نادراہ": 3793,
      "##یانی": 3794,
      "رھبند": 3795,
      "##ڈر": 3796,
      "وارت": 3797,
      "شرگ": 3798,
      "شوھ": 3799,
      "لبریشن": 3800,
      "##ونا": 3801,
      "پیداک": 3802,
      "وانوک": 3803,
      "ھساب": 3804,
      "کال": 3805,
      "اھاں": 3806,
      "حبر": 3807,
      "المی": 3808,
      "##ودی": 3809,
      "##قل": 3810,
      "بنجل": 3811,
      "اکس": 3812,
      "##op": 3813,
      "شور": 3814,
      "مت": 3815,
      "کاراں": 3816,
      "چر": 3817,
      "کئیت": 3818,
      "شاھ": 3819,
      "اسرا": 3820,
      "دیمءَ": 3821,
      "from": 3822,
      "##ess": 3823,
      "##ائل": 3824,
      "ایف": 3825,
      "دوستی": 3826,
      "زانتکار": 3827,
      "دگر": 3828,
      "ہی": 3829,
      "چن": 3830,
      "وھدی": 3831,
      "واستہ": 3832,
      "ساحر": 3833,
      "زاھ": 3834,
      "##ھال": 3835,
      "کشک": 3836,
      "سفر": 3837,
      "##ri": 3838,
      "##لو": 3839,
      "دانکہ": 3840,
      "سپر": 3841,
      "##جا": 3842,
      "اشانی": 3843,
      "زرد": 3844,
      "حکومت": 3845,
      "com": 3846,
      "نویس": 3847,
      "##قہ": 3848,
      "مه": 3849,
      "ٹپ": 3850,
      "ھپت": 3851,
      "بزانت": 3852,
      "##ct": 3853,
      "کشی": 3854,
      "ارزشت": 3855,
      "گونڈ": 3856,
      "##چر": 3857,
      "عط": 3858,
      "اسل": 3859,
      "روچاں": 3860,
      "درستیں": 3861,
      "لاپ": 3862,
      "الله": 3863,
      "##میں": 3864,
      "رسول": 3865,
      "ند": 3866,
      "شائری": 3867,
      "هما": 3868,
      "##ارگ": 3869,
      "یون": 3870,
      "رنگیں": 3871,
      "شک": 3872,
      "##زہ": 3873,
      "کارانی": 3874,
      "##مے": 3875,
      "ھشت": 3876,
      "باسک": 3877,
      "گٹ": 3878,
      "چرا": 3879,
      "بخش": 3880,
      "دمگاں": 3881,
      "زدگ": 3882,
      "علا": 3883,
      "سرپدی": 3884,
      "بستگ": 3885,
      "پش": 3886,
      "منگ": 3887,
      "کسان": 3888,
      "##un": 3889,
      "پمیشا": 3890,
      "کشت": 3891,
      "شمئے": 3892,
      "چمانی": 3893,
      "رؤ": 3894,
      "سرکاری": 3895,
      "##بندی": 3896,
      "سیک": 3897,
      "##وریں": 3898,
      "واتر": 3899,
      "پیلو": 3900,
      "##ap": 3901,
      "رک": 3902,
      "سئے": 3903,
      "اندر": 3904,
      "دان": 3905,
      "##ئو": 3906,
      "مکران": 3907,
      "##خت": 3908,
      "he": 3909,
      "کیا": 3910,
      "ایگ": 3911,
      "مبار": 3912,
      "رھشون": 3913,
      "ٹولی": 3914,
      "گیشی": 3915,
      "پاس": 3916,
      "میار": 3917,
      "کیس": 3918,
      "##پتی": 3919,
      "شہید": 3920,
      "همے": 3921,
      "فلسفہ": 3922,
      "##ایت": 3923,
      "##منند": 3924,
      "##اھاں": 3925,
      "حدا": 3926,
      "نشان": 3927,
      "ابد": 3928,
      "ہست": 3929,
      "چیا": 3930,
      "بیر": 3931,
      "گشیت": 3932,
      "شوھاز": 3933,
      "قب": 3934,
      "##ابی": 3935,
      "ایدگہ": 3936,
      "##ies": 3937,
      "##وکی": 3938,
      "تری": 3939,
      "pro": 3940,
      "کنگا": 3941,
      "مذ": 3942,
      "سام": 3943,
      "مرتگ": 3944,
      "مالی": 3945,
      "##وانی": 3946,
      "قر": 3947,
      "جنگی": 3948,
      "مانا": 3949,
      "وی": 3950,
      "سنگتاں": 3951,
      "##ےءِ": 3952,
      "##رح": 3953,
      "عم": 3954,
      "##راد": 3955,
      "کارست": 3956,
      "##نگیں": 3957,
      "وڈ": 3958,
      "بمب": 3959,
      "##منٹ": 3960,
      "##اضل": 3961,
      "##گءِ": 3962,
      "ردءَ": 3963,
      "گڑ": 3964,
      "##یہ": 3965,
      "کوٹی": 3966,
      "ھک": 3967,
      "بش": 3968,
      "##ere": 3969,
      "##صر": 3970,
      "پریس": 3971,
      "لال": 3972,
      "استمانی": 3973,
      "جنجال": 3974,
      "دمگی": 3975,
      "##ونگ": 3976,
      "##ist": 3977,
      "ہزار": 3978,
      "پند": 3979,
      "##جان": 3980,
      "##ریچ": 3981,
      "ازمان": 3982,
      "اکی": 3983,
      "##ھار": 3984,
      "کول": 3985,
      "##دات": 3986,
      "نپ": 3987,
      "ست": 3988,
      "معنا": 3989,
      "اودا": 3990,
      "گز": 3991,
      "جنی": 3992,
      "سیر": 3993,
      "جس": 3994,
      "دیمروئی": 3995,
      "ناشن": 3996,
      "##راں": 3997,
      "وتءَ": 3998,
      "بنا": 3999,
      "دریا": 4000,
      "انچوش": 4001,
      "درائیں": 4002,
      "##اکی": 4003,
      "برجم": 4004,
      "مچی": 4005,
      "سرک": 4006,
      "وائ": 4007,
      "کہول": 4008,
      "de": 4009,
      "بگر": 4010,
      "واھگ": 4011,
      "su": 4012,
      "یار": 4013,
      "##انے": 4014,
      "##پار": 4015,
      "##وڑ": 4016,
      "نوش": 4017,
      "##ریک": 4018,
      "اکیڈ": 4019,
      "وشیں": 4020,
      "کپیت": 4021,
      "##ear": 4022,
      "##نات": 4023,
      "##if": 4024,
      "چونیں": 4025,
      "##شتہ": 4026,
      "چیریں": 4027,
      "روکپتی": 4028,
      "In": 4029,
      "پرا": 4030,
      "##رس": 4031,
      "کنڈ": 4032,
      "ارمی": 4033,
      "رستگ": 4034,
      "اڈ": 4035,
      "##ریٹ": 4036,
      "باید": 4037,
      "امر": 4038,
      "##یرہ": 4039,
      "بیڑ": 4040,
      "##تکگ": 4041,
      "منزل": 4042,
      "اسکول": 4043,
      "لھتے": 4044,
      "ناکو": 4045,
      "##ill": 4046,
      "سیمی": 4047,
      "مڑ": 4048,
      "##احب": 4049,
      "حساب": 4050,
      "##لیم": 4051,
      "ھاک": 4052,
      "چا": 4053,
      "##ew": 4054,
      "ہمیش": 4055,
      "بوتیں": 4056,
      "##وجی": 4057,
      "ودار": 4058,
      "پالیسی": 4059,
      "کسی": 4060,
      "رم": 4061,
      "رژن": 4062,
      "شد": 4063,
      "بستار": 4064,
      "بگٹی": 4065,
      "درستاں": 4066,
      "##لاں": 4067,
      "were": 4068,
      "اه": 4069,
      "##وتی": 4070,
      "چوشیں": 4071,
      "بچکند": 4072,
      "کد": 4073,
      "تھنا": 4074,
      "قصہ": 4075,
      "مث": 4076,
      "##جمی": 4077,
      "##ong": 4078,
      "وپ": 4079,
      "##زمین": 4080,
      "##نر": 4081,
      "##ab": 4082,
      "بندوک": 4083,
      "##ld": 4084,
      "نیمگءَ": 4085,
      "##ak": 4086,
      "مئی": 4087,
      "کنائی": 4088,
      "##تاں": 4089,
      "##ort": 4090,
      "درشانی": 4091,
      "ارا": 4092,
      "عکس": 4093,
      "ھیر": 4094,
      "ناشناسیں": 4095,
      "##all": 4096,
      "تاب": 4097,
      "##امیں": 4098,
      "انچش": 4099,
      "زیم": 4100,
      "لھتیں": 4101,
      "راھ": 4102,
      "##تریں": 4103,
      "##igh": 4104,
      "##وبہ": 4105,
      "بندیگ": 4106,
      "موسم": 4107,
      "بادشاہ": 4108,
      "##ect": 4109,
      "پیدا": 4110,
      "البت": 4111,
      "##oc": 4112,
      "##ate": 4113,
      "##ard": 4114,
      "##پانی": 4115,
      "دع": 4116,
      "کاگ": 4117,
      "ساچشت": 4118,
      "شئیر": 4119,
      "ویل": 4120,
      "صاحب": 4121,
      "بدلی": 4122,
      "##اشمی": 4123,
      "تیاب": 4124,
      "اکیڈمی": 4125,
      "گپاں": 4126,
      "بگند": 4127,
      "وانی": 4128,
      "ڈیھ": 4129,
      "##ich": 4130,
      "ٹیک": 4131,
      "فاضل": 4132,
      "تہنا": 4133,
      "it": 4134,
      "کون": 4135,
      "##لان": 4136,
      "زرمب": 4137,
      "یکجاہ": 4138,
      "##تہ": 4139,
      "##وائی": 4140,
      "ریک": 4141,
      "##ای": 4142,
      "##ارانی": 4143,
      "دشتی": 4144,
      "جہان": 4145,
      "یاد": 4146,
      "se": 4147,
      "##یدی": 4148,
      "##یشنل": 4149,
      "فیص": 4150,
      "نان": 4151,
      "کمے": 4152,
      "اجو": 4153,
      "ch": 4154,
      "or": 4155,
      "##مرد": 4156,
      "##پد": 4157,
      "ساڑی": 4158,
      "گیشیں": 4159,
      "دروازگ": 4160,
      "روز": 4161,
      "کام": 4162,
      "نیٹ": 4163,
      "کنگءَ": 4164,
      "##اتک": 4165,
      "درچ": 4166,
      "امریکہ": 4167,
      "نق": 4168,
      "شرگداری": 4169,
      "##جھ": 4170,
      "بئے": 4171,
      "##اجی": 4172,
      "مھمد": 4173,
      "غلام": 4174,
      "وسلم": 4175,
      "ہمک": 4176,
      "تانکہ": 4177,
      "ھمراہ": 4178,
      "ہمراہ": 4179,
      "حر": 4180,
      "کاینت": 4181,
      "شھد": 4182,
      "##pp": 4183,
      "##اکیں": 4184,
      "بوتاں": 4185,
      "منیر": 4186,
      "##وست": 4187,
      "جنان": 4188,
      "شب": 4189,
      "ادب": 4190,
      "##یناں": 4191,
      "##ud": 4192,
      "سائنس": 4193,
      "##ber": 4194,
      "##ئینت": 4195,
      "ھرچ": 4196,
      "جد": 4197,
      "بک": 4198,
      "##ماں": 4199,
      "قاض": 4200,
      "ھب": 4201,
      "##وگیں": 4202,
      "گد": 4203,
      "یکش": 4204,
      "##چو": 4205,
      "ex": 4206,
      "باور": 4207,
      "زب": 4208,
      "میڈ": 4209,
      "حمل": 4210,
      "##ناں": 4211,
      "قد": 4212,
      "مراگش": 4213,
      "تنی": 4214,
      "یور": 4215,
      "##کنیک": 4216,
      "دیان": 4217,
      "لائ": 4218,
      "بود": 4219,
      "##gh": 4220,
      "##انکی": 4221,
      "##ity": 4222,
      "##ated": 4223,
      "##ینے": 4224,
      "سوچ": 4225,
      "لگت": 4226,
      "##یکل": 4227,
      "سرب": 4228,
      "پوش": 4229,
      "دستونک": 4230,
      "لوٹاں": 4231,
      "##سا": 4232,
      "##اران": 4233,
      "مکن": 4234,
      "داری": 4235,
      "دلءَ": 4236,
      "گنج": 4237,
      "بح": 4238,
      "قاضی": 4239,
      "جه": 4240,
      "جوان": 4241,
      "##ۆچ": 4242,
      "یونی": 4243,
      "میل": 4244,
      "##ردی": 4245,
      "واکدار": 4246,
      "فارسی": 4247,
      "نادراھی": 4248,
      "pl": 4249,
      "نندانک": 4250,
      "##رت": 4251,
      "سور": 4252,
      "نامیں": 4253,
      "##se": 4254,
      "مرک": 4255,
      "وڑے": 4256,
      "##art": 4257,
      "ازاتی": 4258,
      "رنگے": 4259,
      "باندات": 4260,
      "سوج": 4261,
      "دکان": 4262,
      "##ادہ": 4263,
      "##ame": 4264,
      "لیب": 4265,
      "##زت": 4266,
      "رام": 4267,
      "ادءَ": 4268,
      "خیال": 4269,
      "دپتر": 4270,
      "کنئگ": 4271,
      "اوشتاتگ": 4272,
      "سع": 4273,
      "باروا": 4274,
      "نظام": 4275,
      "سکیں": 4276,
      "چٹ": 4277,
      "فکر": 4278,
      "بیگاہ": 4279,
      "##پگ": 4280,
      "مڈی": 4281,
      "اگر": 4282,
      "چاکر": 4283,
      "##گوں": 4284,
      "جام": 4285,
      "جز": 4286,
      "لک": 4287,
      "کئی": 4288,
      "##ive": 4289,
      "نسبت": 4290,
      "##وف": 4291,
      "اشت": 4292,
      "کوک": 4293,
      "گلام": 4294,
      "نمدی": 4295,
      "ابر": 4296,
      "ناول": 4297,
      "کمال": 4298,
      "وک": 4299,
      "قل": 4300,
      "حاص": 4301,
      "تجر": 4302,
      "اھت": 4303,
      "##واں": 4304,
      "مھکم": 4305,
      "کاروب": 4306,
      "جاھے": 4307,
      "##حد": 4308,
      "حسین": 4309,
      "انگریزی": 4310,
      "رسیت": 4311,
      "##ورک": 4312,
      "سین": 4313,
      "نیشنل": 4314,
      "تکنیک": 4315,
      "جب": 4316,
      "##مال": 4317,
      "اوگان": 4318,
      "##ورسٹی": 4319,
      "##اق": 4320,
      "گوز": 4321,
      "نندوک": 4322,
      "بدن": 4323,
      "سندھ": 4324,
      "are": 4325,
      "رود": 4326,
      "چاران": 4327,
      "منوک": 4328,
      "##گری": 4329,
      "عطا": 4330,
      "اکبر": 4331,
      "نھ": 4332,
      "میجر": 4333,
      "ایپ": 4334,
      "ردا": 4335,
      "وسیلہ": 4336,
      "##بال": 4337,
      "حل": 4338,
      "گوستگ": 4339,
      "##اہر": 4340,
      "گامگیج": 4341,
      "sh": 4342,
      "##ant": 4343,
      "لوز": 4344,
      "ایشیءِ": 4345,
      "بنگی": 4346,
      "ستک": 4347,
      "ھد": 4348,
      "زلم": 4349,
      "ریاستی": 4350,
      "##وڈ": 4351,
      "چند": 4352,
      "کچک": 4353,
      "بنگپ": 4354,
      "##ore": 4355,
      "مط": 4356,
      "پرچاکہ": 4357,
      "##ack": 4358,
      "کیم": 4359,
      "قومی": 4360,
      "ازاد": 4361,
      "انگریز": 4362,
      "##نائی": 4363,
      "دام": 4364,
      "جھمنند": 4365,
      "یونیورسٹی": 4366,
      "دش": 4367,
      "##ازدہ": 4368,
      "##برے": 4369,
      "ترندیں": 4370,
      "دراجیں": 4371,
      "##جد": 4372,
      "##جن": 4373,
      "##گرام": 4374,
      "دائ": 4375,
      "کتہ": 4376,
      "اؤر": 4377,
      "شمارا": 4378,
      "لڈ": 4379,
      "نادرا": 4380,
      "##rou": 4381,
      "##رل": 4382,
      "##پہ": 4383,
      "حسن": 4384,
      "داتگیں": 4385,
      "بوئگ": 4386,
      "پسہ": 4387,
      "حاک": 4388,
      "چنڈ": 4389,
      "گوشیت": 4390,
      "روش": 4391,
      "بالی": 4392,
      "had": 4393,
      "مبارک": 4394,
      "کوچ": 4395,
      "دیوال": 4396,
      "سلامتی": 4397,
      "نماز": 4398,
      "دربر": 4399,
      "##رف": 4400,
      "حد": 4401,
      "سوار": 4402,
      "بیم": 4403,
      "بنداتی": 4404,
      "صل": 4405,
      "##کشن": 4406,
      "شاری": 4407,
      "بیگواہیں": 4408,
      "جواب": 4409,
      "کمان": 4410,
      "تراک": 4411,
      "پوجی": 4412,
      "مذہ": 4413,
      "قدر": 4414,
      "##ریا": 4415,
      "##گرنچ": 4416,
      "تنگ": 4417,
      "##نگل": 4418,
      "##پل": 4419,
      "دیمروی": 4420,
      "صورت": 4421,
      "رکی": 4422,
      "##انچ": 4423,
      "راستیں": 4424,
      "ندارگ": 4425,
      "##یسر": 4426,
      "بیار": 4427,
      "دیمتر": 4428,
      "اشاں": 4429,
      "اثر": 4430,
      "امب": 4431,
      "##ov": 4432,
      "چد": 4433,
      "نیکہ": 4434,
      "بالاد": 4435,
      "which": 4436,
      "تیار": 4437,
      "##وٹل": 4438,
      "بارت": 4439,
      "بنکی": 4440,
      "ندر": 4441,
      "ببیت": 4442,
      "شام": 4443,
      "پک": 4444,
      "ہور": 4445,
      "گوشاں": 4446,
      "شه": 4447,
      "##روچ": 4448,
      "تریں": 4449,
      "جنگل": 4450,
      "سہب": 4451,
      "وجود": 4452,
      "بلوچاں": 4453,
      "سان": 4454,
      "##يه": 4455,
      "جھل": 4456,
      "وتارا": 4457,
      "ترانگ": 4458,
      "کلیں": 4459,
      "##اتھ": 4460,
      "##ٹری": 4461,
      "##our": 4462,
      "نامی": 4463,
      "شمبے": 4464,
      "ایان": 4465,
      "نصیر": 4466,
      "##یتک": 4467,
      "امیدگ": 4468,
      "مارچ": 4469,
      "St": 4470,
      "ڈک": 4471,
      "گنگ": 4472,
      "جھان": 4473,
      "سھب": 4474,
      "فیصلہ": 4475,
      "##یدہ": 4476,
      "پن": 4477,
      "##اھو": 4478,
      "اع": 4479,
      "##ian": 4480,
      "##nt": 4481,
      "ٹکر": 4482,
      "جاھاں": 4483,
      "رہبند": 4484,
      "sp": 4485,
      "کنگءِ": 4486,
      "راز": 4487,
      "رپورٹ": 4488,
      "ساھت": 4489,
      "ناگ": 4490,
      "سلیم": 4491,
      "خاص": 4492,
      "بندگ": 4493,
      "مردے": 4494,
      "ارواہ": 4495,
      "پرچے": 4496,
      "ھمراھی": 4497,
      "دنیاءِ": 4498,
      "دستاں": 4499,
      "گیشتریں": 4500,
      "##رز": 4501,
      "##دری": 4502,
      "شائر": 4503,
      "##لب": 4504,
      "سیل": 4505,
      "واق": 4506,
      "لکھ": 4507,
      "##ٹس": 4508,
      "جوانی": 4509,
      "دشت": 4510,
      "##ast": 4511,
      "گرم": 4512,
      "چینل": 4513,
      "مسل": 4514,
      "نواب": 4515,
      "کرن": 4516,
      "pr": 4517,
      "کاگد": 4518,
      "##اھے": 4519,
      "##ھان": 4520,
      "ھکانی": 4521,
      "ھان": 4522,
      "خدا": 4523,
      "گنوک": 4524,
      "##انکے": 4525,
      "واجه": 4526,
      "تامر": 4527,
      "باندا": 4528,
      "اصل": 4529,
      "تها": 4530,
      "پور": 4531,
      "باری": 4532,
      "پژ": 4533,
      "اپنے": 4534,
      "کریم": 4535,
      "عليه": 4536,
      "##ٹل": 4537,
      "منص": 4538,
      "##ell": 4539,
      "not": 4540,
      "دئے": 4541,
      "##یات": 4542,
      "ھز": 4543,
      "##اسر": 4544,
      "کمپ": 4545,
      "کمو": 4546,
      "پرچہ": 4547,
      "پھر": 4548,
      "##اپی": 4549,
      "##ip": 4550,
      "هچ": 4551,
      "سوبمند": 4552,
      "tr": 4553,
      "زندمان": 4554,
      "##ord": 4555,
      "تھی": 4556,
      "##ment": 4557,
      "پیمیں": 4558,
      "ضر": 4559,
      "تاج": 4560,
      "##ہر": 4561,
      "درمان": 4562,
      "##رانس": 4563,
      "مں": 4564,
      "پدءَ": 4565,
      "کچے": 4566,
      "ردی": 4567,
      "کلب": 4568,
      "##اھا": 4569,
      "نیاد": 4570,
      "##وستان": 4571,
      "بہا": 4572,
      "چکاس": 4573,
      "##ally": 4574,
      "##وع": 4575,
      "##ine": 4576,
      "ایمان": 4577,
      "مخ": 4578,
      "##rit": 4579,
      "گشئے": 4580,
      "نبیسگ": 4581,
      "##ge": 4582,
      "##واری": 4583,
      "##بری": 4584,
      "##ناز": 4585,
      "اسراتی": 4586,
      "##ندگ": 4587,
      "امیدگس": 4588,
      "ئیگ": 4589,
      "##نکین": 4590,
      "##ost": 4591,
      "مام": 4592,
      "وارتگ": 4593,
      "پون": 4594,
      "چھاپ": 4595,
      "امان": 4596,
      "دشمن": 4597,
      "##انزدہ": 4598,
      "ھرکس": 4599,
      "##رمین": 4600,
      "چاہ": 4601,
      "##pt": 4602,
      "##وشی": 4603,
      "بوتنت": 4604,
      "درامد": 4605,
      "دیاں": 4606,
      "بیرم": 4607,
      "انتءُ": 4608,
      "بالاچ": 4609,
      "سیمسر": 4610,
      "ھمد": 4611,
      "کسانی": 4612,
      "اھوالکار": 4613,
      "##سل": 4614,
      "##ابل": 4615,
      "اسپیت": 4616,
      "مثال": 4617,
      "##تام": 4618,
      "##گام": 4619,
      "نار": 4620,
      "ھوش": 4621,
      "صلى": 4622,
      "اپریشن": 4623,
      "بزان": 4624,
      "کوھنیں": 4625,
      "ربیدگ": 4626,
      "چاریں": 4627,
      "لڑ": 4628,
      "نگد": 4629,
      "##تانی": 4630,
      "اودءَ": 4631,
      "پیسلہ": 4632,
      "تالان": 4633,
      "بڈ": 4634,
      "نود": 4635,
      "ھشک": 4636,
      "کست": 4637,
      "##انءَ": 4638,
      "ذات": 4639,
      "یع": 4640,
      "لہتے": 4641,
      "ونتگ": 4642,
      "رواں": 4643,
      "##اھانی": 4644,
      "چوکہ": 4645,
      "بری": 4646,
      "سرڈ": 4647,
      "کارگ": 4648,
      "##الد": 4649,
      "جاگ": 4650,
      "Ch": 4651,
      "وھداں": 4652,
      "رامین": 4653,
      "##ther": 4654,
      "جر": 4655,
      "نزور": 4656,
      "مولانا": 4657,
      "ساد": 4658,
      "انج": 4659,
      "ترند": 4660,
      "عرب": 4661,
      "اگں": 4662,
      "##ish": 4663,
      "اشوب": 4664,
      "اؤ": 4665,
      "دوچ": 4666,
      "شرپ": 4667,
      "جاوراں": 4668,
      "نیٹورک": 4669,
      "شے": 4670,
      "ردوم": 4671,
      "براہ": 4672,
      "##کنگ": 4673,
      "بور": 4674,
      "##غان": 4675,
      "##ave": 4676,
      "##ia": 4677,
      "##کو": 4678,
      "قان": 4679,
      "##میر": 4680,
      "ارام": 4681,
      "مشکل": 4682,
      "عب": 4683,
      "اق": 4684,
      "کبر": 4685,
      "تیل": 4686,
      "##عل": 4687,
      "ول": 4688,
      "برج": 4689,
      "جندءِ": 4690,
      "وائس": 4691,
      "اتیں": 4692,
      "روزگار": 4693,
      "ادبی": 4694,
      "شکار": 4695,
      "rec": 4696,
      "سج": 4697,
      "##بے": 4698,
      "ماد": 4699,
      "اوشتات": 4700,
      "##ue": 4701,
      "مستونگ": 4702,
      "دگه": 4703,
      "گشنت": 4704,
      "پالیسیانی": 4705,
      "زانتگ": 4706,
      "مجید": 4707,
      "کمیں": 4708,
      "دوھ": 4709,
      "چیزانی": 4710,
      "عش": 4711,
      "ندار": 4712,
      "حکم": 4713,
      "##اؤ": 4714,
      "##ویز": 4715,
      "دروگ": 4716,
      "بونگ": 4717,
      "کلدار": 4718,
      "عال": 4719,
      "عزت": 4720,
      "نسل": 4721,
      "سوگ": 4722,
      "شون": 4723,
      "مید": 4724,
      "داستان": 4725,
      "##ary": 4726,
      "نف": 4727,
      "سرڈگار": 4728,
      "بتل": 4729,
      "نیل": 4730,
      "پیما": 4731,
      "سنگتانی": 4732,
      "کلاس": 4733,
      "نامداریں": 4734,
      "استان": 4735,
      "ایشرا": 4736,
      "##ٹا": 4737,
      "الس": 4738,
      "سالی": 4739,
      "ڈال": 4740,
      "ترک": 4741,
      "##ust": 4742,
      "ایند": 4743,
      "سزا": 4744,
      "شکل": 4745,
      "دنی": 4746,
      "رنج": 4747,
      "صح": 4748,
      "زرمبشت": 4749,
      "##ٹرول": 4750,
      "##وشل": 4751,
      "جیڑگ": 4752,
      "نک": 4753,
      "le": 4754,
      "##ارہ": 4755,
      "بگیر": 4756,
      "ریش": 4757,
      "انا": 4758,
      "کردار": 4759,
      "ائے": 4760,
      "عربی": 4761,
      "بنگیج": 4762,
      "کارندہ": 4763,
      "بید": 4764,
      "##اور": 4765,
      "##ڑیں": 4766,
      "شوہ": 4767,
      "فوج": 4768,
      "اتءُ": 4769,
      "درشانے": 4770,
      "##رگ": 4771,
      "جنرل": 4772,
      "##og": 4773,
      "لاچار": 4774,
      "گلزمین": 4775,
      "##چاں": 4776,
      "بیگواھی": 4777,
      "جانی": 4778,
      "نرم": 4779,
      "نودربرانی": 4780,
      "پیک": 4781,
      "##ودا": 4782,
      "چت": 4783,
      "##ضی": 4784,
      "بامن": 4785,
      "##ردست": 4786,
      "##ینہ": 4787,
      "جاورانی": 4788,
      "گۆ": 4789,
      "مسلمان": 4790,
      "میڑ": 4791,
      "زام": 4792,
      "##پٹ": 4793,
      "##عد": 4794,
      "پنام": 4795,
      "مہمان": 4796,
      "لین": 4797,
      "اوست": 4798,
      "##شد": 4799,
      "ہوت": 4800,
      "اگست": 4801,
      "ءٙ": 4802,
      "##ٹو": 4803,
      "غم": 4804,
      "گرا": 4805,
      "ایڈ": 4806,
      "##اشی": 4807,
      "ھنچش": 4808,
      "سرجمی": 4809,
      "عہد": 4810,
      "خلا": 4811,
      "##اتے": 4812,
      "چاری": 4813,
      "نمبر": 4814,
      "تمپ": 4815,
      "جوڈ": 4816,
      "ٹو": 4817,
      "سوشل": 4818,
      "بولان": 4819,
      "راه": 4820,
      "گیس": 4821,
      "کپگ": 4822,
      "شان": 4823,
      "##بگ": 4824,
      "سن": 4825,
      "صن": 4826,
      "چراگ": 4827,
      "سمی": 4828,
      "##طن": 4829,
      "اگہ": 4830,
      "براں": 4831,
      "fir": 4832,
      "بابتءَ": 4833,
      "بانگ": 4834,
      "زبانانی": 4835,
      "##pl": 4836,
      "ارمان": 4837,
      "کاروبار": 4838,
      "ھیل": 4839,
      "کاروائی": 4840,
      "##زدہ": 4841,
      "##ous": 4842,
      "پمشکا": 4843,
      "افغان": 4844,
      "ھرد": 4845,
      "##ight": 4846,
      "##وریت": 4847,
      "inc": 4848,
      "##cc": 4849,
      "گراں": 4850,
      "##مپ": 4851,
      "مینگل": 4852,
      "روس": 4853,
      "رواج": 4854,
      "صد": 4855,
      "کڈ": 4856,
      "گپانی": 4857,
      "##ازہ": 4858,
      "##مش": 4859,
      "زل": 4860,
      "انکہ": 4861,
      "چیزاں": 4862,
      "تنے": 4863,
      "رندا": 4864,
      "منظ": 4865,
      "##داد": 4866,
      "بب": 4867,
      "گالوار": 4868,
      "اواران": 4869,
      "شن": 4870,
      "کالج": 4871,
      "##out": 4872,
      "لنٹ": 4873,
      "گوھ": 4874,
      "##ادت": 4875,
      "##صد": 4876,
      "##انیہ": 4877,
      "##یءَ": 4878,
      "##اجت": 4879,
      "ھواریں": 4880,
      "ادی": 4881,
      "تباہ": 4882,
      "چوشکہ": 4883,
      "ارشانی": 4884,
      "ماتی": 4885,
      "غیر": 4886,
      "##گرانی": 4887,
      "دزک": 4888,
      "##وبی": 4889,
      "ونت": 4890,
      "موت": 4891,
      "اپنی": 4892,
      "گست": 4893,
      "جرم": 4894,
      "گوازینگ": 4895,
      "چنت": 4896,
      "بوہگ": 4897,
      "جندئیگ": 4898,
      "انٹر": 4899,
      "مدت": 4900,
      "درائینت": 4901,
      "##باری": 4902,
      "دیمی": 4903,
      "باپ": 4904,
      "##ions": 4905,
      "ہلاس": 4906,
      "سرما": 4907,
      "##خان": 4908,
      "##حال": 4909,
      "حم": 4910,
      "کاپ": 4911,
      "پرائی": 4912,
      "their": 4913,
      "وھدءَ": 4914,
      "اوگانستان": 4915,
      "بئیت": 4916,
      "روانک": 4917,
      "but": 4918,
      "مرید": 4919,
      "جاه": 4920,
      "درسیں": 4921,
      "ڈس": 4922,
      "##ازم": 4923,
      "مزار": 4924,
      "رکینگ": 4925,
      "##بور": 4926,
      "##ra": 4927,
      "چنچو": 4928,
      "ایندگہ": 4929,
      "بدار": 4930,
      "سکین": 4931,
      "cont": 4932,
      "طا": 4933,
      "##شاں": 4934,
      "سینگ": 4935,
      "##ie": 4936,
      "هست": 4937,
      "بوھ": 4938,
      "ماہی": 4939,
      "##ریل": 4940,
      "ar": 4941,
      "سازی": 4942,
      "فائ": 4943,
      "دراہیں": 4944,
      "int": 4945,
      "دئی": 4946,
      "##fter": 4947,
      "حقی": 4948,
      "رندے": 4949,
      "##ٹے": 4950,
      "سالاں": 4951,
      "گواز": 4952,
      "##ure": 4953,
      "بارہ": 4954,
      "اشتر": 4955,
      "##اے": 4956,
      "##ical": 4957,
      "دید": 4958,
      "دروت": 4959,
      "بت": 4960,
      "سیت": 4961,
      "تس": 4962,
      "ہال": 4963,
      "کنئے": 4964,
      "تھے": 4965,
      "دوھزار": 4966,
      "##وے": 4967,
      "ٹھ": 4968,
      "براس": 4969,
      "##رءَ": 4970,
      "##ial": 4971,
      "نزوری": 4972,
      "سرگو": 4973,
      "##رک": 4974,
      "تیز": 4975,
      "گنداں": 4976,
      "##qu": 4977,
      "##پتال": 4978,
      "##so": 4979,
      "ماما": 4980,
      "یورپ": 4981,
      "طاقت": 4982,
      "لیکن": 4983,
      "سرمایہ": 4984,
      "first": 4985,
      "دگنیا": 4986,
      "ھلک": 4987,
      "##نانی": 4988,
      "##ائے": 4989,
      "##ازت": 4990,
      "شعری": 4991,
      "پمیشکہ": 4992,
      "اناں": 4993,
      "نندگ": 4994,
      "##ینیت": 4995,
      "##اسگ": 4996,
      "بشیر": 4997,
      "ورناہ": 4998,
      "اواز": 4999,
      "ماڑی": 5000,
      "##شگ": 5001,
      "##ould": 5002,
      "its": 5003,
      "ریل": 5004,
      "##خص": 5005,
      "ھمود": 5006,
      "بلوچستانءِ": 5007,
      "##hed": 5008,
      "##ub": 5009,
      "تئو": 5010,
      "مدامی": 5011,
      "##یاتی": 5012,
      "##منی": 5013,
      "بدی": 5014,
      "##کارانی": 5015,
      "##وبر": 5016,
      "تگ": 5017,
      "whe": 5018,
      "عد": 5019,
      "##ماش": 5020,
      "رکھ": 5021,
      "##ہیں": 5022,
      "ڈیرہ": 5023,
      "ترقی": 5024,
      "کاف": 5025,
      "ویب": 5026,
      "##وند": 5027,
      "دزبندی": 5028,
      "##oll": 5029,
      "دوشی": 5030,
      "سول": 5031,
      "##یرانی": 5032,
      "##زئی": 5033,
      "##لانی": 5034,
      "سه": 5035,
      "انکس": 5036,
      "ابادی": 5037,
      "عبداللہ": 5038,
      "##wo": 5039,
      "her": 5040,
      "زوریں": 5041,
      "سوت": 5042,
      "##مید": 5043,
      "مگر": 5044,
      "پرشتگ": 5045,
      "اھتگ": 5046,
      "شمے": 5047,
      "موجود": 5048,
      "دستءَ": 5049,
      "گواچ": 5050,
      "زمان": 5051,
      "ھی": 5052,
      "ریچ": 5053,
      "اسے": 5054,
      "سامان": 5055,
      "سکی": 5056,
      "نومبر": 5057,
      "بزگ": 5058,
      "عشق": 5059,
      "گناہ": 5060,
      "پائ": 5061,
      "##ناپ": 5062,
      "جول": 5063,
      "مسنگ": 5064,
      "عقل": 5065,
      "ارت": 5066,
      "الی": 5067,
      "پریشان": 5068,
      "موک": 5069,
      "اھوالانی": 5070,
      "مسیت": 5071,
      "بله": 5072,
      "انوں": 5073,
      "ھراب": 5074,
      "##ضا": 5075,
      "اث": 5076,
      "راجے": 5077,
      "نیمگے": 5078,
      "ساھگ": 5079,
      "توان": 5080,
      "بنجاہی": 5081,
      "##غر": 5082,
      "چمش": 5083,
      "فری": 5084,
      "دلءِ": 5085,
      "##رو": 5086,
      "##ff": 5087,
      "##ہہ": 5088,
      "تیوگیں": 5089,
      "##ok": 5090,
      "گوم": 5091,
      "##ریت": 5092,
      "شوہاز": 5093,
      "نئے": 5094,
      "بلکہ": 5095,
      "لچ": 5096,
      "ربیت": 5097,
      "شرتر": 5098,
      "ایمنی": 5099,
      "زاہ": 5100,
      "نشہ": 5101,
      "##ڑے": 5102,
      "متل": 5103,
      "##لق": 5104,
      "ھمرا": 5105,
      "##مکن": 5106,
      "زبانءِ": 5107,
      "also": 5108,
      "احت": 5109,
      "میڈیا": 5110,
      "پنجاہ": 5111,
      "cl": 5112,
      "بہرے": 5113,
      "اپس": 5114,
      "شل": 5115,
      "بوتہ": 5116,
      "راھبند": 5117,
      "افس": 5118,
      "کامی": 5119,
      "##per": 5120,
      "اوانی": 5121,
      "سندھی": 5122,
      "##ڈیو": 5123,
      "ورنایے": 5124,
      "جھانی": 5125,
      "##ریز": 5126,
      "چیاکہ": 5127,
      "##ide": 5128,
      "والا": 5129,
      "##اط": 5130,
      "مناں": 5131,
      "##سمبر": 5132,
      "برزی": 5133,
      "##own": 5134,
      "طرح": 5135,
      "پژدر": 5136,
      "ھرچی": 5137,
      "اوتی": 5138,
      "##کاریں": 5139,
      "پسند": 5140,
      "امید": 5141,
      "ایشیءَ": 5142,
      "##ater": 5143,
      "روچی": 5144,
      "گرانیں": 5145,
      "چیدگ": 5146,
      "پمشکہ": 5147,
      "امن": 5148,
      "دوا": 5149,
      "مستر": 5150,
      "سیاد": 5151,
      "##راج": 5152,
      "راجانی": 5153,
      "##ھم": 5154,
      "سنگتے": 5155,
      "تج": 5156,
      "##ome": 5157,
      "##orm": 5158,
      "کوپ": 5159,
      "زہگ": 5160,
      "کب": 5161,
      "گوانک": 5162,
      "چرے": 5163,
      "دسمبر": 5164,
      "##سہ": 5165,
      "##یدگی": 5166,
      "##ائش": 5167,
      "عمران": 5168,
      "چگل": 5169,
      "گوزگ": 5170,
      "بیگواہی": 5171,
      "##بوت": 5172,
      "ھژ": 5173,
      "##ru": 5174,
      "##اھگ": 5175,
      "زاھدان": 5176,
      "سربو": 5177,
      "تہر": 5178,
      "##رال": 5179,
      "##کاراں": 5180,
      "دراتک": 5181,
      "##امت": 5182,
      "ارب": 5183,
      "نشانی": 5184,
      "باگ": 5185,
      "##ہار": 5186,
      "ماه": 5187,
      "رحیم": 5188,
      "##کشی": 5189,
      "نزانت": 5190,
      "##لاح": 5191,
      "مجلس": 5192,
      "کرونا": 5193,
      "زندءَ": 5194,
      "##ork": 5195,
      "چوناھا": 5196,
      "گیدی": 5197,
      "##ass": 5198,
      "بگوش": 5199,
      "بشک": 5200,
      "کمبر": 5201,
      "رہشون": 5202,
      "اورتگ": 5203,
      "کوکار": 5204,
      "گوھرام": 5205,
      "سنج": 5206,
      "کتابے": 5207,
      "اگن": 5208,
      "##ign": 5209,
      "دروگیں": 5210,
      "res": 5211,
      "دلجم": 5212,
      "##ire": 5213,
      "##ائز": 5214,
      "rel": 5215,
      "ab": 5216,
      "شراب": 5217,
      "مص": 5218,
      "##سن": 5219,
      "صدر": 5220,
      "پانگ": 5221,
      "ad": 5222,
      "یاکہ": 5223,
      "ھنکین": 5224,
      "##امیہ": 5225,
      "پروف": 5226,
      "بلۆچ": 5227,
      "درانگ": 5228,
      "ورد": 5229,
      "ھاشمی": 5230,
      "کنٹ": 5231,
      "##age": 5232,
      "مین": 5233,
      "بھا": 5234,
      "وهد": 5235,
      "زبانے": 5236,
      "ہرچی": 5237,
      "امام": 5238,
      "##اسم": 5239,
      "حض": 5240,
      "بوج": 5241,
      "کتابانی": 5242,
      "نشتگیں": 5243,
      "ڈنی": 5244,
      "نوشکی": 5245,
      "کارند": 5246,
      "##وکاں": 5247,
      "ماسٹر": 5248,
      "ھام": 5249,
      "وائی": 5250,
      "ادگہ": 5251,
      "گول": 5252,
      "نودربراں": 5253,
      "رنگءَ": 5254,
      "اخلا": 5255,
      "اوت": 5256,
      "ھمگرنچ": 5257,
      "کنائینگ": 5258,
      "نع": 5259,
      "بلاھیں": 5260,
      "اسلم": 5261,
      "دیمپان": 5262,
      "تص": 5263,
      "کلوہ": 5264,
      "مکس": 5265,
      "##ظیم": 5266,
      "چوکی": 5267,
      "انڈ": 5268,
      "برکت": 5269,
      "اٹ": 5270,
      "شریف": 5271,
      "فرانس": 5272,
      "دینت": 5273,
      "ذمہ": 5274,
      "پمن": 5275,
      "میرا": 5276,
      "زیبائی": 5277,
      "پاداں": 5278,
      "##گال": 5279,
      "خط": 5280,
      "پاھو": 5281,
      "##سک": 5282,
      "ہشت": 5283,
      "ہوا": 5284,
      "بیل": 5285,
      "زه": 5286,
      "زوراکیانی": 5287,
      "سھر": 5288,
      "پوہ": 5289,
      "منند": 5290,
      "##ینگ": 5291,
      "جنوری": 5292,
      "##اہیں": 5293,
      "زھیر": 5294,
      "پرسنز": 5295,
      "بنشون": 5296,
      "نال": 5297,
      "جمبر": 5298,
      "ذہ": 5299,
      "چاراں": 5300,
      "##مبلی": 5301,
      "اکت": 5302,
      "##بیں": 5303,
      "کسم": 5304,
      "گیج": 5305,
      "have": 5306,
      "وطن": 5307,
      "لئے": 5308,
      "امیر": 5309,
      "##لوم": 5310,
      "کوئی": 5311,
      "پراہ": 5312,
      "##اتاں": 5313,
      "وفا": 5314,
      "شکر": 5315,
      "تپاک": 5316,
      "سروکی": 5317,
      "یکشل": 5318,
      "##ترا": 5319,
      "گوناپ": 5320,
      "##اہے": 5321,
      "##کارے": 5322,
      "##فرنس": 5323,
      "لبزانی": 5324,
      "منصوبہ": 5325,
      "تخ": 5326,
      "گلامی": 5327,
      "##اتا": 5328,
      "لشکری": 5329,
      "ساتھ": 5330,
      "اشکنگ": 5331,
      "دوس": 5332,
      "انص": 5333,
      "##باز": 5334,
      "نظر": 5335,
      "پشک": 5336,
      "کاریت": 5337,
      "استال": 5338,
      "un": 5339,
      "##ence": 5340,
      "##حہ": 5341,
      "علاقہ": 5342,
      "روڈ": 5343,
      "دیمپانی": 5344,
      "اجازت": 5345,
      "بہت": 5346,
      "فرنٹ": 5347,
      "##جاه": 5348,
      "تواری": 5349,
      "##ئرمین": 5350,
      "کشیت": 5351,
      "چکانی": 5352,
      "ناشر": 5353,
      "ساپ": 5354,
      "پسنی": 5355,
      "مہمد": 5356,
      "ماہتاک": 5357,
      "کلم": 5358,
      "##طان": 5359,
      "اخر": 5360,
      "##ژنا": 5361,
      "ائیا": 5362,
      "ترندی": 5363,
      "طال": 5364,
      "ایمن": 5365,
      "##یشی": 5366,
      "##mer": 5367,
      "تلگرام": 5368,
      "پیچ": 5369,
      "##ond": 5370,
      "one": 5371,
      "He": 5372,
      "en": 5373,
      "اھد": 5374,
      "فوجی": 5375,
      "رندءَ": 5376,
      "قیم": 5377,
      "پہنات": 5378,
      "شموش": 5379,
      "کوٹ": 5380,
      "ساجد": 5381,
      "##ry": 5382,
      "گالبند": 5383,
      "قلات": 5384,
      "has": 5385,
      "بیرانی": 5386,
      "کمپنی": 5387,
      "##دم": 5388,
      "مزنین": 5389,
      "یوس": 5390,
      "گیپت": 5391,
      "دعا": 5392,
      "باج": 5393,
      "براھ": 5394,
      "کوہنیں": 5395,
      "##جھتی": 5396,
      "کارمنداں": 5397,
      "شئی": 5398,
      "##نسی": 5399,
      "##امر": 5400,
      "کپتگیں": 5401,
      "کلی": 5402,
      "##کءَ": 5403,
      "کمشن": 5404,
      "##ough": 5405,
      "Th": 5406,
      "لنک": 5407,
      "خبر": 5408,
      "حاجی": 5409,
      "قران": 5410,
      "مارگ": 5411,
      "خیر": 5412,
      "کنوکاں": 5413,
      "کازی": 5414,
      "مردین": 5415,
      "وتن": 5416,
      "کارمرد": 5417,
      "وهدے": 5418,
      "##ans": 5419,
      "یکجھتی": 5420,
      "گپءَ": 5421,
      "معاشی": 5422,
      "موب": 5423,
      "ہوش": 5424,
      "دزگیری": 5425,
      "اسمبلی": 5426,
      "##رءِ": 5427,
      "per": 5428,
      "کندگ": 5429,
      "چیءَ": 5430,
      "قدیر": 5431,
      "پئی": 5432,
      "##عی": 5433,
      "چکاں": 5434,
      "##ڑو": 5435,
      "ھزدار": 5436,
      "##وکانی": 5437,
      "ورنائیں": 5438,
      "ایچ": 5439,
      "##ائد": 5440,
      "دامن": 5441,
      "میز": 5442,
      "نگی": 5443,
      "توپ": 5444,
      "been": 5445,
      "پہم": 5446,
      "ہپت": 5447,
      "دستی": 5448,
      "##ime": 5449,
      "ھاسیں": 5450,
      "زندان": 5451,
      "بروت": 5452,
      "فق": 5453,
      "نئیت": 5454,
      "یو": 5455,
      "##زیز": 5456,
      "سنگر": 5457,
      "صبا": 5458,
      "کارگس": 5459,
      "two": 5460,
      "ہرکس": 5461,
      "ازادی": 5462,
      "داریں": 5463,
      "مرت": 5464,
      "گوئشت": 5465,
      "ادارھانی": 5466,
      "وانگی": 5467,
      "درمل": 5468,
      "سسا": 5469,
      "اوشتوک": 5470,
      "پرد": 5471,
      "##داب": 5472,
      "گلانی": 5473,
      "دما": 5474,
      "##فار": 5475,
      "درپ": 5476,
      "##انیت": 5477,
      "##وق": 5478,
      "نصیب": 5479,
      "ننگ": 5480,
      "اکتوبر": 5481,
      "ہس": 5482,
      "دؤر": 5483,
      "گدان": 5484,
      "کارکن": 5485,
      "اینچو": 5486,
      "انتظ": 5487,
      "مرچاں": 5488,
      "اسلامی": 5489,
      "سانگ": 5490,
      "شتاں": 5491,
      "باروءَ": 5492,
      "گیا": 5493,
      "بدیں": 5494,
      "Al": 5495,
      "##ree": 5496,
      "##ound": 5497,
      "##ile": 5498,
      "صدی": 5499,
      "چیئرمین": 5500,
      "سگریٹ": 5501,
      "##land": 5502,
      "ماھتاک": 5503,
      "گورءَ": 5504,
      "ٹیم": 5505,
      "چول": 5506,
      "رئی": 5507,
      "sc": 5508,
      "پھل": 5509,
      "زالبولانی": 5510,
      "##uring": 5511,
      "درج": 5512,
      "گلگ": 5513,
      "کمشنر": 5514,
      "جنکے": 5515,
      "##حمد": 5516,
      "ایوکیں": 5517,
      "دلوت": 5518,
      "مسک": 5519,
      "وانگجاہ": 5520,
      "لیویز": 5521,
      "یوک": 5522,
      "انساپ": 5523,
      "گندیت": 5524,
      "پانزدہ": 5525,
      "توکا": 5526,
      "شود": 5527,
      "یکبرے": 5528,
      "##uc": 5529,
      "comp": 5530,
      "حاصل": 5531,
      "##end": 5532,
      "نزیکی": 5533,
      "کنٹرول": 5534,
      "##ory": 5535,
      "جما": 5536,
      "اپریل": 5537,
      "##ely": 5538,
      "پنت": 5539,
      "##ئن": 5540,
      "گڈسر": 5541,
      "نمیران": 5542,
      "مذہب": 5543,
      "تہاری": 5544,
      "##لیٹ": 5545,
      "##ition": 5546,
      "ازمی": 5547,
      "دریگ": 5548,
      "نئی": 5549,
      "##ریہ": 5550,
      "تحریک": 5551,
      "##ولت": 5552,
      "##ance": 5553,
      "بیگا": 5554,
      "ارد": 5555,
      "کارءَ": 5556,
      "تش": 5557,
      "اوپار": 5558,
      "زبانا": 5559,
      "واھند": 5560,
      "##ابر": 5561,
      "##ations": 5562,
      "dis": 5563,
      "##راز": 5564,
      "مرز": 5565,
      "جنیں": 5566,
      "عبدالح": 5567,
      "لیگ": 5568,
      "بلکن": 5569,
      "this": 5570,
      "##دین": 5571,
      "روچءَ": 5572,
      "دشتیاری": 5573,
      "افغانستان": 5574,
      "##واڈ": 5575,
      "bec": 5576,
      "دوز": 5577,
      "ڈپ": 5578,
      "حب": 5579,
      "هال": 5580,
      "##ang": 5581,
      "پنجاب": 5582,
      "تھر": 5583,
      "ھمس": 5584,
      "مزاح": 5585,
      "all": 5586,
      "شخص": 5587,
      "##ثہ": 5588,
      "مردمان": 5589,
      "ناسر": 5590,
      "موہ": 5591,
      "نت": 5592,
      "app": 5593,
      "چیل": 5594,
      "##iz": 5595,
      "درگیج": 5596,
      "ترکی": 5597,
      "##ردستی": 5598,
      "اتکگیں": 5599,
      "دمانے": 5600,
      "کلاک": 5601,
      "خود": 5602,
      "مسلم": 5603,
      "بھتام": 5604,
      "##ey": 5605,
      "زیارت": 5606,
      "##دائی": 5607,
      "##ربر": 5608,
      "انگور": 5609,
      "واہگ": 5610,
      "تور": 5611,
      "سالے": 5612,
      "برد": 5613,
      "ہوں": 5614,
      "ہون": 5615,
      "##باد": 5616,
      "##ورٹی": 5617,
      "نکش": 5618,
      "کرنے": 5619,
      "دلم": 5620,
      "شا": 5621,
      "رسم": 5622,
      "ھمائی": 5623,
      "##اجتائیں": 5624,
      "ھاس": 5625,
      "##نو": 5626,
      "نزاناں": 5627,
      "مرچیگیں": 5628,
      "قبر": 5629,
      "پیل": 5630,
      "رچ": 5631,
      "##ئور": 5632,
      "بکناں": 5633,
      "##ach": 5634,
      "ہائی": 5635,
      "روچانی": 5636,
      "کوشست": 5637,
      "کشار": 5638,
      "ھواری": 5639,
      "مومن": 5640,
      "وانینگ": 5641,
      "دانک": 5642,
      "فل": 5643,
      "بدئے": 5644,
      "ازمانکانی": 5645,
      "بگش": 5646,
      "شیش": 5647,
      "زندے": 5648,
      "##الوجی": 5649,
      "لوگءَ": 5650,
      "مگ": 5651,
      "جولائی": 5652,
      "##ابت": 5653,
      "دیدگ": 5654,
      "گشاں": 5655,
      "پارسی": 5656,
      "ہوئے": 5657,
      "بنداں": 5658,
      "##ade": 5659,
      "گچینی": 5660,
      "مھروان": 5661,
      "رگ": 5662,
      "play": 5663,
      "##ناک": 5664,
      "ہوٹل": 5665,
      "پرے": 5666,
      "ھنچیں": 5667,
      "##یری": 5668,
      "##lud": 5669,
      "who": 5670,
      "سوال": 5671,
      "ملکاں": 5672,
      "فروری": 5673,
      "ڈولیں": 5674,
      "##ئگا": 5675,
      "دوئی": 5676,
      "وہدیکہ": 5677,
      "مرزی": 5678,
      "##بات": 5679,
      "تاکت": 5680,
      "برجاھیں": 5681,
      "جتاجتائیں": 5682,
      "واحد": 5683,
      "پارلیم": 5684,
      "میک": 5685,
      "سمب": 5686,
      "وڑءَ": 5687,
      "بعد": 5688,
      "##ٹک": 5689,
      "##ینڈ": 5690,
      "##ric": 5691,
      "گیری": 5692,
      "des": 5693,
      "##غا": 5694,
      "زہیر": 5695,
      "ag": 5696,
      "they": 5697,
      "year": 5698,
      "زئی": 5699,
      "اورت": 5700,
      "فض": 5701,
      "ردانک": 5702,
      "دچار": 5703,
      "پاب": 5704,
      "##ائم": 5705,
      "باھ": 5706,
      "مود": 5707,
      "گچکی": 5708,
      "ممکن": 5709,
      "اسمان": 5710,
      "پیریں": 5711,
      "سپت": 5712,
      "##وگر": 5713,
      "سرکماش": 5714,
      "چہر": 5715,
      "##شر": 5716,
      "سرھال": 5717,
      "ھار": 5718,
      "ھچبر": 5719,
      "##ڑک": 5720,
      "##یرانیں": 5721,
      "ستمبر": 5722,
      "امد": 5723,
      "##میت": 5724,
      "محکم": 5725,
      "دوستیں": 5726,
      "متلب": 5727,
      "ٹہ": 5728,
      "گراب": 5729,
      "کیل": 5730,
      "پدریچ": 5731,
      "اروس": 5732,
      "مور": 5733,
      "ادینک": 5734,
      "تئ": 5735,
      "بڑ": 5736,
      "چارمی": 5737,
      "کمیشن": 5738,
      "##انگی": 5739,
      "شبین": 5740,
      "سنچ": 5741,
      "نادراھ": 5742,
      "حضرت": 5743,
      "##فظ": 5744,
      "برمش": 5745,
      "یوسف": 5746,
      "داروکیں": 5747,
      "##بلوچ": 5748,
      "گہار": 5749,
      "پوشاک": 5750,
      "man": 5751,
      "other": 5752,
      "قی": 5753,
      "بلوچے": 5754,
      "دوازدہ": 5755,
      "بران": 5756,
      "گیوار": 5757,
      "تعلق": 5758,
      "It": 5759,
      "دیت": 5760,
      "پاگ": 5761,
      "چارت": 5762,
      "پوست": 5763,
      "ہار": 5764,
      "##ها": 5765,
      "نیوز": 5766,
      "واقعہ": 5767,
      "اسکواڈ": 5768,
      "استیں": 5769,
      "##pr": 5770,
      "ہرچ": 5771,
      "ریس": 5772,
      "ڈیم": 5773,
      "##ناکیں": 5774,
      "##غیں": 5775,
      "وکیل": 5776,
      "کنوکانی": 5777,
      "چادر": 5778,
      "کرار": 5779,
      "وہدءَ": 5780,
      "تاکبند": 5781,
      "اکر": 5782,
      "##زور": 5783,
      "پہل": 5784,
      "after": 5785,
      "اسرائیل": 5786,
      "شئے": 5787,
      "اؤرتگ": 5788,
      "گوھار": 5789,
      "پیگ": 5790,
      "گوشان": 5791,
      "گریوگ": 5792,
      "ناب": 5793,
      "حقیقت": 5794,
      "نامءَ": 5795,
      "پیمءَ": 5796,
      "##هی": 5797,
      "الک": 5798,
      "قسم": 5799,
      "ہبر": 5800,
      "رسگ": 5801,
      "تپنگ": 5802,
      "لوٹوکیں": 5803,
      "مروچ": 5804,
      "کونسل": 5805,
      "ھپتگ": 5806,
      "##وھد": 5807,
      "##act": 5808,
      "کاہ": 5809,
      "ser": 5810,
      "ھا": 5811,
      "##زانت": 5812,
      "گستا": 5813,
      "عو": 5814,
      "##ib": 5815,
      "ملکانی": 5816,
      "شمار": 5817,
      "پیشی": 5818,
      "انصاف": 5819,
      "چنکس": 5820,
      "دانش": 5821,
      "کانود": 5822,
      "لمب": 5823,
      "ٹال": 5824,
      "سوبین": 5825,
      "چونائی": 5826,
      "چکے": 5827,
      "معلوم": 5828,
      "دێ": 5829,
      "احس": 5830,
      "نفسی": 5831,
      "عاب": 5832,
      "چینی": 5833,
      "##ہور": 5834,
      "قبیلہ": 5835,
      "ھمدا": 5836,
      "انگر": 5837,
      "گلاں": 5838,
      "سائنسی": 5839,
      "لۆ": 5840,
      "اسٹی": 5841,
      "##ٹن": 5842,
      "##ult": 5843,
      "ود": 5844,
      "نر": 5845,
      "پادانی": 5846,
      "over": 5847,
      "off": 5848,
      "سیٹ": 5849,
      "##ائین": 5850,
      "##کرت": 5851,
      "##ount": 5852,
      "##اند": 5853,
      "##ite": 5854,
      "##ئند": 5855,
      "##حاق": 5856,
      "دانگ": 5857,
      "im": 5858,
      "##تری": 5859,
      "کمیون": 5860,
      "ڈیک": 5861,
      "ایا": 5862,
      "ایج": 5863,
      "طور": 5864,
      "تاھ": 5865,
      "لانچ": 5866,
      "الیک": 5867,
      "دودمان": 5868,
      "کرنا": 5869,
      "##نوں": 5870,
      "پروفیسر": 5871,
      "یازدہ": 5872,
      "کیمپ": 5873,
      "روایت": 5874,
      "انہی": 5875,
      "اؤرت": 5876,
      "بوگی": 5877,
      "سہر": 5878,
      "##ظم": 5879,
      "بندش": 5880,
      "نون": 5881,
      "چڑ": 5882,
      "##شید": 5883,
      "دائم": 5884,
      "part": 5885,
      "ڈل": 5886,
      "ابرم": 5887,
      "##جو": 5888,
      "تہار": 5889,
      "ٹیکن": 5890,
      "##یتھ": 5891,
      "دزکپتگ": 5892,
      "دستگ": 5893,
      "یاں": 5894,
      "دوبر": 5895,
      "کینگ": 5896,
      "مساپ": 5897,
      "ھندوستان": 5898,
      "بلیدہ": 5899,
      "برجا": 5900,
      "سرگ": 5901,
      "پیسرا": 5902,
      "شیخ": 5903,
      "includ": 5904,
      "دیو": 5905,
      "گوما": 5906,
      "بستگیں": 5907,
      "##وٹر": 5908,
      "بزگی": 5909,
      "برزیں": 5910,
      "سرمچارانی": 5911,
      "موبائل": 5912,
      "عن": 5913,
      "پکار": 5914,
      "ترین": 5915,
      "##urn": 5916,
      "حی": 5917,
      "عالم": 5918,
      "##اشت": 5919,
      "پانگس": 5920,
      "لج": 5921,
      "##طی": 5922,
      "برابر": 5923,
      "ستا": 5924,
      "ندکار": 5925,
      "پلہ": 5926,
      "پنڈ": 5927,
      "##over": 5928,
      "رجانکار": 5929,
      "نیا": 5930,
      "##ark": 5931,
      "گونڈیں": 5932,
      "چاردہ": 5933,
      "سودا": 5934,
      "سبک": 5935,
      "##ریس": 5936,
      "امریکی": 5937,
      "شار": 5938,
      "تق": 5939,
      "نوشتہ": 5940,
      "ساه": 5941,
      "زانشت": 5942,
      "##ik": 5943,
      "جذ": 5944,
      "روح": 5945,
      "نیت": 5946,
      "وتگ": 5947,
      "att": 5948,
      "ناہ": 5949,
      "غزل": 5950,
      "دیوانے": 5951,
      "ایوکءَ": 5952,
      "هبر": 5953,
      "##انس": 5954,
      "##الت": 5955,
      "جناں": 5956,
      "سرین": 5957,
      "دیگر": 5958,
      "##انء": 5959,
      "تعلیم": 5960,
      "ہنچ": 5961,
      "##وسی": 5962,
      "##ائن": 5963,
      "us": 5964,
      "لوگانی": 5965,
      "ھندی": 5966,
      "رزا": 5967,
      "عزیز": 5968,
      "پولی": 5969,
      "وام": 5970,
      "ولی": 5971,
      "گواہ": 5972,
      "شوک": 5973,
      "زانتی": 5974,
      "ہونا": 5975,
      "out": 5976,
      "گندئے": 5977,
      "##مود": 5978,
      "ھنر": 5979,
      "##wn": 5980,
      "داراں": 5981,
      "##جاھاں": 5982,
      "رؤت": 5983,
      "##قا": 5984,
      "##ندر": 5985,
      "##نجو": 5986,
      "ویبجاہ": 5987,
      "کسمانک": 5988,
      "بئیں": 5989,
      "ھاترءَ": 5990,
      "راجمان": 5991,
      "##کری": 5992,
      "##کسی": 5993,
      "##eas": 5994,
      "##گاہ": 5995,
      "##ندے": 5996,
      "جیئند": 5997,
      "ترمپ": 5998,
      "##تم": 5999,
      "چمشانک": 6000,
      "انہ": 6001,
      "رھادگ": 6002,
      "تاریخی": 6003,
      "پاٹی": 6004,
      "حوال": 6005,
      "ایکس": 6006,
      "##ضہ": 6007,
      "ایراد": 6008,
      "پرک": 6009,
      "سچ": 6010,
      "سنی": 6011,
      "دزگ": 6012,
      "کورٹ": 6013,
      "تکان": 6014,
      "دنز": 6015,
      "سائی": 6016,
      "عج": 6017,
      "##ice": 6018,
      "اتگیں": 6019,
      "سست": 6020,
      "سعید": 6021,
      "قول": 6022,
      "میری": 6023,
      "ضل": 6024,
      "مردمی": 6025,
      "سیاھیں": 6026,
      "##ember": 6027,
      "شھدربر": 6028,
      "صنعت": 6029,
      "استع": 6030,
      "تنک": 6031,
      "##ace": 6032,
      "دلب": 6033,
      "چارات": 6034,
      "زندگیں": 6035,
      "قدیم": 6036,
      "زباناں": 6037,
      "زیت": 6038,
      "##ڑہ": 6039,
      "ہاترا": 6040,
      "پیرک": 6041,
      "امباز": 6042,
      "پرم": 6043,
      "شرف": 6044,
      "##ents": 6045,
      "##ریب": 6046,
      "##طہ": 6047,
      "گھار": 6048,
      "ئا": 6049,
      "##اللہ": 6050,
      "شاعرے": 6051,
      "##ng": 6052,
      "لبزانت": 6053,
      "##ens": 6054,
      "نیکراھی": 6055,
      "تچکیں": 6056,
      "خل": 6057,
      "کرتے": 6058,
      "زد": 6059,
      "شہد": 6060,
      "طب": 6061,
      "##وث": 6062,
      "شست": 6063,
      "##ائر": 6064,
      "ھانی": 6065,
      "توسی": 6066,
      "زورگیر": 6067,
      "موس": 6068,
      "یکج": 6069,
      "ارشاں": 6070,
      "رۆچ": 6071,
      "##ھینگ": 6072,
      "##راک": 6073,
      "سئی": 6074,
      "چیک": 6075,
      "نامدار": 6076,
      "سارت": 6077,
      "##پیں": 6078,
      "وانند": 6079,
      "دروشمے": 6080,
      "زاھر": 6081,
      "زات": 6082,
      "سالانی": 6083,
      "زوریت": 6084,
      "ایشان": 6085,
      "pre": 6086,
      "##الدینی": 6087,
      "up": 6088,
      "عق": 6089,
      "ہکانی": 6090,
      "##وکے": 6091,
      "دستیگ": 6092,
      "##ردستیں": 6093,
      "اسی": 6094,
      "راھے": 6095,
      "مالیات": 6096,
      "سارتیں": 6097,
      "مصر": 6098,
      "پرز": 6099,
      "ره": 6100,
      "##تو": 6101,
      "ائید": 6102,
      "جیل": 6103,
      "دب": 6104,
      "ev": 6105,
      "##غاں": 6106,
      "##ind": 6107,
      "گؤ": 6108,
      "time": 6109,
      "انور": 6110,
      "روژن": 6111,
      "درکپت": 6112,
      "رسانکدراں": 6113,
      "دلیل": 6114,
      "سٹ": 6115,
      "ناماں": 6116,
      "پیسری": 6117,
      "##nder": 6118,
      "دستا": 6119,
      "کچھ": 6120,
      "باہ": 6121,
      "##وءَ": 6122,
      "پاکیں": 6123,
      "جمالدینی": 6124,
      "into": 6125,
      "مون": 6126,
      "##لک": 6127,
      "بلد": 6128,
      "نامہ": 6129,
      "گشے": 6130,
      "قوت": 6131,
      "له": 6132,
      "جتائی": 6133,
      "وشبو": 6134,
      "##پتری": 6135,
      "حون": 6136,
      "بوگءَ": 6137,
      "##یز": 6138,
      "لوٹت": 6139,
      "ھیران": 6140,
      "نامے": 6141,
      "مقصد": 6142,
      "بگل": 6143,
      "انتز": 6144,
      "قلم": 6145,
      "شعرانی": 6146,
      "اشوبی": 6147,
      "ڈپٹی": 6148,
      "اناگ": 6149,
      "رحم": 6150,
      "##پس": 6151,
      "##تءَ": 6152,
      "زیرگ": 6153,
      "رسی": 6154,
      "##we": 6155,
      "لیے": 6156,
      "بنیادم": 6157,
      "##شہ": 6158,
      "جاہے": 6159,
      "##ازل": 6160,
      "تہء": 6161,
      "پلگار": 6162,
      "##اوت": 6163,
      "راشد": 6164,
      "دلجمی": 6165,
      "وپس": 6166,
      "##ردیں": 6167,
      "ھستی": 6168,
      "گوک": 6169,
      "##ریڈ": 6170,
      "اومان": 6171,
      "ورنایانی": 6172,
      "دپءَ": 6173,
      "ڈر": 6174,
      "خاصیں": 6175,
      "صف": 6176,
      "##چینی": 6177,
      "ساچشتی": 6178,
      "نقص": 6179,
      "ھردو": 6180,
      "دیا": 6181,
      "امین": 6182,
      "شھری": 6183,
      "زری": 6184,
      "روا": 6185,
      "سرے": 6186,
      "حاترا": 6187,
      "##نگءِ": 6188,
      "##وءِ": 6189,
      "##ینا": 6190,
      "##ail": 6191,
      "##غی": 6192,
      "##oy": 6193,
      "اروا": 6194,
      "##تیار": 6195,
      "##ose": 6196,
      "شھدگ": 6197,
      "نیں": 6198,
      "پہک": 6199,
      "اندیم": 6200,
      "##هے": 6201,
      "ٹیکنالوجی": 6202,
      "نویسگ": 6203,
      "نادراھجاہ": 6204,
      "گوریچ": 6205,
      "comm": 6206,
      "##ادری": 6207,
      "گوشدار": 6208,
      "صوب": 6209,
      "##پاں": 6210,
      "نمیرانیں": 6211,
      "##کٹ": 6212,
      "نزیکیں": 6213,
      "مکسد": 6214,
      "ساعت": 6215,
      "رپت": 6216,
      "she": 6217,
      "##amp": 6218,
      "بٹ": 6219,
      "##زن": 6220,
      "توامیں": 6221,
      "دیکھ": 6222,
      "ہیر": 6223,
      "##ڈل": 6224,
      "##یءِ": 6225,
      "##شیت": 6226,
      "عیس": 6227,
      "بائد": 6228,
      "گلہ": 6229,
      "حرکت": 6230,
      "بئیگ": 6231,
      "زنڈ": 6232,
      "سف": 6233,
      "نێ": 6234,
      "کایاں": 6235,
      "would": 6236,
      "دمک": 6237,
      "##ward": 6238,
      "کردے": 6239,
      "ضرورت": 6240,
      "زوال": 6241,
      "ہمد": 6242,
      "On": 6243,
      "عیسی": 6244,
      "فون": 6245,
      "##ied": 6246,
      "##دارے": 6247,
      "بنجاہ": 6248,
      "تاگ": 6249,
      "##oin": 6250,
      "پونز": 6251,
      "پندل": 6252,
      "بہار": 6253,
      "کربانی": 6254,
      "##te": 6255,
      "##وخ": 6256,
      "ابا": 6257,
      "پترت": 6258,
      "بینک": 6259,
      "##ائیت": 6260,
      "کپوت": 6261,
      "شپے": 6262,
      "کتاباں": 6263,
      "بئی": 6264,
      "دف": 6265,
      "ردیں": 6266,
      "##man": 6267,
      "more": 6268,
      "گیاب": 6269,
      "##able": 6270,
      "##rough": 6271,
      "##امرزی": 6272,
      "سربوتگیں": 6273,
      "ڈرائی": 6274,
      "زیادہ": 6275,
      "مہناز": 6276,
      "صوبہ": 6277,
      "اہوال": 6278,
      "گھگیری": 6279,
      "سرزمین": 6280,
      "بوتگاں": 6281,
      "پلانی": 6282,
      "فکشن": 6283,
      "##ings": 6284,
      "سلامت": 6285,
      "اندرءَ": 6286,
      "##tern": 6287,
      "##شاہ": 6288,
      "پورا": 6289,
      "میدان": 6290,
      "استمان": 6291,
      "##یتکگ": 6292,
      "درشانداب": 6293,
      "مطلب": 6294,
      "بوتین": 6295,
      "کوپگ": 6296,
      "بندر": 6297,
      "محبت": 6298,
      "پرواز": 6299,
      "رؤگ": 6300,
      "دگے": 6301,
      "شوم": 6302,
      "ظلم": 6303,
      "چۆ": 6304,
      "گوشدارگ": 6305,
      "وپت": 6306,
      "گندگءَ": 6307,
      "دزی": 6308,
      "زامران": 6309,
      "جهد": 6310,
      "##ارک": 6311,
      "##ited": 6312,
      "we": 6313,
      "شرتریں": 6314,
      "کانفرنس": 6315,
      "##ever": 6316,
      "مارکی": 6317,
      "اھگ": 6318,
      "باسکاں": 6319,
      "ناپ": 6320,
      "مدتے": 6321,
      "##ason": 6322,
      "غنی": 6323,
      "باوست": 6324,
      "پرپٹ": 6325,
      "پروگرام": 6326,
      "زبانءَ": 6327,
      "مذہبی": 6328,
      "جاہاں": 6329,
      "اسٹوڈ": 6330,
      "بگندئے": 6331,
      "لنگ": 6332,
      "##یکس": 6333,
      "##ہم": 6334,
      "ترجم": 6335,
      "##ائینت": 6336,
      "##rib": 6337,
      "him": 6338,
      "فائدہ": 6339,
      "ناصر": 6340,
      "پرشت": 6341,
      "وسی": 6342,
      "##انکیں": 6343,
      "##ورسز": 6344,
      "قانون": 6345,
      "##ors": 6346,
      "شہری": 6347,
      "Un": 6348,
      "بازینے": 6349,
      "مھمان": 6350,
      "گوار": 6351,
      "##یسٹ": 6352,
      "یکجہ": 6353,
      "کشندہ": 6354,
      "گاڑیانی": 6355,
      "جمع": 6356,
      "جماعت": 6357,
      "رضا": 6358,
      "کیف": 6359,
      "ظفر": 6360,
      "جنزان": 6361,
      "گلے": 6362,
      "وقت": 6363,
      "##رابی": 6364,
      "سروز": 6365,
      "حیران": 6366,
      "##ood": 6367,
      "موکل": 6368,
      "جمی": 6369,
      "اشیءِ": 6370,
      "کواس": 6371,
      "##سرا": 6372,
      "بیوکیں": 6373,
      "عار": 6374,
      "کریمہ": 6375,
      "تاھیر": 6376,
      "مض": 6377,
      "##les": 6378,
      "##بلی": 6379,
      "مشت": 6380,
      "##رنگ": 6381,
      "عام": 6382,
      "سبزیں": 6383,
      "موسی": 6384,
      "cent": 6385,
      "سوز": 6386,
      "فقیر": 6387,
      "##مست": 6388,
      "##ۆک": 6389,
      "تخلی": 6390,
      "روسی": 6391,
      "##باں": 6392,
      "ھستیں": 6393,
      "وڈیں": 6394,
      "مئیں": 6395,
      "ہاشمی": 6396,
      "##ینچو": 6397,
      "علمی": 6398,
      "##اہاں": 6399,
      "سوس": 6400,
      "ابیت": 6401,
      "اؤکیں": 6402,
      "لوٹگ": 6403,
      "پروشگ": 6404,
      "یکجہتی": 6405,
      "##ild": 6406,
      "بابا": 6407,
      "شاه": 6408,
      "نزان": 6409,
      "فضل": 6410,
      "لئی": 6411,
      "##شنل": 6412,
      "##داشتگ": 6413,
      "مف": 6414,
      "##ix": 6415,
      "درونت": 6416,
      "##جنگ": 6417,
      "##نٹس": 6418,
      "سسٹ": 6419,
      "زیبا": 6420,
      "##ction": 6421,
      "##ock": 6422,
      "ہوتا": 6423,
      "##باب": 6424,
      "ھنچوش": 6425,
      "##ces": 6426,
      "##سٹر": 6427,
      "بازی": 6428,
      "ادارھاں": 6429,
      "نبشتگیں": 6430,
      "گچینکاری": 6431,
      "شبیر": 6432,
      "کنغ": 6433,
      "##ئت": 6434,
      "work": 6435,
      "##چے": 6436,
      "سئیں": 6437,
      "##ates": 6438,
      "علاج": 6439,
      "شھدربرجاہ": 6440,
      "نواز": 6441,
      "مہکم": 6442,
      "چاریت": 6443,
      "##نامہ": 6444,
      "کمالان": 6445,
      "##inal": 6446,
      "سمجھ": 6447,
      "##ینانی": 6448,
      "اسپیتیں": 6449,
      "##ious": 6450,
      "زین": 6451,
      "ماح": 6452,
      "##نیت": 6453,
      "##ئگی": 6454,
      "گشی": 6455,
      "داخ": 6456,
      "##ev": 6457,
      "ہندوستان": 6458,
      "لاہ": 6459,
      "ہدا": 6460,
      "##ath": 6461,
      "تپاس": 6462,
      "##الب": 6463,
      "تاکہ": 6464,
      "##ریف": 6465,
      "##one": 6466,
      "بزگیں": 6467,
      "##old": 6468,
      "تمام": 6469,
      "زار": 6470,
      "مشکے": 6471,
      "تنق": 6472,
      "##دھ": 6473,
      "فرق": 6474,
      "دلبڈی": 6475,
      "مے": 6476,
      "گلی": 6477,
      "جمہ": 6478,
      "اخلاقی": 6479,
      "توارے": 6480,
      "سوگند": 6481,
      "لوگاں": 6482,
      "گالاں": 6483,
      "قرار": 6484,
      "لبزاں": 6485,
      "پدی": 6486,
      "کپان": 6487,
      "ھزاراں": 6488,
      "##سلام": 6489,
      "پھاز": 6490,
      "گیشینگ": 6491,
      "چتور": 6492,
      "عاش": 6493,
      "بدنت": 6494,
      "چکچینی": 6495,
      "##ندن": 6496,
      "سلمان": 6497,
      "درداں": 6498,
      "الرح": 6499,
      "لوٹانی": 6500,
      "شات": 6501,
      "ڈیتھ": 6502,
      "نائ": 6503,
      "جاورھال": 6504,
      "زھری": 6505,
      "وائرس": 6506,
      "انتزامیہ": 6507,
      "ذاتی": 6508,
      "چوٹ": 6509,
      "ھوٹل": 6510,
      "بلوچءِ": 6511,
      "برانز": 6512,
      "کوھانی": 6513,
      "زیان": 6514,
      "راک": 6515,
      "نزینک": 6516,
      "جاو": 6517,
      "اسحاق": 6518,
      "منظور": 6519,
      "ایوب": 6520,
      "امریکا": 6521,
      "نادراہی": 6522,
      "زیک": 6523,
      "گلاب": 6524,
      "کلام": 6525,
      "زرمبش": 6526,
      "##round": 6527,
      "##ہان": 6528,
      "##غیر": 6529,
      "گوشنت": 6530,
      "گرمیں": 6531,
      "ھمیشی": 6532,
      "فت": 6533,
      "ون": 6534,
      "کشیں": 6535,
      "##iss": 6536,
      "##port": 6537,
      "نبی": 6538,
      "وانندہ": 6539,
      "سنگین": 6540,
      "پرمان": 6541,
      "گوشئے": 6542,
      "رندی": 6543,
      "رئیس": 6544,
      "##ویں": 6545,
      "برط": 6546,
      "نوبت": 6547,
      "لائن": 6548,
      "نقصان": 6549,
      "دولت": 6550,
      "نوزدہ": 6551,
      "##نچک": 6552,
      "دژمنیں": 6553,
      "##وص": 6554,
      "##وکہ": 6555,
      "##خی": 6556,
      "پشتون": 6557,
      "انقل": 6558,
      "معام": 6559,
      "##رائ": 6560,
      "حصہ": 6561,
      "##دل": 6562,
      "##ss": 6563,
      "اسود": 6564,
      "مکت": 6565,
      "اگدہ": 6566,
      "جگر": 6567,
      "چنگ": 6568,
      "##تال": 6569,
      "انٹرنی": 6570,
      "ٹاہ": 6571,
      "خلاف": 6572,
      "صاف": 6573,
      "ووٹ": 6574,
      "عملی": 6575,
      "##ake": 6576,
      "Ar": 6577,
      "تپاوت": 6578,
      "امروز": 6579,
      "##ورے": 6580,
      "بێ": 6581,
      "فن": 6582,
      "ڈھ": 6583,
      "##کرتگ": 6584,
      "زرباری": 6585,
      "چندے": 6586,
      "تان": 6587,
      "ھاں": 6588,
      "##زال": 6589,
      "نیمون": 6590,
      "ریڈیو": 6591,
      "ھج": 6592,
      "گردن": 6593,
      "پازل": 6594,
      "دگرے": 6595,
      "سنت": 6596,
      "##داراں": 6597,
      "جاڑی": 6598,
      "them": 6599,
      "باپاری": 6600,
      "فدا": 6601,
      "ڈیہہ": 6602,
      "وتگڑیں": 6603,
      "لوگے": 6604,
      "ہنچو": 6605,
      "گوازینتگ": 6606,
      "sec": 6607,
      "ثابت": 6608,
      "قاسم": 6609,
      "##ثی": 6610,
      "نظم": 6611,
      "بژن": 6612,
      "##اشاد": 6613,
      "بوہان": 6614,
      "خال": 6615,
      "دلبند": 6616,
      "تچان": 6617,
      "چرائی": 6618,
      "مانگ": 6619,
      "سریں": 6620,
      "خاندان": 6621,
      "انگہ": 6622,
      "Fr": 6623,
      "##نل": 6624,
      "تجربہ": 6625,
      "##پور": 6626,
      "سبی": 6627,
      "نج": 6628,
      "مشین": 6629,
      "دوری": 6630,
      "bet": 6631,
      "یونین": 6632,
      "##ارات": 6633,
      "when": 6634,
      "song": 6635,
      "گواچن": 6636,
      "rem": 6637,
      "ظاہر": 6638,
      "چاچ": 6639,
      "جوش": 6640,
      "تہی": 6641,
      "ناچ": 6642,
      "پھم": 6643,
      "##aw": 6644,
      "کلگ": 6645,
      "ھنچو": 6646,
      "دینی": 6647,
      "کمتر": 6648,
      "##ep": 6649,
      "##ارڈ": 6650,
      "پدائی": 6651,
      "درنگ": 6652,
      "نسیم": 6653,
      "پائدگ": 6654,
      "لرز": 6655,
      "ورنائی": 6656,
      "سرگوست": 6657,
      "عظیم": 6658,
      "##form": 6659,
      "##fer": 6660,
      "##ual": 6661,
      "ear": 6662,
      "درچکانی": 6663,
      "##ick": 6664,
      "ہیال": 6665,
      "ربیدگی": 6666,
      "fe": 6667,
      "ڪہ": 6668,
      "##ted": 6669,
      "دمب": 6670,
      "انگتہ": 6671,
      "تچگ": 6672,
      "##مالی": 6673,
      "صفت": 6674,
      "##ubl": 6675,
      "بگو": 6676,
      "متا": 6677,
      "ھکم": 6678,
      "##نتگیں": 6679,
      "اهانی": 6680,
      "اژ": 6681,
      "چمے": 6682,
      "مغر": 6683,
      "وف": 6684,
      "##gan": 6685,
      "کولواہ": 6686,
      "تجربت": 6687,
      "مھکمیں": 6688,
      "ایی": 6689,
      "##اتیں": 6690,
      "کمپی": 6691,
      "باریگ": 6692,
      "##پا": 6693,
      "نیاتک": 6694,
      "ہیل": 6695,
      "توج": 6696,
      "پانک": 6697,
      "انوگیں": 6698,
      "kn": 6699,
      "کامیاب": 6700,
      "cons": 6701,
      "کدر": 6702,
      "##محمد": 6703,
      "زمستان": 6704,
      "پریات": 6705,
      "سمند": 6706,
      "##مین": 6707,
      "##راه": 6708,
      "ارزان": 6709,
      "نیاں": 6710,
      "جبر": 6711,
      "##مار": 6712,
      "لیٹ": 6713,
      "زنگ": 6714,
      "##aus": 6715,
      "زوراک": 6716,
      "ادینگ": 6717,
      "گوری": 6718,
      "کتیں": 6719,
      "شیئر": 6720,
      "اختر": 6721,
      "ادارہانی": 6722,
      "دماغ": 6723,
      "یعنی": 6724,
      "کنز": 6725,
      "کرز": 6726,
      "مسا": 6727,
      "درملکی": 6728,
      "بلا": 6729,
      "گوزان": 6730,
      "درخ": 6731,
      "##are": 6732,
      "غوث": 6733,
      "پیشانی": 6734,
      "اچہ": 6735,
      "بجٹ": 6736,
      "شروع": 6737,
      "موٹر": 6738,
      "ارواح": 6739,
      "کین": 6740,
      "نندوکیں": 6741,
      "ھپتاد": 6742,
      "ڈنگ": 6743,
      "most": 6744,
      "میڈیکل": 6745,
      "نکن": 6746,
      "سسٹم": 6747,
      "##واب": 6748,
      "نبیت": 6749,
      "حمید": 6750,
      "پشتی": 6751,
      "دوستین": 6752,
      "مئیل": 6753,
      "پان": 6754,
      "fl": 6755,
      "دگانی": 6756,
      "نیکی": 6757,
      "بوھیر": 6758,
      "during": 6759,
      "فٹ": 6760,
      "new": 6761,
      "عطاشاد": 6762,
      "زیمر": 6763,
      "ترسی": 6764,
      "کارمرزی": 6765,
      "دریں": 6766,
      "اسد": 6767,
      "##ارینگ": 6768,
      "سوبمندی": 6769,
      "زبہ": 6770,
      "غل": 6771,
      "بوتگنت": 6772,
      "ارشے": 6773,
      "بھرے": 6774,
      "حاصیں": 6775,
      "عیب": 6776,
      "دیمترا": 6777,
      "##orth": 6778,
      "پیغ": 6779,
      "میاں": 6780,
      "زالبولے": 6781,
      "لازم": 6782,
      "##وتگ": 6783,
      "رہے": 6784,
      "بائی": 6785,
      "##ilm": 6786,
      "پێ": 6787,
      "پلی": 6788,
      "ڈائ": 6789,
      "راب": 6790,
      "##ڈو": 6791,
      "مکہ": 6792,
      "کلو": 6793,
      "خانہ": 6794,
      "مروچیگیں": 6795,
      "راجمانی": 6796,
      "نیامءَ": 6797,
      "مبارکی": 6798,
      "##پتگیں": 6799,
      "ہندی": 6800,
      "بوٹ": 6801,
      "کوچگ": 6802,
      "##ters": 6803,
      "##ons": 6804,
      "پھنات": 6805,
      "only": 6806,
      "سراں": 6807,
      "گه": 6808,
      "بازین": 6809,
      "##نب": 6810,
      "روتاک": 6811,
      "جنئگ": 6812,
      "مناف": 6813,
      "شاز": 6814,
      "مزد": 6815,
      "ڈکال": 6816,
      "dec": 6817,
      "محمود": 6818,
      "دران": 6819,
      "خی": 6820,
      "بیب": 6821,
      "بزور": 6822,
      "شپاں": 6823,
      "ابدال": 6824,
      "مواد": 6825,
      "گلیں": 6826,
      "مولوی": 6827,
      "جاری": 6828,
      "##پورٹ": 6829,
      "ہمس": 6830,
      "لیا": 6831,
      "چات": 6832,
      "##وکیٹ": 6833,
      "ڈکھ": 6834,
      "کنے": 6835,
      "game": 6836,
      "چینچو": 6837,
      "پنچمی": 6838,
      "نیکیں": 6839,
      "اواں": 6840,
      "بالگ": 6841,
      "##ook": 6842,
      "##ug": 6843,
      "ایوکا": 6844,
      "سرباز": 6845,
      "اناگہ": 6846,
      "پلا": 6847,
      "افری": 6848,
      "اری": 6849,
      "لندن": 6850,
      "بیتاں": 6851,
      "کوه": 6852,
      "بنزہ": 6853,
      "حیر": 6854,
      "##ومنٹ": 6855,
      "نظریہ": 6856,
      "پشتءَ": 6857,
      "##گراں": 6858,
      "ھبرے": 6859,
      "السی": 6860,
      "مهر": 6861,
      "##صیل": 6862,
      "عابد": 6863,
      "ہوئی": 6864,
      "##ڑگ": 6865,
      "جنگول": 6866,
      "مارکس": 6867,
      "##واست": 6868,
      "راجدپتری": 6869,
      "##ved": 6870,
      "##att": 6871,
      "پلاں": 6872,
      "اڑے": 6873,
      "ملکے": 6874,
      "ھمنچو": 6875,
      "گۆن": 6876,
      "دلی": 6877,
      "کلاں": 6878,
      "علیہ": 6879,
      "زیبائیں": 6880,
      "##وستی": 6881,
      "تپاکی": 6882,
      "Mar": 6883,
      "سرحال": 6884,
      "##eld": 6885,
      "گہگیری": 6886,
      "اسما": 6887,
      "##oth": 6888,
      "##ہاں": 6889,
      "ہمگرنچ": 6890,
      "##یلے": 6891,
      "نویسی": 6892,
      "پروم": 6893,
      "المیں": 6894,
      "جاپ": 6895,
      "##راھ": 6896,
      "##reat": 6897,
      "پناہ": 6898,
      "درمی": 6899,
      "اسان": 6900,
      "مسئ": 6901,
      "تف": 6902,
      "وھ": 6903,
      "اشکتگ": 6904,
      "##way": 6905,
      "افسر": 6906,
      "نازک": 6907,
      "ہمرائی": 6908,
      "دپی": 6909,
      "مسال": 6910,
      "ھاران": 6911,
      "##ob": 6912,
      "جدید": 6913,
      "##ollow": 6914,
      "زید": 6915,
      "##ورانی": 6916,
      "جاتا": 6917,
      "ھمبل": 6918,
      "بندوکیں": 6919,
      "can": 6920,
      "صلی": 6921,
      "جاگہے": 6922,
      "کاب": 6923,
      "##ٹمنٹ": 6924,
      "##گیڈ": 6925,
      "##outh": 6926,
      "نوکی": 6927,
      "دیراں": 6928,
      "اندری": 6929,
      "##ween": 6930,
      "خاران": 6931,
      "وجہ": 6932,
      "بینگ": 6933,
      "زانش": 6934,
      "جنینے": 6935,
      "بجلی": 6936,
      "##حق": 6937,
      "##ٹھ": 6938,
      "ازار": 6939,
      "شاعرانی": 6940,
      "##ونڈ": 6941,
      "راجدوست": 6942,
      "قبول": 6943,
      "سعودی": 6944,
      "نزوریں": 6945,
      "گئی": 6946,
      "##سال": 6947,
      "##vel": 6948,
      "ریپ": 6949,
      "##صل": 6950,
      "شعور": 6951,
      "انسانے": 6952,
      "بادشاه": 6953,
      "میزان": 6954,
      "شرگدار": 6955,
      "چیرا": 6956,
      "گوازینت": 6957,
      "ناکہ": 6958,
      "تہہ": 6959,
      "گہرام": 6960,
      "کارمندانی": 6961,
      "حاکم": 6962,
      "عذ": 6963,
      "سرء": 6964,
      "##تان": 6965,
      "##ؤکیں": 6966,
      "جنگے": 6967,
      "زھگانی": 6968,
      "حقانی": 6969,
      "ضلع": 6970,
      "مب": 6971,
      "##ائٹی": 6972,
      "بیتہ": 6973,
      "##گوشی": 6974,
      "char": 6975,
      "تہذ": 6976,
      "##کانودی": 6977,
      "وران": 6978,
      "سیاھگ": 6979,
      "نیز": 6980,
      "علام": 6981,
      "کلک": 6982,
      "تهنا": 6983,
      "##اھیگ": 6984,
      "شعرءِ": 6985,
      "گژن": 6986,
      "##جنی": 6987,
      "بنیات": 6988,
      "لیاری": 6989,
      "اہوالکار": 6990,
      "احوال": 6991,
      "ھشکیں": 6992,
      "ایرانءِ": 6993,
      "مرتگیں": 6994,
      "تاہ": 6995,
      "انداز": 6996,
      "##ارءَ": 6997,
      "دئینت": 6998,
      "هل": 6999,
      "راہبند": 7000,
      "##راپ": 7001,
      "ارٹ": 7002,
      "پرواہ": 7003,
      "about": 7004,
      "حلک": 7005,
      "##نان": 7006,
      "جیڑھانی": 7007,
      "te": 7008,
      "ڈگارانی": 7009,
      "ھؤ": 7010,
      "ماتیں": 7011,
      "جنوک": 7012,
      "یوکرین": 7013,
      "##نءِ": 7014,
      "کمپیوٹر": 7015,
      "حانی": 7016,
      "حام": 7017,
      "season": 7018,
      "##ڈا": 7019,
      "ادیم": 7020,
      "لاہور": 7021,
      "تبک": 7022,
      "ماھیگ": 7023,
      "##ral": 7024,
      "##وٹی": 7025,
      "جستے": 7026,
      "ادمین": 7027,
      "وابانی": 7028,
      "##ational": 7029,
      "again": 7030,
      "سینی": 7031,
      "دلے": 7032,
      "بنیادی": 7033,
      "##تھ": 7034,
      "زانتکاری": 7035,
      "شتیں": 7036,
      "شئر": 7037,
      "##وارے": 7038,
      "دورءَ": 7039,
      "جاہءَ": 7040,
      "پبل": 7041,
      "اقبال": 7042,
      "روگی": 7043,
      "شپءَ": 7044,
      "صرف": 7045,
      "دراں": 7046,
      "##یدر": 7047,
      "زیات": 7048,
      "three": 7049,
      "بجار": 7050,
      "بامرد": 7051,
      "چاگردے": 7052,
      "معی": 7053,
      "##ہند": 7054,
      "##ular": 7055,
      "under": 7056,
      "##eg": 7057,
      "##فیظ": 7058,
      "خالد": 7059,
      "جنگانی": 7060,
      "##بیگو": 7061,
      "پیپل": 7062,
      "سیکورٹی": 7063,
      "Com": 7064,
      "ذری": 7065,
      "##ابلہ": 7066,
      "دنیاءَ": 7067,
      "مالک": 7068,
      "موتک": 7069,
      "##ذا": 7070,
      "بزانکہ": 7071,
      "than": 7072,
      "نگاہ": 7073,
      "اسٹوڈنٹس": 7074,
      "چاڑ": 7075,
      "کائ": 7076,
      "علاق": 7077,
      "ہمدا": 7078,
      "مروچاں": 7079,
      "رن": 7080,
      "##یح": 7081,
      "##امن": 7082,
      "کشان": 7083,
      "##ict": 7084,
      "##شیں": 7085,
      "رجینگ": 7086,
      "رندگیری": 7087,
      "مسافر": 7088,
      "بدے": 7089,
      "ستر": 7090,
      "چاگردءِ": 7091,
      "کرتنت": 7092,
      "وزن": 7093,
      "##کشیں": 7094,
      "کہنیں": 7095,
      "لے": 7096,
      "مانیت": 7097,
      "دوئ": 7098,
      "نکنت": 7099,
      "##hip": 7100,
      "دربرگ": 7101,
      "ناج": 7102,
      "وتئی": 7103,
      "رہا": 7104,
      "لانگ": 7105,
      "##ft": 7106,
      "لوگی": 7107,
      "ھسپتال": 7108,
      "میش": 7109,
      "راھشون": 7110,
      "##hn": 7111,
      "کربان": 7112,
      "جائے": 7113,
      "##ہا": 7114,
      "تہاریں": 7115,
      "چوپ": 7116,
      "عدالت": 7117,
      "##جوان": 7118,
      "یں": 7119,
      "سپاہی": 7120,
      "between": 7121,
      "داک": 7122,
      "##ستہ": 7123,
      "واکداراں": 7124,
      "توپک": 7125,
      "صلاح": 7126,
      "اوتاک": 7127,
      "نات": 7128,
      "ابو": 7129,
      "دورءِ": 7130,
      "ھوں": 7131,
      "بزدار": 7132,
      "کوھن": 7133,
      "##ڈن": 7134,
      "##یکٹ": 7135,
      "نوکری": 7136,
      "گنت": 7137,
      "کارا": 7138,
      "##ered": 7139,
      "واھشت": 7140,
      "واہند": 7141,
      "اینڈ": 7142,
      "پیرا": 7143,
      "عیسیٰ": 7144,
      "کرسی": 7145,
      "سوسائٹی": 7146,
      "متاثر": 7147,
      "گزر": 7148,
      "ماھل": 7149,
      "ذکر": 7150,
      "وتکشی": 7151,
      "اتار": 7152,
      "##راتکی": 7153,
      "پرشتگیں": 7154,
      "رگام": 7155,
      "جہاں": 7156,
      "انگل": 7157,
      "record": 7158,
      "##الانی": 7159,
      "درگیجگ": 7160,
      "بریں": 7161,
      "طرف": 7162,
      "##ورہ": 7163,
      "پنجابی": 7164,
      "جستانی": 7165,
      "نیاما": 7166,
      "مجبور": 7167,
      "قبضہ": 7168,
      "دگرانی": 7169,
      "کستریں": 7170,
      "##iew": 7171,
      "جنکانی": 7172,
      "پلان": 7173,
      "احساس": 7174,
      "ویر": 7175,
      "زالبولاں": 7176,
      "جاگہہ": 7177,
      "شاعراں": 7178,
      "سرشون": 7179,
      "ممت": 7180,
      "امل": 7181,
      "جمال": 7182,
      "جنگءَ": 7183,
      "بزنجو": 7184,
      "حکیم": 7185,
      "ہمائی": 7186,
      "دائمی": 7187,
      "##ومن": 7188,
      "دمگانی": 7189,
      "پھک": 7190,
      "اغ": 7191,
      "گئے": 7192,
      "##یسے": 7193,
      "رز": 7194,
      "##وئیں": 7195,
      "منوگر": 7196,
      "##سے": 7197,
      "الاج": 7198,
      "بالا": 7199,
      "نازر": 7200,
      "##بھ": 7201,
      "##ائینگ": 7202,
      "گندیں": 7203,
      "رئ": 7204,
      "لعل": 7205,
      "##تءِ": 7206,
      "پربند": 7207,
      "معاملہ": 7208,
      "through": 7209,
      "گالانی": 7210,
      "دلپر": 7211,
      "درائی": 7212,
      "تالبان": 7213,
      "دربار": 7214,
      "قص": 7215,
      "##ision": 7216,
      "دوہ": 7217,
      "جتگیں": 7218,
      "یونانی": 7219,
      "صوبائی": 7220,
      "گپتگیں": 7221,
      "##عیل": 7222,
      "جاوید": 7223,
      "نث": 7224,
      "اھمد": 7225,
      "پرچیکہ": 7226,
      "##olog": 7227,
      "باسکانی": 7228,
      "مظ": 7229,
      "شیپ": 7230,
      "زاہر": 7231,
      "##fore": 7232,
      "گلزار": 7233,
      "زبھر": 7234,
      "شکاری": 7235,
      "پریں": 7236,
      "جنجالانی": 7237,
      "لذ": 7238,
      "روچءِ": 7239,
      "ابن": 7240,
      "ہان": 7241,
      "##شپ": 7242,
      "دراتکگ": 7243,
      "##orn": 7244,
      "درسد": 7245,
      "رودراتکی": 7246,
      "انقلاب": 7247,
      "##راق": 7248,
      "##اپیں": 7249,
      "##وراں": 7250,
      "دلا": 7251,
      "کارءُ": 7252,
      "پیپلز": 7253,
      "later": 7254,
      "num": 7255,
      "لالا": 7256,
      "##اء": 7257,
      "##ائلی": 7258,
      "##اہانی": 7259,
      "سارتی": 7260,
      "end": 7261,
      "اشنا": 7262,
      "اہم": 7263,
      "گۆں": 7264,
      "عید": 7265,
      "درگ": 7266,
      "الیکشن": 7267,
      "توسیپ": 7268,
      "گنوکی": 7269,
      "##داں": 7270,
      "زورگیریں": 7271,
      "prod": 7272,
      "##هیں": 7273,
      "گپءُ": 7274,
      "pos": 7275,
      "ساڑا": 7276,
      "##ames": 7277,
      "ترجمہ": 7278,
      "حنی": 7279,
      "میت": 7280,
      "کامریڈ": 7281,
      "دلمراد": 7282,
      "##ابق": 7283,
      "وابے": 7284,
      "اولس": 7285,
      "خلی": 7286,
      "فارم": 7287,
      "زیمل": 7288,
      "ابرمی": 7289,
      "گشان": 7290,
      "writ": 7291,
      "بندیت": 7292,
      "##پتیں": 7293,
      "مقام": 7294,
      "تنقید": 7295,
      "راکٹ": 7296,
      "دھکان": 7297,
      "بیرک": 7298,
      "عاشق": 7299,
      "درکانودی": 7300,
      "while": 7301,
      "فلسفی": 7302,
      "رژنائی": 7303,
      "نگر": 7304,
      "زوربیگو": 7305,
      "بانزل": 7306,
      "وق": 7307,
      "وح": 7308,
      "##نم": 7309,
      "##خش": 7310,
      "ممتاز": 7311,
      "film": 7312,
      "##ریش": 7313,
      "توپان": 7314,
      "درانگاز": 7315,
      "##چین": 7316,
      "##یریں": 7317,
      "گیگ": 7318,
      "کھولانی": 7319,
      "##شمبے": 7320,
      "نودربرے": 7321,
      "مساپر": 7322,
      "تمن": 7323,
      "دوچار": 7324,
      "کہن": 7325,
      "گوازین": 7326,
      "##کتی": 7327,
      "اوشتگ": 7328,
      "شھیدانی": 7329,
      "لبزانکءِ": 7330,
      "انسانءِ": 7331,
      "برداشت": 7332,
      "تار": 7333,
      "مشر": 7334,
      "رمض": 7335,
      "اعت": 7336,
      "حشک": 7337,
      "تیاری": 7338,
      "حملہ": 7339,
      "گوھر": 7340,
      "وانگءَ": 7341,
      "##زاد": 7342,
      "نبشته": 7343,
      "گشتانک": 7344,
      "ھیالانی": 7345,
      "زبہر": 7346,
      "ٹیلی": 7347,
      "##نیم": 7348,
      "دیدار": 7349,
      "پاکستانءِ": 7350,
      "سمو": 7351,
      "وانوکاں": 7352,
      "کہا": 7353,
      "جانسلام": 7354,
      "##اتم": 7355,
      "ازمانکے": 7356,
      "سود": 7357,
      "##ished": 7358,
      "سیکر": 7359,
      "عباس": 7360,
      "تژن": 7361,
      "ھمودا": 7362,
      "ڈیٹا": 7363,
      "پچیں": 7364,
      "شوانگ": 7365,
      "اقت": 7366,
      "چال": 7367,
      "##نداں": 7368,
      "reg": 7369,
      "کوھی": 7370,
      "واقع": 7371,
      "ٹیب": 7372,
      "ھمل": 7373,
      "کسءَ": 7374,
      "##als": 7375,
      "قط": 7376,
      "##اھر": 7377,
      "کاروباری": 7378,
      "بیتءُ": 7379,
      "درکار": 7380,
      "چمان": 7381,
      "ھنی": 7382,
      "بلہ": 7383,
      "ساح": 7384,
      "لفظ": 7385,
      "بیور": 7386,
      "##نیام": 7387,
      "form": 7388,
      "فیض": 7389,
      "شاپ": 7390,
      "چپی": 7391,
      "##سٹس": 7392,
      "ہمودا": 7393,
      "پرست": 7394,
      "##نگا": 7395,
      "ass": 7396,
      "تہذیب": 7397,
      "##تکگیں": 7398,
      "نادر": 7399,
      "لیڈر": 7400,
      "واز": 7401,
      "##ورءِ": 7402,
      "پیری": 7403,
      "زمانگءَ": 7404,
      "ہرد": 7405,
      "سرچ": 7406,
      "##ury": 7407,
      "ضروری": 7408,
      "خون": 7409,
      "##دارانی": 7410,
      "ارسط": 7411,
      "made": 7412,
      "##پیت": 7413,
      "##ێا": 7414,
      "خر": 7415,
      "زبیر": 7416,
      "sub": 7417,
      "اط": 7418,
      "مارشتانی": 7419,
      "خض": 7420,
      "##کرد": 7421,
      "دلپد": 7422,
      "نیمگاں": 7423,
      "ھاکم": 7424,
      "جمعہ": 7425,
      "میتگے": 7426,
      "##فیق": 7427,
      "تخلیق": 7428,
      "یکر": 7429,
      "سراوان": 7430,
      "مارشتاں": 7431,
      "ret": 7432,
      "ڈا": 7433,
      "##ائیل": 7434,
      "ac": 7435,
      "##orld": 7436,
      "New": 7437,
      "##ولیں": 7438,
      "بھار": 7439,
      "ہوتی": 7440,
      "چیف": 7441,
      "پروشت": 7442,
      "کپتاں": 7443,
      "قبائلی": 7444,
      "واکدارانی": 7445,
      "زبر": 7446,
      "برپ": 7447,
      "spec": 7448,
      "acc": 7449,
      "چارگءَ": 7450,
      "استح": 7451,
      "ایوکی": 7452,
      "act": 7453,
      "لوگءِ": 7454,
      "مارکیٹ": 7455,
      "وپتگ": 7456,
      "میران": 7457,
      "گماں": 7458,
      "ind": 7459,
      "##ank": 7460,
      "جہانی": 7461,
      "سپاھی": 7462,
      "خوش": 7463,
      "##سار": 7464,
      "##داشت": 7465,
      "جانسلامتی": 7466,
      "pe": 7467,
      "دمبر": 7468,
      "##گین": 7469,
      "راجاں": 7470,
      "بوجیگ": 7471,
      "نوکین": 7472,
      "where": 7473,
      "مدر": 7474,
      "گریت": 7475,
      "دؤ": 7476,
      "دودا": 7477,
      "الدین": 7478,
      "دستانی": 7479,
      "اشکت": 7480,
      "طالبان": 7481,
      "یعنے": 7482,
      "گواری": 7483,
      "پہر": 7484,
      "##کام": 7485,
      "وارث": 7486,
      "##جنسی": 7487,
      "ده": 7488,
      "سط": 7489,
      "پائی": 7490,
      "##ener": 7491,
      "موومنٹ": 7492,
      "وہداں": 7493,
      "درانگازی": 7494,
      "mov": 7495,
      "گاریں": 7496,
      "جاک": 7497,
      "انٹ": 7498,
      "##لاف": 7499,
      "قادر": 7500,
      "ایٹ": 7501,
      "درہ": 7502,
      "بلوچستانءَ": 7503,
      "دابیں": 7504,
      "روژنائی": 7505,
      "میم": 7506,
      "پرستی": 7507,
      "ہنر": 7508,
      "##مری": 7509,
      "واه": 7510,
      "نزر": 7511,
      "وہدی": 7512,
      "ناشرکاری": 7513,
      "والی": 7514,
      "سہرا": 7515,
      "##meric": 7516,
      "رخ": 7517,
      "ملام": 7518,
      "استار": 7519,
      "اشتاپ": 7520,
      "ترینت": 7521,
      "شگان": 7522,
      "##یکی": 7523,
      "رپک": 7524,
      "کساسے": 7525,
      "جلال": 7526,
      "شئ": 7527,
      "کڑ": 7528,
      "##یان": 7529,
      "##حم": 7530,
      "##ating": 7531,
      "inter": 7532,
      "ہچبر": 7533,
      "بادینی": 7534,
      "Americ": 7535,
      "سرءُ": 7536,
      "میٹر": 7537,
      "حمزہ": 7538,
      "ہا": 7539,
      "##وام": 7540,
      "کرتا": 7541,
      "گوراں": 7542,
      "اختیار": 7543,
      "بوئیگ": 7544,
      "زندگانی": 7545,
      "برجاہیں": 7546,
      "حیات": 7547,
      "##ph": 7548,
      "لگتمالی": 7549,
      "بیبگر": 7550,
      "سورت": 7551,
      "واد": 7552,
      "ہز": 7553,
      "##یلا": 7554,
      "گرنچ": 7555,
      "شانک": 7556,
      "پادا": 7557,
      "##ole": 7558,
      "اسماعیل": 7559,
      "مزاحمت": 7560,
      "سلیمان": 7561,
      "جرمنی": 7562,
      "##راس": 7563,
      "some": 7564,
      "##وہی": 7565,
      "کوپگاں": 7566,
      "ورنایاں": 7567,
      "میس": 7568,
      "منتگ": 7569,
      "##دیں": 7570,
      "اوتاگ": 7571,
      "پلاٹ": 7572,
      "زلورت": 7573,
      "lar": 7574,
      "##قین": 7575,
      "نمائ": 7576,
      "گونڈو": 7577,
      "def": 7578,
      "دستگیر": 7579,
      "bas": 7580,
      "##بلوچی": 7581,
      "درامدیں": 7582,
      "دبئی": 7583,
      "هدا": 7584,
      "گشاد": 7585,
      "سیاہیں": 7586,
      "##bum": 7587,
      "پشی": 7588,
      "نیمروچ": 7589,
      "یورپی": 7590,
      "releas": 7591,
      "ساہگ": 7592,
      "حفیظ": 7593,
      "دن": 7594,
      "اعظم": 7595,
      "خالق": 7596,
      "##اہرہ": 7597,
      "سرءِ": 7598,
      "مکر": 7599,
      "ادمی": 7600,
      "اهاں": 7601,
      "جمب": 7602,
      "دلانی": 7603,
      "والے": 7604,
      "ٹر": 7605,
      "ھنداں": 7606,
      "کشکے": 7607,
      "##ont": 7608,
      "گروپ": 7609,
      "بیغ": 7610,
      "بم": 7611,
      "##aid": 7612,
      "وئیلاں": 7613,
      "اماچیں": 7614,
      "##افظ": 7615,
      "سیاھ": 7616,
      "کشمیر": 7617,
      "سیمسراں": 7618,
      "ڈرام": 7619,
      "جمیل": 7620,
      "ھڈ": 7621,
      "اتح": 7622,
      "##بیب": 7623,
      "mus": 7624,
      "##شتگیں": 7625,
      "ازمکار": 7626,
      "درچکے": 7627,
      "روکیں": 7628,
      "رشید": 7629,
      "لان": 7630,
      "وج": 7631,
      "bu": 7632,
      "لون": 7633,
      "پولکاری": 7634,
      "تین": 7635,
      "استعمال": 7636,
      "follow": 7637,
      "براھوئی": 7638,
      "gr": 7639,
      "یکین": 7640,
      "At": 7641,
      "ہاں": 7642,
      "##منندیں": 7643,
      "اشارہ": 7644,
      "تھت": 7645,
      "ھلاسی": 7646,
      "##ہے": 7647,
      "##ینکی": 7648,
      "##ann": 7649,
      "am": 7650,
      "پڑا": 7651,
      "ایکشن": 7652,
      "##وشیں": 7653,
      "اپی": 7654,
      "##ived": 7655,
      "تبد": 7656,
      "بیث": 7657,
      "پیداگ": 7658,
      "اوان": 7659,
      "گے": 7660,
      "ارادہ": 7661,
      "##راھیم": 7662,
      "زبانی": 7663,
      "سئ": 7664,
      "چھر": 7665,
      "##ific": 7666,
      "سنٹ": 7667,
      "##ورد": 7668,
      "ریگ": 7669,
      "سنگتی": 7670,
      "ببنت": 7671,
      "گڑاں": 7672,
      "second": 7673,
      "such": 7674,
      "بیچار": 7675,
      "ماش": 7676,
      "گھر": 7677,
      "##ced": 7678,
      "نبشتانکے": 7679,
      "زھگاں": 7680,
      "##اجہ": 7681,
      "گوزیت": 7682,
      "ڈرائیور": 7683,
      "انکار": 7684,
      "so": 7685,
      "کبز": 7686,
      "دنیگا": 7687,
      "##ike": 7688,
      "four": 7689,
      "درواز": 7690,
      "##اءِ": 7691,
      "دیریں": 7692,
      "سوگات": 7693,
      "هس": 7694,
      "##افی": 7695,
      "##وڑی": 7696,
      "دنتان": 7697,
      "شید": 7698,
      "##یی": 7699,
      "روگءَ": 7700,
      "انچوشکہ": 7701,
      "عث": 7702,
      "##اڑ": 7703,
      "##ery": 7704,
      "ھیالاں": 7705,
      "ہفت": 7706,
      "##ده": 7707,
      "سوئی": 7708,
      "ڈالر": 7709,
      "##دپتر": 7710,
      "##ریزگ": 7711,
      "مسئلہ": 7712,
      "##ؤں": 7713,
      "فتح": 7714,
      "یاگی": 7715,
      "ناگمان": 7716,
      "پاہ": 7717,
      "زراں": 7718,
      "An": 7719,
      "هزار": 7720,
      "تعالی": 7721,
      "ناھ": 7722,
      "ماری": 7723,
      "روای": 7724,
      "ازباب": 7725,
      "پوریا": 7726,
      "used": 7727,
      "ہژ": 7728,
      "##red": 7729,
      "الف": 7730,
      "خلیل": 7731,
      "کتنت": 7732,
      "سواریں": 7733,
      "مانداشتگ": 7734,
      "پین": 7735,
      "رمضان": 7736,
      "کابل": 7737,
      "چیردستی": 7738,
      "گوستانک": 7739,
      "##یراں": 7740,
      "زاہد": 7741,
      "پئیم": 7742,
      "عذاب": 7743,
      "جھدکار": 7744,
      "صابر": 7745,
      "بندانی": 7746,
      "##کمی": 7747,
      "بانور": 7748,
      "سببءَ": 7749,
      "پہنچ": 7750,
      "روچگ": 7751,
      "عارف": 7752,
      "بیھار": 7753,
      "دیمونی": 7754,
      "##hes": 7755,
      "براتاں": 7756,
      "بحث": 7757,
      "زاه": 7758,
      "ٹنگ": 7759,
      "گمانی": 7760,
      "##ics": 7761,
      "بنگلہ": 7762,
      "day": 7763,
      "##لءِ": 7764,
      "##مک": 7765,
      "میراث": 7766,
      "As": 7767,
      "کارڈ": 7768,
      "##ex": 7769,
      "چاگردءَ": 7770,
      "نادی": 7771,
      "ہب": 7772,
      "شپی": 7773,
      "کارمندے": 7774,
      "rev": 7775,
      "حوالہ": 7776,
      "شانزدہ": 7777,
      "چندیں": 7778,
      "سمین": 7779,
      "عبدالرح": 7780,
      "اصف": 7781,
      "چمگ": 7782,
      "براتانی": 7783,
      "ارگن": 7784,
      "کاریں": 7785,
      "##ily": 7786,
      "ارساں": 7787,
      "مٹی": 7788,
      "ڈیل": 7789,
      "بہتام": 7790,
      "گوشتی": 7791,
      "ٹوھیں": 7792,
      "This": 7793,
      "نکان": 7794,
      "دیدگاں": 7795,
      "حیالانی": 7796,
      "##زانتی": 7797,
      "##فو": 7798,
      "اہگ": 7799,
      "Sh": 7800,
      "ہن": 7801,
      "##وکین": 7802,
      "وع": 7803,
      "توجیل": 7804,
      "publ": 7805,
      "چان": 7806,
      "##ندگی": 7807,
      "بارے": 7808,
      "وخت": 7809,
      "ملور": 7810,
      "گرک": 7811,
      "ڈرون": 7812,
      "وداری": 7813,
      "##ane": 7814,
      "داتہ": 7815,
      "##ۆچی": 7816,
      "بیس": 7817,
      "کارگش": 7818,
      "راجءِ": 7819,
      "اوداں": 7820,
      "رجانکاری": 7821,
      "ہمراہی": 7822,
      "call": 7823,
      "ٹوک": 7824,
      "ہندو": 7825,
      "دستے": 7826,
      "##نڈی": 7827,
      "ابدمان": 7828,
      "##واج": 7829,
      "ازت": 7830,
      "گرمی": 7831,
      "واھگانی": 7832,
      "نمب": 7833,
      "جڑ": 7834,
      "گرما": 7835,
      "گشندہ": 7836,
      "لہڑ": 7837,
      "ربید": 7838,
      "درخواست": 7839,
      "دئیں": 7840,
      "شانت": 7841,
      "پات": 7842,
      "پما": 7843,
      "##راباد": 7844,
      "ماھکان": 7845,
      "ہاتھ": 7846,
      "بهر": 7847,
      "جرمن": 7848,
      "نثار": 7849,
      "##زمت": 7850,
      "##حان": 7851,
      "درجہ": 7852,
      "ہمیشی": 7853,
      "مہرانی": 7854,
      "سہی": 7855,
      "چئی": 7856,
      "##فتگ": 7857,
      "album": 7858,
      "##hen": 7859,
      "جیہند": 7860,
      "پلگ": 7861,
      "##زے": 7862,
      "بلڈ": 7863,
      "بیانیہ": 7864,
      "##ہال": 7865,
      "ملامت": 7866,
      "##یمی": 7867,
      "دلگوشی": 7868,
      "پروشتگ": 7869,
      "##ادق": 7870,
      "ابراھیم": 7871,
      "کائے": 7872,
      "گارڈ": 7873,
      "تیلانک": 7874,
      "حراب": 7875,
      "##ھب": 7876,
      "##any": 7877,
      "میرے": 7878,
      "شاھی": 7879,
      "##مبل": 7880,
      "لیبی": 7881,
      "جسم": 7882,
      "before": 7883,
      "##او": 7884,
      "زمانہ": 7885,
      "سرو": 7886,
      "رھبندانی": 7887,
      "me": 7888,
      "دارو": 7889,
      "ٹرانس": 7890,
      "ھمت": 7891,
      "کارستانی": 7892,
      "نوجوان": 7893,
      "کود": 7894,
      "اہمد": 7895,
      "بہشت": 7896,
      "کارمست": 7897,
      "دردے": 7898,
      "تلار": 7899,
      "ریکارڈ": 7900,
      "جہاندپتر": 7901,
      "مندی": 7902,
      "مردمءَ": 7903,
      "گورنر": 7904,
      "برطانیہ": 7905,
      "ماھے": 7906,
      "##ئنت": 7907,
      "کروڑ": 7908,
      "ٹپاس": 7909,
      "do": 7910,
      "زاتی": 7911,
      "##فٹ": 7912,
      "تھاری": 7913,
      "ھزارانی": 7914,
      "ماحول": 7915,
      "##شے": 7916,
      "مریت": 7917,
      "##فور": 7918,
      "##بیلہ": 7919,
      "ملکءِ": 7920,
      "کھن": 7921,
      "##اوں": 7922,
      "##res": 7923,
      "جوڑی": 7924,
      "مھتل": 7925,
      "بگندے": 7926,
      "کمکار": 7927,
      "sy": 7928,
      "کئ": 7929,
      "##مات": 7930,
      "سالونک": 7931,
      "ادارگ": 7932,
      "بشکھ": 7933,
      "ارگنائز": 7934,
      "بیتیں": 7935,
      "لینگ": 7936,
      "پرایم": 7937,
      "اێ": 7938,
      "شاکر": 7939,
      "توری": 7940,
      "##اھان": 7941,
      "عبدالحمید": 7942,
      "Eng": 7943,
      "اظ": 7944,
      "##ونٹ": 7945,
      "##گرگ": 7946,
      "پلیں": 7947,
      "تند": 7948,
      "رستگیں": 7949,
      "##راط": 7950,
      "بچاں": 7951,
      "being": 7952,
      "گیرت": 7953,
      "سڑک": 7954,
      "##فاظ": 7955,
      "##oun": 7956,
      "جزم": 7957,
      "ھژدہ": 7958,
      "باھو": 7959,
      "مردءَ": 7960,
      "چیرءَ": 7961,
      "Jo": 7962,
      "کارچ": 7963,
      "گوشیں": 7964,
      "پنجاپ": 7965,
      "##ected": 7966,
      "بہادر": 7967,
      "##واریں": 7968,
      "وثی": 7969,
      "##ept": 7970,
      "ھمرائی": 7971,
      "Br": 7972,
      "ep": 7973,
      "ائیئ": 7974,
      "supp": 7975,
      "انڈیا": 7976,
      "ھن": 7977,
      "there": 7978,
      "کوشش": 7979,
      "ویران": 7980,
      "years": 7981,
      "صبر": 7982,
      "مپت": 7983,
      "زمینی": 7984,
      "جک": 7985,
      "دردانی": 7986,
      "جع": 7987,
      "دیگی": 7988,
      "زمانگے": 7989,
      "رودی": 7990,
      "جسٹس": 7991,
      "نل": 7992,
      "نبوتگ": 7993,
      "اپسر": 7994,
      "جزبگ": 7995,
      "رمب": 7996,
      "دوریں": 7997,
      "فاروق": 7998,
      "سستگ": 7999,
      "راگ": 8000,
      "پارلیمنٹ": 8001,
      "mon": 8002,
      "بباں": 8003,
      "ہونے": 8004,
      "گیم": 8005,
      "امارات": 8006,
      "ھژدری": 8007,
      "ھاموش": 8008,
      "تول": 8009,
      "##ٹانی": 8010,
      "ہواری": 8011,
      "خضدار": 8012,
      "bl": 8013,
      "##اتگیں": 8014,
      "##کنیں": 8015,
      "جمالی": 8016,
      "##owever": 8017,
      "##طانی": 8018,
      "##ائیش": 8019,
      "##گواجہ": 8020,
      "##تلف": 8021,
      "درکپتگ": 8022,
      "ادیب": 8023,
      "رول": 8024,
      "بلی": 8025,
      "پرسی": 8026,
      "ازمانکار": 8027,
      "##مندیں": 8028,
      "##ریکٹر": 8029,
      "کنائینتگ": 8030,
      "شازادگ": 8031,
      "نوشت": 8032,
      "زھگے": 8033,
      "کبرستان": 8034,
      "سیکرٹری": 8035,
      "کارءِ": 8036,
      "کشاں": 8037,
      "##زاں": 8038,
      "راستے": 8039,
      "##ool": 8040,
      "مرگے": 8041,
      "سس": 8042,
      "ھائی": 8043,
      "روئے": 8044,
      "شیک": 8045,
      "امیری": 8046,
      "no": 8047,
      "ٹارگ": 8048,
      "##ars": 8049,
      "مجگ": 8050,
      "جیڑہانی": 8051,
      "کارگشاد": 8052,
      "high": 8053,
      "بین": 8054,
      "مختلف": 8055,
      "found": 8056,
      "خد": 8057,
      "ارزانی": 8058,
      "نپاد": 8059,
      "##مز": 8060,
      "مردمءِ": 8061,
      "انف": 8062,
      "##ird": 8063,
      "جنینانی": 8064,
      "##ife": 8065,
      "باھوٹ": 8066,
      "روبر": 8067,
      "دگراں": 8068,
      "فیس": 8069,
      "##چاری": 8070,
      "##لیا": 8071,
      "صادق": 8072,
      "الما": 8073,
      "داشتگیں": 8074,
      "set": 8075,
      "قح": 8076,
      "پدم": 8077,
      "ارتگ": 8078,
      "گروک": 8079,
      "##بوتگ": 8080,
      "پگری": 8081,
      "زوراکیں": 8082,
      "##بنت": 8083,
      "درنیام": 8084,
      "تاپ": 8085,
      "##عتی": 8086,
      "رحمت": 8087,
      "شخصیت": 8088,
      "مندیں": 8089,
      "##هءِ": 8090,
      "کتءُ": 8091,
      "ابدل": 8092,
      "##نگءَ": 8093,
      "##other": 8094,
      "##ٹاں": 8095,
      "زانیں": 8096,
      "نهانت": 8097,
      "دوار": 8098,
      "پرچی": 8099,
      "نوکتریں": 8100,
      "حبرے": 8101,
      "سروس": 8102,
      "میاری": 8103,
      "قربانی": 8104,
      "غالب": 8105,
      "پابندی": 8106,
      "یہاں": 8107,
      "##غنت": 8108,
      "تیزی": 8109,
      "بلوٹ": 8110,
      "همراه": 8111,
      "گریو": 8112,
      "تاس": 8113,
      "حج": 8114,
      "درستانی": 8115,
      "داران": 8116,
      "ساڑ": 8117,
      "ڈنءَ": 8118,
      "بیں": 8119,
      "##aj": 8120,
      "##ines": 8121,
      "نگیگ": 8122,
      "تنا": 8123,
      "##یرے": 8124,
      "اسم": 8125,
      "ہلک": 8126,
      "ڈولدار": 8127,
      "مقابلہ": 8128,
      "ہاک": 8129,
      "جنگءِ": 8130,
      "مجھے": 8131,
      "انسانیت": 8132,
      "لر": 8133,
      "چاک": 8134,
      "##تاب": 8135,
      "شاعریءِ": 8136,
      "برورد": 8137,
      "##ێت": 8138,
      "جنازہ": 8139,
      "گواچنی": 8140,
      "سیستان": 8141,
      "گرانی": 8142,
      "##ained": 8143,
      "sur": 8144,
      "غر": 8145,
      "ایردستیں": 8146,
      "اشتاپی": 8147,
      "ہنچیں": 8148,
      "حنیف": 8149,
      "اۆ": 8150,
      "رپتگ": 8151,
      "##دانی": 8152,
      "##گوشت": 8153,
      "کھولاں": 8154,
      "تحقی": 8155,
      "بلوچیءَ": 8156,
      "پلامرزی": 8157,
      "جہاز": 8158,
      "منافع": 8159,
      "گي": 8160,
      "اتا": 8161,
      "وھدا": 8162,
      "اتکاں": 8163,
      "چوناہ": 8164,
      "کڈن": 8165,
      "مروار": 8166,
      "نبوت": 8167,
      "##لاط": 8168,
      "فدائی": 8169,
      "پیشدارگ": 8170,
      "واس": 8171,
      "ٹاور": 8172,
      "دیوک": 8173,
      "سیزدہ": 8174,
      "##ins": 8175,
      "مڈیانی": 8176,
      "روشن": 8177,
      "خام": 8178,
      "فورسز": 8179,
      "##الم": 8180,
      "حافظ": 8181,
      "##کتگ": 8182,
      "پرنٹ": 8183,
      "ہستی": 8184,
      "بیدار": 8185,
      "##ised": 8186,
      "ٹارگٹ": 8187,
      "##eb": 8188,
      "##بندیں": 8189,
      "شپانک": 8190,
      "لسبیلہ": 8191,
      "سطح": 8192,
      "سانک": 8193,
      "##ek": 8194,
      "##الله": 8195,
      "دس": 8196,
      "ٹیل": 8197,
      "##بانک": 8198,
      "##ڑھ": 8199,
      "کاس": 8200,
      "##متی": 8201,
      "سکھ": 8202,
      "##ities": 8203,
      "##rop": 8204,
      "دعوت": 8205,
      "##ئٹر": 8206,
      "سینٹر": 8207,
      "##حدہ": 8208,
      "منٹ": 8209,
      "روم": 8210,
      "وارس": 8211,
      "حالت": 8212,
      "تنظیم": 8213,
      "ازاتیں": 8214,
      "##ایں": 8215,
      "##فتار": 8216,
      "##io": 8217,
      "رنداں": 8218,
      "سالیں": 8219,
      "##وزیشن": 8220,
      "شانگ": 8221,
      "سلطان": 8222,
      "کلمتی": 8223,
      "امبر": 8224,
      "عاج": 8225,
      "کلچر": 8226,
      "series": 8227,
      "منشی": 8228,
      "ندارہ": 8229,
      "عوامی": 8230,
      "##ھدہ": 8231,
      "##ینتگ": 8232,
      "شرکت": 8233,
      "##بلکن": 8234,
      "گنجیں": 8235,
      "loc": 8236,
      "##pen": 8237,
      "کرتہ": 8238,
      "##ویے": 8239,
      "تکانسر": 8240,
      "number": 8241,
      "ترام": 8242,
      "وپا": 8243,
      "پلے": 8244,
      "##air": 8245,
      "##iver": 8246,
      "پانی": 8247,
      "سلاھاں": 8248,
      "بنگالی": 8249,
      "لگتمال": 8250,
      "pres": 8251,
      "قمبر": 8252,
      "##گاریں": 8253,
      "بوچ": 8254,
      "اتوں": 8255,
      "گورم": 8256,
      "دال": 8257,
      "##ژنی": 8258,
      "##ثیت": 8259,
      "نئیل": 8260,
      "تحصیل": 8261,
      "عالمی": 8262,
      "جور": 8263,
      "##ریم": 8264,
      "وسیل": 8265,
      "دابے": 8266,
      "تصور": 8267,
      "##ہانی": 8268,
      "ترپ": 8269,
      "##ause": 8270,
      "نما": 8271,
      "اندازہ": 8272,
      "اخراج": 8273,
      "غریب": 8274,
      "##دو": 8275,
      "زوراکیاں": 8276,
      "شوربندی": 8277,
      "جاد": 8278,
      "بیتگاں": 8279,
      "ہواریں": 8280,
      "سمل": 8281,
      "چمی": 8282,
      "##دیث": 8283,
      "پھریز": 8284,
      "گوانکو": 8285,
      "نکت": 8286,
      "##اتانی": 8287,
      "وئیلانی": 8288,
      "اسٹیشن": 8289,
      "##ten": 8290,
      "لاچ": 8291,
      "جیگ": 8292,
      "Sc": 8293,
      "هیال": 8294,
      "##ode": 8295,
      "قانود": 8296,
      "کھر": 8297,
      "کمار": 8298,
      "ایشیا": 8299,
      "ونڈ": 8300,
      "کلہ": 8301,
      "پہلے": 8302,
      "کیسگ": 8303,
      "لنٹانی": 8304,
      "کونڈ": 8305,
      "##ٹیگ": 8306,
      "اییئے": 8307,
      "گوریچانی": 8308,
      "پکا": 8309,
      "##نکس": 8310,
      "سرگر": 8311,
      "توکلی": 8312,
      "مطابق": 8313,
      "گرند": 8314,
      "سلاح": 8315,
      "یاتانی": 8316,
      "زوتاں": 8317,
      "زاکر": 8318,
      "اییا": 8319,
      "محنت": 8320,
      "بندیگیں": 8321,
      "بول": 8322,
      "پاشک": 8323,
      "استحکام": 8324,
      "##نگے": 8325,
      "##زر": 8326,
      "کپنت": 8327,
      "sever": 8328,
      "Car": 8329,
      "##ier": 8330,
      "دراھ": 8331,
      "سالءَ": 8332,
      "بھت": 8333,
      "both": 8334,
      "لح": 8335,
      "##رینا": 8336,
      "زگریں": 8337,
      "##قات": 8338,
      "کنتءُ": 8339,
      "##ince": 8340,
      "##ement": 8341,
      "ایمنیں": 8342,
      "سروزیر": 8343,
      "جائی": 8344,
      "شاب": 8345,
      "بلاش": 8346,
      "بارگ": 8347,
      "##row": 8348,
      "appear": 8349,
      "محب": 8350,
      "میتگاں": 8351,
      "گریب": 8352,
      "پیروک": 8353,
      "##ower": 8354,
      "چئیرمین": 8355,
      "##هاں": 8356,
      "بکنیں": 8357,
      "سماجی": 8358,
      "رھشونی": 8359,
      "بکر": 8360,
      "##gr": 8361,
      "مرگانی": 8362,
      "سوبی": 8363,
      "دستان": 8364,
      "ننداں": 8365,
      "عبدالص": 8366,
      "co": 8367,
      "نپر": 8368,
      "گێ": 8369,
      "تچکی": 8370,
      "کتابی": 8371,
      "ناگی": 8372,
      "جال": 8373,
      "پسندی": 8374,
      "اولاک": 8375,
      "ریم": 8376,
      "##هانی": 8377,
      "##اریت": 8378,
      "نفر": 8379,
      "##ron": 8380,
      "کرپ": 8381,
      "سراج": 8382,
      "بدلیاں": 8383,
      "کرم": 8384,
      "سهیگ": 8385,
      "##irect": 8386,
      "Brit": 8387,
      "then": 8388,
      "اماں": 8389,
      "حما": 8390,
      "زو": 8391,
      "گوہ": 8392,
      "بحرین": 8393,
      "##iet": 8394,
      "##ھل": 8395,
      "زاھد": 8396,
      "ڈالچار": 8397,
      "کاپر": 8398,
      "فرانسیسی": 8399,
      "epis": 8400,
      "qu": 8401,
      "طاہرہ": 8402,
      "##الاں": 8403,
      "##میشن": 8404,
      "##ise": 8405,
      "##اؤس": 8406,
      "including": 8407,
      "ائیء": 8408,
      "پوری": 8409,
      "دوران": 8410,
      "سمندر": 8411,
      "Le": 8412,
      "گہتر": 8413,
      "رکھینگ": 8414,
      "لاچاری": 8415,
      "##ale": 8416,
      "تاکاں": 8417,
      "سق": 8418,
      "شف": 8419,
      "اسن": 8420,
      "میوز": 8421,
      "اپوزیشن": 8422,
      "بجن": 8423,
      "##دھمی": 8424,
      "چمن": 8425,
      "##تگاں": 8426,
      "جنس": 8427,
      "مالیاتی": 8428,
      "str": 8429,
      "##جل": 8430,
      "بلۆچی": 8431,
      "جاتی": 8432,
      "##its": 8433,
      "کٹم": 8434,
      "##ection": 8435,
      "cap": 8436,
      "##ھو": 8437,
      "##برا": 8438,
      "توم": 8439,
      "لنکک": 8440,
      "ھوری": 8441,
      "مشہور": 8442,
      "##الہ": 8443,
      "##ert": 8444,
      "کوم": 8445,
      "##ather": 8446,
      "خلافا": 8447,
      "اداں": 8448,
      "against": 8449,
      "کارندھاں": 8450,
      "well": 8451,
      "فط": 8452,
      "گپءِ": 8453,
      "سمائی": 8454,
      "فرد": 8455,
      "کوہن": 8456,
      "مسی": 8457,
      "هئی": 8458,
      "رمگ": 8459,
      "کماندار": 8460,
      "اذ": 8461,
      "روب": 8462,
      "قرض": 8463,
      "became": 8464,
      "##لاطون": 8465,
      "ارزی": 8466,
      "گیشین": 8467,
      "بیسہ": 8468,
      "سپاہ": 8469,
      "مڑد": 8470,
      "سربازی": 8471,
      "contr": 8472,
      "میانی": 8473,
      "ماہیگ": 8474,
      "لئیب": 8475,
      "نازرکیں": 8476,
      "known": 8477,
      "سیہ": 8478,
      "تئیی": 8479,
      "زھم": 8480,
      "درانڈی": 8481,
      "کبل": 8482,
      "درکیت": 8483,
      "charac": 8484,
      "##صوص": 8485,
      "سواری": 8486,
      "بنگل": 8487,
      "تاوانانی": 8488,
      "trans": 8489,
      "ھوشاپ": 8490,
      "##کگ": 8491,
      "##ومتی": 8492,
      "فکری": 8493,
      "##زانی": 8494,
      "وص": 8495,
      "زرے": 8496,
      "شعرے": 8497,
      "##پارٹمنٹ": 8498,
      "back": 8499,
      "طری": 8500,
      "پاچ": 8501,
      "رنگی": 8502,
      "سببا": 8503,
      "add": 8504,
      "el": 8505,
      "کانگ": 8506,
      "یکوارے": 8507,
      "اہل": 8508,
      "go": 8509,
      "##شاد": 8510,
      "پڑءَ": 8511,
      "pop": 8512,
      "بیمن": 8513,
      "گیت": 8514,
      "منانک": 8515,
      "مرزا": 8516,
      "کمکیں": 8517,
      "پریشانی": 8518,
      "اخت": 8519,
      "desc": 8520,
      "##فوظ": 8521,
      "ٹل": 8522,
      "چید": 8523,
      "یاسر": 8524,
      "گیٹ": 8525,
      "##روچے": 8526,
      "ذریعہ": 8527,
      "sing": 8528,
      "##ield": 8529,
      "##son": 8530,
      "کتابجاہ": 8531,
      "##urch": 8532,
      "##لڈ": 8533,
      "اوگام": 8534,
      "زانتکاریں": 8535,
      "کارندھانی": 8536,
      "سٹی": 8537,
      "جوز": 8538,
      "جوڑشت": 8539,
      "perform": 8540,
      "inv": 8541,
      "ڈیہی": 8542,
      "راجدوستی": 8543,
      "جسمانی": 8544,
      "براہوئی": 8545,
      "نتی": 8546,
      "##گءُ": 8547,
      "##امے": 8548,
      "##ern": 8549,
      "کاگدے": 8550,
      "em": 8551,
      "دیمرئی": 8552,
      "مگرب": 8553,
      "##ؤل": 8554,
      "شنز": 8555,
      "##نوکیں": 8556,
      "جلس": 8557,
      "بلائیں": 8558,
      "##ures": 8559,
      "معاش": 8560,
      "ساچان": 8561,
      "##ناکی": 8562,
      "##هءَ": 8563,
      "##الح": 8564,
      "رکین": 8565,
      "دوئمی": 8566,
      "گزار": 8567,
      "اسکانی": 8568,
      "زہری": 8569,
      "نائب": 8570,
      "##پے": 8571,
      "##میش": 8572,
      "مانش": 8573,
      "پلو": 8574,
      "مغ": 8575,
      "سکا": 8576,
      "دوئینانی": 8577,
      "بلاشبہ": 8578,
      "##yl": 8579,
      "تیرانی": 8580,
      "فرمان": 8581,
      "##افت": 8582,
      "کمیونسٹ": 8583,
      "##ڈے": 8584,
      "شرط": 8585,
      "واباں": 8586,
      "اگبال": 8587,
      "دک": 8588,
      "صو": 8589,
      "##شپی": 8590,
      "سرانی": 8591,
      "جنسی": 8592,
      "راہءَ": 8593,
      "وردن": 8594,
      "پرایمنیں": 8595,
      "بدر": 8596,
      "##ادار": 8597,
      "الا": 8598,
      "بزیں": 8599,
      "تمب": 8600,
      "بلبل": 8601,
      "گرپت": 8602,
      "کپتہ": 8603,
      "یونان": 8604,
      "زنڈیں": 8605,
      "خوا": 8606,
      "توبہ": 8607,
      "ماث": 8608,
      "##ویٰ": 8609,
      "لانک": 8610,
      "##کءِ": 8611,
      "ارشک": 8612,
      "موق": 8613,
      "دێما": 8614,
      "##یشل": 8615,
      "موج": 8616,
      "افلاطون": 8617,
      "حاتم": 8618,
      "شانی": 8619,
      "شنا": 8620,
      "##ful": 8621,
      "دارایت": 8622,
      "معنی": 8623,
      "بنگیجی": 8624,
      "ہوتے": 8625,
      "many": 8626,
      "پرما": 8627,
      "تاکے": 8628,
      "درکنگ": 8629,
      "اخلاق": 8630,
      "main": 8631,
      "لاھ": 8632,
      "##شھر": 8633,
      "یکجا": 8634,
      "دلاں": 8635,
      "ابیتک": 8636,
      "نیکراہ": 8637,
      "زاری": 8638,
      "ائین": 8639,
      "قدرتی": 8640,
      "یعق": 8641,
      "تھار": 8642,
      "بچکندگ": 8643,
      "##up": 8644,
      "مائی": 8645,
      "ڈوک": 8646,
      "بلوچءَ": 8647,
      "سبا": 8648,
      "دوئیناں": 8649,
      "##زیب": 8650,
      "توکل": 8651,
      "مادن": 8652,
      "مبیت": 8653,
      "گوشے": 8654,
      "مغربی": 8655,
      "##ہدی": 8656,
      "گیں": 8657,
      "پتو": 8658,
      "stud": 8659,
      "long": 8660,
      "جنوز": 8661,
      "ذہن": 8662,
      "##گئے": 8663,
      "##ریر": 8664,
      "تھانہ": 8665,
      "شائرے": 8666,
      "##though": 8667,
      "کاپٹر": 8668,
      "min": 8669,
      "ماھی": 8670,
      "ڈبلی": 8671,
      "تراکے": 8672,
      "بندے": 8673,
      "##inn": 8674,
      "گلائیش": 8675,
      "زانشتی": 8676,
      "سریاب": 8677,
      "مسکرا": 8678,
      "United": 8679,
      "منط": 8680,
      "سوری": 8681,
      "بیماری": 8682,
      "قیمتانی": 8683,
      "ثنا": 8684,
      "پٹی": 8685,
      "ہد": 8686,
      "بلو": 8687,
      "دویں": 8688,
      "پیگمبر": 8689,
      "بلال": 8690,
      "وھدءِ": 8691,
      "ھؤر": 8692,
      "ہساب": 8693,
      "تاگت": 8694,
      "نسی": 8695,
      "##تنت": 8696,
      "زندانی": 8697,
      "سواد": 8698,
      "مدینہ": 8699,
      "طبی": 8700,
      "عادت": 8701,
      "چور": 8702,
      "جزب": 8703,
      "کرنل": 8704,
      "جاس": 8705,
      "رے": 8706,
      "##که": 8707,
      "##کائی": 8708,
      "بستارے": 8709,
      "قابل": 8710,
      "گج": 8711,
      "تؤ": 8712,
      "##ارءِ": 8713,
      "##اداد": 8714,
      "کوھاں": 8715,
      "ششمی": 8716,
      "##velop": 8717,
      "ژا": 8718,
      "کڑی": 8719,
      "درایگ": 8720,
      "شپءِ": 8721,
      "##led": 8722,
      "نندیت": 8723,
      "##الا": 8724,
      "محفوظ": 8725,
      "بچکے": 8726,
      "قائم": 8727,
      "##میگ": 8728,
      "جہلی": 8729,
      "##ھاؤ": 8730,
      "کترینا": 8731,
      "##erm": 8732,
      "مہل": 8733,
      "اصلی": 8734,
      "صدیق": 8735,
      "John": 8736,
      "اسکی": 8737,
      "موض": 8738,
      "پهک": 8739,
      "حاکمی": 8740,
      "پیرزال": 8741,
      "باک": 8742,
      "باش": 8743,
      "عراق": 8744,
      "کنگے": 8745,
      "وسیم": 8746,
      "orig": 8747,
      "پابند": 8748,
      "اخراجات": 8749,
      "ڈبلیو": 8750,
      "فلم": 8751,
      "##نائیں": 8752,
      "جھمنندیں": 8753,
      "کندیل": 8754,
      "لیکگ": 8755,
      "سازگ": 8756,
      "سپاھیگ": 8757,
      "باتن": 8758,
      "عبادت": 8759,
      "دلپدردی": 8760,
      "یکرندے": 8761,
      "وات": 8762,
      "ردءُ": 8763,
      "ھسین": 8764,
      "ریکی": 8765,
      "شهید": 8766,
      "داتنت": 8767,
      "تھاریں": 8768,
      "اظہار": 8769,
      "##خیں": 8770,
      "ملگ": 8771,
      "پیشدار": 8772,
      "##اتون": 8773,
      "گاڑیاں": 8774,
      "ھکومت": 8775,
      "انجین": 8776,
      "##دود": 8777,
      "##نگال": 8778,
      "##پارٹی": 8779,
      "ندیم": 8780,
      "جانے": 8781,
      "دنیائے": 8782,
      "گاڈی": 8783,
      "سدانی": 8784,
      "met": 8785,
      "منیت": 8786,
      "یکروچے": 8787,
      "دارگی": 8788,
      "زیکیں": 8789,
      "کارکرد": 8790,
      "جنجالاں": 8791,
      "پگار": 8792,
      "ھتر": 8793,
      "##ton": 8794,
      "##رداں": 8795,
      "ماتے": 8796,
      "تکاں": 8797,
      "##مون": 8798,
      "##ober": 8799,
      "##els": 8800,
      "est": 8801,
      "جین": 8802,
      "گراہ": 8803,
      "##oot": 8804,
      "حمایت": 8805,
      "pol": 8806,
      "جیونی": 8807,
      "نماسگ": 8808,
      "ریڈ": 8809,
      "درمیان": 8810,
      "##ئین": 8811,
      "##شیا": 8812,
      "نظری": 8813,
      "شئیرانی": 8814,
      "حیثیت": 8815,
      "ایرج": 8816,
      "شہباز": 8817,
      "##ویج": 8818,
      "دیوانجاه": 8819,
      "century": 8820,
      "##جیکٹ": 8821,
      "ساھتے": 8822,
      "متحدہ": 8823,
      "##اؤن": 8824,
      "team": 8825,
      "After": 8826,
      "رون": 8827,
      "##oad": 8828,
      "سہریں": 8829,
      "فیصل": 8830,
      "محکمہ": 8831,
      "راھی": 8832,
      "پرش": 8833,
      "پٹءُ": 8834,
      "درپش": 8835,
      "اشیءَ": 8836,
      "ھشتاد": 8837,
      "ذہنی": 8838,
      "ظہور": 8839,
      "وم": 8840,
      "##ٹیکل": 8841,
      "واریں": 8842,
      "وسائل": 8843,
      "وانیت": 8844,
      "سوی": 8845,
      "وڈا": 8846,
      "##نوک": 8847,
      "کارمستر": 8848,
      "##uch": 8849,
      "بروکیں": 8850,
      "She": 8851,
      "##ve": 8852,
      "نہاد": 8853,
      "بزگر": 8854,
      "develop": 8855,
      "مادی": 8856,
      "##ah": 8857,
      "الب": 8858,
      "چھبار": 8859,
      "اکرم": 8860,
      "دۆ": 8861,
      "##بندین": 8862,
      "show": 8863,
      "بیلٹ": 8864,
      "par": 8865,
      "ڈوب": 8866,
      "##az": 8867,
      "وراں": 8868,
      "لوزانک": 8869,
      "عثمان": 8870,
      "جات": 8871,
      "نیتکگ": 8872,
      "وشتر": 8873,
      "جنگا": 8874,
      "دروہ": 8875,
      "conc": 8876,
      "یونٹ": 8877,
      "یکم": 8878,
      "##ative": 8879,
      "مسع": 8880,
      "ھموداں": 8881,
      "br": 8882,
      "کیشن": 8883,
      "##fl": 8884,
      "ترسے": 8885,
      "صحت": 8886,
      "چڑھاؤ": 8887,
      "اہد": 8888,
      "##تاج": 8889,
      "جنزگ": 8890,
      "ھوت": 8891,
      "##گند": 8892,
      "باقی": 8893,
      "##elf": 8894,
      "حکمت": 8895,
      "نئیکہ": 8896,
      "پارلیمانی": 8897,
      "کائنات": 8898,
      "کبزہ": 8899,
      "dr": 8900,
      "زمی": 8901,
      "##iam": 8902,
      "دیگءَ": 8903,
      "لنٹاں": 8904,
      "پسگ": 8905,
      "دزمان": 8906,
      "شگر": 8907,
      "باغ": 8908,
      "جهان": 8909,
      "شامل": 8910,
      "گراہکانی": 8911,
      "ہزاراں": 8912,
      "##سین": 8913,
      "یکت": 8914,
      "ڈرامہ": 8915,
      "سبر": 8916,
      "ٹیسٹ": 8917,
      "همک": 8918,
      "عبدالغ": 8919,
      "دیوانگ": 8920,
      "##overn": 8921,
      "عجب": 8922,
      "دلپروش": 8923,
      "زوان": 8924,
      "سھی": 8925,
      "اینکس": 8926,
      "بورڈ": 8927,
      "بلند": 8928,
      "الع": 8929,
      "موسمی": 8930,
      "تگرانی": 8931,
      "##روچی": 8932,
      "sm": 8933,
      "وخ": 8934,
      "پشتو": 8935,
      "ایڈوکیٹ": 8936,
      "توانائی": 8937,
      "پیپلزپارٹی": 8938,
      "ناس": 8939,
      "پرام": 8940,
      "مزنی": 8941,
      "تمامیں": 8942,
      "ھوناں": 8943,
      "امبازاں": 8944,
      "توئے": 8945,
      "تیوگ": 8946,
      "شالا": 8947,
      "##ivers": 8948,
      "نکس": 8949,
      "سرس": 8950,
      "رہادگ": 8951,
      "تلوس": 8952,
      "فلسط": 8953,
      "نقش": 8954,
      "کمکے": 8955,
      "سبزل": 8956,
      "جاگھے": 8957,
      "پہریز": 8958,
      "##ope": 8959,
      "سوشلزم": 8960,
      "اشتگ": 8961,
      "شاگرد": 8962,
      "##زیل": 8963,
      "دروشمءَ": 8964,
      "ٹاپ": 8965,
      "ہاس": 8966,
      "شوق": 8967,
      "رژنا": 8968,
      "انجمن": 8969,
      "عز": 8970,
      "بھٹو": 8971,
      "lead": 8972,
      "موضوع": 8973,
      "##ھداری": 8974,
      "گالے": 8975,
      "درکپ": 8976,
      "ہمود": 8977,
      "ساس": 8978,
      "ھزمت": 8979,
      "بیٹ": 8980,
      "سادگیں": 8981,
      "نعمت": 8982,
      "نفسیات": 8983,
      "several": 8984,
      "یعقوب": 8985,
      "تتکگ": 8986,
      "گت": 8987,
      "ہک": 8988,
      "دمکاں": 8989,
      "##ریٹری": 8990,
      "سائنسدان": 8991,
      "ob": 8992,
      "سگار": 8993,
      "کابینہ": 8994,
      "##rap": 8995,
      "برباد": 8996,
      "سوراب": 8997,
      "##ley": 8998,
      "##زگاری": 8999,
      "البتہ": 9000,
      "وداریگ": 9001,
      "mill": 9002,
      "کرءَ": 9003,
      "دروریں": 9004,
      "کافکا": 9005,
      "سلط": 9006,
      "جانب": 9007,
      "اخری": 9008,
      "تکلی": 9009,
      "ترسینگ": 9010,
      "کاک": 9011,
      "مدان": 9012,
      "توارءَ": 9013,
      "جہگیر": 9014,
      "حالانی": 9015,
      "ھوال": 9016,
      "##ارق": 9017,
      "انٹرنیٹ": 9018,
      "مھراب": 9019,
      "مھروانیں": 9020,
      "هون": 9021,
      "##مگ": 9022,
      "##ually": 9023,
      "##ساح": 9024,
      "##نگو": 9025,
      "جہہ": 9026,
      "انگیر": 9027,
      "ھاموشی": 9028,
      "##جے": 9029,
      "بلوچیءِ": 9030,
      "پجارگ": 9031,
      "ایسا": 9032,
      "شکست": 9033,
      "یت": 9034,
      "##کور": 9035,
      "ملی": 9036,
      "##anc": 9037,
      "کتابءِ": 9038,
      "جیڑھے": 9039,
      "began": 9040,
      "ہسپتال": 9041,
      "دلمانگ": 9042,
      "near": 9043,
      "ہنکین": 9044,
      "برہ": 9045,
      "بنپد": 9046,
      "شیطان": 9047,
      "dif": 9048,
      "طبقہ": 9049,
      "الرحمن": 9050,
      "ریپبلکن": 9051,
      "##اتنت": 9052,
      "خاط": 9053,
      "دوک": 9054,
      "نشنل": 9055,
      "ٹہی": 9056,
      "کێ": 9057,
      "ایگءَ": 9058,
      "سدکی": 9059,
      "توکءَ": 9060,
      "شلوار": 9061,
      "رئو": 9062,
      "contin": 9063,
      "جمہوریت": 9064,
      "Ind": 9065,
      "تکانسری": 9066,
      "sign": 9067,
      "سخ": 9068,
      "ستکگ": 9069,
      "ڈگری": 9070,
      "##ندان": 9071,
      "کوسٹ": 9072,
      "شیرین": 9073,
      "قومانی": 9074,
      "مزاحمتی": 9075,
      "انہوں": 9076,
      "ہاتر": 9077,
      "##ized": 9078,
      "##گران": 9079,
      "لبزے": 9080,
      "مستاگ": 9081,
      "جێ": 9082,
      "ودان": 9083,
      "بیچ": 9084,
      "##یتے": 9085,
      "لوگوں": 9086,
      "راہے": 9087,
      "##بریری": 9088,
      "##ll": 9089,
      "گوہر": 9090,
      "##رافی": 9091,
      "بوس": 9092,
      "اشرف": 9093,
      "direct": 9094,
      "##اظ": 9095,
      "##گاه": 9096,
      "رہی": 9097,
      "پورٹ": 9098,
      "##ائینتگ": 9099,
      "جیڑاں": 9100,
      "##ross": 9101,
      "مقد": 9102,
      "قربان": 9103,
      "جبین": 9104,
      "حلاپ": 9105,
      "بژنی": 9106,
      "درگتا": 9107,
      "مشکول": 9108,
      "##ains": 9109,
      "ext": 9110,
      "دزگٹ": 9111,
      "حیدر": 9112,
      "رش": 9113,
      "##واس": 9114,
      "زوراں": 9115,
      "کافر": 9116,
      "##emb": 9117,
      "دھلی": 9118,
      "compl": 9119,
      "حدیث": 9120,
      "##بک": 9121,
      "مسعود": 9122,
      "air": 9123,
      "دیار": 9124,
      "اپنا": 9125,
      "##بس": 9126,
      "انو": 9127,
      "شھیدی": 9128,
      "شدت": 9129,
      "لذت": 9130,
      "لپ": 9131,
      "پلیٹ": 9132,
      "##yp": 9133,
      "##ازن": 9134,
      "بانل": 9135,
      "زانتکارانی": 9136,
      "سیکی": 9137,
      "may": 9138,
      "ہمنچو": 9139,
      "گاماں": 9140,
      "لینڈ": 9141,
      "سیشن": 9142,
      "لولی": 9143,
      "##ڑاں": 9144,
      "کنائینت": 9145,
      "شوند": 9146,
      "سقراط": 9147,
      "Wh": 9148,
      "ماب": 9149,
      "گسر": 9150,
      "مریم": 9151,
      "تنت": 9152,
      "##هاز": 9153,
      "بلاہیں": 9154,
      "ایوان": 9155,
      "درے": 9156,
      "مطال": 9157,
      "art": 9158,
      "کارر": 9159,
      "بڑی": 9160,
      "##sp": 9161,
      "چریشاں": 9162,
      "ٹور": 9163,
      "پجہ": 9164,
      "##دیگ": 9165,
      "##ase": 9166,
      "##ession": 9167,
      "وٹ": 9168,
      "ٹوہ": 9169,
      "ریفرنس": 9170,
      "لاشاری": 9171,
      "کف": 9172,
      "انار": 9173,
      "ھالے": 9174,
      "hist": 9175,
      "داخل": 9176,
      "##هر": 9177,
      "گلاس": 9178,
      "لینگویج": 9179,
      "بکار": 9180,
      "ششت": 9181,
      "##ھور": 9182,
      "مگسی": 9183,
      "گيئ": 9184,
      "crit": 9185,
      "ونگ": 9186,
      "جناور": 9187,
      "تھام": 9188,
      "عوام": 9189,
      "موسیٰ": 9190,
      "##لگ": 9191,
      "دلسی": 9192,
      "یکجاھی": 9193,
      "##يں": 9194,
      "جہت": 9195,
      "##ued": 9196,
      "early": 9197,
      "could": 9198,
      "ھکل": 9199,
      "##گوری": 9200,
      "متھدہ": 9201,
      "##une": 9202,
      "قدرت": 9203,
      "انتظامیہ": 9204,
      "وراک": 9205,
      "ترم": 9206,
      "گھتر": 9207,
      "نوروز": 9208,
      "صفحہ": 9209,
      "bel": 9210,
      "cre": 9211,
      "##بن": 9212,
      "مہری": 9213,
      "شمس": 9214,
      "میتگءِ": 9215,
      "دژمنانی": 9216,
      "مهلوک": 9217,
      "عاجز": 9218,
      "did": 9219,
      "ئت": 9220,
      "عاد": 9221,
      "##جار": 9222,
      "درنج": 9223,
      "گیشت": 9224,
      "##طیف": 9225,
      "##تما": 9226,
      "مردی": 9227,
      "برس": 9228,
      "تاکانی": 9229,
      "called": 9230,
      "جے": 9231,
      "##راتک": 9232,
      "کسانکیں": 9233,
      "زمینءِ": 9234,
      "جہدے": 9235,
      "دھک": 9236,
      "تما": 9237,
      "##شم": 9238,
      "شپانی": 9239,
      "ماتانی": 9240,
      "ازمانکاں": 9241,
      "سرکارءِ": 9242,
      "##ئس": 9243,
      "کوت": 9244,
      "پترگ": 9245,
      "episode": 9246,
      "لوک": 9247,
      "شرت": 9248,
      "##مردم": 9249,
      "گبار": 9250,
      "Is": 9251,
      "انچۆ": 9252,
      "سرپدیں": 9253,
      "سیمسری": 9254,
      "کالونی": 9255,
      "##شدد": 9256,
      "ابیتکی": 9257,
      "##au": 9258,
      "جتیں": 9259,
      "ارسی": 9260,
      "نوری": 9261,
      "دراجی": 9262,
      "درگتءَ": 9263,
      "##imes": 9264,
      "چمشانکے": 9265,
      "ھید": 9266,
      "ھالاں": 9267,
      "describ": 9268,
      "عہدی": 9269,
      "ایجنسی": 9270,
      "پیسرگیں": 9271,
      "##ژناگ": 9272,
      "ثبوت": 9273,
      "کمزور": 9274,
      "جننت": 9275,
      "کپاں": 9276,
      "زانئے": 9277,
      "کانودی": 9278,
      "صبور": 9279,
      "رنگاں": 9280,
      "پشدر": 9281,
      "دوت": 9282,
      "زندمانی": 9283,
      "##ull": 9284,
      "##roup": 9285,
      "bro": 9286,
      "سئیل": 9287,
      "مچک": 9288,
      "هک": 9289,
      "سیاه": 9290,
      "نزام": 9291,
      "کمرہ": 9292,
      "دوستدار": 9293,
      "شونگال": 9294,
      "نپس": 9295,
      "run": 9296,
      "بیزار": 9297,
      "ازاب": 9298,
      "##داتگ": 9299,
      "سالروچ": 9300,
      "##ople": 9301,
      "##راللہ": 9302,
      "ریاض": 9303,
      "بغیر": 9304,
      "کائی": 9305,
      "##رج": 9306,
      "جنیناں": 9307,
      "##ntil": 9308,
      "rece": 9309,
      "شودگ": 9310,
      "گژ": 9311,
      "##aking": 9312,
      "رض": 9313,
      "زون": 9314,
      "##عے": 9315,
      "اتکگاں": 9316,
      "بھارت": 9317,
      "نگدی": 9318,
      "طارق": 9319,
      "انہیں": 9320,
      "کسھے": 9321,
      "ھروھد": 9322,
      "میرو": 9323,
      "ٹیبل": 9324,
      "لنج": 9325,
      "ائیڈ": 9326,
      "سارتر": 9327,
      "disc": 9328,
      "لیل": 9329,
      "##شتیں": 9330,
      "محدود": 9331,
      "along": 9332,
      "ارسطو": 9333,
      "مدار": 9334,
      "کدیم": 9335,
      "برف": 9336,
      "گرو": 9337,
      "پیژ": 9338,
      "پھازگ": 9339,
      "دمانءَ": 9340,
      "وشیانی": 9341,
      "قیمت": 9342,
      "جاڑیگ": 9343,
      "##نچی": 9344,
      "جوانت": 9345,
      "جلد": 9346,
      "چاریگ": 9347,
      "ڈاہ": 9348,
      "##ردان": 9349,
      "کوشت": 9350,
      "دمے": 9351,
      "شریک": 9352,
      "پکرانی": 9353,
      "سربوت": 9354,
      "لغ": 9355,
      "مخت": 9356,
      "##ink": 9357,
      "برابری": 9358,
      "نھاد": 9359,
      "مروارد": 9360,
      "##ٹڈ": 9361,
      "##الے": 9362,
      "پیماز": 9363,
      "چدءُ": 9364,
      "##سد": 9365,
      "انگو": 9366,
      "##ments": 9367,
      "ٹائم": 9368,
      "جنکاں": 9369,
      "برائی": 9370,
      "کردانی": 9371,
      "car": 9372,
      "ڈڈ": 9373,
      "ہپتگ": 9374,
      "سیالی": 9375,
      "نزینکی": 9376,
      "انسانانی": 9377,
      "اگاہ": 9378,
      "تعالیٰ": 9379,
      "May": 9380,
      "##کوٹ": 9381,
      "##ڈک": 9382,
      "نبیسی": 9383,
      "دیواناں": 9384,
      "دہکان": 9385,
      "اگوں": 9386,
      "نابود": 9387,
      "خوب": 9388,
      "دئور": 9389,
      "کیلو": 9390,
      "کما": 9391,
      "وئیلے": 9392,
      "کماشیں": 9393,
      "inst": 9394,
      "برتانیہ": 9395,
      "تحت": 9396,
      "دھر": 9397,
      "کسه": 9398,
      "دارے": 9399,
      "جامگ": 9400,
      "کستر": 9401,
      "شہداد": 9402,
      "American": 9403,
      "said": 9404,
      "مکنت": 9405,
      "##شنگ": 9406,
      "روانکے": 9407,
      "##سراں": 9408,
      "احتگ": 9409,
      "دوسرے": 9410,
      "Bl": 9411,
      "dist": 9412,
      "دورے": 9413,
      "مرادساح": 9414,
      "لاشانی": 9415,
      "feat": 9416,
      "مشن": 9417,
      "کروس": 9418,
      "دیمے": 9419,
      "##واد": 9420,
      "##دام": 9421,
      "##مدی": 9422,
      "میتگءَ": 9423,
      "یکشمبے": 9424,
      "شناسی": 9425,
      "##رھ": 9426,
      "سینیٹ": 9427,
      "##لات": 9428,
      "لوگبانک": 9429,
      "بیگءِ": 9430,
      "مارشتے": 9431,
      "##ویل": 9432,
      "باق": 9433,
      "فرض": 9434,
      "ساھتاں": 9435,
      "گاری": 9436,
      "##ئل": 9437,
      "##وران": 9438,
      "نیستی": 9439,
      "##enn": 9440,
      "بارگیں": 9441,
      "هساب": 9442,
      "یاس": 9443,
      "دعویٰ": 9444,
      "دوستاں": 9445,
      "دژمنی": 9446,
      "لالچ": 9447,
      "mil": 9448,
      "po": 9449,
      "لم": 9450,
      "ایلیٹ": 9451,
      "ھمینچو": 9452,
      "these": 9453,
      "کاٹ": 9454,
      "گالرد": 9455,
      "ساحرءِ": 9456,
      "نیاتکگ": 9457,
      "وبا": 9458,
      "لوٹیں": 9459,
      "##itt": 9460,
      "ژند": 9461,
      "##ium": 9462,
      "##der": 9463,
      "##سوس": 9464,
      "درھیں": 9465,
      "سردارانی": 9466,
      "ڈبہ": 9467,
      "معت": 9468,
      "##ets": 9469,
      "اندگہ": 9470,
      "سڑ": 9471,
      "وغ": 9472,
      "ایردستی": 9473,
      "یکدم": 9474,
      "سھیل": 9475,
      "مثل": 9476,
      "قحطانی": 9477,
      "تشدد": 9478,
      "بوتگءُ": 9479,
      "Aust": 9480,
      "شنک": 9481,
      "دگری": 9482,
      "مرو": 9483,
      "اہت": 9484,
      "رات": 9485,
      "سؤ": 9486,
      "کاسگ": 9487,
      "##ردار": 9488,
      "##ینان": 9489,
      "بنءَ": 9490,
      "resp": 9491,
      "رؤکیں": 9492,
      "اثرات": 9493,
      "you": 9494,
      "کٹی": 9495,
      "##جک": 9496,
      "شہم": 9497,
      "##زمان": 9498,
      "##پک": 9499,
      "##علی": 9500,
      "##hy": 9501,
      "##amed": 9502,
      "زندگیءِ": 9503,
      "تتک": 9504,
      "نین": 9505,
      "پتی": 9506,
      "ھاش": 9507,
      "##ہءَ": 9508,
      "گونگیں": 9509,
      "بیاریت": 9510,
      "شیشگ": 9511,
      "نفسیاتی": 9512,
      "##ھبی": 9513,
      "##دریں": 9514,
      "سلس": 9515,
      "بیگواه": 9516,
      "کبھی": 9517,
      "ھورت": 9518,
      "اہان": 9519,
      "though": 9520,
      "##ured": 9521,
      "شعراں": 9522,
      "مکتب": 9523,
      "##نتی": 9524,
      "شھم": 9525,
      "##کایت": 9526,
      "بودل": 9527,
      "راجدوستیں": 9528,
      "سگی": 9529,
      "##ئگءَ": 9530,
      "روچا": 9531,
      "قلعہ": 9532,
      "ship": 9533,
      "غلامی": 9534,
      "لاھور": 9535,
      "قند": 9536,
      "##نٹی": 9537,
      "الق": 9538,
      "ملاز": 9539,
      "بنگپانی": 9540,
      "چیلنج": 9541,
      "چوناہا": 9542,
      "کک": 9543,
      "کشاری": 9544,
      "##ومر": 9545,
      "شوھازگ": 9546,
      "##ove": 9547,
      "oper": 9548,
      "شاتک": 9549,
      "مستی": 9550,
      "ویکس": 9551,
      "ہج": 9552,
      "خطرہ": 9553,
      "سائیکل": 9554,
      "##کین": 9555,
      "الہ": 9556,
      "پولکار": 9557,
      "نگن": 9558,
      "ھمیشانی": 9559,
      "چرس": 9560,
      "##ccess": 9561,
      "بوتن": 9562,
      "##ائیءِ": 9563,
      "ملیر": 9564,
      "بشکھندگ": 9565,
      "British": 9566,
      "ندی": 9567,
      "وب": 9568,
      "ٹوپ": 9569,
      "##زوری": 9570,
      "درب": 9571,
      "کاردار": 9572,
      "انٹیلی": 9573,
      "بزر": 9574,
      "بساک": 9575,
      "down": 9576,
      "until": 9577,
      "##شتے": 9578,
      "##ruct": 9579,
      "prev": 9580,
      "fin": 9581,
      "ماسی": 9582,
      "##زد": 9583,
      "اتے": 9584,
      "اصغر": 9585,
      "لائبریری": 9586,
      "سون": 9587,
      "##نتہ": 9588,
      "رونت": 9589,
      "نازینک": 9590,
      "دالبندین": 9591,
      "لحاظ": 9592,
      "زندہ": 9593,
      "##ange": 9594,
      "بیورغ": 9595,
      "سہت": 9596,
      "##شتیت": 9597,
      "اقتص": 9598,
      "col": 9599,
      "فور": 9600,
      "نزد": 9601,
      "خانءَ": 9602,
      "پیرمرد": 9603,
      "سگگ": 9604,
      "بچاریں": 9605,
      "ھمراھاں": 9606,
      "گیابان": 9607,
      "##سٹی": 9608,
      "دوشمبے": 9609,
      "##یکر": 9610,
      "پریشی": 9611,
      "پجاہ": 9612,
      "گیل": 9613,
      "گوان": 9614,
      "بسمل": 9615,
      "زیاد": 9616,
      "دلبر": 9617,
      "نیب": 9618,
      "ساچی": 9619,
      "محراب": 9620,
      "دنیگہ": 9621,
      "مسلمانانی": 9622,
      "جہدءَ": 9623,
      "prov": 9624,
      "گومازی": 9625,
      "city": 9626,
      "gener": 9627,
      "جۆ": 9628,
      "بوؤکیں": 9629,
      "##واحد": 9630,
      "بلوچوں": 9631,
      "راس": 9632,
      "ہمت": 9633,
      "##کتا": 9634,
      "بکننت": 9635,
      "گیجگ": 9636,
      "فٹبال": 9637,
      "زمیند": 9638,
      "war": 9639,
      "گندگا": 9640,
      "کردی": 9641,
      "اصط": 9642,
      "پترتگ": 9643,
      "same": 9644,
      "نرس": 9645,
      "##ریگ": 9646,
      "بولی": 9647,
      "گلب": 9648,
      "گلامیں": 9649,
      "اجتما": 9650,
      "سپریم": 9651,
      "روایتی": 9652,
      "War": 9653,
      "##ism": 9654,
      "دانشور": 9655,
      "##ty": 9656,
      "##اساں": 9657,
      "الگ": 9658,
      "عرض": 9659,
      "ٹیکی": 9660,
      "بق": 9661,
      "اسانی": 9662,
      "##ists": 9663,
      "کلکشان": 9664,
      "چگ": 9665,
      "##لءَ": 9666,
      "##ially": 9667,
      "بوتءُ": 9668,
      "تیرے": 9669,
      "عا": 9670,
      "نگار": 9671,
      "released": 9672,
      "land": 9673,
      "ظاھر": 9674,
      "قاب": 9675,
      "##ہک": 9676,
      "بہہ": 9677,
      "اہمیت": 9678,
      "یاتاں": 9679,
      "لزت": 9680,
      "تاچی": 9681,
      "شفی": 9682,
      "##پاری": 9683,
      "ناما": 9684,
      "##eng": 9685,
      "تنکیں": 9686,
      "مراگشے": 9687,
      "##ودر": 9688,
      "دارانی": 9689,
      "سالءِ": 9690,
      "نێم": 9691,
      "own": 9692,
      "کافی": 9693,
      "بنڈ": 9694,
      "سنگے": 9695,
      "any": 9696,
      "ارزشتے": 9697,
      "سامنے": 9698,
      "Sp": 9699,
      "##چن": 9700,
      "کرے": 9701,
      "انفار": 9702,
      "راجکاری": 9703,
      "##ided": 9704,
      "cond": 9705,
      "ایجنٹ": 9706,
      "اھی": 9707,
      "کۆ": 9708,
      "##erv": 9709,
      "##oman": 9710,
      "مرگءِ": 9711,
      "##erson": 9712,
      "دریگتیں": 9713,
      "پیسریگیں": 9714,
      "مردءِ": 9715,
      "درساں": 9716,
      "رزاق": 9717,
      "نێست": 9718,
      "return": 9719,
      "Pl": 9720,
      "بھائی": 9721,
      "کوہانی": 9722,
      "حیالاں": 9723,
      "گسانی": 9724,
      "##ومیٹر": 9725,
      "شہیدانی": 9726,
      "شئیرے": 9727,
      "قیامت": 9728,
      "نزیکءَ": 9729,
      "##پریس": 9730,
      "راشن": 9731,
      "چیخ": 9732,
      "پیشگال": 9733,
      "##زیہ": 9734,
      "They": 9735,
      "زباد": 9736,
      "ھردوکیں": 9737,
      "مانی": 9738,
      "##ذی": 9739,
      "ساریءَ": 9740,
      "تکنیکی": 9741,
      "##فاضل": 9742,
      "ماتءِ": 9743,
      "عبدالق": 9744,
      "باسکے": 9745,
      "کلاسیکل": 9746,
      "بع": 9747,
      "توس": 9748,
      "راہی": 9749,
      "music": 9750,
      "km": 9751,
      "ترگ": 9752,
      "##سرءَ": 9753,
      "بریگیڈ": 9754,
      "شوکت": 9755,
      "##ajor": 9756,
      "sl": 9757,
      "ڈب": 9758,
      "گہتری": 9759,
      "design": 9760,
      "کارروائی": 9761,
      "رویں": 9762,
      "اشر": 9763,
      "لبزانکءَ": 9764,
      "اندوہ": 9765,
      "produc": 9766,
      "For": 9767,
      "ئنت": 9768,
      "جمھ": 9769,
      "mat": 9770,
      "ساک": 9771,
      "هرکس": 9772,
      "بیمار": 9773,
      "##ible": 9774,
      "صوفی": 9775,
      "شوکیں": 9776,
      "اجکہ": 9777,
      "باند": 9778,
      "کاریز": 9779,
      "پکرءُ": 9780,
      "شئرانی": 9781,
      "##موش": 9782,
      "##osed": 9783,
      "million": 9784,
      "sim": 9785,
      "##جت": 9786,
      "یاتگ": 9787,
      "پولنگ": 9788,
      "وہدا": 9789,
      "const": 9790,
      "دربرتگ": 9791,
      "اتحاد": 9792,
      "ورا": 9793,
      "نبشتانکاں": 9794,
      "exp": 9795,
      "نگیگیں": 9796,
      "Tr": 9797,
      "خدائی": 9798,
      "##فل": 9799,
      "زرءِ": 9800,
      "چراگے": 9801,
      "final": 9802,
      "حاض": 9803,
      "دیگا": 9804,
      "##وسہ": 9805,
      "کسہانی": 9806,
      "درورے": 9807,
      "حداءِ": 9808,
      "dep": 9809,
      "because": 9810,
      "سنگینیں": 9811,
      "Ger": 9812,
      "fam": 9813,
      "use": 9814,
      "بنیا": 9815,
      "##پول": 9816,
      "تربیت": 9817,
      "ھرنائی": 9818,
      "نازل": 9819,
      "area": 9820,
      "انٹرنیشنل": 9821,
      "نذ": 9822,
      "##ھری": 9823,
      "لوپ": 9824,
      "گڈاں": 9825,
      "زرداری": 9826,
      "رفیق": 9827,
      "گین": 9828,
      "مردک": 9829,
      "ٹیکس": 9830,
      "دێم": 9831,
      "سلطنت": 9832,
      "##ڈول": 9833,
      "ایردست": 9834,
      "Chr": 9835,
      "Aug": 9836,
      "##ash": 9837,
      "ھیالے": 9838,
      "مرکزی": 9839,
      "ءّ": 9840,
      "عاق": 9841,
      "یقین": 9842,
      "##عال": 9843,
      "دیری": 9844,
      "کلاگ": 9845,
      "اتکہ": 9846,
      "زانشی": 9847,
      "شلی": 9848,
      "##ومان": 9849,
      "دودانی": 9850,
      "لائق": 9851,
      "جمبراں": 9852,
      "August": 9853,
      "پکیر": 9854,
      "occ": 9855,
      "خواہ": 9856,
      "##ين": 9857,
      "دلیری": 9858,
      "گشتے": 9859,
      "بلۆچستان": 9860,
      "گدارے": 9861,
      "پارٹیءِ": 9862,
      "کارستے": 9863,
      "ٹکرے": 9864,
      "ریسر": 9865,
      "گاہ": 9866,
      "ھاجی": 9867,
      "##ently": 9868,
      "لیاقت": 9869,
      "open": 9870,
      "ھیک": 9871,
      "وابی": 9872,
      "like": 9873,
      "##شیر": 9874,
      "##گپ": 9875,
      "اپہ": 9876,
      "امکان": 9877,
      "شعبہ": 9878,
      "پجا": 9879,
      "پیسرءَ": 9880,
      "چپیں": 9881,
      "لونجان": 9882,
      "لوٹوک": 9883,
      "ماریت": 9884,
      "سروکاں": 9885,
      "نسیب": 9886,
      "بودلئیر": 9887,
      "بحر": 9888,
      "کلان": 9889,
      "اجب": 9890,
      "بوھگءَ": 9891,
      "سات": 9892,
      "##زیں": 9893,
      "پریشر": 9894,
      "ہنداں": 9895,
      "تاوانے": 9896,
      "اسلوب": 9897,
      "نعیم": 9898,
      "شیت": 9899,
      "ٹرال": 9900,
      "میچ": 9901,
      "##cept": 9902,
      "ھاکمی": 9903,
      "##رب": 9904,
      "##und": 9905,
      "منارا": 9906,
      "##اداری": 9907,
      "پرنگی": 9908,
      "کمکی": 9909,
      "##ouse": 9910,
      "تاہیر": 9911,
      "زحم": 9912,
      "لاک": 9913,
      "کرکے": 9914,
      "##ony": 9915,
      "ماتءَ": 9916,
      "وهدا": 9917,
      "مٹیں": 9918,
      "هور": 9919,
      "ماڈل": 9920,
      "ملکءَ": 9921,
      "کپتگاں": 9922,
      "لگیت": 9923,
      "نعرہ": 9924,
      "ھپتگے": 9925,
      "موقع": 9926,
      "Cl": 9927,
      "پوک": 9928,
      "##وجود": 9929,
      "##ues": 9930,
      "اینچک": 9931,
      "کرتیں": 9932,
      "بوگءِ": 9933,
      "سیاستدان": 9934,
      "اجوئیں": 9935,
      "pass": 9936,
      "شیل": 9937,
      "کبول": 9938,
      "##گیا": 9939,
      "مرگاں": 9940,
      "چکر": 9941,
      "پریدہ": 9942,
      "شھراں": 9943,
      "##oss": 9944,
      "زردیں": 9945,
      "##eal": 9946,
      "##ستیں": 9947,
      "معن": 9948,
      "سنگانی": 9949,
      "مہروان": 9950,
      "رئیسی": 9951,
      "اختلاف": 9952,
      "eff": 9953,
      "پگ": 9954,
      "##نمنٹ": 9955,
      "##ینچک": 9956,
      "تراکن": 9957,
      "نوشکے": 9958,
      "ناگت": 9959,
      "کلومیٹر": 9960,
      "##chool": 9961,
      "کوھلو": 9962,
      "##بلوچستان": 9963,
      "جمہوری": 9964,
      "صالح": 9965,
      "تھنائی": 9966,
      "وانگجاھاں": 9967,
      "شتہ": 9968,
      "زہگاں": 9969,
      "نوکر": 9970,
      "people": 9971,
      "بغ": 9972,
      "ولا": 9973,
      "ہمیں": 9974,
      "اپءِ": 9975,
      "کندگے": 9976,
      "شهر": 9977,
      "ھنچشیں": 9978,
      "بالگتر": 9979,
      "Con": 9980,
      "خراب": 9981,
      "رادگ": 9982,
      "نازی": 9983,
      "##يٴ": 9984,
      "پرب": 9985,
      "واجہی": 9986,
      "ایسے": 9987,
      "دہک": 9988,
      "اسکور": 9989,
      "##وڑیں": 9990,
      "افریقہ": 9991,
      "کوریں": 9992,
      "طرز": 9993,
      "سران": 9994,
      "adv": 9995,
      "دونوں": 9996,
      "شرم": 9997,
      "ایریں": 9998,
      "رابطہ": 9999,
      "##لٰ": 10000,
      "##کنی": 10001,
      "##اہدہ": 10002,
      "اپءَ": 10003,
      "##وتا": 10004,
      "ورک": 10005,
      "##stem": 10006,
      "لہتین": 10007,
      "##بوط": 10008,
      "مردگ": 10009,
      "ھردیں": 10010,
      "درجگ": 10011,
      "گلا": 10012,
      "ارشاد": 10013,
      "offic": 10014,
      "پھازگی": 10015,
      "count": 10016,
      "کریں": 10017,
      "واناں": 10018,
      "گوئش": 10019,
      "ترینگ": 10020,
      "انگریزانی": 10021,
      "ھالی": 10022,
      "شعوری": 10023,
      "حیالءَ": 10024,
      "زمانگاں": 10025,
      "ادمے": 10026,
      "سینگار": 10027,
      "پاھ": 10028,
      "ہڈ": 10029,
      "درش": 10030,
      "##ائنٹ": 10031,
      "کسےءَ": 10032,
      "six": 10033,
      "قید": 10034,
      "لگا": 10035,
      "##به": 10036,
      "دارنت": 10037,
      "دیوانءَ": 10038,
      "##uth": 10039,
      "پہمگ": 10040,
      "ناسرجم": 10041,
      "ربی": 10042,
      "##ہءِ": 10043,
      "##میری": 10044,
      "کارپد": 10045,
      "##ائیءَ": 10046,
      "استانی": 10047,
      "کیلئے": 10048,
      "عقلی": 10049,
      "رضی": 10050,
      "##اماں": 10051,
      "کشءَ": 10052,
      "میتگانی": 10053,
      "##واک": 10054,
      "##my": 10055,
      "گوا": 10056,
      "بوھان": 10057,
      "##گواه": 10058,
      "ملین": 10059,
      "پتءَ": 10060,
      "شائریءِ": 10061,
      "جامی": 10062,
      "ہوس": 10063,
      "##گرنچی": 10064,
      "افراد": 10065,
      "##تاور": 10066,
      "چارگا": 10067,
      "وسیلگ": 10068,
      "جیسے": 10069,
      "یگ": 10070,
      "انون": 10071,
      "پرگ": 10072,
      "کمانڈر": 10073,
      "اصطلاح": 10074,
      "دوسری": 10075,
      "اپے": 10076,
      "زرءَ": 10077,
      "گندءُ": 10078,
      "معنائی": 10079,
      "بدلءَ": 10080,
      "برگیڈ": 10081,
      "اکسی": 10082,
      "ہدایت": 10083,
      "سسی": 10084,
      "وزم": 10085,
      "پائپ": 10086,
      "تراکناکیں": 10087,
      "غری": 10088,
      "روانی": 10089,
      "بچے": 10090,
      "سیکیورٹی": 10091,
      "ھیات": 10092,
      "بوگا": 10093,
      "راسک": 10094,
      "دودءُ": 10095,
      "مقامی": 10096,
      "زانتکاراں": 10097,
      "داخلہ": 10098,
      "مالوم": 10099,
      "##لوق": 10100,
      "around": 10101,
      "وٹس": 10102,
      "گذ": 10103,
      "ھرابی": 10104,
      "پجارینگ": 10105,
      "ملافاضل": 10106,
      "ویڈیو": 10107,
      "شومیں": 10108,
      "اوکیں": 10109,
      "##سان": 10110,
      "میٹ": 10111,
      "اسرءَ": 10112,
      "جلوہ": 10113,
      "افسانہ": 10114,
      "طالب": 10115,
      "جھدے": 10116,
      "small": 10117,
      "کاش": 10118,
      "##یدار": 10119,
      "رویہ": 10120,
      "رنگءُ": 10121,
      "مھتر": 10122,
      "عبدالواحد": 10123,
      "##ident": 10124,
      "سمیر": 10125,
      "اصول": 10126,
      "کالم": 10127,
      "However": 10128,
      "Sept": 10129,
      "شاہی": 10130,
      "بازارءَ": 10131,
      "mod": 10132,
      "پکن": 10133,
      "گوارگ": 10134,
      "##برگ": 10135,
      "success": 10136,
      "کیں": 10137,
      "کاران": 10138,
[...]
