{
  "version": "1.0",
  "truncation": null,
  "padding": null,
  "added_tokens": [
    {
      "id": 0,
      "content": "[PAD]",
      "single_word": false,
      "lstrip": false,
      "rstrip": false,
      "normalized": false,
      "special": true
    },
    {
      "id": 1,
      "content": "[UNK]",
      "single_word": false,
      "lstrip": false,
      "rstrip": false,
      "normalized": false,
      "special": true
    },
    {
      "id": 2,
      "content": "[CLS]",
      "single_word": false,
      "lstrip": false,
      "rstrip": false,
      "normalized": false,
      "special": true
    },
    {
      "id": 3,
      "content": "[SEP]",
      "single_word": false,
      "lstrip": false,
      "rstrip": false,
      "normalized": false,
      "special": true
    },
    {
      "id": 4,
      "content": "[MASK]",
      "single_word": false,
      "lstrip": false,
      "rstrip": false,
      "normalized": false,
      "special": true
    }
  ],
  "normalizer": {
    "type": "NFKC"
  },
  "pre_tokenizer": {
    "type": "Sequence",
    "pretokenizers": [
      {
        "type": "Whitespace"
      },
      {
        "type": "Punctuation",
        "behavior": "Isolated"
      },
      {
        "type": "Digits",
        "individual_digits": true
      }
    ]
  },
  "post_processor": null,
  "decoder": null,
  "model": {
    "type": "BPE",
    "dropout": null,
    "unk_token": "[UNK]",
    "continuing_subword_prefix": null,
    "end_of_word_suffix": null,
    "fuse_unk": false,
    "byte_fallback": false,
    "ignore_merges": false,
    "vocab": {
      "[PAD]": 0,
      "[UNK]": 1,
      "[CLS]": 2,
      "[SEP]": 3,
      "[MASK]": 4,
      "\u0004": 5,
      "\b": 6,
      "!": 7,
      "\"": 8,
      "#": 9,
      "$": 10,
      "%": 11,
      "&": 12,
      "'": 13,
      "(": 14,
      ")": 15,
      "*": 16,
      "+": 17,
      ",": 18,
      "-": 19,
      ".": 20,
      "/": 21,
      "0": 22,
      "1": 23,
      "2": 24,
      "3": 25,
      "4": 26,
      "5": 27,
      "6": 28,
      "7": 29,
      "8": 30,
      "9": 31,
      ":": 32,
      ";": 33,
      "<": 34,
      "=": 35,
      ">": 36,
      "?": 37,
      "@": 38,
      "A": 39,
      "B": 40,
      "C": 41,
      "D": 42,
      "E": 43,
      "F": 44,
      "G": 45,
      "H": 46,
      "I": 47,
      "J": 48,
      "K": 49,
      "L": 50,
      "M": 51,
      "N": 52,
      "O": 53,
      "P": 54,
      "Q": 55,
      "R": 56,
      "S": 57,
      "T": 58,
      "U": 59,
      "V": 60,
      "W": 61,
      "X": 62,
      "Y": 63,
      "Z": 64,
      "[": 65,
      "\\": 66,
      "]": 67,
      "^": 68,
      "_": 69,
      "`": 70,
      "a": 71,
      "b": 72,
      "c": 73,
      "d": 74,
      "e": 75,
      "f": 76,
      "g": 77,
      "h": 78,
      "i": 79,
      "j": 80,
      "k": 81,
      "l": 82,
      "m": 83,
      "n": 84,
      "o": 85,
      "p": 86,
      "q": 87,
      "r": 88,
      "s": 89,
      "t": 90,
      "u": 91,
      "v": 92,
      "w": 93,
      "x": 94,
      "y": 95,
      "z": 96,
      "|": 97,
      "}": 98,
      "~": 99,
      "": 100,
      "": 101,
      "¡": 102,
      "¢": 103,
      "£": 104,
      "¥": 105,
      "§": 106,
      "°": 107,
      "±": 108,
      "·": 109,
      "¿": 110,
      "Á": 111,
      "Ä": 112,
      "Å": 113,
      "Æ": 114,
      "Ç": 115,
      "É": 116,
      "Í": 117,
      "Î": 118,
      "Ñ": 119,
      "Ó": 120,
      "Ö": 121,
      "×": 122,
      "Ø": 123,
      "Ú": 124,
      "Ü": 125,
      "Þ": 126,
      "ß": 127,
      "à": 128,
      "á": 129,
      "â": 130,
      "ã": 131,
      "ä": 132,
      "å": 133,
      "æ": 134,
      "ç": 135,
      "è": 136,
      "é": 137,
      "ê": 138,
      "ë": 139,
      "ì": 140,
      "í": 141,
      "î": 142,
      "ï": 143,
      "ð": 144,
      "ñ": 145,
      "ò": 146,
      "ó": 147,
      "ô": 148,
      "ö": 149,
      "ø": 150,
      "ù": 151,
      "ú": 152,
      "û": 153,
      "ü": 154,
      "ý": 155,
      "þ": 156,
      "Ā": 157,
      "ā": 158,
      "ă": 159,
      "ą": 160,
      "ć": 161,
      "Č": 162,
      "č": 163,
      "Đ": 164,
      "đ": 165,
      "Ē": 166,
      "ē": 167,
      "Ĕ": 168,
      "ĕ": 169,
      "ė": 170,
      "ę": 171,
      "ğ": 172,
      "ħ": 173,
      "ī": 174,
      "İ": 175,
      "ı": 176,
      "Ľ": 177,
      "Ł": 178,
      "ł": 179,
      "ń": 180,
      "Ō": 181,
      "ō": 182,
      "œ": 183,
      "ř": 184,
      "Ś": 185,
      "ś": 186,
      "Ş": 187,
      "ş": 188,
      "Š": 189,
      "š": 190,
      "ţ": 191,
      "ũ": 192,
      "ū": 193,
      "ů": 194,
      "ų": 195,
      "ź": 196,
      "Ż": 197,
      "ż": 198,
      "Ž": 199,
      "ž": 200,
      "ơ": 201,
      "ư": 202,
      "ǎ": 203,
      "ǔ": 204,
      "Ș": 205,
      "ș": 206,
      "ț": 207,
      "ȯ": 208,
      "ɐ": 209,
      "ɑ": 210,
      "ɒ": 211,
      "ɔ": 212,
      "ə": 213,
      "ɛ": 214,
      "ɜ": 215,
      "ɡ": 216,
      "ɢ": 217,
      "ɪ": 218,
      "ɫ": 219,
      "ɬ": 220,
      "ɳ": 221,
      "ɽ": 222,
      "ɾ": 223,
      "ʁ": 224,
      "ʃ": 225,
      "ʊ": 226,
      "ʋ": 227,
      "ʒ": 228,
      "ʔ": 229,
      "ʕ": 230,
      "ʻ": 231,
      "ʼ": 232,
      "ʾ": 233,
      "ʿ": 234,
      "ˈ": 235,
      "ˌ": 236,
      "ː": 237,
      "˳": 238,
      "́": 239,
      "̃": 240,
      "̋": 241,
      "̍": 242,
      "̤": 243,
      "̥": 244,
      "̯": 245,
      "͍": 246,
      "Α": 247,
      "Δ": 248,
      "Κ": 249,
      "Ν": 250,
      "Π": 251,
      "Τ": 252,
      "Φ": 253,
      "Χ": 254,
      "Ω": 255,
      "ά": 256,
      "έ": 257,
      "ή": 258,
      "ί": 259,
      "α": 260,
      "β": 261,
      "γ": 262,
      "δ": 263,
      "ε": 264,
      "η": 265,
      "θ": 266,
      "ι": 267,
      "κ": 268,
      "λ": 269,
      "μ": 270,
      "ν": 271,
      "ξ": 272,
      "ο": 273,
      "π": 274,
      "ρ": 275,
      "ς": 276,
      "σ": 277,
      "τ": 278,
      "υ": 279,
      "χ": 280,
      "ψ": 281,
      "ω": 282,
      "ό": 283,
      "ύ": 284,
      "ώ": 285,
      "А": 286,
      "Б": 287,
      "В": 288,
      "Г": 289,
      "И": 290,
      "К": 291,
      "Л": 292,
      "П": 293,
      "Р": 294,
      "С": 295,
      "Т": 296,
      "У": 297,
      "Х": 298,
      "Э": 299,
      "Я": 300,
      "а": 301,
      "б": 302,
      "в": 303,
      "г": 304,
      "д": 305,
      "е": 306,
      "ж": 307,
      "з": 308,
      "и": 309,
      "й": 310,
      "к": 311,
      "л": 312,
      "м": 313,
      "н": 314,
      "о": 315,
      "п": 316,
      "р": 317,
      "с": 318,
      "т": 319,
      "у": 320,
      "х": 321,
      "ц": 322,
      "ч": 323,
      "ш": 324,
      "щ": 325,
      "ъ": 326,
      "ы": 327,
      "ь": 328,
      "ю": 329,
      "я": 330,
      "є": 331,
      "ֵ": 332,
      "ֶ": 333,
      "ָ": 334,
      "ֹ": 335,
      "ּ": 336,
      "א": 337,
      "ב": 338,
      "ג": 339,
      "ד": 340,
      "ה": 341,
      "ו": 342,
      "ז": 343,
      "ח": 344,
      "י": 345,
      "ל": 346,
      "ם": 347,
      "מ": 348,
      "ן": 349,
      "נ": 350,
      "ס": 351,
      "ף": 352,
      "פ": 353,
      "צ": 354,
      "ר": 355,
      "ש": 356,
      "ת": 357,
      "؁": 358,
      "؂": 359,
      "؍": 360,
      "؎": 361,
      "؏": 362,
      "ؒ": 363,
      "ؓ": 364,
      "ؔ": 365,
      "ء": 366,
      "ؤ": 367,
      "ئ": 368,
      "ا": 369,
      "ب": 370,
      "ة": 371,
      "ت": 372,
      "ث": 373,
      "ج": 374,
      "ح": 375,
      "خ": 376,
      "د": 377,
      "ذ": 378,
      "ر": 379,
      "ز": 380,
      "س": 381,
      "ش": 382,
      "ص": 383,
      "ض": 384,
      "ط": 385,
      "ظ": 386,
      "ع": 387,
      "غ": 388,
      "ف": 389,
      "ق": 390,
      "ك": 391,
      "ل": 392,
      "م": 393,
      "ن": 394,
      "ه": 395,
      "و": 396,
      "ى": 397,
      "ي": 398,
      "ً": 399,
      "ٌ": 400,
      "ٍ": 401,
      "َ": 402,
      "ُ": 403,
      "ِ": 404,
      "ّ": 405,
      "ْ": 406,
      "ٓ": 407,
      "ٔ": 408,
      "ٗ": 409,
      "٘": 410,
      "ٙ": 411,
      "ٛ": 412,
      "٠": 413,
      "١": 414,
      "٢": 415,
      "٣": 416,
      "٤": 417,
      "٥": 418,
      "٦": 419,
      "٧": 420,
      "٨": 421,
      "٩": 422,
      "٪": 423,
      "٫": 424,
      "٬": 425,
      "٭": 426,
      "ٰ": 427,
      "ٲ": 428,
      "ٳ": 429,
      "ٴ": 430,
      "ٹ": 431,
      "ٻ": 432,
      "ټ": 433,
      "ٽ": 434,
      "پ": 435,
      "ٿ": 436,
      "ڀ": 437,
      "ځ": 438,
      "ڃ": 439,
      "ڄ": 440,
      "څ": 441,
      "چ": 442,
      "ڇ": 443,
      "ڈ": 444,
      "ډ": 445,
      "ڊ": 446,
      "ڋ": 447,
      "ڌ": 448,
      "ڍ": 449,
      "ڏ": 450,
      "ڑ": 451,
      "ړ": 452,
      "ڕ": 453,
      "ږ": 454,
      "ڗ": 455,
      "ژ": 456,
      "ڙ": 457,
      "ښ": 458,
      "ڥ": 459,
      "ک": 460,
      "ڪ": 461,
      "ګ": 462,
      "گ": 463,
      "ڰ": 464,
      "ڱ": 465,
      "ڳ": 466,
      "ڷ": 467,
      "ں": 468,
      "ڻ": 469,
      "ھ": 470,
      "ۀ": 471,
      "ہ": 472,
      "ۂ": 473,
      "ۃ": 474,
      "ۆ": 475,
      "ۉ": 476,
      "ی": 477,
      "ۍ": 478,
      "ێ": 479,
      "ۏ": 480,
      "ې": 481,
      "ے": 482,
      "ۓ": 483,
      "۔": 484,
      "۝": 485,
      "۞": 486,
      "۟": 487,
      "۠": 488,
      "ۡ": 489,
      "ۤ": 490,
      "۩": 491,
      "۪": 492,
      "۫": 493,
      "ۯ": 494,
      "۰": 495,
      "۱": 496,
      "۲": 497,
      "۳": 498,
      "۴": 499,
      "۵": 500,
      "۶": 501,
      "۷": 502,
      "۸": 503,
      "۹": 504,
      "۽": 505,
      "۾": 506,
      "ܐ": 507,
      "ܕ": 508,
      "ܗ": 509,
      "ܝ": 510,
      "ܠ": 511,
      "ܢ": 512,
      "ܬ": 513,
      "ܲ": 514,
      "ܵ": 515,
      "ݔ": 516,
      "ހ": 517,
      "ނ": 518,
      "ވ": 519,
      "ދ": 520,
      "ި": 521,
      "ް": 522,
      "ࢨ": 523,
      "ࣿ": 524,
      "ं": 525,
      "अ": 526,
      "ई": 527,
      "क": 528,
      "ग": 529,
      "ण": 530,
      "त": 531,
      "द": 532,
      "न": 533,
      "प": 534,
      "ब": 535,
      "भ": 536,
      "म": 537,
      "य": 538,
      "र": 539,
      "ल": 540,
      "व": 541,
      "स": 542,
      "ह": 543,
      "ा": 544,
      "ि": 545,
      "ी": 546,
      "ु": 547,
      "ू": 548,
      "े": 549,
      "ै": 550,
      "्": 551,
      "আ": 552,
      "ঝ": 553,
      "ত": 554,
      "প": 555,
      "ল": 556,
      "হ": 557,
      "া": 558,
      "্": 559,
      "ਅ": 560,
      "ਲ": 561,
      "ਹ": 562,
      "ਾ": 563,
      "ੁ": 564,
      "ੱ": 565,
      "അ": 566,
      "ള": 567,
      "ഹ": 568,
      "ാ": 569,
      "്": 570,
      "ก": 571,
      "ค": 572,
      "ง": 573,
      "ช": 574,
      "ซ": 575,
      "ญ": 576,
      "ฐ": 577,
      "ณ": 578,
      "ด": 579,
      "ต": 580,
      "น": 581,
      "บ": 582,
      "ป": 583,
      "พ": 584,
      "ภ": 585,
      "ม": 586,
      "ย": 587,
      "ร": 588,
      "ล": 589,
      "ว": 590,
      "ศ": 591,
      "ษ": 592,
      "ส": 593,
      "ห": 594,
      "อ": 595,
      "ฮ": 596,
      "ะ": 597,
      "ั": 598,
      "า": 599,
      "ิ": 600,
      "ี": 601,
      "ึ": 602,
      "เ": 603,
      "แ": 604,
      "ไ": 605,
      "็": 606,
      "่": 607,
      "้": 608,
      "๊": 609,
      "์": 610,
      "Ⴀ": 611,
      "Ⴂ": 612,
      "Ⴃ": 613,
      "Ⴈ": 614,
      "Ⴌ": 615,
      "Ⴕ": 616,
      "Ⴟ": 617,
      "ა": 618,
      "ბ": 619,
      "გ": 620,
      "დ": 621,
      "ე": 622,
      "ვ": 623,
      "ზ": 624,
      "თ": 625,
      "ი": 626,
      "კ": 627,
      "ლ": 628,
      "მ": 629,
      "ნ": 630,
      "ო": 631,
      "პ": 632,
      "ჟ": 633,
      "რ": 634,
      "ს": 635,
      "ტ": 636,
      "უ": 637,
      "ფ": 638,
      "ქ": 639,
      "ღ": 640,
      "ყ": 641,
      "შ": 642,
      "ჩ": 643,
      "ც": 644,
      "ძ": 645,
      "წ": 646,
      "ჭ": 647,
      "ხ": 648,
      "ჯ": 649,
      "ჰ": 650,
      "ჱ": 651,
      "ჲ": 652,
      "ჳ": 653,
      "ჴ": 654,
      "ჵ": 655,
      "ჶ": 656,
      "ჷ": 657,
      "ჸ": 658,
      "ჹ": 659,
      "ჺ": 660,
      "჻": 661,
      "ᵻ": 662,
      "ḍ": 663,
      "ḏ": 664,
      "Ḥ": 665,
      "ḥ": 666,
      "ḷ": 667,
      "ṃ": 668,
      "ṅ": 669,
      "ṇ": 670,
      "ṛ": 671,
      "ṣ": 672,
      "ṭ": 673,
      "ṯ": 674,
      "ạ": 675,
      "ả": 676,
      "ấ": 677,
      "ầ": 678,
      "ậ": 679,
      "ắ": 680,
      "ễ": 681,
      "ệ": 682,
      "ị": 683,
      "ọ": 684,
      "ỏ": 685,
      "ỗ": 686,
      "ộ": 687,
      "ớ": 688,
      "ứ": 689,
      "ử": 690,
      "ữ": 691,
      "ỳ": 692,
      "ỹ": 693,
      "ἀ": 694,
      "ἰ": 695,
      "ὀ": 696,
      "ὁ": 697,
      "ὑ": 698,
      "​": 699,
      "‎": 700,
      "‐": 701,
      "–": 702,
      "—": 703,
      "―": 704,
      "‘": 705,
      "’": 706,
      "“": 707,
      "”": 708,
      "„": 709,
      "†": 710,
      "‡": 711,
      "•": 712,
      "‪": 713,
      "‫": 714,
      "‬": 715,
      "′": 716,
      "‹": 717,
      "›": 718,
      "※": 719,
      "⁄": 720,
      "⁠": 721,
      "⁦": 722,
      "⁨": 723,
      "⁩": 724,
      "₣": 725,
      "₤": 726,
      "€": 727,
      "₹": 728,
      "⃣": 729,
      "↑": 730,
      "→": 731,
      "↔": 732,
      "↘": 733,
      "↪": 734,
      "⇦": 735,
      "⇨": 736,
      "⇩": 737,
      "∆": 738,
      "−": 739,
      "∗": 740,
      "√": 741,
      "∴": 742,
      "∵": 743,
      "≈": 744,
      "≡": 745,
      "≤": 746,
      "≥": 747,
      "⏪": 748,
      "⏰": 749,
      "⏲": 750,
      "⏳": 751,
      "⏺": 752,
      "─": 753,
      "█": 754,
      "▓": 755,
      "■": 756,
      "▪": 757,
      "▫": 758,
      "▶": 759,
      "◀": 760,
      "◄": 761,
      "○": 762,
      "●": 763,
      "◻": 764,
      "◼": 765,
      "◽": 766,
      "◾": 767,
      "☀": 768,
      "☄": 769,
      "★": 770,
      "☆": 771,
      "☉": 772,
      "☘": 773,
      "☜": 774,
      "☝": 775,
      "☫": 776,
      "♀": 777,
      "♂": 778,
      "♡": 779,
      "♢": 780,
      "♣": 781,
      "♥": 782,
      "♦": 783,
      "♨": 784,
      "♭": 785,
      "♯": 786,
      "♻": 787,
      "⚓": 788,
      "⚔": 789,
      "⚛": 790,
      "⚠": 791,
      "⚡": 792,
      "⚫": 793,
      "⚳": 794,
      "⛅": 795,
      "⛈": 796,
      "⛔": 797,
      "⛰": 798,
      "⛲": 799,
      "✄": 800,
      "✅": 801,
      "✋": 802,
      "✌": 803,
      "✍": 804,
      "✎": 805,
      "✏": 806,
      "✒": 807,
      "✓": 808,
      "✔": 809,
      "✘": 810,
      "✨": 811,
      "✳": 812,
      "✴": 813,
      "❀": 814,
      "❄": 815,
      "❇": 816,
      "❊": 817,
      "❌": 818,
      "❎": 819,
      "❓": 820,
      "❖": 821,
      "❗": 822,
      "❣": 823,
      "❤": 824,
      "❶": 825,
      "❷": 826,
      "❸": 827,
      "❹": 828,
      "❺": 829,
      "➏": 830,
      "➐": 831,
      "➖": 832,
      "➡": 833,
      "➣": 834,
      "⦿": 835,
      "⩽": 836,
      "⬅": 837,
      "⬇": 838,
      "⬛": 839,
      "⭐": 840,
      "⭕": 841,
      "、": 842,
      "。": 843,
      "〆": 844,
      "〇": 845,
      "〈": 846,
      "〉": 847,
      "《": 848,
      "》": 849,
      "〜": 850,
      "〰": 851,
      "あ": 852,
      "い": 853,
      "う": 854,
      "お": 855,
      "か": 856,
      "が": 857,
      "き": 858,
      "ぎ": 859,
      "く": 860,
      "ぐ": 861,
      "け": 862,
      "こ": 863,
      "ご": 864,
      "さ": 865,
      "し": 866,
      "す": 867,
      "ず": 868,
      "ぜ": 869,
      "た": 870,
      "だ": 871,
      "ち": 872,
      "っ": 873,
      "つ": 874,
      "と": 875,
      "な": 876,
      "に": 877,
      "の": 878,
      "は": 879,
      "ば": 880,
      "ひ": 881,
      "ふ": 882,
      "ほ": 883,
      "ま": 884,
      "み": 885,
      "め": 886,
      "も": 887,
      "ゃ": 888,
      "ゆ": 889,
      "ょ": 890,
      "ら": 891,
      "り": 892,
      "る": 893,
      "れ": 894,
      "わ": 895,
      "を": 896,
      "ん": 897,
      "ァ": 898,
      "ア": 899,
      "ィ": 900,
      "イ": 901,
      "ゥ": 902,
      "ェ": 903,
      "エ": 904,
      "ォ": 905,
      "オ": 906,
      "カ": 907,
      "ガ": 908,
      "キ": 909,
      "ク": 910,
      "グ": 911,
      "ゲ": 912,
      "コ": 913,
      "サ": 914,
      "シ": 915,
      "ジ": 916,
      "ス": 917,
      "ズ": 918,
      "セ": 919,
      "タ": 920,
      "ダ": 921,
      "チ": 922,
      "ッ": 923,
      "ツ": 924,
      "テ": 925,
      "デ": 926,
      "ト": 927,
      "ド": 928,
      "ナ": 929,
      "ニ": 930,
      "ネ": 931,
      "ノ": 932,
      "ハ": 933,
      "バ": 934,
      "パ": 935,
      "フ": 936,
      "ブ": 937,
      "プ": 938,
      "ヘ": 939,
      "ベ": 940,
      "マ": 941,
      "ミ": 942,
      "ム": 943,
      "モ": 944,
      "ャ": 945,
      "ュ": 946,
      "ョ": 947,
      "ラ": 948,
      "リ": 949,
      "ル": 950,
      "レ": 951,
      "ロ": 952,
      "ン": 953,
      "ヴ": 954,
      "・": 955,
      "ー": 956,
      "一": 957,
      "七": 958,
      "下": 959,
      "世": 960,
      "丙": 961,
      "中": 962,
      "主": 963,
      "乃": 964,
      "之": 965,
      "乙": 966,
      "九": 967,
      "乡": 968,
      "二": 969,
      "云": 970,
      "人": 971,
      "今": 972,
      "付": 973,
      "作": 974,
      "侗": 975,
      "依": 976,
      "信": 977,
      "備": 978,
      "傳": 979,
      "儚": 980,
      "充": 981,
      "光": 982,
      "全": 983,
      "兵": 984,
      "其": 985,
      "具": 986,
      "円": 987,
      "再": 988,
      "出": 989,
      "判": 990,
      "前": 991,
      "剛": 992,
      "劇": 993,
      "劉": 994,
      "動": 995,
      "化": 996,
      "北": 997,
      "华": 998,
      "厂": 999,
      "去": 1000,
      "古": 1001,
      "可": 1002,
      "台": 1003,
      "史": 1004,
      "同": 1005,
      "名": 1006,
      "君": 1007,
      "吳": 1008,
      "周": 1009,
      "命": 1010,
      "和": 1011,
      "咲": 1012,
      "善": 1013,
      "四": 1014,
      "國": 1015,
      "園": 1016,
      "圣": 1017,
      "在": 1018,
      "坂": 1019,
      "堤": 1020,
      "場": 1021,
      "塘": 1022,
      "夕": 1023,
      "大": 1024,
      "天": 1025,
      "夫": 1026,
      "女": 1027,
      "妙": 1028,
      "姚": 1029,
      "子": 1030,
      "孟": 1031,
      "守": 1032,
      "安": 1033,
      "宋": 1034,
      "完": 1035,
      "宗": 1036,
      "宝": 1037,
      "宫": 1038,
      "寝": 1039,
      "寺": 1040,
      "小": 1041,
      "少": 1042,
      "尾": 1043,
      "山": 1044,
      "岳": 1045,
      "川": 1046,
      "州": 1047,
      "巳": 1048,
      "市": 1049,
      "師": 1050,
      "平": 1051,
      "广": 1052,
      "庆": 1053,
      "府": 1054,
      "座": 1055,
      "廬": 1056,
      "延": 1057,
      "建": 1058,
      "式": 1059,
      "張": 1060,
      "彌": 1061,
      "彩": 1062,
      "彼": 1063,
      "後": 1064,
      "御": 1065,
      "德": 1066,
      "思": 1067,
      "愛": 1068,
      "憑": 1069,
      "憶": 1070,
      "應": 1071,
      "懷": 1072,
      "战": 1073,
      "戦": 1074,
      "扈": 1075,
      "技": 1076,
      "拉": 1077,
      "拳": 1078,
      "挑": 1079,
      "揺": 1080,
      "攻": 1081,
      "放": 1082,
      "政": 1083,
      "散": 1084,
      "斯": 1085,
      "方": 1086,
      "日": 1087,
      "旦": 1088,
      "旭": 1089,
      "昌": 1090,
      "明": 1091,
      "星": 1092,
      "春": 1093,
      "晋": 1094,
      "景": 1095,
      "曦": 1096,
      "月": 1097,
      "望": 1098,
      "未": 1099,
      "本": 1100,
      "李": 1101,
      "村": 1102,
      "杜": 1103,
      "束": 1104,
      "来": 1105,
      "林": 1106,
      "桜": 1107,
      "梶": 1108,
      "棘": 1109,
      "椎": 1110,
      "楊": 1111,
      "楚": 1112,
      "榮": 1113,
      "橘": 1114,
      "機": 1115,
      "正": 1116,
      "殻": 1117,
      "殿": 1118,
      "母": 1119,
      "水": 1120,
      "汉": 1121,
      "沂": 1122,
      "沙": 1123,
      "河": 1124,
      "泗": 1125,
      "波": 1126,
      "泣": 1127,
      "洪": 1128,
      "淹": 1129,
      "清": 1130,
      "湯": 1131,
      "漢": 1132,
      "澄": 1133,
      "澤": 1134,
      "火": 1135,
      "灯": 1136,
      "灵": 1137,
      "灼": 1138,
      "焼": 1139,
      "熱": 1140,
      "物": 1141,
      "狐": 1142,
      "狸": 1143,
      "玄": 1144,
      "王": 1145,
      "玩": 1146,
      "珂": 1147,
      "珙": 1148,
      "球": 1149,
      "理": 1150,
      "琦": 1151,
      "琪": 1152,
      "瓊": 1153,
      "生": 1154,
      "田": 1155,
      "畢": 1156,
      "番": 1157,
      "瘡": 1158,
      "白": 1159,
      "皮": 1160,
      "真": 1161,
      "砲": 1162,
      "礮": 1163,
      "祈": 1164,
      "神": 1165,
      "祠": 1166,
      "秋": 1167,
      "空": 1168,
      "立": 1169,
      "精": 1170,
      "約": 1171,
      "絵": 1172,
      "織": 1173,
      "義": 1174,
      "翠": 1175,
      "者": 1176,
      "耕": 1177,
      "肖": 1178,
      "胡": 1179,
      "膀": 1180,
      "臂": 1181,
      "興": 1182,
      "良": 1183,
      "花": 1184,
      "芳": 1185,
      "芽": 1186,
      "若": 1187,
      "英": 1188,
      "藕": 1189,
      "藥": 1190,
      "蘄": 1191,
      "蘇": 1192,
      "行": 1193,
      "裁": 1194,
      "規": 1195,
      "覺": 1196,
      "观": 1197,
      "解": 1198,
      "記": 1199,
      "誓": 1200,
      "誡": 1201,
      "誰": 1202,
      "謎": 1203,
      "许": 1204,
      "谭": 1205,
      "豪": 1206,
      "豫": 1207,
      "費": 1208,
      "贵": 1209,
      "赤": 1210,
      "趙": 1211,
      "足": 1212,
      "跡": 1213,
      "転": 1214,
      "辛": 1215,
      "逆": 1216,
      "遇": 1217,
      "運": 1218,
      "過": 1219,
      "遠": 1220,
      "選": 1221,
      "邦": 1222,
      "邱": 1223,
      "部": 1224,
      "郭": 1225,
      "都": 1226,
      "酈": 1227,
      "里": 1228,
      "野": 1229,
      "金": 1230,
      "銃": 1231,
      "鋼": 1232,
      "錄": 1233,
      "錡": 1234,
      "鍵": 1235,
      "鐵": 1236,
      "钱": 1237,
      "铁": 1238,
      "關": 1239,
      "防": 1240,
      "阿": 1241,
      "陈": 1242,
      "陳": 1243,
      "陽": 1244,
      "隊": 1245,
      "階": 1246,
      "集": 1247,
      "雪": 1248,
      "雲": 1249,
      "霖": 1250,
      "霹": 1251,
      "靂": 1252,
      "韓": 1253,
      "願": 1254,
      "顯": 1255,
      "颜": 1256,
      "马": 1257,
      "高": 1258,
      "龍": 1259,
      "대": 1260,
      "독": 1261,
      "라": 1262,
      "립": 1263,
      "병": 1264,
      "보": 1265,
      "부": 1266,
      "알": 1267,
      "연": 1268,
      "제": 1269,
      "": 1270,
      "": 1271,
      "": 1272,
      "": 1273,
      "": 1274,
      "": 1275,
      "": 1276,
      "": 1277,
      "": 1278,
      "": 1279,
      "": 1280,
      "": 1281,
      "﴾": 1282,
      "﴿": 1283,
      "﷽": 1284,
      "️": 1285,
      "﻿": 1286,
      "￴": 1287,
      "￵": 1288,
      "￶": 1289,
      "￷": 1290,
      "￸": 1291,
      "�": 1292,
      "𑹄": 1293,
      "🆔": 1294,
      "🇦": 1295,
      "🇧": 1296,
      "🇨": 1297,
      "🇪": 1298,
      "🇱": 1299,
      "🌅": 1300,
      "🌈": 1301,
      "🌎": 1302,
      "🌐": 1303,
      "🌓": 1304,
      "🌙": 1305,
      "🌚": 1306,
      "🌟": 1307,
      "🌠": 1308,
      "🌧": 1309,
      "🌨": 1310,
      "🌱": 1311,
      "🌲": 1312,
      "🌳": 1313,
      "🌴": 1314,
      "🌵": 1315,
      "🌶": 1316,
      "🌷": 1317,
      "🌸": 1318,
      "🌹": 1319,
      "🌺": 1320,
      "🌻": 1321,
      "🌼": 1322,
      "🌾": 1323,
      "🌿": 1324,
      "🍀": 1325,
      "🍁": 1326,
      "🍂": 1327,
      "🍃": 1328,
      "🍅": 1329,
      "🎀": 1330,
      "🎄": 1331,
      "🎇": 1332,
      "🎉": 1333,
      "🎋": 1334,
      "🎓": 1335,
      "🎤": 1336,
      "🎥": 1337,
      "🎧": 1338,
      "🎮": 1339,
      "🎴": 1340,
      "🎵": 1341,
      "🏃": 1342,
      "🏙": 1343,
      "🏝": 1344,
      "🏞": 1345,
      "🏠": 1346,
      "🏴": 1347,
      "🏻": 1348,
      "🏼": 1349,
      "🏽": 1350,
      "🐉": 1351,
      "🐍": 1352,
      "🐑": 1353,
      "🐓": 1354,
      "🐪": 1355,
      "👀": 1356,
      "👆": 1357,
      "👇": 1358,
      "👈": 1359,
      "👉": 1360,
      "👌": 1361,
      "👍": 1362,
      "👏": 1363,
      "👑": 1364,
      "👗": 1365,
      "👤": 1366,
      "👦": 1367,
      "👧": 1368,
      "👨": 1369,
      "👲": 1370,
      "👳": 1371,
      "💀": 1372,
      "💊": 1373,
      "💌": 1374,
      "💎": 1375,
      "💐": 1376,
      "💓": 1377,
      "💔": 1378,
      "💕": 1379,
      "💖": 1380,
      "💗": 1381,
      "💘": 1382,
      "💝": 1383,
      "💞": 1384,
      "💟": 1385,
      "💠": 1386,
      "💡": 1387,
      "💥": 1388,
      "💦": 1389,
      "💧": 1390,
      "💫": 1391,
      "💬": 1392,
      "💭": 1393,
      "📃": 1394,
      "📇": 1395,
      "📋": 1396,
      "📌": 1397,
      "📍": 1398,
      "📎": 1399,
      "📑": 1400,
      "📒": 1401,
      "📓": 1402,
      "📔": 1403,
      "📕": 1404,
      "📖": 1405,
      "📗": 1406,
      "📘": 1407,
      "📙": 1408,
      "📚": 1409,
      "📜": 1410,
      "📝": 1411,
      "📞": 1412,
      "📡": 1413,
      "📢": 1414,
      "📣": 1415,
      "📤": 1416,
      "📥": 1417,
      "📦": 1418,
      "📮": 1419,
      "📰": 1420,
      "📲": 1421,
      "🔁": 1422,
      "🔃": 1423,
      "🔄": 1424,
      "🔅": 1425,
      "🔆": 1426,
      "🔊": 1427,
      "🔍": 1428,
      "🔖": 1429,
      "🔗": 1430,
      "🔘": 1431,
      "🔥": 1432,
      "🔦": 1433,
      "🔭": 1434,
      "🔮": 1435,
      "🔰": 1436,
      "🔲": 1437,
      "🔴": 1438,
      "🔵": 1439,
      "🔶": 1440,
      "🔷": 1441,
      "🔸": 1442,
      "🔹": 1443,
      "🔺": 1444,
      "🔻": 1445,
      "🕋": 1446,
      "🕌": 1447,
      "🕴": 1448,
      "🕵": 1449,
      "🖊": 1450,
      "🖋": 1451,
      "🖌": 1452,
      "🖤": 1453,
      "🗓": 1454,
      "🗣": 1455,
      "🗯": 1456,
      "😀": 1457,
      "😁": 1458,
      "😂": 1459,
      "😄": 1460,
      "😇": 1461,
      "😉": 1462,
      "😊": 1463,
      "😍": 1464,
      "😎": 1465,
      "😏": 1466,
      "😔": 1467,
      "😜": 1468,
      "😢": 1469,
      "😥": 1470,
      "😨": 1471,
      "😭": 1472,
      "😰": 1473,
      "😳": 1474,
      "🙏": 1475,
      "🚀": 1476,
      "🚌": 1477,
      "🚍": 1478,
      "🚢": 1479,
      "🚨": 1480,
      "🚫": 1481,
      "🚶": 1482,
      "🛌": 1483,
      "🛑": 1484,
      "🤐": 1485,
      "🤔": 1486,
      "🤖": 1487,
      "🤝": 1488,
      "🤣": 1489,
      "🤪": 1490,
      "🤫": 1491,
      "🤲": 1492,
      "🥀": 1493,
      "🥗": 1494,
      "🦅": 1495,
      "🦜": 1496,
      "🧐": 1497,
      "🧙": 1498,
      "🧠": 1499,
      "🧿": 1500,
      "🩷": 1501,
      "🩸": 1502,
      "🩹": 1503,
      "🪒": 1504,
      "🫀": 1505,
      "ان": 1506,
      "ءَ": 1507,
      "ءِ": 1508,
      "ار": 1509,
      "ءُ": 1510,
      "یں": 1511,
      "انت": 1512,
      "اں": 1513,
      "تگ": 1514,
      "کہ": 1515,
      "ات": 1516,
      "انی": 1517,
      "بی": 1518,
      "ست": 1519,
      "را": 1520,
      "کن": 1521,
      "گو": 1522,
      "ئی": 1523,
      "ال": 1524,
      "وت": 1525,
      "ند": 1526,
      "بل": 1527,
      "من": 1528,
      "دی": 1529,
      "ای": 1530,
      "ری": 1531,
      "وچ": 1532,
      "می": 1533,
      "سر": 1534,
      "ور": 1535,
      "ما": 1536,
      "رد": 1537,
      "اے": 1538,
      "نگ": 1539,
      "نی": 1540,
      "ائی": 1541,
      "یک": 1542,
      "شت": 1543,
      "در": 1544,
      "ئے": 1545,
      "بلوچ": 1546,
      "نہ": 1547,
      "ام": 1548,
      "از": 1549,
      "بو": 1550,
      "وتی": 1551,
      "اہ": 1552,
      "کار": 1553,
      "بر": 1554,
      "اد": 1555,
      "چہ": 1556,
      "سی": 1557,
      "وک": 1558,
      "بیت": 1559,
      "گی": 1560,
      "ھم": 1561,
      "کر": 1562,
      "نت": 1563,
      "اک": 1564,
      "بہ": 1565,
      "او": 1566,
      "تہ": 1567,
      "پی": 1568,
      "کی": 1569,
      "لی": 1570,
      "دو": 1571,
      "اس": 1572,
      "چی": 1573,
      "شی": 1574,
      "دا": 1575,
      "مرد": 1576,
      "کنگ": 1577,
      "پہ": 1578,
      "رو": 1579,
      "اب": 1580,
      "گوں": 1581,
      "اھ": 1582,
      "دار": 1583,
      "لو": 1584,
      "بوتگ": 1585,
      "مان": 1586,
      "مردم": 1587,
      "تو": 1588,
      "تر": 1589,
      "اگ": 1590,
      "کو": 1591,
      "چو": 1592,
      "th": 1593,
      "ستان": 1594,
      "کت": 1595,
      "دگ": 1596,
      "بند": 1597,
      "کنت": 1598,
      "مر": 1599,
      "کس": 1600,
      "پر": 1601,
      "جو": 1602,
      "شتگ": 1603,
      "ہم": 1604,
      "منی": 1605,
      "بوت": 1606,
      "ھر": 1607,
      "انگ": 1608,
      "ائ": 1609,
      "دیم": 1610,
      "دل": 1611,
      "بلے": 1612,
      "ھی": 1613,
      "اری": 1614,
      "in": 1615,
      "کتگ": 1616,
      "نا": 1617,
      "جی": 1618,
      "گپ": 1619,
      "نو": 1620,
      "باز": 1621,
      "انک": 1622,
      "گر": 1623,
      "پو": 1624,
      "بیتگ": 1625,
      "چار": 1626,
      "پد": 1627,
      "بز": 1628,
      "اپ": 1629,
      "تی": 1630,
      "وا": 1631,
      "ٹی": 1632,
      "er": 1633,
      "زی": 1634,
      "مہ": 1635,
      "بے": 1636,
      "سو": 1637,
      "مگ": 1638,
      "an": 1639,
      "وھ": 1640,
      "مل": 1641,
      "کش": 1642,
      "the": 1643,
      "اش": 1644,
      "بلوچستان": 1645,
      "لہ": 1646,
      "بان": 1647,
      "کم": 1648,
      "روچ": 1649,
      "جہ": 1650,
      "زند": 1651,
      "یا": 1652,
      "on": 1653,
      "ھمے": 1654,
      "جن": 1655,
      "ھو": 1656,
      "جاہ": 1657,
      "کے": 1658,
      "نام": 1659,
      "ڑا": 1660,
      "گوش": 1661,
      "مئے": 1662,
      "گل": 1663,
      "مار": 1664,
      "ایت": 1665,
      "مز": 1666,
      "مو": 1667,
      "راج": 1668,
      "ڈی": 1669,
      "نب": 1670,
      "کپ": 1671,
      "دگہ": 1672,
      "ed": 1673,
      "پاک": 1674,
      "جنگ": 1675,
      "است": 1676,
      "کل": 1677,
      "میں": 1678,
      "بلوچی": 1679,
      "راہ": 1680,
      "کرتگ": 1681,
      "وھد": 1682,
      "کا": 1683,
      "وکیں": 1684,
      "بنت": 1685,
      "دست": 1686,
      "چک": 1687,
      "ہر": 1688,
      "بار": 1689,
      "وش": 1690,
      "اور": 1691,
      "ون": 1692,
      "سل": 1693,
      "زبان": 1694,
      "re": 1695,
      "مد": 1696,
      "گڑا": 1697,
      "زور": 1698,
      "شر": 1699,
      "at": 1700,
      "تہا": 1701,
      "تئی": 1702,
      "سرا": 1703,
      "وان": 1704,
      "ران": 1705,
      "نبشت": 1706,
      "شانی": 1707,
      "ستگ": 1708,
      "لوٹ": 1709,
      "ماں": 1710,
      "گند": 1711,
      "زر": 1712,
      "or": 1713,
      "en": 1714,
      "سا": 1715,
      "زانت": 1716,
      "اتک": 1717,
      "نیمگ": 1718,
      "وڑ": 1719,
      "بن": 1720,
      "ھال": 1721,
      "ھما": 1722,
      "شن": 1723,
      "جت": 1724,
      "نیں": 1725,
      "st": 1726,
      "al": 1727,
      "شا": 1728,
      "انس": 1729,
      "اگاں": 1730,
      "ar": 1731,
      "ٹر": 1732,
      "ایشی": 1733,
      "مین": 1734,
      "پت": 1735,
      "سال": 1736,
      "کیں": 1737,
      "جھ": 1738,
      "چے": 1739,
      "بد": 1740,
      "گا": 1741,
      "ترا": 1742,
      "رنگ": 1743,
      "گش": 1744,
      "سنگ": 1745,
      "ہی": 1746,
      "سے": 1747,
      "ئیں": 1748,
      "لا": 1749,
      "دہ": 1750,
      "ایں": 1751,
      "وار": 1752,
      "جان": 1753,
      "چیز": 1754,
      "and": 1755,
      "رند": 1756,
      "of": 1757,
      "دات": 1758,
      "شان": 1759,
      "پدا": 1760,
      "کرت": 1761,
      "as": 1762,
      "زان": 1763,
      "لبز": 1764,
      "گوشتگ": 1765,
      "وہ": 1766,
      "بازیں": 1767,
      "یے": 1768,
      "ین": 1769,
      "ایر": 1770,
      "ھل": 1771,
      "درا": 1772,
      "ہمے": 1773,
      "داں": 1774,
      "گیں": 1775,
      "چش": 1776,
      "ڑی": 1777,
      "سک": 1778,
      "گار": 1779,
      "بیگو": 1780,
      "ستانی": 1781,
      "دور": 1782,
      "داتگ": 1783,
      "es": 1784,
      "الی": 1785,
      "عر": 1786,
      "که": 1787,
      "is": 1788,
      "پن": 1789,
      "ing": 1790,
      "جم": 1791,
      "ہما": 1792,
      "جا": 1793,
      "جار": 1794,
      "کاری": 1795,
      "نز": 1796,
      "ریں": 1797,
      "to": 1798,
      "نبشتہ": 1799,
      "گور": 1800,
      "نے": 1801,
      "بت": 1802,
      "نیا": 1803,
      "چا": 1804,
      "ہے": 1805,
      "شپ": 1806,
      "it": 1807,
      "دومی": 1808,
      "تھ": 1809,
      "جوڑ": 1810,
      "واجہ": 1811,
      "مح": 1812,
      "پیش": 1813,
      "سٹ": 1814,
      "دیگ": 1815,
      "مردمانی": 1816,
      "گیش": 1817,
      "با": 1818,
      "اتگ": 1819,
      "خان": 1820,
      "دوست": 1821,
      "میر": 1822,
      "کتاب": 1823,
      "رس": 1824,
      "دمگ": 1825,
      "وی": 1826,
      "تاک": 1827,
      "نوں": 1828,
      "ول": 1829,
      "دپ": 1830,
      "لوگ": 1831,
      "ایش": 1832,
      "گوشت": 1833,
      "ou": 1834,
      "پاکستانی": 1835,
      "حی": 1836,
      "اف": 1837,
      "مارا": 1838,
      "اتی": 1839,
      "مانی": 1840,
      "داری": 1841,
      "ھچ": 1842,
      "ائیں": 1843,
      "ic": 1844,
      "دان": 1845,
      "تاں": 1846,
      "مزنیں": 1847,
      "ارش": 1848,
      "تہءَ": 1849,
      "مت": 1850,
      "نیست": 1851,
      "مند": 1852,
      "مرا": 1853,
      "پل": 1854,
      "وال": 1855,
      "راست": 1856,
      "دے": 1857,
      "پرو": 1858,
      "ازمان": 1859,
      "پوج": 1860,
      "انیں": 1861,
      "شتر": 1862,
      "وں": 1863,
      "میش": 1864,
      "سیا": 1865,
      "فر": 1866,
      "چاگ": 1867,
      "دز": 1868,
      "کان": 1869,
      "اللہ": 1870,
      "توار": 1871,
      "پاد": 1872,
      "مش": 1873,
      "جست": 1874,
      "ion": 1875,
      "گشت": 1876,
      "نوکیں": 1877,
      "مات": 1878,
      "شنگ": 1879,
      "ھوار": 1880,
      "قی": 1881,
      "فی": 1882,
      "تے": 1883,
      "وانگ": 1884,
      "بیگواہ": 1885,
      "امی": 1886,
      "دنیا": 1887,
      "گءَ": 1888,
      "زار": 1889,
      "زانگ": 1890,
      "لش": 1891,
      "مردماں": 1892,
      "رہ": 1893,
      "اوار": 1894,
      "اح": 1895,
      "نڈ": 1896,
      "مست": 1897,
      "he": 1898,
      "پس": 1899,
      "le": 1900,
      "ro": 1901,
      "کنان": 1902,
      "ایانی": 1903,
      "جاھ": 1904,
      "چوش": 1905,
      "زمین": 1906,
      "اچ": 1907,
      "جیڑ": 1908,
      "چیں": 1909,
      "نند": 1910,
      "اوں": 1911,
      "ستگیں": 1912,
      "مے": 1913,
      "ماہ": 1914,
      "کانی": 1915,
      "بال": 1916,
      "لس": 1917,
      "پاکستان": 1918,
      "مع": 1919,
      "برے": 1920,
      "تیں": 1921,
      "تا": 1922,
      "کھ": 1923,
      "کرا": 1924,
      "بس": 1925,
      "دری": 1926,
      "ازی": 1927,
      "کپتگ": 1928,
      "ھست": 1929,
      "شاہ": 1930,
      "پشت": 1931,
      "پری": 1932,
      "ارگ": 1933,
      "شہ": 1934,
      "درشان": 1935,
      "ابی": 1936,
      "گیر": 1937,
      "واست": 1938,
      "ھات": 1939,
      "این": 1940,
      "یکے": 1941,
      "دنت": 1942,
      "یل": 1943,
      "وھدے": 1944,
      "لم": 1945,
      "زو": 1946,
      "لشکر": 1947,
      "تک": 1948,
      "سب": 1949,
      "جتگ": 1950,
      "لگ": 1951,
      "مروچ": 1952,
      "اتکگ": 1953,
      "جنی": 1954,
      "پار": 1955,
      "سرءَ": 1956,
      "کناں": 1957,
      "سرج": 1958,
      "ہو": 1959,
      "سگ": 1960,
      "اولی": 1961,
      "جند": 1962,
      "گال": 1963,
      "اتنت": 1964,
      "گیشتر": 1965,
      "ھگ": 1966,
      "پٹ": 1967,
      "ھیال": 1968,
      "چین": 1969,
      "سوب": 1970,
      "گڈ": 1971,
      "نوک": 1972,
      "بندی": 1973,
      "واب": 1974,
      "دم": 1975,
      "گوشگ": 1976,
      "بوگ": 1977,
      "ملک": 1978,
      "دیوان": 1979,
      "جر": 1980,
      "ائیءِ": 1981,
      "گشتگ": 1982,
      "راجی": 1983,
      "اتاں": 1984,
      "جام": 1985,
      "مرچی": 1986,
      "حال": 1987,
      "ھن": 1988,
      "گہ": 1989,
      "بلکیں": 1990,
      "باب": 1991,
      "گندگ": 1992,
      "چم": 1993,
      "ناں": 1994,
      "بزاں": 1995,
      "اجو": 1996,
      "ایاں": 1997,
      "سرپد": 1998,
      "عری": 1999,
      "اص": 2000,
      "یر": 2001,
      "کرد": 2002,
      "بول": 2003,
      "برجاہ": 2004,
      "ac": 2005,
      "درست": 2006,
      "بھ": 2007,
      "وڑیں": 2008,
      "ڈاک": 2009,
      "زھر": 2010,
      "دارگ": 2011,
      "il": 2012,
      "گون": 2013,
      "لبزانک": 2014,
      "ent": 2015,
      "انسان": 2016,
      "مروچی": 2017,
      "زال": 2018,
      "کسے": 2019,
      "رے": 2020,
      "ئیگ": 2021,
      "گری": 2022,
      "گوستگیں": 2023,
      "سن": 2024,
      "پرچا": 2025,
      "مراد": 2026,
      "سرم": 2027,
      "زیر": 2028,
      "بیگ": 2029,
      "بلئے": 2030,
      "ad": 2031,
      "میان": 2032,
      "se": 2033,
      "الم": 2034,
      "چون": 2035,
      "چیزے": 2036,
      "am": 2037,
      "ناد": 2038,
      "محمد": 2039,
      "ٹو": 2040,
      "گیری": 2041,
      "ڈاکٹر": 2042,
      "مب": 2043,
      "دیما": 2044,
      "ائیءَ": 2045,
      "سنگت": 2046,
      "سرجمیں": 2047,
      "رانی": 2048,
      "چاگرد": 2049,
      "نک": 2050,
      "بنی": 2051,
      "ابید": 2052,
      "کور": 2053,
      "بندات": 2054,
      "رھ": 2055,
      "اسر": 2056,
      "اشی": 2057,
      "منا": 2058,
      "شال": 2059,
      "دروش": 2060,
      "مردمے": 2061,
      "بھر": 2062,
      "تب": 2063,
      "شیت": 2064,
      "نس": 2065,
      "om": 2066,
      "دربر": 2067,
      "درو": 2068,
      "اھگ": 2069,
      "ھند": 2070,
      "ئیل": 2071,
      "درد": 2072,
      "مدام": 2073,
      "کوہ": 2074,
      "داد": 2075,
      "سیاسی": 2076,
      "ایوک": 2077,
      "برا": 2078,
      "ھیں": 2079,
      "پوسٹ": 2080,
      "بدل": 2081,
      "انگت": 2082,
      "لام": 2083,
      "وس": 2084,
      "زمان": 2085,
      "پچ": 2086,
      "جھد": 2087,
      "مزن": 2088,
      "جاور": 2089,
      "ادار": 2090,
      "چست": 2091,
      "مال": 2092,
      "بری": 2093,
      "ودی": 2094,
      "نزیک": 2095,
      "be": 2096,
      "انچو": 2097,
      "ادی": 2098,
      "ly": 2099,
      "وھدی": 2100,
      "شاعری": 2101,
      "چه": 2102,
      "مرگ": 2103,
      "میتگ": 2104,
      "ازمانک": 2105,
      "کسہ": 2106,
      "سد": 2107,
      "نبشتانک": 2108,
      "رج": 2109,
      "شون": 2110,
      "جاگ": 2111,
      "سہ": 2112,
      "حیال": 2113,
      "بچ": 2114,
      "ہیں": 2115,
      "بوتگیں": 2116,
      "ch": 2117,
      "زورا": 2118,
      "زھرشانی": 2119,
      "رین": 2120,
      "تیر": 2121,
      "ئگ": 2122,
      "کمی": 2123,
      "قو": 2124,
      "اج": 2125,
      "شما": 2126,
      "کیت": 2127,
      "ادر": 2128,
      "بہر": 2129,
      "کدی": 2130,
      "انچیں": 2131,
      "یت": 2132,
      "اوشت": 2133,
      "ورن": 2134,
      "باد": 2135,
      "کشگ": 2136,
      "گاڑی": 2137,
      "ur": 2138,
      "ئیت": 2139,
      "برز": 2140,
      "بیتگیں": 2141,
      "گاں": 2142,
      "جل": 2143,
      "اود": 2144,
      "was": 2145,
      "بابت": 2146,
      "for": 2147,
      "کجام": 2148,
      "مھ": 2149,
      "ملا": 2150,
      "تران": 2151,
      "عبد": 2152,
      "پولی": 2153,
      "شیر": 2154,
      "دپتر": 2155,
      "اجوئی": 2156,
      "سرمچار": 2157,
      "ناز": 2158,
      "اھیں": 2159,
      "کپت": 2160,
      "جتا": 2161,
      "نشتگ": 2162,
      "لیکہ": 2163,
      "جتائیں": 2164,
      "de": 2165,
      "ادا": 2166,
      "دژ": 2167,
      "سم": 2168,
      "ve": 2169,
      "کراچی": 2170,
      "شو": 2171,
      "مرز": 2172,
      "نٹ": 2173,
      "چشکہ": 2174,
      "ہچ": 2175,
      "ساب": 2176,
      "چیر": 2177,
      "نگی": 2178,
      "راب": 2179,
      "بیران": 2180,
      "گام": 2181,
      "اق": 2182,
      "شاعر": 2183,
      "کٹ": 2184,
      "اباد": 2185,
      "عی": 2186,
      "علی": 2187,
      "ائرا": 2188,
      "اھی": 2189,
      "ناک": 2190,
      "ردی": 2191,
      "ایشانی": 2192,
      "راھ": 2193,
      "هم": 2194,
      "گپت": 2195,
      "دیر": 2196,
      "کمک": 2197,
      "بکن": 2198,
      "اض": 2199,
      "رجانک": 2200,
      "فار": 2201,
      "ھاتر": 2202,
      "شھر": 2203,
      "دروشم": 2204,
      "سرجم": 2205,
      "اما": 2206,
      "سلاہ": 2207,
      "پنچ": 2208,
      "تگیں": 2209,
      "The": 2210,
      "عل": 2211,
      "سبب": 2212,
      "کری": 2213,
      "مری": 2214,
      "ol": 2215,
      "هر": 2216,
      "دژمن": 2217,
      "حر": 2218,
      "سند": 2219,
      "ژن": 2220,
      "ir": 2221,
      "پیسر": 2222,
      "واری": 2223,
      "زل": 2224,
      "اوان": 2225,
      "شک": 2226,
      "بیا": 2227,
      "شعر": 2228,
      "نظ": 2229,
      "یات": 2230,
      "اخ": 2231,
      "گے": 2232,
      "په": 2233,
      "چری": 2234,
      "ہند": 2235,
      "دین": 2236,
      "پجار": 2237,
      "کارے": 2238,
      "ریاست": 2239,
      "ھار": 2240,
      "کجا": 2241,
      "رسانک": 2242,
      "نج": 2243,
      "اؤ": 2244,
      "پور": 2245,
      "رام": 2246,
      "روان": 2247,
      "باس": 2248,
      "واہ": 2249,
      "بیر": 2250,
      "جارکش": 2251,
      "نودربر": 2252,
      "im": 2253,
      "بست": 2254,
      "برتگ": 2255,
      "گس": 2256,
      "گڈا": 2257,
      "روگ": 2258,
      "نش": 2259,
      "توک": 2260,
      "وہد": 2261,
      "ھانی": 2262,
      "ترس": 2263,
      "روک": 2264,
      "زندگ": 2265,
      "سید": 2266,
      "ایل": 2267,
      "شائ": 2268,
      "سما": 2269,
      "پول": 2270,
      "برات": 2271,
      "انسانی": 2272,
      "گت": 2273,
      "شری": 2274,
      "شھی": 2275,
      "تام": 2276,
      "اول": 2277,
      "پیم": 2278,
      "زندگی": 2279,
      "کاں": 2280,
      "ازم": 2281,
      "ود": 2282,
      "واستا": 2283,
      "ig": 2284,
      "ver": 2285,
      "مہر": 2286,
      "ونی": 2287,
      "سیت": 2288,
      "بیان": 2289,
      "ھزار": 2290,
      "ow": 2291,
      "چھ": 2292,
      "دیست": 2293,
      "پولیس": 2294,
      "رائی": 2295,
      "عہ": 2296,
      "بگ": 2297,
      "جہد": 2298,
      "جنین": 2299,
      "ایک": 2300,
      "راستی": 2301,
      "زالبول": 2302,
      "شم": 2303,
      "تل": 2304,
      "پان": 2305,
      "wh": 2306,
      "کما": 2307,
      "لھ": 2308,
      "زہ": 2309,
      "ڈول": 2310,
      "سروک": 2311,
      "سلام": 2312,
      "ادم": 2313,
      "چر": 2314,
      "باں": 2315,
      "ساہ": 2316,
      "سری": 2317,
      "کوش": 2318,
      "شتی": 2319,
      "سین": 2320,
      "مبر": 2321,
      "un": 2322,
      "پنج": 2323,
      "بیست": 2324,
      "ter": 2325,
      "اھانی": 2326,
      "پا": 2327,
      "ایران": 2328,
      "دمان": 2329,
      "کساس": 2330,
      "زاناں": 2331,
      "پدر": 2332,
      "چن": 2333,
      "ھول": 2334,
      "ith": 2335,
      "کیچ": 2336,
      "لان": 2337,
      "واک": 2338,
      "کین": 2339,
      "پھ": 2340,
      "کنوک": 2341,
      "پیر": 2342,
      "انسری": 2343,
      "کارانی": 2344,
      "یہ": 2345,
      "جنت": 2346,
      "گشگ": 2347,
      "کارمرز": 2348,
      "راھی": 2349,
      "اہانی": 2350,
      "جاگہ": 2351,
      "گوادر": 2352,
      "ڈن": 2353,
      "ھور": 2354,
      "مھر": 2355,
      "ay": 2356,
      "امری": 2357,
      "ایم": 2358,
      "شھ": 2359,
      "گان": 2360,
      "کاراں": 2361,
      "چارگ": 2362,
      "منءَ": 2363,
      "ce": 2364,
      "لے": 2365,
      "کنیں": 2366,
      "گدار": 2367,
      "سرکار": 2368,
      "سار": 2369,
      "قص": 2370,
      "بندیں": 2371,
      "بلکن": 2372,
      "گران": 2373,
      "شھید": 2374,
      "بات": 2375,
      "دراھیں": 2376,
      "اه": 2377,
      "چریشی": 2378,
      "پمیش": 2379,
      "عبدال": 2380,
      "ساچ": 2381,
      "سردار": 2382,
      "مھل": 2383,
      "گواری": 2384,
      "وئیل": 2385,
      "داشت": 2386,
      "مارشت": 2387,
      "زوراکی": 2388,
      "سائ": 2389,
      "لٹ": 2390,
      "شریں": 2391,
      "انکہ": 2392,
      "زہر": 2393,
      "گرگ": 2394,
      "ڈگار": 2395,
      "داریت": 2396,
      "ation": 2397,
      "خی": 2398,
      "زرتگ": 2399,
      "وزیر": 2400,
      "جیڑہ": 2401,
      "con": 2402,
      "نبی": 2403,
      "ورت": 2404,
      "نه": 2405,
      "گانی": 2406,
      "اھاں": 2407,
      "تاوان": 2408,
      "ھاں": 2409,
      "بچار": 2410,
      "درگت": 2411,
      "گوازی": 2412,
      "ێن": 2413,
      "گپتگ": 2414,
      "زورانسری": 2415,
      "مستریں": 2416,
      "کتگیں": 2417,
      "وری": 2418,
      "پاس": 2419,
      "منند": 2420,
      "ٹیت": 2421,
      "ترند": 2422,
      "بخ": 2423,
      "داشتگ": 2424,
      "زھگ": 2425,
      "that": 2426,
      "دیمرو": 2427,
      "چشیں": 2428,
      "with": 2429,
      "وب": 2430,
      "ag": 2431,
      "بازار": 2432,
      "ئر": 2433,
      "ct": 2434,
      "برگ": 2435,
      "تھا": 2436,
      "کھول": 2437,
      "دوئیں": 2438,
      "کسانیں": 2439,
      "وشی": 2440,
      "ایس": 2441,
      "ھبر": 2442,
      "وھدیکہ": 2443,
      "رح": 2444,
      "کشی": 2445,
      "قل": 2446,
      "له": 2447,
      "ملکی": 2448,
      "ٹہ": 2449,
      "نشانگ": 2450,
      "کول": 2451,
      "نیام": 2452,
      "id": 2453,
      "جه": 2454,
      "بنگ": 2455,
      "تربت": 2456,
      "گیج": 2457,
      "ارا": 2458,
      "مھلوک": 2459,
      "بھی": 2460,
      "کماش": 2461,
      "ورنا": 2462,
      "ھمک": 2463,
      "اسلام": 2464,
      "ساری": 2465,
      "عمر": 2466,
      "گریں": 2467,
      "ازگ": 2468,
      "زا": 2469,
      "شل": 2470,
      "us": 2471,
      "te": 2472,
      "جوانیں": 2473,
      "کارمند": 2474,
      "نیم": 2475,
      "حق": 2476,
      "نوی": 2477,
      "روچے": 2478,
      "داریں": 2479,
      "by": 2480,
      "گرد": 2481,
      "گوات": 2482,
      "جنک": 2483,
      "پروش": 2484,
      "لاش": 2485,
      "بلی": 2486,
      "اہاں": 2487,
      "اھوال": 2488,
      "ارز": 2489,
      "زمانگ": 2490,
      "ورگ": 2491,
      "گڈی": 2492,
      "انگری": 2493,
      "وسی": 2494,
      "مج": 2495,
      "پیت": 2496,
      "ھمیش": 2497,
      "به": 2498,
      "تاکدیم": 2499,
      "زمہ": 2500,
      "کنوکیں": 2501,
      "وڑا": 2502,
      "وز": 2503,
      "ھلاپ": 2504,
      "ھالانی": 2505,
      "شش": 2506,
      "دود": 2507,
      "نر": 2508,
      "چیا": 2509,
      "وتا": 2510,
      "چاگردی": 2511,
      "کچ": 2512,
      "دراج": 2513,
      "تریں": 2514,
      "زگ": 2515,
      "ھا": 2516,
      "لوک": 2517,
      "کئے": 2518,
      "لچہ": 2519,
      "انکی": 2520,
      "سول": 2521,
      "اردو": 2522,
      "el": 2523,
      "نص": 2524,
      "ھے": 2525,
      "ul": 2526,
      "راجدپتر": 2527,
      "ندہ": 2528,
      "شہر": 2529,
      "ri": 2530,
      "بوھگ": 2531,
      "ٹک": 2532,
      "یکیں": 2533,
      "اسیں": 2534,
      "ot": 2535,
      "ere": 2536,
      "باریں": 2537,
      "ٹل": 2538,
      "ھان": 2539,
      "لوٹیت": 2540,
      "تح": 2541,
      "بانی": 2542,
      "سیادی": 2543,
      "وہدے": 2544,
      "تیرگواری": 2545,
      "فو": 2546,
      "زوت": 2547,
      "سرمچاراں": 2548,
      "ئیر": 2549,
      "مپ": 2550,
      "اتر": 2551,
      "کال": 2552,
      "چاپ": 2553,
      "ھب": 2554,
      "روت": 2555,
      "اث": 2556,
      "اناں": 2557,
      "تاری": 2558,
      "تن": 2559,
      "یلہ": 2560,
      "ھاترا": 2561,
      "تال": 2562,
      "اھت": 2563,
      "سیاہ": 2564,
      "ٹری": 2565,
      "استاد": 2566,
      "ته": 2567,
      "ھمد": 2568,
      "ap": 2569,
      "مالی": 2570,
      "مس": 2571,
      "سیاست": 2572,
      "دلگوش": 2573,
      "دراہ": 2574,
      "اڈ": 2575,
      "تچک": 2576,
      "زم": 2577,
      "اڑ": 2578,
      "فلس": 2579,
      "ٹپی": 2580,
      "ھلاس": 2581,
      "سرپ": 2582,
      "ہوار": 2583,
      "جاھی": 2584,
      "وانی": 2585,
      "دیستگ": 2586,
      "نما": 2587,
      "کشتگ": 2588,
      "کلات": 2589,
      "پسو": 2590,
      "اکی": 2591,
      "منٹ": 2592,
      "اریں": 2593,
      "اماچ": 2594,
      "بکنت": 2595,
      "سیم": 2596,
      "داک": 2597,
      "res": 2598,
      "عت": 2599,
      "وکی": 2600,
      "هی": 2601,
      "ارت": 2602,
      "لک": 2603,
      "شور": 2604,
      "ماس": 2605,
      "et": 2606,
      "واھگ": 2607,
      "گمان": 2608,
      "فہ": 2609,
      "گوست": 2610,
      "گوئ": 2611,
      "کاروان": 2612,
      "جال": 2613,
      "op": 2614,
      "تری": 2615,
      "ربی": 2616,
      "کرتگیں": 2617,
      "چل": 2618,
      "چماں": 2619,
      "رسانکدر": 2620,
      "گچین": 2621,
      "زرت": 2622,
      "ساز": 2623,
      "ain": 2624,
      "لاپ": 2625,
      "پارٹی": 2626,
      "com": 2627,
      "شاد": 2628,
      "بانک": 2629,
      "بلکنا": 2630,
      "rom": 2631,
      "کنگی": 2632,
      "وٹ": 2633,
      "کننت": 2634,
      "المی": 2635,
      "کومت": 2636,
      "بور": 2637,
      "ers": 2638,
      "روز": 2639,
      "حد": 2640,
      "ازات": 2641,
      "درور": 2642,
      "نور": 2643,
      "بگیری": 2644,
      "دھ": 2645,
      "pl": 2646,
      "um": 2647,
      "عمل": 2648,
      "ریچ": 2649,
      "گیشی": 2650,
      "کوئ": 2651,
      "چوں": 2652,
      "پگر": 2653,
      "ایرانی": 2654,
      "ھیر": 2655,
      "دوستی": 2656,
      "ێں": 2657,
      "صو": 2658,
      "بین": 2659,
      "انہ": 2660,
      "بیگواھیں": 2661,
      "جنز": 2662,
      "ut": 2663,
      "نشت": 2664,
      "برو": 2665,
      "دئیگ": 2666,
      "جہل": 2667,
      "پڑ": 2668,
      "داب": 2669,
      "پتر": 2670,
      "نبشتگ": 2671,
      "گپے": 2672,
      "وه": 2673,
      "بلوچانی": 2674,
      "جود": 2675,
      "ab": 2676,
      "بوہ": 2677,
      "کران": 2678,
      "پمیشکا": 2679,
      "ارس": 2680,
      "ئو": 2681,
      "کسی": 2682,
      "چاری": 2683,
      "سپر": 2684,
      "احمد": 2685,
      "all": 2686,
      "نہیں": 2687,
      "oun": 2688,
      "سفر": 2689,
      "بوان": 2690,
      "گورا": 2691,
      "نان": 2692,
      "ےءَ": 2693,
      "اہی": 2694,
      "سبز": 2695,
      "زندءِ": 2696,
      "مہلوک": 2697,
      "الله": 2698,
      "فا": 2699,
      "his": 2700,
      "نیمگا": 2701,
      "ساحر": 2702,
      "امیت": 2703,
      "نم": 2704,
      "مکن": 2705,
      "ایشاں": 2706,
      "ھدا": 2707,
      "رت": 2708,
      "برت": 2709,
      "بنجاھی": 2710,
      "پیلو": 2711,
      "زہرشانی": 2712,
      "کوئٹہ": 2713,
      "لہتیں": 2714,
      "مق": 2715,
      "پانی": 2716,
      "ردو": 2717,
      "گٹ": 2718,
      "ادارہ": 2719,
      "رنگیں": 2720,
      "ایگ": 2721,
      "شد": 2722,
      "مٹ": 2723,
      "کمیٹی": 2724,
      "ورس": 2725,
      "mo": 2726,
      "نیت": 2727,
      "پکر": 2728,
      "زیب": 2729,
      "پنجگور": 2730,
      "کئیت": 2731,
      "رست": 2732,
      "اشانی": 2733,
      "بنجل": 2734,
      "بزانت": 2735,
      "گن": 2736,
      "سلم": 2737,
      "باری": 2738,
      "ist": 2739,
      "جون": 2740,
      "ڈو": 2741,
      "بگر": 2742,
      "زورگریں": 2743,
      "ادگ": 2744,
      "کارو": 2745,
      "ہست": 2746,
      "کند": 2747,
      "مول": 2748,
      "فت": 2749,
      "شنل": 2750,
      "لبزانکی": 2751,
      "یار": 2752,
      "شوھ": 2753,
      "بستگ": 2754,
      "انءِ": 2755,
      "su": 2756,
      "تچ": 2757,
      "ذہ": 2758,
      "are": 2759,
      "ہور": 2760,
      "سپ": 2761,
      "نادراہ": 2762,
      "اید": 2763,
      "لبری": 2764,
      "اپری": 2765,
      "لیک": 2766,
      "ایے": 2767,
      "علم": 2768,
      "دیمءَ": 2769,
      "وانوک": 2770,
      "دزگیر": 2771,
      "لین": 2772,
      "لبریشن": 2773,
      "قوم": 2774,
      "بارو": 2775,
      "جد": 2776,
      "پرس": 2777,
      "ھشت": 2778,
      "پتی": 2779,
      "پیدا": 2780,
      "قر": 2781,
      "رھبند": 2782,
      "پیداک": 2783,
      "صر": 2784,
      "ھساب": 2785,
      "وارت": 2786,
      "وڈ": 2787,
      "بخش": 2788,
      "لب": 2789,
      "سرپدی": 2790,
      "زاھ": 2791,
      "بکش": 2792,
      "عط": 2793,
      "واستہ": 2794,
      "from": 2795,
      "زدگ": 2796,
      "ایف": 2797,
      "pe": 2798,
      "ارزشت": 2799,
      "سان": 2800,
      "نچ": 2801,
      "نیٹ": 2802,
      "pro": 2803,
      "صل": 2804,
      "ونک": 2805,
      "حکومت": 2806,
      "پش": 2807,
      "نتگ": 2808,
      "گم": 2809,
      "درچک": 2810,
      "سئے": 2811,
      "هما": 2812,
      "اصل": 2813,
      "اشت": 2814,
      "قہ": 2815,
      "شمبے": 2816,
      "دانکہ": 2817,
      "راں": 2818,
      "پمی": 2819,
      "میار": 2820,
      "زدہ": 2821,
      "درستیں": 2822,
      "کشت": 2823,
      "رسول": 2824,
      "یونی": 2825,
      "ھپت": 2826,
      "اندر": 2827,
      "اکس": 2828,
      "کیا": 2829,
      "پریس": 2830,
      "لاں": 2831,
      "روچاں": 2832,
      "اینت": 2833,
      "امان": 2834,
      "رؤ": 2835,
      "شائری": 2836,
      "پورٹ": 2837,
      "کسان": 2838,
      "بستار": 2839,
      "In": 2840,
      "sh": 2841,
      "چرا": 2842,
      "پتگ": 2843,
      "پمیشا": 2844,
      "دمگاں": 2845,
      "لڈ": 2846,
      "ندی": 2847,
      "سرکاری": 2848,
      "ne": 2849,
      "گونڈ": 2850,
      "جنگی": 2851,
      "جاه": 2852,
      "li": 2853,
      "مبار": 2854,
      "مچ": 2855,
      "شہی": 2856,
      "چمانی": 2857,
      "کنگا": 2858,
      "شمئے": 2859,
      "چپ": 2860,
      "کپیت": 2861,
      "واتر": 2862,
      "وتءَ": 2863,
      "کمیں": 2864,
      "امر": 2865,
      "ٹولی": 2866,
      "tr": 2867,
      "نشان": 2868,
      "زرد": 2869,
      "اثر": 2870,
      "درس": 2871,
      "مکران": 2872,
      "تاریخ": 2873,
      "کنڈ": 2874,
      "لال": 2875,
      "اگر": 2876,
      "پالی": 2877,
      "ڈر": 2878,
      "اراں": 2879,
      "ate": 2880,
      "باسک": 2881,
      "مرتگ": 2882,
      "تاب": 2883,
      "همے": 2884,
      "مانا": 2885,
      "گڑ": 2886,
      "حدا": 2887,
      "پرا": 2888,
      "سیک": 2889,
      "cl": 2890,
      "پمش": 2891,
      "کندگ": 2892,
      "گھ": 2893,
      "ہزار": 2894,
      "کوھ": 2895,
      "چینی": 2896,
      "نسل": 2897,
      "فلسفہ": 2898,
      "گشیت": 2899,
      "ایدگہ": 2900,
      "وائ": 2901,
      "سیر": 2902,
      "ردءَ": 2903,
      "شے": 2904,
      "بمب": 2905,
      "ودار": 2906,
      "درچ": 2907,
      "os": 2908,
      "کارست": 2909,
      "بنا": 2910,
      "حمل": 2911,
      "جاھاں": 2912,
      "شوھاز": 2913,
      "بائ": 2914,
      "جہان": 2915,
      "بوتیں": 2916,
      "وشیں": 2917,
      "سنگتاں": 2918,
      "کوٹی": 2919,
      "ther": 2920,
      "جنجال": 2921,
      "ستی": 2922,
      "بادشاہ": 2923,
      "زورگ": 2924,
      "پند": 2925,
      "راز": 2926,
      "ادءَ": 2927,
      "art": 2928,
      "ارمی": 2929,
      "اضل": 2930,
      "دنی": 2931,
      "دلی": 2932,
      "استمانی": 2933,
      "مڑ": 2934,
      "حبر": 2935,
      "ies": 2936,
      "علا": 2937,
      "em": 2938,
      "صاح": 2939,
      "اودا": 2940,
      "دیں": 2941,
      "دمگی": 2942,
      "لیں": 2943,
      "تیار": 2944,
      "مث": 2945,
      "دیمروئی": 2946,
      "ائے": 2947,
      "درائیں": 2948,
      "رک": 2949,
      "ہن": 2950,
      "سیمی": 2951,
      "انچوش": 2952,
      "چونیں": 2953,
      "چند": 2954,
      "مچی": 2955,
      "ناکو": 2956,
      "کہول": 2957,
      "ھاک": 2958,
      "منزل": 2959,
      "ناشن": 2960,
      "لائ": 2961,
      "منت": 2962,
      "کلو": 2963,
      "ہار": 2964,
      "کنائی": 2965,
      "چیریں": 2966,
      "رستگ": 2967,
      "بگٹی": 2968,
      "دانی": 2969,
      "چوشیں": 2970,
      "روکپتی": 2971,
      "ھک": 2972,
      "گداری": 2973,
      "ہمیش": 2974,
      "مئی": 2975,
      "ابر": 2976,
      "وگ": 2977,
      "پک": 2978,
      "کنگءَ": 2979,
      "ریک": 2980,
      "بیڑ": 2981,
      "حساب": 2982,
      "باید": 2983,
      "یور": 2984,
      "منگ": 2985,
      "لھتے": 2986,
      "ڈیھ": 2987,
      "نیمگءَ": 2988,
      "اتیں": 2989,
      "کینگ": 2990,
      "ندارگ": 2991,
      "پالیسی": 2992,
      "درستاں": 2993,
      "عد": 2994,
      "سلامتی": 2995,
      "رژن": 2996,
      "میران": 2997,
      "دع": 2998,
      "شگ": 2999,
      "بندوک": 3000,
      "صاحب": 3001,
      "معنا": 3002,
      "were": 3003,
      "جوان": 3004,
      "od": 3005,
      "ong": 3006,
      "واھ": 3007,
      "ex": 3008,
      "igh": 3009,
      "est": 3010,
      "کوپ": 3011,
      "تھنا": 3012,
      "برجم": 3013,
      "oc": 3014,
      "ابد": 3015,
      "اکیڈ": 3016,
      "ak": 3017,
      "سلہ": 3018,
      "شام": 3019,
      "بگند": 3020,
      "درشانی": 3021,
      "سلی": 3022,
      "تھی": 3023,
      "میل": 3024,
      "شتہ": 3025,
      "بج": 3026,
      "ناشناسیں": 3027,
      "ساچشت": 3028,
      "بئے": 3029,
      "اوشتاتگ": 3030,
      "جاھے": 3031,
      "کاینت": 3032,
      "مه": 3033,
      "ئینت": 3034,
      "لھتیں": 3035,
      "اترا": 3036,
      "اضی": 3037,
      "شئیر": 3038,
      "سور": 3039,
      "کاگ": 3040,
      "کمے": 3041,
      "بنیاد": 3042,
      "جنان": 3043,
      "زئی": 3044,
      "خت": 3045,
      "جھمنند": 3046,
      "گلام": 3047,
      "گنوک": 3048,
      "بدلی": 3049,
      "ill": 3050,
      "ھون": 3051,
      "ہمراہ": 3052,
      "اسکول": 3053,
      "ard": 3054,
      "گپاں": 3055,
      "مھمد": 3056,
      "نیشنل": 3057,
      "اشمی": 3058,
      "براں": 3059,
      "ld": 3060,
      "فاضل": 3061,
      "ich": 3062,
      "اکیڈمی": 3063,
      "دینی": 3064,
      "دیان": 3065,
      "ast": 3066,
      "دشتی": 3067,
      "قصہ": 3068,
      "رھشون": 3069,
      "کلیں": 3070,
      "بوتاں": 3071,
      "ھد": 3072,
      "تہنا": 3073,
      "چاکر": 3074,
      "یکجاہ": 3075,
      "ےءِ": 3076,
      "شرگداری": 3077,
      "گیشیں": 3078,
      "لانی": 3079,
      "زرمب": 3080,
      "شاھ": 3081,
      "ساڑی": 3082,
      "داراں": 3083,
      "ہل": 3084,
      "ؤر": 3085,
      "دروازگ": 3086,
      "کنئگ": 3087,
      "غلام": 3088,
      "اند": 3089,
      "کلی": 3090,
      "ھمراہ": 3091,
      "اسم": 3092,
      "ادب": 3093,
      "امریکہ": 3094,
      "اوست": 3095,
      "ایا": 3096,
      "نزور": 3097,
      "وسلم": 3098,
      "ستک": 3099,
      "تانکہ": 3100,
      "یم": 3101,
      "بود": 3102,
      "باور": 3103,
      "منیر": 3104,
      "ish": 3105,
      "عکس": 3106,
      "ٹیک": 3107,
      "فکر": 3108,
      "نگیں": 3109,
      "دیاں": 3110,
      "سوار": 3111,
      "زانتکار": 3112,
      "di": 3113,
      "سلمان": 3114,
      "نات": 3115,
      "انا": 3116,
      "انچش": 3117,
      "سوچ": 3118,
      "کام": 3119,
      "ہمک": 3120,
      "ber": 3121,
      "ant": 3122,
      "جز": 3123,
      "ندر": 3124,
      "تور": 3125,
      "ویل": 3126,
      "سائنس": 3127,
      "بام": 3128,
      "تنی": 3129,
      "gh": 3130,
      "کنیک": 3131,
      "دلءَ": 3132,
      "قاضی": 3133,
      "نامیں": 3134,
      "مراگش": 3135,
      "سوج": 3136,
      "کنٹ": 3137,
      "بح": 3138,
      "بالی": 3139,
      "ادہ": 3140,
      "لوٹاں": 3141,
      "فارسی": 3142,
      "کئی": 3143,
      "گیشت": 3144,
      "بیگواہیں": 3145,
      "شین": 3146,
      "ارے": 3147,
      "نھ": 3148,
      "گءِ": 3149,
      "رز": 3150,
      "بران": 3151,
      "نین": 3152,
      "ity": 3153,
      "ame": 3154,
      "ort": 3155,
      "دستونک": 3156,
      "ated": 3157,
      "حا": 3158,
      "ماہی": 3159,
      "بچک": 3160,
      "گرا": 3161,
      "باندات": 3162,
      "رنگے": 3163,
      "دکان": 3164,
      "ایان": 3165,
      "سکیں": 3166,
      "گوشیت": 3167,
      "اہر": 3168,
      "دئے": 3169,
      "پیما": 3170,
      "per": 3171,
      "کتہ": 3172,
      "بندیگ": 3173,
      "ونگ": 3174,
      "جس": 3175,
      "میڈ": 3176,
      "نادراھی": 3177,
      "مرک": 3178,
      "ولی": 3179,
      "وڑے": 3180,
      "مک": 3181,
      "غیر": 3182,
      "نندانک": 3183,
      "man": 3184,
      "کمان": 3185,
      "باروا": 3186,
      "گوستگ": 3187,
      "ess": 3188,
      "ive": 3189,
      "حسین": 3190,
      "شہید": 3191,
      "یون": 3192,
      "مڈی": 3193,
      "تیاب": 3194,
      "qu": 3195,
      "ساھ": 3196,
      "زت": 3197,
      "ment": 3198,
      "ورک": 3199,
      "پوش": 3200,
      "ازاتی": 3201,
      "بارت": 3202,
      "قت": 3203,
      "نظام": 3204,
      "دریا": 3205,
      "دستی": 3206,
      "صلہ": 3207,
      "als": 3208,
      "بنجاہ": 3209,
      "اوت": 3210,
      "ربیدگ": 3211,
      "out": 3212,
      "انگریزی": 3213,
      "نامی": 3214,
      "کمال": 3215,
      "fe": 3216,
      "صورت": 3217,
      "گواز": 3218,
      "جھان": 3219,
      "سیل": 3220,
      "حسن": 3221,
      "چاران": 3222,
      "نسبت": 3223,
      "سپت": 3224,
      "بیگاہ": 3225,
      "میجر": 3226,
      "خیال": 3227,
      "تجر": 3228,
      "نمدی": 3229,
      "عطا": 3230,
      "ردا": 3231,
      "رسیت": 3232,
      "جانی": 3233,
      "یاد": 3234,
      "سکی": 3235,
      "لگت": 3236,
      "جب": 3237,
      "تکنیک": 3238,
      "پوجی": 3239,
      "کوچ": 3240,
      "کشک": 3241,
      "گوشاں": 3242,
      "منوک": 3243,
      "اوگان": 3244,
      "ملی": 3245,
      "ورسٹی": 3246,
      "ناول": 3247,
      "سوت": 3248,
      "نندوک": 3249,
      "نار": 3250,
      "مط": 3251,
      "داتگیں": 3252,
      "بنگی": 3253,
      "ھیل": 3254,
      "دش": 3255,
      "وگیں": 3256,
      "ازاد": 3257,
      "چٹ": 3258,
      "اکبر": 3259,
      "اھو": 3260,
      "نوش": 3261,
      "موسم": 3262,
      "بندگ": 3263,
      "وسیلہ": 3264,
      "سینگ": 3265,
      "قومی": 3266,
      "ایشیءِ": 3267,
      "دن": 3268,
      "الو": 3269,
      "حاک": 3270,
      "ریت": 3271,
      "البت": 3272,
      "ماھ": 3273,
      "زام": 3274,
      "بنگپ": 3275,
      "ack": 3276,
      "ریاستی": 3277,
      "نگل": 3278,
      "گامگیج": 3279,
      "گوز": 3280,
      "انگریز": 3281,
      "قدر": 3282,
      "end": 3283,
      "vi": 3284,
      "پرچاکہ": 3285,
      "بوئگ": 3286,
      "کیس": 3287,
      "شمارا": 3288,
      "قا": 3289,
      "had": 3290,
      "دراجیں": 3291,
      "کریم": 3292,
      "ھرچ": 3293,
      "سندھ": 3294,
      "شاری": 3295,
      "صوبہ": 3296,
      "زیت": 3297,
      "one": 3298,
      "ترندیں": 3299,
      "مبارک": 3300,
      "جنو": 3301,
      "گراں": 3302,
      "یونیورسٹی": 3303,
      "دائ": 3304,
      "ناگ": 3305,
      "تکگ": 3306,
      "سمی": 3307,
      "اقت": 3308,
      "ear": 3309,
      "بدن": 3310,
      "قان": 3311,
      "ازدہ": 3312,
      "پسہ": 3313,
      "جواب": 3314,
      "خلی": 3315,
      "ساھگ": 3316,
      "پیک": 3317,
      "کشن": 3318,
      "دیوال": 3319,
      "وف": 3320,
      "ستا": 3321,
      "مجی": 3322,
      "اشاں": 3323,
      "نف": 3324,
      "بنداتی": 3325,
      "کرو": 3326,
      "تپاک": 3327,
      "کپگ": 3328,
      "مذہ": 3329,
      "tw": 3330,
      "اتے": 3331,
      "دیمروی": 3332,
      "over": 3333,
      "گرنچ": 3334,
      "کنگءِ": 3335,
      "اسے": 3336,
      "نصیر": 3337,
      "براہ": 3338,
      "چاہ": 3339,
      "دیمتر": 3340,
      "راستیں": 3341,
      "گنگ": 3342,
      "ough": 3343,
      "ببیت": 3344,
      "نماز": 3345,
      "گنج": 3346,
      "نیکہ": 3347,
      "تراک": 3348,
      "صاف": 3349,
      "یب": 3350,
      "رپورٹ": 3351,
      "پدءَ": 3352,
      "جوانی": 3353,
      "our": 3354,
      "ha": 3355,
      "بنکی": 3356,
      "نمیران": 3357,
      "چاریں": 3358,
      "which": 3359,
      "رگ": 3360,
      "شع": 3361,
      "وتارا": 3362,
      "ترانگ": 3363,
      "مردے": 3364,
      "رہبند": 3365,
      "خاص": 3366,
      "بلوچاں": 3367,
      "مید": 3368,
      "ord": 3369,
      "اگہ": 3370,
      "ra": 3371,
      "تما": 3372,
      "پرچے": 3373,
      "ٹکر": 3374,
      "يه": 3375,
      "ازت": 3376,
      "ھز": 3377,
      "رجان": 3378,
      "نویس": 3379,
      "واق": 3380,
      "امیدگ": 3381,
      "تاج": 3382,
      "ساھت": 3383,
      "مارچ": 3384,
      "فیصلہ": 3385,
      "خدا": 3386,
      "ساد": 3387,
      "ارواہ": 3388,
      "ٹا": 3389,
      "کرن": 3390,
      "لوز": 3391,
      "دشت": 3392,
      "شائر": 3393,
      "ایپ": 3394,
      "دنیاءِ": 3395,
      "دستاں": 3396,
      "گیشتریں": 3397,
      "ھمراھی": 3398,
      "زانتگ": 3399,
      "بوتنت": 3400,
      "ھکانی": 3401,
      "ge": 3402,
      "برکت": 3403,
      "بالاد": 3404,
      "واجه": 3405,
      "کسانی": 3406,
      "مخ": 3407,
      "ound": 3408,
      "کاریں": 3409,
      "دیدگ": 3410,
      "سیمسر": 3411,
      "ہال": 3412,
      "مں": 3413,
      "بش": 3414,
      "پیمیں": 3415,
      "اتءُ": 3416,
      "رندے": 3417,
      "زلم": 3418,
      "گز": 3419,
      "سہب": 3420,
      "not": 3421,
      "ضل": 3422,
      "انتءُ": 3423,
      "تها": 3424,
      "پژ": 3425,
      "اسٹ": 3426,
      "کمو": 3427,
      "اپنے": 3428,
      "جھل": 3429,
      "ءٙ": 3430,
      "نواب": 3431,
      "درمان": 3432,
      "چوکہ": 3433,
      "چنڈ": 3434,
      "نبیسگ": 3435,
      "ine": 3436,
      "سھب": 3437,
      "پرچہ": 3438,
      "رواں": 3439,
      "چینل": 3440,
      "راه": 3441,
      "تامر": 3442,
      "کردار": 3443,
      "پھر": 3444,
      "ڑے": 3445,
      "صد": 3446,
      "تنگ": 3447,
      "گشئے": 3448,
      "کچے": 3449,
      "متی": 3450,
      "ۆچ": 3451,
      "فری": 3452,
      "دگه": 3453,
      "عليه": 3454,
      "روانک": 3455,
      "rit": 3456,
      "سوبمند": 3457,
      "صلى": 3458,
      "دوچ": 3459,
      "هچ": 3460,
      "گد": 3461,
      "مشکل": 3462,
      "جنگل": 3463,
      "زندمان": 3464,
      "درامد": 3465,
      "but": 3466,
      "مستر": 3467,
      "ایمان": 3468,
      "دیمی": 3469,
      "رب": 3470,
      "مولان": 3471,
      "ٹے": 3472,
      "یع": 3473,
      "ڈک": 3474,
      "ally": 3475,
      "نائی": 3476,
      "باندا": 3477,
      "لیب": 3478,
      "روس": 3479,
      "رول": 3480,
      "بیلہ": 3481,
      "وارتگ": 3482,
      "تع": 3483,
      "نیاد": 3484,
      "بیار": 3485,
      "مرزی": 3486,
      "ass": 3487,
      "لائی": 3488,
      "اسراتی": 3489,
      "وستان": 3490,
      "یو": 3491,
      "لکھ": 3492,
      "gr": 3493,
      "رم": 3494,
      "کامی": 3495,
      "ڈال": 3496,
      "رل": 3497,
      "کچک": 3498,
      "امیدگس": 3499,
      "ایند": 3500,
      "رض": 3501,
      "عش": 3502,
      "بالاچ": 3503,
      "دینت": 3504,
      "اتھ": 3505,
      "شرپ": 3506,
      "وجود": 3507,
      "ونتگ": 3508,
      "مدا": 3509,
      "بیرم": 3510,
      "ud": 3511,
      "پسند": 3512,
      "تالان": 3513,
      "کوھنیں": 3514,
      "ردیں": 3515,
      "دشمن": 3516,
      "ڈیو": 3517,
      "مثال": 3518,
      "لیٹ": 3519,
      "ارام": 3520,
      "اپی": 3521,
      "سالی": 3522,
      "ڑیں": 3523,
      "اودءَ": 3524,
      "if": 3525,
      "ارہ": 3526,
      "ip": 3527,
      "کست": 3528,
      "تپ": 3529,
      "act": 3530,
      "ریش": 3531,
      "پیسلہ": 3532,
      "چیدگ": 3533,
      "کلب": 3534,
      "امن": 3535,
      "روری": 3536,
      "iv": 3537,
      "اسٹی": 3538,
      "its": 3539,
      "بہا": 3540,
      "لہتے": 3541,
      "سائی": 3542,
      "بارہ": 3543,
      "Ch": 3544,
      "مسا": 3545,
      "شکار": 3546,
      "وھداں": 3547,
      "رامین": 3548,
      "اگں": 3549,
      "مولانا": 3550,
      "ian": 3551,
      "str": 3552,
      "لئے": 3553,
      "عزت": 3554,
      "روزگار": 3555,
      "وائس": 3556,
      "گشنت": 3557,
      "ایشرا": 3558,
      "دگی": 3559,
      "جاوراں": 3560,
      "چکاس": 3561,
      "غان": 3562,
      "ادبی": 3563,
      "نگد": 3564,
      "نیٹورک": 3565,
      "اتا": 3566,
      "برد": 3567,
      "بزان": 3568,
      "بک": 3569,
      "عظ": 3570,
      "عربی": 3571,
      "جندءِ": 3572,
      "سرے": 3573,
      "چھاپ": 3574,
      "ھرکس": 3575,
      "داستان": 3576,
      "ight": 3577,
      "یاں": 3578,
      "چنت": 3579,
      "کبر": 3580,
      "مستونگ": 3581,
      "مجید": 3582,
      "چیزانی": 3583,
      "ایہ": 3584,
      "مہم": 3585,
      "ردوم": 3586,
      "پالیسیانی": 3587,
      "روچی": 3588,
      "ٹپ": 3589,
      "گۆ": 3590,
      "بڈ": 3591,
      "دروگ": 3592,
      "طر": 3593,
      "استان": 3594,
      "اھا": 3595,
      "خلا": 3596,
      "فائ": 3597,
      "بونگ": 3598,
      "جیڑگ": 3599,
      "نامداریں": 3600,
      "سرڈگار": 3601,
      "ٹھ": 3602,
      "گرم": 3603,
      "سنگتانی": 3604,
      "ary": 3605,
      "نانی": 3606,
      "کلاس": 3607,
      "چمش": 3608,
      "کلدار": 3609,
      "اپریشن": 3610,
      "مردمان": 3611,
      "وہدی": 3612,
      "سازی": 3613,
      "پائ": 3614,
      "میت": 3615,
      "her": 3616,
      "بنگیج": 3617,
      "دراتک": 3618,
      "بید": 3619,
      "واکدار": 3620,
      "زرمبشت": 3621,
      "شوہ": 3622,
      "فران": 3623,
      "نامہ": 3624,
      "نائ": 3625,
      "ٹس": 3626,
      "ذات": 3627,
      "جنرل": 3628,
      "مون": 3629,
      "سرجمی": 3630,
      "بیں": 3631,
      "تان": 3632,
      "du": 3633,
      "نود": 3634,
      "تین": 3635,
      "fir": 3636,
      "سھ": 3637,
      "گلزمین": 3638,
      "لامی": 3639,
      "بیگواھی": 3640,
      "نسی": 3641,
      "چاں": 3642,
      "لڑ": 3643,
      "بنداں": 3644,
      "بیم": 3645,
      "درشانے": 3646,
      "طی": 3647,
      "بگیر": 3648,
      "زین": 3649,
      "کپتگیں": 3650,
      "own": 3651,
      "مہمان": 3652,
      "مزار": 3653,
      "سہر": 3654,
      "مسلمان": 3655,
      "جاورانی": 3656,
      "نودربرانی": 3657,
      "الب": 3658,
      "کارندہ": 3659,
      "اسپی": 3660,
      "باگ": 3661,
      "ہاں": 3662,
      "شتاں": 3663,
      "اریت": 3664,
      "تیل": 3665,
      "چراگ": 3666,
      "بازین": 3667,
      "ناپ": 3668,
      "امیں": 3669,
      "af": 3670,
      "پنام": 3671,
      "کاروبار": 3672,
      "بئیت": 3673,
      "av": 3674,
      "هست": 3675,
      "اگست": 3676,
      "بابتءَ": 3677,
      "دئی": 3678,
      "نمبر": 3679,
      "بیگواہی": 3680,
      "ارشانی": 3681,
      "نپ": 3682,
      "ربیت": 3683,
      "حقی": 3684,
      "ماتی": 3685,
      "زبانانی": 3686,
      "بولان": 3687,
      "سوشل": 3688,
      "ارمان": 3689,
      "تمپ": 3690,
      "منظ": 3691,
      "پمشکا": 3692,
      "بوہگ": 3693,
      "انے": 3694,
      "موت": 3695,
      "طن": 3696,
      "خال": 3697,
      "گوازین": 3698,
      "ھوش": 3699,
      "up": 3700,
      "زوریں": 3701,
      "ڈیرہ": 3702,
      "ous": 3703,
      "سزا": 3704,
      "مود": 3705,
      "موک": 3706,
      "لنٹ": 3707,
      "ترک": 3708,
      "گپانی": 3709,
      "مینگل": 3710,
      "افغان": 3711,
      "کاروائی": 3712,
      "وائی": 3713,
      "عرب": 3714,
      "تنے": 3715,
      "گرو": 3716,
      "دوستیں": 3717,
      "گالوار": 3718,
      "چوشکہ": 3719,
      "po": 3720,
      "رواج": 3721,
      "چیزاں": 3722,
      "حکم": 3723,
      "گنداں": 3724,
      "اواران": 3725,
      "ائیا": 3726,
      "چد": 3727,
      "لاچار": 3728,
      "اوشتات": 3729,
      "ھواریں": 3730,
      "گوازینگ": 3731,
      "ریل": 3732,
      "درائینت": 3733,
      "چمشانک": 3734,
      "رحی": 3735,
      "اشوب": 3736,
      "کنئے": 3737,
      "دیت": 3738,
      "وھدءَ": 3739,
      "bl": 3740,
      "ore": 3741,
      "تباہ": 3742,
      "اسی": 3743,
      "بامن": 3744,
      "comp": 3745,
      "انیہ": 3746,
      "ازہ": 3747,
      "port": 3748,
      "ھمی": 3749,
      "یکشل": 3750,
      "St": 3751,
      "چنچو": 3752,
      "land": 3753,
      "رندا": 3754,
      "ابادی": 3755,
      "ew": 3756,
      "کد": 3757,
      "تواری": 3758,
      "خیر": 3759,
      "نق": 3760,
      "اپنی": 3761,
      "بلک": 3762,
      "مدت": 3763,
      "ریا": 3764,
      "گول": 3765,
      "تم": 3766,
      "کوٹ": 3767,
      "اسلم": 3768,
      "der": 3769,
      "سالاں": 3770,
      "نئے": 3771,
      "فوج": 3772,
      "ev": 3773,
      "ڑو": 3774,
      "پرائی": 3775,
      "زانتی": 3776,
      "جندئیگ": 3777,
      "ایندگہ": 3778,
      "وام": 3779,
      "ach": 3780,
      "بزگ": 3781,
      "ہلاس": 3782,
      "جوڈ": 3783,
      "انوں": 3784,
      "اوگانستان": 3785,
      "پٹی": 3786,
      "si": 3787,
      "غم": 3788,
      "ونت": 3789,
      "ریٹ": 3790,
      "درسیں": 3791,
      "شاں": 3792,
      "اسل": 3793,
      "شکل": 3794,
      "اوانی": 3795,
      "سکین": 3796,
      "their": 3797,
      "بلہ": 3798,
      "رکینگ": 3799,
      "اکیں": 3800,
      "مناں": 3801,
      "باپ": 3802,
      "ماما": 3803,
      "نیک": 3804,
      "یکل": 3805,
      "تھے": 3806,
      "ep": 3807,
      "مدامی": 3808,
      "ھاشمی": 3809,
      "دراہیں": 3810,
      "بئی": 3811,
      "کمپ": 3812,
      "گیا": 3813,
      "شتگیں": 3814,
      "دروت": 3815,
      "ڈل": 3816,
      "جیگ": 3817,
      "لوم": 3818,
      "اشتر": 3819,
      "عید": 3820,
      "رحیم": 3821,
      "چوکی": 3822,
      "وث": 3823,
      "ھرام": 3824,
      "تیز": 3825,
      "رائ": 3826,
      "رنج": 3827,
      "جمال": 3828,
      "نزوری": 3829,
      "کاف": 3830,
      "سامان": 3831,
      "شعری": 3832,
      "گیس": 3833,
      "دوھزار": 3834,
      "اواز": 3835,
      "کارءَ": 3836,
      "ابو": 3837,
      "ایی": 3838,
      "شمو": 3839,
      "توان": 3840,
      "عقل": 3841,
      "شمے": 3842,
      "چکی": 3843,
      "پرے": 3844,
      "عہد": 3845,
      "زہی": 3846,
      "کشیں": 3847,
      "بشیر": 3848,
      "دانک": 3849,
      "ical": 3850,
      "انچ": 3851,
      "ھلک": 3852,
      "اھتگ": 3853,
      "کاگد": 3854,
      "لیکن": 3855,
      "سرمایہ": 3856,
      "میڑ": 3857,
      "کالج": 3858,
      "نندگ": 3859,
      "پمیشکہ": 3860,
      "راد": 3861,
      "ماڑی": 3862,
      "ترقی": 3863,
      "first": 3864,
      "جیل": 3865,
      "دگر": 3866,
      "اسکو": 3867,
      "عبداللہ": 3868,
      "سنگتے": 3869,
      "wor": 3870,
      "براس": 3871,
      "امت": 3872,
      "ہان": 3873,
      "بلوچستانءِ": 3874,
      "جمہ": 3875,
      "الس": 3876,
      "تئو": 3877,
      "دزبندی": 3878,
      "ould": 3879,
      "دوشی": 3880,
      "چرے": 3881,
      "انکس": 3882,
      "دلءِ": 3883,
      "جما": 3884,
      "وانگی": 3885,
      "کج": 3886,
      "اورتگ": 3887,
      "age": 3888,
      "غی": 3889,
      "دگنیا": 3890,
      "خص": 3891,
      "دستءَ": 3892,
      "عشق": 3893,
      "ہمی": 3894,
      "بله": 3895,
      "ڈنی": 3896,
      "ia": 3897,
      "pr": 3898,
      "زاہ": 3899,
      "جھانی": 3900,
      "لت": 3901,
      "ll": 3902,
      "ستیں": 3903,
      "نظر": 3904,
      "وم": 3905,
      "انءَ": 3906,
      "مگر": 3907,
      "گواچ": 3908,
      "واحد": 3909,
      "ریز": 3910,
      "بوتہ": 3911,
      "شرتر": 3912,
      "گھار": 3913,
      "جنیں": 3914,
      "bo": 3915,
      "ئند": 3916,
      "اسرا": 3917,
      "وریں": 3918,
      "ننگ": 3919,
      "مرید": 3920,
      "ایمنی": 3921,
      "راجے": 3922,
      "au": 3923,
      "صح": 3924,
      "پریشان": 3925,
      "نومبر": 3926,
      "طرح": 3927,
      "ارانی": 3928,
      "مسنگ": 3929,
      "اوتی": 3930,
      "ساس": 3931,
      "تہر": 3932,
      "رجی": 3933,
      "اھے": 3934,
      "اکر": 3935,
      "بازی": 3936,
      "صدر": 3937,
      "ڈس": 3938,
      "چیاکہ": 3939,
      "گیپت": 3940,
      "نیمگے": 3941,
      "سمبر": 3942,
      "برزی": 3943,
      "اھوالانی": 3944,
      "بنجاہی": 3945,
      "جاری": 3946,
      "بلکہ": 3947,
      "تیوگیں": 3948,
      "پنجاہ": 3949,
      "ition": 3950,
      "گیریں": 3951,
      "بندانی": 3952,
      "زبانءِ": 3953,
      "ھراب": 3954,
      "سندھی": 3955,
      "اسپ": 3956,
      "تلگ": 3957,
      "ترین": 3958,
      "نشہ": 3959,
      "نبیس": 3960,
      "اہے": 3961,
      "سنی": 3962,
      "بہرے": 3963,
      "مھکم": 3964,
      "اخر": 3965,
      "گوما": 3966,
      "گوزگ": 3967,
      "دریں": 3968,
      "ازمی": 3969,
      "گرانیں": 3970,
      "also": 3971,
      "روش": 3972,
      "tim": 3973,
      "خط": 3974,
      "چاراں": 3975,
      "کاریت": 3976,
      "قدیر": 3977,
      "ایشیءَ": 3978,
      "low": 3979,
      "اگن": 3980,
      "ction": 3981,
      "ضر": 3982,
      "سروکی": 3983,
      "میڈیا": 3984,
      "ورنایے": 3985,
      "رکھ": 3986,
      "راجانی": 3987,
      "ماسٹر": 3988,
      "pt": 3989,
      "ھمن": 3990,
      "سیاد": 3991,
      "پژدر": 3992,
      "چگل": 3993,
      "زہگ": 3994,
      "کیم": 3995,
      "lo": 3996,
      "دائی": 3997,
      "گوھار": 3998,
      "نادراھ": 3999,
      "مکس": 4000,
      "form": 4001,
      "پاداں": 4002,
      "پمشکہ": 4003,
      "sc": 4004,
      "ater": 4005,
      "کوئی": 4006,
      "ادگہ": 4007,
      "زندءَ": 4008,
      "چکانی": 4009,
      "ign": 4010,
      "ھژ": 4011,
      "گیدی": 4012,
      "احت": 4013,
      "ده": 4014,
      "روڈ": 4015,
      "نشانی": 4016,
      "کارند": 4017,
      "بانگ": 4018,
      "گوھرام": 4019,
      "دسمبر": 4020,
      "چوک": 4021,
      "سراں": 4022,
      "شریف": 4023,
      "has": 4024,
      "زن": 4025,
      "شاه": 4026,
      "عمران": 4027,
      "کوکار": 4028,
      "دوا": 4029,
      "ser": 4030,
      "ویب": 4031,
      "زاھدان": 4032,
      "کنائینگ": 4033,
      "اشک": 4034,
      "حل": 4035,
      "نئی": 4036,
      "وتن": 4037,
      "چیئر": 4038,
      "انٹر": 4039,
      "کتابے": 4040,
      "ادت": 4041,
      "رنگءَ": 4042,
      "ازادی": 4043,
      "چوناھا": 4044,
      "والا": 4045,
      "ساپ": 4046,
      "ودا": 4047,
      "دروگیں": 4048,
      "پوہ": 4049,
      "شکر": 4050,
      "نال": 4051,
      "یاکہ": 4052,
      "ure": 4053,
      "درانگ": 4054,
      "بریں": 4055,
      "ke": 4056,
      "میرا": 4057,
      "شوہاز": 4058,
      "att": 4059,
      "سریں": 4060,
      "چیءَ": 4061,
      "زبانے": 4062,
      "میز": 4063,
      "نشتگیں": 4064,
      "دیا": 4065,
      "اخلا": 4066,
      "ایرد": 4067,
      "ہشت": 4068,
      "کرونا": 4069,
      "دلج": 4070,
      "کتابانی": 4071,
      "چکاں": 4072,
      "ھنکین": 4073,
      "دیمپان": 4074,
      "جاو": 4075,
      "صور": 4076,
      "وانند": 4077,
      "گاریں": 4078,
      "بھا": 4079,
      "بلاھیں": 4080,
      "ناشر": 4081,
      "اران": 4082,
      "گشاں": 4083,
      "نوشکی": 4084,
      "مور": 4085,
      "اھوالکار": 4086,
      "int": 4087,
      "نودربراں": 4088,
      "ہوا": 4089,
      "ذمہ": 4090,
      "ابیت": 4091,
      "بعد": 4092,
      "بتل": 4093,
      "پاھو": 4094,
      "شراب": 4095,
      "علق": 4096,
      "سلیم": 4097,
      "میری": 4098,
      "ہائی": 4099,
      "گلانی": 4100,
      "ial": 4101,
      "حص": 4102,
      "مرو": 4103,
      "ہہ": 4104,
      "rec": 4105,
      "بچکند": 4106,
      "چان": 4107,
      "جگ": 4108,
      "موجود": 4109,
      "پانگ": 4110,
      "قران": 4111,
      "زوراکیانی": 4112,
      "play": 4113,
      "وئی": 4114,
      "امام": 4115,
      "پراہ": 4116,
      "کشیت": 4117,
      "جنوری": 4118,
      "گوناپ": 4119,
      "لبزانی": 4120,
      "زھ": 4121,
      "پرسنز": 4122,
      "حض": 4123,
      "ھنچش": 4124,
      "سالے": 4125,
      "ھوں": 4126,
      "صدی": 4127,
      "گوان": 4128,
      "بنشون": 4129,
      "حمید": 4130,
      "صن": 4131,
      "یورپ": 4132,
      "حاجی": 4133,
      "هال": 4134,
      "اسلامی": 4135,
      "have": 4136,
      "نزانت": 4137,
      "وطن": 4138,
      "بیرانی": 4139,
      "مہمد": 4140,
      "شئی": 4141,
      "ها": 4142,
      "other": 4143,
      "صبا": 4144,
      "پمن": 4145,
      "کنوکاں": 4146,
      "قلات": 4147,
      "دما": 4148,
      "He": 4149,
      "ویز": 4150,
      "رندءَ": 4151,
      "مجلس": 4152,
      "سھر": 4153,
      "پسنی": 4154,
      "ئت": 4155,
      "امیر": 4156,
      "لشکری": 4157,
      "پنت": 4158,
      "دید": 4159,
      "وق": 4160,
      "گلامی": 4161,
      "ساتھ": 4162,
      "بلۆچ": 4163,
      "ماہتاک": 4164,
      "نئیت": 4165,
      "انگر": 4166,
      "منصوبہ": 4167,
      "استال": 4168,
      "چادر": 4169,
      "اجازت": 4170,
      "اؤر": 4171,
      "who": 4172,
      "ڈنگ": 4173,
      "کاپ": 4174,
      "گورءَ": 4175,
      "کگ": 4176,
      "دیمپانی": 4177,
      "گناہ": 4178,
      "دربرجاہ": 4179,
      "یگ": 4180,
      "سنگر": 4181,
      "جاھیں": 4182,
      "طان": 4183,
      "کازی": 4184,
      "وهدے": 4185,
      "پئی": 4186,
      "ائر": 4187,
      "ایمن": 4188,
      "فوجی": 4189,
      "امیہ": 4190,
      "لوی": 4191,
      "لنگ": 4192,
      "ترندی": 4193,
      "تلگرام": 4194,
      "مزنین": 4195,
      "گپءَ": 4196,
      "علاقہ": 4197,
      "مغ": 4198,
      "کوہنیں": 4199,
      "ہوش": 4200,
      "ok": 4201,
      "کمپنی": 4202,
      "ساجد": 4203,
      "کرار": 4204,
      "ماھی": 4205,
      "کلوہ": 4206,
      "فٹ": 4207,
      "ran": 4208,
      "جھتی": 4209,
      "طب": 4210,
      "عزی": 4211,
      "اشو": 4212,
      "معاشی": 4213,
      "اغ": 4214,
      "باھ": 4215,
      "گدان": 4216,
      "کارمنداں": 4217,
      "تئ": 4218,
      "مص": 4219,
      "کمشن": 4220,
      "کمبر": 4221,
      "گوئشت": 4222,
      "شار": 4223,
      "قول": 4224,
      "بروت": 4225,
      "اینچو": 4226,
      "بدار": 4227,
      "شکیں": 4228,
      "مھم": 4229,
      "یوس": 4230,
      "ورنائیں": 4231,
      "یکی": 4232,
      "ome": 4233,
      "نون": 4234,
      "زندان": 4235,
      "دزگیری": 4236,
      "یکجھتی": 4237,
      "پگ": 4238,
      "بدیں": 4239,
      "ھرد": 4240,
      "اوپار": 4241,
      "کشان": 4242,
      "مارگ": 4243,
      "حہ": 4244,
      "گین": 4245,
      "دوئی": 4246,
      "part": 4247,
      "سہی": 4248,
      "ence": 4249,
      "اسمبلی": 4250,
      "ایچ": 4251,
      "ھاسیں": 4252,
      "ھزدار": 4253,
      "شانت": 4254,
      "انصاف": 4255,
      "طاقت": 4256,
      "اوشتوک": 4257,
      "ابت": 4258,
      "واھند": 4259,
      "gu": 4260,
      "رن": 4261,
      "مسیت": 4262,
      "نیل": 4263,
      "مردین": 4264,
      "زیشن": 4265,
      "been": 4266,
      "وتے": 4267,
      "حب": 4268,
      "پلی": 4269,
      "گہار": 4270,
      "فرنٹ": 4271,
      "گواہ": 4272,
      "دمانے": 4273,
      "ہپت": 4274,
      "دعا": 4275,
      "صف": 4276,
      "تہاری": 4277,
      "two": 4278,
      "شمار": 4279,
      "ھام": 4280,
      "کارمرد": 4281,
      "اکتو": 4282,
      "ree": 4283,
      "ازل": 4284,
      "رئی": 4285,
      "پھل": 4286,
      "ادارھانی": 4287,
      "بائل": 4288,
      "حاصل": 4289,
      "اروس": 4290,
      "کارگس": 4291,
      "گوری": 4292,
      "مرچاں": 4293,
      "باروءَ": 4294,
      "اتکگیں": 4295,
      "نزیکی": 4296,
      "نصیب": 4297,
      "ملکاں": 4298,
      "cont": 4299,
      "خبر": 4300,
      "انتظ": 4301,
      "پروفی": 4302,
      "ائل": 4303,
      "وهد": 4304,
      "طور": 4305,
      "ماھتاک": 4306,
      "مسک": 4307,
      "اکتوبر": 4308,
      "اٹ": 4309,
      "کمشنر": 4310,
      "شرف": 4311,
      "بہت": 4312,
      "زیبائی": 4313,
      "فرنس": 4314,
      "یوک": 4315,
      "چہر": 4316,
      "pres": 4317,
      "باہ": 4318,
      "گاہ": 4319,
      "گندیت": 4320,
      "شات": 4321,
      "ڈولیں": 4322,
      "ادری": 4323,
      "اورت": 4324,
      "سام": 4325,
      "شاھی": 4326,
      "چیئرمین": 4327,
      "سسا": 4328,
      "ایوکیں": 4329,
      "شخص": 4330,
      "سانگ": 4331,
      "نل": 4332,
      "جنکے": 4333,
      "الوجی": 4334,
      "دؤر": 4335,
      "پرد": 4336,
      "aw": 4337,
      "زیمر": 4338,
      "زالبولانی": 4339,
      "گیجگ": 4340,
      "عزیز": 4341,
      "سانی": 4342,
      "ھواری": 4343,
      "بدی": 4344,
      "حم": 4345,
      "توکا": 4346,
      "پانزدہ": 4347,
      "وانگجاہ": 4348,
      "uring": 4349,
      "لیویز": 4350,
      "یکبرے": 4351,
      "دریگ": 4352,
      "دام": 4353,
      "گیوار": 4354,
      "ile": 4355,
      "انڈ": 4356,
      "ادینک": 4357,
      "انساپ": 4358,
      "off": 4359,
      "اپریل": 4360,
      "dis": 4361,
      "واں": 4362,
      "سج": 4363,
      "ٹن": 4364,
      "پادانی": 4365,
      "ory": 4366,
      "ٹال": 4367,
      "روچءَ": 4368,
      "سپتال": 4369,
      "ہرکس": 4370,
      "اتگیں": 4371,
      "فن": 4372,
      "سبک": 4373,
      "بیگا": 4374,
      "ہوں": 4375,
      "کسمان": 4376,
      "نظری": 4377,
      "پیو": 4378,
      "زبانا": 4379,
      "مومن": 4380,
      "کلاک": 4381,
      "تحریک": 4382,
      "مذہب": 4383,
      "بڑ": 4384,
      "بندے": 4385,
      "کرنے": 4386,
      "this": 4387,
      "دشتیاری": 4388,
      "بکناں": 4389,
      "افغانستان": 4390,
      "sp": 4391,
      "امید": 4392,
      "اؤرتگ": 4393,
      "زندے": 4394,
      "کنٹرول": 4395,
      "me": 4396,
      "مقص": 4397,
      "ترکی": 4398,
      "سع": 4399,
      "گئے": 4400,
      "انگور": 4401,
      "لوگءَ": 4402,
      "گوشان": 4403,
      "مرچیگیں": 4404,
      "چکے": 4405,
      "کشار": 4406,
      "جناں": 4407,
      "برمش": 4408,
      "ہا": 4409,
      "بھتام": 4410,
      "زمی": 4411,
      "نزاناں": 4412,
      "ضی": 4413,
      "ھمائی": 4414,
      "پیشی": 4415,
      "بدئے": 4416,
      "اع": 4417,
      "پوری": 4418,
      "گچکی": 4419,
      "رسم": 4420,
      "ازمانکانی": 4421,
      "پاگ": 4422,
      "فل": 4423,
      "روچانی": 4424,
      "ہوٹل": 4425,
      "It": 4426,
      "ئگا": 4427,
      "کوشست": 4428,
      "رہشون": 4429,
      "وکاں": 4430,
      "تاکت": 4431,
      "تپاس": 4432,
      "گچینی": 4433,
      "des": 4434,
      "وانینگ": 4435,
      "ہانی": 4436,
      "ade": 4437,
      "ہون": 4438,
      "وڑءَ": 4439,
      "دامن": 4440,
      "ھنچیں": 4441,
      "پارسی": 4442,
      "شه": 4443,
      "نرم": 4444,
      "ثہ": 4445,
      "ہوئے": 4446,
      "شونی": 4447,
      "نامءَ": 4448,
      "جتاجتائیں": 4449,
      "کنوکانی": 4450,
      "استیں": 4451,
      "شئے": 4452,
      "ult": 4453,
      "ئن": 4454,
      "مزاح": 4455,
      "زری": 4456,
      "واج": 4457,
      "فروری": 4458,
      "زیارت": 4459,
      "ماه": 4460,
      "وفا": 4461,
      "پارلی": 4462,
      "وہدیکہ": 4463,
      "وے": 4464,
      "کارڈ": 4465,
      "ite": 4466,
      "پیریں": 4467,
      "پنجاب": 4468,
      "برجاھیں": 4469,
      "pos": 4470,
      "اسمان": 4471,
      "کائی": 4472,
      "سوال": 4473,
      "زه": 4474,
      "گلاں": 4475,
      "عام": 4476,
      "سرکماش": 4477,
      "بیل": 4478,
      "دلوت": 4479,
      "year": 4480,
      "گراب": 4481,
      "قبر": 4482,
      "ره": 4483,
      "نکش": 4484,
      "حاص": 4485,
      "مشت": 4486,
      "کمیشن": 4487,
      "لیگ": 4488,
      "مردی": 4489,
      "دچار": 4490,
      "they": 4491,
      "زات": 4492,
      "راھے": 4493,
      "سیٰ": 4494,
      "ممکن": 4495,
      "ردانک": 4496,
      "بندر": 4497,
      "لنک": 4498,
      "متلب": 4499,
      "comm": 4500,
      "رپ": 4501,
      "اسکواڈ": 4502,
      "چارت": 4503,
      "ھچبر": 4504,
      "رحم": 4505,
      "حانی": 4506,
      "چمگ": 4507,
      "ساه": 4508,
      "حضرت": 4509,
      "گشاد": 4510,
      "جولائی": 4511,
      "دێ": 4512,
      "داروکیں": 4513,
      "پوشاک": 4514,
      "cre": 4515,
      "سوز": 4516,
      "ستمبر": 4517,
      "بستگیں": 4518,
      "دانگ": 4519,
      "اسٹو": 4520,
      "vel": 4521,
      "An": 4522,
      "مرت": 4523,
      "الت": 4524,
      "Th": 4525,
      "رال": 4526,
      "ell": 4527,
      "منو": 4528,
      "شبین": 4529,
      "چارمی": 4530,
      "کانودی": 4531,
      "after": 4532,
      "فظ": 4533,
      "we": 4534,
      "حقیقت": 4535,
      "یوسف": 4536,
      "غیں": 4537,
      "ans": 4538,
      "fin": 4539,
      "وہدءَ": 4540,
      "وشبو": 4541,
      "واہگ": 4542,
      "تار": 4543,
      "ھیران": 4544,
      "ہرچی": 4545,
      "بلوچے": 4546,
      "موہ": 4547,
      "دوازدہ": 4548,
      "ren": 4549,
      "کونسل": 4550,
      "ناہ": 4551,
      "ارزان": 4552,
      "تعلق": 4553,
      "چنکس": 4554,
      "نیکرا": 4555,
      "انہی": 4556,
      "اؤرت": 4557,
      "cent": 4558,
      "امین": 4559,
      "og": 4560,
      "پیمءَ": 4561,
      "ارب": 4562,
      "ائین": 4563,
      "گریوگ": 4564,
      "چڑ": 4565,
      "جنسی": 4566,
      "کوپگ": 4567,
      "لۆ": 4568,
      "رسگ": 4569,
      "دگے": 4570,
      "کءَ": 4571,
      "کپان": 4572,
      "ٹیلی": 4573,
      "ھپتگ": 4574,
      "نیوز": 4575,
      "اسرائیل": 4576,
      "پلو": 4577,
      "رون": 4578,
      "دارے": 4579,
      "کاہ": 4580,
      "ved": 4581,
      "وکیل": 4582,
      "سنت": 4583,
      "ناصر": 4584,
      "پکار": 4585,
      "ھمدا": 4586,
      "کورٹ": 4587,
      "مندیں": 4588,
      "غنی": 4589,
      "بگوش": 4590,
      "پتری": 4591,
      "کرنا": 4592,
      "الیک": 4593,
      "منتگ": 4594,
      "لوٹوکیں": 4595,
      "تپنگ": 4596,
      "کیل": 4597,
      "شید": 4598,
      "ملکانی": 4599,
      "پہنات": 4600,
      "سپاھی": 4601,
      "ادارگ": 4602,
      "الہ": 4603,
      "ئور": 4604,
      "پال": 4605,
      "بوگی": 4606,
      "گوشی": 4607,
      "جبر": 4608,
      "وکانی": 4609,
      "پروفیسر": 4610,
      "فون": 4611,
      "افی": 4612,
      "br": 4613,
      "قبیلہ": 4614,
      "نفسی": 4615,
      "ارد": 4616,
      "سکت": 4617,
      "لیت": 4618,
      "incl": 4619,
      "عار": 4620,
      "ترمپ": 4621,
      "قید": 4622,
      "عالم": 4623,
      "اسپیت": 4624,
      "سائنسی": 4625,
      "پنجا": 4626,
      "گستا": 4627,
      "ایڈ": 4628,
      "ٹنگ": 4629,
      "میدان": 4630,
      "ورا": 4631,
      "ations": 4632,
      "سئی": 4633,
      "ئا": 4634,
      "ورناہ": 4635,
      "کمر": 4636,
      "ھشک": 4637,
      "ھرچی": 4638,
      "غزل": 4639,
      "واقعہ": 4640,
      "فرا": 4641,
      "پاکیں": 4642,
      "زھیر": 4643,
      "شپی": 4644,
      "پدریچ": 4645,
      "حاق": 4646,
      "ue": 4647,
      "پیسرا": 4648,
      "سوبین": 4649,
      "دائم": 4650,
      "سٹی": 4651,
      "ھمگرنچ": 4652,
      "یازدہ": 4653,
      "گرانی": 4654,
      "پاب": 4655,
      "روایت": 4656,
      "بزگی": 4657,
      "برزیں": 4658,
      "شوک": 4659,
      "گزر": 4660,
      "بگش": 4661,
      "طال": 4662,
      "ائید": 4663,
      "ابرم": 4664,
      "دگانی": 4665,
      "دارانی": 4666,
      "able": 4667,
      "ہبر": 4668,
      "برجا": 4669,
      "تعلی": 4670,
      "بلد": 4671,
      "لائن": 4672,
      "دستگ": 4673,
      "جے": 4674,
      "جذ": 4675,
      "زانشت": 4676,
      "دزکپتگ": 4677,
      "بڈی": 4678,
      "ہد": 4679,
      "ice": 4680,
      "ھندی": 4681,
      "وران": 4682,
      "work": 4683,
      "کنالوجی": 4684,
      "ایوکءَ": 4685,
      "بندش": 4686,
      "ھندوستان": 4687,
      "گوک": 4688,
      "بلیدہ": 4689,
      "خل": 4690,
      "ہونا": 4691,
      "urn": 4692,
      "شرو": 4693,
      "گونڈیں": 4694,
      "وتگ": 4695,
      "پوست": 4696,
      "پے": 4697,
      "جین": 4698,
      "بئیں": 4699,
      "دوبر": 4700,
      "موش": 4701,
      "کانود": 4702,
      "گلی": 4703,
      "پلہ": 4704,
      "سودا": 4705,
      "ورد": 4706,
      "گندئے": 4707,
      "ever": 4708,
      "تھر": 4709,
      "اپس": 4710,
      "اشکنگ": 4711,
      "ید": 4712,
      "وراں": 4713,
      "سرمچارانی": 4714,
      "نوشتہ": 4715,
      "حیران": 4716,
      "بلو": 4717,
      "no": 4718,
      "ace": 4719,
      "ھمود": 4720,
      "ندکار": 4721,
      "سگریٹ": 4722,
      "امریکی": 4723,
      "جائے": 4724,
      "پرچی": 4725,
      "ھنر": 4726,
      "لانچ": 4727,
      "دیوانے": 4728,
      "خود": 4729,
      "ثر": 4730,
      "ھاترءَ": 4731,
      "میٹر": 4732,
      "گوم": 4733,
      "لوگانی": 4734,
      "گؤ": 4735,
      "لیل": 4736,
      "رؤت": 4737,
      "pre": 4738,
      "ناکیں": 4739,
      "امباز": 4740,
      "درک": 4741,
      "مسلم": 4742,
      "راجمان": 4743,
      "دروشمے": 4744,
      "ric": 4745,
      "حوال": 4746,
      "سرو": 4747,
      "شیخ": 4748,
      "ark": 4749,
      "لاح": 4750,
      "جاہے": 4751,
      "جاہاں": 4752,
      "نزی": 4753,
      "شنا": 4754,
      "ڈیک": 4755,
      "تاریخی": 4756,
      "ویبجاہ": 4757,
      "جیئند": 4758,
      "لبزانت": 4759,
      "رھادگ": 4760,
      "قرار": 4761,
      "بگل": 4762,
      "دودمان": 4763,
      "شست": 4764,
      "سیاھیں": 4765,
      "پاٹی": 4766,
      "گرام": 4767,
      "مردمی": 4768,
      "ابا": 4769,
      "زاھر": 4770,
      "دیگر": 4771,
      "بوگءَ": 4772,
      "ہاترا": 4773,
      "کولو": 4774,
      "mer": 4775,
      "نویسگ": 4776,
      "زندگیں": 4777,
      "فور": 4778,
      "تہار": 4779,
      "زباناں": 4780,
      "حرکت": 4781,
      "کرتے": 4782,
      "گالبند": 4783,
      "دگرانی": 4784,
      "ایشان": 4785,
      "نیامءَ": 4786,
      "موبائل": 4787,
      "ھینگ": 4788,
      "گرن": 4789,
      "iz": 4790,
      "نامے": 4791,
      "نامدار": 4792,
      "طہ": 4793,
      "رچ": 4794,
      "ڈا": 4795,
      "تچکیں": 4796,
      "بوتی": 4797,
      "سالانی": 4798,
      "نیکراھی": 4799,
      "اسما": 4800,
      "چارات": 4801,
      "کھند": 4802,
      "time": 4803,
      "تاھ": 4804,
      "سعید": 4805,
      "پونز": 4806,
      "زد": 4807,
      "یءَ": 4808,
      "لیے": 4809,
      "Un": 4810,
      "شتیں": 4811,
      "لیا": 4812,
      "دلجم": 4813,
      "پورا": 4814,
      "بائی": 4815,
      "ارشاں": 4816,
      "فقی": 4817,
      "انور": 4818,
      "قری": 4819,
      "سڑ": 4820,
      "ضہ": 4821,
      "زوریت": 4822,
      "سنچ": 4823,
      "کیمپ": 4824,
      "کنے": 4825,
      "سیاھگ": 4826,
      "ff": 4827,
      "چنگ": 4828,
      "اناگ": 4829,
      "سرھال": 4830,
      "کتیں": 4831,
      "پدی": 4832,
      "ens": 4833,
      "معلوم": 4834,
      "گشے": 4835,
      "co": 4836,
      "روانی": 4837,
      "پلانی": 4838,
      "spe": 4839,
      "چۆ": 4840,
      "قوت": 4841,
      "سارتیں": 4842,
      "ہکانی": 4843,
      "چیل": 4844,
      "مدی": 4845,
      "ھردو": 4846,
      "توسی": 4847,
      "ناماں": 4848,
      "زیرگ": 4849,
      "نیاں": 4850,
      "سمجھ": 4851,
      "استع": 4852,
      "صنعت": 4853,
      "ڈائ": 4854,
      "پیسری": 4855,
      "ھمراھ": 4856,
      "ance": 4857,
      "دستیگ": 4858,
      "لینڈ": 4859,
      "ہرچ": 4860,
      "مالیات": 4861,
      "جمالدینی": 4862,
      "into": 4863,
      "غاں": 4864,
      "کاس": 4865,
      "پیرک": 4866,
      "شھدگ": 4867,
      "شاعرے": 4868,
      "قب": 4869,
      "ھاس": 4870,
      "پہک": 4871,
      "ions": 4872,
      "دنز": 4873,
      "ظاہر": 4874,
      "قیمت": 4875,
      "شھری": 4876,
      "کمیون": 4877,
      "رسانکدراں": 4878,
      "more": 4879,
      "ship": 4880,
      "ظفر": 4881,
      "سوگ": 4882,
      "گیگ": 4883,
      "تانی": 4884,
      "جک": 4885,
      "دپءَ": 4886,
      "خاصیں": 4887,
      "شنز": 4888,
      "گالاں": 4889,
      "سرین": 4890,
      "برابر": 4891,
      "ایکس": 4892,
      "شعرانی": 4893,
      "دزی": 4894,
      "زوال": 4895,
      "تہء": 4896,
      "رجانکار": 4897,
      "اشوبی": 4898,
      "اژ": 4899,
      "چیت": 4900,
      "روژن": 4901,
      "کچھ": 4902,
      "نادراہی": 4903,
      "حون": 4904,
      "بنیادم": 4905,
      "رضا": 4906,
      "ڈپٹی": 4907,
      "کنغ": 4908,
      "چاردہ": 4909,
      "قلم": 4910,
      "گشی": 4911,
      "مذ": 4912,
      "ساچشتی": 4913,
      "لوٹت": 4914,
      "اتکی": 4915,
      "درنگ": 4916,
      "اومان": 4917,
      "لاسی": 4918,
      "دلجمی": 4919,
      "لاہ": 4920,
      "امل": 4921,
      "سئیں": 4922,
      "نواز": 4923,
      "any": 4924,
      "ایراد": 4925,
      "ورنایانی": 4926,
      "ount": 4927,
      "حاترا": 4928,
      "ces": 4929,
      "جمبر": 4930,
      "بئیگ": 4931,
      "نقص": 4932,
      "ئنت": 4933,
      "خو": 4934,
      "اروا": 4935,
      "گوا": 4936,
      "ٹیکنالوجی": 4937,
      "سست": 4938,
      "ph": 4939,
      "کایاں": 4940,
      "سارت": 4941,
      "most": 4942,
      "ath": 4943,
      "چتور": 4944,
      "نێ": 4945,
      "باج": 4946,
      "ced": 4947,
      "inter": 4948,
      "مارکی": 4949,
      "بینگ": 4950,
      "دوری": 4951,
      "she": 4952,
      "انء": 4953,
      "کردے": 4954,
      "گوار": 4955,
      "نزیکیں": 4956,
      "امرزی": 4957,
      "فکشن": 4958,
      "نمیرانیں": 4959,
      "لج": 4960,
      "راشد": 4961,
      "سوی": 4962,
      "چات": 4963,
      "گوریچ": 4964,
      "tem": 4965,
      "سبزیں": 4966,
      "گلے": 4967,
      "سلامت": 4968,
      "هبر": 4969,
      "چیک": 4970,
      "طو": 4971,
      "ترو": 4972,
      "تج": 4973,
      "دگرے": 4974,
      "زنگ": 4975,
      "کندی": 4976,
      "بوتگاں": 4977,
      "گلہ": 4978,
      "توامیں": 4979,
      "رحمن": 4980,
      "نادراھجاہ": 4981,
      "سسٹ": 4982,
      "ٹین": 4983,
      "دولت": 4984,
      "جمع": 4985,
      "محبت": 4986,
      "ason": 4987,
      "زاد": 4988,
      "شپے": 4989,
      "شرگدار": 4990,
      "red": 4991,
      "رپت": 4992,
      "هے": 4993,
      "نیادی": 4994,
      "گڈسر": 4995,
      "گیاب": 4996,
      "قاسم": 4997,
      "مزہ": 4998,
      "تاگ": 4999,
      "قد": 5000,
      "گیت": 5001,
      "پرک": 5002,
      "مہناز": 5003,
      "would": 5004,
      "کتاباں": 5005,
      "جرم": 5006,
      "Al": 5007,
      "بارگ": 5008,
      "cond": 5009,
      "اندرءَ": 5010,
      "ڈرائی": 5011,
      "گوانک": 5012,
      "فضل": 5013,
      "سٹر": 5014,
      "him": 5015,
      "دیکھ": 5016,
      "کربانی": 5017,
      "اہم": 5018,
      "old": 5019,
      "amp": 5020,
      "تنک": 5021,
      "رابی": 5022,
      "گندگءَ": 5023,
      "غری": 5024,
      "اندیم": 5025,
      "ذی": 5026,
      "یناں": 5027,
      "اہوال": 5028,
      "گوشدارگ": 5029,
      "سبی": 5030,
      "دمک": 5031,
      "مصر": 5032,
      "گرمی": 5033,
      "گھگیری": 5034,
      "سربوتگیں": 5035,
      "تپا": 5036,
      "شرتریں": 5037,
      "پرواز": 5038,
      "ھستی": 5039,
      "رؤگ": 5040,
      "پیچ": 5041,
      "زامران": 5042,
      "رودر": 5043,
      "پترت": 5044,
      "کڑ": 5045,
      "ann": 5046,
      "موس": 5047,
      "چاریت": 5048,
      "پندل": 5049,
      "سرزمین": 5050,
      "ang": 5051,
      "used": 5052,
      "سیٹ": 5053,
      "main": 5054,
      "کسمانک": 5055,
      "گئی": 5056,
      "راجد": 5057,
      "جہتی": 5058,
      "چیرد": 5059,
      "زبانءَ": 5060,
      "گیشینگ": 5061,
      "باوست": 5062,
      "زیبا": 5063,
      "باسکاں": 5064,
      "عن": 5065,
      "ٹاہ": 5066,
      "بہار": 5067,
      "روسی": 5068,
      "لوار": 5069,
      "علمی": 5070,
      "فورس": 5071,
      "خانہ": 5072,
      "قانون": 5073,
      "مذہبی": 5074,
      "بگندئے": 5075,
      "ited": 5076,
      "استمان": 5077,
      "مدتے": 5078,
      "پھاز": 5079,
      "ڈنٹ": 5080,
      "ریڈیو": 5081,
      "cted": 5082,
      "ire": 5083,
      "مطلب": 5084,
      "مساپر": 5085,
      "فائدہ": 5086,
      "مئیں": 5087,
      "اشر": 5088,
      "بٹ": 5089,
      "انتز": 5090,
      "اشیءِ": 5091,
      "مف": 5092,
      "بازینے": 5093,
      "سوگند": 5094,
      "ings": 5095,
      "بم": 5096,
      "بابا": 5097,
      "شہری": 5098,
      "زید": 5099,
      "جنزان": 5100,
      "روی": 5101,
      "وقت": 5102,
      "رندی": 5103,
      "بینک": 5104,
      "بیوکیں": 5105,
      "دیمر": 5106,
      "اؤکیں": 5107,
      "تخلی": 5108,
      "لئی": 5109,
      "پاں": 5110,
      "پرپٹ": 5111,
      "ٹیم": 5112,
      "گاڑیانی": 5113,
      "مائی": 5114,
      "لوٹگ": 5115,
      "بجار": 5116,
      "نبشتگیں": 5117,
      "ased": 5118,
      "مرتگیں": 5119,
      "تش": 5120,
      "بێ": 5121,
      "انگہ": 5122,
      "اط": 5123,
      "اہیں": 5124,
      "وڈیں": 5125,
      "کریمہ": 5126,
      "fl": 5127,
      "ie": 5128,
      "کشندہ": 5129,
      "fore": 5130,
      "پنڈ": 5131,
      "bec": 5132,
      "موکل": 5133,
      "مقصد": 5134,
      "فرق": 5135,
      "کدر": 5136,
      "زیمل": 5137,
      "مض": 5138,
      "اھد": 5139,
      "گوشنت": 5140,
      "باو": 5141,
      "سه": 5142,
      "ھستیں": 5143,
      "پروشگ": 5144,
      "برانز": 5145,
      "خلاف": 5146,
      "رسی": 5147,
      "رکی": 5148,
      "انکیں": 5149,
      "ہاشمی": 5150,
      "قدیم": 5151,
      "min": 5152,
      "دپی": 5153,
      "پرشت": 5154,
      "نودر": 5155,
      "بوٹ": 5156,
      "کلام": 5157,
      "mon": 5158,
      "توں": 5159,
      "یکجہتی": 5160,
      "زیان": 5161,
      "اسپیتیں": 5162,
      "وپت": 5163,
      "ہوتا": 5164,
      "پہم": 5165,
      "مشکے": 5166,
      "گرمیں": 5167,
      "درونت": 5168,
      "پانگس": 5169,
      "وپس": 5170,
      "نیکی": 5171,
      "جتائی": 5172,
      "کمالان": 5173,
      "گه": 5174,
      "تاکہ": 5175,
      "پھم": 5176,
      "المیں": 5177,
      "علاج": 5178,
      "قات": 5179,
      "منظور": 5180,
      "عات": 5181,
      "مکت": 5182,
      "داران": 5183,
      "بزگیں": 5184,
      "جنگو": 5185,
      "مهر": 5186,
      "پھن": 5187,
      "ادارھاں": 5188,
      "بچکندگ": 5189,
      "جائی": 5190,
      "زیادہ": 5191,
      "سپاہی": 5192,
      "ضرورت": 5193,
      "شبیر": 5194,
      "لمب": 5195,
      "ساعت": 5196,
      "includ": 5197,
      "اسحاق": 5198,
      "تمام": 5199,
      "شھدربرجاہ": 5200,
      "ہنچو": 5201,
      "وخ": 5202,
      "though": 5203,
      "ڪہ": 5204,
      "ڈیہہ": 5205,
      "ates": 5206,
      "ہندوستان": 5207,
      "ئگی": 5208,
      "عاش": 5209,
      "مکسد": 5210,
      "حکیم": 5211,
      "بدنت": 5212,
      "ایوب": 5213,
      "ئش": 5214,
      "ذاتی": 5215,
      "ریگ": 5216,
      "گچینکاری": 5217,
      "والی": 5218,
      "دلبڈی": 5219,
      "اخلاقی": 5220,
      "تءَ": 5221,
      "کلاں": 5222,
      "توارے": 5223,
      "ھوٹل": 5224,
      "درداں": 5225,
      "رہے": 5226,
      "گوشئے": 5227,
      "کوھانی": 5228,
      "ہمن": 5229,
      "پون": 5230,
      "Ar": 5231,
      "کلم": 5232,
      "اواں": 5233,
      "عث": 5234,
      "گلیں": 5235,
      "قادر": 5236,
      "ict": 5237,
      "لبزاں": 5238,
      "وکے": 5239,
      "لوگاں": 5240,
      "بلوچءِ": 5241,
      "پرمان": 5242,
      "پلاں": 5243,
      "رنگی": 5244,
      "مشین": 5245,
      "جیک": 5246,
      "لون": 5247,
      "لوٹانی": 5248,
      "ھزاراں": 5249,
      "air": 5250,
      "ملکے": 5251,
      "تاکبند": 5252,
      "فرانس": 5253,
      "چکچینی": 5254,
      "سط": 5255,
      "ڈیتھ": 5256,
      "زھری": 5257,
      "نوبت": 5258,
      "ھوری": 5259,
      "تاھیر": 5260,
      "کنز": 5261,
      "لاف": 5262,
      "way": 5263,
      "ڑہ": 5264,
      "ناچ": 5265,
      "پرشتگ": 5266,
      "میاں": 5267,
      "مندی": 5268,
      "انتزامیہ": 5269,
      "اهانی": 5270,
      "دوت": 5271,
      "چاڑ": 5272,
      "ھمیشی": 5273,
      "new": 5274,
      "کارءُ": 5275,
      "دراں": 5276,
      "Au": 5277,
      "عملی": 5278,
      "row": 5279,
      "vers": 5280,
      "نزینک": 5281,
      "پائی": 5282,
      "تہی": 5283,
      "سوس": 5284,
      "ھنچو": 5285,
      "ظلم": 5286,
      "بوہان": 5287,
      "تنت": 5288,
      "فدا": 5289,
      "vis": 5290,
      "مانیت": 5291,
      "ٹائ": 5292,
      "انو": 5293,
      "ورٹی": 5294,
      "نقصان": 5295,
      "سنگی": 5296,
      "گردن": 5297,
      "اگدہ": 5298,
      "گوازینتگ": 5299,
      "پانک": 5300,
      "موٹر": 5301,
      "دژمنیں": 5302,
      "گلاب": 5303,
      "چندے": 5304,
      "چمے": 5305,
      "نوزدہ": 5306,
      "حصہ": 5307,
      "اسد": 5308,
      "ھیرو": 5309,
      "ail": 5310,
      "کواس": 5311,
      "وائرس": 5312,
      "rough": 5313,
      "بوھ": 5314,
      "ood": 5315,
      "ft": 5316,
      "پازل": 5317,
      "ووٹ": 5318,
      "جنئگ": 5319,
      "جاڑی": 5320,
      "ۆک": 5321,
      "پشتون": 5322,
      "دگراں": 5323,
      "ake": 5324,
      "bu": 5325,
      "ثابت": 5326,
      "جهد": 5327,
      "چرائی": 5328,
      "یمن": 5329,
      "زاری": 5330,
      "الف": 5331,
      "درائی": 5332,
      "جلو": 5333,
      "ندن": 5334,
      "گلگ": 5335,
      "زرمبش": 5336,
      "خاندان": 5337,
      "ھمین": 5338,
      "برط": 5339,
      "دلے": 5340,
      "زرباری": 5341,
      "ob": 5342,
      "سرگوست": 5343,
      "انگتہ": 5344,
      "کمتر": 5345,
      "راھبند": 5346,
      "فقیر": 5347,
      "لن": 5348,
      "امد": 5349,
      "ase": 5350,
      "ویک": 5351,
      "ry": 5352,
      "گوزان": 5353,
      "اچہ": 5354,
      "ھنچوش": 5355,
      "تچان": 5356,
      "امروز": 5357,
      "لوگے": 5358,
      "جاگہے": 5359,
      "گوی": 5360,
      "باپاری": 5361,
      "دوز": 5362,
      "ick": 5363,
      "ادینگ": 5364,
      "وتگڑیں": 5365,
      "ents": 5366,
      "عطاش": 5367,
      "جگر": 5368,
      "قائ": 5369,
      "باریگ": 5370,
      "جاتا": 5371,
      "مندر": 5372,
      "درخ": 5373,
      "کانفرنس": 5374,
      "گواچن": 5375,
      "cess": 5376,
      "song": 5377,
      "ild": 5378,
      "تجربہ": 5379,
      "بوتین": 5380,
      "لوں": 5381,
      "امریکا": 5382,
      "only": 5383,
      "غوث": 5384,
      "ربیدگی": 5385,
      "ذکر": 5386,
      "لرز": 5387,
      "کوک": 5388,
      "کوه": 5389,
      "مالک": 5390,
      "ونڈ": 5391,
      "when": 5392,
      "جنا": 5393,
      "دردی": 5394,
      "زانی": 5395,
      "پلا": 5396,
      "arch": 5397,
      "شیں": 5398,
      "بوتگنت": 5399,
      "درچکانی": 5400,
      "یونین": 5401,
      "شیئر": 5402,
      "gan": 5403,
      "اوند": 5404,
      "کاپر": 5405,
      "جمہوری": 5406,
      "سوبمندی": 5407,
      "مھکمیں": 5408,
      "نویسی": 5409,
      "بدو": 5410,
      "نسیم": 5411,
      "پرما": 5412,
      "کھی": 5413,
      "زنڈ": 5414,
      "under": 5415,
      "غر": 5416,
      "نبیت": 5417,
      "کپوت": 5418,
      "مروچیگیں": 5419,
      "ubl": 5420,
      "سز": 5421,
      "وو": 5422,
      "گالانی": 5423,
      "تچگ": 5424,
      "تجربت": 5425,
      "مقا": 5426,
      "انوگیں": 5427,
      "عیب": 5428,
      "پدائی": 5429,
      "پیں": 5430,
      "جاہءَ": 5431,
      "پائدگ": 5432,
      "روں": 5433,
      "کولواہ": 5434,
      "جماعت": 5435,
      "reg": 5436,
      "میڈیکل": 5437,
      "بارے": 5438,
      "نوکی": 5439,
      "زمستان": 5440,
      "پنجابی": 5441,
      "جائ": 5442,
      "دوستین": 5443,
      "درشانداب": 5444,
      "پریات": 5445,
      "درملکی": 5446,
      "عذ": 5447,
      "iss": 5448,
      "ڈرا": 5449,
      "ہندی": 5450,
      "ble": 5451,
      "پیشانی": 5452,
      "کارءِ": 5453,
      "them": 5454,
      "صفت": 5455,
      "سرء": 5456,
      "نظم": 5457,
      "les": 5458,
      "جوڑی": 5459,
      "لازم": 5460,
      "ادارہانی": 5461,
      "دماغ": 5462,
      "ors": 5463,
      "وارے": 5464,
      "ارشے": 5465,
      "یعنی": 5466,
      "ژنا": 5467,
      "مناف": 5468,
      "کارمرزی": 5469,
      "کلگ": 5470,
      "ھمنچو": 5471,
      "نندوکیں": 5472,
      "گۆن": 5473,
      "کیر": 5474,
      "شپاں": 5475,
      "col": 5476,
      "ڈکھ": 5477,
      "سسٹم": 5478,
      "بژن": 5479,
      "مارکس": 5480,
      "تکان": 5481,
      "بیتاں": 5482,
      "ھپتاد": 5483,
      "اختر": 5484,
      "دستا": 5485,
      "تعلیم": 5486,
      "ہیال": 5487,
      "بجٹ": 5488,
      "انگو": 5489,
      "السی": 5490,
      "دیمترا": 5491,
      "بھرے": 5492,
      "زوراک": 5493,
      "کوچگ": 5494,
      "ڈین": 5495,
      "ose": 5496,
      "روشن": 5497,
      "ویران": 5498,
      "En": 5499,
      "دلبند": 5500,
      "گپتگیں": 5501,
      "مکہ": 5502,
      "ind": 5503,
      "کامیاب": 5504,
      "during": 5505,
      "ستر": 5506,
      "بیتہ": 5507,
      "اسان": 5508,
      "day": 5509,
      "عجب": 5510,
      "حاصیں": 5511,
      "پیری": 5512,
      "اھر": 5513,
      "ینتگ": 5514,
      "مسل": 5515,
      "دمب": 5516,
      "گوستان": 5517,
      "بائد": 5518,
      "kn": 5519,
      "نجو": 5520,
      "انٹ": 5521,
      "گیڈ": 5522,
      "پێ": 5523,
      "راجمانی": 5524,
      "ret": 5525,
      "جتگیں": 5526,
      "مئیل": 5527,
      "درہ": 5528,
      "زالبولے": 5529,
      "مھمان": 5530,
      "game": 5531,
      "افری": 5532,
      "عظم": 5533,
      "صی": 5534,
      "الح": 5535,
      "جنینے": 5536,
      "ساہگ": 5537,
      "مبارکی": 5538,
      "ادو": 5539,
      "رحمان": 5540,
      "خد": 5541,
      "اڑے": 5542,
      "اسٹوڈنٹ": 5543,
      "Re": 5544,
      "نیکیں": 5545,
      "چینچو": 5546,
      "son": 5547,
      "محمود": 5548,
      "کائ": 5549,
      "پیغ": 5550,
      "کپتاں": 5551,
      "پشتءَ": 5552,
      "ڈکال": 5553,
      "درکپت": 5554,
      "ered": 5555,
      "پنچمی": 5556,
      "گوازینت": 5557,
      "براھو": 5558,
      "مواد": 5559,
      "چوٹ": 5560,
      "ilm": 5561,
      "مولوی": 5562,
      "زیبائیں": 5563,
      "شعور": 5564,
      "ھبرے": 5565,
      "اماں": 5566,
      "بوھیر": 5567,
      "شوربندی": 5568,
      "قط": 5569,
      "راہی": 5570,
      "ھکم": 5571,
      "پناہ": 5572,
      "اهاں": 5573,
      "اندری": 5574,
      "ہوئی": 5575,
      "لیم": 5576,
      "پرستی": 5577,
      "وکیٹ": 5578,
      "انداز": 5579,
      "پروگرام": 5580,
      "ایوکا": 5581,
      "ماتیں": 5582,
      "کرز": 5583,
      "عابد": 5584,
      "ھنی": 5585,
      "اشکتگ": 5586,
      "لندن": 5587,
      "سرباز": 5588,
      "ward": 5589,
      "سرحال": 5590,
      "روتاک": 5591,
      "een": 5592,
      "ڈیل": 5593,
      "راجدپتری": 5594,
      "گنت": 5595,
      "اتار": 5596,
      "ادمین": 5597,
      "gen": 5598,
      "ذری": 5599,
      "گہگیری": 5600,
      "رہا": 5601,
      "جنوک": 5602,
      "جنس": 5603,
      "بنزہ": 5604,
      "بوؤ": 5605,
      "گوراں": 5606,
      "اشنا": 5607,
      "کرتنت": 5608,
      "ادمی": 5609,
      "ارواح": 5610,
      "نکنت": 5611,
      "دیراں": 5612,
      "صیل": 5613,
      "صابر": 5614,
      "تلو": 5615,
      "زیات": 5616,
      "مروچاں": 5617,
      "اناگہ": 5618,
      "ھمبل": 5619,
      "نازک": 5620,
      "ru": 5621,
      "تف": 5622,
      "پین": 5623,
      "can": 5624,
      "مانگ": 5625,
      "پیگ": 5626,
      "ہمرائی": 5627,
      "واه": 5628,
      "شاعرانی": 5629,
      "ھاران": 5630,
      "ندار": 5631,
      "کارا": 5632,
      "شپءَ": 5633,
      "علیہ": 5634,
      "خاران": 5635,
      "وع": 5636,
      "دورءَ": 5637,
      "تپاکی": 5638,
      "بجلی": 5639,
      "سعودی": 5640,
      "عطاشاد": 5641,
      "ہیل": 5642,
      "پدردی": 5643,
      "ھائی": 5644,
      "بندوکیں": 5645,
      "سوبی": 5646,
      "زہیر": 5647,
      "ازار": 5648,
      "ollow": 5649,
      "ٹپاس": 5650,
      "لہڑ": 5651,
      "گہرام": 5652,
      "پیرا": 5653,
      "جنگے": 5654,
      "مھروان": 5655,
      "حاکم": 5656,
      "مسافر": 5657,
      "روح": 5658,
      "واہند": 5659,
      "زھی": 5660,
      "پات": 5661,
      "پشک": 5662,
      "وجہ": 5663,
      "ناکہ": 5664,
      "outh": 5665,
      "صرف": 5666,
      "فرد": 5667,
      "ورنائی": 5668,
      "ide": 5669,
      "شعرءِ": 5670,
      "about": 5671,
      "نزوریں": 5672,
      "چیرا": 5673,
      "پیوٹر": 5674,
      "باتی": 5675,
      "نیز": 5676,
      "مسئ": 5677,
      "گاری": 5678,
      "کہنیں": 5679,
      "میزان": 5680,
      "دلیل": 5681,
      "دئینت": 5682,
      "علام": 5683,
      "ٹمنٹ": 5684,
      "علاق": 5685,
      "زھگانی": 5686,
      "ضلع": 5687,
      "ھشکیں": 5688,
      "لوٹائی": 5689,
      "ھؤ": 5690,
      "بندیت": 5691,
      "انسانے": 5692,
      "ts": 5693,
      "صوب": 5694,
      "پریں": 5695,
      "قبول": 5696,
      "ھالی": 5697,
      "بدے": 5698,
      "چونائی": 5699,
      "سرانی": 5700,
      "تہہ": 5701,
      "خالق": 5702,
      "season": 5703,
      "کسءَ": 5704,
      "کڈ": 5705,
      "احوال": 5706,
      "کارمندانی": 5707,
      "دھکان": 5708,
      "کنی": 5709,
      "than": 5710,
      "ناکی": 5711,
      "حقانی": 5712,
      "حات": 5713,
      "ٹران": 5714,
      "nor": 5715,
      "وانندہ": 5716,
      "ترام": 5717,
      "وزن": 5718,
      "گژن": 5719,
      "نزان": 5720,
      "ہمدا": 5721,
      "ایرانءِ": 5722,
      "جہاں": 5723,
      "طرف": 5724,
      "امار": 5725,
      "جیڑھانی": 5726,
      "ten": 5727,
      "دران": 5728,
      "لیاری": 5729,
      "حلک": 5730,
      "جوش": 5731,
      "نظریہ": 5732,
      "درگ": 5733,
      "lar": 5734,
      "oy": 5735,
      "اعت": 5736,
      "پرواہ": 5737,
      "ڈگارانی": 5738,
      "نجی": 5739,
      "جنگانی": 5740,
      "میگ": 5741,
      "گندیں": 5742,
      "موتک": 5743,
      "صلی": 5744,
      "دوار": 5745,
      "اہوالکار": 5746,
      "صبور": 5747,
      "توپان": 5748,
      "تیاری": 5749,
      "چھو": 5750,
      "بنیات": 5751,
      "لاہور": 5752,
      "الدین": 5753,
      "بزور": 5754,
      "حان": 5755,
      "شئر": 5756,
      "لر": 5757,
      "اسک": 5758,
      "گرما": 5759,
      "some": 5760,
      "ern": 5761,
      "ڈرائیور": 5762,
      "مجھ": 5763,
      "char": 5764,
      "جستے": 5765,
      "جسٹ": 5766,
      "writ": 5767,
      "شکاری": 5768,
      "وابانی": 5769,
      "دف": 5770,
      "رجینگ": 5771,
      "sy": 5772,
      "روا": 5773,
      "شانگ": 5774,
      "کمپیوٹر": 5775,
      "زانتکاری": 5776,
      "چاگردءِ": 5777,
      "طبی": 5778,
      "ابن": 5779,
      "پلگار": 5780,
      "رشید": 5781,
      "بوئیگ": 5782,
      "روگی": 5783,
      "عظیم": 5784,
      "بزدار": 5785,
      "یوکرین": 5786,
      "بیغ": 5787,
      "ائش": 5788,
      "while": 5789,
      "وتئی": 5790,
      "مسی": 5791,
      "اقبال": 5792,
      "again": 5793,
      "چاچ": 5794,
      "معام": 5795,
      "عیسیٰ": 5796,
      "انج": 5797,
      "چاگردے": 5798,
      "وامی": 5799,
      "تبک": 5800,
      "روچءِ": 5801,
      "تپاوت": 5802,
      "بنیادی": 5803,
      "لعل": 5804,
      "ساڑ": 5805,
      "رازی": 5806,
      "سرد": 5807,
      "روانیں": 5808,
      "دنیاءَ": 5809,
      "three": 5810,
      "stru": 5811,
      "عاق": 5812,
      "پیپل": 5813,
      "سہرا": 5814,
      "نتی": 5815,
      "اھان": 5816,
      "ational": 5817,
      "سیکورٹی": 5818,
      "عدالت": 5819,
      "Com": 5820,
      "On": 5821,
      "دورءِ": 5822,
      "خالد": 5823,
      "نث": 5824,
      "ریس": 5825,
      "بزانکہ": 5826,
      "فیظ": 5827,
      "ular": 5828,
      "بامرد": 5829,
      "شانک": 5830,
      "ty": 5831,
      "پشی": 5832,
      "تهنا": 5833,
      "لچ": 5834,
      "ماھل": 5835,
      "جنگءَ": 5836,
      "جاگہہ": 5837,
      "جنجالانی": 5838,
      "پرشتگیں": 5839,
      "شروع": 5840,
      "ابدل": 5841,
      "توپک": 5842,
      "so": 5843,
      "الع": 5844,
      "رندگیری": 5845,
      "اندو": 5846,
      "کوھی": 5847,
      "مجبور": 5848,
      "سائٹی": 5849,
      "اپو": 5850,
      "اہگ": 5851,
      "دوئ": 5852,
      "پشتی": 5853,
      "اسٹوڈنٹس": 5854,
      "افت": 5855,
      "متاثر": 5856,
      "دراتکگ": 5857,
      "وانگءَ": 5858,
      "گریت": 5859,
      "دربرگ": 5860,
      "هیگ": 5861,
      "گونڈو": 5862,
      "کربان": 5863,
      "ful": 5864,
      "ھسپتال": 5865,
      "وتکشی": 5866,
      "تہاریں": 5867,
      "جمالی": 5868,
      "حفیظ": 5869,
      "کاٹ": 5870,
      "دابے": 5871,
      "بانور": 5872,
      "تند": 5873,
      "ھنگ": 5874,
      "واریں": 5875,
      "Wh": 5876,
      "بچکن": 5877,
      "رگام": 5878,
      "عیل": 5879,
      "ارتگ": 5880,
      "سوسائٹی": 5881,
      "tween": 5882,
      "ذا": 5883,
      "یز": 5884,
      "بالا": 5885,
      "درگیجگ": 5886,
      "گشان": 5887,
      "between": 5888,
      "قبضہ": 5889,
      "واکداراں": 5890,
      "بزنجو": 5891,
      "نیاما": 5892,
      "نوکری": 5893,
      "همرا": 5894,
      "میانی": 5895,
      "جنکانی": 5896,
      "num": 5897,
      "ممت": 5898,
      "اینڈ": 5899,
      "کرسی": 5900,
      "اولس": 5901,
      "صوبائی": 5902,
      "جستانی": 5903,
      "حالی": 5904,
      "پہر": 5905,
      "تءِ": 5906,
      "وابے": 5907,
      "ایوکی": 5908,
      "دائمی": 5909,
      "produ": 5910,
      "کستریں": 5911,
      "سلیمان": 5912,
      "دک": 5913,
      "نوکین": 5914,
      "شاعراں": 5915,
      "record": 5916,
      "حنی": 5917,
      "عباس": 5918,
      "گشتانک": 5919,
      "حط": 5920,
      "قبائ": 5921,
      "انکار": 5922,
      "زالبولاں": 5923,
      "رخ": 5924,
      "ron": 5925,
      "بھار": 5926,
      "اوتاک": 5927,
      "سمو": 5928,
      "شیک": 5929,
      "سوئی": 5930,
      "گلزار": 5931,
      "زانش": 5932,
      "دوچار": 5933,
      "زاہر": 5934,
      "ماری": 5935,
      "through": 5936,
      "جلال": 5937,
      "As": 5938,
      "رزا": 5939,
      "لالا": 5940,
      "ونا": 5941,
      "گوشدار": 5942,
      "جہانی": 5943,
      "اتح": 5944,
      "یکین": 5945,
      "اداں": 5946,
      "وارث": 5947,
      "میا": 5948,
      "ہمائی": 5949,
      "دمگانی": 5950,
      "ومنٹ": 5951,
      "احساس": 5952,
      "وباری": 5953,
      "ted": 5954,
      "سبا": 5955,
      "لذ": 5956,
      "نگءِ": 5957,
      "ating": 5958,
      "where": 5959,
      "ابدال": 5960,
      "یونانی": 5961,
      "پلیں": 5962,
      "ہک": 5963,
      "الاج": 5964,
      "سارتی": 5965,
      "سرءُ": 5966,
      "سنج": 5967,
      "فلسفی": 5968,
      "معاملہ": 5969,
      "تالبان": 5970,
      "بادینی": 5971,
      "زراں": 5972,
      "نگاہ": 5973,
      "لبزانکءِ": 5974,
      "ied": 5975,
      "بهر": 5976,
      "بہادر": 5977,
      "گنوکی": 5978,
      "کہا": 5979,
      "دلمراد": 5980,
      "گپءُ": 5981,
      "باسکانی": 5982,
      "راکٹ": 5983,
      "درسد": 5984,
      "کرتیں": 5985,
      "درانگازی": 5986,
      "زبھر": 5987,
      "اوہ": 5988,
      "کامری": 5989,
      "پرچیکہ": 5990,
      "نودربرے": 5991,
      "سرءِ": 5992,
      "سود": 5993,
      "دؤ": 5994,
      "رودراتکی": 5995,
      "زبہر": 5996,
      "پہلو": 5997,
      "حدی": 5998,
      "رۆ": 5999,
      "دیدار": 6000,
      "later": 6001,
      "بلند": 6002,
      "اون": 6003,
      "ابرمی": 6004,
      "rele": 6005,
      "پیپلز": 6006,
      "تمن": 6007,
      "جاوید": 6008,
      "انقل": 6009,
      "ہیر": 6010,
      "ھیالانی": 6011,
      "شاگ": 6012,
      "ترجمہ": 6013,
      "چول": 6014,
      "گۆں": 6015,
      "اھمد": 6016,
      "ستہ": 6017,
      "کائے": 6018,
      "مقام": 6019,
      "spec": 6020,
      "اوشتگ": 6021,
      "بیرک": 6022,
      "view": 6023,
      "زورگیریں": 6024,
      "الیکشن": 6025,
      "توسیپ": 6026,
      "بیتءُ": 6027,
      "ہمودا": 6028,
      "بانزل": 6029,
      "جزبگ": 6030,
      "کامریڈ": 6031,
      "پچیں": 6032,
      "ھمل": 6033,
      "ames": 6034,
      "لفظ": 6035,
      "نادر": 6036,
      "برداشت": 6037,
      "film": 6038,
      "ہنر": 6039,
      "درکانودی": 6040,
      "اشکت": 6041,
      "اختیار": 6042,
      "چمشانکے": 6043,
      "ton": 6044,
      "ازمانکے": 6045,
      "تنقید": 6046,
      "دلانی": 6047,
      "ممتاز": 6048,
      "cons": 6049,
      "چپی": 6050,
      "انسانءِ": 6051,
      "رمض": 6052,
      "ele": 6053,
      "مریت": 6054,
      "شھیدانی": 6055,
      "فیض": 6056,
      "دھمی": 6057,
      "گوزیت": 6058,
      "کارکن": 6059,
      "ھمودا": 6060,
      "تنا": 6061,
      "واز": 6062,
      "کھولانی": 6063,
      "برپ": 6064,
      "زمانگءَ": 6065,
      "زبانی": 6066,
      "ناو": 6067,
      "درچکے": 6068,
      "rel": 6069,
      "انقلاب": 6070,
      "کیو": 6071,
      "وانوکاں": 6072,
      "ef": 6073,
      "ماح": 6074,
      "چارگءَ": 6075,
      "پاکستانءِ": 6076,
      "اجز": 6077,
      "ck": 6078,
      "چمان": 6079,
      "عاشق": 6080,
      "ٹیکل": 6081,
      "ust": 6082,
      "رمگ": 6083,
      "Af": 6084,
      "خواہ": 6085,
      "ضروری": 6086,
      "ھین": 6087,
      "سیکر": 6088,
      "استار": 6089,
      "لانکی": 6090,
      "ished": 6091,
      "شود": 6092,
      "رپک": 6093,
      "گوھر": 6094,
      "پرز": 6095,
      "عارف": 6096,
      "جاورھال": 6097,
      "ہندو": 6098,
      "جور": 6099,
      "گرند": 6100,
      "کشاں": 6101,
      "حملہ": 6102,
      "بیث": 6103,
      "درکپ": 6104,
      "کاروباری": 6105,
      "ڈیٹا": 6106,
      "شاپ": 6107,
      "ھاؤ": 6108,
      "کہن": 6109,
      "نیمگاں": 6110,
      "نزر": 6111,
      "پاہ": 6112,
      "کشکے": 6113,
      "موں": 6114,
      "set": 6115,
      "لوگی": 6116,
      "made": 6117,
      "طری": 6118,
      "نمو": 6119,
      "دستانی": 6120,
      "مظ": 6121,
      "شگان": 6122,
      "روم": 6123,
      "پرست": 6124,
      "جمعہ": 6125,
      "بیھار": 6126,
      "مشر": 6127,
      "اتکاں": 6128,
      "شیا": 6129,
      "قبائلی": 6130,
      "Le": 6131,
      "سراوان": 6132,
      "لوگءِ": 6133,
      "مارشتانی": 6134,
      "sub": 6135,
      "والے": 6136,
      "اشتاپ": 6137,
      "قس": 6138,
      "مپت": 6139,
      "میم": 6140,
      "بادشاه": 6141,
      "بیور": 6142,
      "شپانک": 6143,
      "ury": 6144,
      "ہوتی": 6145,
      "جاک": 6146,
      "گماں": 6147,
      "پروشت": 6148,
      "مارشتاں": 6149,
      "نیمون": 6150,
      "میتگے": 6151,
      "تژن": 6152,
      "هن": 6153,
      "سرشون": 6154,
      "فیق": 6155,
      "ھاکم": 6156,
      "رہی": 6157,
      "پیروک": 6158,
      "چیف": 6159,
      "وہداں": 6160,
      "مشہور": 6161,
      "ترینت": 6162,
      "my": 6163,
      "ایٹ": 6164,
      "New": 6165,
      "وپ": 6166,
      "وپتگ": 6167,
      "نڈر": 6168,
      "درکار": 6169,
      "چوپ": 6170,
      "then": 6171,
      "وھیں": 6172,
      "بخت": 6173,
      "واکدارانی": 6174,
      "وثی": 6175,
      "صاد": 6176,
      "الکاپ": 6177,
      "دودا": 6178,
      "گرے": 6179,
      "ێا": 6180,
      "led": 6181,
      "راجاں": 6182,
      "قین": 6183,
      "چور": 6184,
      "ارسطو": 6185,
      "ادیم": 6186,
      "سمین": 6187,
      "نبشته": 6188,
      "شوانگ": 6189,
      "جانسلامتی": 6190,
      "دابیں": 6191,
      "بوج": 6192,
      "دلا": 6193,
      "do": 6194,
      "طالبان": 6195,
      "پجاری": 6196,
      "ریزگ": 6197,
      "ایشیا": 6198,
      "شئ": 6199,
      "کرتا": 6200,
      "سیاہیں": 6201,
      "ڈالر": 6202,
      "حیات": 6203,
      "بیبگر": 6204,
      "یعنے": 6205,
      "حمزہ": 6206,
      "کوپگاں": 6207,
      "aid": 6208,
      "بلوچستانءَ": 6209,
      "اسماعیل": 6210,
      "موومنٹ": 6211,
      "جمیل": 6212,
      "زبیر": 6213,
      "برجاہیں": 6214,
      "بھت": 6215,
      "پھک": 6216,
      "قابل": 6217,
      "ناشرکاری": 6218,
      "قسم": 6219,
      "مٹی": 6220,
      "روکیں": 6221,
      "ساں": 6222,
      "پریم": 6223,
      "ماد": 6224,
      "زندگانی": 6225,
      "وداں": 6226,
      "گارڈ": 6227,
      "جرمنی": 6228,
      "کساسے": 6229,
      "مزاحمت": 6230,
      "ہچبر": 6231,
      "نماسگ": 6232,
      "شلی": 6233,
      "هزار": 6234,
      "پولکاری": 6235,
      "یورپی": 6236,
      "meric": 6237,
      "نع": 6238,
      "اتوں": 6239,
      "درانگاز": 6240,
      "Americ": 6241,
      "ببنت": 6242,
      "فتح": 6243,
      "کتنت": 6244,
      "الما": 6245,
      "دنیگا": 6246,
      "درامدیں": 6247,
      "اماچیں": 6248,
      "لگتمالی": 6249,
      "bum": 6250,
      "دارو": 6251,
      "اوتاگ": 6252,
      "ock": 6253,
      "اعظم": 6254,
      "ریپ": 6255,
      "قبل": 6256,
      "ins": 6257,
      "ورنایاں": 6258,
      "عرا": 6259,
      "رود": 6260,
      "ھیالاں": 6261,
      "تصور": 6262,
      "sel": 6263,
      "رژنائی": 6264,
      "دبئی": 6265,
      "کون": 6266,
      "تھاری": 6267,
      "حت": 6268,
      "ٹوک": 6269,
      "پڑا": 6270,
      "ھنداں": 6271,
      "گوانکو": 6272,
      "ma": 6273,
      "دستگیر": 6274,
      "رھم": 6275,
      "بیدار": 6276,
      "منے": 6277,
      "صدیق": 6278,
      "سئ": 6279,
      "ملام": 6280,
      "دنتان": 6281,
      "کشمیر": 6282,
      "گوشیں": 6283,
      "سیکرٹری": 6284,
      "رۆچ": 6285,
      "اشارہ": 6286,
      "دال": 6287,
      "واھشت": 6288,
      "افظ": 6289,
      "کوم": 6290,
      "سنگتی": 6291,
      "appe": 6292,
      "سیمسراں": 6293,
      "پلاٹ": 6294,
      "میراث": 6295,
      "sing": 6296,
      "اسو": 6297,
      "پروم": 6298,
      "مارکیٹ": 6299,
      "گریو": 6300,
      "وئیلاں": 6301,
      "روگءَ": 6302,
      "تیلانک": 6303,
      "استعمال": 6304,
      "خض": 6305,
      "خون": 6306,
      "فرانسی": 6307,
      "مقابلہ": 6308,
      "نبشتانکے": 6309,
      "عتی": 6310,
      "درواز": 6311,
      "ters": 6312,
      "چندیں": 6313,
      "مکر": 6314,
      "اہرہ": 6315,
      "ترسن": 6316,
      "سواریں": 6317,
      "اشکر": 6318,
      "go": 6319,
      "براھوئی": 6320,
      "Jo": 6321,
      "follow": 6322,
      "چگ": 6323,
      "چھر": 6324,
      "ھڈ": 6325,
      "بیتیں": 6326,
      "high": 6327,
      "نکان": 6328,
      "ایکشن": 6329,
      "واد": 6330,
      "روای": 6331,
      "پداں": 6332,
      "دیریں": 6333,
      "راجءِ": 6334,
      "کابل": 6335,
      "خلیل": 6336,
      "داتہ": 6337,
      "گڑاں": 6338,
      "سوگات": 6339,
      "ھلاسی": 6340,
      "شہم": 6341,
      "واجھ": 6342,
      "ٹیبل": 6343,
      "ہژ": 6344,
      "چکیں": 6345,
      "دئیں": 6346,
      "second": 6347,
      "بلۆ": 6348,
      "دربار": 6349,
      "زاں": 6350,
      "such": 6351,
      "کوھن": 6352,
      "rop": 6353,
      "زھگاں": 6354,
      "جاپ": 6355,
      "تکاں": 6356,
      "نادرا": 6357,
      "ving": 6358,
      "ٹہی": 6359,
      "چاگردءَ": 6360,
      "گمانی": 6361,
      "گزار": 6362,
      "four": 6363,
      "کمہ": 6364,
      "ملور": 6365,
      "ari": 6366,
      "یاگی": 6367,
      "cap": 6368,
      "بکر": 6369,
      "اسٹری": 6370,
      "ینک": 6371,
      "دردے": 6372,
      "مسئلہ": 6373,
      "مدان": 6374,
      "انچوشکہ": 6375,
      "ارٹ": 6376,
      "تاکاں": 6377,
      "عال": 6378,
      "کبز": 6379,
      "دراھی": 6380,
      "دیار": 6381,
      "رمضان": 6382,
      "توری": 6383,
      "ڈیم": 6384,
      "تھت": 6385,
      "پلے": 6386,
      "عذاب": 6387,
      "publ": 6388,
      "میرے": 6389,
      "اصف": 6390,
      "بحث": 6391,
      "راس": 6392,
      "حیالانی": 6393,
      "پما": 6394,
      "تگی": 6395,
      "سببءَ": 6396,
      "ناگمان": 6397,
      "تعالی": 6398,
      "لیڈر": 6399,
      "تکگیں": 6400,
      "ہمگرنچ": 6401,
      "گوشتی": 6402,
      "زاہد": 6403,
      "je": 6404,
      "زاتی": 6405,
      "الا": 6406,
      "ازباب": 6407,
      "براتاں": 6408,
      "مانداشتگ": 6409,
      "ائن": 6410,
      "فارم": 6411,
      "زلورت": 6412,
      "مسال": 6413,
      "کیسگ": 6414,
      "بنگلہ": 6415,
      "چیردستی": 6416,
      "نوشت": 6417,
      "پابندی": 6418,
      "خضدار": 6419,
      "اوداں": 6420,
      "هاں": 6421,
      "وداری": 6422,
      "جیت": 6423,
      "دستے": 6424,
      "med": 6425,
      "تاپ": 6426,
      "ics": 6427,
      "بغ": 6428,
      "کوت": 6429,
      "ابدمان": 6430,
      "براتانی": 6431,
      "well": 6432,
      "ڈے": 6433,
      "ماھے": 6434,
      "دیدگاں": 6435,
      "نثار": 6436,
      "اێ": 6437,
      "دیمونی": 6438,
      "تلار": 6439,
      "ارساں": 6440,
      "ٹوھیں": 6441,
      "ارادہ": 6442,
      "شانزدہ": 6443,
      "زوری": 6444,
      "پئیم": 6445,
      "ہمراہی": 6446,
      "حوالہ": 6447,
      "اتانی": 6448,
      "گوستانک": 6449,
      "کارمندے": 6450,
      "اذ": 6451,
      "زھم": 6452,
      "نیمروچ": 6453,
      "بندین": 6454,
      "پرسی": 6455,
      "پیداگ": 6456,
      "back": 6457,
      "iel": 6458,
      "دیگی": 6459,
      "بہتام": 6460,
      "At": 6461,
      "mus": 6462,
      "رکیں": 6463,
      "دگیں": 6464,
      "گرک": 6465,
      "De": 6466,
      "وزی": 6467,
      "رئ": 6468,
      "مێ": 6469,
      "چئیر": 6470,
      "زانیں": 6471,
      "ily": 6472,
      "گلو": 6473,
      "زمانگے": 6474,
      "روژنائی": 6475,
      "This": 6476,
      "جاتی": 6477,
      "مردمءَ": 6478,
      "ماھکان": 6479,
      "کارستانی": 6480,
      "افسر": 6481,
      "انڈیا": 6482,
      "سورت": 6483,
      "شاز": 6484,
      "واھگانی": 6485,
      "زمینی": 6486,
      "ual": 6487,
      "باش": 6488,
      "ific": 6489,
      "اظ": 6490,
      "کھن": 6491,
      "ہمین": 6492,
      "بیانیہ": 6493,
      "مہرانی": 6494,
      "سواری": 6495,
      "ھت": 6496,
      "زندانی": 6497,
      "تسل": 6498,
      "برج": 6499,
      "درخواست": 6500,
      "call": 6501,
      "ابراھی": 6502,
      "مردءَ": 6503,
      "رجانکاری": 6504,
      "هیں": 6505,
      "پہن": 6506,
      "غا": 6507,
      "پروشتگ": 6508,
      "ven": 6509,
      "زمانہ": 6510,
      "ہمیشی": 6511,
      "کتءُ": 6512,
      "گروک": 6513,
      "ائیئ": 6514,
      "بباں": 6515,
      "رکین": 6516,
      "کنائینتگ": 6517,
      "درمیان": 6518,
      "دلگوشی": 6519,
      "روچگ": 6520,
      "دردانی": 6521,
      "رات": 6522,
      "جھدکار": 6523,
      "رھبندانی": 6524,
      "خوف": 6525,
      "رئو": 6526,
      "جیہند": 6527,
      "ملامت": 6528,
      "شاہی": 6529,
      "album": 6530,
      "بگندے": 6531,
      "لیبی": 6532,
      "لنج": 6533,
      "شیپ": 6534,
      "بلیو": 6535,
      "روئے": 6536,
      "ٹانی": 6537,
      "درجہ": 6538,
      "کبرستان": 6539,
      "mi": 6540,
      "بلا": 6541,
      "حراب": 6542,
      "ابراھیم": 6543,
      "درج": 6544,
      "سالونک": 6545,
      "ملکءِ": 6546,
      "زیل": 6547,
      "before": 6548,
      "ناھ": 6549,
      "گي": 6550,
      "شادی": 6551,
      "مطاب": 6552,
      "ارگنائ": 6553,
      "ھدی": 6554,
      "کلچر": 6555,
      "جاھانی": 6556,
      "خوش": 6557,
      "عبدالحمید": 6558,
      "دمے": 6559,
      "شاکر": 6560,
      "cri": 6561,
      "اہمد": 6562,
      "گیرت": 6563,
      "جہاندپتر": 6564,
      "برطانیہ": 6565,
      "cur": 6566,
      "ھزارانی": 6567,
      "fer": 6568,
      "رستگیں": 6569,
      "ڈنءَ": 6570,
      "هانی": 6571,
      "پتو": 6572,
      "کنڈی": 6573,
      "کیف": 6574,
      "گورنر": 6575,
      "hel": 6576,
      "بچاں": 6577,
      "مھتل": 6578,
      "راھشون": 6579,
      "پسندی": 6580,
      "یاتانی": 6581,
      "دوریں": 6582,
      "تلف": 6583,
      "گنجیں": 6584,
      "ڈوک": 6585,
      "ars": 6586,
      "urch": 6587,
      "ھمرائی": 6588,
      "باھو": 6589,
      "ارزانی": 6590,
      "تاہ": 6591,
      "خیں": 6592,
      "اؤن": 6593,
      "sup": 6594,
      "لاگ": 6595,
      "تاکے": 6596,
      "ہواری": 6597,
      "امارات": 6598,
      "میاری": 6599,
      "ماھیگ": 6600,
      "found": 6601,
      "جری": 6602,
      "ارو": 6603,
      "صادق": 6604,
      "Eng": 6605,
      "سستگ": 6606,
      "being": 6607,
      "فاظ": 6608,
      "No": 6609,
      "کٹی": 6610,
      "سنٹ": 6611,
      "اۆ": 6612,
      "صبر": 6613,
      "قرا": 6614,
      "ہلک": 6615,
      "مردمءِ": 6616,
      "گلائی": 6617,
      "ھژدہ": 6618,
      "کمکار": 6619,
      "جنگءِ": 6620,
      "چیرءَ": 6621,
      "رنداں": 6622,
      "امیری": 6623,
      "ھژدری": 6624,
      "کوشش": 6625,
      "ub": 6626,
      "جرمن": 6627,
      "گھر": 6628,
      "هل": 6629,
      "ہاک": 6630,
      "there": 6631,
      "فاروق": 6632,
      "بولی": 6633,
      "حکام": 6634,
      "ستار": 6635,
      "اہا": 6636,
      "بشکھند": 6637,
      "years": 6638,
      "دلیں": 6639,
      "ative": 6640,
      "اموش": 6641,
      "راگ": 6642,
      "درکپتگ": 6643,
      "کردی": 6644,
      "کروڑ": 6645,
      "داشتگیں": 6646,
      "ہونے": 6647,
      "sur": 6648,
      "ھرو": 6649,
      "کرے": 6650,
      "پید": 6651,
      "گواچنی": 6652,
      "پگری": 6653,
      "مہکم": 6654,
      "زھگے": 6655,
      "ھاموش": 6656,
      "برٹ": 6657,
      "arri": 6658,
      "راستے": 6659,
      "سمائی": 6660,
      "جسٹس": 6661,
      "نهانت": 6662,
      "اشتاپی": 6663,
      "عق": 6664,
      "عباد": 6665,
      "inn": 6666,
      "کلمتی": 6667,
      "معن": 6668,
      "ڈولدار": 6669,
      "رئیس": 6670,
      "شازادگ": 6671,
      "par": 6672,
      "ale": 6673,
      "غنت": 6674,
      "owever": 6675,
      "یہاں": 6676,
      "جیڑہانی": 6677,
      "مختلف": 6678,
      "کرتہ": 6679,
      "ٹیگ": 6680,
      "use": 6681,
      "جدید": 6682,
      "مردیں": 6683,
      "شاعریءِ": 6684,
      "جنینانی": 6685,
      "رپتگ": 6686,
      "دیوک": 6687,
      "باھوٹ": 6688,
      "غالب": 6689,
      "نفر": 6690,
      "نگا": 6691,
      "گواجہ": 6692,
      "ٹارگ": 6693,
      "کونڈ": 6694,
      "شرکت": 6695,
      "اییئے": 6696,
      "کوار": 6697,
      "کمار": 6698,
      "زوراکیں": 6699,
      "رحمت": 6700,
      "قربانی": 6701,
      "پشو": 6702,
      "ئین": 6703,
      "توجیل": 6704,
      "تیزی": 6705,
      "مجگ": 6706,
      "پارلیمنٹ": 6707,
      "بوچ": 6708,
      "نوکتریں": 6709,
      "حبرے": 6710,
      "الگ": 6711,
      "ane": 6712,
      "پلان": 6713,
      "ساو": 6714,
      "وات": 6715,
      "پجی": 6716,
      "منانک": 6717,
      "ھمگرن": 6718,
      "کاپی": 6719,
      "پیشدارگ": 6720,
      "نگیگ": 6721,
      "ہنچیں": 6722,
      "بژ": 6723,
      "انار": 6724,
      "درستانی": 6725,
      "بحرین": 6726,
      "شھم": 6727,
      "درپش": 6728,
      "مجھے": 6729,
      "حافظ": 6730,
      "بہشت": 6731,
      "add": 6732,
      "تحقی": 6733,
      "فتار": 6734,
      "many": 6735,
      "حنیف": 6736,
      "کارگشاد": 6737,
      "سوری": 6738,
      "ڈیہی": 6739,
      "کپنت": 6740,
      "ماتے": 6741,
      "known": 6742,
      "side": 6743,
      "تخلیق": 6744,
      "اییا": 6745,
      "جتیں": 6746,
      "منوگر": 6747,
      "ایجن": 6748,
      "سالیں": 6749,
      "ازمانکار": 6750,
      "نبوتگ": 6751,
      "اسانی": 6752,
      "ازمکار": 6753,
      "دس": 6754,
      "بیتگاں": 6755,
      "سالءَ": 6756,
      "ینت": 6757,
      "سیستان": 6758,
      "سانک": 6759,
      "متھ": 6760,
      "ہفت": 6761,
      "جنازہ": 6762,
      "بلوچیءَ": 6763,
      "انسانیت": 6764,
      "مادن": 6765,
      "long": 6766,
      "ذیب": 6767,
      "اسکی": 6768,
      "نھاد": 6769,
      "ٹاں": 6770,
      "یان": 6771,
      "ھیم": 6772,
      "وھدا": 6773,
      "جڑ": 6774,
      "واس": 6775,
      "تحصیل": 6776,
      "ساحرءِ": 6777,
      "جسم": 6778,
      "کڈن": 6779,
      "منتگیں": 6780,
      "وپا": 6781,
      "ہز": 6782,
      "سلطان": 6783,
      "معنی": 6784,
      "تنظ": 6785,
      "گوہر": 6786,
      "دانشور": 6787,
      "منافع": 6788,
      "پاری": 6789,
      "پادا": 6790,
      "کھولاں": 6791,
      "ازاتیں": 6792,
      "اء": 6793,
      "جہاز": 6794,
      "ایردستیں": 6795,
      "مطابق": 6796,
      "پلامرزی": 6797,
      "پرنٹ": 6798,
      "لاط": 6799,
      "like": 6800,
      "کتابی": 6801,
      "سینٹر": 6802,
      "number": 6803,
      "کارچ": 6804,
      "سیزدہ": 6805,
      "ودان": 6806,
      "کڑی": 6807,
      "loc": 6808,
      "ave": 6809,
      "ٹاور": 6810,
      "منشی": 6811,
      "پہل": 6812,
      "مڈیانی": 6813,
      "Nor": 6814,
      "ریکارڈ": 6815,
      "ویر": 6816,
      "حدہ": 6817,
      "فدائی": 6818,
      "ندارہ": 6819,
      "لسبیلہ": 6820,
      "باتن": 6821,
      "xt": 6822,
      "شهر": 6823,
      "هدا": 6824,
      "point": 6825,
      "شاھگ": 6826,
      "ڈان": 6827,
      "تئیی": 6828,
      "ird": 6829,
      "ٹارگٹ": 6830,
      "ٹھی": 6831,
      "ورانی": 6832,
      "کنتءُ": 6833,
      "زوران": 6834,
      "نپر": 6835,
      "ہرد": 6836,
      "ورے": 6837,
      "ities": 6838,
      "پیکر": 6839,
      "اسکانی": 6840,
      "مشک": 6841,
      "ros": 6842,
      "پنجاپ": 6843,
      "series": 6844,
      "مرگے": 6845,
      "اسٹیشن": 6846,
      "velop": 6847,
      "عالمی": 6848,
      "زانتکاریں": 6849,
      "پکا": 6850,
      "سٹری": 6851,
      "پرایمن": 6852,
      "کبل": 6853,
      "ہدا": 6854,
      "وچی": 6855,
      "اسپت": 6856,
      "شپءِ": 6857,
      "تاکانی": 6858,
      "افس": 6859,
      "بجن": 6860,
      "دستان": 6861,
      "تہذیب": 6862,
      "مستری": 6863,
      "دیک": 6864,
      "وردن": 6865,
      "olog": 6866,
      "عوامی": 6867,
      "بکنیں": 6868,
      "ause": 6869,
      "سکا": 6870,
      "لاک": 6871,
      "کلہ": 6872,
      "مرہ": 6873,
      "ساڑا": 6874,
      "بیب": 6875,
      "زیرد": 6876,
      "سلاھاں": 6877,
      "رھشونی": 6878,
      "ہواریں": 6879,
      "reat": 6880,
      "ادیب": 6881,
      "سمندر": 6882,
      "دیش": 6883,
      "دروہ": 6884,
      "رزاق": 6885,
      "mber": 6886,
      "بنگالی": 6887,
      "سرپدیں": 6888,
      "دلو": 6889,
      "سرگ": 6890,
      "لگتمال": 6891,
      "ince": 6892,
      "یانی": 6893,
      "حالت": 6894,
      "لنٹانی": 6895,
      "اخراج": 6896,
      "دلاں": 6897,
      "unt": 6898,
      "قمبر": 6899,
      "جانے": 6900,
      "زرے": 6901,
      "ننداں": 6902,
      "گشندہ": 6903,
      "زوراکیاں": 6904,
      "سڑک": 6905,
      "سروزیر": 6906,
      "پہلے": 6907,
      "جنکو": 6908,
      "کپتہ": 6909,
      "وئیلانی": 6910,
      "فکری": 6911,
      "چال": 6912,
      "cept": 6913,
      "orn": 6914,
      "زاکر": 6915,
      "سمل": 6916,
      "چت": 6917,
      "line": 6918,
      "وخت": 6919,
      "فتگ": 6920,
      "ریڈ": 6921,
      "زوتاں": 6922,
      "گوشے": 6923,
      "گدارے": 6924,
      "لیف": 6925,
      "دوران": 6926,
      "توکلی": 6927,
      "گوریچانی": 6928,
      "لانک": 6929,
      "Con": 6930,
      "ماث": 6931,
      "بندیگیں": 6932,
      "اندازہ": 6933,
      "ڈرون": 6934,
      "ines": 6935,
      "cho": 6936,
      "سماجی": 6937,
      "فورسز": 6938,
      "زگریں": 6939,
      "رینا": 6940,
      "گپءِ": 6941,
      "ٹرک": 6942,
      "both": 6943,
      "جوز": 6944,
      "گالے": 6945,
      "sever": 6946,
      "گێ": 6947,
      "بودی": 6948,
      "اپے": 6949,
      "سلاح": 6950,
      "میتگاں": 6951,
      "استحکام": 6952,
      "eng": 6953,
      "مرگانی": 6954,
      "پھریز": 6955,
      "بلاش": 6956,
      "لاچاری": 6957,
      "حیث": 6958,
      "سیہ": 6959,
      "تون": 6960,
      "عبدالم": 6961,
      "کالونی": 6962,
      "ایمنیں": 6963,
      "ٹکی": 6964,
      "ژند": 6965,
      "تراکے": 6966,
      "فرانسیسی": 6967,
      "شیش": 6968,
      "توبہ": 6969,
      "پڑءَ": 6970,
      "زاھد": 6971,
      "تکانسر": 6972,
      "ھری": 6973,
      "نگے": 6974,
      "گیٹ": 6975,
      "گہتر": 6976,
      "ؤں": 6977,
      "گالی": 6978,
      "چکان": 6979,
      "شرط": 6980,
      "دارایت": 6981,
      "قانود": 6982,
      "چئیرمین": 6983,
      "hn": 6984,
      "خا": 6985,
      "برائی": 6986,
      "تچکی": 6987,
      "هئی": 6988,
      "محنت": 6989,
      "دانش": 6990,
      "صہ": 6991,
      "dire": 6992,
      "سینی": 6993,
      "دارگی": 6994,
      "راہءَ": 6995,
      "pop": 6996,
      "بدلیاں": 6997,
      "سروس": 6998,
      "درے": 6999,
      "طاہرہ": 7000,
      "رداں": 7001,
      "راہبند": 7002,
      "بادی": 7003,
      "فرمان": 7004,
      "اپوزیشن": 7005,
      "سراج": 7006,
      "منیت": 7007,
      "ise": 7008,
      "وراک": 7009,
      "Brit": 7010,
      "ارزی": 7011,
      "نوجوان": 7012,
      "میشن": 7013,
      "ٹرا": 7014,
      "ماش": 7015,
      "ھمت": 7016,
      "افلاط": 7017,
      "لنکک": 7018,
      "عادت": 7019,
      "رکھینگ": 7020,
      "epis": 7021,
      "بیسہ": 7022,
      "سربازی": 7023,
      "نصی": 7024,
      "ments": 7025,
      "including": 7026,
      "ذریعہ": 7027,
      "اولاک": 7028,
      "کماندار": 7029,
      "کھر": 7030,
      "atch": 7031,
      "ائیء": 7032,
      "نازرکیں": 7033,
      "سهیگ": 7034,
      "روبرکت": 7035,
      "گورم": 7036,
      "مالیاتی": 7037,
      "شخصیت": 7038,
      "فراز": 7039,
      "igin": 7040,
      "خلافا": 7041,
      "down": 7042,
      "شف": 7043,
      "ریکی": 7044,
      "اہد": 7045,
      "شودگ": 7046,
      "تص": 7047,
      "قرض": 7048,
      "برورد": 7049,
      "باقی": 7050,
      "ٹیسٹ": 7051,
      "ویت": 7052,
      "اہل": 7053,
      "شوق": 7054,
      "کٹم": 7055,
      "against": 7056,
      "ode": 7057,
      "سھی": 7058,
      "مبیت": 7059,
      "امبر": 7060,
      "ڈالچار": 7061,
      "کارندھاں": 7062,
      "هیال": 7063,
      "هو": 7064,
      "درکیت": 7065,
      "فیک": 7066,
      "ژا": 7067,
      "بیمن": 7068,
      "کنگے": 7069,
      "ہمیں": 7070,
      "became": 7071,
      "قع": 7072,
      "ندات": 7073,
      "بزیں": 7074,
      "کابی": 7075,
      "میرانی": 7076,
      "کاگدے": 7077,
      "Sh": 7078,
      "ھزمت": 7079,
      "uary": 7080,
      "oup": 7081,
      "حاتم": 7082,
      "ایج": 7083,
      "charac": 7084,
      "ندگ": 7085,
      "پریشانی": 7086,
      "واباں": 7087,
      "ردءُ": 7088,
      "کوھاں": 7089,
      "گجر": 7090,
      "لوری": 7091,
      "دوئیناں": 7092,
      "عثمان": 7093,
      "ظہور": 7094,
      "یکوارے": 7095,
      "بلوچءَ": 7096,
      "کمکیں": 7097,
      "تاوانانی": 7098,
      "غل": 7099,
      "وابی": 7100,
      "سدانی": 7101,
      "ندیم": 7102,
      "جع": 7103,
      "سرچ": 7104,
      "مرزا": 7105,
      "بنگیجی": 7106,
      "سببا": 7107,
      "براہوئی": 7108,
      "ھتر": 7109,
      "شکست": 7110,
      "زہری": 7111,
      "ress": 7112,
      "ذہن": 7113,
      "سطح": 7114,
      "دیمرئی": 7115,
      "جات": 7116,
      "اوگام": 7117,
      "راجدوستی": 7118,
      "واقع": 7119,
      "II": 7120,
      "بلائیں": 7121,
      "گریب": 7122,
      "میرو": 7123,
      "فوظ": 7124,
      "شهی": 7125,
      "ساچان": 7126,
      "جسمانی": 7127,
      "چمن": 7128,
      "موسی": 7129,
      "کارندھانی": 7130,
      "دوئینانی": 7131,
      "اظہار": 7132,
      "زون": 7133,
      "ائیت": 7134,
      "تھانہ": 7135,
      "کافکا": 7136,
      "خر": 7137,
      "گولی": 7138,
      "دلپروش": 7139,
      "مزنی": 7140,
      "پشتو": 7141,
      "feat": 7142,
      "ident": 7143,
      "گیشین": 7144,
      "ci": 7145,
      "زنڈیں": 7146,
      "اشتگ": 7147,
      "یونان": 7148,
      "گلائیش": 7149,
      "افلاطون": 7150,
      "اپہ": 7151,
      "ێت": 7152,
      "تیرانی": 7153,
      "ہستی": 7154,
      "اخلاق": 7155,
      "غریب": 7156,
      "تؤ": 7157,
      "گست": 7158,
      "درکنگ": 7159,
      "دیگءَ": 7160,
      "کومتی": 7161,
      "محکم": 7162,
      "شاب": 7163,
      "کمیونسٹ": 7164,
      "لئیب": 7165,
      "cer": 7166,
      "ek": 7167,
      "اوی": 7168,
      "جوڑشت": 7169,
      "مگرب": 7170,
      "کارمستر": 7171,
      "کرم": 7172,
      "بلاشبہ": 7173,
      "ھکومت": 7174,
      "نائب": 7175,
      "دێما": 7176,
      "اگبال": 7177,
      "شعرے": 7178,
      "پرایمنیں": 7179,
      "گرپت": 7180,
      "ڑیت": 7181,
      "پارٹمنٹ": 7182,
      "قدرتی": 7183,
      "دوئمی": 7184,
      "دویں": 7185,
      "یاسر": 7186,
      "ond": 7187,
      "ہوتے": 7188,
      "دزمان": 7189,
      "کرنل": 7190,
      "کرءَ": 7191,
      "جلس": 7192,
      "ھونی": 7193,
      "ابیتک": 7194,
      "tain": 7195,
      "ئس": 7196,
      "تحری": 7197,
      "ھوشاپ": 7198,
      "ield": 7199,
      "ped": 7200,
      "سنگین": 7201,
      "بچکے": 7202,
      "Be": 7203,
      "نمب": 7204,
      "ریٹری": 7205,
      "کپاں": 7206,
      "نگر": 7207,
      "موض": 7208,
      "لاھ": 7209,
      "کسه": 7210,
      "سواس": 7211,
      "descri": 7212,
      "تق": 7213,
      "بلال": 7214,
      "باران": 7215,
      "فیس": 7216,
      "وھدءِ": 7217,
      "توکل": 7218,
      "دعوت": 7219,
      "بیماری": 7220,
      "ڈرامہ": 7221,
      "دھی": 7222,
      "داتنت": 7223,
      "وکین": 7224,
      "شائرے": 7225,
      "زیک": 7226,
      "دگری": 7227,
      "جہلی": 7228,
      "ost": 7229,
      "تھار": 7230,
      "کتابجاہ": 7231,
      "نندیت": 7232,
      "ودگی": 7233,
      "ششمی": 7234,
      "زبر": 7235,
      "جهان": 7236,
      "یعقو": 7237,
      "انہیں": 7238,
      "محکمہ": 7239,
      "سریاب": 7240,
      "سجه": 7241,
      "زانشتی": 7242,
      "محفوظ": 7243,
      "کاپٹر": 7244,
      "appear": 7245,
      "زیکیں": 7246,
      "بیمار": 7247,
      "مانت": 7248,
      "چکا": 7249,
      "لیکگ": 7250,
      "دعوی": 7251,
      "Ro": 7252,
      "cle": 7253,
      "پراں": 7254,
      "ثنا": 7255,
      "ہساب": 7256,
      "راہے": 7257,
      "اصلی": 7258,
      "گاماں": 7259,
      "ژناگ": 7260,
      "United": 7261,
      "وین": 7262,
      "مدینہ": 7263,
      "قیمتانی": 7264,
      "پاچ": 7265,
      "کینی": 7266,
      "گاڈی": 7267,
      "پسگ": 7268,
      "حدیث": 7269,
      "ڈبلیو": 7270,
      "عراق": 7271,
      "اتکہ": 7272,
      "ابے": 7273,
      "حیثیت": 7274,
      "جنگا": 7275,
      "ised": 7276,
      "ذہنی": 7277,
      "چاک": 7278,
      "نگءَ": 7279,
      "زگاری": 7280,
      "بروکیں": 7281,
      "team": 7282,
      "مغربی": 7283,
      "گاڑیاں": 7284,
      "قائم": 7285,
      "چکر": 7286,
      "ڑگ": 7287,
      "ھسین": 7288,
      "وانیت": 7289,
      "سقرا": 7290,
      "دلپدردی": 7291,
      "حیر": 7292,
      "دروریں": 7293,
      "John": 7294,
      "اینکس": 7295,
      "dec": 7296,
      "پیرزال": 7297,
      "گراہ": 7298,
      "منط": 7299,
      "یکرندے": 7300,
      "سائیکل": 7301,
      "نزین": 7302,
      "بوجیگ": 7303,
      "روتگ": 7304,
      "کترینا": 7305,
      "محبو": 7306,
      "باغ": 7307,
      "واکی": 7308,
      "hy": 7309,
      "ures": 7310,
      "بڑی": 7311,
      "کہی": 7312,
      "پرانی": 7313,
      "گروپ": 7314,
      "ایگءَ": 7315,
      "متحدہ": 7316,
      "شہباز": 7317,
      "کنائینت": 7318,
      "حاکمی": 7319,
      "شئیرانی": 7320,
      "اخراجات": 7321,
      "run": 7322,
      "زاه": 7323,
      "پاشک": 7324,
      "ترسے": 7325,
      "ترسینگ": 7326,
      "بستارے": 7327,
      "جنجالاں": 7328,
      "جھمنندیں": 7329,
      "قحط": 7330,
      "ھالے": 7331,
      "تھاریں": 7332,
      "سنجی": 7333,
      "سہریں": 7334,
      "نیتکگ": 7335,
      "پیل": 7336,
      "وسیم": 7337,
      "دۆ": 7338,
      "پگار": 7339,
      "جیونی": 7340,
      "ھالاں": 7341,
      "زانو": 7342,
      "حیدر": 7343,
      "suc": 7344,
      "مسکرا": 7345,
      "اوا": 7346,
      "پٹءُ": 7347,
      "اشیءَ": 7348,
      "حکمت": 7349,
      "ھؤر": 7350,
      "دنیائے": 7351,
      "bed": 7352,
      "زوان": 7353,
      "نبوت": 7354,
      "یکروچے": 7355,
      "انگیر": 7356,
      "بدہ": 7357,
      "اخت": 7358,
      "لوزانک": 7359,
      "جلی": 7360,
      "الرحمن": 7361,
      "سیشن": 7362,
      "ھشتاد": 7363,
      "hist": 7364,
      "توئے": 7365,
      "develop": 7366,
      "peri": 7367,
      "مادی": 7368,
      "عود": 7369,
      "هور": 7370,
      "تھام": 7371,
      "شانتگ": 7372,
      "حمایت": 7373,
      "شکی": 7374,
      "طاق": 7375,
      "یکجا": 7376,
      "چھبار": 7377,
      "سس": 7378,
      "ردان": 7379,
      "نشنل": 7380,
      "درپ": 7381,
      "نوری": 7382,
      "اپسر": 7383,
      "دیوانجاه": 7384,
      "کوہن": 7385,
      "century": 7386,
      "لغ": 7387,
      "ساھتے": 7388,
      "show": 7389,
      "نئیکہ": 7390,
      "After": 7391,
      "lead": 7392,
      "پیگمبر": 7393,
      "mem": 7394,
      "حالانی": 7395,
      "اکرم": 7396,
      "پوک": 7397,
      "ژی": 7398,
      "بیلٹ": 7399,
      "لوگوں": 7400,
      "جنزگ": 7401,
      "سلط": 7402,
      "contin": 7403,
      "جبین": 7404,
      "سازگ": 7405,
      "اتہ": 7406,
      "نگال": 7407,
      "ھموداں": 7408,
      "دروشمءَ": 7409,
      "پارلیمانی": 7410,
      "uch": 7411,
      "ناب": 7412,
      "ھوت": 7413,
      "وڈا": 7414,
      "جاں": 7415,
      "اہان": 7416,
      "اجت": 7417,
      "کءِ": 7418,
      "ہب": 7419,
      "سواد": 7420,
      "trans": 7421,
      "پابند": 7422,
      "ٹڈ": 7423,
      "گھو": 7424,
      "origin": 7425,
      "stor": 7426,
      "سبزل": 7427,
      "پیٹ": 7428,
      "ساچی": 7429,
      "جاگھے": 7430,
      "لنٹاں": 7431,
      "پلگ": 7432,
      "رہادگ": 7433,
      "بع": 7434,
      "کاران": 7435,
      "کافر": 7436,
      "یونٹ": 7437,
      "ڈری": 7438,
      "ماتانی": 7439,
      "چڑھاؤ": 7440,
      "کارکرد": 7441,
      "صحت": 7442,
      "کمکے": 7443,
      "کائنات": 7444,
      "ناس": 7445,
      "شیطان": 7446,
      "بیتگین": 7447,
      "بانل": 7448,
      "ہزاراں": 7449,
      "کبزہ": 7450,
      "تخ": 7451,
      "head": 7452,
      "شالا": 7453,
      "lan": 7454,
      "mill": 7455,
      "pol": 7456,
      "مدر": 7457,
      "هند": 7458,
      "بلبل": 7459,
      "موسمی": 7460,
      "شناسی": 7461,
      "شامل": 7462,
      "نعمت": 7463,
      "عبادت": 7464,
      "گراہکانی": 7465,
      "فک": 7466,
      "برءَ": 7467,
      "ترگ": 7468,
      "مزدور": 7469,
      "تمامیں": 7470,
      "کاک": 7471,
      "ءَرا": 7472,
      "جہہ": 7473,
      "let": 7474,
      "بالگ": 7475,
      "امبازاں": 7476,
      "west": 7477,
      "تگرانی": 7478,
      "ھوناں": 7479,
      "ste": 7480,
      "oper": 7481,
      "ایڈوکیٹ": 7482,
      "dam": 7483,
      "سگار": 7484,
      "برباد": 7485,
      "اشان": 7486,
      "پهک": 7487,
      "پیپلزپارٹی": 7488,
      "راک": 7489,
      "اپءِ": 7490,
      "بھٹو": 7491,
      "دوک": 7492,
      "اتین": 7493,
      "کتابءِ": 7494,
      "توارءَ": 7495,
      "ley": 7496,
      "اخری": 7497,
      "دکی": 7498,
      "سگی": 7499,
      "لولی": 7500,
      "بیگواه": 7501,
      "بھتی": 7502,
      "راھاں": 7503,
      "کێ": 7504,
      "شگر": 7505,
      "دوستاں": 7506,
      "مستاگ": 7507,
      "انٹرنیٹ": 7508,
      "تواراں": 7509,
      "نوروز": 7510,
      "سوشلزم": 7511,
      "sign": 7512,
      "سکن": 7513,
      "وحی": 7514,
      "ھڑ": 7515,
      "دمکاں": 7516,
      "قومانی": 7517,
      "ball": 7518,
      "جدا": 7519,
      "واجھی": 7520,
      "جننت": 7521,
      "سادگیں": 7522,
      "تاگت": 7523,
      "ves": 7524,
      "بلوچیءِ": 7525,
      "road": 7526,
      "قربان": 7527,
      "ارسی": 7528,
      "شپانی": 7529,
      "دزگٹ": 7530,
      "پجارگ": 7531,
      "وداریگ": 7532,
      "سفی": 7533,
      "لانگ": 7534,
      "ہنگ": 7535,
      "ارق": 7536,
      "اپءَ": 7537,
      "البتہ": 7538,
      "همراه": 7539,
      "یعقوب": 7540,
      "ؤل": 7541,
      "حلاپ": 7542,
      "پلیٹ": 7543,
      "شمس": 7544,
      "نبیسی": 7545,
      "کابینہ": 7546,
      "sm": 7547,
      "سوراب": 7548,
      "بریری": 7549,
      "توکءَ": 7550,
      "several": 7551,
      "حج": 7552,
      "مائ": 7553,
      "امبار": 7554,
      "مھراب": 7555,
      "سائنسدان": 7556,
      "زیاد": 7557,
      "ہسپتال": 7558,
      "گواه": 7559,
      "ہمنچو": 7560,
      "ڈگری": 7561,
      "گژ": 7562,
      "اداد": 7563,
      "مھروانیں": 7564,
      "diff": 7565,
      "نفسیات": 7566,
      "دیوانگ": 7567,
      "عو": 7568,
      "ڈاہ": 7569,
      "نیاتکگ": 7570,
      "نمائند": 7571,
      "may": 7572,
      "سدکی": 7573,
      "انہوں": 7574,
      "نگور": 7575,
      "کوسٹ": 7576,
      "زوراں": 7577,
      "جیڑھے": 7578,
      "ایسا": 7579,
      "ھاموشی": 7580,
      "لذت": 7581,
      "زانتکارانی": 7582,
      "شھیدی": 7583,
      "ہنکین": 7584,
      "جێ": 7585,
      "began": 7586,
      "همک": 7587,
      "قند": 7588,
      "ادل": 7589,
      "پرنس": 7590,
      "مگسی": 7591,
      "لونجان": 7592,
      "لز": 7593,
      "بیچار": 7594,
      "دراجی": 7595,
      "مسعود": 7596,
      "انچۆ": 7597,
      "اشرف": 7598,
      "ریپبلکن": 7599,
      "کیلو": 7600,
      "کیشن": 7601,
      "تکانسری": 7602,
      "زیں": 7603,
      "جہدے": 7604,
      "جانا": 7605,
      "زانئے": 7606,
      "لبزے": 7607,
      "ually": 7608,
      "تشد": 7609,
      "شیشگ": 7610,
      "جیڑاں": 7611,
      "She": 7612,
      "واناں": 7613,
      "جانب": 7614,
      "نکاں": 7615,
      "پجہ": 7616,
      "وڑی": 7617,
      "مشکول": 7618,
      "بنگل": 7619,
      "مزاحمتی": 7620,
      "eral": 7621,
      "مثل": 7622,
      "ٹرانس": 7623,
      "تتکگ": 7624,
      "بلاہیں": 7625,
      "نزام": 7626,
      "مڑد": 7627,
      "پھازگ": 7628,
      "دھلی": 7629,
      "اگوں": 7630,
      "هان": 7631,
      "نیاتک": 7632,
      "شتے": 7633,
      "تربیت": 7634,
      "مریم": 7635,
      "بورڈ": 7636,
      "شدت": 7637,
      "ماسی": 7638,
      "پہریز": 7639,
      "وادی": 7640,
      "نقش": 7641,
      "رژنا": 7642,
      "موسیٰ": 7643,
      "توانائی": 7644,
      "بوؤکیں": 7645,
      "بژنی": 7646,
      "فیصل": 7647,
      "درگتا": 7648,
      "کمکی": 7649,
      "رنگاں": 7650,
      "une": 7651,
      "لاشاری": 7652,
      "طبقہ": 7653,
      "Br": 7654,
      "az": 7655,
      "ہاتر": 7656,
      "شیرین": 7657,
      "دیمے": 7658,
      "ستکگ": 7659,
      "بزگر": 7660,
      "چریشاں": 7661,
      "سقراط": 7662,
      "خن": 7663,
      "ject": 7664,
      "حکمر": 7665,
      "دھر": 7666,
      "عوام": 7667,
      "عاجز": 7668,
      "ٹاپ": 7669,
      "روزی": 7670,
      "remain": 7671,
      "شہداد": 7672,
      "انجمن": 7673,
      "cord": 7674,
      "بکار": 7675,
      "گونگیں": 7676,
      "کندیل": 7677,
      "پروشی": 7678,
      "توم": 7679,
      "لینگوی": 7680,
      "صلاح": 7681,
      "عرض": 7682,
      "عہدی": 7683,
      "Se": 7684,
      "war": 7685,
      "مدار": 7686,
      "کیفی": 7687,
      "مہری": 7688,
      "قدرت": 7689,
      "کسانکیں": 7690,
      "شونگال": 7691,
      "گسر": 7692,
      "بہہ": 7693,
      "جامگ": 7694,
      "میتگءِ": 7695,
      "near": 7696,
      "early": 7697,
      "present": 7698,
      "crit": 7699,
      "زمینءِ": 7700,
      "جلد": 7701,
      "پترگ": 7702,
      "هاز": 7703,
      "ٹرز": 7704,
      "met": 7705,
      "nam": 7706,
      "پہمگ": 7707,
      "اپنا": 7708,
      "زندمانی": 7709,
      "پاکی": 7710,
      "ریفرنس": 7711,
      "پیس": 7712,
      "اگاہ": 7713,
      "پرنگی": 7714,
      "جہگیر": 7715,
      "شوکیں": 7716,
      "کمزور": 7717,
      "احتگ": 7718,
      "اتکگاں": 7719,
      "دژمنانی": 7720,
      "درگتءَ": 7721,
      "طیف": 7722,
      "صفحہ": 7723,
      "گوہ": 7724,
      "یکجاھی": 7725,
      "ادمے": 7726,
      "تیوگ": 7727,
      "ھبی": 7728,
      "cy": 7729,
      "cover": 7730,
      "هءِ": 7731,
      "ازن": 7732,
      "برابری": 7733,
      "دمانءَ": 7734,
      "ended": 7735,
      "رضی": 7736,
      "انتظامیہ": 7737,
      "کاسگ": 7738,
      "جمہوریت": 7739,
      "متھدہ": 7740,
      "could": 7741,
      "خانءَ": 7742,
      "ازمانکاں": 7743,
      "سرکارءِ": 7744,
      "did": 7745,
      "زتک": 7746,
      "هون": 7747,
      "ڈھا": 7748,
      "ہات": 7749,
      "ایجنسی": 7750,
      "برف": 7751,
      "Mar": 7752,
      "مالوم": 7753,
      "گھتر": 7754,
      "ms": 7755,
      "رمب": 7756,
      "قال": 7757,
      "ابیتکی": 7758,
      "called": 7759,
      "وجو": 7760,
      "ائینگ": 7761,
      "بارک": 7762,
      "کردانی": 7763,
      "try": 7764,
      "مهلوک": 7765,
      "Wor": 7766,
      "سیالی": 7767,
      "episode": 7768,
      "طارق": 7769,
      "فض": 7770,
      "ڈڈ": 7771,
      "ایوان": 7772,
      "ششت": 7773,
      "لوپ": 7774,
      "بوتن": 7775,
      "رسین": 7776,
      "گمن": 7777,
      "بیزار": 7778,
      "ورہ": 7779,
      "داخل": 7780,
      "پیسرگیں": 7781,
      "سیمسری": 7782,
      "سئیل": 7783,
      "توپ": 7784,
      "کشاری": 7785,
      "معی": 7786,
      "مروارد": 7787,
      "نگدی": 7788,
      "وسائل": 7789,
      "سکتا": 7790,
      "جئی": 7791,
      "ہپتگ": 7792,
      "جوانت": 7793,
      "محدود": 7794,
      "گوئش": 7795,
      "io": 7796,
      "میتگءَ": 7797,
      "دژمنی": 7798,
      "چدءُ": 7799,
      "جاس": 7800,
      "کۆ": 7801,
      "بارگیں": 7802,
      "leg": 7803,
      "وشیانی": 7804,
      "ib": 7805,
      "بغیر": 7806,
      "دہکان": 7807,
      "جنیناں": 7808,
      "چرس": 7809,
      "مانہ": 7810,
      "For": 7811,
      "سبر": 7812,
      "وژ": 7813,
      "واپ": 7814,
      "کریں": 7815,
      "کاریاں": 7816,
      "دێم": 7817,
      "por": 7818,
      "حمد": 7819,
      "سلو": 7820,
      "ash": 7821,
      "dep": 7822,
      "شریک": 7823,
      "سارتر": 7824,
      "ople": 7825,
      "self": 7826,
      "نعر": 7827,
      "لینگویج": 7828,
      "اءِ": 7829,
      "پیژ": 7830,
      "rece": 7831,
      "along": 7832,
      "فرض": 7833,
      "ملکءَ": 7834,
      "ٹیکی": 7835,
      "طینی": 7836,
      "جاڑیگ": 7837,
      "aking": 7838,
      "vid": 7839,
      "کسھے": 7840,
      "بیاں": 7841,
      "شرت": 7842,
      "لوٹیں": 7843,
      "دوستدار": 7844,
      "انسانانی": 7845,
      "large": 7846,
      "عز": 7847,
      "ہمت": 7848,
      "بھارت": 7849,
      "اکسی": 7850,
      "جنکاں": 7851,
      "نێست": 7852,
      "بیاریت": 7853,
      "نگن": 7854,
      "صوص": 7855,
      "کستر": 7856,
      "تشدد": 7857,
      "Is": 7858,
      "اپاں": 7859,
      "دیواناں": 7860,
      "پکرانی": 7861,
      "dist": 7862,
      "مکنت": 7863,
      "نپس": 7864,
      "ھاش": 7865,
      "دوسرے": 7866,
      "دئور": 7867,
      "شلوار": 7868,
      "يں": 7869,
      "ہوت": 7870,
      "ایلیٹ": 7871,
      "درگیج": 7872,
      "کماشیں": 7873,
      "gg": 7874,
      "رونت": 7875,
      "جہت": 7876,
      "بنءَ": 7877,
      "لوگبانک": 7878,
      "بیگءِ": 7879,
      "نزینکی": 7880,
      "val": 7881,
      "ملین": 7882,
      "اندگہ": 7883,
      "اسلو": 7884,
      "روائی": 7885,
      "ناما": 7886,
      "چاریگ": 7887,
      "سبزی": 7888,
      "لاھور": 7889,
      "عے": 7890,
      "نہاد": 7891,
      "زانہ": 7892,
      "ملیر": 7893,
      "تعالیٰ": 7894,
      "mil": 7895,
      "فرو": 7896,
      "یکشمبے": 7897,
      "دورے": 7898,
      "واجہی": 7899,
      "May": 7900,
      "ملاز": 7901,
      "pass": 7902,
      "وئیلے": 7903,
      "لاشانی": 7904,
      "درھیں": 7905,
      "برتانیہ": 7906,
      "روانکے": 7907,
      "said": 7908,
      "هساب": 7909,
      "press": 7910,
      "American": 7911,
      "بوتگءُ": 7912,
      "ink": 7913,
      "بھائی": 7914,
      "سہت": 7915,
      "تحت": 7916,
      "ساھتاں": 7917,
      "بتی": 7918,
      "سؤ": 7919,
      "بزر": 7920,
      "ese": 7921,
      "حاظ": 7922,
      "دعویٰ": 7923,
      "حشک": 7924,
      "مشن": 7925,
      "ہاتھ": 7926,
      "یہو": 7927,
      "کبھی": 7928,
      "سینیٹ": 7929,
      "بسمل": 7930,
      "gust": 7931,
      "خار": 7932,
      "غفار": 7933,
      "گپتیں": 7934,
      "مارشتے": 7935,
      "erson": 7936,
      "سفار": 7937,
      "success": 7938,
      "طالب": 7939,
      "نپاد": 7940,
      "مردءِ": 7941,
      "راہاں": 7942,
      "شنبہ": 7943,
      "ھمینچو": 7944,
      "ڈبہ": 7945,
      "ھکل": 7946,
      "گلءِ": 7947,
      "دینا": 7948,
      "tow": 7949,
      "سردارانی": 7950,
      "وسیلگ": 7951,
      "پوت": 7952,
      "ریاض": 7953,
      "بلۆچی": 7954,
      "دوشمبے": 7955,
      "رسانی": 7956,
      "ایردستی": 7957,
      "ized": 7958,
      "تیرے": 7959,
      "these": 7960,
      "قحطانی": 7961,
      "زانتے": 7962,
      "مالانی": 7963,
      "اکسے": 7964,
      "سھیل": 7965,
      "غلامی": 7966,
      "لچھ": 7967,
      "وبا": 7968,
      "داخ": 7969,
      "سگگ": 7970,
      "شعراں": 7971,
      "now": 7972,
      "جادو": 7973,
      "غفور": 7974,
      "مچک": 7975,
      "کاھان": 7976,
      "دیری": 7977,
      "یکدم": 7978,
      "روف": 7979,
      "دنیگہ": 7980,
      "ذر": 7981,
      "هءَ": 7982,
      "کاڑ": 7983,
      "محراب": 7984,
      "ماتءِ": 7985,
      "رؤکیں": 7986,
      "لالچ": 7987,
      "ثبوت": 7988,
      "روچا": 7989,
      "open": 7990,
      "گیابان": 7991,
      "ارءَ": 7992,
      "سالءِ": 7993,
      "ہردو": 7994,
      "کلان": 7995,
      "بچاریں": 7996,
      "مولاداد": 7997,
      "کٹر": 7998,
      "زندہ": 7999,
      "نیستی": 8000,
      "امیتی": 8001,
      "زندگیءِ": 8002,
      "عمو": 8003,
      "سران": 8004,
      "رویں": 8005,
      "زرءِ": 8006,
      "بساک": 8007,
      "قلعہ": 8008,
      "ھمیشانی": 8009,
      "ءّ": 8010,
      "grap": 8011,
      "نفسیاتی": 8012,
      "ئگءَ": 8013,
      "رافی": 8014,
      "چوناہا": 8015,
      "تاہیر": 8016,
      "ca": 8017,
      "tri": 8018,
      "شفی": 8019,
      "ظاھر": 8020,
      "قاف": 8021,
      "لحاظ": 8022,
      "بندن": 8023,
      "شوھازگ": 8024,
      "بشکھندگ": 8025,
      "Ger": 8026,
      "طلب": 8027,
      "پروجیک": 8028,
      "منہ": 8029,
      "stem": 8030,
      "درایگ": 8031,
      "پترتگ": 8032,
      "fam": 8033,
      "الاں": 8034,
      "راجدوستیں": 8035,
      "بنگپانی": 8036,
      "کمرہ": 8037,
      "ah": 8038,
      "جۆ": 8039,
      "سات": 8040,
      "انٹیلی": 8041,
      "گوہار": 8042,
      "ردے": 8043,
      "بوتءُ": 8044,
      "دلمانگ": 8045,
      "ھمساھگ": 8046,
      "پشدر": 8047,
      "پربند": 8048,
      "نوشی": 8049,
      "اینچک": 8050,
      "اصط": 8051,
      "انجین": 8052,
      "لائبریری": 8053,
      "للہ": 8054,
      "میکس": 8055,
      "زرءَ": 8056,
      "مستی": 8057,
      "تاچی": 8058,
      "بکننت": 8059,
      "rist": 8060,
      "مسلمانانی": 8061,
      "British": 8062,
      "پجا": 8063,
      "بیورغ": 8064,
      "جزم": 8065,
      "وشت": 8066,
      "نازینک": 8067,
      "ترینگ": 8068,
      "سنگے": 8069,
      "جہدءَ": 8070,
      "پسندیں": 8071,
      "ھمراھاں": 8072,
      "دالبندین": 8073,
      "music": 8074,
      "until": 8075,
      "city": 8076,
      "ماریت": 8077,
      "بودل": 8078,
      "نتہ": 8079,
      "رودین": 8080,
      "start": 8081,
      "مطال": 8082,
      "overn": 8083,
      "خطرہ": 8084,
      "چؤ": 8085,
      "یاتاں": 8086,
      "کوشت": 8087,
      "مرگءِ": 8088,
      "دریگتیں": 8089,
      "پجاہ": 8090,
      "کاردار": 8091,
      "پریشی": 8092,
      "شئیرے": 8093,
      "ross": 8094,
      "الک": 8095,
      "صوفی": 8096,
      "comple": 8097,
      "released": 8098,
      "لزت": 8099,
      "فٹبال": 8100,
      "کنر": 8101,
      "کرتی": 8102,
      "بلوچوں": 8103,
      "کلاگ": 8104,
      "پریشر": 8105,
      "نکن": 8106,
      "گومازی": 8107,
      "پہنچ": 8108,
      "موٹ": 8109,
      "قیامت": 8110,
      "پولکار": 8111,
      "مکتب": 8112,
      "Gr": 8113,
      "جدی": 8114,
      "نازی": 8115,
      "رادگ": 8116,
      "الے": 8117,
      "گلامیں": 8118,
      "less": 8119,
      "سپریم": 8120,
      "سردی": 8121,
      "مخت": 8122,
      "بیس": 8123,
      "itt": 8124,
      "اصغر": 8125,
      "چراگے": 8126,
      "کلاسیکل": 8127,
      "روایتی": 8128,
      "حاض": 8129,
      "خدائی": 8130,
      "دءَ": 8131,
      "same": 8132,
      "خوب": 8133,
      "ہرو": 8134,
      "اہت": 8135,
      "اہمیت": 8136,
      "کتا": 8137,
      "گسانی": 8138,
      "سھت": 8139,
      "تنکیں": 8140,
      "جاهے": 8141,
      "فتہ": 8142,
      "وارس": 8143,
      "نوکر": 8144,
      "نزیکءَ": 8145,
      "ساریءَ": 8146,
      "دودانی": 8147,
      "ارزشتے": 8148,
      "شہیدانی": 8149,
      "لائق": 8150,
      "احسان": 8151,
      "کوہانی": 8152,
      "thern": 8153,
      "نعی": 8154,
      "نیو": 8155,
      "ank": 8156,
      "جہمنند": 8157,
      "کافی": 8158,
      "بوگءِ": 8159,
      "حیالاں": 8160,
      "مراگشے": 8161,
      "ived": 8162,
      "vol": 8163,
      "ملکا": 8164,
      "سامنے": 8165,
      "ولے": 8166,
      "ماتءَ": 8167,
      "جنوزام": 8168,
      "زباد": 8169,
      "راشن": 8170,
      "ہین": 8171,
      "اڑی": 8172,
      "فان": 8173,
      "راجکاری": 8174,
      "مردگ": 8175,
      "زانشی": 8176,
      "درساں": 8177,
      "پیسریگیں": 8178,
      "انل": 8179,
      "زیہ": 8180,
      "سالروچ": 8181,
      "ists": 8182,
      "سنگینیں": 8183,
      "اجتما": 8184,
      "ious": 8185,
      "کشءَ": 8186,
      "جامی": 8187,
      "sim": 8188,
      "ارین": 8189,
      "زانتیں": 8190,
      "حداءِ": 8191,
      "ناسر": 8192,
      "jor": 8193,
      "دارانت": 8194,
      "بریگیڈ": 8195,
      "کھو": 8196,
      "ایڈی": 8197,
      "وہدا": 8198,
      "ھاجی": 8199,
      "return": 8200,
      "شکا": 8201,
      "پتءَ": 8202,
      "جمبراں": 8203,
      "plac": 8204,
      "یقین": 8205,
      "km": 8206,
      "انفار": 8207,
      "کپتگاں": 8208,
      "لبزانکءَ": 8209,
      "They": 8210,
      "پولنگ": 8211,
      "تکنیکی": 8212,
      "ھردوکیں": 8213,
      "خانءِ": 8214,
      "باسکے": 8215,
      "عقلی": 8216,
      "هیر": 8217,
      "ائنٹ": 8218,
      "ڈیز": 8219,
      "state": 8220,
      "سستگیں": 8221,
      "وند": 8222,
      "ہاس": 8223,
      "درجگ": 8224,
      "انگیں": 8225,
      "read": 8226,
      "شهید": 8227,
      "سلطنت": 8228,
      "انگی": 8229,
      "درنج": 8230,
      "کرکے": 8231,
      "دارنت": 8232,
      "موقع": 8233,
      "معت": 8234,
      "گہتری": 8235,
      "نازل": 8236,
      "نگیگیں": 8237,
      "شموش": 8238,
      "اباں": 8239,
      "area": 8240,
      "زرداری": 8241,
      "design": 8242,
      "اتن": 8243,
      "گونگ": 8244,
      "سروز": 8245,
      "گڈاں": 8246,
      "دیگا": 8247,
      "امکان": 8248,
      "وہاں": 8249,
      "گشتے": 8250,
      "کسہانی": 8251,
      "درورے": 8252,
      "شوکت": 8253,
      "سچ": 8254,
      "دہمی": 8255,
      "باه": 8256,
      "دربرتگ": 8257,
      "سروکاں": 8258,
      "کارستے": 8259,
      "پکرءُ": 8260,
      "oci": 8261,
      "شئرانی": 8262,
      "کہانی": 8263,
      "نیر": 8264,
      "نادی": 8265,
      "رنگءُ": 8266,
      "ویش": 8267,
      "چپیں": 8268,
      "million": 8269,
      "ھیک": 8270,
      "کارروائی": 8271,
      "ouse": 8272,
      "نبشتانکاں": 8273,
      "گپتار": 8274,
      "fect": 8275,
      "formed": 8276,
      "انٹرنیشنل": 8277,
      "نئیل": 8278,
      "پیرو": 8279,
      "شیدا": 8280,
      "men": 8281,
      "نءِ": 8282,
      "لیو": 8283,
      "انسال": 8284,
      "رفیق": 8285,
      "ینگ": 8286,
      "بیٹ": 8287,
      "منارا": 8288,
      "پرش": 8289,
      "ھیالے": 8290,
      "because": 8291,
      "بوھگءَ": 8292,
      "oot": 8293,
      "زحم": 8294,
      "ہڑ": 8295,
      "ھرنائی": 8296,
      "سیاستدان": 8297,
      "مرکزی": 8298,
      "سپا": 8299,
      "بلڈ": 8300,
      "پیسرءَ": 8301,
      "کوری": 8302,
      "نسیب": 8303,
      "ایردست": 8304,
      "گوج": 8305,
      "لاحی": 8306,
      "بدلءَ": 8307,
      "زردیں": 8308,
      "صمد": 8309,
      "اتان": 8310,
      "بوگا": 8311,
      "ہیرو": 8312,
      "ہنداں": 8313,
      "مٹیں": 8314,
      "نعیم": 8315,
      "دلیری": 8316,
      "la": 8317,
      "پبل": 8318,
      "ایئر": 8319,
      "بوجی": 8320,
      "لیاقت": 8321,
      "ویڈیو": 8322,
      "کوریں": 8323,
      "اجب": 8324,
      "ower": 8325,
      "each": 8326,
      "حمی": 8327,
      "ٹوہ": 8328,
      "گڑی": 8329,
      "کروس": 8330,
      "افاضل": 8331,
      "ازیت": 8332,
      "ٹکرے": 8333,
      "War": 8334,
      "اسکور": 8335,
      "offic": 8336,
      "لوٹوک": 8337,
      "لابی": 8338,
      "کاریز": 8339,
      "تواریں": 8340,
      "شعبہ": 8341,
      "بلۆچستان": 8342,
      "جمل": 8343,
      "بنڈ": 8344,
      "ایریں": 8345,
      "پارٹیءِ": 8346,
      "نوشکے": 8347,
      "Car": 8348,
      "che": 8349,
      "ترانت": 8350,
      "ھید": 8351,
      "وانت": 8352,
      "گوارگ": 8353,
      "موداں": 8354,
      "enn": 8355,
      "سنگانی": 8356,
      "جنیانی": 8357,
      "August": 8358,
      "جوہر": 8359,
      "جاھمنند": 8360,
      "بودلئیر": 8361,
      "تراکن": 8362,
      "کھان": 8363,
      "مرگاں": 8364,
      "تاوانے": 8365,
      "سازیں": 8366,
      "انگریزانی": 8367,
      "ناگت": 8368,
      "coun": 8369,
      "معاش": 8370,
      "ادءِ": 8371,
      "اجوئیں": 8372,
      "عیسائی": 8373,
      "ھاکمی": 8374,
      "vide": 8375,
      "پخ": 8376,
      "بلوٹ": 8377,
      "ھالو": 8378,
      "زہگاں": 8379,
      "come": 8380,
      "کلومیٹر": 8381,
      "Sep": 8382,
      "صالح": 8383,
      "اوٹ": 8384,
      "کسہی": 8385,
      "استانی": 8386,
      "ساع": 8387,
      "وهدا": 8388,
      "اختلاف": 8389,
      "بالگتر": 8390,
      "اھم": 8391,
      "ماڈل": 8392,
      "کلا": 8393,
      "گندءُ": 8394,
      "پریدہ": 8395,
      "سندی": 8396,
      "life": 8397,
      "serv": 8398,
      "ھپتگے": 8399,
      "dr": 8400,
      "طرز": 8401,
      "کبول": 8402,
      "انون": 8403,
      "اتون": 8404,
      "رائے": 8405,
      "ٹوئ": 8406,
      "شعوری": 8407,
      "سءَ": 8408,
      "يٴ": 8409,
      "مراں": 8410,
      "کسےءَ": 8411,
      "شھراں": 8412,
      "کمانڈر": 8413,
      "ایسے": 8414,
      "کوھلو": 8415,
      "رئیسی": 8416,
      "ڈار": 8417,
      "کنین": 8418,
      "east": 8419,
      "پکیر": 8420,
      "ھنچشیں": 8421,
      "ھندو": 8422,
      "people": 8423,
      "افریقہ": 8424,
      "رش": 8425,
      "قتل": 8426,
      "کنک": 8427,
      "کساں": 8428,
      "کشا": 8429,
      "گندگا": 8430,
      "سمب": 8431,
      "ھردیں": 8432,
      "پیشگال": 8433,
      "وانگجاھاں": 8434,
      "لسانی": 8435,
      "غیرہ": 8436,
      "chool": 8437,
      "دھا": 8438,
      "زادہ": 8439,
      "سمیر": 8440,
      "لیڈ": 8441,
      "دونوں": 8442,
      "ترتی": 8443,
      "دیوانءَ": 8444,
      "کندگے": 8445,
      "ple": 8446,
      "ایسی": 8447,
      "بوط": 8448,
      "دوسری": 8449,
      "جیسے": 8450,
      "چنان": 8451,
      "بچے": 8452,
      "سپی": 8453,
      "فق": 8454,
      "لٰ": 8455,
      "نکا": 8456,
      "پاھ": 8457,
      "بوھان": 8458,
      "دوستانی": 8459,
      "car": 8460,
      "سسی": 8461,
      "جھدے": 8462,
      "رنگانی": 8463,
      "کالم": 8464,
      "national": 8465,
      "عنہ": 8466,
      "میتگانی": 8467,
      "book": 8468,
      "پھازگی": 8469,
      "ملافاضل": 8470,
      "زوراور": 8471,
      "کنڈے": 8472,
      "سیکیور": 8473,
      "قسمت": 8474,
      "حیالءَ": 8475,
      "ریکٹر": 8476,
      "انجی": 8477,
      "ارینگ": 8478,
      "زمانگاں": 8479,
      "زامات": 8480,
      "تکی": 8481,
      "اہدہ": 8482,
      "کیلئے": 8483,
      "رر": 8484,
      "زانتاں": 8485,
      "زانتکاراں": 8486,
      "سرینت": 8487,
      "ris": 8488,
      "جبری": 8489,
      "عین": 8490,
      "ومن": 8491,
      "دیستگیں": 8492,
      "بابو": 8493,
      "دودءُ": 8494,
      "شائریءِ": 8495,
      "bod": 8496,
      "مکی": 8497,
      "ہری": 8498,
      "ترءُ": 8499,
      "ایراں": 8500,
      "یکےءَ": 8501,
      "مقامی": 8502,
      "دیمترءَ": 8503,
      "رمز": 8504,
      "لگیت": 8505,
      "افراد": 8506,
      "rote": 8507,
      "معنائی": 8508,
      "شومیں": 8509,
      "ھورت": 8510,
      "چیلنج": 8511,
      "ين": 8512,
      "شیئ": 8513,
      "گندے": 8514,
      "stral": 8515,
      "light": 8516,
      "گپتہ": 8517,
      "بھشت": 8518,
      "six": 8519,
      "ھرابی": 8520,
      "گلا": 8521,
      "زانگی": 8522,
      "بازارءَ": 8523,
      "ڈولا": 8524,
      "افسانہ": 8525,
      "ہڈ": 8526,
      "کولی": 8527,
      "زندءُ": 8528,
      "قریب": 8529,
      "سیکیورٹی": 8530,
      "Eu": 8531,
      "اوکیں": 8532,
      "نیب": 8533,
      "ہدایت": 8534,
      "support": 8535,
      "field": 8536,
      "جاگہاں": 8537,
      "سینگار": 8538,
      "ضرور": 8539,
      "ھروھد": 8540,
      "جعفر": 8541,
      "تراکناکیں": 8542,
      "نری": 8543,
      "سوبءَ": 8544,
      "لیکہانی": 8545,
      "Ju": 8546,
      "اسرءَ": 8547,
      "تمنی": 8548,
      "راپ": 8549,
      "برگیڈ": 8550,
      "شرم": 8551,
      "عبدالواحد": 8552,
      "وانین": 8553,
      "برواں": 8554,
      "پائپ": 8555,
      "باھند": 8556,
      "Col": 8557,
      "خمار": 8558,
      "ائیگ": 8559,
      "دومیءَ": 8560,
      "ارسانی": 8561,
      "group": 8562,
      "داخلہ": 8563,
      "ather": 8564,
      "ورلڈ": 8565,
      "بوں": 8566,
      "iver": 8567,
      "around": 8568,
      "دہک": 8569,
      "top": 8570,
      "ارشاد": 8571,
      "پلنگ": 8572,
      "ured": 8573,
      "مڑدم": 8574,
      "ext": 8575,
      "قاع": 8576,
      "Fe": 8577,
      "جاتے": 8578,
      "حو": 8579,
      "اتکیں": 8580,
      "بالگرد": 8581,
      "ھورانی": 8582,
      "واھگاں": 8583,
      "تحقیق": 8584,
      "تتک": 8585,
      "پوچ": 8586,
      "ision": 8587,
      "گامے": 8588,
      "روگن": 8589,
      "نرمیں": 8590,
      "کسا": 8591,
      "چارءُ": 8592,
      "شیرکنیں": 8593,
      "رابطہ": 8594,
      "انفارمیشن": 8595,
      "However": 8596,
      "Pl": 8597,
      "vent": 8598,
      "تازی": 8599,
      "سیاھی": 8600,
      "لوق": 8601,
      "چارگا": 8602,
      "لاشار": 8603,
      "جتہ": 8604,
      "یہی": 8605,
      "گوزی": 8606,
      "دمگے": 8607,
      "اتراپ": 8608,
      "dom": 8609,
      "sol": 8610,
      "فط": 8611,
      "گٹی": 8612,
      "گشند": 8613,
      "گناھیں": 8614,
      "طوف": 8615,
      "کاریانی": 8616,
      "چنڈی": 8617,
      "mark": 8618,
      "بچی": 8619,
      "فین": 8620,
      "جنے": 8621,
      "کپتیں": 8622,
      "پروری": 8623,
      "سوچگ": 8624,
      "ٹم": 8625,
      "گپان": 8626,
      "پیداوار": 8627,
      "لپ": 8628,
      "سرمگ": 8629,
      "درگی": 8630,
      "چیدگی": 8631,
      "اگہی": 8632,
      "علاوہ": 8633,
      "جلوہ": 8634,
      "اسلوب": 8635,
      "prote": 8636,
      "پجارینگ": 8637,
      "ادمانی": 8638,
      "دستون": 8639,
      "شاتکامی": 8640,
      "north": 8641,
      "جێڑ": 8642,
      "ڑھ": 8643,
      "نگہ": 8644,
      "ابان": 8645,
      "کورءَ": 8646,
      "فلم": 8647,
      "پکی": 8648,
      "یکت": 8649,
      "چکءَ": 8650,
      "گالرد": 8651,
      "گہہ": 8652,
      "تبیں": 8653,
      "کشتگیں": 8654,
      "consid": 8655,
      "character": 8656,
      "ٹوی": 8657,
      "منصور": 8658,
      "ھمگام": 8659,
      "رویہ": 8660,
      "دستءِ": 8661,
      "مھتر": 8662,
      "ترینتگ": 8663,
      "attack": 8664,
      "اپانی": 8665,
      "ٹیو": 8666,
      "کمپان": 8667,
      "ھانل": 8668,
      "کہہ": 8669,
      "تنکہ": 8670,
      "نعرہ": 8671,
      "صائ": 8672,
      "ریکانی": 8673,
      "میانجی": 8674,
      "ساوڑ": 8675,
      "اگبالانی": 8676,
      "یدار": 8677,
      "بہادری": 8678,
      "ales": 8679,
      "حرف": 8680,
      "گردان": 8681,
      "بیگواھیانی": 8682,
      "صادی": 8683,
      "عاب": 8684,
      "لگور": 8685,
      "برتگیں": 8686,
      "کورءِ": 8687,
      "tember": 8688,
      "September": 8689,
      "will": 8690,
      "اوری": 8691,
      "وارڈ": 8692,
      "کراچیءَ": 8693,
      "ہزدار": 8694,
      "روبرکتی": 8695,
      "continu": 8696,
      "small": 8697,
      "لھم": 8698,
      "گنا": 8699,
      "حدائی": 8700,
      "باوری": 8701,
      "get": 8702,
      "سدی": 8703,
      "بلوچیں": 8704,
      "نامانی": 8705,
      "بنیاتی": 8706,
      "لهتے": 8707,
      "موسمانی": 8708,
      "Bl": 8709,
      "دیوکیں": 8710,
      "پوشی": 8711,
      "واراں": 8712,
      "قوام": 8713,
      "اوشتیت": 8714,
      "position": 8715,
      "اناگت": 8716,
      "چلیم": 8717,
      "الحق": 8718,
      "اپیں": 8719,
      "rest": 8720,
      "محسوس": 8721,
      "پھناتاں": 8722,
      "قہر": 8723,
      "کز": 8724,
      "مہتل": 8725,
      "تھنائی": 8726,
      "عطاء": 8727,
      "اقتصادی": 8728,
      "بلۆچانی": 8729,
      "following": 8730,
      "سرداری": 8731,
      "جہلانکی": 8732,
      "بچکندے": 8733,
      "اقوام": 8734,
      "گداں": 8735,
      "سرک": 8736,
      "باراں": 8737,
      "شرا": 8738,
      "عقی": 8739,
      "رودی": 8740,
      "نبشتانکانی": 8741,
      "ground": 8742,
      "World": 8743,
      "oth": 8744,
      "خور": 8745,
      "خراب": 8746,
      "گپی": 8747,
      "انشپی": 8748,
      "گردی": 8749,
      "الکاپیں": 8750,
      "جاپان": 8751,
      "US": 8752,
      "سدو": 8753,
      "لگا": 8754,
      "چارگی": 8755,
      "وانگا": 8756,
      "انسانءَ": 8757,
      "وسیں": 8758,
      "مردمانءِ": 8759,
      "گاه": 8760,
      "fun": 8761,
      "طل": 8762,
      "درصد": 8763,
      "بوک": 8764,
      "مرداں": 8765,
      "استت": 8766,
      "stud": 8767,
      "ڈولداریں": 8768,
      "ءِے": 8769,
      "کارئے": 8770,
      "مردک": 8771,
      "زورگر": 8772,
      "ادارہاں": 8773,
      "پیماز": 8774,
      "قانونی": 8775,
      "contro": 8776,
      "Austral": 8777,
      "سیں": 8778,
      "گھن": 8779,
      "سیف": 8780,
      "ابانی": 8781,
      "درءَ": 8782,
      "وتیگ": 8783,
      "ina": 8784,
      "جمپ": 8785,
      "کورے": 8786,
      "پورہ": 8787,
      "very": 8788,
      "گواتے": 8789,
      "دئیگا": 8790,
      "وغیرہ": 8791,
      "منڈ": 8792,
      "شیری": 8793,
      "ابراہ": 8794,
      "ساہت": 8795,
      "ٹیکس": 8796,
      "بداریت": 8797,
      "ھھ": 8798,
      "ریکو": 8799,
      "برانی": 8800,
      "lish": 8801,
      "ولا": 8802,
      "چلی": 8803,
      "درانی": 8804,
      "معنہ": 8805,
      "گوانزگ": 8806,
      "ستکگیں": 8807,
      "حبیب": 8808,
      "درہیں": 8809,
      "چیخوف": 8810,
      "دلجمیں": 8811,
      "اژدری": 8812,
      "ivers": 8813,
      "نیار": 8814,
      "requ": 8815,
      "معیار": 8816,
      "وشیاں": 8817,
      "تنظیم": 8818,
      "خاطر": 8819,
      "جلسہ": 8820,
      "Her": 8821,
      "رشتگ": 8822,
      "ٹائی": 8823,
      "ایرا": 8824,
      "سرئے": 8825,
      "ڈیپارٹمنٹ": 8826,
      "گندی": 8827,
      "ural": 8828,
      "مقبول": 8829,
      "five": 8830,
      "اسمی": 8831,
      "اثرات": 8832,
      "بحری": 8833,
      "واتری": 8834,
      "وکر": 8835,
      "وابءَ": 8836,
      "کسہاں": 8837,
      "وہدءِ": 8838,
      "تہرے": 8839,
      "اسکے": 8840,
      "stand": 8841,
      "چیزءَ": 8842,
      "جاگہءَ": 8843,
      "گوئشان": 8844,
      "ماحول": 8845,
      "سمار": 8846,
      "دھک": 8847,
      "قاعدہ": 8848,
      "پہلی": 8849,
      "ional": 8850,
      "مشرقی": 8851,
      "نکت": 8852,
      "ریسرچ": 8853,
      "سیاھ": 8854,
      "اساں": 8855,
      "دژمناں": 8856,
      "result": 8857,
      "بروبری": 8858,
      "تجربگ": 8859,
      "aim": 8860,
      "tit": 8861,
      "خاموش": 8862,
      "بیچ": 8863,
      "ایڈو": 8864,
      "یکم": 8865,
      "سبق": 8866,
      "ردانکی": 8867,
      "روایر": 8868,
      "ناگی": 8869,
      "ملکت": 8870,
      "جنوکیں": 8871,
      "نامگ": 8872,
      "قومے": 8873,
      "تعلقداری": 8874,
      "ڈائریکٹر": 8875,
      "پیغام": 8876,
      "bers": 8877,
      "زادگ": 8878,
      "کاش": 8879,
      "انفرا": 8880,
      "میریں": 8881,
      "مہرءُ": 8882,
      "گوادرءَ": 8883,
      "ہمینچو": 8884,
      "زبرد": 8885,
      "نغ": 8886,
      "atter": 8887,
      "سالا": 8888,
      "کورونا": 8889,
      "track": 8890,
      "دنیایے": 8891,
      "ھدایت": 8892,
      "gy": 8893,
      "رومن": 8894,
      "لوڈ": 8895,
      "پدرد": 8896,
      "سھرا": 8897,
      "اتحاد": 8898,
      "ابراہیم": 8899,
      "حکومتی": 8900,
      "لیس": 8901,
      "کسب": 8902,
      "لہتین": 8903,
      "سیاه": 8904,
      "miss": 8905,
      "وکائی": 8906,
      "لیکہی": 8907,
      "سروکانی": 8908,
      "ague": 8909,
      "بمبے": 8910,
      "علامت": 8911,
      "راباد": 8912,
      "ڈولداری": 8913,
      "ctor": 8914,
      "سہیل": 8915,
      "سکندر": 8916,
      "pon": 8917,
      "یکمی": 8918,
      "ملٹ": 8919,
      "نشتگاں": 8920,
      "def": 8921,
      "what": 8922,
      "ھرابیں": 8923,
      "رسینت": 8924,
      "پیغمبر": 8925,
      "name": 8926,
      "چمی": 8927,
      "نوع": 8928,
      "رھبندے": 8929,
      "چتگ": 8930,
      "سرگرمی": 8931,
      "داروک": 8932,
      "کوں": 8933,
      "مونجا": 8934,
      "cording": 8935,
      "نگار": 8936,
      "اسن": 8937,
      "اسودگی": 8938,
      "مانش": 8939,
      "ترسناکیں": 8940,
      "bre": 8941,
      "سجہ": 8942,
      "کیمرہ": 8943,
      "ھیلی": 8944,
      "پتءِ": 8945,
      "دپا": 8946,
      "پاکستانءَ": 8947,
      "زہگانی": 8948,
      "سپاہ": 8949,
      "فلسفہءِ": 8950,
      "سپاھیگ": 8951,
      "عجبیں": 8952,
      "Me": 8953,
      "کرمان": 8954,
      "مانگی": 8955,
      "دیمءِ": 8956,
      "ism": 8957,
      "افسوس": 8958,
      "لشکرکشی": 8959,
      "نادل": 8960,
      "aged": 8961,
      "ریچگ": 8962,
      "ہاران": 8963,
      "North": 8964,
      "Gu": 8965,
      "لطیف": 8966,
      "اشا": 8967,
      "چاگی": 8968,
      "اجبیں": 8969,
      "بندان": 8970,
      "تیراں": 8971,
      "رھشوناں": 8972,
      "شاھد": 8973,
      "مکمل": 8974,
      "Fran": 8975,
      "ضیا": 8976,
      "کئو": 8977,
      "report": 8978,
      "جتاھیں": 8979,
      "جندءَ": 8980,
      "اصول": 8981,
      "ایرانشھر": 8982,
      "ھمنکس": 8983,
      "اجتماعی": 8984,
      "سبارگ": 8985,
      "کلک": 8986,
      "کلکشان": 8987,
      "اؤں": 8988,
      "پورسز": 8989,
      "گردش": 8990,
      "gun": 8991,
      "نزیر": 8992,
      "سرت": 8993,
      "ڈیلہ": 8994,
      "بخاری": 8995,
      "ھمگرنچیں": 8996,
      "موضوع": 8997,
      "لٰہ": 8998,
      "راضی": 8999,
      "سلاھانی": 9000,
      "برادری": 9001,
      "ired": 9002,
      "ئول": 9003,
      "تض": 9004,
      "جلگ": 9005,
      "پدمنتگ": 9006,
      "ٹپیگ": 9007,
      "Wil": 9008,
      "رءَ": 9009,
      "سنا": 9010,
      "نٹی": 9011,
      "دگاں": 9012,
      "جنگول": 9013,
      "تباہی": 9014,
      "cr": 9015,
      "cut": 9016,
      "یڪ": 9017,
      "گشیں": 9018,
      "چیزءِ": 9019,
      "تالی": 9020,
      "یادا": 9021,
      "زورگیر": 9022,
      "باؤ": 9023,
      "لالہ": 9024,
      "لوزانی": 9025,
      "اصطلاح": 9026,
      "پبلی": 9027,
      "ھج": 9028,
      "بیہار": 9029,
      "رودراتک": 9030,
      "جہانءِ": 9031,
      "زوربیگواہیں": 9032,
      "ساح": 9033,
      "نشتہ": 9034,
      "فطرت": 9035,
      "ئشت": 9036,
      "لکی": 9037,
      "چشین": 9038,
      "خدمت": 9039,
      "تپر": 9040,
      "وزار": 9041,
      "کپو": 9042,
      "ony": 9043,
      "زانا": 9044,
      "زمانگءِ": 9045,
      "ارزانیں": 9046,
      "prom": 9047,
      "عور": 9048,
      "چائ": 9049,
      "پجاروکی": 9050,
      "گراناز": 9051,
      "اوشتاتگیں": 9052,
      "played": 9053,
      "June": 9054,
      "عص": 9055,
      "پیتی": 9056,
      "رومان": 9057,
      "سلیں": 9058,
      "allow": 9059,
      "بودشت": 9060,
      "cour": 9061,
      "tal": 9062,
      "تعری": 9063,
      "ایجنٹ": 9064,
      "ڈم": 9065,
      "شیہک": 9066,
      "مارے": 9067,
      "ساچیں": 9068,
      "وانگءِ": 9069,
      "چدا": 9070,
      "ترجم": 9071,
      "اگل": 9072,
      "ask": 9073,
      "بحر": 9074,
      "منان": 9075,
      "گندان": 9076,
      "گوشتن": 9077,
      "متل": 9078,
      "بادشاہی": 9079,
      "یکشلیں": 9080,
      "week": 9081,
      "govern": 9082,
      "سادگ": 9083,
      "درشت": 9084,
      "ڈیھی": 9085,
      "بنپد": 9086,
      "ختم": 9087,
      "late": 9088,
      "بڑے": 9089,
      "گنی": 9090,
      "ورگی": 9091,
      "جھلی": 9092,
      "ages": 9093,
      "بها": 9094,
      "انتظام": 9095,
      "وعدہ": 9096,
      "ham": 9097,
      "کدیم": 9098,
      "تگاں": 9099,
      "بزرگ": 9100,
      "جتک": 9101,
      "نشتاں": 9102,
      "ئشتر": 9103,
      "ورزی": 9104,
      "ورگءَ": 9105,
      "نیاز": 9106,
      "دوس": 9107,
      "دوہمی": 9108,
      "واڑ": 9109,
      "وانان": 9110,
      "زرانی": 9111,
      "oman": 9112,
      "ادین": 9113,
      "بختاور": 9114,
      "جسد": 9115,
      "لیلو": 9116,
      "مزاری": 9117,
      "Oc": 9118,
      "اتءِ": 9119,
      "بوتوں": 9120,
      "مہکمیں": 9121,
      "ینانی": 9122,
      "ویژن": 9123,
      "اودءِ": 9124,
      "پوریاگ": 9125,
      "care": 9126,
      "ys": 9127,
      "صغیر": 9128,
      "کتر": 9129,
      "اربی": 9130,
      "روژنا": 9131,
      "مرگءَ": 9132,
      "نوٹ": 9133,
      "زیند": 9134,
      "پلک": 9135,
      "اولاد": 9136,
      "رہبندانی": 9137,
      "افیسر": 9138,
      "هلاس": 9139,
      "درنیام": 9140,
      "پہاز": 9141,
      "گلباگ": 9142,
      "رژنائیں": 9143,
      "کث": 9144,
      "یکش": 9145,
      "اوباد": 9146,
      "روگا": 9147,
      "کردہ": 9148,
      "شاعرءِ": 9149,
      "سھریں": 9150,
      "final": 9151,
      "vision": 9152,
      "طریقہ": 9153,
      "مدرسہ": 9154,
      "Man": 9155,
      "cast": 9156,
      "بشک": 9157,
      "عالی": 9158,
      "بیک": 9159,
      "سرون": 9160,
      "تپاسگ": 9161,
      "ختی": 9162,
      "مچھ": 9163,
      "لوٹی": 9164,
      "گساں": 9165,
      "Jan": 9166,
      "رشتہ": 9167,
      "کیک": 9168,
      "شامی": 9169,
      "یلیں": 9170,
      "ڈولءَ": 9171,
      "گرماگ": 9172,
      "کف": 9173,
      "زرکاری": 9174,
      "زالم": 9175,
      "جلدی": 9176,
      "بستہ": 9177,
      "پھریزگ": 9178,
      "شموشگ": 9179,
      "ترتیب": 9180,
      "dra": 9181,
      "کہتے": 9182,
      "کیون": 9183,
      "مدد": 9184,
      "دیگءِ": 9185,
      "نیمگی": 9186,
      "public": 9187,
      "ریسی": 9188,
      "نگاری": 9189,
      "داؤ": 9190,
      "جنگاں": 9191,
      "تھیں": 9192,
      "رھبنداں": 9193,
      "ately": 9194,
      "مرکز": 9195,
      "جذبہ": 9196,
      "تگران": 9197,
      "گولہ": 9198,
      "گرانت": 9199,
      "ناکام": 9200,
      "پاساں": 9201,
      "راجدپترءِ": 9202,
      "وانندگیں": 9203,
      "صائمہ": 9204,
      "since": 9205,
      "تجار": 9206,
      "ٹرین": 9207,
      "داگ": 9208,
      "یونس": 9209,
      "States": 9210,
      "Ac": 9211,
      "Cl": 9212,
      "ماندارگ": 9213,
      "نزءَ": 9214,
      "اوانءِ": 9215,
      "الرحمان": 9216,
      "شیوار": 9217,
      "لوٹنت": 9218,
      "دہی": 9219,
      "زروان": 9220,
      "ڈائی": 9221,
      "ھدے": 9222,
      "شیرانی": 9223,
      "ined": 9224,
      "ime": 9225,
      "اطلا": 9226,
      "species": 9227,
      "major": 9228,
      "ارجان": 9229,
      "ڈیھاں": 9230,
      "reach": 9231,
      "ھیروپ": 9232,
      "کپی": 9233,
      "مزل": 9234,
      "ماہین": 9235,
      "انلاین": 9236,
      "count": 9237,
      "ling": 9238,
      "ذمت": 9239,
      "ضا": 9240,
      "ھجال": 9241,
      "امب": 9242,
      "موج": 9243,
      "ساچگ": 9244,
      "ained": 9245,
      "کنڈگ": 9246,
      "Mon": 9247,
      "south": 9248,
      "انانی": 9249,
      "دوزہ": 9250,
      "تراں": 9251,
      "راجدوست": 9252,
      "رائیلی": 9253,
      "گدارءِ": 9254,
      "received": 9255,
      "تمہ": 9256,
      "نقل": 9257,
      "ٹگ": 9258,
      "مناس": 9259,
      "برگی": 9260,
      "ہمارے": 9261,
      "دراھ": 9262,
      "South": 9263,
      "ھرکسی": 9264,
      "رستر": 9265,
      "سھیگ": 9266,
      "ڈھاڈر": 9267,
      "بلاہ": 9268,
      "اسرے": 9269,
      "وپسگ": 9270,
      "عابدہ": 9271,
      "بؤ": 9272,
      "نتگیں": 9273,
      "اومر": 9274,
      "زمینءَ": 9275,
      "child": 9276,
      "app": 9277,
      "سیکریٹری": 9278,
      "even": 9279,
      "اغا": 9280,
      "build": 9281,
      "list": 9282,
      "last": 9283,
      "اتمان": 9284,
      "ریچی": 9285,
      "took": 9286,
      "گورکی": 9287,
      "بابل": 9288,
      "appro": 9289,
      "class": 9290,
      "partic": 9291,
      "مچکدگ": 9292,
      "مولاب": 9293,
      "رھشونانی": 9294,
      "دئیگی": 9295,
      "ھاوند": 9296,
      "الانی": 9297,
      "سرچمگ": 9298,
      "کلانی": 9299,
      "پیلوی": 9300,
      "batt": 9301,
      "won": 9302,
      "تخت": 9303,
      "صنف": 9304,
      "امداد": 9305,
      "گیواری": 9306,
      "شوم": 9307,
      "زهر": 9308,
      "ٹکے": 9309,
      "دوزو": 9310,
      "گندیم": 9311,
      "ساحل": 9312,
      "اؤٹ": 9313,
      "ھاٹیگ": 9314,
      "مضبوط": 9315,
      "just": 9316,
      "عاص": 9317,
      "هد": 9318,
      "ھجبر": 9319,
      "کنا": 9320,
      "درکپگ": 9321,
      "کارہند": 9322,
      "سلاھ": 9323,
      "کھیں": 9324,
      "ility": 9325,
      "ھبراں": 9326,
      "Christ": 9327,
      "اسودگ": 9328,
      "قمبرانی": 9329,
      "وحید": 9330,
      "پروجیکٹ": 9331,
      "رتکگ": 9332,
      "کود": 9333,
      "گرنت": 9334,
      "ٹیل": 9335,
      "star": 9336,
      "برزءَ": 9337,
      "بگندات": 9338,
      "ہءِ": 9339,
      "اھدی": 9340,
      "نابود": 9341,
      "وائے": 9342,
      "ملتان": 9343,
      "کانون": 9344,
      "قیدی": 9345,
      "مستقبل": 9346,
      "system": 9347,
      "ہژدری": 9348,
      "تعریف": 9349,
      "بدر": 9350,
      "ھئی": 9351,
      "اساپ": 9352,
      "ملنگ": 9353,
      "جیڑھاں": 9354,
      "گردگ": 9355,
      "تحفظ": 9356,
      "رمس": 9357,
      "یاس": 9358,
      "ڈگاراں": 9359,
      "پچی": 9360,
      "پمے": 9361,
      "بنداتءَ": 9362,
      "اجکہ": 9363,
      "واریاں": 9364,
      "غیرت": 9365,
      "مڈیاں": 9366,
      "King": 9367,
      "gre": 9368,
      "بسی": 9369,
      "دکھ": 9370,
      "کات": 9371,
      "الفاظ": 9372,
      "بوری": 9373,
      "ڈیموک": 9374,
      "organ": 9375,
      "کارندھے": 9376,
      "سوڑگ": 9377,
      "ork": 9378,
      "کنٹگ": 9379,
      "wards": 9380,
      "سرور": 9381,
      "ائولی": 9382,
      "چونائیا": 9383,
      "کدیر": 9384,
      "ماہیگ": 9385,
      "ساک": 9386,
      "کسھاں": 9387,
      "گوشانی": 9388,
      "روچیگیں": 9389,
      "سربوتگ": 9390,
      "سینز": 9391,
      "ماہناز": 9392,
      "oss": 9393,
      "ویکسین": 9394,
      "قریش": 9395,
      "لق": 9396,
      "ڑاں": 9397,
      "مزاج": 9398,
      "زورگری": 9399,
      "مشکت": 9400,
      "راھبندانی": 9401,
      "علمءِ": 9402,
      "دیوالانی": 9403,
      "vari": 9404,
      "گمیگ": 9405,
      "inc": 9406,
      "کرتاں": 9407,
      "ilt": 9408,
      "described": 9409,
      "Par": 9410,
      "وءَ": 9411,
      "ھچی": 9412,
      "ایسو": 9413,
      "بوه": 9414,
      "مگا": 9415,
      "دوراں": 9416,
      "ہوارانت": 9417,
      "ains": 9418,
      "world": 9419,
      "named": 9420,
      "town": 9421,
      "band": 9422,
      "تکہ": 9423,
      "تقری": 9424,
      "کندان": 9425,
      "گوریں": 9426,
      "چریشیءَ": 9427,
      "place": 9428,
      "جئیند": 9429,
      "giv": 9430,
      "چکار": 9431,
      "کنات": 9432,
      "باث": 9433,
      "بکشاتگ": 9434,
      "ھونانی": 9435,
      "ards": 9436,
      "برنج": 9437,
      "زنداناں": 9438,
      "tober": 9439,
      "جاگه": 9440,
      "اؤس": 9441,
      "پھلی": 9442,
      "فاضلءِ": 9443,
      "October": 9444,
      "پبلک": 9445,
      "ارک": 9446,
      "جنگلے": 9447,
      "واھگے": 9448,
      "جگہ": 9449,
      "پرور": 9450,
      "جوزگ": 9451,
      "پیشرد": 9452,
      "وزم": 9453,
      "moved": 9454,
      "ھسابءَ": 9455,
      "چھاپءُ": 9456,
      "ھمراھداری": 9457,
      "طاہر": 9458,
      "عکسے": 9459,
      "پچار": 9460,
      "پشن": 9461,
      "اہمیں": 9462,
      "لیپ": 9463,
      "کنگء": 9464,
      "بارکھان": 9465,
      "مڑاہ": 9466,
      "رائع": 9467,
      "All": 9468,
      "pri": 9469,
      "تنگی": 9470,
      "هاک": 9471,
      "سربوت": 9472,
      "ery": 9473,
      "گڈسرا": 9474,
      "شئیرءِ": 9475,
      "ترمپے": 9476,
      "ایڈووکیٹ": 9477,
      "زراب": 9478,
      "اسپیکر": 9479,
      "امیتے": 9480,
      "شونکار": 9481,
      "نیکراہ": 9482,
      "ute": 9483,
      "تاس": 9484,
      "نہہ": 9485,
      "کتگءُ": 9486,
      "گشتن": 9487,
      "constru": 9488,
      "liam": 9489,
      "جدگ": 9490,
      "بلوچان": 9491,
      "وھدئے": 9492,
      "وٹس": 9493,
      "کنائین": 9494,
      "water": 9495,
      "تبلی": 9496,
      "عامر": 9497,
      "وسو": 9498,
      "چتو": 9499,
      "ازاب": 9500,
      "پینگ": 9501,
      "ماتاں": 9502,
      "جۆڑ": 9503,
      "کاز": 9504,
      "گوئی": 9505,
      "incre": 9506,
      "جنگءُ": 9507,
      "بھائیں": 9508,
      "زالے": 9509,
      "ھورک": 9510,
      "دوستیگیں": 9511,
      "صباء": 9512,
      "جبران": 9513,
      "وءِ": 9514,
      "دوبارہ": 9515,
      "اسرائیلی": 9516,
      "ابض": 9517,
      "حالاں": 9518,
      "ude": 9519,
      "تبد": 9520,
      "تاچ": 9521,
      "خش": 9522,
      "دزر": 9523,
      "ھبدہ": 9524,
      "ایات": 9525,
      "زانتءُ": 9526,
      "میانءَ": 9527,
      "حیالے": 9528,
      "ets": 9529,
      "vious": 9530,
      "باہوٹ": 9531,
      "ropical": 9532,
      "aur": 9533,
      "پھو": 9534,
      "کدو": 9535,
      "گریشگ": 9536,
      "بادشاھی": 9537,
      "ants": 9538,
      "بیزن": 9539,
      "ھرچیز": 9540,
      "زندگاں": 9541,
      "جمھوری": 9542,
      "چنڈے": 9543,
      "kill": 9544,
      "قدم": 9545,
      "نکل": 9546,
      "مانزمان": 9547,
      "زرتگیں": 9548,
      "گورن": 9549,
      "سنٹر": 9550,
      "مھکمی": 9551,
      "مھرنگ": 9552,
      "ھبکہ": 9553,
      "تھیوری": 9554,
      "غماں": 9555,
      "نخ": 9556,
      "ٹار": 9557,
      "چدو": 9558,
      "سینہ": 9559,
      "تہنائی": 9560,
      "پہمئن": 9561,
      "ڈکشن": 9562,
      "لشکریانی": 9563,
      "حرام": 9564,
      "فنڈ": 9565,
      "مران": 9566,
      "پرتو": 9567,
      "بوته": 9568,
      "گورے": 9569,
      "نائیں": 9570,
      "بوئگی": 9571,
      "اہتگ": 9572,
      "sequ": 9573,
      "حسنی": 9574,
      "روحانی": 9575,
      "واشک": 9576,
      "گڈسرءَ": 9577,
      "میاریگ": 9578,
      "شاباش": 9579,
      "wrote": 9580,
      "جوریں": 9581,
      "عب": 9582,
      "وشھال": 9583,
      "مقد": 9584,
      "ماحولی": 9585,
      "بگی": 9586,
      "همیش": 9587,
      "تولگ": 9588,
      "اگے": 9589,
      "بندیک": 9590,
      "ارگاہ": 9591,
      "ھیالداری": 9592,
      "بھرام": 9593,
      "مرادانی": 9594,
      "ادمءِ": 9595,
      "سریگ": 9596,
      "گرپتار": 9597,
      "تحریر": 9598,
      "York": 9599,
      "ارءِ": 9600,
      "ہمگرن": 9601,
      "راللہ": 9602,
      "تسلا": 9603,
      "وپاد": 9604,
      "انگریزاں": 9605,
      "نجیب": 9606,
      "July": 9607,
      "hand": 9608,
      "رژ": 9609,
      "ایدگرانی": 9610,
      "اێر": 9611,
      "Can": 9612,
      "ix": 9613,
      "شدی": 9614,
      "شرین": 9615,
      "بیہ": 9616,
      "نیلیں": 9617,
      "تیابد": 9618,
      "جرگہ": 9619,
      "اھوالکارانی": 9620,
      "اسٹیج": 9621,
      "صحی": 9622,
      "قاص": 9623,
      "نکس": 9624,
      "ھیات": 9625,
      "زینت": 9626,
      "پھز": 9627,
      "شاھین": 9628,
      "ناولٹ": 9629,
      "منظر": 9630,
      "اسلءَ": 9631,
      "مطالعہ": 9632,
      "camp": 9633,
      "سخی": 9634,
      "کڈک": 9635,
      "اداری": 9636,
      "تکلیف": 9637,
      "پارست": 9638,
      "عیسوی": 9639,
      "دودمانی": 9640,
      "درپشوکیں": 9641,
      "خرچ": 9642,
      "صلاحی": 9643,
      "چٹی": 9644,
      "انیا": 9645,
      "بلیک": 9646,
      "کمزوری": 9647,
      "کانٹ": 9648,
      "رجینتگ": 9649,
      "عنقا": 9650,
      "شاگرد": 9651,
      "یہودی": 9652,
      "بڑا": 9653,
      "پنچیں": 9654,
      "حالگش": 9655,
      "رکینت": 9656,
      "سف": 9657,
      "درملک": 9658,
      "نڈا": 9659,
      "شوهاز": 9660,
      "شکایت": 9661,
      "بئیگا": 9662,
      "ارگنائزیشن": 9663,
      "ae": 9664,
      "هک": 9665,
      "بوانی": 9666,
      "نامین": 9667,
      "موٹل": 9668,
      "ادیرہ": 9669,
      "بستارءَ": 9670,
      "نفس": 9671,
      "منطق": 9672,
      "زاهدان": 9673,
      "تھل": 9674,
      "گوشتہ": 9675,
      "due": 9676,
      "جائیکہ": 9677,
      "West": 9678,
      "رتکگیں": 9679,
      "منڈی": 9680,
      "ریلو": 9681,
      "کینگی": 9682,
      "سلاه": 9683,
      "ats": 9684,
      "نگیگی": 9685,
      "تریت": 9686,
      "نورءِ": 9687,
      "شرگداریءِ": 9688,
      "منشیات": 9689,
      "معیشت": 9690,
      "ایشن": 9691,
      "ored": 9692,
      "بالاں": 9693,
      "مرچیگ": 9694,
      "ملاقات": 9695,
      "گزران": 9696,
      "ایمانداری": 9697,
      "رتک": 9698,
      "بیگی": 9699,
      "امانت": 9700,
      "روپ": 9701,
      "لشکرے": 9702,
      "ہواں": 9703,
      "مھرانی": 9704,
      "تیابدپی": 9705,
      "پھی": 9706,
      "بلین": 9707,
      "درین": 9708,
      "دمبرتگ": 9709,
      "ہمراہیءَ": 9710,
      "کوارٹر": 9711,
      "کیونکہ": 9712,
      "پکری": 9713,
      "کدہ": 9714,
      "شاء": 9715,
      "انسٹی": 9716,
      "پراموش": 9717,
      "rown": 9718,
      "ium": 9719,
      "نسیر": 9720,
      "بیگہ": 9721,
      "کتار": 9722,
      "اوستا": 9723,
      "رچگ": 9724,
      "During": 9725,
      "much": 9726,
      "سانت": 9727,
      "وتاک": 9728,
      "سیائیں": 9729,
      "کشگا": 9730,
      "سدک": 9731,
      "راھانی": 9732,
      "تلب": 9733,
      "مضمون": 9734,
      "علاقے": 9735,
      "پشومان": 9736,
      "بگا": 9737,
      "بلوچانءِ": 9738,
      "پیشن": 9739,
      "پرچ": 9740,
      "کاؤ": 9741,
      "دورءُ": 9742,
      "مشکلیں": 9743,
      "سوبیں": 9744,
      "بیستمی": 9745,
      "واکاں": 9746,
      "قرن": 9747,
      "تجزیہ": 9748,
      "ثناء": 9749,
      "جغ": 9750,
      "واپس": 9751,
      "ارداد": 9752,
      "گنجائش": 9753,
      "fur": 9754,
      "power": 9755,
      "ممبر": 9756,
      "گزی": 9757,
      "درویش": 9758,
      "نورا": 9759,
      "زریں": 9760,
      "سرمچارے": 9761,
      "تریاک": 9762,
      "قبرستان": 9763,
      "ایجوکی": 9764,
      "رمزان": 9765,
      "جانءِ": 9766,
      "اگرچہ": 9767,
      "سامراج": 9768,
      "Apr": 9769,
      "کؤ": 9770,
      "چیری": 9771,
      "سٹنٹ": 9772,
      "پریاتاں": 9773,
      "مجمو": 9774,
      "شہرءَ": 9775,
      "single": 9776,
      "نوشتانک": 9777,
      "April": 9778,
      "کردیا": 9779,
      "ترسی": 9780,
      "کتاں": 9781,
      "گڑھ": 9782,
      "هنچو": 9783,
      "بدیاں": 9784,
      "ھدو": 9785,
      "یلو": 9786,
      "ادماں": 9787,
      "چراغ": 9788,
      "ٹپانی": 9789,
      "ماڑہ": 9790,
      "برانت": 9791,
      "شناس": 9792,
      "دومیگ": 9793,
      "پارک": 9794,
      "ently": 9795,
      "تبدی": 9796,
      "دروگے": 9797,
      "سلاہاں": 9798,
      "مسام": 9799,
      "ذہنیت": 9800,
      "وڈھ": 9801,
      "گھڑی": 9802,
      "مذھب": 9803,
      "hum": 9804,
      "زے": 9805,
      "طین": 9806,
      "میوز": 9807,
      "دوستے": 9808,
      "کہولاں": 9809,
      "سجدہ": 9810,
      "hal": 9811,
      "شب": 9812,
      "ظر": 9813,
      "کہدہ": 9814,
      "ریزی": 9815,
      "سرہال": 9816,
      "ons": 9817,
      "ature": 9818,
      "ital": 9819,
      "جندے": 9820,
      "چوناھی": 9821,
      "tempt": 9822,
      "اکہ": 9823,
      "ویں": 9824,
      "ically": 9825,
      "death": 9826,
      "مسکیں": 9827,
      "اندوہ": 9828,
      "differ": 9829,
      "گمنامیں": 9830,
      "ذرائع": 9831,
      "ٰی": 9832,
      "میرین": 9833,
      "دروشمیں": 9834,
      "مجیب": 9835,
      "Euro": 9836,
      "بیثہ": 9837,
      "دارئے": 9838,
      "گلءَ": 9839,
      "زیرک": 9840,
      "شیرکنی": 9841,
      "پاگواجہ": 9842,
      "order": 9843,
      "بیمناکیں": 9844,
      "نن": 9845,
      "سٹائی": 9846,
      "پیرمرد": 9847,
      "باوجود": 9848,
      "ove": 9849,
      "یکوئی": 9850,
      "باند": 9851,
      "شہرے": 9852,
      "بیڑبرتگ": 9853,
      "نمونگ": 9854,
      "اسپتال": 9855,
      "ٹوئٹر": 9856,
      "سخت": 9857,
      "پؤ": 9858,
      "ترسگ": 9859,
      "دلجان": 9860,
      "گنجی": 9861,
      "دکانے": 9862,
      "اسٹال": 9863,
      "Mc": 9864,
      "وشتر": 9865,
      "کیشنز": 9866,
      "پہریزگ": 9867,
      "چوہ": 9868,
      "ہمود": 9869,
      "کھڑ": 9870,
      "رؤف": 9871,
      "tra": 9872,
      "gener": 9873,
      "لوٹائینت": 9874,
      "German": 9875,
      "صب": 9876,
      "مئیگ": 9877,
      "ڈب": 9878,
      "another": 9879,
      "ادارے": 9880,
      "لانگو": 9881,
      "شئیری": 9882,
      "ships": 9883,
      "زخ": 9884,
      "مستیں": 9885,
      "سفرخان": 9886,
      "short": 9887,
      "مخلوق": 9888,
      "included": 9889,
      "وومن": 9890,
      "دکتر": 9891,
      "نانکہ": 9892,
      "ٹکٹ": 9893,
      "شتنت": 9894,
      "arm": 9895,
      "کوہءِ": 9896,
      "ement": 9897,
      "رئیسانی": 9898,
      "Sc": 9899,
      "کک": 9900,
      "اسری": 9901,
      "ایرانءَ": 9902,
      "داکٹر": 9903,
      "وزارت": 9904,
      "حدے": 9905,
      "گذ": 9906,
      "گوئر": 9907,
      "مونج": 9908,
      "گامی": 9909,
      "پرویز": 9910,
      "گڈگ": 9911,
      "وانوکانی": 9912,
      "اوتھل": 9913,
      "event": 9914,
      "Ste": 9915,
      "ؤنڈ": 9916,
      "وج": 9917,
      "ادے": 9918,
      "اپسوز": 9919,
      "لوٹے": 9920,
      "وانندگ": 9921,
      "نتیجہ": 9922,
      "ٹوہیں": 9923,
      "person": 9924,
      "right": 9925,
      "تھو": 9926,
      "میٹ": 9927,
      "کارپد": 9928,
      "پرسن": 9929,
      "استی": 9930,
      "کماشاں": 9931,
      "لائک": 9932,
      "January": 9933,
      "سادہ": 9934,
      "خرا": 9935,
      "چنگی": 9936,
      "کہتا": 9937,
      "بیگءَ": 9938,
      "نوان": 9939,
      "مندری": 9940,
      "سنس": 9941,
      "ردیت": 9942,
      "estab": 9943,
      "پشین": 9944,
      "امہ": 9945,
      "ابدی": 9946,
      "شاع": 9947,
      "دراھگ": 9948,
      "دروشماں": 9949,
      "akes": 9950,
      "سهب": 9951,
      "مادر": 9952,
      "کرزیت": 9953,
      "استین": 9954,
      "بالکل": 9955,
      "دیوانءِ": 9956,
      "within": 9957,
      "جهل": 9958,
      "شناخت": 9959,
      "England": 9960,
      "امنی": 9961,
      "پچے": 9962,
      "سرپر": 9963,
      "دربی": 9964,
      "لول": 9965,
      "کته": 9966,
      "نباں": 9967,
      "درستی": 9968,
      "ورناھانی": 9969,
      "گسءَ": 9970,
      "ڈولے": 9971,
      "pect": 9972,
      "نامینگ": 9973,
      "ians": 9974,
      "دامگ": 9975,
      "غازی": 9976,
      "لکیر": 9977,
      "مدگ": 9978,
      "چارئے": 9979,
      "دیرءَ": 9980,
      "سماج": 9981,
      "پرائ": 9982,
      "صنعتی": 9983,
      "سنگینی": 9984,
      "sent": 9985,
      "جج": 9986,
      "ارینت": 9987,
      "ملائی": 9988,
      "اڑاند": 9989,
      "سجہیں": 9990,
      "حامد": 9991,
      "ھرجاہ": 9992,
      "جنکیں": 9993,
      "left": 9994,
      "وابیں": 9995,
      "ھاندان": 9996,
      "طانوی": 9997,
      "گێشتر": 9998,
      "based": 9999,
      "cas": 10000,
      "ٰن": 10001,
      "ڈہ": 10002,
      "ھلو": 10003,
      "زانے": 10004,
      "مسترین": 10005,
      "حقیقی": 10006,
      "built": 10007,
      "fall": 10008,
      "سوگہ": 10009,
      "قیمتی": 10010,
      "حالات": 10011,
      "beli": 10012,
      "ڈسٹر": 10013,
      "ھسن": 10014,
      "اروچ": 10015,
      "انیگیں": 10016,
      "سرفراز": 10017,
      "مہے": 10018,
      "سلسلہ": 10019,
      "دارگءِ": 10020,
      "مرادساحر": 10021,
      "بودناکی": 10022,
      "ھاسٹل": 10023,
      "ملامتی": 10024,
      "اونٹ": 10025,
      "اریپیں": 10026,
      "claim": 10027,
      "Ge": 10028,
      "حشکیں": 10029,
      "کہنگیں": 10030,
      "ایگی": 10031,
      "دوسد": 10032,
      "لوگواجہ": 10033,
      "کسہے": 10034,
      "مہار": 10035,
      "شنک": 10036,
      "although": 10037,
      "کھڈ": 10038,
      "ہاسٹل": 10039,
      "تشے": 10040,
      "شۆ": 10041,
      "لبر": 10042,
      "انگلش": 10043,
      "attempt": 10044,
      "ified": 10045,
      "family": 10046,
      "االله": 10047,
      "لوچ": 10048,
      "پڑی": 10049,
      "بوئیں": 10050,
      "مریض": 10051,
      "سائل": 10052,
      "نوید": 10053,
      "March": 10054,
      "تبے": 10055,
      "خاب": 10056,
      "وتواجھی": 10057,
      "کرپشن": 10058,
      "نبشتکار": 10059,
      "پٹگ": 10060,
      "ورناھاں": 10061,
      "عاقل": 10062,
      "چاب": 10063,
      "کارانت": 10064,
      "ناجوڑی": 10065,
      "بنار": 10066,
      "تنیگ": 10067,
      "گنتر": 10068,
      "اسسٹنٹ": 10069,
      "چارشمبے": 10070,
      "شانیں": 10071,
      "کاریءِ": 10072,
      "گشتگیں": 10073,
      "اشیا": 10074,
      "شائرانی": 10075,
      "ازمءِ": 10076,
      "کنوکے": 10077,
      "لاپءَ": 10078,
      "home": 10079,
      "سانمند": 10080,
      "لڈگ": 10081,
      "games": 10082,
      "رکش": 10083,
      "برطانوی": 10084,
      "اسءَ": 10085,
      "دلبر": 10086,
      "گپا": 10087,
      "شرک": 10088,
      "دزاپ": 10089,
      "گیشینت": 10090,
      "پژدرءَ": 10091,
      "حیا": 10092,
      "مکھیں": 10093,
      "اوژناگ": 10094,
      "third": 10095,
      "سون": 10096,
      "یاسین": 10097,
      "مارکسی": 10098,
      "جنجالے": 10099,
      "کامل": 10100,
      "que": 10101,
      "نیزگار": 10102,
      "رسال": 10103,
      "گدانی": 10104,
      "بیگل": 10105,
      "ردل": 10106,
      "پدرا": 10107,
      "پگرءِ": 10108,
      "صورتءَ": 10109,
      "انتظامی": 10110,
      "غذ": 10111,
      "منئ": 10112,
      "تہران": 10113,
      "گندگی": 10114,
      "ense": 10115,
      "دانا": 10116,
      "حالے": 10117,
      "سرکارءَ": 10118,
      "دھلیءِ": 10119,
      "نیوی": 10120,
      "لونک": 10121,
      "نامءِ": 10122,
      "سوزیں": 10123,
      "درنگاز": 10124,
      "سویڈن": 10125,
      "پھنات": 10126,
      "کیفیت": 10127,
      "زدھمی": 10128,
      "سءِ": 10129,
      "کرشی": 10130,
      "دارگءَ": 10131,
      "چونا": 10132,
      "مرگی": 10133,
      "باقاعدہ": 10134,
      "ہوگا": 10135,
      "علت": 10136,
      "پوریاگر": 10137,
      "jo": 10138,
      "دلکش": 10139,
      "مولا": 10140,
      "دورانی": 10141,
      "گورانی": 10142,
      "خواتین": 10143,
      "turn": 10144,
      "پئو": 10145,
      "گیراں": 10146,
      "ہوری": 10147,
      "لیکہے": 10148,
      "سوشلسٹ": 10149,
      "هوار": 10150,
      "ریھان": 10151,
      "گلگدار": 10152,
      "ڈیہ": 10153,
      "رنگا": 10154,
      "best": 10155,
      "school": 10156,
      "ٹاہی": 10157,
      "وڑےءَ": 10158,
      "لبزپہ": 10159,
      "کنانءَ": 10160,
      "dest": 10161,
      "بلیدی": 10162,
      "Nove": 10163,
      "ting": 10164,
      "ڈلگ": 10165,
      "previous": 10166,
      "نفرت": 10167,
      "لاب": 10168,
      "چانگ": 10169,
[...]
