<pad>	0
<unk>	0
<s>	0
</s>	0
[CLS]	0
[SEP]	0
[MASK]	0
<0x00>	0
<0x01>	0
<0x02>	0
<0x03>	0
<0x04>	0
<0x05>	0
<0x06>	0
<0x07>	0
<0x08>	0
<0x09>	0
<0x0A>	0
<0x0B>	0
<0x0C>	0
<0x0D>	0
<0x0E>	0
<0x0F>	0
<0x10>	0
<0x11>	0
<0x12>	0
<0x13>	0
<0x14>	0
<0x15>	0
<0x16>	0
<0x17>	0
<0x18>	0
<0x19>	0
<0x1A>	0
<0x1B>	0
<0x1C>	0
<0x1D>	0
<0x1E>	0
<0x1F>	0
<0x20>	0
<0x21>	0
<0x22>	0
<0x23>	0
<0x24>	0
<0x25>	0
<0x26>	0
<0x27>	0
<0x28>	0
<0x29>	0
<0x2A>	0
<0x2B>	0
<0x2C>	0
<0x2D>	0
<0x2E>	0
<0x2F>	0
<0x30>	0
<0x31>	0
<0x32>	0
<0x33>	0
<0x34>	0
<0x35>	0
<0x36>	0
<0x37>	0
<0x38>	0
<0x39>	0
<0x3A>	0
<0x3B>	0
<0x3C>	0
<0x3D>	0
<0x3E>	0
<0x3F>	0
<0x40>	0
<0x41>	0
<0x42>	0
<0x43>	0
<0x44>	0
<0x45>	0
<0x46>	0
<0x47>	0
<0x48>	0
<0x49>	0
<0x4A>	0
<0x4B>	0
<0x4C>	0
<0x4D>	0
<0x4E>	0
<0x4F>	0
<0x50>	0
<0x51>	0
<0x52>	0
<0x53>	0
<0x54>	0
<0x55>	0
<0x56>	0
<0x57>	0
<0x58>	0
<0x59>	0
<0x5A>	0
<0x5B>	0
<0x5C>	0
<0x5D>	0
<0x5E>	0
<0x5F>	0
<0x60>	0
<0x61>	0
<0x62>	0
<0x63>	0
<0x64>	0
<0x65>	0
<0x66>	0
<0x67>	0
<0x68>	0
<0x69>	0
<0x6A>	0
<0x6B>	0
<0x6C>	0
<0x6D>	0
<0x6E>	0
<0x6F>	0
<0x70>	0
<0x71>	0
<0x72>	0
<0x73>	0
<0x74>	0
<0x75>	0
<0x76>	0
<0x77>	0
<0x78>	0
<0x79>	0
<0x7A>	0
<0x7B>	0
<0x7C>	0
<0x7D>	0
<0x7E>	0
<0x7F>	0
<0x80>	0
<0x81>	0
<0x82>	0
<0x83>	0
<0x84>	0
<0x85>	0
<0x86>	0
<0x87>	0
<0x88>	0
<0x89>	0
<0x8A>	0
<0x8B>	0
<0x8C>	0
<0x8D>	0
<0x8E>	0
<0x8F>	0
<0x90>	0
<0x91>	0
<0x92>	0
<0x93>	0
<0x94>	0
<0x95>	0
<0x96>	0
<0x97>	0
<0x98>	0
<0x99>	0
<0x9A>	0
<0x9B>	0
<0x9C>	0
<0x9D>	0
<0x9E>	0
<0x9F>	0
<0xA0>	0
<0xA1>	0
<0xA2>	0
<0xA3>	0
<0xA4>	0
<0xA5>	0
<0xA6>	0
<0xA7>	0
<0xA8>	0
<0xA9>	0
<0xAA>	0
<0xAB>	0
<0xAC>	0
<0xAD>	0
<0xAE>	0
<0xAF>	0
<0xB0>	0
<0xB1>	0
<0xB2>	0
<0xB3>	0
<0xB4>	0
<0xB5>	0
<0xB6>	0
<0xB7>	0
<0xB8>	0
<0xB9>	0
<0xBA>	0
<0xBB>	0
<0xBC>	0
<0xBD>	0
<0xBE>	0
<0xBF>	0
<0xC0>	0
<0xC1>	0
<0xC2>	0
<0xC3>	0
<0xC4>	0
<0xC5>	0
<0xC6>	0
<0xC7>	0
<0xC8>	0
<0xC9>	0
<0xCA>	0
<0xCB>	0
<0xCC>	0
<0xCD>	0
<0xCE>	0
<0xCF>	0
<0xD0>	0
<0xD1>	0
<0xD2>	0
<0xD3>	0
<0xD4>	0
<0xD5>	0
<0xD6>	0
<0xD7>	0
<0xD8>	0
<0xD9>	0
<0xDA>	0
<0xDB>	0
<0xDC>	0
<0xDD>	0
<0xDE>	0
<0xDF>	0
<0xE0>	0
<0xE1>	0
<0xE2>	0
<0xE3>	0
<0xE4>	0
<0xE5>	0
<0xE6>	0
<0xE7>	0
<0xE8>	0
<0xE9>	0
<0xEA>	0
<0xEB>	0
<0xEC>	0
<0xED>	0
<0xEE>	0
<0xEF>	0
<0xF0>	0
<0xF1>	0
<0xF2>	0
<0xF3>	0
<0xF4>	0
<0xF5>	0
<0xF6>	0
<0xF7>	0
<0xF8>	0
<0xF9>	0
<0xFA>	0
<0xFB>	0
<0xFC>	0
<0xFD>	0
<0xFE>	0
<0xFF>	0
▁ءَ	-3.03565
▁ءِ	-3.3623
▁ءُ	-3.63368
▁کہ	-4.07378
▁انت	-4.17251
,	-4.324
▁ء	-4.73692
▁اے	-4.79895
▁ات	-4.89986
▁,	-4.9432
▁نہ	-4.97904
▁وتی	-5.02488
▁چہ	-5.12963
▁۔	-5.21985
▁من	-5.24481
▁	-5.28947
▁یک	-5.30469
▁ائی	-5.30999
▁ا	-5.38291
▁انت۔	-5.41164
▁بیت	-5.44578
▁کنگ	-5.50392
▁گوں	-5.50535
▁و	-5.52887
▁بہ	-5.54691
▁پہ	-5.55052
ءِ	-5.56959
▁(	-5.62188
ءَ	-5.63281
▁:	-5.64527
انی	-5.66595
اں	-5.68668
ی	-5.71977
یں	-5.76071
▁سر	-5.77973
ے	-5.82155
▁بلوچ	-5.82919
▁بوتگ	-5.83428
▁)	-5.91191
۔	-5.9275
▁.	-5.92995
▁the	-5.95861
▁بلے	-5.99633
s	-6.0292
▁منی	-6.02987
▁ئے	-6.03495
▁کنت	-6.09997
▁ھم	-6.11517
▁تو	-6.11881
▁کتگ	-6.14419
ءُ	-6.15685
▁بوت	-6.16211
ا	-6.19732
▁بیتگ	-6.22472
▁بے	-6.24349
)	-6.24769
▁کن	-6.2516
▁مردم	-6.25997
▁ئ	-6.26757
.	-6.2728
:	-6.27663
▁بلوچستان	-6.29253
▁ما	-6.30385
▁تہ	-6.386
▁تہا	-6.38873
▁دیم	-6.39879
▁ھمے	-6.40481
▁یا	-6.42671
▁کار	-6.44347
ed	-6.44798
▁"	-6.45905
▁پد	-6.46374
▁کت	-6.46617
▁بلوچی	-6.47084
▁مئے	-6.49318
▁دگہ	-6.49457
▁گپ	-6.52409
▁ہم	-6.53899
▁ات۔	-6.55252
▁’’	-6.56113
▁وت	-6.5921
▁گڑا	-6.62125
▁روچ	-6.62459
▁تئی	-6.628
▁دو	-6.65415
▁سرا	-6.66634
▁دل	-6.6731
▁of	-6.68481
▁نام	-6.7462
▁رد	-6.75039
▁کے	-6.75123
▁ایت	-6.78392
▁جنگ	-6.79845
▁and	-6.80197
▁کرتگ	-6.80343
▁بنت	-6.80955
▁پدا	-6.81277
▁زبان	-6.81392
▁بیت۔	-6.81768
?	-6.83968
▁ھما	-6.84664
▁باز	-6.84843
▁را	-6.85992
▁اگاں	-6.87087
▁پر	-6.879
▁گوشتگ	-6.88283
▁بی	-6.88645
▁بازیں	-6.88939
▁چو	-6.8982
‘‘	-6.90008
▁ہما	-6.90496
▁ہمے	-6.91919
▁ایشی	-6.9282
ان	-6.94051
▁دست	-6.9457
▁لوٹ	-6.95312
▁سے	-6.95527
▁اں	-6.97438
▁یے	-6.97873
▁کی	-6.98172
▁ماں	-6.98271
▁in	-7.00436
▁to	-7.01695
ہ	-7.01769
▁مردمانی	-7.04502
▁مہ	-7.04827
▁تہءَ	-7.05594
▁نیمگ	-7.06731
▁در	-7.07291
▁میں	-7.07503
▁a	-7.09145
▁پاکستانی	-7.10168
▁ایں	-7.10489
▁چے	-7.10932
▁زند	-7.12701
▁جوڑ	-7.13047
▁ھال	-7.13443
ء	-7.13502
▁کرت	-7.14387
(	-7.14784
▁دومی	-7.15363
▁نبشتہ	-7.16143
▁زانت	-7.16303
ن	-7.16496
▁اور	-7.17168
▁وھد	-7.17797
▁ترا	-7.18044
▁مزنیں	-7.18553
▁دیگ	-7.18718
▁سک	-7.18753
▁‘‘	-7.19493
▁دور	-7.19574
▁اس	-7.19873
▁پوج	-7.19943
▁واجہ	-7.19964
▁که	-7.20843
▁نوں	-7.20927
...	-7.2183
▁گل	-7.22148
ئے	-7.23162
▁بند	-7.23305
▁پیش	-7.23711
▁چار	-7.23992
▁داتگ	-7.24358
!	-7.2489
▁دات	-7.24983
▁رند	-7.26239
▁ہر	-7.27141
▁خان	-7.27215
ing	-7.29665
▁ایر	-7.30371
▁کنت۔	-7.30554
▁گیش	-7.30988
▁رنگ	-7.31209
▁مردماں	-7.3197
▁ھچ	-7.3222
▁دمگ	-7.32978
▁￴	-7.33189
▁شپ	-7.33386
▁=	-7.33534
▁زانگ	-7.33536
▁شنگ	-7.33767
▁نوکیں	-7.33913
▁ھر	-7.34638
▁سال	-7.34817
▁جان	-7.35842
▁ارش	-7.36536
▁داں	-7.36635
▁گوشت	-7.37888
▁مارا	-7.38782
▁اپ	-7.38828
▁کا	-7.38861
▁کتاب	-7.38937
▁کنان	-7.38973
▁کس	-7.39272
▁اللہ	-7.39666
▁جست	-7.40856
▁راج	-7.42426
ئ	-7.43529
▁نیست	-7.43681
▁جاہ	-7.44803
▁بوتگ۔	-7.44989
ت	-7.46447
▁راہ	-7.46565
▁اش	-7.47065
▁میر	-7.4756
▁گوش	-7.47563
▁ہے	-7.4768
▁اوار	-7.47839
▁وش	-7.47877
▁ایش	-7.4835
y	-7.49014
”	-7.49122
’’	-7.50193
▁گیشتر	-7.51038
▁ھوار	-7.51071
▁گوشگ	-7.51387
▁لوگ	-7.51652
▁ایانی	-7.5194
▁دنیا	-7.52009
▁لشکر	-7.52372
▁کم	-7.52596
▁سرءَ	-7.53156
▁”	-7.53994
▁او	-7.54283
▁توار	-7.54304
▁سی	-7.55179
▁کو	-7.55393
▁اتگ	-7.56421
▁اولی	-7.57081
گ	-7.57277
▁اوں	-7.57587
▁مان	-7.58106
▁'	-7.58892
"	-7.59458
▁وھدے	-7.60153
و	-7.60785
ین	-7.6088
▁گندگ	-7.6108
▁وڑ	-7.61449
وں	-7.62317
▁بیگواہ	-7.62978
▁جتگ	-7.62996
▁گوستگیں	-7.63153
▁“	-7.63232
▁یکے	-7.64121
▁چک	-7.64202
▁کش	-7.65034
▁ائیءِ	-7.6512
▁بزاں	-7.6668
▁دوست	-7.66717
▁بوگ	-7.66908
▁دار	-7.67149
▁was	-7.67484
▁گشت	-7.67928
▁بس	-7.68025
▁لبزانک	-7.69021
▁وڑیں	-7.69154
▁چم	-7.69271
▁گشتگ	-7.69693
▁بلئے	-7.70415
▁پاکستان	-7.70588
▁بلکیں	-7.71157
▁ماہ	-7.71183
▁گ	-7.71796
@	-7.72053
▁چیزے	-7.72298
▁گون	-7.72578
▁برجاہ	-7.72813
▁@	-7.73052
▁درشان	-7.7368
▁ھست	-7.73753
▁دیما	-7.74205
▁اچ	-7.74598
▁مردمے	-7.74727
▁چیز	-7.75213
▁زور	-7.75682
▁ابید	-7.75721
▁اتکگ	-7.7633
▁محمد	-7.76632
▁وانگ	-7.76714
▁مروچی	-7.77263
▁بن	-7.777
▁پشت	-7.77822
ک	-7.78994
▁شاعری	-7.7941
▁کسے	-7.79641
▁زمین	-7.79877
▁The	-7.81695
▁چشکہ	-7.81902
▁شال	-7.81991
▁بیتگیں	-7.82182
▁￵	-7.82198
▁ن	-7.82319
▁ائرا	-7.8235
▁ائیءَ	-7.82572
▁بدل	-7.82779
▁سرپد	-7.82827
▁ازمانک	-7.82863
▁کر	-7.82894
نگ	-7.83227
▁منا	-7.83324
▁اتک	-7.83387
▁سرجمیں	-7.83615
▁بندات	-7.83789
▁بیران	-7.84116
▁سوب	-7.84197
▁ملک	-7.84481
▁ان	-7.84841
▁دنت	-7.85059
▁مات	-7.85146
▁مراد	-7.85175
▁راجی	-7.85937
▁مزن	-7.85979
▁مدام	-7.85993
▁زھرشانی	-7.86071
▁تر	-7.86318
▁اتنت	-7.86467
▁انگت	-7.86799
▁ڈاکٹر	-7.8695
-	-7.87028
▁مرچی	-7.87627
▁ھیال	-7.87777
▁دارگ	-7.88025
▁چست	-7.88452
▁دی	-7.88632
▁بنت۔	-7.88835
من	-7.89118
▁پچ	-7.8925
▁شر	-7.89358
▁کناں	-7.89483
▁پاد	-7.897
▁[...]	-7.89792
▁سیاسی	-7.90119
▁برے	-7.90139
▁انچیں	-7.90196
▁انسان	-7.90245
▁دیوان	-7.90304
▁میان	-7.90635
▁کپتگ	-7.91051
▁واب	-7.91531
▁نے	-7.92416
▁پی	-7.92427
▁حیال	-7.92852
▁ہچ	-7.92879
▁کشگ	-7.93278
▁بوت۔	-7.9329
▁کدی	-7.93743
ly	-7.93753
▁است	-7.93756
▁تاں	-7.93948
▁این	-7.94089
▁انچو	-7.94164
اے	-7.94942
▁مرد	-7.95757
▁ئیں	-7.96012
ائی	-7.96265
▁بوتگیں	-7.96481
▁کسہ	-7.96602
▁بہر	-7.97504
▁ادا	-7.97511
▁رجانک	-7.97787
▁پٹ	-7.98411
▁کجام	-7.98537
▁شت	-7.98591
▁زر	-7.99367
▁سلاہ	-7.99423
▁شما	-7.99641
▁پت	-8.00605
▁ایاں	-8.00917
▁دروشم	-8.01053
▁سبب	-8.01697
▁چی	-8.02531
▁کراچی	-8.02561
▁کمک	-8.02756
▁گور	-8.03267
▁پرچا	-8.03281
▁ملا	-8.03844
▁بر	-8.04174
▁جتا	-8.04368
‘	-8.04403
▁جتائیں	-8.04586
▁جند	-8.0549
نت	-8.06171
▁پولیس	-8.06514
▁دپ	-8.06734
▁جارکش	-8.06756
▁گڈا	-8.06851
▁سرجم	-8.07427
▁as	-8.07465
▁گار	-8.07722
▁that	-8.07743
▁چه	-8.07951
▁اباد	-8.08008
▁ایوک	-8.08014
▁تران	-8.08556
▁ایشانی	-8.08679
▁یل	-8.09019
کہ	-8.09325
▁with	-8.09334
▁on	-8.0937
▁حال	-8.09399
▁مرگ	-8.10107
▁پنچ	-8.10778
▁for	-8.11285
▁کجا	-8.1143
▁چاگرد	-8.11977
▁گاڑی	-8.12245
ں	-8.12538
▁?	-8.12663
▁اجوئی	-8.12719
▁بابت	-8.13384
▁کتگ۔	-8.14121
▁برتگ	-8.14195
ات	-8.14226
ر	-8.1456
▁ایل	-8.14788
▁بیان	-8.15267
▁شھر	-8.15696
▁بھر	-8.15781
▁کیچ	-8.16121
▁چیر	-8.16629
▁اسر	-8.16866
▁پیسر	-8.16894
▁نزیک	-8.17039
▁کرتگ۔	-8.1708
▁واستا	-8.17084
م	-8.17215
▁شاہ	-8.17634
▁کت۔	-8.18028
▁راست	-8.18168
▁انسانی	-8.18265
▁دراھیں	-8.18902
▁بیگ	-8.18979
▁ایک	-8.18994
▁جن	-8.20428
▁کپ	-8.20587
▁جت	-8.20771
▁زندگ	-8.20912
▁الم	-8.21464
▁پوسٹ	-8.21758
▁نا	-8.21809
▁ترس	-8.21866
▁سید	-8.21934
▁وہد	-8.22372
▁کارمرز	-8.22731
▁by	-8.22745
▁لیکہ	-8.23021
▁جھد	-8.23038
▁جنین	-8.23052
▁میتگ	-8.2312
▁!	-8.23719
▁اتاں	-8.24136
▁سنگت	-8.24177
▁ودی	-8.24376
▁زندگی	-8.24487
▁روگ	-8.24512
▁بیا	-8.24569
▁گشگ	-8.24774
▁بکن	-8.24852
انت	-8.24884
▁چون	-8.2506
▁پیم	-8.25861
▁بیست	-8.25977
▁پجار	-8.26158
▁گر	-8.26223
▁چریشی	-8.26394
▁یات	-8.2651
ل	-8.26616
▁is	-8.26647
▁کیت	-8.27148
▁برز	-8.27481
▁راستی	-8.27801
▁ھاتر	-8.27972
▁اہانی	-8.27982
▁گوادر	-8.27989
▁گپت	-8.28241
▁شہ	-8.28295
▁اود	-8.28336
▁کپت	-8.28378
▁بندیں	-8.28467
▁جہد	-8.28509
▁زورانسری	-8.28681
▁مہر	-8.28998
▁چارگ	-8.29221
▁درد	-8.29941
▁دوئیں	-8.29996
▁be	-8.30504
▁￶	-8.30846
▁کسانیں	-8.30986
e	-8.31059
▁ٹی	-8.31082
▁ڈی	-8.3111
▁واری	-8.31206
▁اشی	-8.31299
▁تیرگواری	-8.31538
▁نشتگ	-8.3158
▁برات	-8.31736
▁ایم	-8.31755
▁نشانگ	-8.32149
▁ادم	-8.32366
▁وڑا	-8.32662
▁دیست	-8.32671
▁ھالانی	-8.33144
▁تربت	-8.33899
▁مستریں	-8.3419
▁منءَ	-8.34325
▁چوش	-8.34491
▁درگت	-8.34553
ه	-8.34621
▁وئیل	-8.35167
▁شریں	-8.35264
▁شاعر	-8.35616
▁وھدیکہ	-8.36384
▁گرگ	-8.36615
▁تاوان	-8.36758
▁پدر	-8.3677
▁برگ	-8.36882
▁’	-8.37409
۔۔۔	-8.37471
“	-8.37593
▁تب	-8.3781
▁په	-8.37943
▁کساس	-8.38111
▁ے	-8.38163
’	-8.38375
▁زمانگ	-8.38387
▁ہیں	-8.38429
▁ھند	-8.38658
▁ساری	-8.3903
▁کوہ	-8.39063
▁جوانیں	-8.39151
▁بیتگ۔	-8.39351
▁ار	-8.39478
▁ورنا	-8.39789
▁داد	-8.4005
▁نی	-8.40226
▁ارگ	-8.40471
▁داریت	-8.40861
▁سد	-8.40897
▁زمہ	-8.41277
d	-8.41284
▁سما	-8.41387
▁علی	-8.4185
▁سرکار	-8.42194
▁ہے۔	-8.42273
▁کاری	-8.42622
▁بلکنا	-8.42756
▁وہدے	-8.4297
▁؂	-8.43701
▁ملکی	-8.43709
▁شعر	-8.43768
▁کنوکیں	-8.43778
▁تک	-8.44331
▁روان	-8.44379
▁کئے	-8.44517
▁اسلام	-8.44579
▁جی	-8.45008
▁دیر	-8.45054
▁یہ	-8.45148
▁چاپ	-8.45488
▁اد	-8.45708
▁شتگ	-8.45721
▁جو	-8.45818
▁یلہ	-8.45871
▁وزیر	-8.45927
▁گپتگ	-8.45931
▁بنی	-8.46147
▁جنت	-8.46262
▁پل	-8.46265
▁کارے	-8.46388
▁زان	-8.46413
▁چشیں	-8.4661
ز	-8.46621
▁بازار	-8.46739
▁پول	-8.47341
▁جنک	-8.47364
ش	-8.47392
▁سیادی	-8.47403
▁زاناں	-8.47475
▁نبشتانک	-8.47758
▁دلگوش	-8.47766
▁نیم	-8.47935
▁زرتگ	-8.48024
▁ھبر	-8.4804
▁چاگردی	-8.48117
▁داشت	-8.48475
▁ورگ	-8.48545
▁سردار	-8.48915
▁هم	-8.48949
▁لچہ	-8.49169
▁ناں	-8.49188
▁کتگیں	-8.49531
▁بھی	-8.49651
▁نوک	-8.49654
▁روچے	-8.49992
▁اھانی	-8.50258
▁جیڑہ	-8.5063
▁گران	-8.50664
▁گڈی	-8.50697
▁تھا	-8.51093
▁سرمچاراں	-8.51094
▁شش	-8.51115
▁کاروان	-8.51355
نہ	-8.51877
▁ایس	-8.51986
▁اردو	-8.52043
▁زندءِ	-8.5205
▁جاگہ	-8.52128
▁کل	-8.52236
▁ایت۔	-8.52827
▁کرتگیں	-8.52873
یت	-8.53006
▁ھمک	-8.5302
س	-8.53453
▁بوھگ	-8.5352
▁from	-8.53556
▁دگ	-8.5365
▁شیر	-8.53814
▁لس	-8.53999
▁ھمیش	-8.54046
▁زہرشانی	-8.54377
▁ٹپی	-8.54397
▁تا	-8.54431
▁مارشت	-8.54456
▁نیمگا	-8.54667
▁ایران	-8.5476
▁گس	-8.55131
▁وہ	-8.55637
▁گمان	-8.55665
▁ایرانی	-8.55929
▁کھول	-8.55965
▁ھلاپ	-8.56083
▁ھاترا	-8.5621
▁ازم	-8.56596
▁بد	-8.56662
▁کرد	-8.5675
▁وار	-8.56802
▁بچار	-8.56887
▁لبز	-8.56909
▁رو	-8.56992
▁کور	-8.57042
▁اہاں	-8.57046
▁چماں	-8.57287
▁راجدپتر	-8.57662
▁اماچ	-8.58166
▁سروک	-8.58389
▁گال	-8.58549
▁گش	-8.58575
▁لہتیں	-8.58865
▁کنیں	-8.58939
▁باریں	-8.59187
▁رس	-8.59294
▁his	-8.59467
▁لوٹیت	-8.5956
▁دیستگ	-8.59644
▁گورا	-8.59859
▁پس	-8.60059
▁درا	-8.60179
▁مھلوک	-8.60192
▁بار	-8.6024
▁دژمن	-8.60439
▁ھلاس	-8.60652
▁تاک	-8.61521
چہ	-8.61558
▁ڈن	-8.6157
▁at	-8.61657
▁بوان	-8.61738
بلے	-8.61759
▁بنجاھی	-8.62259
▁دئیگ	-8.62642
وتی	-8.62903
▁درست	-8.63316
▁دہ	-8.63379
▁جاور	-8.63385
▁گند	-8.63689
▁بو	-8.63883
▁گوات	-8.6411
▁نیام	-8.6412
▁دزگیر	-8.64977
▁رسول	-8.651
▁ہوار	-8.65359
▁احمد	-8.65388
▁پنجگور	-8.66016
▁پسو	-8.66149
▁لبزانکی	-8.66555
▁زدگ	-8.6656
▁مال	-8.66695
یا	-8.66703
یک	-8.66762
▁دیمءَ	-8.66877
▁الله	-8.67385
▁زوت	-8.67449
▁ایشاں	-8.6752
▁کشتگ	-8.67638
▁لٹ	-8.67714
▁کلات	-8.67843
▁کوش	-8.6805
▁واستہ	-8.68052
▁کٹ	-8.68313
▁بگیری	-8.68495
▁لگ	-8.68518
......	-8.68659
▁بیگواھیں	-8.68685
▁باں	-8.69857
▁جون	-8.70228
▁مہلوک	-8.70252
▁کمیٹی	-8.7028
▁ت	-8.70358
▁وھدی	-8.70382
تو	-8.70551
▁یکیں	-8.70711
▁جہل	-8.70783
▁شہر	-8.70807
▁ریاست	-8.71001
▁وتا	-8.71011
;	-8.71537
▁لبریش	-8.72026
▁گپے	-8.72364
▁بندی	-8.72933
▁چوں	-8.73241
▁بلوچانی	-8.73315
▁were	-8.73341
▁کوئٹہ	-8.73405
..	-8.73445
▁نہیں	-8.73618
▁علم	-8.74149
▁بخش	-8.74514
▁عمل	-8.74774
▁ساہ	-8.75007
▁بکنت	-8.75228
سگ	-8.75364
▁ایدگہ	-8.75447
▁توک	-8.75945
▁روچاں	-8.75954
▁ردءَ	-8.76192
▁کشی	-8.76224
▁حکومت	-8.76426
▁نودربر	-8.76711
▁المی	-8.7698
▁ک	-8.76993
▁رنگیں	-8.77158
▁تچک	-8.77257
▁داشتگ	-8.77324
▁بنجل	-8.77508
▁it	-8.77537
▁ساحر	-8.77592
▁لاش	-8.77663
▁بال	-8.77856
▁پمیشا	-8.78136
▁‘	-8.78322
▁تاکدیم	-8.78527
▁نه	-8.7858
▁زالبول	-8.78654
▁زوراکی	-8.7868
▁بچ	-8.78814
▁کچ	-8.78832
▁جار	-8.78938
▁کنگی	-8.7911
▁دمگاں	-8.79168
▁رسانکدر	-8.79288
▁وتءَ	-8.79472
▁شھید	-8.79716
▁عمر	-8.79918
▁قوم	-8.8011
▁وشی	-8.80192
▁سیاہ	-8.80206
▁زرت	-8.80251
▁ایف	-8.80574
▁ناشناسیں	-8.80585
▁م	-8.80663
▁دے	-8.80802
▁پیداک	-8.8107
▁ٹک	-8.81143
▁گیر	-8.81261
▁سرکاری	-8.81273
▁گچین	-8.81468
▁سیاست	-8.81531
▁دمگی	-8.81589
▁ہو	-8.81655
▁استاد	-8.81702
▁فلسفہ	-8.81792
▁کاراں	-8.81852
▁بات	-8.81952
▁اھاں	-8.81985
▁سئے	-8.82148
▁ال	-8.82429
▁پمیشکا	-8.82963
پہ	-8.82968
▁روکپتی	-8.82969
▁تیر	-8.83289
▁اودا	-8.83296
t	-8.8332
▁درستیں	-8.83323
▁انی	-8.83386
▁کارانی	-8.8348
▁چمانی	-8.83587
منی	-8.83714
▁کئیت	-8.83724
▁کہول	-8.83728
▁ازات	-8.83757
زورگریں	-8.83833
▁مھر	-8.84046
▁بل	-8.84095
▁روت	-8.84187
▁باسک	-8.84303
▁پیر	-8.84325
▁اشانی	-8.84433
▁""	-8.84476
د	-8.84574
▁مکران	-8.84684
▁ئی	-8.84907
▁وسلم	-8.85044
▁ڈول	-8.85067
▁ھزار	-8.85192
ما	-8.85423
▁صاحب	-8.85539
▁چیا	-8.85602
▁سفر	-8.85722
▁کیا	-8.85787
▁گدار	-8.86018
▁درائیں	-8.86162
▁بستگ	-8.86547
▁دانکہ	-8.86706
▁ھدا	-8.87044
▁امیت	-8.87069
▁درور	-8.87134
▁دوستی	-8.87152
▁شائری	-8.87255
▁شمئے	-8.87306
▁سرپدی	-8.87345
▁حق	-8.87499
▁زورگ	-8.87942
▁پریس	-8.88311
▁تاریخ	-8.88362
سر	-8.88373
▁چش	-8.88771
▁زھگ	-8.88905
▁In	-8.88909
▁پیلو	-8.89387
▁نند	-8.8946
▁سنگ	-8.89607
▁مند	-8.89669
▁چپ	-8.89785
▁تہنا	-8.89851
▁اکیڈمی	-8.89889
▁شری	-8.89928
▁شوھاز	-8.9003
▁واتر	-8.90033
al	-8.90087
▁he	-8.90248
▁دود	-8.90365
▁کسی	-8.90532
▁پروش	-8.90676
▁ہند	-8.90711
▁ئے۔	-8.90808
▁چیریں	-8.9084
▁نیمگءَ	-8.90928
▁ہست	-8.90991
▁۔۔۔	-8.91141
▁an	-8.91241
▁واھگ	-8.913
بلوچی	-8.91503
▁کسان	-8.91558
▁مار	-8.91704
....	-8.91744
▁وشیں	-8.91748
▁چل	-8.91806
▁ھور	-8.91838
▁گشیت	-8.92142
▁کننت	-8.92292
▁گیشیں	-8.92375
▁بانک	-8.9238
نی	-8.92385
▁ایگ	-8.92569
▁حدا	-8.92584
▁کنوک	-8.92969
ب	-8.93066
▁دین	-8.93159
▁بزانت	-8.93305
▁بنا	-8.93356
▁ھساب	-8.93582
▁نسبت	-8.93621
▁نبشتگ	-8.93667
▁وارت	-8.93751
بہ	-8.94159
▁نشان	-8.9434
▁اتنت۔	-8.94657
▁معنا	-8.94694
▁ارمی	-8.94839
▁تانکہ	-8.94961
er	-8.95051
▁مری	-8.95204
▁مچی	-8.9529
▁مٹ	-8.95295
▁دم	-8.95306
▁بوئگ	-8.95501
▁به	-8.95789
غ	-8.96151
▁حساب	-8.96156
▁مچ	-8.96168
▁لاپ	-8.96375
▁بیڑ	-8.96646
▁بندوک	-8.96663
▁حبر	-8.96678
▁جنان	-8.96822
▁گوازی	-8.97047
▁اف	-8.97182
▁کنئگ	-8.97214
▁دیمروئی	-8.9748
▁استمانی	-8.975
▁مانا	-8.97548
▁پکر	-8.97835
▁پگر	-8.97958
ێں	-8.9799
▁بگٹی	-8.98009
▁had	-8.98047
▁سپر	-8.98064
▁ادب	-8.98088
گوں	-8.98264
▁ارزشت	-8.98295
▁چونیں	-8.98345
▁ہمیش	-8.98486
▁ٹولی	-8.98564
▁گم	-8.98827
▁ہی	-8.98938
▁چوشیں	-8.99172
▁بگر	-8.99226
نا	-8.99365
▁قصہ	-8.99613
▁سیمی	-8.99781
▁د	-8.99912
▁ہمک	-9.00037
▁ر	-9.00183
▁نان	-9.00307
▁ادارہ	-9.00456
▁;	-9.00529
▁کشت	-9.00739
▁مرتگ	-9.00917
▁باروا	-9.01071
▁انچش	-9.01099
▁درستاں	-9.01241
▁برجم	-9.01296
▁which	-9.01328
▁کنگا	-9.01547
▁کماش	-9.01685
▁فاضل	-9.01984
▁برت	-9.02056
▁چاران	-9.02081
▁هما	-9.02553
▁پارٹی	-9.02576
▁ردا	-9.02723
▁دلءَ	-9.02739
▁گوست	-9.02925
▁کارمند	-9.02936
▁ادءَ	-9.02948
▁ازمان	-9.03001
▁گٹ	-9.03008
▁گپاں	-9.03031
▁ھشت	-9.033
▁نندانک	-9.03682
ار	-9.03828
▁دیان	-9.04243
▁بنیاد	-9.04503
▁سنگتاں	-9.04662
▁نظام	-9.04684
▁فارسی	-9.04691
▁دستونک	-9.04872
▁دنت۔	-9.05727
▁ناز	-9.05783
▁بیگواہیں	-9.05856
▁ساڑی	-9.05941
▁کنگءَ	-9.05992
▁ی	-9.06148
▁ایں۔	-9.0623
▁دراج	-9.06308
▁حمل	-9.06385
▁تراک	-9.0641
▁قاضی	-9.06464
▁نامیں	-9.06775
▁روک	-9.06784
▁شرگداری	-9.06797
▁بوتیں	-9.06834
▁یکجاہ	-9.06851
▁س	-9.06873
▁میار	-9.07039
▁دروازگ	-9.07346
▁هر	-9.07441
▁میجر	-9.07488
▁دمان	-9.07633
▁منت	-9.07633
▁اھت	-9.07657
▁ہیں۔	-9.07659
▁بمب	-9.07829
▁وسیلہ	-9.07927
▁جنی	-9.07961
▁باور	-9.08351
▁ہ	-9.08444
▁دری	-9.08723
▁رستگ	-9.08876
▁بئے	-9.0899
▁سیر	-9.0901
▁نشت	-9.09153
▁غلام	-9.09205
▁همے	-9.09214
▁رنگے	-9.09333
▁صل	-9.09432
▁جھمنند	-9.09728
تہ	-9.10066
▁کپیت	-9.10254
▁پیدا	-9.10295
▁مکن	-9.10339
▁کمے	-9.10446
▁وانوک	-9.10912
▁حسن	-9.11049
▁بستار	-9.1118
▁شک	-9.11216
▁سلامتی	-9.11229
▁عليه	-9.11254
▁دز	-9.11278
کی	-9.11364
▁لھتے	-9.11385
▁چینل	-9.11402
▁نادراہ	-9.11451
▁حسین	-9.11454
▁باید	-9.11898
▁ساز	-9.12019
بے	-9.12384
▁عکس	-9.12431
▁جنگی	-9.12445
▁کرا	-9.12456
▁بادشاہ	-9.12527
▁دراہ	-9.12694
n	-9.1277
es	-9.12986
▁داری	-9.13274
▁نندوک	-9.13324
▁دات۔	-9.13345
▁A	-9.13907
▁وڑے	-9.14078
▁اکس	-9.14086
▁ہزار	-9.14578
▁دراجیں	-9.14586
▁ازاتی	-9.14626
▁سوار	-9.1467
▁ایان	-9.14816
▁چاکر	-9.14906
▁ناکو	-9.15265
▁درچک	-9.15292
▁مں	-9.15677
▁شئیر	-9.15719
▁یار	-9.15822
▁اثر	-9.15915
▁ھمراہ	-9.16126
▁تیاب	-9.16326
th	-9.16343
▁موسم	-9.16525
▁بیرم	-9.16684
▁دریا	-9.16779
تگ	-9.16859
▁کارست	-9.16917
▁رامین	-9.17187
▁چین	-9.1736
▁وتارا	-9.17532
▁are	-9.176
▁اجو	-9.17632
▁منزل	-9.17647
▁ایشیءِ	-9.17683
▁19	-9.17783
▁انگریزی	-9.17833
▁تریں	-9.17889
▁نیکہ	-9.18048
▁داتگ۔	-9.18099
▁جاھے	-9.18099
▁ڈیھ	-9.18161
▁بنداتی	-9.18332
▁بندگ	-9.18531
▁لوٹاں	-9.18581
...!	-9.18644
▁نور	-9.18736
▁منیر	-9.1881
▁ڈگار	-9.18896
▁سکیں	-9.18958
▁بونگ	-9.18992
ال	-9.19003
▁ترندیں	-9.19003
کار	-9.19004
▁گوشیت	-9.19113
▁اڈ	-9.19241
▁٭	-9.19251
▁سندھ	-9.19441
▁پرچے	-9.19523
▁ھپت	-9.1955
▁پیما	-9.19775
▁کوٹی	-9.19778
▁اسکول	-9.19787
▁جہان	-9.2005
▁بیگاہ	-9.20075
▁پسہ	-9.20108
▁اندر	-9.20192
▁یونیورسٹی	-9.20209
ری	-9.20242
▁کتہ	-9.20548
▁شاد	-9.20549
▁گام	-9.20578
▁دنیاءِ	-9.20613
▁کرت۔	-9.20769
▁بدلی	-9.20776
▁نادراھی	-9.20852
▁جنز	-9.20932
▁امریکہ	-9.20998
▁ھو	-9.21037
▁لھتیں	-9.21072
▁پوجی	-9.21359
▁اپنے	-9.21413
▁بدن	-9.21497
▁دیمروی	-9.21612
▁ناول	-9.21681
▁مبارک	-9.2185
▁ندارگ	-9.21937
▁تاب	-9.21943
بی	-9.2228
▁مھمد	-9.22385
▁خدا	-9.22407
▁ودار	-9.22563
▁شمبے	-9.22568
▁بنگپ	-9.22575
▁نو	-9.22639
▁شائر	-9.22696
▁تکنیک	-9.22934
▁منگ	-9.23032
▁اں۔	-9.23089
▁فیصلہ	-9.23107
▁بنکی	-9.23329
▁داتگیں	-9.23485
▁بارو	-9.23551
▁مردے	-9.23658
▁درچ	-9.23933
▁ریاستی	-9.2399
انءِ	-9.24024
▁ایشرا	-9.24134
▁اب	-9.24144
▁بکش	-9.24146
▁فکر	-9.24322
▁پاک	-9.24388
▁زرد	-9.24546
▁مالی	-9.24555
ئیں	-9.24613
▁تھنا	-9.24643
▁پڑ	-9.24655
▁کچے	-9.24689
▁اول	-9.24689
▁ارس	-9.24804
▁جاھاں	-9.24896
▁گوشاں	-9.24927
▁اوشتاتگ	-9.25187
▁بست	-9.2532
▁مراگش	-9.25485
▁جوان	-9.25815
▁وس	-9.25832
▁ھون	-9.25923
▁بندیگ	-9.25995
بلوچ	-9.26094
?‘‘	-9.26113
▁راستیں	-9.26208
▁تیار	-9.2622
▁نصیر	-9.26542
▁پیمیں	-9.26589
▁اگر	-9.26597
▁ای	-9.26706
▁دستاں	-9.26788
▁کاروبار	-9.26809
▁کاینت	-9.26878
▁اودءَ	-9.27162
▁رھبند	-9.27183
▁گیشتریں	-9.27421
▁برو	-9.27426
▁نمدی	-9.27684
▁ویل	-9.27725
▁انچوش	-9.27731
▁اکبر	-9.27749
▁نماز	-9.27913
▁سوج	-9.27921
ئی	-9.27941
▁قومی	-9.27965
▁جواب	-9.28096
▁وجود	-9.28262
▁کلیں	-9.2837
▁نیشنل	-9.28405
▁گامگیج	-9.28471
▁کشک	-9.28576
▁البت	-9.28643
▁صورت	-9.28704
▁پرس	-9.28726
گی	-9.28847
▁خیال	-9.28941
▁داب	-9.28944
▁عزت	-9.28973
ٹ	-9.29244
نت۔	-9.29355
▁اصل	-9.29404
▁جندءِ	-9.29445
▁ببیت	-9.29733
▁مول	-9.29734
▁بالی	-9.29819
▁سائنس	-9.29829
ھ	-9.29866
▁گشئے	-9.29886
▁بہا	-9.30253
▁بوہگ	-9.30378
▁کلب	-9.30615
▁درشانی	-9.30636
▁شمارا	-9.3067
▁پاس	-9.30758
▁مئی	-9.30758
▁their	-9.30819
▁گنگ	-9.3115
▁but	-9.31396
▁لہتے	-9.31449
▁کریم	-9.31629
▁دپتر	-9.31657
▁چٹ	-9.31821
▁ئیگ	-9.31988
a	-9.32027
▁دئے	-9.32055
▁شاری	-9.32125
▁not	-9.32399
پ	-9.32745
ێن	-9.32798
▁جھان	-9.32829
‘‘(	-9.33016
▁......	-9.33035
ج	-9.33232
▁ماس	-9.33302
▁ارواہ	-9.33781
▁کوھنیں	-9.33881
▁first	-9.3416
▁تنے	-9.3421
▁وائس	-9.34283
▁مولانا	-9.34464
ڈ	-9.34486
▁سہب	-9.34514
▁وان	-9.34569
▁شہید	-9.346
▁با	-9.34746
▁چیزانی	-9.34757
▁نیست۔	-9.34887
وک	-9.34945
▁رسیت	-9.35075
▁عطا	-9.35193
▁درشانے	-9.35254
▁ارام	-9.35348
st	-9.35365
▁تالان	-9.35404
▁مستونگ	-9.35509
▁یاد	-9.3554
▁مدت	-9.35731
▁نبیسگ	-9.35779
▁بامن	-9.36051
▁مارچ	-9.3615
▁غم	-9.36209
ies	-9.36227
۔۔۔۔	-9.36407
▁ستک	-9.36455
▁ایپ	-9.36534
▁لیب	-9.36543
▁زانتکار	-9.36592
▁اشاں	-9.36693
▁گوستگ	-9.36778
▁پرچاکہ	-9.36782
▁کئی	-9.36868
▁ردوم	-9.3689
▁باندا	-9.37113
ون	-9.37127
▁ساچشت	-9.37175
▁نامداریں	-9.37319
▁امیدگس	-9.37381
▁ازاد	-9.37391
▁بگیر	-9.376
نے	-9.38014
کے	-9.38071
▁پھر	-9.38082
▁میل	-9.38091
▁باندات	-9.38166
▁امان	-9.38323
▁چوکہ	-9.38361
▁ھکانی	-9.38379
▁کردار	-9.3841
▁بچک	-9.38541
▁کیس	-9.38581
▁از	-9.38661
▁عربی	-9.38781
▁ربیدگ	-9.3879
▁تمپ	-9.38822
▁or	-9.38867
▁ھب	-9.38875
▁بوتاں	-9.39067
▁چھاپ	-9.39077
▁سرمایہ	-9.39174
▁ھمراھی	-9.39221
▁شے	-9.39331
▁سزا	-9.39343
▁پدءَ	-9.39357
تی	-9.39449
▁روزگار	-9.39579
▁جانی	-9.39599
▁گلام	-9.39603
▁ماہی	-9.39674
▁ہور	-9.39795
▁وی	-9.39842
▁دروگ	-9.39904
▁پیسلہ	-9.39947
▁ندر	-9.40144
▁رپورٹ	-9.40187
▁ھک	-9.40196
▁کمیں	-9.40297
▁زیر	-9.40401
▁کنگءِ	-9.40497
▁چاریں	-9.40497
▁بابتءَ	-9.4052
▁نز	-9.40631
▁سھب	-9.40669
▁جس	-9.40901
▁ادبی	-9.40985
also	-9.41072
▁اھتگ	-9.41088
▁...	-9.41089
▁گرم	-9.41111
▁بارت	-9.41297
بلوچستان	-9.41415
▁ونتگ	-9.41446
▁اھوالانی	-9.41508
▁جوانی	-9.41638
▁ترقی	-9.41693
▁انکہ	-9.41754
وکیں	-9.41787
گیں	-9.41852
▁درمان	-9.41941
▁رست	-9.41977
▁انکس	-9.42022
▁مالیات	-9.42075
▁her	-9.42083
▁بوتنت	-9.42163
▁تها	-9.42216
▁its	-9.42349
▁ھرچ	-9.42421
▁کارندہ	-9.42511
▁مثال	-9.42627
l	-9.42735
▁ہلاس	-9.42858
▁تنی	-9.42858
واجہ	-9.43248
▁ور	-9.43286
▁ذات	-9.43331
▁بیگواہی	-9.43582
▁کپگ	-9.437
ھم	-9.43729
▁سند	-9.43832
دار	-9.43904
▁ب	-9.43973
▁دراہیں	-9.4416
▁نامی	-9.44162
▁نمبر	-9.44195
▁ائے	-9.44317
▁وارتگ	-9.44356
▁مر	-9.44362
▁دشت	-9.44405
▁سازی	-9.44459
▁دیمتر	-9.44597
▁مزار	-9.45042
▁نسل	-9.45265
▁نزور	-9.45279
▁اپنی	-9.45314
▁بنگیج	-9.45328
▁گڈ	-9.45495
▁زہگ	-9.45836
▁پرچہ	-9.45894
▁گیشی	-9.46225
▁سالی	-9.463
دو	-9.46318
▁جاورانی	-9.4636
▁مشکل	-9.46431
▁زانتگ	-9.46463
▁اڑ	-9.4653
▁شکار	-9.46551
▁کمو	-9.46613
▁سیل	-9.4674
▁وھداں	-9.46908
می	-9.46916
▁بالاد	-9.47001
▁نواب	-9.47349
▁جاوراں	-9.47368
▁گیس	-9.47448
تر	-9.47551
▁تی	-9.47693
▁شور	-9.47901
▁کچک	-9.47932
▁گراں	-9.48061
▁زلم	-9.48161
o	-9.48206
▁گد	-9.48219
▁رھشون	-9.48267
▁مست	-9.48419
ف	-9.48511
▁کلدار	-9.48634
▁have	-9.48679
▁جنجال	-9.48725
▁اواران	-9.48778
▁بولان	-9.488
▁چیزاں	-9.48923
▁ساھت	-9.49041
▁سلام	-9.49053
▁زبانانی	-9.49057
▁فار	-9.49158
▁امر	-9.49235
▁He	-9.49336
تا	-9.49419
▁طرح	-9.49424
▁رواں	-9.49438
▁چراگ	-9.49518
▁one	-9.49544
▁لیکن	-9.49613
▁زال	-9.4965
▁دیاں	-9.49871
▁ہمراہ	-9.49894
▁نظر	-9.49917
▁شعری	-9.49947
▁گو	-9.5031
▁نھ	-9.5039
▁سور	-9.50419
▁کمی	-9.50428
▁وھدءَ	-9.5048
یے	-9.50675
▁تن	-9.50818
▁پتر	-9.51042
دل	-9.51102
▁رندا	-9.51118
▁ورنایے	-9.51123
▁ماما	-9.51162
▁بنشون	-9.51361
ھمے	-9.51417
▁مرید	-9.51437
انت۔	-9.51499
▁مسنگ	-9.515
▁has	-9.51522
▁مڈی	-9.51557
▁اگں	-9.51663
▁زہر	-9.51768
▁عقل	-9.51888
▁اسراتی	-9.51899
▁ارا	-9.52098
▁جیڑگ	-9.52218
▁پری	-9.52274
اپ	-9.52342
▁جا	-9.52462
ع	-9.52538
▁تلگرام	-9.52599
▁نودربرانی	-9.52628
▁جوڈ	-9.52774
▁I	-9.52855
▁نئے	-9.52934
وت	-9.52971
▁اگست	-9.53033
▁یکشل	-9.53089
▁تامر	-9.53134
▁زاھدان	-9.53141
▁زندمان	-9.53184
▁ترند	-9.53286
▁عرب	-9.53381
▁بہرے	-9.53455
▁عشق	-9.53475
▁واک	-9.5348
▁دلءِ	-9.5349
▁ایندگہ	-9.53664
▁سگ	-9.53709
ےءَ	-9.53753
▁بزان	-9.53917
اس	-9.53961
▁پمشکا	-9.53973
▁۔اے	-9.54036
▁ارمان	-9.54078
▁چنچو	-9.54174
▁چوکی	-9.54283
▁جنگل	-9.54308
▁بت	-9.54489
▁ساھگ	-9.54495
▁ٹکر	-9.54561
▁ڈیرہ	-9.54572
▁been	-9.54574
▁گپانی	-9.54604
▁روانک	-9.54666
▁تل	-9.54668
▁دستءَ	-9.54732
▁نصیب	-9.54775
▁ھرکس	-9.55
▁two	-9.55054
▁عبداللہ	-9.55475
تئی	-9.55493
▁ارشانی	-9.55529
▁جیڑ	-9.55625
▁رسانک	-9.55638
▁نویس	-9.55706
▁جنرل	-9.55729
▁اھوالکار	-9.55801
▁منوک	-9.55809
▁گنوک	-9.55822
▁زوریں	-9.55845
▁پرائی	-9.55846
▁who	-9.55854
▁زندءَ	-9.55876
▁تنگ	-9.55956
▁وطن	-9.56037
▁جم	-9.56074
▁تباہ	-9.56088
▁بیار	-9.56163
▁اسے	-9.56242
▁برزی	-9.5625
ق	-9.56323
▁دان	-9.56324
▁لاچار	-9.56348
▁مجید	-9.56384
▁اتءُ	-9.56417
▁کنئے	-9.56448
▁پاھو	-9.56456
▁ھواریں	-9.56566
▁اوتی	-9.56596
▁بلکہ	-9.56956
یہ	-9.57128
▁لئے	-9.57217
▁چنت	-9.57267
▁دیمی	-9.57279
▁مینگل	-9.5729
پر	-9.57366
در	-9.57457
▁سرجمی	-9.5749
دی	-9.57543
▁گشنت	-9.57566
را	-9.57582
▁رب	-9.57658
▁سہ	-9.57685
▁کسانی	-9.57714
▁لک	-9.57815
▁دوشی	-9.57834
▁نندگ	-9.5814
▁رواج	-9.58152
▁ابادی	-9.58168
خ	-9.58543
▁درسیں	-9.58727
▁بالاچ	-9.58734
▁دکان	-9.5878
▁ل	-9.58783
▁دشتی	-9.58787
▁1	-9.58926
▁دگه	-9.58955
▁جھانی	-9.58982
▁تہر	-9.58987
▁مرک	-9.58999
▁بلوچاں	-9.59229
▁پمن	-9.59232
▁شکر	-9.59319
▁گنداں	-9.59619
▁امام	-9.59654
▁مہمان	-9.59673
▁رندے	-9.59711
▁گوھرام	-9.59711
▁چاہ	-9.59749
▁گرد	-9.5981
▁مستر	-9.59956
▁this	-9.60117
▁کاگد	-9.6013
▁کنڈ	-9.60195
▁زی	-9.60228
▁رہبند	-9.60256
▁پریشان	-9.60334
▁زھر	-9.60441
چو	-9.60591
▁هچ	-9.60713
کو	-9.60721
▁منصوبہ	-9.60814
▁چوشکہ	-9.6082
▁بارہ	-9.61053
▁اپریشن	-9.61095
▁شرتر	-9.61221
▁دعا	-9.61375
ائیں	-9.6143
▁منند	-9.61495
▁ش	-9.61513
▁شکل	-9.61533
▁دزبندی	-9.61588
▁F	-9.61627
▁پرسنز	-9.6166
▁بان	-9.61744
▁باروءَ	-9.61772
▁چرے	-9.61798
▁ایمان	-9.61898
▁سالاں	-9.62128
اگاں	-9.62139
▁رژن	-9.6216
▁پنجاہ	-9.62179
▁سوت	-9.62187
▁اخر	-9.62226
▁بئیت	-9.62407
▁پوہ	-9.62419
▁سکین	-9.6248
اناں	-9.62497
▁ترک	-9.62522
▁شان	-9.6254
▁کمال	-9.62766
▁مہمد	-9.62818
▁چکاس	-9.62829
▁شرپ	-9.62895
▁رنگءَ	-9.62938
▁کوئی	-9.63028
▁چگل	-9.63101
▁نشہ	-9.6319
▁ھنچش	-9.63226
▁روس	-9.6325
▁خبر	-9.63314
اد	-9.63351
▁سامان	-9.63363
یگ	-9.6343
▁حاصل	-9.63448
▁حد	-9.63481
▁سرمچار	-9.63555
▁شام	-9.63577
▁گوزگ	-9.63609
▁ھاشمی	-9.63707
▁کمشنر	-9.63824
▁ذمہ	-9.63828
▁داستان	-9.63916
▁دؤر	-9.63941
▁سری	-9.64021
▁فوج	-9.6404
..!	-9.64077
▁زرمبشت	-9.64197
▁کالج	-9.64258
▁ایمنی	-9.64267
▁شراب	-9.643
▁ساتھ	-9.64346
▁ہوا	-9.64368
▁چیدگ	-9.64381
▁پسند	-9.64458
▁بشیر	-9.6452
▁year	-9.64805
▁شد	-9.6484
▁کتابے	-9.6497
▁دوھزار	-9.64982
▁لال	-9.65002
▁کارمنداں	-9.65019
▁ؤ	-9.65054
ور	-9.65115
ے۔	-9.65247
▁رحیم	-9.65266
یءَ	-9.65329
▁نومبر	-9.65332
▁اوشتوک	-9.65423
▁والا	-9.65478
▁نود	-9.65629
▁ایشیءَ	-9.6566
▁انتءُ	-9.65699
r	-9.65868
▁سندھی	-9.6595
▁گیدی	-9.6605
▁امیر	-9.6606
▁غیر	-9.66377
▁جل	-9.66488
▁سبز	-9.66525
یاں	-9.66539
▁طاقت	-9.66543
▁نیاد	-9.66643
▁بید	-9.66652
▁گرانیں	-9.66923
▁شوہاز	-9.66967
▁بزگ	-9.67152
▁واہگ	-9.67206
▁تیوگیں	-9.67222
▁صدر	-9.67222
▁ماڑی	-9.67253
▁سنگتانی	-9.67261
▁پاداں	-9.67321
بر	-9.6733
▁تیز	-9.67366
یناں	-9.67414
▁کرونا	-9.67426
▁زبانے	-9.67427
▁تھی	-9.67503
▁دوا	-9.67558
▁لبزانی	-9.67569
▁براں	-9.6757
▁اوشتات	-9.6766
▁اوانی	-9.67693
▁ربیت	-9.67796
▁پمیشکہ	-9.67848
▁نیمگے	-9.68249
▁کوکار	-9.68344
▁کاروائی	-9.68347
▁اجازت	-9.68415
▁کوہنیں	-9.68417
▁دیوال	-9.68446
▁کتابانی	-9.68467
▁S	-9.685
▁معاشی	-9.68689
▁2	-9.68696
▁قلات	-9.68725
▁اشوب	-9.68743
▁روڈ	-9.68836
ہم	-9.68922
▁ازمی	-9.69028
▁قدیر	-9.69043
▁چیءَ	-9.69123
▁بتل	-9.69241
▁جب	-9.69299
▁انگور	-9.69469
▁امید	-9.69527
▁گوناپ	-9.69626
▁نوشکی	-9.6963
▁گری	-9.69682
▁توکا	-9.69706
▁مدامی	-9.69758
▁ھلک	-9.69854
▁قران	-9.69926
in	-9.69975
▁ڈنی	-9.69975
▁دسمبر	-9.69978
▁گوازینگ	-9.7005
▁یاکہ	-9.70089
▁موجود	-9.70168
▁مذہب	-9.702
اب	-9.70231
▁الس	-9.70273
▁گناہ	-9.7035
۔۔	-9.7037
▁کنائینگ	-9.70392
بیت	-9.70432
▁پسنی	-9.70468
▁شریف	-9.70478
ماں	-9.70527
▁رندءَ	-9.70613
▁سلیم	-9.70663
▁سیت	-9.70664
▁شمے	-9.70805
▁ج	-9.70978
▁ترانگ	-9.7104
▁جام	-9.71044
▁دیمپان	-9.71054
▁ھزدار	-9.71057
▁درائینت	-9.71173
▁شون	-9.71277
▁لا	-9.71299
▁جنوری	-9.71318
▁کج	-9.71419
▁بڈ	-9.71422
▁روچی	-9.71455
کن	-9.71493
▁سہر	-9.7152
▁گیری	-9.71532
▁پ	-9.71882
▁بھا	-9.71983
▁تیل	-9.72006
▁بلوچستانءِ	-9.72023
▁گورءَ	-9.72089
▁ٹپ	-9.7218
▁لڑ	-9.72254
▁بود	-9.72273
▁ممکن	-9.72277
▁مک	-9.72312
▁مزنین	-9.72367
▁ہال	-9.72443
▁انوں	-9.72473
کا	-9.72496
▁اگن	-9.72508
▁دزگیری	-9.72688
▁سا	-9.72785
لی	-9.72851
▁اواز	-9.72956
▁ورنائیں	-9.72959
▁کنوکاں	-9.72976
▁برکت	-9.73024
▁لیویز	-9.73073
▁ھنکین	-9.73114
▁عہد	-9.73209
جی	-9.73309
▁@,@	-9.73361
▁مارگ	-9.73458
یءِ	-9.73465
▁ونت	-9.73481
▁after	-9.73504
▁میڈیا	-9.73541
▁بک	-9.73567
▁زبانا	-9.73591
▁کنٹرول	-9.73733
سی	-9.73747
▁بیم	-9.73912
▁رگ	-9.73966
▁نشتگیں	-9.74129
▁حکم	-9.74231
▁گوشان	-9.74333
▁زیبائی	-9.74456
▁جھل	-9.74472
▁ادگہ	-9.74484
▁دامن	-9.74497
▁ایچ	-9.74614
▁تاج	-9.74686
▁فرنٹ	-9.74734
▁تام	-9.74804
▁دروت	-9.74898
▁اورتگ	-9.75029
▁نودربراں	-9.75065
▁وا	-9.75091
▁اوگانستان	-9.75208
▁ازمانکانی	-9.75264
▁گلزمین	-9.75392
▁لوز	-9.75486
۔اے	-9.75511
▁بنجاہی	-9.75611
▁گول	-9.7566
▁وہدءَ	-9.75775
▁کرار	-9.75828
▁چنڈ	-9.75964
▁نپ	-9.76139
▁متلب	-9.7623
ھو	-9.76382
▁اکتوبر	-9.76467
▁تئو	-9.76574
▁بیگواھی	-9.76754
ھر	-9.76779
ھی	-9.76801
▁بگ	-9.76915
▁شبین	-9.76961
▁تپاک	-9.76977
▁دروگیں	-9.76993
▁ماتی	-9.77059
▁ز	-9.77142
▁پمشکہ	-9.7716
▁واجه	-9.7718
▁عمران	-9.77306
▁کشار	-9.77341
▁کپتگیں	-9.77362
کنگ	-9.77378
▁دیمپانی	-9.7743
▁گچکی	-9.77485
▁اھوال	-9.77506
▁اینچو	-9.7753
▁سروکی	-9.77566
▁انگریز	-9.77628
▁زیارت	-9.77657
▁وائی	-9.77707
▁نشانی	-9.77718
▁بہت	-9.77753
▁اسلم	-9.77762
▁رکینگ	-9.77778
تے	-9.77876
▁سول	-9.77922
▁کرنے	-9.78177
▁یکجھتی	-9.78216
▁نزوری	-9.78228
se	-9.78305
مئے	-9.78377
▁اگہ	-9.78383
▁It	-9.7842
▁لڈ	-9.78433
▁وڑءَ	-9.78451
▁حاجی	-9.78631
چ	-9.78732
▁ھاسیں	-9.78764
▁ادارھانی	-9.78845
▁ردی	-9.78985
ح	-9.78991
▁گپءَ	-9.79016
▁هست	-9.79083
▁پیمءَ	-9.79137
▁نیک	-9.79165
▁ڈولیں	-9.79195
▁چکانی	-9.79216
▁('	-9.79296
▁B	-9.7935
ion	-9.79383
▁براس	-9.79433
ہمے	-9.79511
▁بور	-9.79523
▁بعد	-9.79801
▁گہار	-9.79826
▁بنداں	-9.79866
▁انگر	-9.79979
▁حقیقت	-9.80092
▁ہوئے	-9.80148
▁داریں	-9.80193
▁علاقہ	-9.80276
باز	-9.80313
▁ڈک	-9.80449
▁time	-9.8046
▁زوراکیانی	-9.80595
ےءِ	-9.80609
▁عالم	-9.80643
▁اسپ	-9.80651
▁ترندی	-9.8067
▁چکاں	-9.80891
▁ھیل	-9.80897
▁اوپار	-9.80903
▁لوگءَ	-9.80913
▁other	-9.81016
▁مل	-9.81108
▁سرڈگار	-9.81186
▁بیرانی	-9.81209
▁اسمبلی	-9.81241
▁دشمن	-9.81262
▁واقعہ	-9.81305
▁انت۔۔۔	-9.81334
▁رسم	-9.81401
▁کارءَ	-9.81515
▁حضرت	-9.81538
▁دشتیاری	-9.81549
▁جنیں	-9.81686
چے	-9.81693
▁صد	-9.81813
▁اوست	-9.81889
▁چوناھا	-9.82185
▁صنعت	-9.8228
▁چاراں	-9.8233
▁کارگس	-9.82387
▁رنج	-9.82415
مہ	-9.82491
▁قبیلہ	-9.82532
▁جتاجتائیں	-9.82568
▁چد	-9.82589
دیم	-9.82621
▁۔۔	-9.82661
▁کمپنی	-9.82665
▁دزکپتگ	-9.82677
▁کد	-9.82798
▁into	-9.8282
▁سنگر	-9.82829
▁چنکس	-9.8287
▁نوشتہ	-9.83116
▁نزیکی	-9.83228
▁ویبجاہ	-9.83244
▁over	-9.83323
▁ہرکس	-9.83329
▁چیاکہ	-9.83353
▁شمار	-9.83554
▁کننت۔	-9.83582
تگیں	-9.83595
▁مرچاں	-9.83668
▁برجاھیں	-9.83746
▁نرم	-9.8379
▁پنام	-9.83821
▁انہی	-9.84131
▁جولائی	-9.84162
▁گدان	-9.84183
▁استان	-9.84205
▁لکھ	-9.84206
▁بانگ	-9.84265
▁بله	-9.84313
بزاں	-9.84334
▁کارمرد	-9.84346
▁بدیں	-9.84363
▁مرز	-9.84445
▁گندیت	-9.84456
▁پروفیسر	-9.84527
▁کناں۔	-9.84592
▁راجے	-9.84619
ص	-9.84646
▁کشیت	-9.84764
▁زندان	-9.85054
▁حب	-9.85065
دومی	-9.8512
▁اتکگیں	-9.85131
▁ہوں	-9.85148
▁یوسف	-9.85228
▁روچءَ	-9.8529
▁ردانک	-9.85363
▁نگد	-9.85508
گڑا	-9.85533
▁بج	-9.85561
▁جنکے	-9.85568
▁پانزدہ	-9.85576
▁ھمود	-9.85645
▁واکدار	-9.85689
▁سبک	-9.8569
'	-9.8571
▁لشکری	-9.85735
▁18	-9.85782
▁ایوکیں	-9.85794
▁کیت۔	-9.85802
▁اپریل	-9.85806
گا	-9.85871
▁زبانءِ	-9.85955
▁واحد	-9.86092
▁کازی	-9.86139
یانی	-9.8615
▁پژدر	-9.86175
▁کرن	-9.86189
▁نگ	-9.86277
▁شھدگ	-9.86456
▁اتاں۔	-9.86483
▁کنوکانی	-9.86529
▁کرنا	-9.86704
▁مردمان	-9.86714
ڑ	-9.86811
▁تہاری	-9.86831
▁گیوار	-9.86846
▁روچانی	-9.86871
▁مجلس	-9.86929
ي	-9.8696
▁مرزی	-9.87024
▁3	-9.87034
▁دگر	-9.87065
کس	-9.87103
▁مومن	-9.87137
▁بدی	-9.87138
▁ستمبر	-9.87146
▁یو	-9.87271
▁ہشت	-9.873
▁داروکیں	-9.87335
▁مسیت	-9.87388
کت	-9.87412
▁فروری	-9.87415
▁برجا	-9.87416
▁ایوکءَ	-9.87492
▁بوتہ	-9.87511
▁would	-9.87547
▁لگت	-9.87556
▁ہرچی	-9.87557
▁ٹیم	-9.87632
▁مھکم	-9.8764
▁more	-9.8765
▁گیا	-9.8781
▁تحریک	-9.87817
▁ریل	-9.87831
▁وہدیکہ	-9.87896
▁زندے	-9.87912
▁دمانے	-9.88003
▁بندش	-9.88075
▁سائنسی	-9.88143
▁کندگ	-9.88237
▁شاعرے	-9.88259
▁تہء	-9.88307
ت۔	-9.88336
▁خیر	-9.88428
▁رسگ	-9.88448
▁سیمسر	-9.88528
▁کلوہ	-9.88592
▁اشتر	-9.88671
▁پانگس	-9.88763
mber	-9.88797
▁گستا	-9.88803
▁بلاھیں	-9.88815
▁راجانی	-9.88818
▁انساپ	-9.88822
ول	-9.89009
▁پیک	-9.89022
▁ادینک	-9.89132
▁سسا	-9.89204
▁بچکند	-9.89218
▁اسمان	-9.89227
▁لوٹوکیں	-9.89241
▁گنج	-9.89303
▁مناں	-9.89313
▁خاص	-9.8938
▁راز	-9.89406
▁سکی	-9.89443
▁تھے	-9.89459
▁ادار	-9.8954
▁بھتام	-9.89609
▁انصاف	-9.89628
او	-9.89653
▁ہاترا	-9.89697
▁سان	-9.898
▁پرے	-9.89851
بند	-9.89944
▁اسلامی	-9.90102
▁ماسٹر	-9.90174
▁مرچیگیں	-9.90219
تاکدیم	-9.90474
▁قدر	-9.90505
چی	-9.90542
▁نادراہی	-9.9073
▁چادر	-9.90821
▁ماھتاک	-9.90824
▁ساپ	-9.90834
▁سمی	-9.90844
▁موہ	-9.90847
▁بیر	-9.90862
▁یکبرے	-9.90871
!‘‘	-9.91021
داں	-9.91036
▁انت۔اے	-9.91043
▁نامءَ	-9.91071
▁گچینی	-9.91135
▁بدئے	-9.91242
▁all	-9.91302
▁T	-9.91363
▁ھوش	-9.9141
▁سب	-9.9145
▁سالے	-9.91457
▁گا	-9.9154
▁ملکاں	-9.91576
▁کمیشن	-9.91683
▁دائم	-9.91718
▁اروس	-9.91941
▁خاصیں	-9.91947
▁پا	-9.91979
▁دینت	-9.92009
▁گالوار	-9.92073
▁دستی	-9.92213
▁دوازدہ	-9.92279
▁وانگی	-9.92362
نوں	-9.92404
▁ھیر	-9.92435
▁بستگیں	-9.9259
▁سپت	-9.92637
رو	-9.92725
▁پالیسیانی	-9.92729
▁ہونا	-9.92746
▁طور	-9.92752
▁الی	-9.92786
▁C	-9.929
ھما	-9.92902
▁شعرانی	-9.92964
اش	-9.93032
▁نئیت	-9.93099
▁کاریت	-9.93187
کر	-9.932
▁چکے	-9.93211
▁نیٹورک	-9.93215
▁واھند	-9.93218
▁ھنچیں	-9.93238
▁ہرچ	-9.93267
ام	-9.93293
انہ	-9.933
نوکیں	-9.93417
▁رؤگ	-9.93446
▁جمالدینی	-9.93493
▁پارسی	-9.93505
ھا	-9.93641
▁خود	-9.93663
▁کند	-9.93854
▁فوجی	-9.93861
▁دچار	-9.93912
▁نزینک	-9.93936
وا	-9.93985
▁اندرءَ	-9.94021
▁بینک	-9.94032
▁راه	-9.94038
▁چیئرمین	-9.94046
▁بلک	-9.94076
▁چہر	-9.94084
▁گریوگ	-9.94162
▁حیران	-9.94163
▁نیوز	-9.94172
▁ارت	-9.94319
▁سنگتے	-9.94357
▁تاریخی	-9.94405
▁دوستیں	-9.94487
▁اشکنگ	-9.94528
▁گیپت	-9.94583
پد	-9.94648
▁واست	-9.94652
▁گلانی	-9.94686
▁ھاترءَ	-9.94733
▁تھا۔	-9.94761
▁امن	-9.94787
▁ریش	-9.949
▁نویسگ	-9.94915
▁گونڈیں	-9.94956
ہر	-9.95016
▁برزیں	-9.95166
on	-9.9517
▁زالبولانی	-9.95176
▁می	-9.95186
▁وڈ	-9.95236
▁ھاک	-9.95279
دہ	-9.95281
▁تواری	-9.95288
▁پیریں	-9.95313
▁چ	-9.95401
▁مئیں	-9.95412
▁چر	-9.95437
i	-9.95493
▁پکار	-9.95587
▁سرکماش	-9.95696
▁استیں	-9.95728
▁یورپ	-9.95768
▁ساچشتی	-9.95842
▁مطلب	-9.95851
▁اسکواڈ	-9.95917
▁وتن	-9.95925
▁سوچ	-9.95956
▁ہکانی	-9.95973
▁پادانی	-9.96033
▁ساجد	-9.9607
▁کول	-9.96077
▁افغانستان	-9.96091
▁کنیں۔	-9.96193
گر	-9.96268
▁کچھ	-9.96292
▁عزیز	-9.96366
▁کمالان	-9.9638
▁زئی	-9.96394
▁سانگ	-9.96416
▁بام	-9.96467
▁بگوش	-9.96506
▁۔۔۔۔	-9.9653
▁بروت	-9.96542
▁مردین	-9.96564
▁نزانت	-9.96621
▁چارت	-9.96626
▁مقصد	-9.96647
▁ایراد	-9.96719
▁لیے	-9.96863
▁درک	-9.96928
▁مہناز	-9.96948
▁٭٭٭	-9.97072
▁گشاں	-9.97105
ھے	-9.97192
▁ہبر	-9.97194
▁براہ	-9.972
▁کھ	-9.97262
▁نزاناں	-9.97365
le	-9.97368
▁بگش	-9.97393
وی	-9.97407
▁فائدہ	-9.97519
▁چھ	-9.97529
▁جاہے	-9.97638
▁بلیدہ	-9.97712
▁کسمانک	-9.97789
▁معلوم	-9.979
ary	-9.979
▁جیئند	-9.97981
▁پہک	-9.97992
▁ہپت	-9.98072
▁اسپیت	-9.98153
▁ایا	-9.98163
▁اؤرتگ	-9.98265
▁جز	-9.9828
▁دروشمے	-9.98303
ce	-9.98571
▁پراہ	-9.98612
▁توامیں	-9.98642
▁اوشت	-9.98669
▁کلی	-9.98773
▁گندئے	-9.98806
▁ماہتاک	-9.98835
▁she	-9.98844
ائے	-9.98922
▁غزل	-9.98927
▁تم	-9.98952
▁ھراب	-9.99252
▁ہوٹل	-9.99332
▁دیوانے	-9.99378
▁کوشست	-9.99423
▁شیخ	-9.99429
▁m	-9.99451
▁چن	-9.99508
▁لوٹت	-9.99515
▁دگنیا	-9.99592
▁پھل	-9.99616
▁چارات	-9.99616
▁پاکیں	-9.99703
▁بوگءَ	-9.99717
▁پوست	-9.99725
مان	-9.99785
▁وقت	-9.99803
▁چارمی	-9.99849
▁سگریٹ	-9.9987
▁وکیل	-9.99874
▁ھمگرنچ	-9.99875
▁اسرائیل	-9.99897
▁نکش	-9.99903
▁گوم	-9.99988
رد	-10.0003
گل	-10.0006
▁پلہ	-10.001
▁لین	-10.0011
جاہ	-10.0011
▁دیگر	-10.0013
▁ارب	-10.0014
▁وفا	-10.0017
▁یازدہ	-10.002
▁دراتک	-10.0024
▁نقصان	-10.0024
▁بدار	-10.0025
▁زیبا	-10.0025
▁شئے	-10.0026
▁اورت	-10.0027
▁اناں	-10.0028
▁ڈپٹی	-10.0029
▁ام	-10.0032
▁لیک	-10.0044
▁باگ	-10.005
شت	-10.0054
ish	-10.0056
▁when	-10.0058
▁وهد	-10.0061
▁دوبر	-10.0082
▁کرتے	-10.0092
▁up	-10.0101
▁اتگ۔	-10.0102
▁پنجاب	-10.0102
▁ملکانی	-10.0107
▁ف	-10.011
▁مسلم	-10.0111
▁قول	-10.0115
▁زیان	-10.0126
▁پرک	-10.0132
▁سوال	-10.014
▁موبائل	-10.0143
▁چینی	-10.0147
▁گالبند	-10.0171
▁نیت	-10.0174
▁بنیادم	-10.0179
میر	-10.0182
▁us	-10.0187
▁سو	-10.0188
▁کورٹ	-10.0188
▁گوما	-10.0197
▁حون	-10.0201
▁رسانکدراں	-10.0209
▁گڑ	-10.0214
ینگ	-10.0218
ند	-10.0229
▁رک	-10.0231
▁نادراھجاہ	-10.0239
▁ہاشمی	-10.0241
▁جاہاں	-10.0244
▁صفت	-10.0248
▁کانود	-10.0249
▁ھار	-10.0251
▁کونسل	-10.0259
▁ظاہر	-10.0265
▁ٹیکنالوجی	-10.0265
▁دلجمی	-10.027
▁پیسرا	-10.0273
▁یکجہتی	-10.0279
▁پیچ	-10.028
▁درس	-10.0289
▁حصہ	-10.029
▁مذہبی	-10.0293
▁کام	-10.03
▁وانینگ	-10.03
اری	-10.0304
▁ناصر	-10.0314
▁re	-10.032
▁کینگ	-10.0322
▁سیاھیں	-10.033
▁ھشک	-10.0334
شپ	-10.0336
▁ندکار	-10.0341
▁ستا	-10.0344
▁تنک	-10.0345
▁زانتی	-10.0353
▁ناماں	-10.0355
▁دپءَ	-10.0361
▁سار	-10.0365
▁شست	-10.0373
during	-10.038
▁دلجم	-10.038
▁سوبین	-10.0382
▁زیرگ	-10.0387
▁زرتگ۔	-10.039
▁باری	-10.0393
▁سارت	-10.0396
▁چند	-10.0399
▁برابر	-10.0405
▁بوگی	-10.0411
▁جتائی	-10.0411
▁most	-10.0414
▁نبیس	-10.0415
▁بہار	-10.0415
▁علاج	-10.0421
کاری	-10.0426
▁ڈس	-10.043
▁لوٹیت۔	-10.0434
▁نمیران	-10.0442
ٹی	-10.0444
▁ورناہ	-10.0446
▁اتیں	-10.0457
▁زیادہ	-10.0461
▁صوبہ	-10.047
▁دستیگ	-10.0471
▁میری	-10.0476
▁گوز	-10.0479
▁اھگ	-10.049
▁رضا	-10.0492
▁نیں	-10.0505
▁جتگ۔	-10.0505
▁پوشاک	-10.0509
▁میڑ	-10.0511
۔۔۔۔۔	-10.0519
▁out	-10.0523
▁اسل	-10.0527
▁ظلم	-10.0531
▁زیمر	-10.0532
ترا	-10.0538
▁شرف	-10.054
▁انتزامیہ	-10.0546
▁سوشل	-10.0548
▁باج	-10.055
▁گوک	-10.0551
پدا	-10.0552
▁ھواری	-10.0558
▁احت	-10.056
▁زار	-10.0571
▁ئا	-10.0575
▁نیکی	-10.058
ic	-10.0586
▁تچکیں	-10.0586
▁سارتیں	-10.0588
▁کوٹ	-10.0591
▁بگل	-10.0598
▁game	-10.0601
▁کوپگ	-10.0604
▁لوگانی	-10.0605
▁ہنچو	-10.0612
▁گوشت۔	-10.0613
کنت	-10.0613
▁گوئشت	-10.0616
▁جاه	-10.0616
▁لبزانت	-10.0617
▁only	-10.0623
▁ہوتا	-10.0623
▁گندگءَ	-10.0634
▁جناں	-10.0636
کل	-10.0643
an	-10.0643
▁سربوتگیں	-10.0649
▁گلاں	-10.065
▁مز	-10.0651
▁سبزیں	-10.0657
▁دیدگ	-10.0662
▁نیکراھی	-10.0665
▁نامدار	-10.0669
▁گلہ	-10.067
▁نامہ	-10.0684
▁فون	-10.0686
▁کبر	-10.0701
دگہ	-10.0706
▁اتگیں	-10.0707
▁بلکن	-10.0708
▁پروشگ	-10.071
▁رہشون	-10.071
▁گیشینگ	-10.072
▁]	-10.072
▁کلام	-10.0723
▁بیگا	-10.0729
▁پند	-10.0731
▁دماغ	-10.0734
▁دولت	-10.0741
▁مگر	-10.0742
▁زندگیں	-10.0744
▁بنجاہ	-10.0745
▁ھچبر	-10.0745
▁روایت	-10.0747
▁شرتریں	-10.0751
▁پرواز	-10.0755
▁بوہان	-10.0757
▁اؤرت	-10.0761
▁کاف	-10.0763
▁لج	-10.0767
▁مسلمان	-10.0773
▁بوھیر	-10.0776
▁چوک	-10.0779
▁ہوش	-10.0779
▁قبر	-10.0779
▁تپاس	-10.0791
▁دمک	-10.0796
▁اومان	-10.0806
▁صبا	-10.0824
▁اہوالکار	-10.0827
▁تاکت	-10.0827
▁محبت	-10.0836
▁گشے	-10.0836
▁وانگجاہ	-10.0837
بل	-10.0837
▁تہار	-10.0839
▁راھے	-10.0841
▁ساد	-10.0844
▁ریچ	-10.0845
▁بلد	-10.0851
▁سست	-10.0871
▁گواہ	-10.0872
▁امریکی	-10.0875
ڑی	-10.0876
▁زاھر	-10.088
▁گردن	-10.089
▁ڈیہہ	-10.0891
▁لانچ	-10.0904
▁قانون	-10.0908
▁ایوب	-10.0938
▁حرکت	-10.094
▁نبی	-10.0946
▁دودمان	-10.0952
▁وهدے	-10.0952
▁لیگ	-10.0956
▁زباناں	-10.0965
▁گاڑیانی	-10.0972
▁پیرک	-10.0976
▁جندئیگ	-10.0976
▁تمام	-10.0979
us	-10.0979
about	-10.0985
tween	-10.099
▁سنچ	-10.0996
▁ڪہ	-10.0997
▁تچان	-10.1008
▁ضرورت	-10.1011
▁شتاں	-10.1013
▁پور	-10.1021
جان	-10.1027
▁ھانی	-10.103
▁بکنت۔	-10.1038
▁بئیگ	-10.1046
▁بز	-10.1048
▁اسی	-10.1049
▁علیہ	-10.105
ایاں	-10.1056
▁نزیکیں	-10.1059
▁سینگ	-10.1061
دست	-10.1065
▁داراں	-10.1076
▁حلک	-10.1089
▁زیب	-10.109
▁ھمدا	-10.1093
▁گی	-10.1095
▁سئیں	-10.1097
▁علمی	-10.1109
▁ھرچی	-10.111
▁دزی	-10.1113
▁ثابت	-10.1115
▁دگے	-10.1121
▁تگ	-10.1122
▁بران	-10.1122
▁him	-10.1135
▁نون	-10.1136
▁ھندی	-10.1145
▁جگر	-10.115
▁انور	-10.1153
▁ڈیک	-10.1155
▁حاترا	-10.1157
▁شیئر	-10.1164
▁play	-10.1167
▁استمان	-10.1179
▁کامیاب	-10.118
▁میدان	-10.118
▁سلامت	-10.1183
▁پونز	-10.1191
لا	-10.1207
کیں	-10.121
▁مین	-10.121
▁کتاباں	-10.1213
▁ساعت	-10.1214
▁مشکے	-10.1215
▁حاکم	-10.1219
▁","	-10.1224
▁سیاد	-10.1227
▁داریت۔	-10.1231
▁گڈسر	-10.1231
▁گوشئے	-10.1242
▁روش	-10.1249
▁زات	-10.125
▁یاں	-10.125
!......	-10.1254
▁شپے	-10.1256
ers	-10.1258
▁ولی	-10.1259
▁season	-10.1267
▁پیشی	-10.1268
▁بزگی	-10.1268
▁سرمچارانی	-10.127
▁ھمائی	-10.1271
▁سالانی	-10.1273
▁کمبر	-10.1275
▁قاسم	-10.1286
▁again	-10.1294
▁ارشاں	-10.1295
▁ادارہانی	-10.1295
▁On	-10.1301
▁کپان	-10.1304
▁انگتہ	-10.1305
▁ہندوستان	-10.1312
▁کشندہ	-10.1313
گپ	-10.1318
▁سمجھ	-10.1321
▁سلمان	-10.1326
▁پورا	-10.133
▁پش	-10.1333
▁ری	-10.134
▁three	-10.1343
▁M	-10.1344
▁پالیسی	-10.1349
▁سسٹم	-10.135
▁تجربہ	-10.1353
▁نامے	-10.1354
▁سعید	-10.1359
▁جوش	-10.1365
▁پہنات	-10.1365
▁فکشن	-10.1365
▁کلگ	-10.1368
▁زوال	-10.1387
▁ذاتی	-10.1393
▁رؤت	-10.1402
▁موکل	-10.1403
▁4	-10.1424
▁''	-10.1425
▁سوگند	-10.1435
بن	-10.1436
▁ورنایانی	-10.1438
▁نظم	-10.144
▁کردے	-10.1441
وش	-10.1442
▁رھادگ	-10.1444
▁گراب	-10.1447
ھاں	-10.145
▁ہائی	-10.1454
سک	-10.1458
▁عام	-10.1465
▁ادمین	-10.1474
▁5	-10.1477
▁فضل	-10.148
▁راشد	-10.1481
▁امین	-10.1482
▁پاگ	-10.1482
▁ساچ	-10.1482
▁مرت	-10.1486
▁پرشت	-10.1487
▁بیوکیں	-10.1488
▁انا	-10.1492
▁چاردہ	-10.1498
▁گشت۔	-10.1499
▁چیک	-10.15
▁ارواح	-10.1504
▁پترت	-10.1505
▁جاتا	-10.1506
▁زوریت	-10.1508
گوشتگ	-10.1509
▁زامران	-10.1509
▁قرار	-10.1516
▁اندیم	-10.1517
...?	-10.152
▁ادارھاں	-10.1522
▁بکناں	-10.1526
ٰ	-10.1528
▁راجمان	-10.1529
▁جنئگ	-10.1542
▁رحم	-10.1553
▁دلیل	-10.1555
able	-10.1575
▁اؤکیں	-10.1581
▁۔ائی	-10.1581
▁ادینگ	-10.1585
▁دلبڈی	-10.1585
▁ھندوستان	-10.1588
▁ابرم	-10.1592
▁کیمپ	-10.1599
▁اسپیتیں	-10.1601
▁وائرس	-10.1601
▁تئ	-10.1604
▁المیں	-10.1611
▁باپاری	-10.1614
▁بجٹ	-10.1614
▁than	-10.1617
▁چنگ	-10.1618
▁چا	-10.1624
▁استال	-10.1625
▁بری	-10.1627
▁تعلیم	-10.1634
▁وزن	-10.1634
▁زہیر	-10.1639
▁خاندان	-10.1645
▁جیل	-10.1652
گے	-10.1661
▁صاف	-10.1669
▁بئیں	-10.1679
ایشی	-10.1685
▁انگہ	-10.1689
اور	-10.1689
▁رم	-10.1691
▁ع	-10.1693
▁راجمانی	-10.1699
▁پلانی	-10.1704
▁فرق	-10.1708
▁دوستین	-10.171
▁')	-10.1715
نام	-10.1724
▁رہ	-10.1724
▁بازینے	-10.1726
▁شاعرانی	-10.1735
▁باریگ	-10.1739
▁ھیران	-10.174
▁السی	-10.1743
▁ھردو	-10.175
▁گواچن	-10.1768
ہی	-10.1781
▁فقیر	-10.1786
▁درامد	-10.1787
وار	-10.18
▁ھ	-10.1804
▁through	-10.182
میں	-10.1826
ڈاکٹر	-10.1829
▁کارمرزی	-10.183
▁de	-10.1831
▁جنوک	-10.1831
بوت	-10.1832
▁زرباری	-10.1836
▁باسکاں	-10.1841
▁دمب	-10.185
▁وانندہ	-10.1859
▁غنی	-10.1863
▁سوبمند	-10.1869
▁نبشتگیں	-10.1886
▁زرمبش	-10.1892
۔من	-10.1895
▁متاثر	-10.1896
▁گالاں	-10.1898
▁حانی	-10.1901
▁رجانکار	-10.1901
▁دیا	-10.1904
▁ائید	-10.1917
▁جاگہے	-10.192
▁منظور	-10.1923
ity	-10.1929
▁ردیں	-10.1929
▁ترکی	-10.193
▁later	-10.1936
▁کشیں	-10.1944
▁پروگرام	-10.1945
▁ظفر	-10.1951
▁گلامی	-10.1952
▁اشک	-10.1954
▁ورنائی	-10.1979
ڪ	-10.1981
▁روسی	-10.1982
▁رجینگ	-10.1985
مراد	-10.1986
▁[	-10.199
▁پدریچ	-10.1998
▁جماعت	-10.1999
▁لعل	-10.2
▁نظریہ	-10.2001
▁زھیر	-10.2006
گاں	-10.2006
▁سیم	-10.2018
▁بلوچے	-10.202
یر	-10.2024
▁مئیل	-10.2027
▁ارزان	-10.2031
▁سن	-10.2032
▁کپت۔	-10.2033
▁چمشانک	-10.2035
▁پنت	-10.2045
از	-10.2046
▁جمبر	-10.2049
▁while	-10.2052
▁لبزاں	-10.2055
▁چندے	-10.2062
▁لائن	-10.2063
▁عملی	-10.2071
▁نیامءَ	-10.2085
▁یعنی	-10.2089
▁لازم	-10.2089
▁گوھار	-10.2091
▁لوگے	-10.2097
▁دگرے	-10.2102
▁بینگ	-10.2102
▁لوگاں	-10.2103
▁وڈیں	-10.2107
▁ایشان	-10.211
▁تچگ	-10.2111
▁تاکہ	-10.2118
▁بندر	-10.2123
یت۔	-10.2128
▁ساہگ	-10.2136
▁تاکبند	-10.2144
▁مے	-10.2144
▁رن	-10.2152
▁ٹاہ	-10.2152
▁درگیجگ	-10.216
▁پریات	-10.2162
▁لوٹگ	-10.2162
▁ھمنچو	-10.2167
▁ھستی	-10.2168
▁بگندئے	-10.2178
▁some	-10.2181
▁دینی	-10.2183
▁مالک	-10.2184
▁روح	-10.2192
▁زبانءَ	-10.2194
▁زیات	-10.2194
▁درداں	-10.2194
▁پرواہ	-10.2199
▁ننگ	-10.2203
?”	-10.2213
en	-10.2217
▁پرمان	-10.2218
▁زالبولے	-10.2229
▁نیکیں	-10.2236
▁پرپٹ	-10.2248
▁چتور	-10.2251
▁شعرءِ	-10.2258
▁اچہ	-10.2258
made	-10.2258
▁تہہ	-10.2265
▁ہندی	-10.2267
▁اتک۔	-10.2271
▁زانشت	-10.2273
بس	-10.2281
▁ھان	-10.2287
▁شت۔	-10.2293
▁سیاھگ	-10.2312
▁حاصیں	-10.2313
▁زیبائیں	-10.2316
▁مکسد	-10.2317
▁ربیدگی	-10.233
▁گونڈو	-10.2334
▁ھنر	-10.2335
تریں	-10.2336
گو	-10.2341
▁ریڈیو	-10.2343
▁گوشدارگ	-10.2349
▁ستر	-10.2352
▁کلاں	-10.2355
▁نندوکیں	-10.2367
▁دلوت	-10.2377
▁درشانداب	-10.2378
▁ھنچوش	-10.2378
▁گلگ	-10.2383
▁گہگیری	-10.2387
▁خاران	-10.2388
▁اگدہ	-10.2391
▁e	-10.2393
▁ماه	-10.2394
▁ادارگ	-10.2398
▁شرگدار	-10.2401
▁گلے	-10.2403
▁برمش	-10.2406
▁گوشنت	-10.2408
▁پوش	-10.2411
▁ازادی	-10.2414
▁نواز	-10.2423
ever	-10.243
▁توارے	-10.2439
▁پشتءَ	-10.2444
”.	-10.2444
▁کمپیوٹر	-10.2449
▁مروچیگیں	-10.245
▁ایوکا	-10.245
▁نیل	-10.2454
▁رندی	-10.2456
land	-10.2457
ینتگ	-10.2458
▁گہرام	-10.2461
▁پندل	-10.2463
▁طرف	-10.2476
▁عابد	-10.248
▁صرف	-10.2481
▁پناہ	-10.2484
▁۔من	-10.2485
۔بلے	-10.2487
▁سرء	-10.2498
رے	-10.2501
▁ڈیٹا	-10.2503
ط	-10.2506
▁بوتین	-10.2507
▁پرشتگ	-10.2511
▁خانہ	-10.2512
▁نوزدہ	-10.2514
▁کاہ	-10.2515
▁بوئیگ	-10.252
ڈی	-10.2521
▁گوزان	-10.2534
▁کولواہ	-10.2537
▁چوپ	-10.2538
▁سرحال	-10.2539
تاکدیم۔	-10.2541
مردم	-10.2542
▁ہمرائی	-10.2545
▁اسان	-10.2553
▁بنزہ	-10.2558
▁اھد	-10.2559
اک	-10.256
▁تجربت	-10.2562
▁دریگ	-10.2565
داد	-10.2566
شر	-10.2567
انء	-10.2567
▁سرھال	-10.257
▁ہار	-10.2575
▁دژمنیں	-10.2575
وس	-10.2576
▁مس	-10.2581
▁ذکر	-10.2582
▁چمے	-10.2584
لو	-10.2586
▁سبی	-10.2588
▁کمتر	-10.2593
▁ادیم	-10.2595
▁قلم	-10.2595
اں۔	-10.2597
▁ات۔۔۔	-10.2603
............	-10.2605
▁ریک	-10.2613
▁سرزمین	-10.2613
▁چاریت	-10.2616
یں۔	-10.2624
نبشتانک	-10.2629
▁محمود	-10.2632
▁ھنچو	-10.2635
▁قبول	-10.2636
▁دستا	-10.2638
▁ڈکال	-10.264
▁امروز	-10.2642
▁شاعراں	-10.2645
انا	-10.2646
▁اشنا	-10.2651
▁سود	-10.2652
▁تہاریں	-10.2653
▁پشک	-10.2655
▁اختر	-10.2658
▁سرین	-10.2659
▁کوچگ	-10.266
▁مدتے	-10.2661
چار	-10.2663
▁درچکانی	-10.2667
▁جد	-10.2671
▁کہنیں	-10.2671
▁ھسپتال	-10.2676
▁ترین	-10.2679
▁تری	-10.2682
▁ضلع	-10.2686
▁گژن	-10.2694
▁کنغ	-10.2696
خان	-10.2697
▁برپ	-10.2708
▁گلیں	-10.2709
▁گوانک	-10.272
▁صلی	-10.272
▁چرائی	-10.2721
▁میڈیکل	-10.2725
▁لے	-10.2734
▁باوست	-10.2736
▁سھر	-10.2738
▁دیمترا	-10.2739
▁اسحاق	-10.2748
▁کانفرنس	-10.275
▁زانتکاری	-10.275
▁اتار	-10.2758
روچ	-10.2758
▁نت	-10.2771
نو	-10.2777
▁new	-10.2787
▁قوت	-10.2791
▁سنی	-10.2795
▁یونین	-10.2795
▁قدیم	-10.2801
▁زبہر	-10.2804
▁واہند	-10.2808
▁D	-10.2809
▁اشیءِ	-10.2811
▁حقانی	-10.2819
▁دانک	-10.2821
▁جہاں	-10.2837
▁کایاں	-10.2844
▁بجلی	-10.2845
▁دریں	-10.2846
▁سرے	-10.2851
▁وران	-10.2852
▁دانگ	-10.2854
جو	-10.2858
▁کاروباری	-10.2863
","	-10.2871
▁گھار	-10.2874
▁سیٹ	-10.288
▁درملکی	-10.2882
نگیں	-10.2882
▁شعور	-10.2885
▁ائیا	-10.2888
▁ہوئی	-10.2892
▁پائدگ	-10.2901
▁وام	-10.2902
سید	-10.2902
S	-10.2906
زبان	-10.291
▁ناچ	-10.2911
▁دپی	-10.2912
ملا	-10.2913
u	-10.2916
▁ڈل	-10.2918
▁جاری	-10.2919
▁ژا	-10.292
▁گرمیں	-10.2924
داری	-10.2931
▁شروع	-10.2941
▁شازادگ	-10.2943
▁واکداراں	-10.2948
▁پاٹی	-10.2949
▁ڈرائیور	-10.295
▁استار	-10.295
▁where	-10.295
▁وپت	-10.2953
▁بائد	-10.2954
زر	-10.2961
▁اہم	-10.2965
▁تہی	-10.2967
▁غوث	-10.2979
▁کارمندانی	-10.2979
▁نویسی	-10.299
such	-10.299
▁دا	-10.2991
▁شپاں	-10.2993
▁ڈیتھ	-10.2998
▁بزگیں	-10.3008
▁راجدپتری	-10.3027
▁ھمیشی	-10.3033
▁یوکرین	-10.3044
▁درکپت	-10.3045
▁بازین	-10.3051
▁بالا	-10.3053
▁ھستیں	-10.3054
gan	-10.3054
▁رندگیری	-10.3065
▁تپاوت	-10.3065
▁میاں	-10.3067
زی	-10.3074
▁موت	-10.3074
▁وجہ	-10.3075
▁R	-10.3075
▁them	-10.3081
▁اندری	-10.3084
▁مواد	-10.3089
▁دوری	-10.3091
▁وشبو	-10.3092
▁ارشے	-10.3104
▁وتکشی	-10.3106
دان	-10.3111
▁کوھانی	-10.3114
▁جنینے	-10.3125
▁ہمودا	-10.3128
▁بنیات	-10.313
um	-10.3131
▁number	-10.3132
▁موتک	-10.3138
▁شھدربرجاہ	-10.3138
▁مور	-10.3142
▁دورءِ	-10.3143
▁لوٹانی	-10.3149
▁چاگردءِ	-10.3153
▁لمب	-10.3161
▁دیراں	-10.3162
▁انوگیں	-10.3164
بار	-10.3165
▁مولوی	-10.3165
▁مساپر	-10.317
▁دوچ	-10.3188
▁بدنت	-10.3192
▁ابا	-10.32
چک	-10.3206
▁بژن	-10.3211
▁follow	-10.3211
▁تبک	-10.3212
▁نمیرانیں	-10.3216
h	-10.3218
▁گونڈ	-10.3224
▁نک	-10.3226
▁بیل	-10.3236
▁ناہ	-10.324
▁ہلک	-10.3244
▁مردمی	-10.3251
▁توان	-10.3256
▁N	-10.326
▁گیگ	-10.3262
▁چینچو	-10.3263
▁پلاں	-10.3265
▁دورءَ	-10.3266
گءَ	-10.3266
▁چیرا	-10.3266
▁حمید	-10.3279
▁ھاران	-10.3281
▁دستگیر	-10.3282
▁ھپتاد	-10.3282
▁al	-10.3283
▁خالد	-10.3285
▁لیاری	-10.3289
▁ہمدا	-10.3293
▁film	-10.3295
▁کشان	-10.3297
ات۔	-10.3299
▁پہر	-10.3303
▁This	-10.3306
▁دنیاءَ	-10.3307
▁پازل	-10.3309
▁اہگ	-10.3311
▁ہان	-10.3313
▁مرتگیں	-10.3314
▁نیاما	-10.3322
▁زھری	-10.3322
▁نگاہ	-10.3328
▁گنوکی	-10.3336
▁زندگانی	-10.3336
ایت	-10.3348
▁ہچبر	-10.3352
▁چول	-10.3357
▁بزدار	-10.3365
▁جاہءَ	-10.3369
▁under	-10.3378
▁توسیپ	-10.3382
▁امریکا	-10.3387
▁زد	-10.3389
▁وابانی	-10.339
▁ملکے	-10.3399
▁اشوبی	-10.3401
▁افسر	-10.3416
▁هبر	-10.3416
▁نسیم	-10.3416
▁ہوتی	-10.3417
est	-10.342
▁پنچمی	-10.342
▁ھبرے	-10.3423
▁ازار	-10.3433
▁زیت	-10.344
▁سوسائٹی	-10.3442
▁هال	-10.3445
▁ابن	-10.3453
▁وال	-10.3458
▁000	-10.3463
▁being	-10.3472
▁درسد	-10.3477
▁بزور	-10.3482
▁بنیادی	-10.3483
▁ھشکیں	-10.3501
▁چوٹ	-10.3509
▁جنکانی	-10.3515
▁زنگ	-10.3515
▁تاکدیم۔	-10.3527
▁part	-10.3527
▁ھکم	-10.3528
▁record	-10.3537
▁بندوکیں	-10.3543
▁end	-10.3545
▁song	-10.3546
▁t	-10.3547
▁روچگ	-10.3552
▁یعنے	-10.3554
▁وسی	-10.3559
▁New	-10.356
▁ٹال	-10.3564
▁اقبال	-10.3566
▁تپنگ	-10.3571
▁مود	-10.3572
▁لندن	-10.3573
▁درکار	-10.3575
▁before	-10.3579
▁نال	-10.358
▁گریب	-10.3581
بیا	-10.3583
▁اختیار	-10.3584
▁نوکی	-10.3589
ھانی	-10.3597
▁ترجمہ	-10.36
▁پن	-10.3602
▁دن	-10.3605
▁شل	-10.3618
▁شار	-10.3619
▁شئر	-10.3619
▁کلاس	-10.364
▁رہے	-10.3643
p	-10.3645
▁اشکتگ	-10.3649
▁انسانءِ	-10.3651
پیش	-10.3657
▁وانوکاں	-10.3663
▁ھوٹل	-10.3666
ھیں	-10.3668
▁کپیت۔	-10.3671
▁روژنائی	-10.3676
▁زمستان	-10.3684
▁گالانی	-10.3685
▁راھبند	-10.3689
▁رہا	-10.3707
▁جاگہہ	-10.3708
▁واکدارانی	-10.3708
▁مروچاں	-10.3713
▁زیمل	-10.3718
▁فیض	-10.3722
▁چکچینی	-10.3726
▁استعمال	-10.3732
▁مارشتانی	-10.3738
▁can	-10.3741
▁سراوان	-10.3745
▁الدین	-10.3745
▁وہداں	-10.3746
▁دائمی	-10.375
▁درانگازی	-10.3753
▁گز	-10.3759
▁شپءَ	-10.3764
ست	-10.3775
▁عباس	-10.3782
▁second	-10.3785
▁مجبور	-10.3786
▁ایرانءِ	-10.3792
▁تنقید	-10.3793
▁یونانی	-10.3799
.....	-10.3803
▁چارگءَ	-10.3819
▁پھ	-10.3839
▁پار	-10.3846
▁ابد	-10.385
گور	-10.3852
▁ازمانکے	-10.3854
▁فارم	-10.3854
▁کرتا	-10.3857
▁لو	-10.3869
▁تمن	-10.3872
▁عیب	-10.3873
▁اخلاقی	-10.3877
▁کست	-10.3879
▁معاملہ	-10.3882
▁no	-10.3882
کم	-10.3882
▁نبیت	-10.389
▁دنیگا	-10.3899
بلئے	-10.39
▁چاچ	-10.3905
▁انسانے	-10.3906
انءَ	-10.3908
▁درکانودی	-10.3909
▁work	-10.3909
▁حیات	-10.3914
▁پرشتگیں	-10.3915
▁گشان	-10.3919
▁گزر	-10.3923
ائیءَ	-10.3929
▁رمضان	-10.3933
▁چات	-10.3935
▁تان	-10.3941
▁خلاف	-10.3944
or	-10.3945
▁نزوریں	-10.3946
▁گوازینتگ	-10.3954
man	-10.3958
ث	-10.3968
▁لاہور	-10.3975
ازمانک	-10.3977
▁سیکورٹی	-10.398
بو	-10.3981
▁عید	-10.3984
▁ند	-10.3992
▁نازک	-10.3995
▁جہانی	-10.3999
▁جنزان	-10.4001
▁حالت	-10.4002
▁درانگاز	-10.4015
▁جرم	-10.4015
▁کپوت	-10.4016
▁جنجالانی	-10.4016
یل	-10.403
▁وانگءَ	-10.4033
▁بھرے	-10.4045
▁زورگر	-10.4045
▁تاھیر	-10.4049
▁برانز	-10.4055
▁اسماعیل	-10.4056
▁P	-10.4057
▁حکیم	-10.4059
ذ	-10.406
m	-10.4064
سا	-10.4065
▁call	-10.4065
ہما	-10.4065
▁توپک	-10.4073
▁دراں	-10.4074
▁ادمی	-10.4074
▁کلاک	-10.4075
▁مڑ	-10.4078
▁بانور	-10.408
ation	-10.4082
▁ہیال	-10.4085
▁گۆں	-10.4089
▁چپی	-10.4098
▁دربرگ	-10.4099
▁6	-10.4104
▁ووٹ	-10.4105
▁کارءُ	-10.4106
▁دنز	-10.4109
شی	-10.4113
▁انقلاب	-10.4114
▁وہدی	-10.4118
▁انکار	-10.4119
▁صبر	-10.4121
▁پما	-10.4126
▁گپت۔	-10.4129
▁مکہ	-10.4133
▁جستے	-10.4137
▁پک	-10.4142
▁سرشون	-10.4145
▁سیاہیں	-10.4148
▁گپتگیں	-10.4148
▁سمین	-10.4149
▁صدی	-10.4156
سٹ	-10.416
▁پدی	-10.4165
▁نیاں	-10.4168
▁تور	-10.4171
▁اہمد	-10.4172
▁جهد	-10.418
▁رسیت۔	-10.4183
▁عدالت	-10.4184
▁وابے	-10.4184
▁مہرانی	-10.4189
▁زاہر	-10.4191
▁قادر	-10.4192
وہ	-10.4192
▁زانش	-10.4194
▁سعودی	-10.4195
▁گھر	-10.4199
▁ہمگرنچ	-10.42
▁ڈالر	-10.42
out	-10.4201
▁الاج	-10.4208
▁ایوکی	-10.4217
▁دیدگاں	-10.4224
▁ازمکار	-10.4227
▁وثی	-10.4228
▁سوبمندی	-10.4231
▁چونائی	-10.4231
▁درچکے	-10.4233
▁مسافر	-10.4233
▁نودربرے	-10.4235
▁لنٹ	-10.4237
▁قبائلی	-10.424
اولی	-10.4241
▁اج	-10.4247
▁پیری	-10.4247
▁سلیمان	-10.4248
▁دلے	-10.4248
▁بابا	-10.4248
▁مه	-10.4251
▁نوکین	-10.4253
▁پولی	-10.4254
دے	-10.4254
▁خون	-10.4255
▁دراتکگ	-10.4263
▁سرد	-10.4268
▁دگرانی	-10.4276
شہ	-10.4277
▁قسم	-10.4279
▁بادینی	-10.4286
▁منافع	-10.4288
▁صوبائی	-10.429
دور	-10.4293
▁لیٹ	-10.4296
▁پشی	-10.4302
ائیءِ	-10.4302
▁مت	-10.4303
▁راگ	-10.4303
▁مهر	-10.4303
▁کریمہ	-10.4307
▁large	-10.4308
▁جنت۔	-10.4318
▁مارشتاں	-10.432
▁پولکاری	-10.432
▁نهانت	-10.4322
▁نیمون	-10.4326
▁high	-10.4328
▁عظیم	-10.4328
▁سواریں	-10.433
مات	-10.433
▁خالق	-10.4331
▁بحث	-10.4334
▁میزان	-10.4339
▁ملامت	-10.434
▁مبارکی	-10.4343
▁روگی	-10.4343
▁جت۔	-10.4344
▁دوچار	-10.4344
▁گئی	-10.4347
▁نیا	-10.4347
▁گماں	-10.4356
زانت	-10.4357
▁نثار	-10.4357
▁تچ	-10.4373
▁there	-10.4382
▁چمان	-10.4382
▁احساس	-10.4383
▁album	-10.439
▁area	-10.4393
▁صابر	-10.4393
▁زوراک	-10.4397
▁راکٹ	-10.4402
جنگ	-10.4408
▁موٹر	-10.4409
▁ہمراہی	-10.4411
▁As	-10.4414
▁حبرے	-10.4422
▁series	-10.4422
▁نوکری	-10.443
▁کوھن	-10.4446
سے	-10.4447
▁تعلق	-10.4447
▁بوتگنت	-10.4447
▁اناگہ	-10.4451
▁وئیلاں	-10.4454
▁ترمپ	-10.4459
▁زھگانی	-10.4459
▁تھ	-10.4487
▁سنج	-10.4489
▁اشارہ	-10.4495
▁تپاکی	-10.4495
▁زین	-10.4499
▁پلاٹ	-10.45
▁رپک	-10.4506
▁جانسلامتی	-10.4506
▁کسءَ	-10.4508
▁مارکیٹ	-10.4511
▁شاھی	-10.452
▁لبزانکءِ	-10.4521
▁رژنائی	-10.4522
▁رودراتکی	-10.4525
بازیں	-10.4528
▁پلو	-10.4532
▁وتگڑیں	-10.4532
▁تار	-10.4535
▁حمزہ	-10.4536
▁زمانگءَ	-10.4543
▁سہی	-10.4544
▁کوشش	-10.4544
▁جاک	-10.4546
▁جستانی	-10.455
▁ڈکھ	-10.4553
▁رزا	-10.456
▁نیٹ	-10.4565
▁گپءُ	-10.4566
▁عطاشاد	-10.4566
▁ق	-10.4566
▁دگانی	-10.4576
▁شوربندی	-10.4576
کگ	-10.4576
▁ابرمی	-10.4583
..?	-10.4584
▁کارمندے	-10.4586
پی	-10.4587
ارا	-10.4587
▁اولس	-10.4592
▁ھاکم	-10.4594
▁بہادر	-10.4597
▁سارتی	-10.4599
▁مزاحمت	-10.46
کش	-10.46
▁شھری	-10.4605
▁جیہند	-10.4606
▁پال	-10.4609
▁سببءَ	-10.4612
▁زید	-10.4617
▁عیسیٰ	-10.4619
بلکیں	-10.4631
▁مادن	-10.4634
▁کستریں	-10.4636
▁گندیں	-10.4636
▁بدے	-10.4641
▁گلاب	-10.4644
▁کرتنت	-10.4644
▁سہرا	-10.4645
▁شات	-10.4656
▁both	-10.4658
▁تصور	-10.466
▁جتگیں	-10.4669
▁اشت	-10.4675
وز	-10.4676
▁ممتاز	-10.4678
اتی	-10.468
▁بازی	-10.4681
▁ہنر	-10.4688
▁پشتی	-10.4689
▁show	-10.469
▁فرانس	-10.4692
▁جاوید	-10.4692
▁ھمودا	-10.4697
چم	-10.4698
▁اینڈ	-10.4699
▁ھزاراں	-10.4709
▁لی	-10.4712
▁اتکگ۔	-10.4713
▁حوالہ	-10.4715
▁سپاہی	-10.4717
▁includ	-10.4719
▁اسٹوڈنٹس	-10.4721
▁قبضہ	-10.4723
▁10	-10.4724
▁ھد	-10.4732
▁اعظم	-10.4733
▁جہت	-10.4735
▁بیرک	-10.4736
پل	-10.4737
▁سریں	-10.4738
▁جیگ	-10.4743
ہاں	-10.4747
▁لفظ	-10.4747
▁اوان	-10.475
▁انداز	-10.475
▁بیبگر	-10.4755
▁جائے	-10.4758
▁حیالانی	-10.476
▁راجدوست	-10.4761
▁درجہ	-10.4763
▁کشکے	-10.4767
▁جسم	-10.4768
▁بریں	-10.4772
▁چاگردءَ	-10.4773
▁لب	-10.4774
▁برداشت	-10.4774
▁چاگردے	-10.4775
▁والے	-10.4778
▁سمو	-10.4779
▁تپ	-10.4783
یم	-10.4788
▁جنگءَ	-10.4789
▁قرض	-10.479
▁روگءَ	-10.4792
▁نبشتانکے	-10.4792
▁روکیں	-10.4795
▁تهنا	-10.4799
کاں	-10.4801
▁حاک	-10.4802
▁شانک	-10.4803
▁کوھی	-10.4804
▁کتیں	-10.4806
▁پون	-10.4807
؂	-10.481
▁شہری	-10.4812
▁شم	-10.4812
▁ھپتگ	-10.4813
▁ول	-10.4816
▁بگند	-10.4821
▁زبیر	-10.4826
▁استحکام	-10.4829
▁الا	-10.4838
▁کھن	-10.4843
▁فدا	-10.4856
?......	-10.4857
▁سلطان	-10.4861
▁ہنچیں	-10.4865
▁ارادہ	-10.4865
▁شو	-10.4867
▁بندیت	-10.4867
!!	-10.4868
▁نزر	-10.4869
▁گۆن	-10.4872
▁گیج	-10.4873
زند	-10.4874
▁کساسے	-10.4875
▁مشہور	-10.4876
▁حراب	-10.4892
ئگ	-10.4894
▁ضروری	-10.4897
came	-10.4898
با	-10.4903
▁دیریں	-10.4903
▁گلزار	-10.4903
▁جزبگ	-10.4904
▁لوگءِ	-10.4912
رہ	-10.4915
▁اشکت	-10.4915
▁form	-10.4916
▁سمندر	-10.4918
▁like	-10.4934
▁پیشانی	-10.4938
’’(	-10.4942
▁then	-10.4947
▁ناگمان	-10.4952
▁میراث	-10.4954
غیں	-10.4963
اللہ	-10.4971
▁سوئی	-10.4976
▁Brit	-10.4977
▁سڑک	-10.4979
▁well	-10.4981
▁توپان	-10.4985
▁زمان	-10.4986
زور	-10.4992
▁گواری	-10.5002
▁ماھیگ	-10.5006
▁گوراں	-10.5012
تیں	-10.5013
▁ص	-10.502
▁دلی	-10.5029
▁پروم	-10.5031
▁ھوں	-10.5035
▁known	-10.5035
▁بزانکہ	-10.5037
▁جک	-10.5041
▁مسال	-10.5042
▁episode	-10.5043
▁اکر	-10.5044
b	-10.5045
▁کرم	-10.505
▁موومنٹ	-10.5051
▁جدید	-10.5064
▁تھے۔	-10.5071
▁تلار	-10.5072
▁چاڑ	-10.508
▁پچیں	-10.509
▁مارکس	-10.5094
شاہ	-10.5096
▁کنے	-10.51
▁گشتانک	-10.5101
c	-10.5102
▁کپتگ۔	-10.5104
ینت	-10.5106
▁ھنداں	-10.5112
▁توجیل	-10.5112
▁ناکہ	-10.5113
▁بزنجو	-10.5119
▁پاکستانءِ	-10.5119
برے	-10.5122
▁کھولانی	-10.5125
▁اماچیں	-10.5125
▁تژن	-10.5126
▁بندانی	-10.513
▁بنگلہ	-10.5136
▁۔بلے	-10.5138
▁واھگانی	-10.5141
▁گھگیری	-10.5141
▁ٹنگ	-10.5141
▁والی	-10.5143
▁اپی	-10.5148
تاں	-10.5149
▁زالبولاں	-10.515
▁بارے	-10.515
▁جیڑھانی	-10.5157
▁داران	-10.5157
▁گچینکاری	-10.516
▁گاریں	-10.5164
▁ملور	-10.5166
▁روچءِ	-10.5166
▁زورگیریں	-10.5167
▁ٹپاس	-10.5169
▁اوگان	-10.517
▁ٹ	-10.5171
▁جمعہ	-10.5178
▁عارف	-10.5181
▁پریں	-10.5181
▁so	-10.5185
▁دمگانی	-10.5185
▁اہ	-10.5188
▁مجگ	-10.5193
▁زبھر	-10.5197
▁گشاد	-10.5197
▁گوہر	-10.5198
▁بدلیاں	-10.5202
دا	-10.5202
▁مسئلہ	-10.5206
▁مو	-10.5212
▁یکوارے	-10.5213
▁بیدار	-10.5215
▁ابراھیم	-10.5215
محمد	-10.5217
▁لذت	-10.5217
▁مشین	-10.5218
▁تیاری	-10.5222
▁چیرءَ	-10.5225
▁دیدار	-10.5228
▁باسکانی	-10.5231
▁زری	-10.5232
▁کاپر	-10.5232
▁سورت	-10.5234
▁کارچ	-10.5238
▁میتگے	-10.524
▁چمگ	-10.5259
▁شا	-10.5272
▁چندیں	-10.5278
▁ابو	-10.5281
▁دلبند	-10.5285
▁K	-10.5296
▁تھت	-10.5305
ۆ	-10.5311
▁تہذیب	-10.5313
▁کیسگ	-10.5328
▁کمار	-10.5333
▁رجانکاری	-10.5337
▁دوار	-10.5337
▁مھکمیں	-10.5339
▁w	-10.5346
ستان	-10.5348
▁سوگات	-10.5348
▁سیمسراں	-10.5351
▁زمانگے	-10.5355
▁پسندی	-10.5361
▁دنتان	-10.5368
گار	-10.5371
▁many	-10.5372
▁مقام	-10.5375
ہے	-10.5382
▁اواں	-10.5383
▁پرستی	-10.5387
▁مھمان	-10.5387
▁۔۔۔۔۔	-10.5388
▁نیمگاں	-10.5389
▁چیردستی	-10.5389
مارا	-10.5396
▁اپس	-10.5404
▁E	-10.5416
▁پشتون	-10.5417
is	-10.5419
▁un	-10.5425
though	-10.543
▁ہمائی	-10.5439
▁بوہ	-10.5446
▁found	-10.5447
▁لوگی	-10.545
جن	-10.545
▁ڈ	-10.5454
▁ندارہ	-10.5459
▁عادت	-10.5461
▁گرک	-10.5463
▁بلو	-10.5466
▁ٹاور	-10.547
▁رئیس	-10.547
▁فلسفی	-10.5472
▁کرسی	-10.5475
nited	-10.5479
▁کوپگاں	-10.5481
▁گوازینت	-10.5484
▁فاروق	-10.5484
▁گوزیت	-10.5486
▁اشتاپ	-10.5487
ایر	-10.5487
▁امل	-10.5488
▁ہستی	-10.5489
▁پلیں	-10.5491
زئی	-10.5493
وان	-10.5498
▁دستانی	-10.5499
▁منتگ	-10.5501
▁مطابق	-10.5507
▁ته	-10.5508
▁وخت	-10.5513
▁گورنر	-10.5515
▁ایکس	-10.5517
▁الیکشن	-10.5522
▁عبدالحمید	-10.5524
▁پہل	-10.5525
اف	-10.5525
▁مختلف	-10.5529
▁برا	-10.5532
▁سل	-10.5533
▁باد	-10.5533
▁ارساں	-10.5537
رجانک	-10.5543
▁long	-10.5546
▁حملہ	-10.5548
▁میرے	-10.5552
▁پھک	-10.5557
▁کشمیر	-10.5558
۔۔۔۔۔۔۔۔۔۔۔۔۔۔۔۔	-10.5559
▁ہا	-10.5561
▁بھ	-10.5564
▁سنت	-10.5565
▁مانیت	-10.5585
▁گرمی	-10.5594
▁سرگوست	-10.5594
▁طاہرہ	-10.5596
▁ہیل	-10.5597
▁بیھار	-10.56
▁بھت	-10.5606
▁لگتمالی	-10.5608
▁ریس	-10.561
▁ازمانکار	-10.5613
▁پروشتگ	-10.5613
▁شود	-10.5613
▁درمیان	-10.5615
▁رشید	-10.5618
ؤ	-10.5623
▁محنت	-10.5624
▁ویران	-10.5625
g	-10.5628
▁سهیگ	-10.5629
▁امیری	-10.5648
▁قیمتانی	-10.5651
▁شرط	-10.5651
▁دردے	-10.5652
▁پکا	-10.5654
▁مندی	-10.5654
▁مانداشتگ	-10.5654
▁ایمن	-10.5661
▁تخلیق	-10.5662
▁اخراجات	-10.5663
▁۔ا	-10.5666
▁یورپی	-10.5666
▁اھمد	-10.5667
▁خ	-10.5668
▁پانی	-10.567
اچ	-10.5679
▁ٹیلی	-10.5682
▁گئے	-10.5684
اہاں	-10.5684
▁جیڑہانی	-10.5686
▁بوجیگ	-10.569
▁سطح	-10.5692
▁درونت	-10.5698
▁ہاں	-10.5698
▁پڑا	-10.5701
▁یکین	-10.5701
▁پیشدارگ	-10.5707
▁ماھل	-10.571
▁گریت	-10.5711
▁اندازہ	-10.5714
▁سیستان	-10.5717
ٹر	-10.5721
▁خلیل	-10.5722
▁کابل	-10.5725
▁شورو	-10.5729
▁گوھر	-10.5733
▁بلاش	-10.5733
▁ٹارگٹ	-10.5749
▁ادیب	-10.5751
▁بلۆچ	-10.5754
▁گواچنی	-10.5756
▁داتہ	-10.5757
▁بیتہ	-10.5758
▁ناشرکاری	-10.5761
▁دربار	-10.5765
▁قدرت	-10.5769
▁عذاب	-10.577
رنگ	-10.5771
▁بوج	-10.5777
▁پتو	-10.5778
▁فتح	-10.5781
▁use	-10.5783
▁احوال	-10.579
▁century	-10.5792
انے	-10.5794
▁غریب	-10.5802
▁ھڈ	-10.5803
▁کمکار	-10.5808
▁شاکر	-10.5815
▁سہت	-10.5815
▁After	-10.5817
▁8	-10.5818
▁اوشتگ	-10.5819
▁عاشق	-10.582
▁پرچیکہ	-10.583
▁ذہن	-10.5832
▁رستگیں	-10.5835
▁ہندو	-10.5837
▁واہ	-10.5839
▁ہونے	-10.5839
▁حیر	-10.5839
▁جرمن	-10.5845
▁جمال	-10.5853
▁کترینا	-10.5853
اشی	-10.5858
▁دیوک	-10.5862
▁سودا	-10.5863
▁جمیل	-10.5865
▁پیگمبر	-10.5871
▁وارث	-10.5875
▁16	-10.5876
▁امارات	-10.5883
▁مشت	-10.5891
▁four	-10.5894
▁خضدار	-10.59
▁یہاں	-10.5904
بوتگ	-10.5906
▁تیلانک	-10.5908
▁کواس	-10.591
▁گلی	-10.5911
▁7	-10.5911
▁سالونک	-10.5914
▁نکنت	-10.5914
اہ	-10.5915
▁کروڑ	-10.5916
▁اسد	-10.592
▁زراں	-10.5921
▁پروشت	-10.5923
▁وردن	-10.5929
▁چڑھاؤ	-10.5931
▁9	-10.5934
▁دگراں	-10.5936
▁شاعریءِ	-10.5936
▁شخصیت	-10.5942
▁گنجیں	-10.5946
▁پہلے	-10.5956
▁گراہک	-10.5957
▁ڈیہی	-10.5957
▁قائم	-10.5958
▁مجھے	-10.5966
▁بباں	-10.598
▁ڈولدار	-10.5983
▁سروزیر	-10.5984
▁شوک	-10.5985
▁شرکت	-10.5987
▁فن	-10.5988
k	-10.5988
▁نوکتریں	-10.5988
▁میران	-10.5992
▁مج	-10.5993
................	-10.5993
▁لئیب	-10.5996
▁درامدیں	-10.5999
▁0	-10.6005
▁لالا	-10.6007
▁توکلی	-10.6008
ض	-10.6013
▁کڈن	-10.6019
▁12	-10.6021
▁جرمنی	-10.6021
▁تین	-10.6022
پت	-10.6023
▁مرگے	-10.6025
▁sever	-10.6027
▁American	-10.6029
رند	-10.6031
▁کمکیں	-10.6032
▁سٹی	-10.6043
▁کٹم	-10.6045
▁ماث	-10.6048
▁کائے	-10.6053
▁یے۔	-10.6055
▁مشک	-10.6055
▁چیف	-10.6055
▁ہدا	-10.6058
▁پابندی	-10.6061
▁دلانی	-10.6071
▁گروک	-10.6077
▁جنگے	-10.6078
اؤ	-10.6082
▁پرایمن	-10.6084
▁فکری	-10.6086
یگیں	-10.6088
▁غالب	-10.6094
وئی	-10.6095
▁وپتگ	-10.61
▁رحمت	-10.61
▁ملکءِ	-10.6101
▁دلگوشی	-10.6103
▁دعوت	-10.6115
▁کاینت۔	-10.612
▁بجار	-10.6122
▁لنکک	-10.6123
▁دئینت	-10.6128
▁تیوگ	-10.6128
▁عبادت	-10.6129
▁ھمد	-10.613
▁ڈنءَ	-10.6132
▁مندیں	-10.6134
▁دوئمی	-10.6135
▁شانزدہ	-10.6143
▁کوہن	-10.6144
▁زھم	-10.6144
▁لنگ	-10.6149
داریں	-10.615
▁ایکشن	-10.6151
▁ازاتیں	-10.6153
▁درخواست	-10.6153
وٹ	-10.6155
▁دیت	-10.6155
▁ھیالانی	-10.6157
▁الما	-10.6163
▁گشی	-10.6166
▁جہاز	-10.6168
▁سراں	-10.6169
▁زبر	-10.617
▁اصف	-10.6181
▁O	-10.6183
▁گمانی	-10.6185
▁منوگر	-10.6186
▁ٹل	-10.6186
روان	-10.619
▁دلا	-10.6194
▁حاتم	-10.6199
▁بٹ	-10.6206
▁بیلٹ	-10.6214
راہ	-10.6214
▁صحت	-10.6215
▁لسبیلہ	-10.6217
▁نبشته	-10.622
▁گوار	-10.622
▁ھل	-10.6231
▁دیوانجاه	-10.6234
▁مقابلہ	-10.6237
▁روتاک	-10.6241
▁ماھے	-10.6246
▁نازرکیں	-10.6253
▁کن۔	-10.6257
▁ریکارڈ	-10.6257
▁شگان	-10.6262
▁تحت	-10.6265
غاں	-10.6266
▁سٹ	-10.6266
▁زبانی	-10.6269
▁کارستانی	-10.6274
▁team	-10.6278
▁بجن	-10.6282
▁پلگار	-10.6284
▁براتاں	-10.629
▁گرنچ	-10.6293
▁جاڑیگ	-10.6293
ہو	-10.6296
▁ڈگارانی	-10.6296
▁درائی	-10.63
▁مرو	-10.6301
▁near	-10.6305
▁اڑے	-10.6309
▁ساڑا	-10.6312
▁یاگی	-10.6316
سن	-10.6327
▁ہواریں	-10.6331
▁نماسگ	-10.6335
▁ڈیل	-10.6337
▁حمایت	-10.6339
▁سرءُ	-10.6342
▁زھگے	-10.6342
▁تھر	-10.6352
cause	-10.6355
▁پڑءَ	-10.6358
▁مردءَ	-10.6359
▁پلامرزی	-10.6363
▁مھتل	-10.6363
▁فرانسیسی	-10.6367
▁محفوظ	-10.6369
▁روم	-10.6369
نز	-10.6372
▁بھار	-10.6375
▁W	-10.6379
son	-10.638
▁برطانیہ	-10.6381
▁جنازہ	-10.6381
▁پیسری	-10.639
▁تراکے	-10.6399
▁گہتر	-10.6405
▁وپا	-10.6413
▁بهر	-10.6415
▁پنجابی	-10.6417
▁زھگاں	-10.6424
▁مصر	-10.6427
اء	-10.6431
▁سماجی	-10.6433
▁نگیگ	-10.6437
▁نیمروچ	-10.6446
▁اسٹیشن	-10.6449
▁عجب	-10.6452
▁جسٹس	-10.6453
▁جبر	-10.6454
▁رپ	-10.6459
▁سیہ	-10.6463
▁پلے	-10.6464
▁ریکی	-10.6469
▁مہکم	-10.6477
▁remain	-10.6479
▁دابیں	-10.648
▁راجءِ	-10.6481
▁کلمتی	-10.6487
▁اظہار	-10.6491
▁دید	-10.6495
▁کارمستر	-10.6496
▁دوران	-10.6499
▁یونان	-10.65
▁وراک	-10.6508
▁کامریڈ	-10.6511
▁بندیگیں	-10.6517
اوں	-10.6521
▁لیڈر	-10.6522
▁رنداں	-10.6526
▁محکم	-10.6527
▁فی	-10.6538
▁کارکن	-10.6539
▁قدرتی	-10.654
▁final	-10.6541
▁گروپ	-10.6541
▁زلورت	-10.6549
▁پاشک	-10.655
▁دردانی	-10.6551
▁روا	-10.6552
ێ	-10.6555
▁شعرے	-10.6555
▁دستے	-10.6556
▁تالبان	-10.6558
▁ہوتے	-10.6562
▁طالبان	-10.6568
▁روئے	-10.6568
▁جوڑشت	-10.6568
▁سستگ	-10.6575
ئیگ	-10.6576
▁کرتہ	-10.6581
شما	-10.6584
▁ورنایاں	-10.6589
▁شکاری	-10.6589
▁چھبار	-10.6593
گوشت	-10.6594
▁روز	-10.6594
▁کربانی	-10.66
▁زوربیگواہ	-10.66
▁رگام	-10.6606
▁سئی	-10.6607
ناں	-10.6608
تک	-10.6612
▁شیشگ	-10.6614
▁شی	-10.6615
▁جاتی	-10.6616
▁نوبت	-10.6616
▁شیطان	-10.6618
▁ماتیں	-10.6619
▁ھژدری	-10.6621
▁چت	-10.6623
کتگ	-10.6624
▁زوتاں	-10.6628
▁early	-10.6628
▁زمانہ	-10.6634
▁لوزانک	-10.6636
▁could	-10.6638
▁حافظ	-10.6644
▁راہبند	-10.6649
▁جامگ	-10.665
▁سنٹ	-10.6652
▁دودا	-10.6653
▁17	-10.6659
▁سریاب	-10.6661
▁ساچان	-10.6663
ا۔	-10.6664
▁بش	-10.6665
▁مید	-10.6666
▁لنٹانی	-10.6668
▁رۆچ	-10.6669
▁ذہنی	-10.6674
▁میش	-10.6675
▁شتیں	-10.6679
▁نادر	-10.668
▁دوریں	-10.6681
▁گیٹ	-10.6687
▁انسانیت	-10.6687
▁اپنا	-10.6689
▁دلپدردی	-10.669
▁امد	-10.6693
▁ھیالاں	-10.6695
▁لچ	-10.6696
▁سیزدہ	-10.6696
▁گیں	-10.67
علی	-10.6704
▁پدائی	-10.6704
▁did	-10.6715
▁درایگ	-10.6718
▁کنٹ	-10.6721
▁انڈیا	-10.6721
▁بلوچءِ	-10.6723
▁ھژدہ	-10.6724
▁کتنت	-10.6728
▁سمل	-10.6728
f	-10.6733
▁کئیت۔	-10.6738
▁درکنگ	-10.6742
▁G	-10.6743
▁براھوئی	-10.6744
▁اخلاق	-10.6748
نبشتہ	-10.675
▁گوشیں	-10.6751
واب	-10.6752
▁براتانی	-10.6766
▁جنگانی	-10.6766
▁توانائی	-10.6766
▁ٹوک	-10.6768
''	-10.6771
▁جہگیر	-10.6772
▁درجگ	-10.6773
▁ٹو	-10.6777
▁شامل	-10.6779
▁رنگی	-10.6781
▁اولاک	-10.6785
▁سپاھی	-10.6787
▁Al	-10.6792
جا	-10.6795
▁شدت	-10.6796
▁ہمیشی	-10.6801
▁place	-10.6801
▁گیرت	-10.6802
▁بیتءُ	-10.6807
▁صادق	-10.6815
et	-10.6817
▁ڈبلیو	-10.682
▁کارندھاں	-10.682
▁ترینت	-10.6821
▁چیل	-10.6822
▁تکانسر	-10.6825
▁سیکرٹری	-10.6827
ید	-10.6835
▁پیداگ	-10.6837
▁میز	-10.6838
▁دبئی	-10.6844
۔۔۔۔۔۔	-10.6846
""	-10.6847
▁زاہ	-10.6854
▁گشندہ	-10.6858
▁توبہ	-10.6862
▁back	-10.6864
چر	-10.6865
▁پیرا	-10.6867
▁رھبندانی	-10.6873
دگ	-10.6876
بد	-10.6885
▁سمائی	-10.6889
▁ڈرامہ	-10.6891
▁زہری	-10.6891
▁جہلی	-10.69
▁along	-10.6905
▁سببا	-10.6905
▁سنگتی	-10.6905
▁درکپتگ	-10.6907
ایانی	-10.6912
▁اهانی	-10.6919
▁خلافا	-10.692
▁She	-10.692
▁پنجاپ	-10.6922
گوش	-10.6923
▁اپسر	-10.6923
▁ذریعہ	-10.6925
▁قیمت	-10.6936
▁بوچ	-10.6937
▁ائیئ	-10.6938
▁دیمرئی	-10.6944
▁زمینی	-10.6952
▁ہواری	-10.6952
▁پئیم	-10.6955
▁جنینانی	-10.6956
▁کتابجاہ	-10.6957
▁منٹ	-10.6958
▁بیانیہ	-10.6958
▁ایگءَ	-10.6967
لبزانک	-10.6971
▁چمن	-10.6975
▁شبیر	-10.6975
▁ھلاسی	-10.6976
▁may	-10.6976
▁یکجا	-10.6982
▁زانیں	-10.6982
▁سلاھاں	-10.699
▁تاکے	-10.6992
▁میت	-10.6993
ریں	-10.6994
ton	-10.6996
▁دوت	-10.6998
▁ٹوھیں	-10.7001
▁کارندھانی	-10.7004
▁مسک	-10.7004
▁کشاں	-10.7005
▁کائنات	-10.7011
▁جر	-10.7011
▁سوشلزم	-10.7012
ber	-10.7018
▁دوئینانی	-10.7018
▁sai	-10.7019
انک	-10.703
▁عاجز	-10.7032
▁نائب	-10.7033
▁جمالی	-10.7053
نک	-10.7053
▁گوریچانی	-10.7053
▁پرنٹ	-10.7057
▁بشکھندگ	-10.7058
▁مریت	-10.7065
▁صبور	-10.7065
▁زرے	-10.7067
▁باغ	-10.7067
▁تیزی	-10.7068
▁ننداں	-10.7082
▁اشتاپی	-10.7086
▁است۔	-10.7088
▁حفیظ	-10.7089
یکے	-10.71
▁بلال	-10.7101
▁پترگ	-10.7102
▁شخص	-10.7108
▁سہریں	-10.7109
▁جور	-10.7112
ازم	-10.7113
▁حاکمی	-10.7114
مرگ	-10.7121
▁ون	-10.7126
▁مشکول	-10.7127
اہانی	-10.7133
▁جھمنندیں	-10.7134
▁پہم	-10.714
گانی	-10.7141
▁شلوار	-10.7143
▁کمان	-10.7146
▁تاگت	-10.7153
▁شئیرانی	-10.7156
▁سرگ	-10.7161
▁زحم	-10.7164
▁گیجگ	-10.7167
▁تھانہ	-10.7167
▁ارزانی	-10.7168
▁جسمانی	-10.7173
2	-10.7173
کتاب	-10.7174
سو	-10.7175
▁کتابی	-10.7178
▁رہادگ	-10.7181
▁بحرین	-10.7185
▁داشتگیں	-10.7186
▁حیثیت	-10.7188
اردو	-10.7188
▁لرز	-10.7188
▁زنڈیں	-10.7192
▁رکھینگ	-10.7194
▁نر	-10.72
▁واباں	-10.7207
▁بلبل	-10.7213
گری	-10.7223
▁اصلی	-10.7224
نڈ	-10.7224
▁ه	-10.7225
ایش	-10.7225
▁ایمنیں	-10.7226
بت	-10.7232
▁راجاں	-10.7236
▁زوان	-10.7237
▁کپتہ	-10.7238
▁نزینکی	-10.7239
▁زانت۔	-10.7239
۔ہمے	-10.7241
▁انت۔۔۔۔	-10.7241
▁ہون	-10.7245
▁عوامی	-10.7249
▁قربانی	-10.7253
▁بزیں	-10.7256
▁عالمی	-10.726
▁تچکی	-10.7263
▁حنیف	-10.7275
▁کاگدے	-10.7276
▁کتءُ	-10.7279
▁پان	-10.7283
لچہ	-10.7285
▁روت۔	-10.7285
ماہ	-10.7285
▁گے	-10.7289
▁ببنت	-10.729
▁نیتکگ	-10.7291
▁لینگویج	-10.7298
▁مردگ	-10.7301
▁War	-10.7303
▁ھمل	-10.7304
▁گوازین	-10.7304
کور	-10.7306
▁کاردار	-10.7309
▁باب	-10.7315
▁صلاح	-10.732
▁گت	-10.7322
▁تاکاں	-10.7324
▁نقش	-10.7327
▁وسائل	-10.7328
▁11	-10.7328
▁کارڈ	-10.7345
▁اسکانی	-10.7346
▁ھست۔	-10.7348
▁ہمنچو	-10.7351
▁مرگانی	-10.7353
▁لولی	-10.7354
▁سواری	-10.7356
▁درستانی	-10.736
▁رمگ	-10.7361
▁جلال	-10.7363
▁کارگشاد	-10.7371
▁شیپ	-10.7372
▁مسعود	-10.7374
▁حلاپ	-10.7374
▁ناشرکار	-10.7379
▁پکرانی	-10.7382
▁افلاطون	-10.7383
▁بروکیں	-10.7387
ia	-10.7387
▁داخل	-10.7392
▁بلا	-10.7392
▁سبا	-10.7393
▁بین	-10.7398
▁ندیم	-10.7399
▁بکار	-10.7403
▁ڈرون	-10.7406
▁c	-10.7406
▁کمزور	-10.7407
▁جمع	-10.7411
▁جیونی	-10.7414
▁صدیق	-10.7414
ینیت	-10.7414
▁نہاد	-10.7417
▁کماندار	-10.742
▁شوق	-10.7424
▁شانگ	-10.7424
age	-10.7432
▁فلم	-10.7433
▁نعمت	-10.7436
▁لیکگ	-10.7437
▁بنگیجی	-10.7439
▁At	-10.7439
شن	-10.7442
▁ہب	-10.7446
▁پگار	-10.7447
▁ح	-10.7448
▁گرانی	-10.7448
▁ھؤر	-10.7454
فر	-10.746
▁حکمت	-10.7462
▁بہتام	-10.7463
▁L	-10.7464
▁بوتگاں	-10.7466
▁کوچ	-10.7469
▁تعالیٰ	-10.747
▁day	-10.7471
▁یونٹ	-10.7484
▁لنٹاں	-10.7485
▁سبر	-10.7491
▁میٹر	-10.7494
▁پو	-10.7496
▁داشتگ۔	-10.7498
▁قربان	-10.75
round	-10.7501
▁راہءَ	-10.7506
▁بہشت	-10.7512
▁اوتاک	-10.7512
▁شہم	-10.7512
▁city	-10.7513
▁براہوئی	-10.7516
▁دیگی	-10.7517
▁بستارے	-10.7523
ment	-10.7525
▁شیرین	-10.7528
▁15	-10.7531
▁کارءِ	-10.7531
▁چئیرمین	-10.7532
▁فورسز	-10.7534
▁same	-10.7541
▁جنس	-10.7543
▁unti	-10.7544
▁original	-10.7546
▁نوش	-10.7548
▁دئیں	-10.7556
▁موسیٰ	-10.7556
فی	-10.7557
▁امباز	-10.7565
▁ستکگ	-10.7566
▁گرند	-10.7569
▁زگریں	-10.7569
▁انگیر	-10.7571
▁million	-10.7572
▁مدینہ	-10.7575
▁یعقوب	-10.7576
واں	-10.7579
زم	-10.758
▁راھشون	-10.7586
▁باھوٹ	-10.7591
▁اسکی	-10.7594
▁راستے	-10.7596
ist	-10.76
▁سنگین	-10.7602
▁کاپٹر	-10.7604
ue	-10.7605
کرت	-10.762
▁ناگت	-10.7621
▁چکر	-10.7622
▁وسیلگ	-10.7635
▁قابل	-10.7638
▁شودگ	-10.764
el	-10.7641
گال	-10.7643
▁نئیکہ	-10.7647
▁سرباز	-10.7653
▁بغیر	-10.7658
▁کان	-10.766
▁برائی	-10.7661
▁پادا	-10.7662
ch	-10.7664
▁زاتی	-10.7672
▁میانی	-10.7674
▁انت۔بلے	-10.7681
▁ڈاہ	-10.7683
▁ازت	-10.7683
▁کسه	-10.7683
▁کلو	-10.7683
▁کنز	-10.7686
▁people	-10.7687
▁اینکس	-10.7689
▁جنسی	-10.769
▁لانک	-10.7692
▁زاہد	-10.7704
▁اوگام	-10.7704
▁لاچاری	-10.7705
▁سئیل	-10.7706
▁کارا	-10.7706
▁return	-10.7707
▁پرز	-10.7708
▁دلمراد	-10.7711
▁احتگ	-10.7712
▁بگندے	-10.7713
▁دہک	-10.7716
پٹ	-10.7717
▁any	-10.7719
▁20	-10.7722
شان	-10.7723
▁ship	-10.7723
▁پجارگ	-10.7724
▁پھم	-10.7733
▁off	-10.7734
▁ارشکار	-10.7737
یات	-10.7738
▁بچکے	-10.774
ok	-10.774
▁جہہ	-10.7741
▁ست	-10.7754
▁May	-10.7759
▁حل	-10.776
▁North	-10.776
▁نپس	-10.7761
تنت	-10.7764
▁توکل	-10.7769
▁نوجوان	-10.777
▁جمہوریت	-10.7772
▁پلیٹ	-10.7774
دوست	-10.7775
▁قد	-10.7775
▁ٹرک	-10.7776
▁راہے	-10.7777
▁km	-10.7781
▁محدود	-10.7782
▁عثمان	-10.7785
▁؂۔	-10.7786
▁بیغ	-10.7791
▁جنگءِ	-10.7792
▁مرزا	-10.7794
▁حر	-10.7794
▁مردمءَ	-10.7795
▁ھزارانی	-10.7796
▁بلوچستانءَ	-10.7796
▁یاتانی	-10.7808
▁کربان	-10.7809
▁اخری	-10.781
▁مکتب	-10.7811
▁وارت۔	-10.7816
▁نفسیات	-10.782
▁main	-10.7823
▁کاریں	-10.7823
▁H	-10.7825
پرچا	-10.783
▁شھیدانی	-10.7831
▁زانتکاریں	-10.7831
▁رہی	-10.7834
▁نوکر	-10.784
▁بانل	-10.7841
▁تتکگ	-10.7842
▁جہ	-10.7845
▁مپت	-10.7846
▁They	-10.7847
▁player	-10.7847
▁خطرہ	-10.7848
▁اہی	-10.7851
▁نکان	-10.7854
▁لینڈ	-10.7862
▁مد	-10.7863
▁پریشانی	-10.7865
▁بلند	-10.7865
▁سازگ	-10.7868
ive	-10.7872
ایک	-10.7872
▁حشک	-10.7877
ry	-10.7878
▁طبقہ	-10.788
رگ	-10.7882
نس	-10.7888
▁پجہ	-10.7895
▁میتگاں	-10.7899
▁عہدی	-10.79
یتگ	-10.79
▁خوش	-10.7902
▁مہری	-10.7904
▁نبیسی	-10.7905
▁جلد	-10.7906
مر	-10.7907
▁بنپد	-10.7908
▁ظاھر	-10.7908
▁force	-10.791
▁ٹیسٹ	-10.7914
▁زاری	-10.7915
ادا	-10.7918
▁کلچر	-10.7919
▁ائیء	-10.792
▁ھوت	-10.792
▁قیامت	-10.7922
▁پہمگ	-10.793
▁اکرم	-10.7931
▁دابے	-10.7933
▁پشتو	-10.7937
▁حیدر	-10.7939
▁down	-10.7943
▁کمیونسٹ	-10.7945
▁بوٹ	-10.7953
ران	-10.7961
▁August	-10.7962
▁ہزاراں	-10.7963
▁how	-10.7963
▁تھاری	-10.7969
▁ارتگ	-10.797
▁سربازی	-10.7972
▁ھاں	-10.7973
▁چاریگ	-10.7975
▁ہنکین	-10.7985
▁کرءَ	-10.7986
▁گوانکو	-10.7987
▁پٹی	-10.7992
▁John	-10.7993
▁تش	-10.7995
▁شہداد	-10.7995
ma	-10.7998
▁برورد	-10.7999
▁گیت	-10.8003
▁جنجالاں	-10.8009
▁ایشیا	-10.801
ٹک	-10.8011
▁گاڑیاں	-10.8012
▁How	-10.8012
▁ثبوت	-10.8017
▁گوشے	-10.8022
▁بزگر	-10.8022
▁بیسہ	-10.803
مہر	-10.8033
گیر	-10.8034
▁مدان	-10.8037
▁لحاظ	-10.8039
▁زوراکیں	-10.8043
▁انچوشکہ	-10.8045
▁ریپبلکن	-10.8049
▁ایسا	-10.8053
▁شپءِ	-10.8056
▁بارگ	-10.8059
▁سبزل	-10.8059
▁الرحمن	-10.8062
▁ششمی	-10.8063
▁لیبی	-10.8067
▁نبوتگ	-10.8074
▁دروشمءَ	-10.8077
▁South	-10.808
▁مثل	-10.8083
گندگ	-10.8084
▁منانک	-10.8086
▁گوستانک	-10.8086
▁سادگیں	-10.8089
▁اییا	-10.8089
▁شوانگ	-10.8091
▁دعویٰ	-10.8103
▁وھدا	-10.8103
▁گورم	-10.8104
▁ھشتاد	-10.8106
▁پٹءُ	-10.8111
▁بچکندگ	-10.8113
▁سواد	-10.8115
▁جتیں	-10.8116
▁دمانءَ	-10.8119
بنت	-10.8123
مل	-10.8125
▁name	-10.8126
▁واد	-10.813
▁لانگ	-10.8134
▁توکءَ	-10.8139
▁پابند	-10.8141
▁ورد	-10.8142
▁سالیں	-10.8144
▁کپتاں	-10.8144
ژ	-10.8146
▁بندے	-10.8148
▁محکمہ	-10.815
▁مغربی	-10.8158
▁دوسرے	-10.8161
▁releas	-10.8163
ایا	-10.8166
▁ھمرائی	-10.8172
▁دانشور	-10.8174
▁قومانی	-10.8174
▁اہمیت	-10.8182
▁وڈا	-10.8187
▁کھولاں	-10.8188
▁شانی	-10.8191
▁کپنت	-10.8192
▁هدا	-10.8194
▁دلپروش	-10.8196
▁سراج	-10.8199
▁مبیت	-10.82
▁کوه	-10.8206
ڈر	-10.8208
▁ویب	-10.8209
▁شائرے	-10.8209
▁انہیں	-10.821
▁کنتءُ	-10.8213
▁دوئیناں	-10.822
▁ازمانکاں	-10.8223
▁برف	-10.8227
▁لوگوں	-10.8238
▁جھ	-10.8239
▁ٹیکی	-10.8242
▁لوٹوک	-10.825
▁شعراں	-10.8251
▁وھدءِ	-10.8252
▁میا	-10.8253
▁شناسی	-10.8254
▁اگوں	-10.8255
منا	-10.8258
▁وداریگ	-10.826
▁گڑاں	-10.8261
لہ	-10.8262
▁support	-10.8267
▁زانتکارانی	-10.8267
▁ودان	-10.8267
▁جہدے	-10.8268
تاک	-10.8269
شک	-10.8275
▁پریشر	-10.8279
▁رؤکیں	-10.8281
▁رے	-10.8282
▁کستر	-10.8282
گشت	-10.8292
▁ہک	-10.8293
درد	-10.8294
▁شپانک	-10.8294
▁معنی	-10.8299
▁راھی	-10.8303
▁درکیت	-10.8304
▁گالے	-10.8309
چون	-10.8311
▁مادی	-10.8313
▁میم	-10.8314
▁پانک	-10.8316
▁گواز	-10.8318
▁رادگ	-10.8318
▁ترسینگ	-10.8319
▁بوتاں۔	-10.8323
دات	-10.8325
▁برباد	-10.8332
▁کلم	-10.8333
▁ازباب	-10.8334
▁انٹرنیٹ	-10.8334
▁بلاہیں	-10.8334
▁ھائی	-10.834
▁جھدکار	-10.8341
ten	-10.8344
▁b	-10.8344
▁یکرندے	-10.8346
▁اوداں	-10.8347
▁life	-10.8348
▁رپتگ	-10.8348
▁ہل	-10.8349
▁پکرءُ	-10.8356
▁مارشتے	-10.8358
▁٭٭	-10.8361
▁دمکاں	-10.8362
▁کشتگ۔	-10.8362
▁شکست	-10.8363
nother	-10.8366
مرچی	-10.8369
▁گومازی	-10.8369
▁تاہیر	-10.8374
▁انہوں	-10.8375
▁سیالی	-10.8378
▁مزدور	-10.8379
▁واریں	-10.8384
▁ڈالچار	-10.8384
یشن	-10.8385
وڑ	-10.8386
▁سالءَ	-10.839
▁مڈیانی	-10.8395
▁پگری	-10.8401
▁زوراکیاں	-10.8402
▁سگگ	-10.8414
▁مستی	-10.8416
▁دیار	-10.8423
▁سوبی	-10.8426
▁دارو	-10.8433
▁ونڈ	-10.8436
▁سوراب	-10.8436
مرد	-10.8438
▁درگتا	-10.8438
▁سرپ	-10.8439
▁بارگیں	-10.8444
▁St	-10.8448
▁receiv	-10.8449
▁تمامیں	-10.8458
▁زیکیں	-10.8462
▁دارایت	-10.8463
▁ہیر	-10.8465
کوہ	-10.8465
▁ہفت	-10.8466
▁small	-10.8467
اتنت	-10.847
▁شنک	-10.8473
▁بلائیں	-10.8473
▁انتظامیہ	-10.8474
▁تکاں	-10.8475
▁بوؤکیں	-10.8476
▁ساحرءِ	-10.848
▁مزنی	-10.849
▁دوستدار	-10.849
شاعر	-10.8491
▁ردءُ	-10.8492
کسہ	-10.8493
▁شرت	-10.8493
▁نندیت	-10.8495
▁مگسی	-10.8497
▁گاہ	-10.8498
▁مزاحمتی	-10.8501
ڈو	-10.8504
سال	-10.8505
نٹ	-10.851
▁بانزل	-10.8512
▁واہش	-10.8515
▁گپتار	-10.8517
▁قرن	-10.8529
▁مزل	-10.8529
▁ھاموش	-10.8531
▁بیں	-10.8534
▁کتابءِ	-10.8537
▁اگ	-10.8538
▁lead	-10.8539
▁غ	-10.8541
▁لائبریری	-10.8549
▁ھاس	-10.8553
▁کالونی	-10.8556
▁دئور	-10.8558
▁بلۆچی	-10.856
▁یکدم	-10.8563
▁گشنت۔	-10.8568
▁لبزے	-10.857
▁قلعہ	-10.8572
▁مروارد	-10.8575
▁رضی	-10.8575
کان	-10.8576
▁لچھ	-10.8577
▁زانئے	-10.8585
ود	-10.8585
?"	-10.8588
▁شهر	-10.8589
▁پترتگ	-10.8591
▁مولاداد	-10.8592
▁ریفرنس	-10.8594
وھدے	-10.8598
▁درگتءَ	-10.8603
▁group	-10.8604
بچار	-10.8606
ارگ	-10.8609
▁ڈیم	-10.8619
▁واز	-10.8621
شاعری	-10.8631
▁وه	-10.8631
▁نگدی	-10.8632
▁start	-10.8635
▁Septe	-10.8638
▁Be	-10.8641
▁دھکان	-10.8649
▁پوک	-10.8649
▁کرنل	-10.8662
وری	-10.8664
▁تیرانی	-10.8665
▁توارءَ	-10.8666
انچو	-10.8667
▁اینچک	-10.8668
▁قانود	-10.867
▁شریک	-10.8671
▁each	-10.8673
▁پلان	-10.8678
▁یدار	-10.868
▁ارزی	-10.8682
▁امبر	-10.8687
جہ	-10.8688
لک	-10.8698
▁باقی	-10.8702
وکین	-10.8707
▁دزگٹ	-10.8708
▁اؤ	-10.8708
▁سیمسری	-10.8708
▁باھو	-10.8713
▁ھردوکیں	-10.8717
▁German	-10.8719
▁صفحہ	-10.872
سہ	-10.8721
▁درج	-10.8721
▁احسان	-10.8721
▁مڑدم	-10.8721
▁مردمءِ	-10.8722
▁گیشین	-10.8723
▁مگرب	-10.8727
▁مریم	-10.8731
▁علامت	-10.8732
▁رژنا	-10.8735
▁سرکارءِ	-10.8741
▁رمب	-10.8744
▁معنائی	-10.8745
if	-10.8746
?’’	-10.8747
▁پریشی	-10.8749
▁پارک	-10.8753
▁رھشونی	-10.8757
▁توئے	-10.8762
گڈا	-10.8769
▁توم	-10.8771
▁افغان	-10.8771
▁روانکے	-10.8771
راج	-10.8772
▁قحطانی	-10.8774
▁اییئے	-10.8782
▁ملیر	-10.8784
▁سرءِ	-10.8785
▁امبار	-10.8786
▁اداں	-10.8786
▁World	-10.8788
▁دروریں	-10.8795
▁دیگءَ	-10.8797
▁کرز	-10.8798
▁تھی۔	-10.8798
▁البتہ	-10.8804
▁رود	-10.8804
▁بیماری	-10.8804
▁شاه	-10.8812
▁بیزار	-10.8817
▁زوران	-10.8822
▁دێما	-10.8825
گان	-10.8826
▁وئیلے	-10.8834
▁برتگ۔	-10.8837
▁جسد	-10.8839
▁ارد	-10.8846
▁سنگے	-10.8847
▁طارق	-10.885
▁بلڈ	-10.8854
اھاں	-10.8854
▁ماہیگ	-10.8855
▁مقامی	-10.8855
▁گسر	-10.8861
▁لیکھ	-10.887
▁گوشتی	-10.887
ملک	-10.8874
▁حیالاں	-10.8876
▁جوہر	-10.8882
▁دام	-10.8883
▁امبازاں	-10.8885
▁بڑی	-10.8885
▁عرض	-10.8887
▁هزار	-10.8888
زمین	-10.889
▁لاھور	-10.8895
▁دراجی	-10.8896
▁نازینک	-10.89
▁حداءِ	-10.8905
▁ناک	-10.8905
▁یت	-10.8906
▁شموش	-10.8907
▁ھنچشیں	-10.8909
▁نگن	-10.891
▁ہسپتال	-10.8912
▁دلمانگ	-10.8912
▁فٹ	-10.8913
▁دستان	-10.892
▁سقراط	-10.8925
▁پہریز	-10.893
انسان	-10.8932
یش	-10.8937
▁five	-10.8941
▁توری	-10.8943
▁ارٹ	-10.8946
▁سکا	-10.8948
▁رپت	-10.895
▁single	-10.8955
▁سدکی	-10.8957
▁کبھی	-10.8958
▁ھزمت	-10.8959
▁لزت	-10.8965
▁خراب	-10.8967
اتگ	-10.8968
▁ھکومت	-10.8968
▁سینگار	-10.8972
▁ترسے	-10.8974
▁سوز	-10.8976
▁attack	-10.8976
▁فرد	-10.8977
رز	-10.8983
بندی	-10.8986
▁دمے	-10.8987
▁اہت	-10.8987
▁بزرگ	-10.899
▁گپءِ	-10.8991
▁محراب	-10.8992
▁ڈگری	-10.8993
▁زندمانی	-10.8994
▁رات	-10.8994
▁اشتگ	-10.9
▁کبرستان	-10.9
▁بوتہ۔	-10.9001
▁گوارگ	-10.9002
▁انگو	-10.9006
▁دروہ	-10.9007
▁کانٹ	-10.901
▁result	-10.9012
▁جاگھے	-10.9013
ھچ	-10.9019
▁وتئی	-10.902
▁اسکور	-10.9024
لے	-10.9028
▁ملی	-10.9035
▁پات	-10.9035
▁لاشانی	-10.9039
▁کافی	-10.9042
▁پیغام	-10.905
▁ٹیبل	-10.9052
▁جزم	-10.9055
▁پیل	-10.9058
▁appear	-10.906
▁سھیل	-10.9063
▁تکنیکی	-10.9065
▁describ	-10.9068
▁نوٹ	-10.9074
▁لاشاری	-10.9086
▁پھریز	-10.9088
وف	-10.9088
▁ڈوک	-10.9093
▁زانشتی	-10.9097
▁ماڈل	-10.9099
▁سبارگ	-10.91
کانی	-10.9104
الی	-10.9115
▁تھام	-10.9117
▁رکین	-10.9119
▁کوسٹ	-10.912
▁اہان	-10.9123
وخ	-10.9124
▁کمرہ	-10.9126
است	-10.9127
▁عراق	-10.9131
▁گردش	-10.9132
▁چریشاں	-10.9138
▁داتنت	-10.9145
▁متحدہ	-10.9146
▁تنکیں	-10.9149
▁عقلی	-10.9151
▁کڑی	-10.9156
▁جے	-10.9158
▁ساریءَ	-10.9159
▁زون	-10.9159
▁بلی	-10.9163
یٹ	-10.9163
▁مردی	-10.9163
▁شہباز	-10.9164
▁منارا	-10.9167
▁یقین	-10.9168
▁زندگیءِ	-10.917
▁ماتے	-10.9173
▁کیلئے	-10.9174
▁کنٹگ	-10.9177
▁گدارے	-10.9178
▁سروس	-10.9178
▁پسگ	-10.9178
▁ترو	-10.9181
▁تشدد	-10.9182
گین	-10.9183
▁بنگپانی	-10.9186
?“	-10.9189
▁کلاسیکل	-10.9197
▁درنیام	-10.9199
▁زمینءِ	-10.9203
▁own	-10.9208
▁اگاہ	-10.9209
▁کشاری	-10.9212
▁ترینگ	-10.9213
▁یکشمبے	-10.9214
▁ورک	-10.9214
▁پیپلزپارٹی	-10.9217
▁گلائیش	-10.9217
یئ	-10.9221
▁شائریءِ	-10.9223
▁گپتگ۔	-10.9224
▁فٹبال	-10.9224
▁ساچی	-10.9228
▁سردارانی	-10.9231
▁ہدایت	-10.9232
▁لوار	-10.9235
▁جننت	-10.9238
▁دلاں	-10.9243
▁music	-10.9244
▁نازل	-10.9245
نیں	-10.9247
▁جلوہ	-10.925
▁بسمل	-10.925
▁اپوزیشن	-10.9255
▁نگور	-10.9261
z	-10.9262
▁وکٹ	-10.9265
▁دیمونی	-10.9268
▁ظہور	-10.9269
▁consider	-10.9273
▁زہگاں	-10.9275
▁چھر	-10.9275
▁مدار	-10.9276
▁ھورت	-10.928
ian	-10.9283
▁باں۔	-10.9284
▁کنائینتگ	-10.9288
ها	-10.9289
راں	-10.9289
▁تعلقداری	-10.929
▁دوشمبے	-10.9294
▁لگتمال	-10.9297
شرگداری	-10.93
▁ایلیٹ	-10.9303
▁جہدءَ	-10.9306
▁ویڈیو	-10.9308
مزنیں	-10.9308
▁اہد	-10.9314
▁ملین	-10.9315
▁ماھی	-10.9317
▁Dur	-10.9323
▁ایردستیں	-10.9327
▁ھرنائی	-10.9328
▁کمکے	-10.933
▁اثرات	-10.9335
▁ھا	-10.9338
▁great	-10.9339
▁پربند	-10.9344
▁پورٹ	-10.9345
ێا	-10.9348
▁ایجنٹ	-10.9351
شیر	-10.9358
مند	-10.9358
▁کسہانی	-10.9361
▁بیچ	-10.9362
▁کوہانی	-10.9363
▁نشنل	-10.9364
▁June	-10.9364
▁وراں	-10.9365
▁سبزی	-10.9366
▁اشرف	-10.9367
▁سینٹر	-10.9369
رانی	-10.937
▁سالروچ	-10.9376
▁دارگی	-10.9381
▁تحقیق	-10.9387
▁کوم	-10.9388
▁نگار	-10.9388
▁ابیتک	-10.9389
▁لاشار	-10.9391
▁رئیسی	-10.9392
ئت	-10.9393
▁اشان	-10.9396
▁وانیت	-10.9404
x	-10.9404
▁ساہت	-10.9409
▁نفس	-10.9413
پا	-10.9414
▁ٹپیگ	-10.9416
▁بحر	-10.9417
▁گونگیں	-10.9419
▁روگن	-10.9419
▁بورڈ	-10.943
▁گاماں	-10.9432
▁میرو	-10.9432
▁اتیں۔	-10.9434
▁جنگا	-10.9436
▁جنزگ	-10.9439
uch	-10.944
▁رزاق	-10.9445
▁شوھازگ	-10.9448
▁کرکے	-10.945
▁کردی	-10.945
▁پارلیمنٹ	-10.9453
▁بکنیں	-10.9454
▁اشیءَ	-10.9454
یو	-10.9461
▁رؤ	-10.9465
▁اولاد	-10.9467
▁زاھد	-10.9474
▁وبا	-10.9476
راست	-10.9477
re	-10.9479
▁یکروچے	-10.948
▁تکانسری	-10.9482
▁ترگ	-10.9488
ie	-10.9491
▁p	-10.9493
▁since	-10.95
▁point	-10.95
▁اتوں	-10.95
▁مھروان	-10.9503
▁انٹر	-10.9504
▁صالح	-10.9504
▁حبیب	-10.9506
اھانی	-10.9507
برو	-10.9507
▁اوتاگ	-10.9525
▁حیالءَ	-10.9526
▁مہتل	-10.9528
▁شاپ	-10.9533
▁پکیر	-10.9533
▁جبین	-10.9536
▁مونجا	-10.9538
▁دوسری	-10.9538
▁کابینہ	-10.9538
▁مرگءِ	-10.954
کھ	-10.9541
▁سدانی	-10.9541
▁دنیگہ	-10.9544
▁مھتر	-10.9544
پس	-10.9544
▁شئیرے	-10.9545
!’’	-10.9546
▁زندہ	-10.9546
▁دالبندین	-10.9552
نگی	-10.9553
▁ارسطو	-10.9557
▁پارٹیءِ	-10.956
▁بھٹو	-10.9564
▁شعبہ	-10.9569
▁فرض	-10.9574
▁ژند	-10.9577
▁قسمت	-10.9578
کراچی	-10.9578
▁زردیں	-10.9579
▁دارے	-10.9588
▁کوشت	-10.9589
▁تیرے	-10.959
▁di	-10.9591
▁order	-10.9595
▁بنءَ	-10.9596
▁جامی	-10.9597
▁h	-10.9598
▁زانشی	-10.9598
▁سردی	-10.9601
▁برابری	-10.9602
▁what	-10.9605
▁An	-10.9606
▁لوگبانک	-10.9606
▁Ap	-10.9606
یس	-10.9607
▁جیسے	-10.9608
که	-10.9611
▁دوستاں	-10.9611
▁پجی	-10.9612
▁پلک	-10.9612
▁چۆ	-10.9613
▁سیکیورٹی	-10.9614
▁Man	-10.9616
▁طلب	-10.9621
▁line	-10.9621
▁دنیائے	-10.9623
▁انسانانی	-10.9624
▁نفسیاتی	-10.963
ھمیش	-10.9632
▁انت۔ائی	-10.9635
▁گرماگ	-10.9635
▁بنیاتی	-10.9638
▁جهان	-10.964
▁ہاتھ	-10.964
▁اسک	-10.9642
▁States	-10.9643
▁ارزشتے	-10.9644
▁فیصل	-10.9644
▁گیابان	-10.9644
▁ات۔من	-10.9651
▁رابطہ	-10.9652
کسے	-10.9653
▁نعیم	-10.9656
ur	-10.966
▁استت	-10.9663
species	-10.9664
▁مرکزی	-10.9665
▁ئت	-10.9671
▁ابدال	-10.9674
▁ھسین	-10.9679
▁ٹکرے	-10.968
▁شوکت	-10.9681
▁تہرے	-10.9683
ٹا	-10.9685
▁جڑ	-10.9686
ازات	-10.9692
▁مردک	-10.9694
ty	-10.9697
▁گارڈ	-10.9698
▁لونجان	-10.9698
▁پریدہ	-10.9704
ہا	-10.9705
▁تراکناک	-10.9707
▁نپاد	-10.9707
▁چرس	-10.9709
▁جانے	-10.9709
تب	-10.9715
▁No	-10.9716
▁اسن	-10.9718
▁واھشت	-10.9719
▁بھارت	-10.9722
▁زہ	-10.9724
▁سنگانی	-10.9726
▁اسلوب	-10.973
▁بیمار	-10.974
▁خاطر	-10.974
▁تنظیم	-10.9744
▁گردگ	-10.9745
▁زن	-10.9749
▁درکپگ	-10.975
▁مسلمانانی	-10.9753
▁مسکرا	-10.9763
▁حالے	-10.9764
▁ھوشاپ	-10.9769
▁سانمند	-10.977
لس	-10.9776
▁ڈان	-10.9779
▁چیلنج	-10.9779
▁head	-10.9781
▁کونڈ	-10.9781
▁وزم	-10.9782
مار	-10.9786
▁سارتر	-10.9787
▁شنز	-10.9789
▁اماں	-10.9792
کجام	-10.9796
▁بودلئیر	-10.9802
▁reach	-10.9805
▁زاکر	-10.9806
▁شرم	-10.9806
▁سنگینیں	-10.9808
▁داگ	-10.9809
▁لوپ	-10.9811
▁دگری	-10.9811
ٹو	-10.9811
▁اندگہ	-10.9815
▁روایتی	-10.9816
بیت۔	-10.9817
▁ادریس	-10.9819
▁انٹرنیشنل	-10.982
▁وانندگ	-10.9823
▁گپان	-10.9827
▁گہتری	-10.9828
▁شوم	-10.9829
▁شگر	-10.9838
▁واجکار	-10.9841
▁مردءِ	-10.9842
▁ہزدار	-10.9844
▁ماحول	-10.9847
▁نزام	-10.9856
▁famil	-10.9857
▁جنکاں	-10.9863
ren	-10.9875
▁do	-10.9877
▁دیواناں	-10.9877
▁ایسے	-10.9878
▁ادمے	-10.9878
▁پگ	-10.9879
▁system	-10.9883
▁انفارمیشن	-10.9884
▁ھوری	-10.9888
▁نمب	-10.9888
▁will	-10.9889
▁انت۔من	-10.989
▁state	-10.9891
▁late	-10.9896
▁بلوچیءَ	-10.9898
▁ریاض	-10.9898
ئین	-10.9899
▁پیسریگیں	-10.9901
▁واقع	-10.9902
▁رشتگ	-10.9902
rote	-10.9905
▁بیت۔اے	-10.9906
شعر	-10.9907
▁سگی۔	-10.9909
▁کیلو	-10.9909
▁طرز	-10.991
▁دونوں	-10.9911
▁راضی	-10.9913
▁اقتصادی	-10.9918
▁پارلیمانی	-10.992
لیں	-10.9922
▁نل	-10.9923
▁شمس	-10.9929
▁تپاسگ	-10.993
▁مکنت	-10.9931
جت	-10.9932
▁کلک	-10.9932
پاد	-10.9934
▁دورے	-10.994
▁موسمانی	-10.994
▁De	-10.9945
▁مڑد	-10.9947
▁ساھتے	-10.9949
▁ڈبہ	-10.9952
▁گوئشان	-10.9955
▁تربیت	-10.9965
▁نعرہ	-10.9965
▁انتظام	-10.9966
▁باتن	-10.9973
▁جمبراں	-10.9973
▁علاوہ	-10.9974
▁شب	-10.9976
▁رنگاں	-10.9977
▁بخت	-10.9979
▁ونگ	-10.9988
▁معیار	-10.9995
▁بامرد	-10.9996
▁چوناہا	-10.9997
▁تہنائی	-10.9997
▁پجاہ	-10.9998
▁فل	-10.9998
▁اہل	-10.9999
▁نسیب	-11.0001
▁13	-11.0005
نوک	-11.0009
▁شپانی	-11.001
▁بوھگءَ	-11.0016
توار	-11.0016
▁لہتین	-11.002
▁فلسفہءِ	-11.0021
▁کانال	-11.0022
▁گندءُ	-11.0026
▁مہرءُ	-11.0026
▁ائ	-11.0026
▁last	-11.0027
▁علت	-11.0031
ra	-11.0031
پاکستانی	-11.0032
کرتگ	-11.0038
▁Octo	-11.004
▁کوھلو	-11.0041
منءَ	-11.005
▁ابیتکی	-11.0051
▁ٹوپ	-11.0054
ork	-11.0055
▁حدائی	-11.0059
▁داشت۔	-11.0063
▁جنیناں	-11.0066
▁بچاں	-11.0066
▁منصور	-11.0071
▁دارانی	-11.0072
▁ہنداں	-11.0073
▁سوری	-11.0074
▁روشن	-11.0077
▁اسرءَ	-11.008
▁ریسرچ	-11.0081
پیر	-11.0083
","","","","","	-11.0083
▁بیہار	-11.0088
▁ایجنسی	-11.0088
▁کوھاں	-11.009
▁چراگے	-11.0091
▁مضبوط	-11.0093
▁دھ	-11.0097
▁............	-11.0099
▁وارس	-11.0099
▁کپتگاں	-11.01
▁فرمان	-11.0101
▁دودانی	-11.0106
▁تمنی	-11.0107
۔اگاں	-11.0108
▁وشیانی	-11.011
ril	-11.0114
▁کماشیں	-11.0116
▁قید	-11.0119
▁week	-11.0119
پور	-11.0121
▁....	-11.0121
▁پیداوار	-11.0122
▁یکجاھی	-11.0123
▁عابدہ	-11.0125
▁رہبندانی	-11.0127
▁کیف	-11.0129
▁مراگشے	-11.0132
▁ات۔ائی	-11.0132
اتاں	-11.0133
▁جیڑھے	-11.0135
▁راجدوستی	-11.0135
▁جعفر	-11.0136
▁نبشتانکاں	-11.0141
وم	-11.0141
▁بھشت	-11.0144
▁اناگت	-11.0145
ئن	-11.0147
▁won	-11.0147
▁جتک	-11.0149
▁دنیایے	-11.0149
▁چشین	-11.0149
▁بوتن	-11.015
▁دژمنی	-11.015
▁ہو۔	-11.0152
▁کیا۔	-11.0153
▁لہڑ	-11.0156
اتک	-11.0157
▁ملافاضل	-11.0158
▁پورسز	-11.016
ar	-11.0163
▁لیکہانی	-11.0169
▁کافر	-11.0171
▁ڈولا	-11.0174
▁ھورانی	-11.0174
▁بشک	-11.0175
▁لالچ	-11.0177
▁رنگءُ	-11.0179
مزن	-11.018
مروچی	-11.0188
▁زندءُ	-11.0189
کنت۔	-11.0191
▁ھمنکس	-11.0193
▁تازی	-11.0194
▁کوریں	-11.0197
▁بلہ	-11.0197
▁کیفیت	-11.0199
▁رکھ	-11.0199
▁اپہ	-11.0201
▁گین	-11.0202
▁بولی	-11.0205
▁پیشرد	-11.0206
یار	-11.0209
▁چراغ	-11.0211
▁فری	-11.0211
▁پیادگ	-11.0216
▁بدلءَ	-11.0216
▁پسندیں	-11.0221
▁صوفی	-11.0221
▁رویہ	-11.0222
▁set	-11.0224
▁اوت	-11.0224
ھان	-11.0225
جست	-11.0225
▁انگ	-11.0226
▁کلومیٹر	-11.0227
▁دہکان	-11.0227
▁قریش	-11.0229
▁خمار	-11.0229
▁ایرانشھر	-11.0232
▁war	-11.0234
▁درنگ	-11.0236
ڈن	-11.024
▁معنہ	-11.0244
▁بوتنت۔	-11.0245
ائن	-11.0246
▁ریکانی	-11.0247
▁محسوس	-11.0248
▁پیغمبر	-11.0252
▁زرءَ	-11.0256
▁لبزانکءَ	-11.0257
▁روچا	-11.0257
▁بنگالی	-11.026
گیش	-11.0262
▁دھلی	-11.0267
▁اسپتال	-11.0269
شا	-11.0269
▁کسانکیں	-11.0274
▁سپاہ	-11.0277
▁دوزہ	-11.0277
▁رستگ۔	-11.0279
▁کلاگ	-11.0286
▁تاکانی	-11.0289
▁گندیم	-11.0291
▁جیڑاں	-11.0293
ese	-11.0295
▁ہمینچو	-11.0295
▁نزیکءَ	-11.0296
▁رفیق	-11.0297
▁واھگاں	-11.03
▁ادارہاں	-11.0305
▁اوں۔	-11.0315
▁درے	-11.032
▁کانودی	-11.0322
▁world	-11.0323
▁سازیں	-11.0328
▁کارستے	-11.0328
▁دماگ	-11.0332
▁سائیکل	-11.0333
▁ائین	-11.0334
▁غیرت	-11.0335
▁ماہناز	-11.034
▁ساچگ	-11.0341
▁گاری	-11.0345
▁Re	-11.0348
▁چپیں	-11.0349
▁بوگءِ	-11.0352
▁انجمن	-11.0357
▁ازل	-11.0361
▁نیاتکگ	-11.0362
▁مرگاں	-11.0364
▁افسوس	-11.0364
▁شیہک	-11.0365
▁ترتیب	-11.0366
▁جاگہاں	-11.0368
▁بیگءِ	-11.0368
مال	-11.037
▁پرست	-11.037
▁زہگانی	-11.037
ده	-11.0372
یز	-11.0372
▁کمکی	-11.0376
▁now	-11.0377
▁اتکاں	-11.0377
▁گڈاں	-11.0378
▁عبدالواحد	-11.0379
▁ششت	-11.0379
▁پہلی	-11.0381
▁شتہ	-11.0385
▁وہدا	-11.0386
▁دھک	-11.0386
▁role	-11.0389
▁همراه	-11.0393
▁فطرت	-11.0395
▁گوری	-11.0396
▁هور	-11.0398
غی	-11.0399
▁پچار	-11.0401
▁کیں	-11.0402
▁پے	-11.0404
▁بندن	-11.0404
▁ھنی	-11.0411
▁پولنگ	-11.0411
ائرا	-11.0416
▁وہاں	-11.0417
▁میتگءِ	-11.0418
▁مقبول	-11.0421
▁لیا	-11.0421
▁بیث	-11.0422
▁تنکہ	-11.0425
▁لوزانی	-11.0428
▁پبلی	-11.0431
▁شالا	-11.0433
▁سوچگ	-11.0433
▁طریقہ	-11.0434
▁take	-11.0434
▁تیابدپ	-11.0434
▁گشتن	-11.0435
▁ردانکی	-11.0436
▁یہی	-11.0437
▁جہانءِ	-11.0437
▁کسب	-11.044
▁ڈولداری	-11.0443
▁خرچ	-11.0443
▁داروک	-11.0443
▁short	-11.0444
▁درورے	-11.0444
▁میتگءَ	-11.0444
زہ	-11.045
▁کندیل	-11.045
▁زوراں	-11.0451
▁شاہی	-11.0456
چوش	-11.0456
▁دلبر	-11.0457
▁رونت	-11.0457
▁سامنے	-11.0458
▁بالگرد	-11.046
▁پلگ	-11.0464
▁افیسر	-11.0468
▁وابی	-11.0469
لوٹ	-11.0471
▁بیورغ	-11.0474
▁الف	-11.0474
▁ارشاد	-11.0478
▁وعدہ	-11.0489
▁ناکیں	-11.049
▁due	-11.0491
ous	-11.0492
شتگ	-11.0495
▁خدمت	-11.0501
▁چمشانکے	-11.0507
▁جذبہ	-11.0507
▁ھوناں	-11.0507
▁مٹیں	-11.0507
▁ایسی	-11.0513
▁وہدءِ	-11.0514
▁یاتاں	-11.0517
▁نشتہ	-11.0519
▁بادشاه	-11.0522
ھال	-11.0522
▁ملکءَ	-11.0524
▁راشن	-11.0529
▁افریقہ	-11.0529
▁گرپتار	-11.0537
▁شادی	-11.0538
▁بہادری	-11.054
▁child	-11.0541
ul	-11.0543
▁پرش	-11.0547
دم	-11.0548
very	-11.0551
▁لائق	-11.0551
ance	-11.0551
▁قتل	-11.0559
▁گسانی	-11.056
لوگ	-11.0565
وگ	-11.0565
▁کیو	-11.0566
▁بچے	-11.0568
▁دینا	-11.0568
▁الہان	-11.0568
▁رش	-11.0572
▁جتہ	-11.0572
واہ	-11.0574
▁مشرقی	-11.0574
▁کپاں	-11.0577
▁نبشت	-11.0577
▁home	-11.0579
ہچ	-11.0582
▁منتگیں	-11.0582
▁پولکار	-11.0589
▁وپسگ	-11.059
▁بازارءَ	-11.0591
▁قومے	-11.0593
▁جبران	-11.0596
▁چلیم	-11.0596
▁عوام	-11.0597
▁کسھے	-11.0601
▁ہمت	-11.0604
پان	-11.0604
▁عجبیں	-11.0606
▁گوانزگ	-11.0608
▁دێم	-11.0611
▁اصغر	-11.0611
▁تسلا	-11.0611
hose	-11.0612
▁بول	-11.0614
▁ابراہیم	-11.0616
▁شومیں	-11.0618
▁پروجیکٹ	-11.0624
▁بیگواه	-11.0626
▁اشکر	-11.0627
▁گھتر	-11.0631
▁کنائینت	-11.0635
▁گہ	-11.0636
▁تنت	-11.0638
▁دیوکیں	-11.0638
▁اسودگی	-11.064
اج	-11.0642
▁نیستی	-11.065
▁گن	-11.0653
▁direct	-11.0653
▁جائیکہ	-11.0653
▁دیمترءَ	-11.0654
▁بڑ	-11.0654
▁کالم	-11.0655
▁پیماز	-11.0655
▁کڈ	-11.0655
▁سکندر	-11.0661
حال	-11.0661
لٹ	-11.0664
▁ساحل	-11.0667
▁allow	-11.0667
▁نوشکے	-11.067
▁منیت	-11.0672
▁پورہ	-11.0672
دنیا	-11.0672
لگ	-11.0676
▁اسکے	-11.0678
▁چارءُ	-11.068
▁مستقبل	-11.0683
▁علمءِ	-11.0688
▁اتحاد	-11.0689
▁چونائیا	-11.0691
▁شونکار	-11.0695
▁ڈال	-11.0697
▁بنڈ	-11.0697
▁?‘‘	-11.0699
ءَرا	-11.07
▁قدم	-11.0705
دیگ	-11.0706
▁ماتءِ	-11.0708
▁دوہمی	-11.0712
کجا	-11.0716
جنین	-11.0717
ہند	-11.0717
▁سادگ	-11.072
▁پلنگ	-11.0721
▁ھمینچو	-11.0723
▁پرو	-11.0727
دین	-11.0732
▁ساھتاں	-11.0732
▁تبد	-11.0732
وھد	-11.0732
▁شلی	-11.0733
▁همک	-11.0734
▁بودشت	-11.0734
▁دیوانءَ	-11.0735
▁ڈولداریں	-11.0736
▁معیشت	-11.0737
▁پیشگال	-11.0737
▁تحفظ	-11.0737
▁ھمبل	-11.0737
▁14	-11.0738
ڑو	-11.0738
▁کاران	-11.0738
▁کلکشان	-11.0748
▁پشدر	-11.0748
.“	-11.075
کٹ	-11.0751
▁زوراور	-11.0751
▁death	-11.0751
▁مدد	-11.0753
ant	-11.0755
▁دیں	-11.0757
▁جاتے	-11.0761
▁اژ	-11.0772
▁بادشاہی	-11.0774
▁نئی	-11.0776
▁سیشن	-11.0781
▁ماسی	-11.0782
▁کنڈگ	-11.0783
▁زرءِ	-11.0785
▁ساه	-11.0791
▁درساں	-11.0792
▁اسانی	-11.0793
▁ناولٹ	-11.0793
ھور	-11.0796
▁صائمہ	-11.0797
▁وهدا	-11.0798
▁اھم	-11.0801
بان	-11.0802
▁نھاد	-11.0807
▁انچۆ	-11.0809
▁ڈب	-11.081
ندہ	-11.0812
▁تاس	-11.0812
▁بوگا	-11.0813
▁bas	-11.0817
▁تخت	-11.0818
▁جنکو	-11.0823
▁بیاریت	-11.0825
چل	-11.0826
▁سوگہ	-11.0832
▁پانکجن	-11.0832
▁حیا	-11.0832
▁جاپان	-11.0834
▁ھیالے	-11.0836
▁ہژدری	-11.0838
▁کسےءَ	-11.0838
▁اھی	-11.0839
▁ورلڈ	-11.084
▁کسہاں	-11.0841
▁حدیث	-11.0846
▁داخلہ	-11.0849
▁نگاری	-11.0851
▁بیگواھیانی	-11.0851
▁گپتہ	-11.0852
▁ٹیکس	-11.0855
▁ڈائریکٹر	-11.0857
da	-11.0857
▁پجا	-11.0858
▁ناگیگ	-11.0859
▁لیلو	-11.086
▁مرکز	-11.0861
▁غماں	-11.0865
▁ریچگ	-11.0866
▁مشن	-11.0869
▁ملنگ	-11.087
▁پرچی	-11.087
▁نوری	-11.0871
it	-11.0875
▁مولد	-11.0877
▁اجتماعی	-11.0877
سری	-11.0877
▁سدل	-11.0878
▁Janu	-11.088
▁سویڈن	-11.0882
▁ھاش	-11.0884
▁بیتگین	-11.0887
▁six	-11.0893
▁کبول	-11.0895
▁included	-11.0897
▁دئیگا	-11.0897
▁30	-11.09
▁روتگ	-11.0902
▁سینیٹ	-11.0902
▁نگیگیں	-11.0903
▁پائپ	-11.0909
▁زرت۔	-11.0919
▁نرمیں	-11.092
▁storm	-11.0923
▁واجہی	-11.0924
▁انشپی	-11.0924
▁ھج	-11.0927
تھ	-11.0928
کدی	-11.0934
▁ختم	-11.0941
▁جہمنند	-11.0947
▁دینت۔	-11.0948
▁گجر	-11.0951
مب	-11.0951
▁گندان	-11.0956
جر	-11.0957
▁سپریم	-11.0957
▁ھپتگے	-11.096
▁اهاں	-11.0963
▁left	-11.0966
▁میزائل	-11.0966
▁تھار	-11.0968
▁غلامی	-11.097
يں	-11.0971
▁دویں	-11.0972
ern	-11.0975
▁کرمان	-11.0976
وانی	-11.0976
▁ہاران	-11.098
▁اندوہ	-11.0981
▁طالب	-11.0987
▁شوہازگ	-11.0988
▁نبشتانکانی	-11.099
▁لڈگ	-11.0992
▁England	-11.0995
▁video	-11.0995
▁government	-11.0995
▁سگار	-11.0996
▁گلباگ	-11.0998
▁کروس	-11.1001
▁زانتکاراں	-11.1001
▁انسانءَ	-11.1004
▁افسانہ	-11.1007
▁سوچن	-11.101
▁Nove	-11.101
▁ایوان	-11.1014
▁سچ	-11.1015
▁ود	-11.1017
▁پیسرءَ	-11.1018
▁عیسوی	-11.1024
▁ڈیپارٹمنٹ	-11.1024
▁بالگتر	-11.1027
▁اؤٹ	-11.1028
▁شیرکنیں	-11.1031
▁بوتءُ	-11.1034
▁کشتگیں	-11.1038
▁تعریف	-11.1042
▁روانی	-11.1042
▁نوروز	-11.1044
▁سہیل	-11.1045
▁نقل	-11.1047
▁۔ھمیش	-11.1048
▁تتک	-11.105
▁زامات	-11.1054
▁سالءِ	-11.1054
▁لگیت	-11.1055
▁پجارینگ	-11.1056
nd	-11.1059
▁جود	-11.106
▁راجدپترءِ	-11.106
▁چاری	-11.1061
▁درہیں	-11.1062
▁شموشگ	-11.1062
▁ہساب	-11.1062
▁گورکی	-11.1065
▁ترمپے	-11.1065
▁مندر	-11.1066
▁ریز	-11.1067
دیوان	-11.1068
▁position	-11.107
▁سرداری	-11.1072
▁زرداری	-11.1074
▁کشءَ	-11.1075
گوات	-11.1077
▁وغیرہ	-11.1078
وچ	-11.1083
▁پیروک	-11.1084
▁ڈولءَ	-11.1096
▁جئیند	-11.1097
یب	-11.1098
▁الفاظ	-11.11
▁نیاز	-11.1108
زانگ	-11.1109
▁بڑا	-11.111
▁To	-11.1113
دپ	-11.1113
۔ھمے	-11.1116
▁ماتءَ	-11.1117
جل	-11.1119
ھار	-11.1121
▁عکسے	-11.1123
▁ماریت	-11.1124
▁سربوتگ	-11.1126
▁March	-11.1128
▁بچاریں	-11.1129
▁ایریں	-11.1131
▁بڑے	-11.1132
▁بھائی	-11.1135
▁پروری	-11.1136
ماہتاک	-11.1136
▁attempt	-11.1141
▁سسی	-11.1142
پاکستان	-11.1143
▁فیس	-11.1145
▁پھازگ	-11.115
▁شناس	-11.1154
▁خاموش	-11.1157
▁موقع	-11.1157
▁ھمیشانی	-11.1166
▁include	-11.1169
▁ھکل	-11.117
▁رشتہ	-11.1171
▁تجربگ	-11.1174
▁قانونی	-11.1176
▁عن	-11.1177
▁ماھکان	-11.1184
▁سروکاں	-11.1187
ical	-11.1187
▁چکا	-11.1187
▁گندگا	-11.1189
▁شونگال	-11.119
▁ھمراھاں	-11.1193
▁اش۔	-11.1198
وہدے	-11.12
▁ملتان	-11.12
▁کاریت۔	-11.1201
▁دودءُ	-11.1202
▁اند	-11.1202
▁باہوٹ	-11.1203
▁بابو	-11.1205
▁شہار	-11.1207
▁کنڈے	-11.1208
▁نمونگ	-11.1208
▁general	-11.1209
▁کون	-11.1211
▁گوہار	-11.1212
▁ریڈ	-11.1215
▁ارسانی	-11.1216
▁کارندھے	-11.122
گون	-11.1225
▁حرام	-11.1226
▁ارداد	-11.1226
ڑا	-11.123
▁دریگتیں	-11.123
▁مکمل	-11.1231
▁سرپدیں	-11.1232
▁جاورھال	-11.1239
▁اجب	-11.1241
▁شیوار	-11.1241
▁شہرے	-11.1242
▁درپ	-11.1243
▁زیک	-11.1244
▁third	-11.1245
▁ملاقات	-11.1247
▁دس	-11.1247
باں	-11.125
علم	-11.125
▁جگ	-11.1251
▁just	-11.1253
تاریخ	-11.1253
▁حج	-11.1256
▁جاگہءَ	-11.1258
اریں	-11.1259
▁کہتے	-11.1263
▁open	-11.1268
▁گداں	-11.1269
▁گراناز	-11.127
وئیں	-11.127
▁کتار	-11.1271
▁پھازگی	-11.1276
▁men	-11.1277
▁اوارجنی	-11.1282
▁گواتے	-11.1287
▁پجاروکی	-11.1288
▁نزیر	-11.129
▁زندانی	-11.1293
▁کرو	-11.1293
▁ڪ	-11.1296
▁سرچمگ	-11.1298
▁کیمرہ	-11.1306
سنگ	-11.1308
▁فورس	-11.1315
▁موسمی	-11.1322
▁اپءِ	-11.1329
▁کرے	-11.1331
▁محل	-11.1332
▁سوبءَ	-11.1333
▁سبق	-11.1334
▁زنڈ	-11.1334
▁راسک	-11.1336
▁water	-11.1339
▁سستگیں	-11.1342
▁مالوم	-11.1346
▁بہہ	-11.1348
▁اہمیں	-11.1348
▁ایڈوکیٹ	-11.135
لبز	-11.135
▁تکلیف	-11.1352
▁لاف	-11.1355
ظ	-11.1357
▁ھمگرنچیں	-11.1359
▁games	-11.1361
▁چدءُ	-11.1362
▁شعوری	-11.1364
▁اسرار	-11.1364
▁school	-11.1365
▁سروز	-11.137
▁جانب	-11.1372
▁ستکگیں	-11.1374
▁کدرت	-11.1377
▁نابود	-11.1379
▁previous	-11.138
▁become	-11.138
▁ده	-11.1382
▁نبوت	-11.1384
▁نزان	-11.1384
دری	-11.1385
▁ھیلی	-11.1386
▁دربر	-11.1386
▁سحر	-11.1388
▁الکاپیں	-11.1395
▁عبدال	-11.1396
▁Jul	-11.1397
▁مہار	-11.1397
▁سج	-11.1399
▁مهلوک	-11.1402
▁کیپ	-11.1407
▁south	-11.141
▁ثواب	-11.1411
▁ھرچیز	-11.1411
▁north	-11.1411
▁بستہ	-11.1412
▁انگریزانی	-11.1413
▁بیڑبرتگ	-11.1426
▁پیسرگیں	-11.1426
▁یاسر	-11.1428
▁go	-11.1428
▁design	-11.1433
▁تھاریں	-11.1436
▁فاضلءِ	-11.1439
▁period	-11.1441
▁بلاہ	-11.1444
▁جگہ	-11.1445
▁زمانگءِ	-11.1446
ين	-11.145
▁کبل	-11.1452
▁موضوع	-11.1452
▁ذ	-11.1452
گرد	-11.1452
▁چدا	-11.1456
▁عنقا	-11.1458
▁راہی	-11.146
▁ڈاک	-11.1461
▁اڑاند	-11.1462
▁تحصیلدار	-11.1463
یری	-11.1466
▁بروبر	-11.1467
▁اێر	-11.1469
▁میانجی	-11.147
چوکہ	-11.1474
▁برنج	-11.1474
▁اژدری	-11.1475
▁مھراب	-11.1475
▁چارگا	-11.1479
▁ہمارے	-11.1482
▁کارروائی	-11.1483
▁لگور	-11.1485
▁نتیجہ	-11.1491
وال	-11.1491
▁تگرد	-11.1491
▁چیخوف	-11.15
▁ستار	-11.1502
▁هو	-11.1504
یان	-11.1506
بیل	-11.1507
پشت	-11.1508
کنوکیں	-11.1509
▁ھاموشی	-11.1511
▁جندءَ	-11.1518
▁گہہ	-11.152
شریں	-11.1521
باریں	-11.1521
▁نین	-11.1521
▁release	-11.1523
▁ملام	-11.1523
انکہ	-11.1526
▁رومن	-11.1528
▁مڑاہ	-11.1529
▁جمپ	-11.153
▁دلجمیں	-11.153
▁وابءَ	-11.1532
▁اقوام	-11.1534
▁سلطنت	-11.1535
▁االله	-11.1535
▁کورونا	-11.1537
▁شیرکنی	-11.1542
▁پریاتاں	-11.1543
▁پھناتاں	-11.1544
مو	-11.1545
▁مکر	-11.1545
▁local	-11.1547
▁دمگے	-11.1548
▁اک	-11.1548
▁روژنا	-11.1556
▁ماندارگ	-11.1561
▁گڈگ	-11.1563
ine	-11.1565
▁لشکرکشی	-11.1569
▁جنوکیں	-11.1571
▁پہریزگ	-11.158
▁His	-11.158
▁پلی	-11.1581
کنان	-11.1581
کئے	-11.1587
[	-11.159
▁ترسناکیں	-11.1592
▁وزارت	-11.1594
▁فراہم	-11.1594
▁ژ	-11.1594
زان	-11.1594
▁Dece	-11.1594
غا	-11.1597
▁درویش	-11.1598
▁مستاگ	-11.1601
▁حیالے	-11.1602
▁یونس	-11.1602
▁قمبرانی	-11.1605
▁اغا	-11.1611
▁جدا	-11.1612
▁مطالعہ	-11.1614
ھیال	-11.1615
▁اسٹیج	-11.1615
▁بارت۔	-11.1616
▁کرتی	-11.1617
▁دھا	-11.1618
▁سروکانی	-11.1618
▁بلوٹ	-11.1621
مے	-11.1623
▁II	-11.1625
▁حاضر	-11.1626
▁اوشتاتگیں	-11.163
▁پیلوی	-11.1631
▁پردگ	-11.1632
▁ارزانیں	-11.1633
▁سرور	-11.1639
▁زباد	-11.1641
▁ہاتر	-11.1643
ادی	-11.1643
▁تنا	-11.1646
3	-11.1647
▁حاص	-11.1651
▁ایدگرانی	-11.1653
▁سرہال	-11.1654
▁مزاج	-11.1655
▁best	-11.1656
شنگ	-11.166
▁مچکدگ	-11.1664
▁بیس	-11.1668
▁سھت	-11.1669
▁For	-11.167
▁major	-11.1671
▁باسکے	-11.1673
▁وتاک	-11.1676
سیمی	-11.1676
▁ساوڑ	-11.1678
▁book	-11.1683
▁کورس	-11.1684
▁نشتگاں	-11.1684
▁سلاھانی	-11.1685
▁اتکہ	-11.1685
▁کیل	-11.1686
▁پتءَ	-11.1686
▁شهید	-11.1686
▁افراد	-11.1687
▁بحت	-11.1688
▁مخلوق	-11.1691
▁جوزگ	-11.1692
▁title	-11.1693
▁کؤر	-11.1695
کریم	-11.1699
▁اصول	-11.1703
▁character	-11.1704
▁ترینتگ	-11.1705
▁گریشگ	-11.1705
گوادر	-11.1706
▁تئیی	-11.1707
▁نبشتکار	-11.1708
▁پبلک	-11.1709
سور	-11.1709
▁develop	-11.1712
▁یگ	-11.1713
چشکہ	-11.1714
▁سیف	-11.1716
▁مرگءَ	-11.172
یوں	-11.1722
▁پژدرءَ	-11.1723
▁perform	-11.1726
▁River	-11.1733
ی۔	-11.1738
سار	-11.1739
کیت	-11.1739
▁موش	-11.174
تین	-11.1743
▁By	-11.1744
▁زا	-11.1746
▁باوری	-11.1748
فارسی	-11.1752
▁رج	-11.1753
▁نیاتک	-11.1754
رس	-11.1754
▁زمانگاں	-11.1756
▁ھروھد	-11.1756
▁دہمی	-11.1757
▁ناجوڑی	-11.1764
▁اھوالکارانی	-11.1767
▁کراچیءَ	-11.1767
▁سجدہ	-11.1768
▁ڪت	-11.1768
▁ملامتی	-11.1769
▁وپس	-11.1771
▁بیغ۔	-11.1774
▁جوریں	-11.1775
▁جادو	-11.1776
▁continu	-11.1783
گند	-11.179
▁buil	-11.179
▁مضمون	-11.1797
▁شناخت	-11.1799
▁پہلوان	-11.18
▁پیداور	-11.1803
▁جتاھیں	-11.181
▁صنعتی	-11.1812
▁قریب	-11.1812
▁کران	-11.1813
▁City	-11.1813
▁ادمانی	-11.1819
▁مع	-11.1822
▁سین	-11.1824
▁شیدا	-11.1827
▁وھدئے	-11.1829
▁امکان	-11.1833
▁حاجت	-11.1833
▁ھیالداری	-11.1837
ness	-11.1837
▁روبرکتی	-11.1838
▁جانا	-11.1838
▁شئیرءِ	-11.1839
وڈ	-11.1842
▁شہیدانی	-11.1843
▁میاریگ	-11.1843
▁تھنائی	-11.1846
▁ضرور	-11.1847
▁مانش	-11.1853
▁بیگہ	-11.1853
گءِ	-11.1854
▁بلوچوں	-11.1856
▁رھبندے	-11.1858
▁جۆڑ	-11.186
▁مارے	-11.186
▁تھیوری	-11.1862
نان	-11.1865
ینی	-11.1865
کوئٹہ	-11.1865
▁تباہی	-11.1866
▁یکمی	-11.1867
▁فدائی	-11.187
▁الگ	-11.187
▁گالی	-11.187
▁میتگانی	-11.1871
▁سخت	-11.1879
▁ہردو	-11.1884
ou	-11.1886
▁کندگے	-11.189
▁لٹک	-11.1891
▁سواس	-11.1894
▁شیرانی	-11.1898
▁گلا	-11.19
▁وسیم	-11.1903
گدار	-11.1903
▁تند	-11.1905
▁رپتار	-11.1905
▁بندان	-11.1911
▁make	-11.1911
▁شھراں	-11.1911
▁بچکندے	-11.1911
▁کلیت	-11.1916
▁کلان	-11.1916
‘‘,’’	-11.1916
▁نگر	-11.1918
پمیشا	-11.1919
lo	-11.1919
▁پرسی	-11.1924
▁ط	-11.1924
▁علاقے	-11.1925
▁گیا۔	-11.1927
▁بیگل	-11.193
▁اودءِ	-11.1931
رک	-11.1936
▁شوکیں	-11.1936
ent	-11.1936
▁حشکیں	-11.1938
▁راھبندانی	-11.194
▁سلکاری	-11.1941
▁دربرتگ	-11.1941
▁ہمود	-11.1944
▁شاتکامی	-11.1944
دیر	-11.1945
▁پث	-11.1945
▁دیکھ	-11.1946
▁شہرءَ	-11.1947
▁اوشتیت	-11.1947
sh	-11.1949
▁گڈسرءَ	-11.1951
▁مش	-11.1951
▁یوک	-11.1953
▁month	-11.1955
▁باقاعدہ	-11.1955
▁When	-11.1955
جوڑ	-11.1955
▁شاعرءِ	-11.1957
ونی	-11.1961
▁publish	-11.1961
▁درہ	-11.1961
▁پیرزال	-11.1963
▁گوشتن	-11.1965
▁دکی	-11.1965
▁ہواں	-11.1965
▁ھالے	-11.1966
▁مرداں	-11.1967
▁گولی	-11.1969
ve	-11.1969
▁version	-11.1971
▁There	-11.1974
▁سمیر	-11.1974
▁اپے	-11.1974
▁سندی	-11.1977
▁رنگانی	-11.1979
▁تاوانے	-11.1983
▁بیرگ	-11.1985
▁ورگءَ	-11.1986
▁اما	-11.1989
▁چارگی	-11.199
واری	-11.199
▁ات۔اے	-11.1996
▁سیائیں	-11.1997
▁ناما	-11.1997
▁کڈک	-11.1998
▁بستارءَ	-11.2
▁رودراتک	-11.2001
▁ھید	-11.2001
▁پرنگی	-11.2002
▁سیکریٹری	-11.2003
▁سپاھیگ	-11.2003
مری	-11.2003
▁اعتبار	-11.2004
▁All	-11.2004
چاگردی	-11.2005
▁بکن۔	-11.2013
▁شاگرد	-11.2014
▁گوادرءَ	-11.2015
▁کرتیں	-11.2016
▁صنف	-11.202
ism	-11.2022
▁نزءَ	-11.2022
▁اگہی	-11.2023
▁کیشنز	-11.2023
▁گزار	-11.2024
▁ملازم	-11.2028
▁دراھگ	-11.2032
▁گولہ	-11.2033
▁بوتیں۔	-11.2034
▁بابل	-11.2034
▁ھرابی	-11.2037
▁کری	-11.2037
مت	-11.2044
▁اختلاف	-11.2046
▁وڈھ	-11.2047
▁پیتی	-11.2047
چیزے	-11.2048
▁زو	-11.2048
▁گوشدار	-11.2049
▁پانگ	-11.2051
▁National	-11.2052
▁کنر	-11.2053
کارے	-11.2054
▁گالرد	-11.2055
▁J	-11.2056
▁!!	-11.2058
مین	-11.2059
▁برت۔	-11.206
▁گھ	-11.206
▁اسرے	-11.2063
▁مردمانءِ	-11.2064
▁تنگی	-11.2067
▁اوستا	-11.2068
▁باوجود	-11.2068
▁شھ	-11.2069
▁رچ	-11.2076
▁دکانے	-11.2077
▁پگرءِ	-11.2079
▁۔چہ	-11.208
▁شھم	-11.2081
▁گشیں	-11.2087
▁چیزءِ	-11.2087
▁لد	-11.2088
جگ	-11.2088
▁چتگ	-11.2091
▁ملٹ	-11.2091
▁public	-11.2092
▁رون	-11.2093
▁طوفان	-11.21
▁شکایت	-11.2103
تم	-11.2104
il	-11.2106
▁ظالم	-11.2107
▁گالریچ	-11.2108
▁کدیر	-11.2108
▁2009	-11.2116
▁ابدل	-11.2116
▁ترونگل	-11.212
▁دژمناں	-11.212
▁اھدی	-11.2121
▁هون	-11.2123
▁دربرجاہ	-11.2124
▁شپی	-11.2128
▁ئنت	-11.213
▁تولگ	-11.213
▁2010	-11.2132
▁ڈنگ	-11.2132
ئنت	-11.2134
▁واکاں	-11.2134
▁کساں	-11.2138
▁کشا	-11.2138
▁ناسر	-11.2139
▁اپءَ	-11.2141
▁مہم	-11.2142
▁بیلہ	-11.2143
▁25	-11.2143
▁قال	-11.2147
▁کاسگ	-11.2153
▁لیکہی	-11.2153
▁گامے	-11.2153
▁گا۔	-11.2154
▁پنجگ	-11.2158
▁چنڈے	-11.2159
▁گلاس	-11.2159
▁انو	-11.2159
▁پیس	-11.216
▁تجارت	-11.2161
▁side	-11.2161
▁ہمراہیءَ	-11.2164
▁دیست۔	-11.2165
▁کاریز	-11.2165
▁نما	-11.2166
▁۔بلئے	-11.217
▁شنگکار	-11.2171
▁دیکھا	-11.2177
نیم	-11.2177
▁ائر	-11.2178
▁چری	-11.2179
▁2008	-11.2181
▁ھاوند	-11.2181
▁ھمت	-11.2182
▁مانگ	-11.2184
▁ناکام	-11.2184
اسی	-11.2189
▁ادمءِ	-11.2193
▁رستر	-11.2195
▁بارکھان	-11.2197
▁ملگ	-11.2199
▁جلسہ	-11.22
▁پرتو	-11.2203
نیست	-11.2203
▁way	-11.2204
▁ھبراں	-11.2204
▁درصد	-11.2208
▁مزاری	-11.2211
▁کورءَ	-11.2211
▁جمہوری	-11.2212
▁داؤد	-11.2218
▁ایراں	-11.222
▁رازی	-11.2231
id	-11.2231
▁جرنیل	-11.2232
ئر	-11.2233
▁لوڈ	-11.2238
▁even	-11.2238
▁ماتانی	-11.2239
▁اتکگاں	-11.2242
▁دستور	-11.2243
ہانی	-11.2245
▁شیک	-11.2247
▁مشکلیں	-11.2247
▁مدرسہ	-11.2248
▁رحمان	-11.2251
▁بوھان	-11.2254
▁شاھد	-11.2258
گیشتر	-11.226
یلہ	-11.2262
▁پہلو	-11.2262
▁جاھمنند	-11.2265
▁نیکراہ	-11.2265
▁کدر	-11.2266
▁لیاقت	-11.2266
▁دشتار	-11.2266
▁nam	-11.2269
▁زراب	-11.2277
▁کنغ۔	-11.2278
▁کزا	-11.228
▁جہاندپتر	-11.228
ter	-11.228
▁تجزیہ	-11.2283
▁تیراں	-11.2283
▁لالہ	-11.2288
▁واشک	-11.2291
▁دوسد	-11.2293
▁اگرچہ	-11.2297
▁منظر	-11.2302
سد	-11.2302
ہیں	-11.2303
▁سربوت	-11.2308
▁شھیدی	-11.2311
▁شتگ۔	-11.2314
▁بادگیر	-11.2314
▁نقطہ	-11.2315
▁دفتر	-11.2318
▁لیکہے	-11.2319
▁زرکاری	-11.2319
▁بم	-11.232
▁برادری	-11.232
ای	-11.2321
▁کھڈ	-11.2323
▁پدردی	-11.2324
▁باث	-11.2328
▁گاڈی	-11.2328
▁مٹی	-11.2329
▁پیکر	-11.2333
▁مغل	-11.2334
ایوک	-11.2334
▁وانان	-11.2335
▁ڈگاراں	-11.2336
نیمگ	-11.2337
▁top	-11.2337
▁کورءِ	-11.234
▁وشیاں	-11.234
▁حالاں	-11.2344
▁per	-11.2346
▁پشین	-11.2347
▁کہتا	-11.2349
▁سیاستدان	-11.2351
▁چاگی	-11.2352
▁بلین	-11.2356
ھن	-11.2357
▁مہکمیں	-11.2359
ابید	-11.236
▁club	-11.2363
▁سباہ	-11.2366
▁رفتار	-11.2371
▁ٹوہیں	-11.2373
▁ٹپانی	-11.2373
▁ھیک	-11.2374
▁واپس	-11.2376
▁ڈڈ	-11.2383
بدل	-11.2384
▁حالات	-11.2389
راستی	-11.2389
▁وانشت	-11.239
وشی	-11.2391
گش	-11.2394
▁پیرمرد	-11.2395
▁ہمدردی	-11.2397
▁ارجان	-11.2397
▁came	-11.2399
▁چکی	-11.2399
▁اسودگ	-11.24
▁ازاب	-11.2403
▁دینار	-11.2405
▁سادہ	-11.2407
▁ابدمان	-11.2415
▁شاھین	-11.2415
▁انتظامی	-11.2415
▁شف	-11.2416
▁برزءَ	-11.2416
▁واھگے	-11.2416
ودی	-11.2423
▁جنے	-11.2424
▁جال	-11.2425
▁کریں	-11.2425
▁داوا	-11.2428
▁تاپ	-11.2429
▁برتانیہ	-11.243
▁معتبر	-11.2432
کیچ	-11.2432
▁چکار	-11.2434
▁خلیج	-11.2436
▁روگا	-11.2442
▁شرین	-11.2444
▁استانی	-11.2446
▁اجبیں	-11.2448
▁کیونکہ	-11.245
▁تصویر	-11.2452
▁باران	-11.2455
▁ترءُ	-11.2456
▁زانا	-11.2457
▁اکسیجن	-11.2463
تگ۔	-11.2465
کپ	-11.2465
▁present	-11.2471
▁بێگواه	-11.248
▁پھلی	-11.248
▁حبراں	-11.2487
ایشانی	-11.2488
▁ڈولے	-11.249
▁ھانل	-11.2491
▁ڈر	-11.2492
▁برواں	-11.2492
▁establish	-11.2495
▁الرحمان	-11.2497
▁اساپ	-11.2497
▁گوشتہ	-11.2499
▁گساں	-11.2502
▁بداریت	-11.2504
▁بندیک	-11.2504
▁man	-11.2505
▁یڪ	-11.2506
▁ٹاپ	-11.2506
▁بوئگا	-11.2507
▁شه	-11.2509
▁کردانی	-11.2513
▁وتکش	-11.2513
▁ہاؤس	-11.2514
▁لهتے	-11.2514
▁اشکار	-11.2514
▁تواراں	-11.2516
▁حقیقی	-11.2518
وب	-11.2519
▁ھرابیں	-11.2526
▁بئے۔	-11.2527
▁still	-11.253
▁۔۔۔۔۔۔	-11.2532
ایی	-11.2534
ارش	-11.2535
▁انت۔۔	-11.2536
uent	-11.2539
▁اخبار	-11.254
▁لطیف	-11.2541
▁سرگرمی	-11.2547
▁صورتءَ	-11.2549
▁f	-11.2552
▁g	-11.2552
▁درائینت۔	-11.2557
▁حکومتی	-11.2561
▁ھورک	-11.2563
▁عاقل	-11.2564
▁جنگلے	-11.2565
▁مگ	-11.2568
▁زمینءَ	-11.2572
ھل	-11.2574
▁گڈسرا	-11.2575
▁کافکا	-11.2577
▁شادہ	-11.2577
▁نفرت	-11.2579
▁کامل	-11.2589
▁ازیز	-11.259
▁وانگا	-11.2591
▁جمب	-11.2592
▁دیوالانی	-11.2594
▁مستری	-11.26
▁career	-11.26
▁اچار	-11.2605
▁اوکیں	-11.2611
▁led	-11.2612
▁طاہر	-11.2614
▁history	-11.2616
▁منگچر	-11.2617
ne	-11.262
▁بیت۔۔۔	-11.2622
▁کنائین	-11.2624
▁نثر	-11.2625
▁امب	-11.2628
▁جھدے	-11.2629
▁وانوکانی	-11.263
▁ہانی	-11.2631
▁گشتے	-11.2631
▁common	-11.2633
▁کتہ۔	-11.2635
▁feature	-11.264
▁وانندگیں	-11.264
▁شرگداریءِ	-11.2642
▁گسءَ	-11.2643
▁رژنائیں	-11.2644
▁نفسی	-11.2644
▁ھالاں	-11.2647
▁پھریزگ	-11.265
▁چیدگی	-11.2652
▁نئیں	-11.2652
▁روئگ	-11.2656
ناک	-11.2657
▁دومیگ	-11.2658
▁نازرک	-11.266
▁old	-11.2662
▁اپاں	-11.2664
▁دومیءَ	-11.2665
▁اسپیکر	-11.2667
وانگ	-11.2667
▁قیمتی	-11.267
▁عبد	-11.2675
▁امیتے	-11.2683
▁گوئر	-11.2684
▁ایسوسی	-11.2685
▁گدارءِ	-11.2685
▁پانچ	-11.2686
▁کال	-11.2686
by	-11.2688
▁رمس	-11.2688
▁بکرتیں	-11.2689
ڑہ	-11.269
▁پاداتک	-11.269
بات	-11.2692
▁گشیت۔	-11.2693
▁رمزان	-11.2696
▁بلیک	-11.2696
▁وانین	-11.2697
▁لکیر	-11.2699
▁کدہ	-11.2701
▁زمیندار	-11.2701
▁ادراک	-11.2701
▁غصہ	-11.2703
D	-11.2707
▁ھردوک	-11.2708
▁دیستگیں	-11.2712
▁ٹٹ	-11.2718
▁ھول	-11.272
۔ائی	-11.2721
▁گوشی	-11.2722
▁لہڑگ	-11.2725
ھت	-11.2728
▁مہلہ	-11.2732
▁گنجائش	-11.2733
▁وسیں	-11.2737
▁رکگ	-11.274
اراں	-11.2741
▁بوتگءُ	-11.2742
▁ایدگراں	-11.2742
▁جاگه	-11.2743
▁زالم	-11.2744
▁گمیگ	-11.2749
▁رول	-11.2753
▁واکی	-11.2754
▁often	-11.2755
▁پهک	-11.276
▁100	-11.2764
▁مردیں	-11.2765
▁اگے	-11.2768
▁pass	-11.2769
▁پوریاگر	-11.277
▁دلیری	-11.2772
▁کانون	-11.2774
▁ڈھاڈر	-11.2776
▁اریپیں	-11.2776
▁سھیگ	-11.2777
▁بلوچیءِ	-11.2778
فل	-11.2782
▁ھردیں	-11.2784
▁ایٹم	-11.2784
▁site	-11.2786
▁ھجبر	-11.279
▁اکسے	-11.2791
▁جیڑھ	-11.2793
▁پہنچ	-11.2794
مبارک	-11.2794
▁انار	-11.2797
تن	-11.2802
▁خانءِ	-11.2804
▁تہران	-11.2804
▁بلۆچانی	-11.2805
▁ٹاک	-11.2806
▁درکپ	-11.2806
▁تگرانی	-11.2806
ائین	-11.2807
▁تبیں	-11.2807
▁دپا	-11.2808
▁زندگاں	-11.2808
▁سریگ	-11.2809
▁شائرانی	-11.2812
▁خانءَ	-11.2817
▁بتی	-11.2823
▁لوٹیں	-11.2824
ماھتاک	-11.2825
▁سلسلہ	-11.2827
▁ویکسین	-11.2827
▁اسٹیٹس	-11.2827
▁ھبدہ	-11.2828
▁ایشن	-11.283
▁سرینت	-11.283
▁شریدار	-11.2836
گام	-11.2839
▁دوبارہ	-11.2842
▁اسسٹنٹ	-11.2842
N	-11.2844
▁شمال	-11.2845
▁دیگا	-11.2846
▁ضد	-11.2848
▁دارنت	-11.285
▁ایردست	-11.2854
▁سکھت	-11.2855
▁ببر	-11.2856
▁سیوی	-11.2856
▁سھرا	-11.2857
▁واناں	-11.2858
▁وڑےءَ	-11.2862
...............	-11.2863
گوشگ	-11.2863
▁حبرءَ	-11.2865
▁ورگی	-11.2866
▁جنوزام	-11.2867
▁چتو	-11.2871
الم	-11.2875
▁حدے	-11.2875
▁سکتا	-11.2877
▁بکننت	-11.2877
ٹن	-11.2878
اق	-11.2878
▁ورزی	-11.2878
▁کمزوری	-11.2884
▁وشتر	-11.2884
اگ	-11.2885
▁تریاک	-11.2885
▁کمپان	-11.2887
▁ي	-11.2889
▁کندان	-11.2892
▁help	-11.2893
▁few	-11.2893
▁قبرستان	-11.2896
▁لوڑ	-11.2898
▁ابی	-11.2901
▁مارکسی	-11.2901
▁رتکگ	-11.2905
company	-11.291
پچ	-11.291
▁شئیری	-11.2911
▁منشیات	-11.2913
مست	-11.2917
▁سجہیں	-11.2919
▁لم	-11.2919
▁واتری	-11.2922
▁پنچیں	-11.2922
▁جنیانی	-11.2923
▁ٹیل	-11.2924
▁One	-11.2925
▁لوغ	-11.2926
▁list	-11.2927
▁دیوانگ	-11.2928
▁دوستے	-11.2929
▁شاہد	-11.2929
▁هلاس	-11.2929
▁ہاسٹل	-11.293
▁بیتگاں	-11.2933
▁اثار	-11.2937
▁ایات	-11.2938
▁هیال	-11.2941
▁رسینت	-11.2942
▁next	-11.2945
▁2007	-11.2945
گپت	-11.2947
▁ڈور	-11.295
▁نوشتانک	-11.2953
▁رویں	-11.296
am	-11.296
▁انہ	-11.2961
▁جلیل	-11.2963
▁ائولی	-11.2963
▁سرکنگ	-11.2964
▁arm	-11.2965
▁ھدایت	-11.2968
منٹ	-11.2968
▁دیوتا	-11.2969
جاه	-11.2973
▁دزاپ	-11.2975
▁رچگ	-11.2977
▁ھسابءَ	-11.2982
▁شاعریئ	-11.2985
▁چنال	-11.2987
▁تال	-11.2989
▁دیئگ	-11.2989
▁لائک	-11.2991
▁رائے	-11.2999
▁منطق	-11.2999
im	-11.3001
درا	-11.3003
▁طاقتور	-11.3007
la	-11.3008
▁زنداناں	-11.3008
ایے	-11.301
▁ٹیک	-11.3012
سیاسی	-11.3013
▁سلیں	-11.3014
▁میرا	-11.3014
▁ممبر	-11.3014
▁سماج	-11.3015
▁دیرءَ	-11.3015
▁بگندات	-11.3016
▁fire	-11.3016
▁English	-11.3016
▁ٹیچر	-11.3017
▁دیش	-11.3017
▁ٹوئٹر	-11.3017
▁میک	-11.3018
▁الکاپ	-11.3019
▁building	-11.302
نند	-11.3022
▁دوستانی	-11.3022
▁مچھ	-11.3024
▁ماری	-11.3025
▁نباں	-11.3026
▁کنئگی	-11.3028
▁درملک	-11.3029
▁حالکار	-11.303
▁پرمات	-11.3032
▁ھاکمی	-11.3032
▁دوستیگیں	-11.3035
▁پمے	-11.3037
▁شرک	-11.3037
اھی	-11.3038
▁حرف	-11.3039
▁جرگہ	-11.3039
▁کوھنگیں	-11.304
▁وڑی	-11.304
▁چیزءَ	-11.3043
▁اومر	-11.3044
ؤں	-11.3047
▁لینن	-11.3048
▁انتظار	-11.3049
▁French	-11.3052
▁ھاسٹل	-11.3052
▁کینگی	-11.3052
▁رئیسانی	-11.3054
چیا	-11.3055
▁چاروک	-11.3058
▁بنداتءَ	-11.3062
▁دورءُ	-11.3066
▁دامگ	-11.3066
کین	-11.3067
▁عیسائی	-11.3069
▁contain	-11.307
▁similar	-11.307
ate	-11.307
▁نگرانی	-11.307
▁ہاک	-11.307
▁ایی	-11.3074
بری	-11.3075
▁مادر	-11.3076
▁ھبکہ	-11.3077
▁بادشاھی	-11.3077
▁کارئے	-11.3079
▁رھبنداں	-11.308
▁اسرمند	-11.3082
▁درو	-11.3084
▁فر	-11.3085
▁پیوست	-11.3089
▁فکرءُ	-11.3092
▁اجکہ	-11.3092
??	-11.3092
▁زاهدان	-11.3095
▁دیمے	-11.3102
▁زانگی	-11.3103
▁مرچیگ	-11.3103
▁باپار	-11.3105
▁بریگیڈ	-11.3105
▁داکٹر	-11.3106
▁ملار	-11.3107
▁نصیحت	-11.3109
▁کنین	-11.3111
▁right	-11.3111
▁دودمانی	-11.3113
▁پرکار	-11.3114
▁متعلق	-11.3115
▁ٹور	-11.3119
شاد	-11.312
▁نیب	-11.3123
بنی	-11.3124
▁درتکگ	-11.3124
▁وومن	-11.3124
▁یکےءَ	-11.3124
▁شانتل	-11.3127
▁درھیں	-11.3128
▁مھرنگ	-11.3128
▁اث	-11.3128
▁نئیت۔	-11.3129
▁ہڈ	-11.313
سرجمیں	-11.313
▁نفر	-11.3132
▁باپ	-11.3135
▁بدواہ	-11.3136
▁وانگءِ	-11.3136
▁سنگینی	-11.3138
▁سدک	-11.3142
▁بروبری	-11.3144
▁بعض	-11.3144
ابی	-11.3149
▁ریا	-11.315
▁سوزیں	-11.3153
▁دستءِ	-11.3153
▁مرا	-11.3154
اسر	-11.3156
میان	-11.3156
▁حالتاک	-11.3157
▁وفات	-11.3157
▁دیستگ۔	-11.3159
۔منی	-11.316
▁چرت	-11.3161
▁خط	-11.3162
▁رکھا	-11.3167
▁سنگھ	-11.3167
▁پکری	-11.3168
▁ھؤ	-11.317
▁لنک	-11.3174
▁ھاجی	-11.3179
▁درستی	-11.318
▁ولد	-11.3181
▁ساحلی	-11.3182
بتل	-11.3185
▁استین	-11.3185
سٹر	-11.319
▁پتءِ	-11.3194
▁برزا	-11.3194
▁ایرانءَ	-11.3196
▁بیمناکیں	-11.3199
▁رہشوناں	-11.3203
سل	-11.3204
فن	-11.321
▁درنیامءَ	-11.3212
▁حیرانی	-11.3212
▁بارڈر	-11.3217
▁حامد	-11.322
▁چولانی	-11.3223
▁کسہے	-11.3224
ایران	-11.3228
▁یاسین	-11.323
▁موم	-11.3231
▁power	-11.3231
▁claim	-11.3232
▁دباؤ	-11.3233
▁تلب	-11.3233
▁اکثر	-11.3235
▁produc	-11.3237
▁دریائی	-11.3238
▁چلگ	-11.3239
▁تماہ	-11.3239
▁عاقبت	-11.3239
▁سلاح	-11.3241
▁یلیں	-11.3241
▁انچین	-11.3246
held	-11.325
▁پشمبے	-11.325
▁موسی	-11.3253
▁کٹگ	-11.3255
▁ٹکے	-11.3255
▁زانتءُ	-11.3258
▁محبوبہ	-11.3259
سان	-11.326
▁ردیت	-11.3266
as	-11.3267
بگ	-11.3269
▁سوشلسٹ	-11.3269
▁اجوئیں	-11.3279
▁نپر	-11.3281
▁سدی	-11.3283
میتگ	-11.3283
▁نزدیک	-11.3287
▁داس	-11.3289
I	-11.3289
▁writ	-11.329
▁دئیان	-11.329
مک	-11.3294
▁turn	-11.3303
▁With	-11.3306
▁قصہانی	-11.3313
▁عامر	-11.3313
▁سپا	-11.3314
▁پسءِ	-11.3316
▁ہوشام	-11.3318
▁جہلانکی	-11.3319
ھدا	-11.332
▁زانتے	-11.332
روگ	-11.3321
▁مجن	-11.3321
▁تہرانی	-11.3322
▁نێست	-11.3327
▁پہناتانی	-11.3327
▁حالی	-11.333
5	-11.3331
▁بالکل	-11.3333
▁قہر	-11.3334
na	-11.3338
▁گردان	-11.3338
▁رام	-11.3339
▁لانگو	-11.334
▁seven	-11.3342
▁رحمن	-11.3343
▁کبزہ	-11.3344
▁بیستمی	-11.3345
▁زیم	-11.335
▁جاورال	-11.335
▁گلءِ	-11.3351
▁دانش	-11.3352
برز	-11.3352
▁دروشماں	-11.3354
▁نکن	-11.3354
سرپد	-11.3356
▁مسام	-11.3356
وکی	-11.3361
ینان	-11.3363
▁وتیگ	-11.3364
▁گرا	-11.3364
▁ٹن	-11.3365
ro	-11.3365
▁ہمیں	-11.3366
▁سرکارءَ	-11.337
▁بدر	-11.3371
▁کمانڈر	-11.3372
▁مرادانی	-11.3374
▁بارہءَ	-11.3374
▁you	-11.3377
▁کرتاں	-11.3378
▁level	-11.3378
▁لنجیں	-11.3379
▁جاہمنند	-11.3379
▁مئیگ	-11.3381
اخر	-11.3383
▁واقعات	-11.3383
▁پنڈوک	-11.3384
داتگ	-11.3385
▁ایردستی	-11.3395
▁ہچی	-11.3395
▁گوشانی	-11.3404
▁ھاٹیگ	-11.3404
ہہ	-11.3406
▁ترز	-11.3407
▁چارئے	-11.3411
▁کارجاہ	-11.3411
▁جلدی	-11.3412
▁بڑھ	-11.3415
ساحر	-11.3416
▁میانءَ	-11.3416
▁بھیسہ	-11.3419
ارے	-11.3419
▁half	-11.3419
▁سدلی	-11.3425
▁موٹل	-11.3426
▁سیال	-11.3428
▁بساک	-11.3431
▁کچل	-11.3433
▁پاکستانءَ	-11.3433
▁نانکہ	-11.3434
▁عادل	-11.3438
ایں	-11.3438
▁کشوک	-11.3439
▁سرئے	-11.3443
دز	-11.3444
▁کاکڑ	-11.3447
▁نرمی	-11.3448
▁کورے	-11.3449
▁گیران	-11.3451
▁دانا	-11.3452
▁قلمکار	-11.3454
▁نیلیں	-11.3457
▁بندہ	-11.346
▁بیک	-11.346
▁songs	-11.3464
▁نشار	-11.3466
▁Division	-11.3471
▁سوڑگ	-11.3473
▁مسجد	-11.3475
▁زہم	-11.3476
▁former	-11.3476
▁عبدالصمد	-11.3476
▁لیس	-11.3477
ئے۔	-11.3479
▁we	-11.349
▁گزران	-11.349
▁نسیر	-11.3493
▁church	-11.3495
▁یمن	-11.3497
▁ایئر	-11.3499
▁سامراج	-11.35
▁رجینتگیں	-11.3502
▁زمانے	-11.3502
▁ات۔بلے	-11.3505
▁بجنت	-11.3505
▁اولسر	-11.3508
▁متھدہ	-11.3508
spite	-11.3509
▁جوزہ	-11.3509
▁اسلءَ	-11.3512
▁نگیگی	-11.3516
▁کرکٹ	-11.3517
te	-11.3518
▁ٹرانسپورٹ	-11.3519
▁روچان	-11.352
▁ولے	-11.352
▁State	-11.3522
▁though	-11.3523
▁مناسب	-11.3523
▁ودارءَ	-11.3523
▁بچارئے	-11.3524
▁among	-11.3527
▁total	-11.3527
▁تبے	-11.3529
▁گالوارے	-11.353
▁زالے	-11.3531
▁وانگجاھاں	-11.3532
▁مراں	-11.3535
▁دئینت۔	-11.3535
▁مذھب	-11.354
▁پدرد	-11.3542
▁ڈا	-11.3543
▁برد	-11.3544
▁یکوئی	-11.3546
▁تشے	-11.3547
▁ڈھل	-11.3547
▁کسہی	-11.3548
▁جما	-11.355
▁مسکیں	-11.3552
▁للہ	-11.3552
▁سہبءَ	-11.3554
▁گرنت	-11.3554
▁full	-11.3555
ley	-11.3557
▁ہمیشانی	-11.3558
▁ڈیہ	-11.3558
▁تحصیل	-11.3559
▁مرغ	-11.3562
▁تؤ	-11.3564
w	-11.3564
▁لوگواجہ	-11.3564
▁ہن	-11.3566
▁دوراں	-11.3566
▁میوزک	-11.3567
پمشکہ	-11.3571
▁باند	-11.3571
▁رجینتگ	-11.3574
▁ادماں	-11.3576
▁حاطرا	-11.3576
▁ہرچیز	-11.3577
▁قبائل	-11.3577
▁درین	-11.358
▁اسم	-11.3584
▁ھالو	-11.3585
▁جنجالے	-11.3585
▁اورماڑہ	-11.3585
▁گروہ	-11.3589
▁گونگ	-11.3589
▁قبل	-11.359
at	-11.3594
▁دژمنانی	-11.3597
▁ببیت۔	-11.3597
بکن	-11.3599
▁گیشینت	-11.3599
یج	-11.36
▁ھمراھداری	-11.3602
▁اوتھل	-11.3603
▁بوتگانت	-11.3603
▁برطانوی	-11.3604
▁want	-11.3605
▁field	-11.3613
▁نیزگار	-11.3616
▁اتراپ	-11.3617
▁گوشتانک	-11.3618
▁شتگیں	-11.362
▁تھسیل	-11.3621
▁خیرات	-11.3623
▁اسرا	-11.3623
▁نشت۔	-11.3626
▁ھاندان	-11.3626
▁چارشمبے	-11.3627
▁نیو	-11.3628
▁سلاہاں	-11.3632
▁ازمءِ	-11.3636
▁Arm	-11.3637
▁جملہ	-11.3638
مز	-11.3638
ھوں	-11.3639
▁مسیح	-11.364
▁جبکہ	-11.3641
▁المیہ	-11.3642
▁سرفراز	-11.3643
▁کھر	-11.3643
▁بمبے	-11.3644
▁مادہ	-11.3644
ینتہ	-11.3647
▁مھروانیں	-11.365
▁مہے	-11.3652
▁اسٹال	-11.3655
▁دینے	-11.3656
▁رنگےءَ	-11.3656
▁کوہءِ	-11.3657
▁ملائی	-11.3659
ورگ	-11.366
ir	-11.366
عمر	-11.3661
▁ارپ	-11.3661
اگر	-11.3662
▁اربی	-11.3664
▁حس	-11.3664
▁پھنات	-11.3665
▁لرزگ	-11.3667
▁چارئگ	-11.3669
▁زتک	-11.367
▁کہدہ	-11.3671
▁لیو	-11.3671
▁لیکو	-11.3672
▁بائی	-11.3674
ether	-11.3674
▁شعیب	-11.3678
▁دیدگانی	-11.3678
▁شہہ	-11.3679
▁production	-11.3679
ll	-11.3679
▁مریض	-11.3681
▁ساچشتانی	-11.3684
▁ادارانی	-11.3686
▁تحریر	-11.3686
دوئیں	-11.3692
▁روحانی	-11.3692
▁دروگے	-11.3692
▁نکت	-11.3693
▁صلاحیت	-11.3696
انچیں	-11.3698
▁ناگ	-11.37
▁co	-11.37
▁یلو	-11.3701
▁پرویز	-11.3703
▁کپودر	-11.3704
▁امداد	-11.3706
▁درنگاز	-11.3707
▁سرئ	-11.3709
بیگ	-11.3712
▁سدو	-11.3713
▁ارگنائزیشن	-11.3716
▁واراں	-11.3717
▁اسپر	-11.3717
▁تضاد	-11.3719
▁جین	-11.372
جنک	-11.372
▁ناجوڑ	-11.372
▁درشت	-11.3722
▁مہربان	-11.3723
▁suggest	-11.3723
ti	-11.3726
مدام	-11.3727
▁محتاج	-11.3728
▁محبوب	-11.3729
▁ھی	-11.3733
▁چڑ	-11.3733
▁review	-11.3734
▁population	-11.3735
▁جج	-11.3739
▁امیتانی	-11.3739
اصل	-11.3741
▁اندام	-11.3743
▁ھئور	-11.3746
▁چندر	-11.3746
▁ماحولیاتی	-11.3746
▁گندی	-11.3746
لبزانکی	-11.3751
▁وفاقی	-11.3754
▁گنبد	-11.3756
اہی	-11.3757
▁باطن	-11.3759
گیری	-11.376
گس	-11.3762
کارانی	-11.3774
▁چیزئے	-11.3776
▁قاتل	-11.3776
▁چھو	-11.3777
▁دیگءِ	-11.378
سنگت	-11.3782
▁رھشوناں	-11.3783
▁زہرگ	-11.3789
▁دھر	-11.3791
▁مسائل	-11.3793
▁نوخیں	-11.3794
▁انجام	-11.3796
گم	-11.3801
▁کوکو	-11.3804
حق	-11.3807
▁گندے	-11.3807
▁رجانکی	-11.3808
▁کشگا	-11.3808
▁چونکہ	-11.3809
▁الہ	-11.381
▁further	-11.3812
شے	-11.3813
زاناں	-11.3815
چیاکہ	-11.3817
▁شہراں	-11.3821
▁کوریا	-11.3822
▁جبری	-11.3822
▁ترسگ	-11.3823
▁رزان	-11.3825
دیما	-11.3827
▁2011	-11.3831
▁دف	-11.3831
▁پراموش	-11.3832
▁پشاور	-11.3832
▁شاہوانی	-11.3832
▁پرا	-11.3834
▁وارتگیں	-11.3835
▁گنتر	-11.3837
▁ھندے	-11.3838
▁گنت	-11.3839
▁ھرکسی	-11.3841
▁دلوتانی	-11.3843
▁close	-11.3844
▁الحق	-11.3847
▁پوری	-11.3848
▁ازمانکاری	-11.3851
▁پادان	-11.3851
▁جناح	-11.3852
▁ینگ	-11.3852
▁کشتہ	-11.3856
ۆک	-11.3856
▁بیگءَ	-11.3864
▁گیشوار	-11.3866
▁حسنی	-11.3868
▁ڈیھاں	-11.3868
▁change	-11.3869
▁ترسناک	-11.3869
▁different	-11.3869
▁add	-11.387
▁ڈیوٹی	-11.3871
▁اسرائیلی	-11.3875
▁دیستہ	-11.3877
▁نیلگ	-11.3883
▁تراکانی	-11.3886
▁ریکوڈک	-11.3889
گشگ	-11.389
▁نوید	-11.3892
▁مستیں	-11.3898
iz	-11.3899
▁چکاسگ	-11.3901
▁گواہی	-11.3901
▁زرتگیں	-11.3905
▁خانگ	-11.3905
▁real	-11.3905
▁فہم	-11.3905
▁ببا	-11.3906
▁According	-11.3908
▁2006	-11.3908
▁بمبگواری	-11.3909
▁ششتگ	-11.3912
▁اوشتوکیں	-11.3918
ھند	-11.3918
▁ابدی	-11.3922
ts	-11.3922
▁track	-11.3923
▁مارت	-11.3925
▁نوداں	-11.3926
▁اپانی	-11.3927
▁Church	-11.3928
▁اپسوز	-11.3929
▁strong	-11.393
▁لسانی	-11.3933
▁۔یک	-11.3944
▁run	-11.3944
li	-11.3945
▁سائٹ	-11.3946
▁چانگ	-11.3947
▁مولم	-11.3948
ther	-11.3948
▁سماہ	-11.3949
▁مجیب	-11.3953
▁نادراہجاہ	-11.3954
▁جیڑیت	-11.3955
▁نکس	-11.3957
▁عاصم	-11.3961
▁بها	-11.3962
▁لانچر	-11.3966
▁ہد	-11.3969
▁روپ	-11.397
ab	-11.3972
▁مہرءِ	-11.3972
▁مشینری	-11.3974
▁kill	-11.398
▁وحید	-11.398
▁سینیٹر	-11.398
▁شگل	-11.398
▁کارپد	-11.3986
▁ڈسٹرکٹ	-11.3986
4	-11.3989
▁ھچی	-11.3994
▁قاصد	-11.3994
▁عملے	-11.3995
▁طبی	-11.3998
جام	-11.3998
▁پرشگ	-11.4
▁مغرب	-11.4
▁تریت	-11.4003
▁دیتے	-11.4005
▁اسٹریلیا	-11.4008
▁دمبرتگ	-11.401
▁air	-11.401
▁days	-11.4013
چن	-11.4023
▁militar	-11.4026
▁عنہ	-11.4032
▁سرو	-11.4032
▁روشنی	-11.4033
▁دؤ	-11.4034
▁مولا	-11.404
▁جہلیں	-11.4041
▁پچے	-11.4044
▁سائنسدان	-11.4044
گوستگیں	-11.4044
▁رھم	-11.4047
▁درءَ	-11.4048
▁ھورکیں	-11.4048
▁فا	-11.4049
ally	-11.405
▁دورانی	-11.405
اتکگ	-11.4052
▁Le	-11.4053
بال	-11.4054
▁particular	-11.4065
▁official	-11.4065
▁بلوچان	-11.4067
▁کراس	-11.4067
▁ابوبکر	-11.4067
▁جنگءُ	-11.4069
▁ٹکٹ	-11.407
▁اشارگ	-11.4071
▁مانزمان	-11.4073
▁شوهاز	-11.4075
کنئگ	-11.4077
▁پارست	-11.4078
ta	-11.4078
▁کارکنوکیں	-11.4081
کسی	-11.4084
▁مجاہد	-11.4085
▁بنگلزئی	-11.4085
▁مارات	-11.4085
▁جنکیں	-11.4088
▁همیش	-11.4088
▁کرشی	-11.4093
▁خو	-11.4094
یث	-11.4095
▁ھیرو	-11.4098
ebru	-11.4103
▁نجیب	-11.4105
▁اناگاہ	-11.4109
▁بوتگ۔اے	-11.4112
▁اوور	-11.4113
۔پدا	-11.4115
غلام	-11.4115
▁قمبر	-11.4116
▁منہ	-11.4117
▁رخ	-11.4118
▁فارس	-11.4119
▁ھوشام	-11.4121
▁پاہو	-11.4122
زا	-11.4128
▁مدگ	-11.4129
▁شاباش	-11.4129
حسن	-11.4129
▁بناربس	-11.4131
▁پجیگ	-11.4132
▁توشگ	-11.4136
ینک	-11.4137
▁بالاں	-11.4138
▁گمراہ	-11.4138
ھک	-11.4138
ڈول	-11.4139
▁گوریچ	-11.414
▁دستبندی	-11.4141
استاد	-11.4142
ھست	-11.4145
▁میرین	-11.4146
▁زیند	-11.4146
▁سیا	-11.4146
▁تعداد	-11.4148
▁شفیع	-11.415
بوگ	-11.415
▁جبزگ	-11.4151
▁منزلے	-11.4151
▁لوک	-11.4152
▁کارکرد	-11.4156
▁تواریں	-11.4157
▁ٹولیانی	-11.4157
گرگ	-11.4158
▁کماشاں	-11.416
▁نار	-11.4161
▁الکاپی	-11.4162
احمد	-11.4163
▁ندارگاں	-11.4163
▁human	-11.4164
▁کالب	-11.4165
وخیں	-11.4169
▁روی	-11.417
▁باشد	-11.4174
▁باھند	-11.4175
▁ساھدار	-11.4175
▁جھلی	-11.4176
▁دانی	-11.4178
۔۔۔۔۔۔۔	-11.418
▁شئرانی	-11.4183
▁رہشونی	-11.4187
▁روچتاک	-11.4188
▁ھرجاہ	-11.4191
▁گبار	-11.4192
▁):	-11.4192
▁گریبی	-11.4194
پار	-11.4196
▁فورم	-11.4196
▁کلہ	-11.4197
▁درستان	-11.4197
▁ورنائے	-11.4198
▁سنا	-11.42
▁برءَ	-11.4202
os	-11.4202
▁پیرو	-11.4204
▁راجکاری	-11.4205
▁لیوس	-11.4205
▁بودناکی	-11.4205
▁زربار	-11.4209
▁کوڈ	-11.421
اباد	-11.421
عطا	-11.4211
پنچ	-11.4211
ad	-11.4212
▁پیٹ	-11.4217
▁پہناتاں	-11.4224
▁یاداشت	-11.4226
▁لیکہاں	-11.4228
▁رسائی	-11.4228
ولی	-11.423
▁بشام	-11.4232
▁کارگال	-11.4236
▁پیرس	-11.4236
▁اگبالانی	-11.4239
اسلام	-11.4242
▁گوشگءَ	-11.4243
▁scor	-11.4243
▁League	-11.4244
▁ٹریفک	-11.4244
▁جانور	-11.4246
▁دیبا	-11.4246
▁unit	-11.4247
▁every	-11.4248
▁انگلش	-11.4248
▁بہتر	-11.4249
▁ورناھانی	-11.4251
▁رکینت	-11.4251
ain	-11.4254
▁ہزارانی	-11.4259
▁مرگی	-11.426
▁انچ	-11.4261
▁ہلاسی	-11.4262
▁دکاندار	-11.4263
▁ماپ	-11.4263
▁increase	-11.4264
▁ورزش	-11.4264
▁وٹ	-11.4265
▁ریگستان	-11.4267
▁گیریں	-11.4268
▁تنیگ	-11.4269
▁ہورت	-11.427
سوب	-11.427
▁بندگی	-11.427
▁control	-11.4271
▁وارڈ	-11.4272
▁سخی	-11.4272
▁درمانی	-11.4275
▁وادی	-11.4275
ته	-11.428
▁چلی	-11.4282
ینے	-11.4282
▁تیری	-11.4282
▁سوتکگ	-11.4284
▁نامینگ	-11.4284
▁عبدالمالک	-11.4285
▁کمیونزم	-11.4285
▁نزانتگ	-11.4286
▁کیشن	-11.4288
راجی	-11.4289
:’’	-11.4291
شیا	-11.4296
▁سچگ	-11.4302
▁واہگانی	-11.4303
بیر	-11.4304
▁دنیائی	-11.4307
▁ایمانداری	-11.4308
ھمک	-11.431
▁نشتاں	-11.431
▁هک	-11.4311
▁ملنڈ	-11.4312
▁السلام	-11.4313
▁کاپی	-11.4313
▁عیش	-11.4314
▁ندار	-11.4315
▁دزبمب	-11.4316
▁شدکش	-11.4317
▁دئیگی	-11.4317
▁برج	-11.4318
▁سرداراں	-11.4321
▁ناسرپد	-11.4325
▁امانت	-11.4328
▁band	-11.433
▁وابیں	-11.4335
▁مخالف	-11.4337
▁وتکاریں	-11.434
▁تہت	-11.434
▁مجاں	-11.434
▁نکل	-11.4341
▁ات۔۔	-11.4342
پگ	-11.4345
▁Song	-11.4346
▁ھزانگ	-11.4346
▁ڈو	-11.4347
▁گێشتر	-11.435
▁اگل	-11.435
▁ٹہل	-11.4357
▁گدانی	-11.436
▁ٹہک	-11.4366
▁توانا	-11.4367
▁کرنچ	-11.4368
▁سیاستءِ	-11.4377
اڑ	-11.4378
▁پگرے	-11.4378
▁لوٹتگ	-11.438
▁نامگال	-11.438
▁پنج	-11.4381
less	-11.4383
▁ردان	-11.4385
▁service	-11.4386
▁کێنگ	-11.4387
▁پرما	-11.4387
▁finish	-11.4387
▁ہمیشہ	-11.4388
▁جمڑی	-11.4389
▁پاکستانء	-11.439
▁چریشیءَ	-11.4392
▁منیرءِ	-11.4393
بکش	-11.4401
▁21	-11.4401
▁چندن	-11.4403
▁شہدگ	-11.4405
▁استالاں	-11.4407
▁کامیو	-11.4409
▁زهگ	-11.4409
▁story	-11.4409
▁لاشے	-11.441
اوتی	-11.4416
▁زهر	-11.4418
▁نرس	-11.4425
▁عیسی	-11.4427
▁اتھارٹی	-11.4427
gave	-11.4427
▁عطاء	-11.4429
▁مڈیاں	-11.4431
▁دارئے	-11.4432
▁caus	-11.4433
▁شاخ	-11.4439
قی	-11.444
▁چرا	-11.444
▁برگی	-11.4443
▁سرگوز	-11.4443
ائل	-11.4444
▁دلکش	-11.4444
▁ہردیں	-11.4446
▁defeat	-11.4447
▁project	-11.4447
▁لیپ	-11.4449
▁کمیونٹی	-11.4449
▁زانوگر	-11.4449
▁پرینتگ	-11.445
ling	-11.445
غ۔	-11.4451
▁محکمیں	-11.4457
▁انساناں	-11.4458
▁body	-11.4458
▁ساہدار	-11.4461
▁چرچ	-11.4461
▁وہم	-11.4464
▁بوتگنت۔	-11.4466
▁راستیءِ	-11.4469
▁شاھو	-11.447
▁دارگءِ	-11.4471
▁میراس	-11.4471
چارگ	-11.4473
▁کوچگی	-11.4473
▁‘‘(	-11.4476
▁ماحل	-11.4477
▁معنایے	-11.4478
▁مختار	-11.4479
▁کوپ	-11.4481
▁بوته	-11.4481
برگ	-11.4486
stead	-11.4487
▁تہل	-11.4487
هی	-11.4487
▁رھشونانی	-11.4488
▁Dylan	-11.4488
▁رائٹس	-11.4489
▁اسٹیٹ	-11.4489
▁بلیدی	-11.449
▁مسترین	-11.4491
▁جاورحال	-11.4491
▁چرگ	-11.4494
▁ڈیوا	-11.4498
▁reported	-11.4499
▁مہرک	-11.45
ئگا	-11.4501
▁۔منی	-11.4503
▁تکہ	-11.4503
▁cover	-11.4506
▁دروغ	-11.4508
▁کنگء	-11.4508
▁نئیل	-11.4511
▁۔ما	-11.4512
▁صوت	-11.4514
▁دیوانءِ	-11.4517
▁بنگال	-11.4517
▁واریاں	-11.4525
▁.....	-11.4525
▁کلاہ	-11.4527
▁گفتار	-11.4527
▁فلسطین	-11.4528
▁سندگ	-11.4529
▁دستونکئ	-11.453
▁کلاسیک	-11.4532
▁نذر	-11.4533
▁جذبگ	-11.4534
شل	-11.4534
لاں	-11.4534
▁خیبر	-11.4535
▁مہراں	-11.4536
▁چنانچہ	-11.4539
▁کچھی	-11.4539
ol	-11.454
▁Park	-11.454
▁حفاظت	-11.4542
▁اسپین	-11.4544
▁سھریں	-11.4549
▁بیئگ	-11.4549
▁ڈاؤن	-11.4551
▁ویروس	-11.4551
▁جاورے	-11.4555
▁وتواجھی	-11.4555
▁دمگدار	-11.4556
▁میڑہ	-11.4556
▁کنت۔۔۔	-11.4558
▁کاٹ	-11.4558
▁زورگری	-11.4558
▁کامران	-11.4562
▁شکلیں	-11.4562
▁شادان	-11.4565
▁شیری	-11.4567
▁کرچک	-11.4567
▁رسینتگ	-11.4568
ناز	-11.4569
▁گورے	-11.457
moved	-11.457
▁ترانگاں	-11.457
▁ٹائم	-11.4571
▁علاقوں	-11.4572
▁منظم	-11.4572
▁عہدءِ	-11.4576
▁بیثہ	-11.4577
▁گنوکیں	-11.4578
▁دردناکیں	-11.4584
▁land	-11.4587
▁match	-11.4587
▁پژم	-11.4588
▁جسے	-11.4589
▁ملکا	-11.4589
▁پێسر	-11.4592
▁جیڑھاں	-11.4593
▁east	-11.4594
▁ٹپاں	-11.4598
▁دارانت	-11.4598
نور	-11.4598
▁بچاریت	-11.4601
▁بیائے	-11.4606
▁صباء	-11.4607
▁ایگی	-11.4608
▁کنوکے	-11.4611
▁2012	-11.4613
▁نازءِ	-11.4613
▁ماوتی	-11.4613
▁خر	-11.4614
▁ھیالءَ	-11.4615
▁سرون	-11.4615
▁درچکاں	-11.4619
▁ثناء	-11.4625
رم	-11.4625
▁دلجان	-11.4628
▁سامی	-11.4628
شور	-11.463
▁پیمے	-11.463
▁پنوں	-11.4632
▁لۆگ	-11.4632
▁شاعریءَ	-11.4636
شال	-11.4637
▁جمھوری	-11.4637
▁اوانءِ	-11.4641
▁بنگ	-11.4643
▁بنام	-11.4645
چاگرد	-11.4645
▁مرتگ۔	-11.4647
▁مھم	-11.4651
بہر	-11.4652
▁اصطلاح	-11.4652
▁پہکیں	-11.4652
▁چھوڑ	-11.4656
▁برگیڈ	-11.4658
▁بلوچستانء	-11.4659
....!	-11.4659
▁چوگان	-11.466
▁گيئشتر	-11.466
▁توپ	-11.4661
▁اداراں	-11.4663
▁منندیں	-11.4664
هر	-11.4664
▁تنیگہ	-11.4664
▁اتحادی	-11.4666
▁ازیت	-11.467
▁کسو	-11.467
▁زرانی	-11.4675
▁ہست۔	-11.4676
▁تخلیقی	-11.4677
▁مقرر	-11.4678
em	-11.4678
▁بازارءِ	-11.4679
▁۔اگاں	-11.4681
▁فراز	-11.4683
ره	-11.4686
▁low	-11.4687
▁دیری	-11.4691
▁جیڑہاں	-11.4693
A	-11.4694
▁کچہ	-11.4695
▁بزانتیں	-11.4695
▁popular	-11.4697
▁تاجر	-11.4697
▁شرح	-11.4698
▁رنجاں	-11.47
▁مہلنج	-11.4701
▁سئید	-11.4701
▁چاراتگ	-11.4701
▁تچوکیں	-11.4705
▁پنڈ	-11.4705
پرچے	-11.4708
▁انگریزاں	-11.4708
▁ادارے	-11.4709
line	-11.471
tic	-11.4711
▁بکناں۔	-11.4715
▁ارزش	-11.4715
▁ترانت	-11.4716
▁راھاں	-11.4716
▁کوہاں	-11.4717
▁ملکیت	-11.4717
▁یونائیٹڈ	-11.472
▁ماہے	-11.4723
▁گؤں	-11.4724
نیت	-11.4725
▁پدرائی	-11.4732
▁لاگر	-11.4735
▁ببو	-11.4736
vi	-11.474
▁انچوکہ	-11.4743
▁ھمروچیگیں	-11.4744
ٹس	-11.4745
▁ندارگے	-11.4746
▁سوبا	-11.4746
co	-11.4749
▁استادے	-11.4749
▁بلوچانءِ	-11.475
▁لوٹنت	-11.4751
▁حوالے	-11.4752
▁لوچ	-11.4754
▁بحران	-11.4754
▁بوک	-11.4755
بیان	-11.4757
▁درنجگ	-11.4758
▁We	-11.4759
▁حداءَ	-11.476
▁tropic	-11.476
▁نسب	-11.4762
▁پنڈگ	-11.4763
▁ذرائع	-11.4765
جم	-11.4768
▁پلانٹ	-11.4769
▁دروشمیں	-11.4771
▁خوب	-11.4772
▁ھمساھگ	-11.4772
▁شاعرءُ	-11.4775
▁ابر	-11.4778
▁creat	-11.4778
▁قریشی	-11.4778
▁General	-11.4781
▁لوٹائینتگ	-11.4781
▁کردہ	-11.4783
▁لھم	-11.4783
▁بروک	-11.4788
▁گوربام	-11.4789
▁گرے	-11.4789
▁لاگریں	-11.4792
ثہ	-11.4793
▁سوبمندیں	-11.4799
▁ٹکی	-11.4801
▁بیگی	-11.4803
▁ننک	-11.4805
▁کنانءَ	-11.4806
de	-11.4807
▁تج	-11.4808
▁تاچ	-11.4809
▁دکتر	-11.4809
way	-11.4811
▁جذبات	-11.4813
▁اٹھ	-11.4814
▁ترکیب	-11.4815
▁کلانچ	-11.4816
▁تامربند	-11.482
▁تہلیں	-11.4822
▁بخاری	-11.4825
▁ٹرمپ	-11.4829
▁رومان	-11.483
▁se	-11.483
▁لوٹائینت	-11.4831
▁چٹی	-11.4832
▁جارج	-11.4836
سردار	-11.4837
شھلچہ	-11.4838
▁کسا	-11.484
▁بکشاتگ	-11.4841
انگت	-11.4842
▁رنگا	-11.4842
▁Me	-11.4844
▁house	-11.4846
مگ	-11.4846
▁مانی	-11.4847
given	-11.4854
خدا	-11.4854
▁بوتوں	-11.4855
▁چداں	-11.4856
▁پٹگ	-11.4859
▁جندے	-11.4859
نج	-11.4863
▁23	-11.4865
▁ڈویژن	-11.4866
▁کرناں	-11.4868
ہوار	-11.4868
▁سمندری	-11.4868
▁پڑاں	-11.4869
▁طائر	-11.4871
▁بدنءِ	-11.4871
ڈا	-11.4872
▁critic	-11.4872
▁region	-11.4873
▁کته	-11.4873
▁گواھی	-11.4873
▁نازاں	-11.4879
▁ابرو	-11.488
▁چاریگی	-11.4881
▁hav	-11.4882
▁اوژناگ	-11.4885
▁چنڈگ	-11.4885
وند	-11.4886
ابا	-11.4887
▁novel	-11.4888
▁Japan	-11.4888
▁پہمئن	-11.4888
بیتگ	-11.4888
▁حالگش	-11.4893
ماتی	-11.4895
ترس	-11.4896
▁سکول	-11.4896
▁کہیر	-11.4897
▁پیژگاہ	-11.4898
▁light	-11.4899
▁برائے	-11.4899
▁گولے	-11.49
▁پہلوی	-11.4901
▁پورم	-11.4901
▁فیکٹری	-11.4902
▁تپر	-11.4905
اول	-11.4906
▁بدیاں	-11.4907
▁times	-11.4911
▁گنی	-11.4911
▁دیوانا	-11.4912
▁term	-11.4914
▁رہبنداں	-11.4915
▁راہءُ	-11.4916
▁writing	-11.4917
▁خاک	-11.4918
▁اشکرانی	-11.492
▁کانچ	-11.4921
▁گهار	-11.4925
▁گندایت	-11.4925
▁گوئی	-11.4925
▁مفت	-11.493
اشانی	-11.4931
▁انتخاب	-11.4932
▁گیشواری	-11.4936
▁لشکرے	-11.4938
▁دریاورد	-11.4939
▁پتا	-11.4946
ig	-11.4947
▁پج	-11.4948
▁نبیسوک	-11.4948
▁بیبو	-11.4952
هے	-11.4953
▁زیل	-11.4953
▁ہشک	-11.4954
▁جنگول	-11.4956
▁پاری	-11.4958
▁ندوی	-11.4959
▁جدگال	-11.4965
پک	-11.4966
گاہ	-11.4967
▁رتک	-11.4967
▁star	-11.4968
▁members	-11.4968
شہر	-11.4968
▁بھرام	-11.4969
▁ڈلگ	-11.4969
▁موسمے	-11.4969
▁ڈیموکریٹ	-11.4974
▁لگا	-11.4976
▁pre	-11.4976
▁ھترہ	-11.4979
▁جنئک	-11.4979
▁غازی	-11.498
عربی	-11.4981
▁بئیگا	-11.4981
▁پیڑ	-11.4982
▁گرو	-11.4984
▁بیلاں	-11.4987
▁west	-11.4989
▁گشتہ	-11.499
▁مچار	-11.4996
▁()	-11.4996
▁کارکردگی	-11.4996
▁زہگے	-11.5
lost	-11.5002
▁?”	-11.5002
▁ایڈ	-11.5003
ھیر	-11.5006
seen	-11.5008
▁کلا	-11.5008
▁عمان	-11.5008
▁کشکاں	-11.5009
دستونک	-11.5012
▁عومر	-11.5014
▁منتوار	-11.5014
▁لوزاں	-11.5015
▁ربیتی	-11.5016
▁انلاین	-11.5017
▁لاطینی	-11.5022
▁مشکت	-11.5023
▁متلبے	-11.5023
▁لبرل	-11.5024
اه	-11.5024
▁جوانسال	-11.5024
▁شہرءِ	-11.5028
▁یہودی	-11.5028
▁وند	-11.5031
▁ایڈیشن	-11.5034
▁پشتا	-11.5036
یلی	-11.5037
▁ذریعے	-11.5039
▁نکتہ	-11.5041
▁ٹھ	-11.5041
▁پڑی	-11.5046
▁فرید	-11.5046
صل	-11.5047
▁ھتم	-11.5047
▁انڈین	-11.5047
شگ	-11.5048
▁دیمء	-11.5049
▁ازر	-11.5054
▁تما	-11.5056
▁شمشتگ	-11.5057
▁نوٹس	-11.5058
▁plan	-11.5059
▁گرام	-11.5059
▁fee	-11.5061
▁تچیت	-11.5062
▁انچائیں	-11.5062
غنی	-11.5062
▁country	-11.5063
▁ساپیں	-11.5063
▁بلکنہ	-11.5064
▁اہتگ	-11.5064
▁تقریبا	-11.5067
▁اٹلی	-11.5069
▁ڈاکٹرے	-11.5072
▁گلگدار	-11.5075
▁تلک	-11.5077
▁America	-11.5077
op	-11.5078
جار	-11.5081
گران	-11.5082
▁young	-11.5083
▁ھمدپ	-11.5085
▁جناور	-11.5085
▁چونا	-11.5086
▁گسے	-11.5086
▁مڑا	-11.5086
▁مزور	-11.5087
▁ہوکر	-11.5088
▁مزید	-11.5088
▁انعام	-11.509
یکہ	-11.5091
▁سہتے	-11.5092
زن	-11.5092
▁بربادی	-11.5093
▁مالدار	-11.5097
▁چما	-11.5098
▁گیشنگ	-11.5098
▁برس	-11.5102
▁کیوں	-11.5102
▁base	-11.5103
▁۔بلوچی	-11.5104
▁پکراں	-11.5104
▁Whil	-11.5104
▁گی۔	-11.5106
▁۔پدا	-11.5107
نگا	-11.5109
▁موج	-11.5109
بیگواہ	-11.511
▁ھمدردی	-11.511
▁اید	-11.5112
سرا	-11.5113
▁کلمکار	-11.5113
▁بچاراں	-11.5116
▁شکی	-11.5118
ٹری	-11.5118
▁نوشت	-11.512
▁جوانتریں	-11.5127
▁عبدالکریم	-11.5129
وے	-11.5129
▁ھمسیادی	-11.513
▁کارایت	-11.513
▁جنگوجانی	-11.513
▁چنگیز	-11.5132
▁انگریزوں	-11.5132
▁ہنی	-11.5133
▁زم	-11.5134
▁محسن	-11.5136
▁گریں	-11.5137
▁تھیں	-11.514
...!‘‘	-11.5142
▁متاہ	-11.5143
▁درگیج	-11.5144
▁انس	-11.5145
▁خواتین	-11.5148
F	-11.5149
uarter	-11.515
▁کنا	-11.5151
P	-11.5153
رنگیں	-11.5153
▁thought	-11.5154
▁دزمانجنی	-11.5155
▁شاید	-11.5155
▁گج	-11.5161
▁tour	-11.5163
▁گشگا	-11.5164
▁ذیل	-11.5166
▁چارایت	-11.5168
▁ژانگول	-11.517
بنت۔	-11.5171
▁mak	-11.5171
الہ	-11.5174
پو	-11.5175
▁زانتیں	-11.5176
▁کرپشن	-11.5176
▁اپیل	-11.5179
▁range	-11.518
▁اسمائیل	-11.5192
▁کماندان	-11.5194
▁کامیابی	-11.5194
دروشم	-11.5196
went	-11.5196
▁گارڈز	-11.5197
▁West	-11.5202
▁کتب	-11.5202
▁تباھی	-11.5202
▁شہد	-11.5206
▁ناامیتی	-11.5208
▁اوزار	-11.5208
▁ریگی	-11.521
▁بیھال	-11.521
▁راجہ	-11.521
▁سرکارا	-11.5212
▁نیز	-11.5212
▁اقتدار	-11.5214
▁2013	-11.5214
▁درگ	-11.5221
▁پشومان	-11.5221
▁عدم	-11.5222
one	-11.5222
▁برنت	-11.5223
▁ہنری	-11.5224
▁بیانے	-11.5224
▁برانت	-11.5225
▁باتیں	-11.5227
▁کپتیں	-11.5228
▁تماشا	-11.5235
▁انیگیں	-11.5237
▁ائیگ	-11.524
mp	-11.5241
▁روٹکی	-11.5242
▁ادیرہ	-11.5243
▁زیروک	-11.5244
تل	-11.5249
▁برطانیا	-11.5251
سفرخان	-11.5253
▁براتی	-11.5253
▁لوٹے	-11.5255
▁پاساں	-11.5256
▁تالہ	-11.5258
▁صحیح	-11.5258
▁less	-11.5258
▁ضمانت	-11.5259
چاپ	-11.5261
▁جرمکار	-11.5263
▁پٹھان	-11.5263
▁میس	-11.5264
▁کرام	-11.5273
▁گواتانی	-11.5274
یف	-11.5274
▁ہنچش	-11.5276
▁ھمایاں	-11.5276
▁سرتاک	-11.5277
▁King	-11.5278
▁ایمنسٹی	-11.5281
▁کڑ	-11.5282
▁سوک	-11.5283
▁لبزءُ	-11.5283
▁دراھی	-11.5284
▁ھسن	-11.5284
▁operation	-11.5285
کمے	-11.5286
▁پرشیت	-11.5291
▁ماراں	-11.5292
▁پاچن	-11.5295
▁ھالیگ	-11.5295
▁مانگیش	-11.5295
▁بوتک	-11.5298
▁کنگ۔	-11.5302
▁سینئر	-11.5304
▁جوک	-11.5304
▁اشعار	-11.5306
side	-11.5307
▁اذیت	-11.5308
چوشکہ	-11.5308
▁دانائی	-11.5308
▁دیاں۔	-11.5308
▁غفور	-11.531
مھر	-11.5316
▁مکان	-11.5316
niversit	-11.5326
▁never	-11.5326
▁ماسکو	-11.5326
▁بارکزئی	-11.5326
▁پاسپورٹ	-11.5327
▁development	-11.5328
▁ٹائپ	-11.5329
تران	-11.5335
der	-11.5345
▁بیاراں	-11.5346
▁پیسہ	-11.5348
سیت	-11.5349
▁ایرجیگ	-11.535
▁کسھاں	-11.5351
▁روزی	-11.5351
▁سینزدہ	-11.5353
▁وشحالی	-11.5354
▁واکیات	-11.5355
▁گرئگ	-11.5356
▁رحمدل	-11.5356
▁stated	-11.5358
▁ینت	-11.536
▁پرزند	-11.536
▁نیار	-11.5361
▁بہرانی	-11.5366
▁جیڑہے	-11.5368
شم	-11.5369
▁اجزاء	-11.5371
▁مراگاہ	-11.5371
▁سفیر	-11.5371
▁مشورہ	-11.5373
▁مصیبت	-11.5374
▁ہمد	-11.5375
▁کتگین	-11.5377
▁award	-11.5377
▁ایدیم	-11.5377
▁زالکار	-11.538
▁گشادی	-11.5381
▁style	-11.5382
▁بلاک	-11.5383
▁کوہءَ	-11.5383
▁ہلاپ	-11.5384
▁شائراں	-11.5389
▁گرگءَ	-11.5392
▁action	-11.5393
▁فصل	-11.5394
▁اسری	-11.5395
▁گوادرءِ	-11.5396
▁جنگلی	-11.5396
▁سفرنامہ	-11.5396
▁پتاتگ	-11.5398
▁رچان	-11.5401
▁لگگ	-11.5401
▁دیوالاں	-11.5402
▁لیکہءِ	-11.5402
▁پیشدار	-11.5403
▁صحب	-11.5404
▁سجاد	-11.5407
ell	-11.5408
▁ھندءُ	-11.5409
▁توام	-11.541
بک	-11.541
▁ناروے	-11.5413
▁واکب	-11.5416
▁کدیم	-11.5416
▁سانتیاگونصر	-11.5418
▁پراں	-11.5419
▁سدھ	-11.542
▁ھرتال	-11.5421
▁بہرءَ	-11.5422
▁پجارے	-11.5425
▁چھٹی	-11.5427
▁تگران	-11.5428
▁ادارکی	-11.5429
▁complete	-11.5429
▁Co	-11.543
▁سم	-11.543
me	-11.5431
▁ولید	-11.5433
▁پٹان	-11.5433
▁کوشانی	-11.5434
▁ریاستے	-11.5436
▁جاڑی	-11.5438
▁واهگ	-11.5439
▁زانتکارے	-11.5441
▁ازمانکی	-11.5442
▁ہوا۔	-11.5442
▁قطار	-11.5444
▁بہرام	-11.5445
▁راھانی	-11.5446
وکے	-11.5446
تری	-11.5448
▁سوا	-11.5452
▁دارگءَ	-11.5452
▁نہیں۔	-11.5452
▁مسلہ	-11.5457
▁اھان	-11.5457
▁حکمران	-11.5458
▁بگو	-11.5459
▁کشادگ	-11.5459
▁ٹھک	-11.5459
▁بوشت	-11.5461
▁زمینانی	-11.5462
▁کینسر	-11.5463
▁سسائی	-11.5464
▁نکاح	-11.5466
▁toward	-11.5468
▁نادریں	-11.547
▁ورناھاں	-11.547
▁انجینئر	-11.5471
▁لوڑی	-11.5472
▁یکشلی	-11.5473
چیر	-11.5475
▁اروک	-11.5477
▁ra	-11.5481
▁v	-11.5481
کرد	-11.5484
▁پسانی	-11.5484
▁روایات	-11.5486
▁دریافت	-11.5488
کناں	-11.549
▁کچکے	-11.5492
▁جاو	-11.5496
▁دشمنی	-11.5497
▁ہپتاد	-11.5499
▁بلوچءَ	-11.5503
▁دپار	-11.5503
▁ہپتگ	-11.5506
▁راھبندے	-11.5507
▁بگاوت	-11.5507
▁مھلب	-11.551
▁ڈنگر	-11.5511
ذا	-11.5512
▁بحری	-11.5513
▁Australian	-11.5514
coming	-11.5514
▁کفن	-11.5516
,’’	-11.5519
▁نگرہ	-11.5519
▁لچه	-11.552
▁نامانی	-11.552
▁ہوارانت۔	-11.5522
▁بندرءَ	-11.5523
▁عالی	-11.5523
▁اتش	-11.5526
▁کسھانی	-11.5527
یٰ	-11.5528
▁پلاسٹک	-11.5529
چشیں	-11.5531
▁ثنا	-11.5532
▁کردارانی	-11.5536
▁چۆن	-11.5537
▁ترسیت	-11.554
اؤں	-11.554
چاکر	-11.5542
بانک	-11.5542
▁سبکیں	-11.5543
▁دلسیاہ	-11.5543
▁کرتءُ	-11.5546
self	-11.5548
▁ساعتے	-11.5548
▁کسمت	-11.555
▁ft	-11.5553
▁تعمیر	-11.5555
no	-11.5559
▁پراھگ	-11.5559
▁اصلیں	-11.5561
▁حیالداری	-11.5565
▁sign	-11.5566
شتہ	-11.5566
▁28	-11.5568
▁دوداں	-11.5569
▁ترسءَ	-11.5571
▁کفر	-11.5573
▁جهل	-11.5573
▁توازن	-11.5575
▁زیراں	-11.5577
▁وصف	-11.5578
▁کمب	-11.5578
▁نمائندگی	-11.5578
▁50	-11.5579
اماں	-11.5583
شانی	-11.5583
ham	-11.5583
▁تیغ	-11.5583
فت	-11.5584
▁کشیت۔	-11.5585
نچ	-11.5586
▁con	-11.5586
▁ازمون	-11.5586
زیر	-11.5589
▁مصری	-11.5589
▁مسلماناں	-11.559
▁تمبو	-11.5591
▁سورس	-11.5593
▁کدو	-11.5596
روکپتی	-11.5596
▁کارستاں	-11.5597
▁بندری	-11.5599
▁مبارکیءَ	-11.56
▁گورنمنٹ	-11.56
▁ھلو	-11.5602
▁بوت۔۔۔	-11.5604
ئیت	-11.5608
▁جاھانی	-11.561
بز	-11.5613
▁بتلانی	-11.5615
▁سیاھی	-11.5615
▁پشل	-11.5616
چھ	-11.5618
▁حضور	-11.5621
▁اندازگ	-11.5623
▁Ire	-11.5623
سریں	-11.5624
▁ملکموت	-11.5625
▁گوج	-11.5626
▁شاھر	-11.5627
▁scene	-11.563
▁island	-11.5631
▁22	-11.5632
▁گیشینتگ	-11.5632
رات	-11.5633
▁کاش	-11.5637
▁فلاں	-11.5637
زاں	-11.5639
▁اینٹی	-11.564
ither	-11.5641
▁پھول	-11.5642
▁لبزی	-11.5642
▁سکھ	-11.5644
▁انگار	-11.5644
ہان	-11.5644
▁کھڑکی	-11.5645
▁enter	-11.5645
▁توصیف	-11.5646
▁نیادی	-11.5648
▁کسٹم	-11.565
▁اشکن	-11.5651
▁عربانی	-11.5653
▁ادت	-11.5657
▁سعدی	-11.5658
▁گهتر	-11.5659
▁پردہ	-11.5659
▁واناک	-11.5662
▁کائی	-11.5665
▁رستہ	-11.5667
▁تروتاب	-11.5668
▁مہلوکءِ	-11.5669
▁هئیال	-11.567
▁نمونہ	-11.5671
▁بستگ۔	-11.5671
▁سہن	-11.5672
▁chart	-11.5677
▁سرمچارے	-11.5681
▁ٹر	-11.5681
▁شتنت	-11.5684
▁سیٹھ	-11.5686
▁بیچار	-11.5687
▁زهیر	-11.5689
▁هوار	-11.569
▁پسیل	-11.569
▁hour	-11.5691
▁پچی	-11.5691
▁نێمگا	-11.5692
▁تانا	-11.5694
امی	-11.5694
▁پرسیگ	-11.5696
▁گیگان	-11.5697
▁بشارت	-11.5698
▁پشومانی	-11.5704
▁نشانے	-11.5706
سین	-11.5713
▁ہرکسی	-11.5715
ارت	-11.5716
."	-11.5717
▁تسلسل	-11.5717
▁ڈیجیٹل	-11.5717
مردماں	-11.5718
▁بندیگی	-11.5719
▁مفتی	-11.5721
▁ساچشتکار	-11.5728
...‘‘	-11.5729
▁سیاہی	-11.5731
▁ہاسیں	-11.5731
▁join	-11.5733
▁مردانی	-11.5734
▁earlie	-11.5737
▁گیپت۔	-11.5737
▁سربر	-11.5738
▁جلی	-11.5739
تربت	-11.5741
ندی	-11.5741
▁post	-11.5742
▁براتے	-11.5743
▁زگر	-11.5743
▁شعرءَ	-11.5743
▁سلہ	-11.5744
▁رہبندے	-11.5746
▁وہی	-11.5747
لین	-11.5748
▁پاور	-11.5749
▁white	-11.5751
▁جدل	-11.5752
▁اہو	-11.5752
▁پروشی	-11.5753
▁گب	-11.5754
▁مہتر	-11.5756
پدءَ	-11.5758
▁سات	-11.5759
▁حذمت	-11.5759
▁ھیرات	-11.576
▁تعالی	-11.5761
▁کمانچر	-11.5761
▁پدانک	-11.5762
وھدیکہ	-11.5762
صد	-11.5762
▁پروردگار	-11.5763
▁تئوار	-11.5763
▁نگدکاری	-11.5763
▁برزتر	-11.5763
▁کین	-11.5765
▁وانوکیں	-11.5765
▁مولابخش	-11.5767
▁پولگ	-11.5767
▁town	-11.5768
▁سخن	-11.5768
ندر	-11.5771
▁دیغ	-11.5776
▁ذگریں	-11.5777
▁حرچ	-11.5779
▁پداں	-11.5781
▁Black	-11.5784
رءَ	-11.5786
▁ھانزا	-11.5786
▁بیاں	-11.5786
▁بنتءُ	-11.5787
ير	-11.5789
▁وفاق	-11.5789
▁مومنٹ	-11.5791
▁گوگل	-11.5791
▁صغیر	-11.5792
مور	-11.5794
▁رسینگ	-11.5797
▁سینہ	-11.5798
▁بوئگءَ	-11.5799
▁گپی	-11.58
▁دمانی	-11.5803
▁دوھیں	-11.5804
▁۔ہمے	-11.5805
▁منظوری	-11.5807
▁دردی	-11.5807
▁پمێشکا	-11.5808
▁سلاه	-11.5809
▁ھوراں	-11.5813
▁دانکاں	-11.5814
▁کسارت	-11.5814
▁کاڑ	-11.5819
▁چشمک	-11.5822
▁کلیر	-11.5823
▁یله	-11.5823
▁دیئے	-11.5823
▁issue	-11.5825
▁ہوری	-11.5827
حدا	-11.5831
▁کنگے	-11.5831
گڈی	-11.5832
کپت	-11.5834
▁ملوک	-11.5835
▁ورناہانی	-11.5836
ورنا	-11.5837
▁Ma	-11.5837
دک	-11.584
▁چلا	-11.584
ہار	-11.584
▁غمانی	-11.5842
▁ھپتمی	-11.5843
ence	-11.5845
▁لگام	-11.5846
▁دانگے	-11.5847
▁اثرمند	-11.5848
▁ارادگ	-11.5849
▁کشمیری	-11.585
▁writer	-11.5851
لہتیں	-11.5854
▁element	-11.5855
▁نائک	-11.5856
▁جارے	-11.5856
▁شیرے	-11.5859
▁پکنک	-11.5861
▁برئے	-11.5863
▁بنگپے	-11.5865
▁ناھدا	-11.5865
▁کیامت	-11.5865
▁دراہگ	-11.5866
▁اگه	-11.5868
▁مھکمی	-11.587
▁مم	-11.587
▁ھیات	-11.5873
▁ندی	-11.5875
▁شزار	-11.5875
▁پرینگ	-11.588
▁ایرموش	-11.5881
▁موسیقی	-11.5882
▁گسءِ	-11.5883
▁24	-11.5884
مس	-11.5885
▁گواتءِ	-11.5888
مچ	-11.5888
▁مجھ	-11.5889
حیال	-11.589
اپی	-11.589
دانی	-11.5892
ship	-11.5893
ting	-11.5894
▁موسماں	-11.5896
کنڈ	-11.5897
نشتگ	-11.5897
▁وسوسگ	-11.5899
▁زروان	-11.59
▁گندگی	-11.5901
گن	-11.5901
ن۔	-11.5902
felt	-11.5902
▁گواتءَ	-11.5902
▁هرکس	-11.5904
▁مردان	-11.5904
▁نارشت	-11.5905
▁درپشوکیں	-11.5905
▁امیدوار	-11.5907
▁ضمیر	-11.5911
▁دائما	-11.5912
▁ساربان	-11.5913
تان	-11.5913
▁noted	-11.5914
▁بوپ	-11.5915
▁son	-11.5915
▁ابادیں	-11.5917
ھوار	-11.5918
▁کب	-11.5919
▁عبید	-11.592
▁نجات	-11.5921
▁میاریں	-11.5923
▁ازلی	-11.5925
▁نوہ	-11.5925
▁ورناہاں	-11.5926
▁London	-11.5926
▁مراقبہ	-11.5926
سئے	-11.5929
▁گرگی	-11.5929
▁ھیروپ	-11.593
▁چتکان	-11.5931
▁داتءُ	-11.5931
▁پئیمیں	-11.5931
▁انگه	-11.5931
▁عبدالحکیم	-11.5931
▁بزیر	-11.5932
▁ڈگارءَ	-11.5933
▁الیاس	-11.5935
▁واڑ	-11.5936
▁منشی	-11.5937
▁مھرانی	-11.5938
▁ارمانی	-11.5939
across	-11.5939
▁پتار	-11.5942
▁راستیءَ	-11.5946
ادب	-11.5947
یکیں	-11.595
▁سوبیں	-11.5951
▁ائوکیں	-11.5951
▁بلاول	-11.5952
▁نامداری	-11.5954
▁کشنت	-11.5955
▁رتکگیں	-11.5956
▁ناتپاکی	-11.5957
▁داتیں	-11.5957
▁مہربانی	-11.5958
▁عدل	-11.5959
▁مذھبی	-11.5962
▁گارءُ	-11.5963
▁انوگ	-11.5963
▁route	-11.5964
▁ابات	-11.5968
▁win	-11.597
اخ	-11.5971
▁ٹپاسگ	-11.5972
ڑے	-11.5974
▁سرحد	-11.5977
▁see	-11.5979
▁دانکے	-11.598
▁نادرا	-11.5983
▁چمی	-11.5987
▁خدائی	-11.5987
▁عین	-11.5988
▁دردءُ	-11.599
▁گیشگیواری	-11.5991
▁اہدی	-11.5995
▁نالگ	-11.5995
▁نگران	-11.5996
▁بندرگاہ	-11.5998
▁وردی	-11.5999
▁تلو	-11.5999
▁get	-11.6001
▁ماہءَ	-11.6002
▁فنا	-11.6007
▁ائن	-11.6009
▁ھردوئیں	-11.601
▁چیدگے	-11.6011
نبشتگ	-11.6012
وپ	-11.6013
▁دۆست	-11.6016
شئیر	-11.6018
▁good	-11.6021
▁himself	-11.6022
▁ایجوکیشن	-11.6023
▁رازاں	-11.6024
▁کپٹن	-11.6025
▁پیپلز	-11.6025
▁ھونانی	-11.6026
▁گذر	-11.6027
▁رؤف	-11.6028
▁ہمراہاں	-11.6029
▁درتگیں	-11.6029
▁زاننت	-11.6031
▁ھمداں	-11.6032
▁حلقہ	-11.6034
رین	-11.6034
▁گلامیں	-11.6036
▁دلگران	-11.6036
▁میریں	-11.6037
کائی	-11.6038
▁چھوٹ	-11.604
▁ایپلی	-11.6043
▁ھیالی	-11.6043
بھ	-11.6046
▁دوزواہ	-11.6046
▁ماھاں	-11.6047
▁ایرانء	-11.6048
▁سیدءِ	-11.6049
▁ھمگرنچی	-11.6052
▁کرشن	-11.6053
جس	-11.6056
▁حبرانی	-11.6058
▁جنینی	-11.6058
ha	-11.606
▁اصلاح	-11.6062
مٹ	-11.6065
▁Sa	-11.6066
▁رست۔	-11.6068
▁ماشین	-11.6069
▁black	-11.6069
▁ریسکیو	-11.607
▁جوھر	-11.6073
▁سیاه	-11.6073
▁ناگتیں	-11.6073
▁مڈل	-11.6074
▁ہوت	-11.6075
▁زانتاں	-11.6075
سیاہ	-11.6076
▁ten	-11.6077
▁ھمگام	-11.6077
▁معناءُ	-11.608
▁بقول	-11.6081
▁featur	-11.6083
▁!!!	-11.6085
ought	-11.6089
▁کیوبا	-11.609
▁فوٹو	-11.609
▁ایکسپریس	-11.6094
▁روگءِ	-11.6098
▁چادرے	-11.6099
▁مہروان	-11.61
▁ڪنت	-11.6103
▁پہنچا	-11.6104
تھا	-11.6104
▁درہائ	-11.6106
▁ڈیلہ	-11.6106
▁پیلہ	-11.6115
▁واہشت	-11.6115
▁کھور	-11.6116
▁مثالے	-11.6117
▁ازگار	-11.6118
‘,’	-11.6118
▁وارے	-11.6118
▁برمشے	-11.612
▁ناگتی	-11.612
▁منڈ	-11.6121
▁ریپ	-11.6121
▁بیتاں۔	-11.6122
الله	-11.6122
چیز	-11.6125
▁لوزانت	-11.6126
ka	-11.6127
▁act	-11.613
▁ذی	-11.613
▁بوؤگ	-11.6131
▁live	-11.6135
▁گئیں	-11.6135
▁چمدار	-11.614
▁نزار	-11.6141
▁وشھالی	-11.6142
▁کچکانی	-11.6145
▁گوشداران	-11.6146
away	-11.6146
▁ماہور	-11.6147
▁مبات	-11.6148
▁جاؤ	-11.6151
▁شوندات	-11.6151
▁چکیں	-11.6153
▁ھمیشاں	-11.6155
be	-11.6156
▁Australia	-11.6159
▁پیمانہ	-11.6159
زہرشانی	-11.6165
▁برزگ	-11.6165
▁پمپ	-11.6167
▁significant	-11.6168
▁شاہین	-11.6168
▁تیوک	-11.6169
▁شموشتگ	-11.6173
▁لازمی	-11.6175
رام	-11.6178
▁ات۔ا	-11.6178
▁تز	-11.618
▁بابتء	-11.6181
▁لہر	-11.6181
▁26	-11.6182
▁بکشیت	-11.6182
▁پلگاریں	-11.6183
▁پکرے	-11.6183
دریا	-11.6186
▁سلاحبند	-11.6186
▁ندیستگ	-11.6187
▁ہستیں	-11.6188
uir	-11.6189
▁بندوبست	-11.6191
شام	-11.6191
▁انگلینڈ	-11.6191
▁چکءَ	-11.6191
▁رکھتے	-11.6192
▁کرزیت	-11.6193
▁me	-11.6193
▁ھمودءَ	-11.6195
▁منو	-11.6195
▁فعل	-11.6196
▁ارڈر	-11.6196
▁چور	-11.6199
▁زھیروک	-11.62
▁راھا	-11.6204
حمل	-11.6204
▁ترہ	-11.6205
جہل	-11.6206
▁دردءِ	-11.6208
▁ابیتکیں	-11.621
▁وریں	-11.621
▁ھندو	-11.6211
▁خشک	-11.6212
▁شیریں	-11.6212
▁مرضی	-11.6214
▁باکس	-11.6215
اگن	-11.6217
▁کباب	-11.6219
▁وپتگیں	-11.622
▁عبدالغفار	-11.6222
▁سادگی	-11.6222
▁خواہ	-11.6225
▁شیراں	-11.6225
نڑ	-11.6227
▁ھدائی	-11.6228
▁منء	-11.623
کت۔	-11.623
▁ایاز	-11.6231
▁age	-11.6232
▁dis	-11.6235
▁زورگیر	-11.6238
▁جاپانی	-11.6239
▁تجابان	-11.624
▁important	-11.624
جنت	-11.6242
▁عبدالرحمن	-11.6243
▁استونک	-11.6245
هم	-11.6248
▁سوداگر	-11.6248
K	-11.6249
▁لاشعور	-11.625
▁بالشت	-11.6251
▁وهدی	-11.6253
▁ازگ	-11.6253
▁مشکلات	-11.6254
▁یکسد	-11.6261
▁پروشیت	-11.6264
▁initial	-11.6264
▁دہلی	-11.6265
▁تؤکا	-11.6265
▁باہر	-11.6266
بالاچ	-11.6267
▁قصہی	-11.6267
▁miles	-11.6268
کاراں	-11.6273
▁میچ	-11.6276
▁نورل	-11.6281
▁ساہتے	-11.6281
▁اوبادگ	-11.6282
▁جمعی	-11.6283
▁کمبل	-11.6284
اسپ	-11.6289
▁یکپارگی	-11.6289
▁ٹاؤن	-11.6289
▁father	-11.6289
▁کئور	-11.6291
▁تعاون	-11.6291
▁شاتو	-11.6292
▁فیلڈ	-11.6292
▁نوان	-11.6292
کمک	-11.6299
جاگہ	-11.6301
lin	-11.6302
▁گلو	-11.6305
den	-11.6306
▁روزگاری	-11.6306
▁ہماری	-11.6308
▁استا	-11.6309
▁ہورک	-11.6313
▁تبدیلی	-11.6314
▁گناھیں	-11.6314
▁ورنت	-11.6316
▁پادے	-11.6316
▁پائیدار	-11.6317
▁ساگر	-11.6318
▁سیاہگ	-11.6318
▁تانہ	-11.6318
▁سنسکرت	-11.6319
▁انچشیں	-11.6327
باد	-11.6328
to	-11.6329
▁ھشتمی	-11.633
▁باپشت	-11.6332
▁ض	-11.6332
▁ازمکاری	-11.6335
▁ماش	-11.6335
▁شتر	-11.6338
▁female	-11.6338
▁modern	-11.6338
▁television	-11.6339
▁شیعہ	-11.6339
▁کھیر	-11.634
▁جول	-11.634
▁سیارہ	-11.6341
▁دیوار	-11.6342
▁الزام	-11.6343
▁Her	-11.6345
ca	-11.6345
▁جائز	-11.6348
▁جامعہ	-11.6352
▁گوادری	-11.6353
کلی	-11.6355
▁راہءِ	-11.6355
▁eight	-11.6363
▁کردگالی	-11.6363
▁رستری	-11.6365
▁بیدے	-11.6366
ge	-11.6367
▁حسابءَ	-11.6367
پمیشکا	-11.6368
▁شعرءُ	-11.6368
▁کرگ	-11.6371
▁گمسار	-11.6373
زندگی	-11.6374
▁ملوری	-11.6374
▁کٹی	-11.6375
▁پچگرگ	-11.6377
▁ناامیت	-11.6378
▁سانکل	-11.638
▁چکان	-11.6382
▁پیدائش	-11.6383
▁یکتنا	-11.6387
▁various	-11.6388
▁ھاؤس	-11.6388
▁interest	-11.6388
▁کشگءَ	-11.6389
▁انلائن	-11.6389
ہور	-11.639
▁چربی	-11.6393
v	-11.6394
▁ساچشتے	-11.6399
▁اخرت	-11.6399
▁گپتیں	-11.64
بے۔	-11.6401
▁بیلی	-11.6401
چوشیں	-11.6401
کوش	-11.6402
▁۔تو	-11.6404
▁عورت	-11.6408
▁ردء	-11.6411
▁بدنءَ	-11.6412
▁چیری	-11.6413
▁minute	-11.6413
▁ژوب	-11.6413
▁عبدالمجید	-11.6417
▁road	-11.6417
▁ریشاں	-11.6419
▁منئ	-11.642
▁حمیدہ	-11.6421
▁کمر	-11.6422
▁۔ایشی	-11.6426
گاڑی	-11.6427
▁واسطہ	-11.6429
▁کیسے	-11.6432
▁جوہان	-11.6435
عی	-11.6439
▁درانی	-11.6443
ial	-11.6443
▁کسےءِ	-11.6444
▁اسمی	-11.6446
▁ھدے	-11.6447
▁چمپل	-11.6447
▁سربیت	-11.6447
▁مئیت	-11.6447
▁damage	-11.6448
▁class	-11.6449
▁ائیر	-11.6449
▁وتئ	-11.645
▁ترکگ	-11.6451
▁باتاں	-11.6453
دنت	-11.6454
▁چیزان	-11.6458
ائینگ	-11.646
▁راھ	-11.6461
▁بڈا	-11.6462
▁امروہی	-11.6463
▁James	-11.6464
▁stage	-11.6465
▁ناظم	-11.6469
▁دکھ	-11.647
ویل	-11.647
▁راجدپترءَ	-11.6474
▁مثلا	-11.6474
▁گوئشگ	-11.6475
ایان	-11.6476
کپتگ	-11.6476
▁داکتر	-11.6477
▁منڈی	-11.6477
▁کوت	-11.6477
▁زانگءَ	-11.6481
مع	-11.6486
▁زریں	-11.6487
▁باعث	-11.6488
▁look	-11.6488
▁احترام	-11.6489
باید	-11.649
▁تسلہ	-11.649
▁تعلیمی	-11.649
▁تسلیم	-11.6494
▁موڑ	-11.6501
▁پنتءُ	-11.6503
▁مکی	-11.6505
ایس	-11.6506
▁سرینگ	-11.6507
▁شفیق	-11.6508
▁چکءِ	-11.6508
پن	-11.6509
▁گریو	-11.6509
▁ربیدگانی	-11.6517
▁ازمانکءِ	-11.6517
▁راہاں	-11.6518
▁فنڈ	-11.6519
مئی	-11.6519
▁زگری	-11.6523
▁انت۔۔۔۔۔	-11.6524
▁کندیت	-11.6525
دیں	-11.6526
▁تھریک	-11.6526
▁ردیاں	-11.6526
▁الو	-11.6527
▁یکدار	-11.6527
▁ڑ	-11.6528
▁امریکائی	-11.6534
▁موداں	-11.6535
▁بدلا	-11.6536
▁اکہ	-11.6536
tra	-11.6539
▁مراگہ	-11.654
▁اینگو	-11.6541
▁روکپت	-11.6545
▁زبانوں	-11.6545
▁دامنءَ	-11.6546
▁need	-11.6547
▁نسر	-11.6551
▁غلط	-11.6553
▁دیستیں	-11.6557
▁نادراھیانی	-11.6557
▁پہوال	-11.6558
▁گیتکگ	-11.6559
▁success	-11.6561
▁پسے	-11.6561
▁case	-11.6564
▁successful	-11.6564
▁does	-11.6566
▁رخصت	-11.6567
▁کید	-11.6568
▁برکش	-11.6569
▁اروہی	-11.6571
▁گنجی	-11.6571
▁گنوکے	-11.6572
▁تنگو	-11.6572
▁ہیرو	-11.6574
▁جنزے	-11.6574
▁جنێن	-11.6574
▁گشتگ۔	-11.6575
▁نواں	-11.6575
▁درتگ	-11.6577
▁گزرانی	-11.658
▁events	-11.6582
دود	-11.6583
▁نادراهی	-11.6583
▁اہیءَ	-11.6586
گٹ	-11.6586
▁ھن	-11.6587
▁رائی	-11.6588
▁عبدالرحیم	-11.6589
▁sent	-11.659
▁لیگار	-11.6591
▁مسکرہ	-11.6592
▁یکجائی	-11.6594
▁کڑک	-11.6595
▁بیچارگ	-11.6597
▁El	-11.6601
اڈ	-11.6601
▁گلستان	-11.6602
▁روپگ	-11.6604
sa	-11.6606
ns	-11.6607
الو	-11.6608
▁اسٹور	-11.6609
▁محرم	-11.6609
ساچشت	-11.6611
▁تے	-11.6615
▁peak	-11.6615
▁ھبرءَ	-11.6617
▁زینت	-11.6618
زو	-11.6619
▁زابل	-11.6619
اوار	-11.6626
▁نوبل	-11.6627
▁بلوٹیت	-11.6629
▁امیتان	-11.6629
▁زمینے	-11.6631
▁ٹہینگ	-11.6631
▁جگا	-11.6633
▁منصب	-11.6633
▁الماری	-11.6635
▁پاچ	-11.6635
rd	-11.6635
▁art	-11.6641
▁پوائنٹ	-11.6642
▁discover	-11.6642
▁حور	-11.6643
▁political	-11.6644
▁جوڑی	-11.6646
▁بہرگاں	-11.6652
▁امنی	-11.6652
▁نبیل	-11.6653
▁person	-11.6655
▁نازءَ	-11.6655
زمانگ	-11.6658
▁بیوس	-11.6659
▁زلف	-11.666
▁sub	-11.6661
نر	-11.6662
▁تقسیم	-11.6666
▁جھاؤ	-11.6667
▁نوشیروانی	-11.6667
▁سالا	-11.6668
▁تفسیر	-11.6669
▁لکھا	-11.6671
▁شاھگان	-11.6672
بچ	-11.6675
▁ھمایانی	-11.6676
▁کٹیت	-11.6676
▁سرمگ	-11.6677
▁انت۔چہ	-11.6678
▁منزلءَ	-11.668
▁جیڑگانی	-11.668
▁چرک	-11.6681
▁صدا	-11.6681
▁بروان	-11.6686
▁ائیڈیل	-11.6686
▁ساچشتاں	-11.6687
▁دزکش	-11.669
▁تامدار	-11.6691
▁ھندانی	-11.6691
▁شن	-11.6692
▁announc	-11.6692
وج	-11.6693
▁ذال	-11.6694
▁شرو	-11.6694
▁ثمر	-11.6694
▁فائنل	-11.6695
فا	-11.6695
▁زورایت	-11.6699
▁national	-11.67
ld	-11.6702
▁دیووند	-11.6703
▁شھریاں	-11.6703
▁تلاہ	-11.6705
▁زورءُ	-11.6706
▁وردنی	-11.6706
ناکیں	-11.6707
▁سنگاں	-11.6708
▁زمزیل	-11.671
▁mm	-11.6712
▁یوں	-11.6712
▁ایٹمی	-11.6713
▁دیتا	-11.6718
▁زیور	-11.6719
▁زیملی	-11.6719
▁بنجلے	-11.672
▁الحاق	-11.6721
▁شپاد	-11.6725
▁بچہ	-11.6725
▁میکسم	-11.6732
▁روشنائی	-11.6733
ینانی	-11.6735
▁سنٹر	-11.6736
▁اصلءَ	-11.6736
▁دلیر	-11.6736
▁تنگیں	-11.6739
▁too	-11.6739
▁ایرکنگ	-11.6742
▁دوسال	-11.6744
▁ابداللہ	-11.6744
▁مجرم	-11.6745
▁شماری	-11.6747
▁کلانی	-11.6748
▁ولا	-11.6749
▁بدھ	-11.6751
▁پاہار	-11.6751
▁بوہگءَ	-11.6752
▁ریم	-11.6753
▁سون	-11.6755
▁میزاں	-11.6756
▁پجاروک	-11.6757
▁بات۔	-11.676
▁پرین	-11.676
▁بتلے	-11.6761
▁بابر	-11.6761
زانی	-11.6761
▁رھوت	-11.6764
▁بوتت	-11.6768
▁poem	-11.6769
ھد	-11.677
▁سهر	-11.6773
▁اکل	-11.6773
▁مادنیں	-11.6773
ot	-11.6776
▁جمر	-11.6776
▁mid	-11.6778
▁روئیں	-11.6778
ونک	-11.6785
▁کمپ	-11.6789
چونیں	-11.6789
▁نازرکی	-11.6792
▁Ra	-11.6794
▁تلوار	-11.6794
▁میوزیم	-11.6795
▁بکرتین	-11.6795
▁ابکہ	-11.6795
▁پائیدگ	-11.6796
▁performance	-11.6797
ودار	-11.6798
▁نمائندہ	-11.68
▁دزکشی	-11.68
▁سیکنڈ	-11.6801
ترین	-11.6801
وہد	-11.6804
جب	-11.6804
▁رنجانی	-11.6807
▁گزی	-11.6809
رن	-11.6813
▁ازمانءَ	-11.6813
▁دابءَ	-11.6815
▁پاگواجہ	-11.6817
▁هند	-11.6817
▁مالاں	-11.6818
▁بێ	-11.6818
▁example	-11.6821
▁ھڑتال	-11.6821
▁County	-11.6822
گہ	-11.6824
▁لمبر	-11.6825
▁دنیگت	-11.6826
▁استاداں	-11.6829
▁پیشکان	-11.6829
▁پربستگ	-11.683
ful	-11.6835
▁اوشتات۔	-11.684
▁وھم	-11.6842
عمل	-11.6845
زار	-11.6845
▁پولیٹیکل	-11.6847
▁لیکیت	-11.6849
بست	-11.6849
▁برٹش	-11.6851
▁لہ	-11.6852
▁سوغات	-11.6852
▁برئگ	-11.6856
▁ترانے	-11.6857
سما	-11.686
▁ثقافت	-11.6864
▁کارانت	-11.6867
▁دوچگ	-11.6868
▁ازمانءِ	-11.6869
▁سوٹ	-11.6871
▁چاک	-11.6873
▁مادگ	-11.6873
▁اکبت	-11.6873
▁الخط	-11.6874
▁شپک	-11.6874
▁کنڈی	-11.6875
▁کشءُ	-11.6875
▁درشتگ	-11.6876
▁محض	-11.6877
▁پرکے	-11.6877
▁استادانی	-11.6879
▁رشت	-11.6879
▁دراجکش	-11.688
▁بجائے	-11.6881
▁نویساں	-11.6884
ویں	-11.6884
▁گونڈل	-11.6885
▁غور	-11.6885
▁دیا۔	-11.6886
▁لوٹئے	-11.689
▁اوٹ	-11.6891
ted	-11.6893
▁جرات	-11.6893
nder	-11.6893
▁درابیت	-11.6894
اسک	-11.6897
قاضی	-11.6898
▁Road	-11.6899
▁influence	-11.6899
ساز	-11.6899
▁نابودی	-11.69
▁مخصوص	-11.6901
▁مرادساحر	-11.6903
▁سیکس	-11.6905
▁جنتر	-11.6905
خت	-11.6905
▁دہر	-11.6905
▁عرفان	-11.6907
▁ائیگا	-11.6908
▁امیج	-11.6911
▁پڑے	-11.6911
▁مبارکیں	-11.6912
▁سپرے	-11.6912
▁wide	-11.6913
اہے	-11.6913
▁should	-11.6915
مپ	-11.6916
▁ماہر	-11.6916
▁ٹالسٹائی	-11.6917
▁سوتے	-11.692
▁میاری	-11.692
▁نگدکار	-11.6921
▁چارمکنڈ	-11.6925
▁مہلوکءَ	-11.6927
چا	-11.6927
▁Ka	-11.6931
▁شررنگی	-11.6932
▁معلومات	-11.6932
ions	-11.6934
▁شتاں۔	-11.6937
▁locat	-11.6941
▁انت۔ھمے	-11.6942
▁ازمانگ	-11.6943
hind	-11.6943
▁leas	-11.6944
▁ھالتاک	-11.6945
▁بژنیگ	-11.6947
▁خوبصورت	-11.6951
▁effect	-11.6951
▁27	-11.6952
▁پادری	-11.6954
▁مشاہدہ	-11.6954
▁حطرہ	-11.6954
▁سرمگیں	-11.6958
▁کردستان	-11.6958
▁حرابی	-11.6963
▁قا	-11.6964
▁مٹھا	-11.6966
▁کاگدانی	-11.6967
▁جنیادم	-11.6969
اگہ	-11.6971
▁پندے	-11.6971
رت	-11.6971
انچش	-11.6975
▁ویکاریو	-11.6978
▁چونین	-11.6979
▁ٹھینگ	-11.698
▁structure	-11.6981
▁کماشے	-11.6983
▁کلوھے	-11.6983
زرت	-11.6984
▁فیروز	-11.6985
▁جاهے	-11.6985
▁مقدمہ	-11.6988
چین	-11.6989
▁نادان	-11.699
▁نکال	-11.6992
▁اھوالکاراں	-11.6996
پری	-11.6997
▁منگی	-11.6999
▁فعال	-11.7001
کساس	-11.7002
▁شدید	-11.7002
اجوئی	-11.7002
▁ذاتے	-11.7003
▁لوٹاں۔	-11.7003
سیر	-11.7003
دوستی	-11.7006
▁کنت۔اے	-11.7006
ٹل	-11.7007
▁ننگار	-11.7007
▁پندلے	-11.7007
▁حساس	-11.7008
▁ٹائمز	-11.7011
▁رودینتگ	-11.7011
▁ابھی	-11.7012
▁بئیت۔	-11.7012
▁سانکلاں	-11.7014
مانی	-11.7014
▁سکتے	-11.7015
تیر	-11.7016
▁ماضی	-11.7017
▁کی۔	-11.7018
▁انان	-11.7025
▁شالءِ	-11.7025
خیر	-11.7025
▁eventual	-11.7028
▁La	-11.7029
اٹ	-11.703
▁چوہدری	-11.7031
▁تھران	-11.7034
▁لڑے	-11.7034
▁زانے	-11.7035
▁بختاور	-11.7036
▁پیالہ	-11.7036
▁رازے	-11.7036
▁Ha	-11.7039
▁شیرگ	-11.7046
ach	-11.7046
▁گولڈ	-11.7048
▁شانیں	-11.705
▁درکرت	-11.7051
▁اغاز	-11.7052
▁بہائیں	-11.7057
▁لانس	-11.7058
.......	-11.7058
▁ھاجت	-11.7058
▁حوصلہ	-11.7059
▁بچکاں	-11.706
▁جاگاہ	-11.706
▁کشتی	-11.7063
▁ساهگ	-11.7064
▁عبدالقادر	-11.7064
▁لیں	-11.7065
▁نیکراہی	-11.7069
▁شاریءِ	-11.7072
▁کتابءَ	-11.7072
▁شالءَ	-11.7073
▁سداں	-11.7074
▁سرام	-11.7075
عت	-11.7078
▁ویرانیں	-11.7078
منیر	-11.708
▁ہژدہ	-11.7082
▁ٹیکسی	-11.7083
سپر	-11.7084
▁اسنائپر	-11.7084
انگریزی	-11.7084
▁ground	-11.7085
ادءَ	-11.7085
▁اجازہ	-11.7087
▁معاہدہ	-11.7089
▁چابک	-11.7091
▁گشتگیں	-11.7092
▁گواش	-11.7092
▁ادارگاں	-11.7098
▁نزیکا	-11.7098
▁ادءِ	-11.71
▁ھیلکاری	-11.7101
▁ریاضی	-11.7101
▁ڈوبر	-11.7103
تاب	-11.7103
بادشاہ	-11.7103
▁خلق	-11.7109
▁2004	-11.7111
▁دریاءِ	-11.7113
نمدی	-11.7114
▁بانی	-11.7115
▁معمولی	-11.7116
▁حرماگ	-11.7118
▁بٹاک	-11.7118
بشکن	-11.712
▁اطلاعات	-11.712
▁سیمسرانی	-11.7121
پول	-11.7124
▁جائزہ	-11.7124
▁پکائیں	-11.7124
۔۔۔بلے	-11.7125
▁characters	-11.7126
▁حوری	-11.7126
▁پسوءَ	-11.7129
تار	-11.7129
بندات	-11.713
برجاہ	-11.7131
ium	-11.7133
▁وشنود	-11.7136
▁وختے	-11.7137
▁entire	-11.7138
▁2005	-11.7138
▁پروٹین	-11.7138
▁پدمنتگیں	-11.7138
▁construction	-11.7138
ینیت۔	-11.7139
▁پرائمری	-11.714
▁انٹیلی	-11.7141
▁پاھار	-11.7142
▁دوزحہ	-11.7142
▁بستر	-11.7144
▁بندءُ	-11.715
▁وحدت	-11.7151
▁نمک	-11.7153
▁گوشداروک	-11.7154
نود	-11.7155
▁اورتگ۔	-11.7156
ci	-11.7156
▁hand	-11.7157
▁ھالی	-11.7157
بلکنا	-11.716
▁مانیت۔	-11.7161
▁ناموس	-11.7161
▁ھرچے	-11.7161
▁سرکش	-11.7163
انگ	-11.7164
com	-11.7165
mo	-11.7166
▁جپت	-11.7166
▁گوٹھ	-11.7168
▁شربت	-11.7169
▁نزارگ	-11.7173
▁درانڈیھ	-11.7173
▁دروازگءَ	-11.7173
▁تیزیں	-11.7174
▁بیگانگ	-11.7175
▁٭۔	-11.7175
بید	-11.7176
▁چارتگ	-11.7177
▁فاروقی	-11.718
▁شکیل	-11.7181
ائینت	-11.7181
▁۔کہ	-11.7182
▁افس	-11.7184
▁ماتاں	-11.7184
▁وڑءُ	-11.7185
▁بازارے	-11.7186
▁بدنام	-11.7187
▁ہمساہگ	-11.7187
▁سوچیت	-11.7188
▁لسٹ	-11.719
▁یکشلہ	-11.719
ائیت	-11.719
▁کودکیں	-11.7191
▁ناکۆ	-11.7192
▁گندک	-11.7192
▁کرامات	-11.7193
▁حالا	-11.7194
▁باتیل	-11.7199
▁مہلب	-11.7199
ver	-11.72
▁ساخت	-11.72
▁ھجالت	-11.7203
▁ساھگءَ	-11.7204
مانا	-11.7206
▁ترپ	-11.721
▁قطر	-11.7212
▁گزشت	-11.7212
▁گرکی	-11.7212
▁represent	-11.7215
▁اگان	-11.7217
▁قندیل	-11.7219
▁litt	-11.7219
نیک	-11.7219
▁گچک	-11.722
▁کدیں	-11.7221
سندھی	-11.7222
▁کتگءُ	-11.7222
▁کک	-11.7225
تءُ	-11.7226
تہ۔	-11.7227
▁قسمے	-11.7227
▁شدیگ	-11.7228
▁وتاس	-11.7229
▁شاہگان	-11.723
▁قصہے	-11.7232
▁دوز	-11.7234
عر	-11.7234
مردمانی	-11.7239
▁راھبنداں	-11.7239
برات	-11.724
▁عصا	-11.7243
▁پتی	-11.7246
▁انونیں	-11.7248
اکی	-11.7249
▁ابے	-11.7251
شرف	-11.7253
▁شیشہ	-11.7253
این	-11.7254
▁حسد	-11.7255
ler	-11.7257
دلی	-11.7259
لال	-11.7261
یئے	-11.7262
▁انکلاب	-11.7262
▁لوٹائینگ	-11.7263
▁ورگا	-11.7263
▁اکسانی	-11.7264
یڈ	-11.7266
▁پئیما	-11.7267
▁سروکے	-11.7268
▁کشگءِ	-11.7268
▁پرانی	-11.7271
دارگ	-11.7272
▁ھدیس	-11.7272
▁انٹرویو	-11.7273
▁شھادت	-11.7273
▁اه	-11.7274
▁دیمرہی	-11.7279
▁چریک	-11.7279
▁کوٹیءَ	-11.7283
▁ہشتاد	-11.7286
▁چال	-11.7286
▁کما	-11.7287
▁زیریت	-11.7289
▁ائینی	-11.729
cy	-11.7291
ڑیں	-11.7294
▁کوارٹر	-11.7295
▁دفاع	-11.7297
▁بانزلاں	-11.73
۔بزاں	-11.7303
▁Wi	-11.7307
▁ندات	-11.7308
▁exist	-11.731
▁امت	-11.7314
▁ناراض	-11.7315
▁کھندان	-11.7316
▁یانی	-11.7316
▁برق	-11.7319
دن	-11.7322
▁اھر	-11.7327
▁comment	-11.7328
▁نظریاتی	-11.7328
▁سرجمءَ	-11.7328
▁ریشگ	-11.733
▁ھنگت	-11.7331
▁مملکت	-11.7332
▁خواہش	-11.7332
▁ٹا	-11.7334
▁انتہائی	-11.7337
▁کشش	-11.7339
▁جنوبی	-11.7339
▁واکان	-11.7343
▁تامور	-11.7344
▁سبزگ	-11.7345
▁sp	-11.7346
▁مشگ	-11.7346
▁پڈ	-11.7346
جوانیں	-11.7347
ri	-11.7349
▁بوجگ	-11.735
▁مدئے	-11.7353
un	-11.7353
▁پیشہ	-11.7353
▁وانیں	-11.7354
▁زبانءُ	-11.7355
مون	-11.7355
▁ناس	-11.7357
▁ھدامرزی	-11.7358
▁بھرتی	-11.7358
▁بازاراں	-11.7359
▁come	-11.7361
▁ریگزار	-11.7361
▁بنند	-11.7368
یدہ	-11.7368
▁ڈیھانی	-11.7368
▁mi	-11.7372
▁گلءَ	-11.7372
▁گہتریں	-11.7374
▁وہاب	-11.7377
▁قومءِ	-11.7378
ائز	-11.7379
▁خواب	-11.738
پرچاکہ	-11.7381
▁گمے	-11.7381
▁زاد	-11.7381
txt	-11.7382
▁پگرءُ	-11.7383
ak	-11.7383
▁others	-11.7384
▁غار	-11.7384
▁رکشہ	-11.7384
▁رازیگ	-11.7388
▁کمبرانی	-11.7391
▁ہمگرنچیں	-11.7391
▁چھرگ	-11.7395
▁provid	-11.74
▁ڈگارے	-11.7403
▁دلکشیں	-11.7405
▁ازماں	-11.7406
چکہ	-11.7408
▁ڈاکٹردیدگ	-11.7411
▁چارلس	-11.7411
▁مائی	-11.7414
▁اتمان	-11.7414
▁زینب	-11.7415
▁کپوک	-11.7417
گرمیں	-11.7419
لیٹ	-11.742
▁ہندوستانی	-11.742
نزیک	-11.742
▁ہندے	-11.7421
شری	-11.7422
▁زبریں	-11.7424
▁..	-11.7426
▁date	-11.7427
▁کردگار	-11.7429
▁ناسرجم	-11.7431
▁ھش	-11.7431
▁برجاه	-11.7433
▁سوداگری	-11.7433
▁ادبیات	-11.7434
▁شادمانی	-11.7436
▁صبیحہ	-11.7438
▁عبدالعزیز	-11.7438
زگ	-11.7438
▁گناھے	-11.7438
▁ہجبر	-11.7438
▁کوہی	-11.7439
کہول	-11.7442
ear	-11.7444
جند	-11.7447
▁دمکے	-11.7447
▁شہدیں	-11.7452
بھر	-11.7454
▁زردار	-11.7457
کچک	-11.7457
▁پادگ	-11.7459
▁ھمدءَ	-11.7461
▁تئیگ	-11.7461
▁بانداتے	-11.7462
▁کپئگ	-11.7463
▁نگاہاں	-11.7465
▁حقاں	-11.7466
▁Ca	-11.7466
کمیں	-11.7467
▁میاربار	-11.7468
▁کاؤنٹر	-11.7469
▁یورپءِ	-11.747
▁سگریٹے	-11.7471
▁چیئر	-11.7472
▁اجز	-11.7472
یٹر	-11.7473
یگاں	-11.7474
▁کمکءَ	-11.7474
▁اشیا	-11.7476
▁نادراھانی	-11.7477
امیت	-11.7478
M	-11.7479
▁سیری	-11.748
▁گپا	-11.7482
▁رخشانی	-11.7485
نانی	-11.7486
▁کاملیں	-11.749
▁کوڑی	-11.7491
▁hurricane	-11.7493
▁حالرسانی	-11.7499
▁بیمناک	-11.7503
▁منطقی	-11.7504
▁روشے	-11.7506
▁وج	-11.7508
▁مردینانی	-11.7509
ities	-11.751
▁انجن	-11.7512
▁command	-11.7513
▁مرکب	-11.7517
▁مھ	-11.7517
▁داز	-11.7518
اھیں	-11.7521
▁ھدیسے	-11.7523
▁شیرزال	-11.7523
▁تنقیدی	-11.7523
▁مختصر	-11.7526
▁ھاکاں	-11.7527
B	-11.7527
▁اکتر	-11.7528
▁بندیگجاہ	-11.7529
▁کمپین	-11.7529
▁زورے	-11.753
▁بوس	-11.7532
▁ریں	-11.7533
▁گرانت	-11.7534
روک	-11.7538
▁ہیران	-11.7541
▁Per	-11.7545
▁مراداں	-11.7545
C	-11.7546
▁تاثر	-11.7548
▁debut	-11.7549
▁اصحاب	-11.7549
▁نوعیت	-11.7549
▁کہنا	-11.7552
▁ڈیمز	-11.7554
▁بنیں	-11.7555
رحم	-11.7556
ford	-11.7556
▁پھمگ	-11.7558
▁تبی	-11.756
▁پائے	-11.756
▁چولاں	-11.7561
▁اسکولءِ	-11.7562
▁ندارگانی	-11.7565
▁خیل	-11.7565
▁گرین	-11.7567
شش	-11.7567
▁درپش	-11.7568
▁وھدان	-11.7568
▁ٹیکسٹ	-11.7573
▁داغ	-11.7573
نڈی	-11.7576
▁اںت	-11.7576
▁difficult	-11.7577
▁Kingdom	-11.7577
▁عمرءَ	-11.7577
▁حقوق	-11.7577
▁رہوت	-11.7581
▁سفرءَ	-11.7585
▁بژنی	-11.7588
▁مہروانیں	-11.7588
▁جوابی	-11.759
▁جاپر	-11.759
▁داشتہ	-11.7591
▁ٹکرءَ	-11.7591
▁بھاگ	-11.7592
▁پنگ	-11.7592
▁راجءَ	-11.7592
▁سیدھاشمی	-11.7596
▁فردوسی	-11.7597
▁۔۔۔۔۔۔۔	-11.7597
▁لنککاں	-11.7598
▁دیمءِ	-11.7599
▁تشبیہ	-11.7599
▁دوسرا	-11.76
▁پارٹیانی	-11.7601
▁rest	-11.7602
▁دشمنیں	-11.7602
▁ھندوستانی	-11.7603
▁غرض	-11.7604
▁campaign	-11.7605
▁Island	-11.7606
▁guns	-11.7606
▁حاندان	-11.7606
▁جات	-11.7607
▁گورگیج	-11.7607
▁رویش	-11.7608
ٹے	-11.7611
▁اسءَ	-11.7612
▁ڈبی	-11.7613
▁استاراں	-11.7615
▁کتبی	-11.7618
▁پدریں	-11.762
▁عصر	-11.762
▁میارباری	-11.7621
▁ھجالتی	-11.7622
▁بوتگاں۔	-11.7622
▁پاگاس	-11.7623
▁کویت	-11.7624
▁جاگھاں	-11.7626
ایشاں	-11.7627
▁بھتی	-11.7629
▁منتءَ	-11.7629
▁خیالات	-11.7629
کاریں	-11.763
▁والد	-11.7632
▁گرنیڈ	-11.7633
▁سرریچ	-11.7633
▁Grand	-11.7633
▁Cup	-11.7634
▁ریلوے	-11.7634
▁رودپتر	-11.7634
▁عملءِ	-11.7634
▁نبشتہی	-11.7635
▁چگ	-11.7636
▁works	-11.7637
▁سرمچاری	-11.7639
▁بھنگ	-11.764
▁نداتگ	-11.7641
▁گوہرام	-11.7641
▁گناه	-11.7642
▁view	-11.7643
▁نندیں	-11.7644
غوث	-11.7644
▁director	-11.7645
▁ہول	-11.7648
اتے	-11.7651
چش	-11.7652
▁تاگ	-11.7652
▁میڑے	-11.7652
▁تراں	-11.7653
▁ہوگا	-11.7653
▁رہتا	-11.7653
▁دزاں	-11.7654
قوم	-11.7656
▁کیمت	-11.7656
خی	-11.7656
▁جہلانکیں	-11.7659
▁سچکان	-11.766
ائع	-11.766
▁گرز	-11.766
▁ھرام	-11.7661
▁victor	-11.7661
▁چاغی	-11.7662
دئیگ	-11.7663
▁چیروکائی	-11.7663
▁ماڈرن	-11.7665
▁موز	-11.7666
▁liv	-11.7668
▁فلیٹ	-11.7668
▁انیس	-11.7669
بور	-11.767
▁اباں	-11.7672
▁نیمونے	-11.7675
بین	-11.7675
امان	-11.7677
لان	-11.768
▁برزءِ	-11.7682
▁وابجاہ	-11.7683
▁جہگیری	-11.7687
▁بیگاه	-11.7687
▁عیبے	-11.7687
▁ہمہ	-11.7689
▁امجد	-11.769
▁زرتہ	-11.7691
▁ہمدپ	-11.7691
ated	-11.7692
▁جمبرانی	-11.7693
▁رژناہ	-11.7694
▁یاتگیری	-11.7698
▁addition	-11.7699
▁نقشہ	-11.7699
▁تیں	-11.7699
▁اشکی	-11.77
▁کنئگا	-11.7703
▁ننگر	-11.7706
ang	-11.7706
▁عنبر	-11.7708
▁جنزاں	-11.771
▁give	-11.771
ئل	-11.7712
▁مرکءِ	-11.7713
▁سهب	-11.7715
▁دلوں	-11.7716
رود	-11.7717
نل	-11.772
▁fight	-11.772
▁گلائش	-11.7722
▁پنجاپی	-11.7722
▁انسٹی	-11.7723
▁گدارانی	-11.7727
▁believ	-11.7728
▁نمائندگ	-11.7729
▁night	-11.7731
▁بیبرگ	-11.7732
▁تیگ	-11.7733
▁بداں	-11.7733
▁سفارت	-11.7734
▁ھمراھانی	-11.7737
▁کاپرءِ	-11.7737
▁جانءِ	-11.7737
▁سائنسداناں	-11.7738
▁گپتءُ	-11.7738
▁موں	-11.7739
▁بلۆچستان	-11.7739
▁سردیں	-11.774
اع	-11.774
▁ڪن	-11.7743
▁برتگیں	-11.7745
▁پرمائیت	-11.7746
▁پٹرول	-11.7746
▁Company	-11.7747
▁ریموٹ	-11.7747
▁کنک	-11.7749
▁سمالانی	-11.7749
▁Roman	-11.7749
▁مکھیں	-11.775
گڈ	-11.7752
ریک	-11.7754
▁کنڈاں	-11.7754
▁بیزن	-11.7757
▁کپن	-11.7759
▁مهمان	-11.7761
▁سراپ	-11.7761
▁شاگ	-11.7763
▁بوارت	-11.7763
▁لۆٹ	-11.7763
▁ستون	-11.7764
▁ترانگ۔۔۔	-11.7765
لیکہ	-11.7766
ow	-11.7771
▁نوشتگ	-11.7772
ga	-11.7775
▁process	-11.7775
▁کولیسٹرول	-11.7775
▁France	-11.7775
▁ہیک	-11.7776
▁شریعت	-11.7777
▁سوویت	-11.7778
▁پتھر	-11.7778
▁ہم۔	-11.778
▁کردارے	-11.7782
▁بالو	-11.7782
▁complet	-11.7784
▁کیگد	-11.7785
▁ودینگ	-11.7785
ud	-11.7786
▁جاہی	-11.7788
▁گردی	-11.779
▁ڈیوڈ	-11.779
▁خوار	-11.7791
▁بٹن	-11.7791
تغیں	-11.7791
▁الت	-11.7794
▁سینٹ	-11.7794
▁اشوبے	-11.7797
بازار	-11.7798
زندگ	-11.78
▁شیراز	-11.78
▁ئین	-11.78
▁گندات	-11.78
▁بهار	-11.7803
▁زورگءَ	-11.7803
▁انت۔یک	-11.7804
▁male	-11.7805
▁واجھیں	-11.7805
▁ساسانی	-11.7805
▁شانتگ	-11.7807
▁عبدالنبی	-11.7807
▁گرفتار	-11.7809
▁شنبہ	-11.781
▁فوجءِ	-11.781
▁کنزگ	-11.7812
les	-11.7817
▁offer	-11.7817
▁highway	-11.7819
جاھے	-11.7821
▁زندگیءَ	-11.7821
▁سنگیں	-11.7827
▁زندء	-11.7827
▁زہن	-11.7828
ونگ	-11.783
▁گوزگءَ	-11.783
▁هاک	-11.7831
▁والہ	-11.7831
▁پپ	-11.7832
▁واشنگٹن	-11.7833
▁گوشیت۔	-11.7833
▁شکے	-11.7834
▁پدمنتگی	-11.7835
یئر	-11.7835
▁کندن	-11.7836
▁ازمے	-11.7836
▁مڑگ	-11.7836
▁کشکءَ	-11.7838
▁ملان	-11.7839
اوانی	-11.7839
▁شھداد	-11.784
▁نہایت	-11.7842
▁زمستانی	-11.7843
▁نیلیت	-11.7845
لڈ	-11.7845
▁ہونا۔	-11.7846
▁کوهن	-11.7847
▁انگیں	-11.7847
▁شانت	-11.7848
▁کلاکاں	-11.7849
شو	-11.785
ag	-11.7851
▁لاک	-11.7852
▁بابتا	-11.7852
نون	-11.7856
!!!	-11.7857
▁رندانی	-11.7858
▁دلوش	-11.7859
▁کوالٹی	-11.7862
▁الطاف	-11.7863
▁فرزند	-11.7864
ارس	-11.7864
▁stars	-11.7865
ئو	-11.7865
▁عنصر	-11.7866
▁visit	-11.7868
▁دورہ	-11.7868
فاضل	-11.7868
▁دوم	-11.787
▁تچکءَ	-11.787
▁کوہلو	-11.7871
▁وشتریں	-11.7882
▁چاڑے	-11.7882
▁بنگپی	-11.7883
▁رودینگ	-11.7884
▁بچانی	-11.7884
▁واجہیں	-11.7885
▁رپتگیں	-11.7889
▁Some	-11.789
▁سرپراز	-11.7891
▁ڈاچی	-11.7891
▁روباہ	-11.7891
ینا	-11.7894
▁ہمبل	-11.7895
▁انت۔منی	-11.7896
▁لہجہ	-11.7898
▁کلاتے	-11.7898
▁اٹھا	-11.7902
▁عل	-11.7904
▁انکاری	-11.7904
pe	-11.7904
rs	-11.7904
▁بیراں	-11.7905
▁اشکنگءَ	-11.7906
▁ڈگارءِ	-11.7907
▁اژناگ	-11.7908
▁مودانی	-11.7908
اود	-11.7908
▁دادے	-11.7909
▁دریکگ	-11.7912
▁Love	-11.7914
▁figure	-11.7919
▁کارکنانی	-11.7922
1	-11.7924
▁لہڑی	-11.7925
▁قر	-11.7927
▁ٹکانی	-11.7928
ors	-11.793
سب	-11.7934
▁ساحرءَ	-11.7939
▁بچکانی	-11.7939
▁سیلاب	-11.7939
جتا	-11.794
▁گرئے	-11.7941
▁پیز	-11.7942
▁خالی	-11.7942
▁براث	-11.7942
▁جھلانکی	-11.7943
▁اسکا	-11.7944
▁المءَ	-11.7947
▁ئیت	-11.7948
▁رحمٰن	-11.7948
▁لقب	-11.7948
▁ڈوھدار	-11.795
▁وانوکے	-11.7951
▁بانگواہ	-11.7951
▁واس	-11.7951
اولس	-11.7952
▁سرجمیءَ	-11.7953
▁چیرمین	-11.7955
▁اثرے	-11.7957
▁کوچگاں	-11.7957
ڈک	-11.7957
▁گریڈ	-11.7958
▁کانونی	-11.7958
▁تاریک	-11.7963
اچہ	-11.7963
▁جمعیت	-11.7966
▁بوٹگ	-11.7967
▁دراتکگیں	-11.7968
▁جہلگ	-11.7972
▁میچل	-11.7972
▁سرپر	-11.7973
▁جماز	-11.7975
▁کپتنت	-11.7977
▁Battalion	-11.7977
▁گندوک	-11.7979
جھ	-11.798
اسحاق	-11.7981
الدین	-11.7981
▁نظیر	-11.7982
دھ	-11.7984
▁بناء	-11.7985
▁ردومءِ	-11.7987
▁بشکندگ	-11.7987
▁گرءُ	-11.7989
▁born	-11.7992
▁ٹہ	-11.7993
▁گڑی	-11.7994
▁کنئے۔	-11.7994
▁کنات	-11.7996
▁کلیم	-11.7998
▁جزباتی	-11.7999
▁گڈسری	-11.8
▁تلاش	-11.8002
ئیر	-11.8002
▁کھں	-11.8002
▁پاسداری	-11.8003
▁طبیب	-11.8004
۔گڈا	-11.8006
▁David	-11.8007
▁wife	-11.8007
▁southern	-11.8007
▁ث	-11.8008
▁سیما	-11.8008
▁ابانی	-11.801
▁ھے	-11.801
▁بکال	-11.8012
▁پھرہ	-11.8012
▁افسانے	-11.8013
▁coast	-11.8014
▁ذاکر	-11.8015
فقیر	-11.8017
ستگ	-11.8019
▁بولک	-11.8023
▁رسین	-11.8024
ٹھ	-11.8024
▁زھیراں	-11.8025
▁جاڑیں	-11.8026
▁اندرا	-11.8028
کاف	-11.8031
▁مروشی	-11.8032
▁مخ	-11.8035
▁تالاں	-11.8037
▁ball	-11.8037
▁گریتگ	-11.8037
▁جنزءِ	-11.8042
انوں	-11.8043
▁ھرچنت	-11.8043
▁صبح	-11.8044
▁گھنٹہ	-11.8045
▁دریاب	-11.8045
▁رنگءِ	-11.8047
کلات	-11.8048
روس	-11.8049
▁بینت	-11.805
لانی	-11.805
▁دازن	-11.8051
▁سرھالانی	-11.8051
▁سکتی	-11.8052
▁سہل	-11.8052
▁چوری	-11.8056
▁حدود	-11.8057
▁ناہک	-11.8058
▁زیبدار	-11.8058
▁نزوریاں	-11.8059
▁درکئیت	-11.8061
▁بوھگی	-11.8062
▁جستاں	-11.8063
ویے	-11.8063
▁mother	-11.8065
▁women	-11.8065
▁وٹامن	-11.8066
▁اچکزئی	-11.8066
ac	-11.8069
▁ڈیھی	-11.807
▁مارٹر	-11.807
▁بلور	-11.8071
▁سالار	-11.8073
▁مشترکہ	-11.8073
▁پٹک	-11.8073
▁رچیت	-11.8073
▁تامرے	-11.8076
▁سلا	-11.8076
▁چڑو	-11.8077
▁واگ	-11.8082
جتائیں	-11.8083
▁non	-11.8083
▁love	-11.8087
▁کمیت	-11.8088
▁ستارہ	-11.8088
ard	-11.8088
▁شموشت	-11.8088
▁دیمروہی	-11.8089
▁Music	-11.8089
ves	-11.8091
▁چیٹ	-11.8091
ؤک	-11.8092
▁چورہ	-11.8092
95	-11.8092
▁پێش	-11.8095
▁Brigade	-11.8095
▁study	-11.8095
▁ٹھاٹھ	-11.8095
▁ہڑتال	-11.8095
▁دھوت	-11.8096
▁چرپ	-11.8097
▁نیشنلزم	-11.8098
▁شھزاد	-11.8099
▁شورہاں	-11.81
▁اشکنوک	-11.8102
▁goal	-11.8103
▁گرداں	-11.8104
▁هں	-11.8104
مہلوک	-11.8104
▁جھدا	-11.8105
▁loss	-11.8108
▁واجہاں	-11.8108
▁ھزاریں	-11.8109
▁رولہ	-11.8111
▁دیتگ	-11.8111
▁سچیت	-11.8113
▁put	-11.8115
▁کلگی	-11.8115
سیل	-11.8117
ناکو	-11.812
▁شاھ	-11.8121
▁بندئے	-11.8122
▁داوت	-11.8122
▁بہراں	-11.8123
▁کچی	-11.8123
▁مھرنھاد	-11.8125
▁چوھدری	-11.8125
▁ملکان	-11.8125
میار	-11.8125
▁بغاوت	-11.8125
▁خواجہ	-11.8127
99	-11.8128
▁ریھان	-11.813
▁ھونی	-11.813
▁wh	-11.8131
▁report	-11.8132
▁سلوات	-11.8132
▁سلی	-11.8132
▁Robert	-11.8133
▁ناسرپدی	-11.8133
▁ماھانی	-11.8135
▁provide	-11.8135
ke	-11.8136
▁انے	-11.8137
▁کاروائیاں	-11.8137
▁بیٹ	-11.8139
▁مشرف	-11.814
▁اداره	-11.814
▁اوہد	-11.814
▁چاھے	-11.8143
▁مقابل	-11.8144
▁سائیٹ	-11.8145
رچ	-11.8148
▁گاں	-11.8149
▁ٹیوٹ	-11.815
men	-11.8151
▁وصیت	-11.8154
▁ناکوزتک	-11.8154
▁دارئگ	-11.8155
▁رھیم	-11.8156
روسی	-11.8156
چیءَ	-11.8158
▁مارکیز	-11.8158
▁نورخان	-11.8159
▁بگوشاں	-11.816
▁فرشتہ	-11.8161
▁مزد	-11.8161
▁مادری	-11.8161
▁زھن	-11.8164
▁گولا	-11.8164
۔بلئے	-11.8168
▁گونی	-11.8169
▁بیٹھ	-11.817
پروش	-11.8174
▁دروازگءِ	-11.8176
▁انون	-11.8177
▁جواز	-11.8177
وسی	-11.8178
اہیں	-11.818
▁رہیم	-11.8181
▁میلانک	-11.8182
▁کوھے	-11.8182
فکر	-11.8183
▁village	-11.8184
▁اکوام	-11.8184
▁eastern	-11.8184
▁ببارت	-11.8185
▁سرکپت	-11.8185
▁جرمے	-11.8185
▁مارشل	-11.8186
▁رستم	-11.8187
▁بیزاری	-11.8187
▁اعلیٰ	-11.8188
▁ھیرانی	-11.8188
▁پوت	-11.819
▁ترات	-11.819
▁نیامی	-11.8194
▁ازمکارے	-11.8197
▁دلیں	-11.8199
مکران	-11.82
▁جائیں	-11.8201
▁ھلکءِ	-11.8201
▁حالانکہ	-11.8202
▁نجی	-11.8202
▁رودین	-11.8202
▁بگشاں	-11.8203
▁مانشانتگ	-11.8203
▁جبل	-11.8206
▁اتکیں	-11.8206
ways	-11.8207
▁جیڑت	-11.8209
▁تپد	-11.8212
▁East	-11.8213
▁relationship	-11.8214
▁الودگی	-11.8218
▁زوتیں	-11.8222
▁Li	-11.8223
▁دال	-11.8227
▁جندئے	-11.8229
▁Tw	-11.823
▁نیوگ	-11.8231
▁نوار	-11.8233
▁انہاں	-11.8233
▁وٹس	-11.8233
▁پیلویں	-11.8234
▁چراگاں	-11.8235
▁cell	-11.8236
▁کادر	-11.8237
ward	-11.8239
▁ائیوکیں	-11.8242
illa	-11.8243
▁زریت	-11.8244
▁2015	-11.8244
▁2003	-11.8244
▁داروگہ	-11.8244
▁پبلشرز	-11.8244
▁race	-11.8247
▁جہانے	-11.8248
▁Christian	-11.8248
▁k	-11.8248
▁front	-11.8249
کند	-11.8253
▁رکست	-11.8254
▁المین	-11.8255
ریچ	-11.8256
▁ناروائی	-11.8258
▁گوئستگیں	-11.8261
▁لنج	-11.8261
▁گوئش	-11.8262
ازمان	-11.8268
▁انقلابی	-11.8269
▁ہیڈ	-11.8269
▁ھلوت	-11.827
▁اتکءُ	-11.8271
▁نمای	-11.8272
▁قالب	-11.8272
▁ساھگے	-11.8273
▁ہپتگے	-11.8273
▁image	-11.8274
▁بیت۔بلے	-11.8274
▁ٹھوس	-11.8274
▁مچانی	-11.8275
▁عاشقی	-11.8276
▁نکسان	-11.8276
▁گیڑھ	-11.8277
▁علاقائی	-11.8277
▁کوشکار	-11.8277
انہی	-11.8279
▁تلوس	-11.8281
▁کائیں	-11.8282
▁جوانین	-11.8285
▁کوٹیءِ	-11.8285
▁غفار	-11.8286
▁کلاکے	-11.8287
▁ھاکمانی	-11.8289
▁San	-11.8296
▁پرگ	-11.8298
▁40	-11.8298
▁ماتو	-11.8299
گمان	-11.8299
▁گرامر	-11.8302
▁درامدانی	-11.8303
▁ھدابند	-11.8304
▁لورالائی	-11.8304
▁افزائش	-11.8304
برا	-11.8304
▁گالبندانی	-11.8304
▁گے۔	-11.8305
▁بزھگ	-11.8307
▁یاسمین	-11.8309
▁شہیدی	-11.8309
نازک	-11.8309
▁اسکولءَ	-11.831
▁پدرا	-11.831
▁داستانانی	-11.831
▁اعجاز	-11.8311
احت	-11.8311
▁رۆچے	-11.8312
▁ڈؤل	-11.8312
▁لیٹر	-11.8313
▁ٹینک	-11.8314
”?	-11.8314
بود	-11.8315
▁پائی	-11.8317
▁گوست۔	-11.8319
۔بلوچی	-11.8321
پھ	-11.8324
▁وامدار	-11.8327
▁امبری	-11.8329
▁continue	-11.8329
low	-11.8333
▁Other	-11.8335
▁تندجاہ	-11.8335
▁God	-11.8336
▁ھئیال	-11.8336
ill	-11.8337
▁اؤرت۔	-11.8339
▁ہسین	-11.8339
▁تالانی	-11.8341
▁پرسن	-11.8342
▁سببے	-11.8343
▁ارباب	-11.8343
▁بانوری	-11.835
باری	-11.8352
mph	-11.8357
زین	-11.8357
▁دلپروشی	-11.8358
▁کثہ	-11.8358
امین	-11.836
▁rock	-11.8362
▁مران	-11.8363
▁نشانیاں	-11.8365
▁پیگام	-11.8366
▁پزور	-11.837
▁سحب	-11.837
▁وائے	-11.837
ڈل	-11.8371
انچوش	-11.8371
▁نگاھاں	-11.8372
▁فائدگ	-11.8374
▁move	-11.8375
▁سرائیکی	-11.8376
▁پتریت	-11.8377
▁سلاماں	-11.8378
▁ازادیءِ	-11.8378
▁اصطلاحات	-11.8378
▁ویلے	-11.838
▁مکسک	-11.8381
▁لبزءِ	-11.8383
ئیل	-11.8386
.........	-11.8386
▁مہرنگ	-11.8387
▁کلمت	-11.8388
▁نبا	-11.8389
تال	-11.8394
▁ایمرجنسی	-11.8395
▁کاھان	-11.8395
▁اۆدا	-11.8395
ادم	-11.8395
▁تس	-11.8396
▁ارگنائزر	-11.8396
▁taken	-11.8397
▁fourth	-11.8398
▁مسقط	-11.8399
▁مرشی	-11.84
کسانیں	-11.8401
▁روانبد	-11.8402
کشگ	-11.8403
▁زوراوریں	-11.8403
▁حیوان	-11.8405
▁پیرکی	-11.8408
▁چدو	-11.8409
دراہ	-11.841
▁گشوک	-11.8411
▁نوبتاں	-11.8411
▁سرداروں	-11.8412
▁سازش	-11.8413
▁وین	-11.8414
▁نصر	-11.8414
▁انفرادی	-11.8415
▁عاروس	-11.8416
اڑے	-11.8416
▁ملگزار	-11.8417
........	-11.8419
۔چہ	-11.842
▁دیوالے	-11.8423
▁چاکری	-11.8423
?!	-11.8423
▁تڑ	-11.8424
▁شاہدی	-11.8424
▁عمری	-11.8425
۔ما	-11.8426
▁بنھشت	-11.8428
▁تت	-11.8429
بچک	-11.8434
▁توپانی	-11.8435
▁بگلءَ	-11.8436
▁وڈے	-11.8437
▁جمبور	-11.8437
▁free	-11.8438
▁پیٹر	-11.844
▁دردءَ	-11.844
▁ٹول	-11.844
▁پتن	-11.8443
▁رئوت	-11.8444
پجار	-11.8446
▁ثقافتی	-11.8446
▁تناظر	-11.8447
po	-11.8448
▁شومک	-11.845
▁جواں	-11.8451
▁درنز	-11.8451
▁دودے	-11.8451
▁پرشان	-11.8455
▁دزگ	-11.8455
▁Europe	-11.8455
▁European	-11.8457
▁وتء	-11.8459
▁سوزمان	-11.846
▁ساعتاں	-11.846
▁کلاسیکی	-11.8466
ناصر	-11.8467
▁بلڈنگ	-11.8468
▁دیو	-11.8475
زے	-11.8476
▁لینا	-11.8477
▁رومی	-11.8479
شار	-11.8479
▁ذاتءِ	-11.848
▁ابدمانیں	-11.8484
لن	-11.8485
▁بہارگاہ	-11.8487
چوں	-11.8487
▁کورانی	-11.8487
▁battle	-11.8487
▁لہم	-11.8489
▁نوکنڈی	-11.8489
▁لٹریچر	-11.849
▁واقعی	-11.849
▁دوارگ	-11.8491
اسل	-11.8491
▁الھان	-11.8492
▁کپے	-11.8492
▁کماشانی	-11.8495
▁مہرانکی	-11.8497
ure	-11.8497
بخش	-11.8497
▁انجیر	-11.8498
▁قدح	-11.8499
▁رکھتا	-11.8503
▁Or	-11.8505
▁چیھال	-11.8505
▁کوار	-11.8506
▁Con	-11.8508
زال	-11.8508
▁غریبی	-11.8509
▁واھگدار	-11.8509
our	-11.851
▁ماھو	-11.851
▁نیزگاری	-11.8512
▁شاہگانی	-11.8513
▁ماہل	-11.8515
▁فش	-11.8516
▁consist	-11.8517
▁ازمءُگوازی	-11.8517
▁تفصیل	-11.8518
▁نصراللہ	-11.8518
▁خدائیداد	-11.8518
▁سرک	-11.8518
▁اون	-11.8519
▁چہرءُ	-11.8519
▁سنگتان	-11.8521
▁لچہانی	-11.8522
▁کندگانی	-11.8524
رب	-11.8526
انکی	-11.8528
اینت	-11.8529
جین	-11.853
▁زندئے	-11.8532
▁ہرجاہ	-11.8536
شاں	-11.8536
▁کسھی	-11.8536
▁رھ	-11.8541
▁وترا	-11.8544
▁ناشریں	-11.8546
▁idea	-11.8546
▁lack	-11.8548
▁Port	-11.8548
▁جاندراھی	-11.855
▁decided	-11.8551
▁گورگ	-11.8552
▁پشکپتگ	-11.8553
چه	-11.8553
▁تبءَ	-11.8554
▁گشگءَ	-11.8554
▁اسکولے	-11.8556
▁دزانی	-11.8557
▁اگا	-11.8559
▁دھن	-11.856
va	-11.8561
▁دزکپتگ۔	-11.8565
▁کسانین	-11.8567
انسانی	-11.8569
ایگ	-11.8571
▁پھزدار	-11.8572
▁بیتہ۔	-11.8572
▁جزماں	-11.8576
▁افسرے	-11.8578
▁heavy	-11.8579
▁عوض	-11.8579
▁mix	-11.8579
▁ککڑ	-11.858
▁دلار	-11.8581
▁بلگ	-11.8581
▁جیک	-11.8582
▁لل	-11.8583
▁نکناں	-11.8583
6	-11.8585
▁face	-11.8585
▁کؤل	-11.8585
▁اسراتیاں	-11.8586
▁باہند	-11.8591
▁کارل	-11.8594
اثر	-11.8596
▁اوپن	-11.8596
▁سربیتگیں	-11.8598
▁کنزان	-11.86
▁متھ	-11.8601
▁ساجو	-11.8602
▁ٹوٹ	-11.8603
▁ارٹس	-11.8607
▁جاتو	-11.8608
▁سرگوستے	-11.8609
جہان	-11.861
▁دزرس	-11.8612
▁بچی	-11.8615
▁پسءَ	-11.8617
اغ	-11.8621
تاہے	-11.8622
▁ریزمانک	-11.8624
بلک	-11.8625
گز	-11.8627
پے	-11.863
▁program	-11.863
▁چگین	-11.8632
▁اہن	-11.8634
▁باگیں	-11.8635
روت	-11.8637
▁گوستگال	-11.8637
▁اہر	-11.8639
▁زادگ	-11.8639
▁مجتی	-11.8639
▁ایشیئ	-11.8639
▁problem	-11.8641
▁امشپی	-11.8641
▁condom	-11.8641
▁Royal	-11.8642
▁انگلستان	-11.8642
▁لبنان	-11.8643
▁ها	-11.8644
▁White	-11.8644
▁sold	-11.8644
▁بتایا	-11.8645
تانی	-11.8649
▁زوریت۔	-11.865
▁ہاترءَ	-11.865
▁ناں۔	-11.8651
▁دلچسپی	-11.8652
▁بدلہ	-11.8653
ھڑ	-11.8654
▁دھکاں	-11.8656
▁نورمحمد	-11.8656
▁ہلاک	-11.8656
▁ھمراھے	-11.8658
ونڈ	-11.8658
ارو	-11.866
قصہ	-11.8662
▁مسل	-11.8662
ہست	-11.8662
▁نانے	-11.8668
▁مح	-11.8669
▁ارامی	-11.8671
جون	-11.8673
▁اکیڈیمی	-11.8673
▁نوائے	-11.8673
چگ	-11.8678
▁سنگار	-11.8678
▁وسواس	-11.8678
سپ	-11.8679
▁ڈنک	-11.8679
▁هار	-11.868
میل	-11.8681
▁جاورھالانی	-11.8683
▁گٹی	-11.8684
▁توجہ	-11.8684
▁ٹاپار	-11.8684
ہ۔	-11.8684
▁بیدء	-11.8686
▁وشاتک	-11.8687
▁چیار	-11.8688
▁اروسی	-11.8692
▁far	-11.8693
وائی	-11.8693
▁مالانی	-11.8694
سند	-11.8699
▁شئیراں	-11.87
▁گردیں	-11.8703
کارست	-11.8703
▁سیریں	-11.8703
▁ضلعی	-11.8704
▁دارگا	-11.8704
▁individual	-11.8704
▁تاثیر	-11.8704
▁پتلون	-11.8705
▁بستی	-11.8706
▁شیرکن	-11.8707
▁اھوگ	-11.8708
▁شوہازءَ	-11.8708
▁گزل	-11.8709
▁میرانی	-11.8709
▁بؤکیں	-11.8711
▁فرقہ	-11.8712
ئس	-11.8713
ٹیو	-11.8713
▁اردوءَ	-11.8715
▁بشکھندگی	-11.8717
▁ڈولی	-11.8719
▁درامدے	-11.8719
▁باھوٹی	-11.8719
▁بکشگ	-11.872
▁ببات	-11.872
▁سویت	-11.8721
▁اهد	-11.8721
▁ٹریکٹر	-11.8721
▁پرشتہ	-11.8723
▁رستیں	-11.8724
▁هوش	-11.8726
L	-11.8729
▁بوتل	-11.873
▁امیتی	-11.8732
منت	-11.8732
▁راگے	-11.8734
▁shot	-11.8735
R	-11.8736
▁سکریٹری	-11.8737
▁کاریاں	-11.8742
▁خوف	-11.8742
▁دیدانک	-11.8743
▁سینما	-11.8743
▁my	-11.8744
▁ھرجان	-11.8744
▁رزق	-11.8745
▁پہناد	-11.8746
▁نیر	-11.8746
▁29	-11.8748
▁ترجمان	-11.8748
▁tog	-11.8749
▁fl	-11.8751
▁ٹرین	-11.8752
▁سئوت	-11.8754
فکشن	-11.8754
▁gun	-11.8755
▁میٹرک	-11.8756
▁زاھدہ	-11.8758
▁منزور	-11.8761
▁گامگیجے	-11.8763
▁لاپءَ	-11.8766
▁clear	-11.8767
▁فقط	-11.8767
▁پشکپتگیں	-11.8768
▁بانکیں	-11.8768
▁جزیرہ	-11.8769
▁پرینت	-11.8769
▁پولیو	-11.8771
▁سرگوات	-11.8771
▁پشپد	-11.8773
▁کمٹمنٹ	-11.8773
چست	-11.8774
▁سمبل	-11.8774
ریش	-11.8776
▁ملٹری	-11.8778
▁انکی	-11.8778
عبداللہ	-11.878
▁رسانکجاھ	-11.8781
▁ضیا	-11.8782
لاپ	-11.8784
▁limit	-11.8785
▁چکگ	-11.8787
▁شاھگانی	-11.8788
▁مانتر	-11.8788
▁احوالکار	-11.879
▁تھل	-11.879
▁شورہ	-11.879
▁rule	-11.879
▁گرانڈ	-11.8793
▁سیندک	-11.8799
▁Earl	-11.8799
▁Carey	-11.8799
▁گھڑیال	-11.8802
▁درخانی	-11.8802
مد	-11.8806
▁زہیرانی	-11.8808
▁کسانسال	-11.8809
رحیم	-11.881
▁گیشتری	-11.8811
▁ناگتءَ	-11.8812
▁لوکل	-11.8812
▁چلو	-11.8812
▁کاٹار	-11.8814
▁نیبگ	-11.8815
▁کاروانے	-11.8819
ساری	-11.8822
▁شدہ	-11.8823
▁درشک	-11.8823
▁ھمید	-11.8824
▁Part	-11.8825
▁رہیں	-11.8825
▁غذائی	-11.8827
▁اوستانی	-11.8828
▁دراز	-11.8829
▁قندھار	-11.8831
▁تصدیق	-11.8831
▁کدین	-11.8833
▁تخیل	-11.8834
▁ٹھیکہ	-11.8835
▁لاشاں	-11.8836
▁گوریچان	-11.8838
▁center	-11.8839
▁درباری	-11.8839
جد	-11.884
پڑ	-11.8843
▁باس	-11.8843
مثال	-11.8844
▁ہوں۔	-11.8847
▁بیپاری	-11.8847
▁بلیت	-11.8849
▁پلیت	-11.885
▁گھڑی	-11.8852
▁بگرد	-11.8852
ایم	-11.8853
▁دوہ	-11.8856
چپ	-11.8859
۔تو	-11.886
گد	-11.886
▁چھاپءُ	-11.8862
▁ھمش	-11.8862
▁مدافعت	-11.8862
▁وتساچیں	-11.8862
▁برقرار	-11.8863
▁پژ	-11.8864
▁ارسی	-11.8864
▁ٹریک	-11.8864
▁accept	-11.8864
▁ساهت	-11.8865
▁سوبے	-11.8865
کئی	-11.8865
▁ات۔۔۔۔	-11.8867
▁گوزوکیں	-11.8867
صبا	-11.8868
▁ٹویٹ	-11.8868
▁بگنداں	-11.8868
▁کتکار	-11.8869
▁گورانی	-11.8869
▁اچھا	-11.887
غم	-11.8871
▁منٹو	-11.8873
▁بسم	-11.8873
▁بشی	-11.8877
▁گوستگین	-11.8878
▁روژنائیں	-11.8878
▁میڑاں	-11.8879
▁گزیر	-11.888
وہدیکہ	-11.888
aw	-11.8882
▁Ju	-11.8883
▁رواجی	-11.8883
▁نویسے	-11.8884
▁گژنگ	-11.8888
▁اغہ	-11.8892
▁begin	-11.8894
▁افسوز	-11.8895
▁انٹیلیجنس	-11.8895
▁Red	-11.8896
▁Po	-11.8896
▁شیتان	-11.8897
▁احمدان	-11.8901
▁کراں	-11.8901
91	-11.8901
▁cit	-11.8904
▁مافیا	-11.8905
▁Se	-11.8906
▁کاسد	-11.8909
▁مزھب	-11.891
سکیں	-11.8911
▁نازی	-11.8912
▁ماہءِ	-11.8912
▁جٹ	-11.8913
▁درگاہ	-11.8913
▁anti	-11.8913
▁وارتگ۔	-11.8914
▁گيئش	-11.8917
▁ایشر	-11.8917
▁مارشتی	-11.8918
▁بالیچہ	-11.8919
وکانی	-11.892
▁کارہندہ	-11.8925
واریں	-11.8925
پش	-11.8926
▁درابوت	-11.8926
▁عبدالرحمان	-11.8926
▁سافٹ	-11.8927
گچین	-11.8927
▁هساب	-11.8929
▁گڑھ	-11.893
▁جیڑه	-11.8932
▁سندءَ	-11.8932
▁تاپگ	-11.8936
▁زامرانی	-11.8943
راجدپتر	-11.8944
▁ویسٹ	-11.8944
▁ستاہ	-11.895
▁دہل	-11.8953
کماش	-11.8954
▁شیرازی	-11.8954
▁وشین	-11.8954
▁communit	-11.8954
سم	-11.8955
▁گندئگ	-11.8957
▁کنڈیرا	-11.896
▁انکھوں	-11.896
field	-11.8961
▁عزاب	-11.8962
▁ٹریننگ	-11.8962
▁بینجو	-11.8965
رج	-11.8966
▁ادینکے	-11.8966
▁ہڑ	-11.8966
گراں	-11.8967
▁لاری	-11.8967
▁چینکس	-11.8969
▁دیھ	-11.8971
▁قوتانی	-11.8971
▁سورج	-11.8972
▁دلوتاں	-11.8972
▁بئیں۔	-11.8972
▁چلشت	-11.8973
▁سلیمانی	-11.8974
▁گئے۔	-11.8974
▁کوھیں	-11.8982
▁تعلقات	-11.8982
▁ارزشتی	-11.8983
▁شریءَ	-11.8987
▁وشال	-11.899
▁Federer	-11.8991
▁protein	-11.8991
▁اکانومی	-11.8991
▁جھینگا	-11.8991
▁باطنی	-11.8991
▁کیک	-11.8992
▁نج	-11.8992
▁جہدکار	-11.8993
▁معراج	-11.8995
▁بارش	-11.8996
7	-11.8997
▁جنگلات	-11.8997
▁زورءَ	-11.8999
▁البرٹ	-11.8999
بلی	-11.9
بیست	-11.9
▁چھک	-11.9001
▁تھو	-11.9002
mi	-11.9002
▁زنگی	-11.9009
▁ھوس	-11.9009
▁پارٹیز	-11.9012
▁ناوشیں	-11.9015
▁رپورٹس	-11.9017
گنوک	-11.902
▁گشینگ	-11.902
▁ره	-11.902
cr	-11.9021
▁گراد	-11.9023
▁جاھی	-11.9026
▁سؤب	-11.9026
▁گۆش	-11.9029
▁سروسز	-11.903
▁عبدالصبور	-11.9031
▁نادینت	-11.9032
▁تحقیقی	-11.9035
▁ماڈی	-11.9036
▁fre	-11.9036
▁fall	-11.9037
▁شہمات	-11.9039
ھبر	-11.9041
▁شنزگ	-11.9044
▁جدیدیت	-11.9046
▁مکرانی	-11.9048
▁ایماندار	-11.9049
۔نوں	-11.9049
اط	-11.905
▁بینر	-11.9051
▁پوره	-11.9052
▁round	-11.9053
▁source	-11.9055
▁امتحان	-11.9056
▁ارز	-11.9057
▁رکھنے	-11.9058
▁فیل	-11.9058
زک	-11.9058
▁درشانتگ	-11.9058
▁سرکتگ	-11.9059
▁کانی	-11.906
▁مشہوریں	-11.9062
▁دربرت	-11.9064
▁بدنت۔	-11.9064
▁تبلیغ	-11.9064
▁کربلا	-11.9066
▁طالع	-11.9066
▁داث	-11.9067
▁پروشان	-11.9068
جہد	-11.9069
▁پتینکاں	-11.9071
▁دنیاء	-11.9072
▁لپ	-11.9073
ہمک	-11.9075
▁ہردوئیں	-11.9075
▁دروشمانی	-11.9079
▁بحالی	-11.9082
▁زکر	-11.9082
ho	-11.9084
▁کدم	-11.9085
▁بٹے	-11.9085
▁شرتگ	-11.9086
▁International	-11.9088
▁چانسلر	-11.9089
▁پین	-11.9089
▁George	-11.9089
▁قیاس	-11.9089
ساچ	-11.909
▁گرمائشت	-11.909
▁ساھیل	-11.909
▁Hero	-11.9091
▁ہاجی	-11.9091
▁رهبند	-11.9091
▁مہروانی	-11.9092
▁زوم	-11.9092
▁manager	-11.9093
▁ابتدائی	-11.9093
پاس	-11.9094
▁جیڑگءَ	-11.9096
▁جیسا	-11.9096
▁ایرگیجگ	-11.9097
▁حاکمانی	-11.9098
▁گرپتاری	-11.9098
▁ترانگانی	-11.9099
▁کرداں	-11.9099
▁اقا	-11.9101
▁مڑدے	-11.9101
جوان	-11.9102
▁دوئم	-11.9103
▁William	-11.9103
▁met	-11.9105
▁mov	-11.9107
▁کسانیءَ	-11.9108
▁گودی	-11.9112
▁port	-11.9112
▁هاتر	-11.9115
▁نشتگ۔	-11.9115
حر	-11.9115
▁حسی	-11.9116
▁جیسی	-11.9116
▁نهات	-11.9117
▁نندان	-11.9117
▁لیڑو	-11.9119
▁شناست	-11.912
▁activit	-11.9121
▁مہنگائی	-11.9121
▁ہاشم	-11.9122
لج	-11.9122
▁ہالو	-11.9122
▁اسٹاپ	-11.9122
▁چیلک	-11.9123
▁ناوشی	-11.9124
دیست	-11.9125
▁چیدگانی	-11.9127
▁شموشکار	-11.9128
▁car	-11.9128
▁ہکل	-11.9129
ردی	-11.913
▁تهار	-11.913
▁جاں	-11.9131
ک۔	-11.9135
▁دئی	-11.9135
▁پھلوان	-11.9136
▁"","	-11.9138
▁استعارہ	-11.914
▁کپی	-11.9142
io	-11.9143
ٹنگ	-11.9146
پال	-11.9147
▁ترست	-11.9147
▁گوشتے	-11.9148
▁واھش	-11.9149
▁موڈ	-11.9151
▁l	-11.9153
▁دیوی	-11.9153
▁language	-11.9153
▁پرنسپل	-11.9154
▁Wales	-11.9154
▁سالیگیں	-11.9154
▁واهند	-11.9154
▁involv	-11.9156
۔ائیءَ	-11.9157
▁subse	-11.9158
▁وانگءُ	-11.9159
▁رژنے	-11.916
▁لعنت	-11.9162
ut	-11.9163
▁member	-11.9163
وڑیں	-11.9163
▁نبیستگ	-11.9164
om	-11.9166
▁کارنت	-11.9168
▁واپار	-11.917
▁گورکوپ	-11.917
وءَ	-11.9171
۔۔۔۔۔۔۔۔	-11.9171
▁جانءَ	-11.9171
wood	-11.9172
▁خوبی	-11.9174
▁ااے	-11.9174
▁ملگور	-11.9175
▁ڈوبار	-11.9176
برت	-11.9178
▁ربیتے	-11.9178
▁نمیرانی	-11.9178
یگی	-11.918
▁رخشان	-11.918
▁ازاتیءِ	-11.9182
▁زورگپت	-11.9185
▁ڈھانچہ	-11.9186
▁launch	-11.9186
▁زانگءِ	-11.9187
▁نابلد	-11.9188
▁عکسانی	-11.9189
▁جلشک	-11.919
▁جنوب	-11.919
▁مشق	-11.919
شین	-11.919
▁چریشانی	-11.919
▁سیاستءَ	-11.9191
▁مودی	-11.9192
▁کائیگر	-11.9192
▁طاھر	-11.9193
▁نیمگی	-11.9194
▁بنگل	-11.9197
▁شاھگانیں	-11.9197
▁سوالی	-11.9198
▁مصرعہ	-11.92
▁اپسرے	-11.9201
▁red	-11.9201
▁opening	-11.9201
▁گداری	-11.9201
▁Su	-11.9202
▁گہیں	-11.9205
▁بیشک	-11.9206
▁زیردستیں	-11.9209
▁بکتیں	-11.9212
og	-11.9214
▁پروا	-11.9216
▁نزانتکاری	-11.9217
▁بنچ	-11.9219
▁current	-11.9219
▁regular	-11.9219
▁بھارتی	-11.922
▁sea	-11.9221
ۆکێں	-11.9222
▁Day	-11.9223
▁صفائی	-11.9223
▁جدلیات	-11.9223
دگی	-11.9224
▁واضح	-11.9224
▁اکساں	-11.9224
▁ھوالگ	-11.9225
▁درامدی	-11.9226
▁wall	-11.9227
▁قلندر	-11.9227
▁قاری	-11.9228
▁پڑھ	-11.9231
حی	-11.9231
▁زاهر	-11.9237
▁اسراتیانی	-11.9238
۔۔۔من	-11.9238
▁گوٹ	-11.9239
▁کردیا	-11.924
▁شرپی	-11.9241
▁نخ	-11.9245
▁hit	-11.9246
▁نادانی	-11.9246
▁لوت	-11.925
۔یک	-11.925
▁destroy	-11.925
▁مڑائی	-11.9252
▁ڈپارٹمنٹ	-11.9253
▁کانپرنس	-11.9253
▁House	-11.9253
▁فکرے	-11.9253
ney	-11.9253
▁بوهگ	-11.9253
▁ارسے	-11.9254
▁چستءُ	-11.9255
▁عشقی	-11.9255
ریل	-11.9257
▁مشھد	-11.9259
▁تصوف	-11.926
▁جھدءَ	-11.9261
▁کردءَ	-11.9262
▁تھئی	-11.9263
ٹہ	-11.9267
▁واجھ	-11.9267
▁شاپی	-11.9268
▁ask	-11.9268
جارکش	-11.9269
دژمن	-11.9271
▁درکپان	-11.9273
▁کبرانی	-11.9274
▁ڈنگی	-11.9275
▁جدائی	-11.9276
▁جہانءَ	-11.9276
گ۔	-11.9276
▁بریت	-11.9277
▁یم	-11.9277
▁پچاں	-11.9278
▁شریان	-11.928
▁لپرزگ	-11.928
کول	-11.9281
▁دئیگءَ	-11.9285
▁ever	-11.9287
▁سومری	-11.9287
▁نیمءَ	-11.9289
▁دہقان	-11.929
▁بلکین	-11.9293
نین	-11.9296
▁سرپرہ	-11.9297
▁گورتگ	-11.9299
فضل	-11.9299
▁لبزیات	-11.9299
▁زیرک	-11.93
▁امنہ	-11.93
▁دھمی	-11.9301
ircraft	-11.9302
نومبر	-11.9303
▁روانت	-11.9303
▁بداتیں	-11.9304
مش	-11.9304
▁بھائیں	-11.9305
▁شدیک	-11.9307
▁گردہ	-11.9308
▁ماد	-11.9309
▁نبشتگ۔	-11.9311
▁جذباتی	-11.9312
لشکر	-11.9313
▁زریات	-11.9314
▁شمسی	-11.9314
پرچہ	-11.9316
▁راولپنڈی	-11.9319
▁بائیکاٹ	-11.9319
▁شادءَ	-11.9321
نتا	-11.9321
▁جوھان	-11.9322
▁مشکلے	-11.9325
▁31	-11.9328
▁میدانی	-11.9328
▁گیتک	-11.9331
۔بلکیں	-11.9332
▁تازہ	-11.9334
▁en	-11.9334
▁ڈاکٹرانی	-11.9338
گنج	-11.9338
▁گنڈ	-11.9341
▁یاری	-11.9342
▁ایکٹ	-11.9342
▁نمی	-11.9343
▁نیما	-11.9343
▁نیزگاریں	-11.9345
▁موکہ	-11.9348
▁برین	-11.9351
▁contract	-11.9352
▁خلیات	-11.9353
▁size	-11.9353
▁طویل	-11.9353
▁ایدا	-11.9353
▁مارکسزم	-11.9353
سازی	-11.9354
▁تلگ	-11.9355
▁متن	-11.9355
▁کرگین	-11.9355
mer	-11.9355
▁دروازگے	-11.9357
▁دوائی	-11.9357
▁کرنءِ	-11.9357
▁grow	-11.9358
جک	-11.9358
▁اسٹار	-11.9359
▁اعلان	-11.9363
۔مئے	-11.9365
▁اشکانی	-11.9366
▁Nav	-11.9368
▁پرماتگ	-11.937
▁بانڈم	-11.9371
▁گریوان	-11.9371
▁دران	-11.9371
▁prais	-11.9374
▁central	-11.9374
▁مہرگ	-11.9376
گاه	-11.9377
▁مادنی	-11.9378
▁دراه	-11.9379
▁لیل	-11.9379
▁اچھی	-11.938
▁رؤت۔	-11.938
▁لنککانی	-11.9382
▁تورات	-11.9382
▁فوک	-11.9384
▁میلان	-11.9385
▁Street	-11.9386
▁یوٹیوب	-11.9386
av	-11.9386
▁نیکشھر	-11.9386
خیال	-11.9388
▁واژہ	-11.9391
▁هنچو	-11.9392
▁ساڑ	-11.9393
▁زرورت	-11.9394
▁پکن	-11.9394
▁مالا	-11.9397
▁لۆگئے	-11.9397
▁Game	-11.9399
▁نم	-11.94
▁کیچی	-11.94
ربیت	-11.94
ێت	-11.94
پرو	-11.94
▁جستءَ	-11.9401
▁جانشو	-11.9403
▁کنوں	-11.9404
▁کھار	-11.9408
▁ماھان	-11.9409
▁پاکی	-11.9409
▁نودی	-11.9409
▁بوھگءِ	-11.9411
۔پمیشکہ	-11.9413
▁پیت	-11.9414
کتہ	-11.9414
▁مبو	-11.9415
▁درونتاں	-11.9416
.”	-11.9416
▁کپگءَ	-11.9417
lu	-11.9417
پیسر	-11.9418
▁بہتامے	-11.9419
▁recording	-11.9419
▁مرکءَ	-11.9419
▁Championship	-11.942
▁تفتان	-11.942
دھا	-11.9421
▁مشیر	-11.9426
▁پوچ	-11.9427
E	-11.9427
▁شول	-11.9428
▁دوہزار	-11.9428
▁واج	-11.9429
▁انیگ	-11.943
▁اریائی	-11.9433
▁وانینت	-11.9434
▁مورے	-11.9435
کیا	-11.9435
جنگل	-11.944
▁Pol	-11.9443
▁تپل	-11.9446
▁ھسا	-11.9447
▁مارتگ	-11.9447
▁تہلی	-11.9451
▁کوکر	-11.9452
▁کپات	-11.9452
▁بڑگ	-11.9452
▁گجرات	-11.9453
do	-11.9453
▁artist	-11.9453
▁Follow	-11.9453
▁مانچسٹر	-11.9454
▁عبدالقیوم	-11.9454
▁سرنگ	-11.9454
▁مھلہ	-11.9456
▁صف	-11.9456
▁پترت۔	-11.9457
ھیل	-11.9459
یپ	-11.9459
▁دانے	-11.946
▁بدرنگ	-11.946
▁داناں	-11.9461
▁find	-11.9461
▁فاطمہ	-11.9461
▁موجودگی	-11.9463
▁کسهے	-11.9469
▁صورتے	-11.9469
▁بندنت	-11.9473
رھبند	-11.9475
▁نوشگ	-11.9479
▁draw	-11.9481
▁سفرے	-11.9483
▁سیپ	-11.9484
▁توجیلے	-11.9484
uest	-11.9486
▁Jordan	-11.9487
▁رکاوٹ	-11.9487
▁باجی	-11.9488
▁کانگریس	-11.9488
▁ھردوکانی	-11.9489
▁رودینی	-11.9489
بزانت	-11.9489
▁دک	-11.949
▁دیتی	-11.949
▁سحار	-11.949
▁پٹاں	-11.9492
▁دلئ	-11.9492
▁سریچک	-11.9492
▁ماشکیل	-11.9492
▁Ri	-11.9492
▁اسٹاف	-11.9493
▁کارمرزگ	-11.9493
II	-11.9494
▁تمردی	-11.9496
▁appearance	-11.9498
▁ٹگل	-11.9498
▁گوشتگیں	-11.9501
▁لیبیاں	-11.9501
▁سچان	-11.9503
▁مجبوری	-11.9505
کوئی	-11.9506
▁شکلے	-11.9507
ہرکس	-11.9509
▁دمکانی	-11.9511
نئے	-11.9513
سندھ	-11.9513
▁برگا	-11.952
▁کامی	-11.952
▁regard	-11.9521
▁evidence	-11.9521
▁commercial	-11.9521
▁From	-11.9521
▁دفعہ	-11.9522
▁مبوتین	-11.9522
ub	-11.9522
▁ازمانی	-11.9523
▁عبدالقدوس	-11.9524
▁کوپگانی	-11.9524
نیا	-11.9525
▁وسیع	-11.9525
▁cast	-11.9525
▁ٹائر	-11.9527
upon	-11.9528
▁مظہر	-11.9529
2014	-11.9529
دھی	-11.9529
▁زبانزانت	-11.9531
▁مہماناں	-11.9531
سبز	-11.9531
▁اردوءِ	-11.9532
▁پسگاں	-11.9532
▁شمالی	-11.9532
▁Ne	-11.9533
▁یادگار	-11.9534
▁سالہ	-11.9536
▁شکور	-11.9536
▁جنگاں	-11.9536
▁گانی	-11.9537
کشی	-11.9538
▁ملیں	-11.9539
▁بہرءُ	-11.9546
کسان	-11.9546
▁سیمک	-11.9549
▁ھالتران	-11.9552
▁چاتے	-11.9552
▁ظ	-11.9553
سکی	-11.9553
غت	-11.9554
▁کراچیءِ	-11.9555
)"	-11.9555
▁Michael	-11.9556
▁معشیت	-11.9556
▁gain	-11.9556
???	-11.9558
▁لہڑئگ	-11.9558
▁نزوریانی	-11.9559
▁ناشری	-11.9561
▁گرائمر	-11.9563
▁بیچارگیں	-11.9565
▁ہاتھوں	-11.9569
▁yard	-11.9571
▁قل	-11.9571
قران	-11.9572
▁واہگاں	-11.9574
▁river	-11.9575
▁جمالیاتی	-11.9577
▁پتاں	-11.9579
سہب	-11.958
▁ناٹک	-11.9582
▁travel	-11.9584
▁break	-11.9585
▁Indian	-11.9586
▁پیرین	-11.9587
▁سہولت	-11.959
▁Rock	-11.959
جاور	-11.9596
▁سوزش	-11.9596
▁فطری	-11.9596
▁کارکنگ	-11.9598
▁نویسانی	-11.9601
▁چھپ	-11.9602
▁چینچک	-11.9602
▁پلگاری	-11.9603
▁اوشتاتگ۔	-11.9603
▁مردیناں	-11.9603
ib	-11.9603
▁زلمانی	-11.9604
▁دیرو	-11.9604
▁پنیر	-11.9605
▁بیرگیری	-11.9605
▁مرتبہ	-11.9607
day	-11.9609
▁سربوگ	-11.9609
▁کھند	-11.961
▁کسم	-11.9611
▁براں۔	-11.9611
▁کھنت	-11.9612
▁کپتان	-11.9613
▁سھی	-11.9614
▁لائکی	-11.9614
▁ارگی	-11.9615
▁کاسم	-11.9615
▁Star	-11.9616
▁کوتاہ	-11.9616
▁سوگاتے	-11.9622
▁agree	-11.9622
▁وانگیانی	-11.9622
درچک	-11.9624
▁افیشل	-11.9624
▁کوھستگ	-11.9624
▁مشتمل	-11.9625
▁پٹے	-11.9627
▁تمردیں	-11.9627
▁اسءِ	-11.9629
▁اي	-11.9629
▁لکھوڑ	-11.9633
▁پہلا	-11.9635
T	-11.9635
▁مکہیں	-11.9635
▁اچے	-11.9636
▁بندپتر	-11.9636
▁بچوں	-11.9638
ھائی	-11.9638
▁درشانگ	-11.9639
▁حمد	-11.964
▁زرتءُ	-11.9641
▁بیاات	-11.9643
بوان	-11.9643
▁تیس	-11.9646
▁سرکچ	-11.9648
▁200	-11.9648
▁هرچی	-11.9652
▁کدام	-11.9653
▁شمشت	-11.9653
▁زانگول	-11.9653
▁یورش	-11.9659
▁Peter	-11.9659
▁ارواه	-11.966
▁بانڑی	-11.9663
▁ھیبتان	-11.9665
▁حقدار	-11.9667
▁چتر	-11.9667
▁saw	-11.9668
▁نامرد	-11.9669
▁مب	-11.9672
درست	-11.9674
▁score	-11.9674
۔دومی	-11.9675
▁شائریءَ	-11.9675
▁الماس	-11.9676
▁کھو	-11.9677
▁روشنا	-11.9677
▁اجل	-11.9679
res	-11.9681
pa	-11.9683
▁مرادجان	-11.9684
▁پاند	-11.9685
زات	-11.9692
..."	-11.9694
▁قصو	-11.9694
▁اومیت	-11.9695
▁چاچے	-11.9695
▁سمیت	-11.9696
▁ہجرت	-11.9696
ولے	-11.9697
▁جوڑینگ	-11.9698
▁ریت	-11.97
▁Mary	-11.9701
▁تاہم	-11.9702
▁مھربان	-11.9706
▁کساسءَ	-11.9707
▁اوش	-11.9708
▁پوشاکاں	-11.9711
▁پورے	-11.9712
▁شھمیر	-11.9712
▁کٹوکیں	-11.9715
▁لان	-11.9717
▁تہراں	-11.9718
▁ہتم	-11.972
▁همش	-11.9723
▁گؤر	-11.9724
▁معاف	-11.9725
▁لکانی	-11.9725
▁reveal	-11.9728
read	-11.9728
▁ازمائش	-11.9729
▁شہرانی	-11.973
▁ات۔ائیءَ	-11.973
▁براھوی	-11.9731
▁ات۔کہ	-11.9732
ning	-11.9733
▁جیڑگاں	-11.9734
▁پھزداری	-11.9736
▁فرعون	-11.9737
▁سجهێن	-11.9737
▁کوری	-11.9737
▁سپاہیگ	-11.9741
های	-11.9742
▁And	-11.9743
▁خاصیت	-11.9745
قر	-11.9746
▁عمرے	-11.9747
j	-11.9747
▁باراں	-11.9748
▁دتک	-11.975
گڑ	-11.9751
▁پادمال	-11.9751
▁سکت	-11.9752
ٹین	-11.9752
▁نیچے	-11.9753
▁So	-11.9754
▁مالداری	-11.9754
▁مھنت	-11.9754
▁سربراہ	-11.9755
▁گراک	-11.9755
▁جہانگیر	-11.9757
▁٭٭٭٭	-11.9758
▁ییں	-11.9759
▁کرنا۔	-11.9761
▁نیادے	-11.9762
▁الاقوامی	-11.9763
▁تقدیر	-11.9763
▁outside	-11.9763
▁پوریا	-11.9764
فو	-11.9764
مھ	-11.9765
▁کدرتی	-11.9765
▁troops	-11.9766
▁نیویارک	-11.9767
▁ھوالہ	-11.9768
ass	-11.9768
▁راس	-11.9768
▁کمکین	-11.9768
▁چالاک	-11.9769
▁ترمیم	-11.9769
▁عقیدہ	-11.9769
کنوک	-11.977
▁فریاد	-11.977
▁بکشات	-11.977
دہی	-11.9771
▁فلسطینی	-11.9773
▁replac	-11.9774
▁تھرو	-11.9775
▁بیتگینانی	-11.9776
▁دروراں	-11.9777
▁یکمشت	-11.9777
▁event	-11.978
▁کونج	-11.9783
▁پینل	-11.9785
▁نکہ	-11.9786
▁دب	-11.9787
▁معاشرتی	-11.9788
مالی	-11.9789
▁وجودی	-11.9789
▁inter	-11.9789
ھون	-11.979
▁پہمئنءِ	-11.979
جتگ	-11.9792
▁اخلاقیات	-11.9795
▁northern	-11.9798
▁پوزیشن	-11.9798
بام	-11.9798
▁ٹیچنگ	-11.9799
▁سمب	-11.9801
▁استالانی	-11.9802
▁معصوم	-11.9804
مکن	-11.9805
▁توکہ	-11.9805
▁خراسان	-11.9805
▁هاترا	-11.9806
▁ٹیپ	-11.9806
▁جوانتر	-11.9808
▁پارس	-11.9809
۔پرچاکہ	-11.9811
▁نوخ	-11.9811
▁بوہگا	-11.9811
▁جوانیءَ	-11.9814
▁کبیر	-11.9816
شمس	-11.9816
▁رز	-11.9817
▁بایدیں	-11.9818
رواں	-11.9819
▁دراہی	-11.982
▁experience	-11.982
اث	-11.9822
▁شخصی	-11.9822
▁ہشکیں	-11.9822
▁درشاندابے	-11.9822
▁کرنانی	-11.9823
▁چاپءُ	-11.9825
▁ھدوناک	-11.9825
وکاں	-11.9825
▁قدیمی	-11.9827
شمے	-11.9829
لم	-11.983
▁rank	-11.9832
شد	-11.9833
▁ہروہد	-11.9833
▁Tech	-11.9833
▁۔۔۔۔۔۔۔۔	-11.9833
▁قضا	-11.9833
▁اشترانی	-11.9834
▁عنایت	-11.9834
▁ٹہشت	-11.9834
▁دیمااہتگ	-11.9834
▁شوش	-11.9835
▁مرتگاں	-11.9836
زوریں	-11.9837
▁رفت	-11.9837
داب	-11.9841
▁بغداد	-11.9842
▁وحی	-11.9842
▁پتات	-11.9842
▁چارینگ	-11.9844
▁کہور	-11.9845
▁ہیت	-11.9848
▁mean	-11.9848
▁بوانیت	-11.9849
▁ھرمردم	-11.985
▁چمروک	-11.985
▁کچکول	-11.9851
▁جامع	-11.9851
▁ماجد	-11.9852
▁کوشاں	-11.9853
▁درجنگ	-11.9855
▁بندین	-11.9855
▁پکی	-11.9855
▁اھتک	-11.9856
▁برجمیں	-11.9857
▁شاھوانی	-11.9857
▁دیگری	-11.9859
▁پھکیں	-11.9861
▁ایرجنگ	-11.9863
نم	-11.9866
▁yards	-11.9868
▁پسگانی	-11.987
بوتگ۔	-11.9871
▁تع	-11.9871
▁ھکیکت	-11.9873
▁دزگہار	-11.9873
▁لنکا	-11.9874
▁ہوس	-11.9875
▁دوئین	-11.9876
▁امرے	-11.9879
▁ستم	-11.988
▁جنئے	-11.988
▁Bay	-11.9882
▁نادرائی	-11.9883
مستریں	-11.9883
di	-11.9884
▁ورناھے	-11.9885
head	-11.9889
▁گوا	-11.989
▁رت	-11.989
▁مزھبی	-11.9892
اتیں	-11.9893
لیب	-11.9894
▁پگرانی	-11.9894
الے	-11.9895
دانکہ	-11.9896
lorida	-11.9897
▁ساماناں	-11.99
▁سرجمین	-11.99
▁دگاں	-11.99
تاج	-11.9901
▁زوربیگواہی	-11.9901
لوک	-11.9901
▁reason	-11.9903
▁length	-11.9903
▁conduct	-11.9903
▁ابابگر	-11.9904
▁وزبت	-11.9904
▁توکی	-11.9904
▁section	-11.9904
▁میگ	-11.9905
▁سانیٹ	-11.9905
وانوک	-11.9906
اکہ	-11.9909
▁زرناز	-11.9909
▁دائرہ	-11.9912
▁اران	-11.9913
▁پلگارگ	-11.9914
▁بهداشتی	-11.9914
عد	-11.9915
▁بیٹا	-11.9916
▁نپت	-11.9917
▁سوجے	-11.9918
▁تنیگا	-11.9918
نامہ	-11.9921
▁اسانیں	-11.9923
▁court	-11.9923
▁واہد	-11.9927
داراں	-11.9928
چارمی	-11.9928
▁نیش	-11.9929
▁cap	-11.993
▁تمرد	-11.993
▁موک	-11.993
▁ھزارہ	-11.9931
ہمیش	-11.9931
▁پادءَ	-11.9931
▁جفا	-11.9932
▁جتءُ	-11.9935
▁کھا	-11.9936
اتا	-11.9937
▁نیاریت	-11.9937
چاریں	-11.9938
▁بروس	-11.994
▁کنیت	-11.994
▁possible	-11.9941
پدر	-11.9942
▁تبءِ	-11.9944
▁سہمی	-11.9944
▁براہندگ	-11.9945
▁گوران	-11.9946
▁سواراں	-11.9946
▁سپائی	-11.9948
▁لوٹیتگ	-11.9951
نظر	-11.9953
▁location	-11.9954
▁گشین	-11.9954
▁ہیگل	-11.9954
▁نسلی	-11.9957
▁بکر	-11.9957
▁عمومدار	-11.9958
▁زدگیں	-11.996
روکیں	-11.9964
▁دنگ	-11.9964
پولیس	-11.9969
▁کیمتی	-11.9971
▁نویسوک	-11.9971
ایت۔	-11.9972
▁ساٹ	-11.9974
▁league	-11.9974
▁ولگوج	-11.9975
▁crew	-11.9975
▁جائیداد	-11.9975
▁مھناز	-11.9975
▁جونے	-11.9977
▁ھاشم	-11.9977
▁ہائیکو	-11.9979
▁نپرت	-11.9979
▁saying	-11.9981
▁Paul	-11.9981
▁نتھا	-11.9983
▁محشر	-11.9983
▁ورئے	-11.9983
▁دمبر	-11.9983
▁تراس	-11.9984
▁دلدار	-11.9984
▁وڑین	-11.9985
▁اباتی	-11.9985
▁بنو	-11.9985
▁پکنت	-11.9985
▁کودک	-11.9989
▁درمانے	-11.9991
▁حاموش	-11.9994
▁نیمگء	-11.9994
▁500	-11.9996
▁سدگ	-11.9998
زمانہ	-12
▁سیرءُ	-12.0002
▁واجہءَ	-12.0007
▁ھسابے	-12.0007
▁account	-12.001
▁competition	-12.001
▁material	-12.001
▁تشریح	-12.001
▁flood	-12.001
▁فصیح	-12.001
زرد	-12.001
▁غزہ	-12.0012
لیک	-12.0014
▁وروک	-12.0015
▁دوستناک	-12.0018
▁نتا	-12.0019
وریں	-12.002
▁پچگ	-12.002
▁عطر	-12.002
▁دیتہ	-12.0021
دلگوش	-12.0021
▁دربہ	-12.0022
▁شفیقہ	-12.0023
▁وشان	-12.0024
▁مرتب	-12.0024
▁رپکاں	-12.0025
▁لچہی	-12.0025
▁اولا	-12.0026
▁درتہ	-12.0026
▁رنگین	-12.0028
▁سازگر	-12.0033
▁گھس	-12.0033
▁دپءِ	-12.0033
▁سوجکار	-12.0037
▁جاہو	-12.0037
الوں	-12.0038
▁رانا	-12.0038
▁شریپ	-12.0039
▁جنید	-12.0041
▁working	-12.0044
▁effort	-12.0046
▁international	-12.0046
▁ایڈووکیٹ	-12.0046
▁Richard	-12.0046
▁عبدالرزاق	-12.0046
▁انام	-12.0046
▁اسپیشل	-12.0046
▁introduc	-12.0048
▁نذیر	-12.0049
▁whom	-12.005
▁مرادے	-12.0053
▁برھنگ	-12.0053
▁قائد	-12.0053
▁ھرروچ	-12.0053
▁گلوبل	-12.0054
uick	-12.0054
▁سربار	-12.0055
▁جہدءِ	-12.0056
▁سرنامگ	-12.0056
▁منکر	-12.0057
▁ہیومن	-12.0057
بول	-12.0057
▁سیادانی	-12.0057
▁مزائیں	-12.0058
معنا	-12.0058
الاں	-12.0059
▁اتنتءُ	-12.0061
▁گوستگ۔	-12.0064
▁بچکندگے	-12.0065
بانی	-12.0067
served	-12.0068
▁مروک	-12.0069
▁اسٹ	-12.007
▁بئیان	-12.0071
سرجم	-12.0073
▁دلسیاھی	-12.0073
▁میڑھ	-12.0076
▁گلگل	-12.0078
▁طب	-12.008
▁استی	-12.0081
▁تراش	-12.0082
▁سنڈیمن	-12.0082
▁ولیعہد	-12.0082
▁تۆکا	-12.0082
▁شؤر	-12.0083
▁ملیشیا	-12.0083
ہال	-12.0085
▁کھل	-12.0086
▁سئیمی	-12.0086
▁مبنی	-12.0087
▁کارکناں	-12.0088
▁اسکرین	-12.009
▁رسمءُ	-12.009
▁گڑتی	-12.0093
▁سوتانی	-12.0097
راز	-12.0097
▁جابر	-12.0098
ئتگ	-12.0098
ade	-12.0101
ذی	-12.0101
▁دنزاں	-12.0102
سربوتگیں	-12.0105
more	-12.0105
ah	-12.0106
حاجی	-12.0106
go	-12.0106
بھی	-12.0107
غیر	-12.0108
▁گالوارانی	-12.0108
▁محکمی	-12.0109
▁منج	-12.011
▁بووگ	-12.0111
شھید	-12.0112
▁پاسپان	-12.0114
▁average	-12.0117
G	-12.0118
▁Hurricane	-12.0118
▁Missouri	-12.0118
▁poor	-12.0118
▁focus	-12.0118
▁پریمئیر	-12.0118
▁مشرق	-12.0119
▁خداوند	-12.012
▁اسپتیں	-12.0121
▁بامسار	-12.0121
▁extend	-12.0121
▁بندروشم	-12.0125
▁خور	-12.0125
▁لینگ	-12.0125
▁Most	-12.0129
پگر	-12.0129
▁ناسرجمیں	-12.0129
▁شرگدارے	-12.0131
▁ٹکءِ	-12.0131
▁پھاز	-12.0134
▁ابیل	-12.0134
fore	-12.0134
▁ہجری	-12.0135
▁اسرات	-12.0135
▁استنت	-12.0136
▁بانداتءِ	-12.0137
▁باروء	-12.0139
نا۔	-12.014
ازی	-12.014
▁راجداری	-12.014
▁گؤن	-12.0142
▁گدے	-12.0143
▁گیچن	-12.0143
▁واجہءِ	-12.0143
▁گلشن	-12.0144
▁گوپگ	-12.0144
▁درزن	-12.0145
▁دربی	-12.0145
کاگد	-12.0146
▁Sun	-12.0149
▁واش	-12.015
▁پیراں	-12.015
▁مازگ	-12.0152
▁appoint	-12.0152
▁لیکچر	-12.0152
▁بالغ	-12.0154
▁ھذمت	-12.0154
▁2001	-12.0154
▁جھاز	-12.0156
▁یقینی	-12.0156
▁My	-12.0157
▁وندر	-12.0158
ساد	-12.0159
▁شمشکار	-12.016
یسی	-12.016
▁چلہ	-12.0161
▁شھار	-12.0162
▁شالکوٹ	-12.0163
ap	-12.0166
min	-12.0166
▁بوہیر	-12.0166
▁بیوی	-12.0168
▁مردار	-12.0168
▁عکساں	-12.0168
▁موسمءَ	-12.0172
▁کساسیں	-12.0172
▁مھلوکءِ	-12.0173
مج	-12.0173
▁مکسدے	-12.0175
▁لگے	-12.0178
واحد	-12.0178
▁درتک	-12.0178
▁شرانت	-12.0179
▁بوہگءِ	-12.0181
▁کودکی	-12.0181
زیت	-12.0183
▁مہراب	-12.0183
ana	-12.0185
▁مصنف	-12.0186
قد	-12.0186
▁سفارش	-12.0187
▁روہ	-12.0187
▁واقف	-12.0188
▁عمرءِ	-12.0188
ster	-12.0189
▁داعش	-12.0191
▁لبزتکنیک	-12.0192
ner	-12.0192
▁پہازگ	-12.0192
▁سنداں	-12.0192
چاہ	-12.0195
▁سیبی	-12.0196
▁مکتبہ	-12.0196
▁وانینتگ	-12.0197
▁پتہ	-12.0199
نپ	-12.0199
▁پرام	-12.0202
▁پوسٹے	-12.0202
▁زیاد	-12.0203
▁سستی	-12.0207
▁بڑز	-12.0208
اومان	-12.0208
▁Am	-12.0209
▁گنجے	-12.0209
▁جکس	-12.021
▁۔مئے	-12.021
▁واپاری	-12.0211
▁گوئشیت	-12.0211
▁نظریات	-12.0213
▁زلپ	-12.0214
▁پرکاری	-12.0217
پرس	-12.0218
▁ساتھی	-12.0218
زیب	-12.0219
▁مھری	-12.022
▁مکرانءِ	-12.0221
▁تاھیری	-12.0221
▁بست۔	-12.0225
▁ہائوس	-12.0227
▁زھنی	-12.0227
▁فروغ	-12.0228
قومی	-12.0229
سٹل	-12.0229
▁زیشان	-12.023
٭	-12.0231
▁گرادگ	-12.0232
▁کورچات	-12.0232
▁گیڑ	-12.0234
▁راہشون	-12.0235
ze	-12.0235
▁کیفے	-12.0237
▁میوہ	-12.0238
ایرانی	-12.0244
زمان	-12.0246
▁گویا	-12.0248
ارسطو	-12.0249
▁ابرمءِ	-12.0252
▁اگاہی	-12.0255
▁ریتک	-12.0255
▁یاں۔	-12.0256
▁پریم	-12.0258
▁شیڈول	-12.026
▁ساب	-12.026
▁گرگا	-12.0261
لر	-12.0262
▁پیشتر	-12.0263
▁پیچیدہ	-12.0265
▁سلحہ	-12.0265
▁فائر	-12.0267
92	-12.0267
▁تف	-12.0267
▁بیپار	-12.0268
کندگ	-12.0268
up	-12.0269
رجانکار	-12.0269
▁گندیت۔	-12.0269
▁مھکمہ	-12.027
رندءَ	-12.0272
▁زلوری	-12.0272
▁توس	-12.0274
▁مرہ	-12.0277
▁امریکن	-12.0278
نصیر	-12.0279
▁وژن	-12.0281
▁اقرار	-12.0282
▁اتکنت	-12.0283
▁ex	-12.0283
▁روڑ	-12.0284
▁زانتانی	-12.0285
▁سادے	-12.0287
▁ندکاراں	-12.0287
ذر	-12.0287
ورا	-12.029
▁ڪار	-12.0294
▁ہاکمی	-12.0295
▁کوکب	-12.0297
▁جنینءَ	-12.0297
▁special	-12.03
▁ہرنائی	-12.0301
▁یزید	-12.0302
▁ضامن	-12.0302
▁زانتءِ	-12.0302
▁ابرار	-12.0303
▁بدبھتی	-12.0303
▁برامدات	-12.0304
▁کینیڈا	-12.0305
▁حیدراباد	-12.0306
تھی	-12.0306
▁Bo	-12.0306
▁plann	-12.0307
▁تمثیل	-12.0308
▁سفید	-12.0308
▁نوح	-12.0309
▁شھزانت	-12.031
▁ھلی	-12.031
ڈگار	-12.0311
▁یافتہ	-12.0311
▁خوشی	-12.0313
▁کؤش	-12.0313
▁مناک	-12.0313
▁کہدا	-12.0315
▁بیٹے	-12.0316
▁نکرت	-12.0316
▁درزی	-12.0319
▁گیجیت	-12.032
رون	-12.0321
▁بیدل	-12.0322
▁مجاھد	-12.0322
▁شپا	-12.0322
▁seem	-12.0325
▁خیالی	-12.0325
▁بازیابی	-12.0327
▁روزرد	-12.033
▁اروچ	-12.033
▁ترنج	-12.0332
▁دپتری	-12.0334
▁مردماناں	-12.0336
▁ماہکان	-12.0337
▁ممبئی	-12.0338
▁اردشیر	-12.0338
▁دج	-12.0338
▁دارالعلوم	-12.0338
▁بگوشیت	-12.0339
لیکن	-12.034
اکر	-12.034
▁گریہان	-12.0341
▁جھدکاراں	-12.0341
ble	-12.0342
▁همود	-12.0345
▁گٹے	-12.0345
▁ھلیل	-12.0346
86	-12.0347
زادہ	-12.0347
▁Ke	-12.0349
▁جہلءَ	-12.0349
▁مامل	-12.035
▁وک	-12.0351
▁لچہے	-12.0351
▁پذا	-12.0353
درستیں	-12.0354
سلام	-12.0357
روپ	-12.0358
▁زندئ	-12.0358
▁امران	-12.0359
واک	-12.0359
▁نندئے	-12.036
عن	-12.036
▁تورگ	-12.036
▁انبار	-12.0361
▁بڈءَ	-12.0362
▁سالانہ	-12.0362
,,,	-12.0363
واجه	-12.0365
▁producer	-12.0367
ota	-12.0368
▁مھران	-12.0368
▁زھیرانی	-12.0369
▁احتنت	-12.0371
ture	-12.0372
▁کشکانی	-12.0372
▁approach	-12.0372
▁دبستان	-12.0373
▁وز	-12.0373
شرگدار	-12.0373
▁magazine	-12.0375
▁مینجمنٹ	-12.0375
▁stay	-12.0375
▁نگہداشت	-12.0375
▁football	-12.0375
مانءَ	-12.0375
▁مرشد	-12.0375
▁وسعت	-12.0376
▁نندگی	-12.0377
▁سرکشی	-12.0378
▁زیتون	-12.038
▁پیوند	-12.038
▁شھرے	-12.0384
▁سارے	-12.0385
▁r	-12.0385
وشیں	-12.0386
bi	-12.0388
▁نامگ	-12.0393
قول	-12.0394
▁روتگاں	-12.0397
▁لاپتہ	-12.0399
▁ہمیرنگ	-12.0399
▁پروشیں	-12.0399
▁arriv	-12.0404
▁...............	-12.0404
▁بیت۔من	-12.0404
▁دراتک۔	-12.0405
▁نیتک	-12.0408
▁Great	-12.0412
▁learn	-12.0412
▁لقا	-12.0414
رژن	-12.0414
.(	-12.0414
▁وھاب	-12.0414
▁اعتماد	-12.0414
حب	-12.0414
▁امتیاز	-12.0415
زاد	-12.0416
▁احتجاج	-12.0417
▁ہوشاپ	-12.0419
▁عبدالغفور	-12.042
▁cause	-12.042
▁چشم	-12.0422
▁راستین	-12.0423
▁کبلہ	-12.0423
▁کارامد	-12.0424
▁station	-12.0425
▁سلامتیں	-12.0425
▁بوجی	-12.0427
▁تسلی	-12.0429
▁وشدل	-12.0432
ہت	-12.0433
ina	-12.0436
▁نمادار	-12.0436
▁زل	-12.0437
98	-12.0439
▁اگاھی	-12.0439
▁گندہ	-12.0443
▁ساھب	-12.0444
▁پیروز	-12.0445
▁منیگ	-12.0446
▁بگندیت	-12.0449
▁First	-12.0449
▁availab	-12.0449
▁horse	-12.0449
▁بیوروکریسی	-12.0449
▁لامحدود	-12.0449
▁سیٹلائٹ	-12.0449
▁flight	-12.0449
▁voice	-12.045
▁فرنٹیئر	-12.045
▁رۆچا	-12.045
▁شہادت	-12.045
▁رئوگ	-12.0454
▁Best	-12.0455
▁ملایانی	-12.0456
▁نقاد	-12.0457
بدی	-12.0457
▁تھرے	-12.0457
ai	-12.0458
▁پساں	-12.0459
▁ترپگ	-12.046
ہرچی	-12.046
▁چاند	-12.0461
انو	-12.0461
▁leave	-12.0463
▁محاورہ	-12.0463
▁لائی	-12.0463
▁افضل	-12.0463
▁دیماارگ	-12.0463
▁law	-12.0464
▁اگدھ	-12.0465
▁هلک	-12.0466
▁رھبر	-12.0466
▁ناپگ	-12.0466
▁ٹویٹر	-12.0466
اشاں	-12.0467
زه	-12.0468
▁."	-12.0473
تاکبند	-12.0476
یچ	-12.0477
▁بازانت	-12.0477
ory	-12.0479
▁فخر	-12.0481
ide	-12.0481
▁ہمگرنچی	-12.0482
▁سورو	-12.0483
▁دستاویز	-12.0485
▁کئوم	-12.0485
▁condition	-12.0486
▁decision	-12.0486
▁روئٹرز	-12.0486
▁1970	-12.0487
▁سربتگ	-12.0488
▁شیدائی	-12.0488
یاکہ	-12.0488
▁شرد	-12.049
▁سدءُ	-12.0493
▁بالیگ	-12.0493
▁ھدوناکی	-12.0495
▁گورءِ	-12.0495
▁بورخیس	-12.0497
▁چکاریں	-12.0498
▁سرگردان	-12.0501
▁کاریزکار	-12.0501
▁اڑان	-12.0505
▁winds	-12.0505
▁شاھرگ	-12.0507
▁براہوی	-12.0507
▁روبرکت	-12.0507
▁بوسگ	-12.0507
▁سرخ	-12.0509
▁دوستر	-12.0509
پھر	-12.0511
▁کرپاس	-12.0511
▁کوٹگ	-12.0511
▁ندکارے	-12.0512
کڑ	-12.0512
▁کرتگءُ	-12.0515
له	-12.0515
▁ٹام	-12.0515
ite	-12.0515
▁چہار	-12.0518
▁چنکے	-12.0519
وڑا	-12.052
▁اوگار	-12.0522
▁محمدخان	-12.0524
▁چودھری	-12.0524
oc	-12.0524
▁Jack	-12.0525
▁عھد	-12.0525
▁فائل	-12.0525
▁think	-12.0525
▁چنکہ	-12.0528
فہ	-12.0528
▁شتیں۔	-12.053
▁پاروک	-12.0534
▁لن	-12.0536
▁ماھیں	-12.0542
▁ھمساھگیں	-12.0542
▁حسابا	-12.0543
▁برگءَ	-12.0543
▁کائینت	-12.0544
نب	-12.0546
▁زوراکانی	-12.0547
▁پمیش	-12.0547
▁کوس	-12.0547
▁کوشی	-12.0548
▁دراصل	-12.0551
بشیر	-12.0554
▁شیئری	-12.0555
▁شھزانتی	-12.0556
▁تلوسگ	-12.0557
▁ایسٹ	-12.0559
uence	-12.056
▁برادر	-12.056
▁construct	-12.0561
▁مظلوم	-12.0561
▁above	-12.0562
▁گراؤنڈ	-12.0562
▁براھیم	-12.0562
▁past	-12.0564
▁افتاب	-12.0564
▁راستیاں	-12.0566
▁کلانیں	-12.0568
اڑی	-12.0571
▁نشک	-12.0571
▁بچگ	-12.0573
▁دراھ	-12.0574
▁برش	-12.0574
▁مدیر	-12.0574
▁بھیر	-12.0574
۔۔۔ءُ	-12.0574
یلا	-12.0578
امریکہ	-12.0588
▁Go	-12.0589
▁بیگار	-12.0589
▁But	-12.0591
ations	-12.0591
▁پریب	-12.0594
▁نب	-12.0598
▁چاراہ	-12.0599
▁نظرہیہ	-12.06
▁کانپریس	-12.06
▁بکنئے	-12.0601
▁اماچی	-12.0601
▁رسگا	-12.0602
▁Hill	-12.0604
▁جنجالی	-12.0605
▁وانند	-12.0607
کشت	-12.0609
▁شائ	-12.061
▁موسمیات	-12.0611
ارک	-12.0611
▁درخت	-12.0612
▁گوازینان	-12.0615
▁سامراجی	-12.0615
▁اشترے	-12.0615
▁Du	-12.0615
▁سنیانلاین	-12.0616
الف	-12.0617
▁پئوج	-12.062
▁مێتگ	-12.0621
نار	-12.0623
▁قصہاں	-12.0623
▁مردینے	-12.0624
▁تخلیقات	-12.0629
▁لوگا	-12.0631
▁حلب	-12.0632
▁کشے	-12.0633
▁بائدیں	-12.0633
▁زادہ	-12.0634
▁پورس	-12.0635
▁capital	-12.0638
▁positive	-12.0638
▁اقدار	-12.0638
▁نادیہ	-12.0638
▁زپت	-12.0638
▁ایگءِ	-12.0638
▁soon	-12.064
وران	-12.064
▁جغرافیہ	-12.0642
▁زیمی	-12.0643
زندءِ	-12.0644
▁جێڑه	-12.0645
▁ویتنام	-12.0646
▁مردا	-12.0646
▁اولسرءَ	-12.0647
▁ماہیں	-12.0647
▁باسکی	-12.0648
▁ادء	-12.0649
▁چڑکہ	-12.065
▁فساد	-12.065
▁نویستگ	-12.0652
▁گوستہ	-12.0652
▁بیسہی	-12.0652
▁اڑءُ	-12.0653
▁ہورکیں	-12.0654
زوت	-12.0655
▁سفرءِ	-12.0656
گھ	-12.0656
بگیری	-12.0656
ائینتگ	-12.0657
▁دروشمی	-12.0658
وٹی	-12.0659
▁خطر	-12.0659
..........	-12.0662
▁کسمانکی	-12.0663
▁گیاب	-12.0664
▁درنج	-12.0665
▁نکشہ	-12.0666
▁دیمروئیءِ	-12.0668
▁گمبد	-12.0669
▁تبءُ	-12.0669
▁پؤج	-12.0675
▁مارک	-12.0675
▁office	-12.0675
▁جہدءُ	-12.0676
▁studio	-12.0676
▁اسٹریٹجک	-12.0676
▁business	-12.0676
▁نبنت	-12.0676
▁لوہار	-12.0679
▁شوانگے	-12.0681
▁estimat	-12.0682
▁جاھ	-12.0682
▁الک	-12.0683
باب	-12.0685
▁دوکان	-12.0685
▁هچبر	-12.0685
▁ٹاس	-12.0687
▁انتہا	-12.0691
▁متل	-12.0694
▁نندے	-12.0695
▁Sea	-12.0695
▁بیرہ	-12.0695
▁بارکان	-12.0696
ذات	-12.07
▁گروکیں	-12.07
▁دریائے	-12.0702
8	-12.0704
▁ہورءَ	-12.0706
▁بوتگت	-12.0708
▁دریگاں	-12.0708
▁یتک	-12.0711
شود	-12.0711
▁Africa	-12.0713
▁maintain	-12.0714
▁interview	-12.0714
▁ثبت	-12.0714
▁ولیم	-12.0715
▁جنزیت	-12.0715
▁نازانتی	-12.0716
▁لوذ	-12.0716
▁deal	-12.0716
▁حقیں	-12.0717
براس	-12.0717
▁tree	-12.0718
▁ہمراہداری	-12.0719
▁چنچک	-12.0719
یتگیں	-12.0721
خو	-12.0721
▁ہماہانی	-12.0723
▁اھت۔	-12.0724
▁گھشی	-12.0724
▁جیمز	-12.0724
تنت۔	-12.0725
▁معناءِ	-12.0726
▁ھز	-12.0727
▁گرماگی	-12.0727
▁جستءُ	-12.0728
▁نلی	-12.0728
▁تامرانی	-12.073
▁ٹاہینگ	-12.0732
▁must	-12.0732
▁مروچ	-12.0734
گشیت	-12.0738
▁جمی	-12.0738
uck	-12.0739
▁شہزاد	-12.0741
▁سساءِ	-12.0743
▁بخشش	-12.0743
ائٹ	-12.0744
▁نامءِ	-12.0745
▁say	-12.0746
▁اڈہ	-12.0747
▁چڪ	-12.0747
▁ژپ	-12.0747
▁ہمیشاں	-12.075
▁دوہیں	-12.075
▁زبانئ	-12.0752
▁Canada	-12.0753
▁الوت	-12.0753
▁رجحان	-12.0754
▁تکرار	-12.0754
▁letter	-12.0755
▁نکرتگ	-12.0755
پین	-12.0755
چراگ	-12.0755
▁پراھی	-12.0757
▁بندءَ	-12.0757
ادگہ	-12.0757
▁مسلسل	-12.0758
▁پارٹیاں	-12.0758
▁مسیتے	-12.0758
▁وڑوڑیں	-12.0758
▁کعبہ	-12.0759
کشک	-12.076
▁ہید	-12.0761
▁یکتا	-12.0763
▁اھوالکاری	-12.0764
▁گویاک	-12.0764
بریں	-12.0764
▁کلر	-12.0765
▁سہیں	-12.0766
سروک	-12.0766
▁نوشی	-12.0767
▁ڪش	-12.0768
▁دلیریں	-12.0769
▁stor	-12.077
▁بندانت	-12.0773
بیں	-12.0777
▁پیگور	-12.078
▁اشرپ	-12.078
▁ہفتگ	-12.078
per	-12.0781
▁نیائے	-12.0781
بکنت	-12.0781
▁چاہے	-12.0784
▁شہریانی	-12.0787
▁دراهیں	-12.0791
▁President	-12.0791
▁Brown	-12.0791
▁سپلائی	-12.0791
▁ڈپریشن	-12.0791
▁معاشرے	-12.0791
▁لهتیں	-12.0792
شیں	-12.0793
▁استانے	-12.0794
▁Mo	-12.0795
▁جنکءَ	-12.0796
▁India	-12.0796
▁طورپر	-12.0797
ہیر	-12.0798
▁نادراہانی	-12.0801
▁امریکہءِ	-12.0801
▁زورگی	-12.0803
▁۔ہمیش	-12.0803
▁دئے۔	-12.0804
▁سنگتءَ	-12.0804
▁بھادر	-12.0806
▁امدام	-12.0807
▁رجانکانی	-12.0808
led	-12.0808
▁2000	-12.0813
▁الگار	-12.0813
▁پازلءِ	-12.0816
▁جوسک	-12.0816
▁بنیادمءِ	-12.0818
town	-12.0819
ائنت	-12.0819
▁میرچاکر	-12.0821
▁کاریانی	-12.0824
طر	-12.0824
▁اوپر	-12.0826
▁ماڑیانی	-12.0826
▁لاس	-12.0827
▁ذر	-12.0828
▁نریان	-12.0828
▁Air	-12.083
ger	-12.083
▁Henry	-12.083
▁فزکس	-12.083
▁دیمھونی	-12.083
▁کوٹیانی	-12.0831
▁فراموش	-12.0831
▁قلمی	-12.0831
▁اکبال	-12.0831
▁کندگاں	-12.0831
▁منفی	-12.0832
▁نسخہ	-12.0834
▁گرابانی	-12.0837
▁رسترانی	-12.0837
he	-12.0838
▁شیرو	-12.0839
▁ماناءَ	-12.0839
▁پیپر	-12.084
▁کلاتءِ	-12.084
▁موٹ	-12.0841
▁اڑزان	-12.0842
کٹر	-12.0843
tlantic	-12.0844
▁گردینت	-12.0846
▁ڈولین	-12.0847
▁وتسر	-12.0847
▁referr	-12.0849
تچک	-12.085
▁همدا	-12.0852
▁Cr	-12.0852
▁پراھیں	-12.0853
▁پندلانی	-12.0853
▁عرش	-12.0854
au	-12.0854
▁سارا	-12.0856
▁king	-12.0858
▁جھدکارانی	-12.0859
▁ربیدگاں	-12.086
▁امینی	-12.0861
▁ناکامی	-12.0861
▁پربندانی	-12.0862
▁زیادتی	-12.0862
▁دئیے	-12.0862
ءَگوں	-12.0863
▁سھتے	-12.0865
تنقید	-12.0866
▁مشان	-12.0866
عہ	-12.0866
▁تربتءَ	-12.0867
▁زالمیں	-12.0867
▁گوازینگی	-12.0867
▁machine	-12.0869
▁transport	-12.0869
uadron	-12.0869
▁ساؤتھ	-12.0869
▁پلسپہ	-12.087
▁سجهێں	-12.087
▁کلیات	-12.0871
▁ریسگ	-12.0871
▁جھالاوان	-12.0871
▁تکمیل	-12.0872
اشک	-12.0873
▁اچانک	-12.0874
▁مھراں	-12.0874
▁خلیفہ	-12.0875
نءِ	-12.0876
▁موسا	-12.0876
مول	-12.0879
کاہ	-12.0881
▁نش	-12.0881
▁ھگم	-12.0882
▁دستءُ	-12.0883
▁cut	-12.0884
▁کمائی	-12.0884
▁بحال	-12.0885
▁لڑائی	-12.0886
▁پتران	-12.089
▁چاڑی	-12.0891
▁بیکار	-12.0893
bo	-12.0893
once	-12.0894
گشئے	-12.0896
▁Hall	-12.0896
عزت	-12.0897
▁authorit	-12.09
دشت	-12.0901
▁درکت	-12.0904
افی	-12.0906
ball	-12.0906
▁نشتیں	-12.0907
[...]
