<pad>	0
<unk>	0
<s>	0
</s>	0
[CLS]	0
[SEP]	0
[MASK]	0
<0x00>	0
<0x01>	0
<0x02>	0
<0x03>	0
<0x04>	0
<0x05>	0
<0x06>	0
<0x07>	0
<0x08>	0
<0x09>	0
<0x0A>	0
<0x0B>	0
<0x0C>	0
<0x0D>	0
<0x0E>	0
<0x0F>	0
<0x10>	0
<0x11>	0
<0x12>	0
<0x13>	0
<0x14>	0
<0x15>	0
<0x16>	0
<0x17>	0
<0x18>	0
<0x19>	0
<0x1A>	0
<0x1B>	0
<0x1C>	0
<0x1D>	0
<0x1E>	0
<0x1F>	0
<0x20>	0
<0x21>	0
<0x22>	0
<0x23>	0
<0x24>	0
<0x25>	0
<0x26>	0
<0x27>	0
<0x28>	0
<0x29>	0
<0x2A>	0
<0x2B>	0
<0x2C>	0
<0x2D>	0
<0x2E>	0
<0x2F>	0
<0x30>	0
<0x31>	0
<0x32>	0
<0x33>	0
<0x34>	0
<0x35>	0
<0x36>	0
<0x37>	0
<0x38>	0
<0x39>	0
<0x3A>	0
<0x3B>	0
<0x3C>	0
<0x3D>	0
<0x3E>	0
<0x3F>	0
<0x40>	0
<0x41>	0
<0x42>	0
<0x43>	0
<0x44>	0
<0x45>	0
<0x46>	0
<0x47>	0
<0x48>	0
<0x49>	0
<0x4A>	0
<0x4B>	0
<0x4C>	0
<0x4D>	0
<0x4E>	0
<0x4F>	0
<0x50>	0
<0x51>	0
<0x52>	0
<0x53>	0
<0x54>	0
<0x55>	0
<0x56>	0
<0x57>	0
<0x58>	0
<0x59>	0
<0x5A>	0
<0x5B>	0
<0x5C>	0
<0x5D>	0
<0x5E>	0
<0x5F>	0
<0x60>	0
<0x61>	0
<0x62>	0
<0x63>	0
<0x64>	0
<0x65>	0
<0x66>	0
<0x67>	0
<0x68>	0
<0x69>	0
<0x6A>	0
<0x6B>	0
<0x6C>	0
<0x6D>	0
<0x6E>	0
<0x6F>	0
<0x70>	0
<0x71>	0
<0x72>	0
<0x73>	0
<0x74>	0
<0x75>	0
<0x76>	0
<0x77>	0
<0x78>	0
<0x79>	0
<0x7A>	0
<0x7B>	0
<0x7C>	0
<0x7D>	0
<0x7E>	0
<0x7F>	0
<0x80>	0
<0x81>	0
<0x82>	0
<0x83>	0
<0x84>	0
<0x85>	0
<0x86>	0
<0x87>	0
<0x88>	0
<0x89>	0
<0x8A>	0
<0x8B>	0
<0x8C>	0
<0x8D>	0
<0x8E>	0
<0x8F>	0
<0x90>	0
<0x91>	0
<0x92>	0
<0x93>	0
<0x94>	0
<0x95>	0
<0x96>	0
<0x97>	0
<0x98>	0
<0x99>	0
<0x9A>	0
<0x9B>	0
<0x9C>	0
<0x9D>	0
<0x9E>	0
<0x9F>	0
<0xA0>	0
<0xA1>	0
<0xA2>	0
<0xA3>	0
<0xA4>	0
<0xA5>	0
<0xA6>	0
<0xA7>	0
<0xA8>	0
<0xA9>	0
<0xAA>	0
<0xAB>	0
<0xAC>	0
<0xAD>	0
<0xAE>	0
<0xAF>	0
<0xB0>	0
<0xB1>	0
<0xB2>	0
<0xB3>	0
<0xB4>	0
<0xB5>	0
<0xB6>	0
<0xB7>	0
<0xB8>	0
<0xB9>	0
<0xBA>	0
<0xBB>	0
<0xBC>	0
<0xBD>	0
<0xBE>	0
<0xBF>	0
<0xC0>	0
<0xC1>	0
<0xC2>	0
<0xC3>	0
<0xC4>	0
<0xC5>	0
<0xC6>	0
<0xC7>	0
<0xC8>	0
<0xC9>	0
<0xCA>	0
<0xCB>	0
<0xCC>	0
<0xCD>	0
<0xCE>	0
<0xCF>	0
<0xD0>	0
<0xD1>	0
<0xD2>	0
<0xD3>	0
<0xD4>	0
<0xD5>	0
<0xD6>	0
<0xD7>	0
<0xD8>	0
<0xD9>	0
<0xDA>	0
<0xDB>	0
<0xDC>	0
<0xDD>	0
<0xDE>	0
<0xDF>	0
<0xE0>	0
<0xE1>	0
<0xE2>	0
<0xE3>	0
<0xE4>	0
<0xE5>	0
<0xE6>	0
<0xE7>	0
<0xE8>	0
<0xE9>	0
<0xEA>	0
<0xEB>	0
<0xEC>	0
<0xED>	0
<0xEE>	0
<0xEF>	0
<0xF0>	0
<0xF1>	0
<0xF2>	0
<0xF3>	0
<0xF4>	0
<0xF5>	0
<0xF6>	0
<0xF7>	0
<0xF8>	0
<0xF9>	0
<0xFA>	0
<0xFB>	0
<0xFC>	0
<0xFD>	0
<0xFE>	0
<0xFF>	0
▁ء	-2.13315
▁کہ	-4.07132
▁انت	-4.16348
,	-4.32241
ء	-4.77496
▁اے	-4.79594
▁ات	-4.88799
▁,	-4.94331
▁نہ	-4.97631
▁وتی	-5.02182
▁چہ	-5.12708
▁۔	-5.21953
▁من	-5.24049
▁یک	-5.30177
▁ائی	-5.30636
▁	-5.32104
▁ا	-5.38021
▁انت۔	-5.41149
▁بیت	-5.43721
▁کنگ	-5.49811
▁گوں	-5.50404
▁و	-5.53033
▁بہ	-5.54276
▁پہ	-5.54864
▁(	-5.62404
▁:	-5.6407
انی	-5.66741
اں	-5.6875
ی	-5.73043
یں	-5.7632
▁سر	-5.77453
▁بلوچ	-5.8195
▁بوتگ	-5.82451
ے	-5.82453
▁)	-5.91427
۔	-5.9247
▁.	-5.93166
▁the	-5.96286
▁بلے	-5.99233
▁منی	-6.02765
▁ئے	-6.03244
s	-6.03469
▁کنت	-6.08875
▁ھم	-6.1093
▁تو	-6.11686
▁کتگ	-6.13338
▁بوت	-6.1545
ا	-6.1913
▁بیتگ	-6.21514
▁بے	-6.24195
▁کن	-6.24598
)	-6.24982
▁مردم	-6.25662
▁ئ	-6.27199
.	-6.27492
:	-6.27614
▁بلوچستان	-6.28083
▁ما	-6.29933
▁تہ	-6.37685
▁تہا	-6.38903
▁دیم	-6.395
▁ھمے	-6.39839
▁یا	-6.42637
▁کار	-6.44514
ed	-6.45286
▁پد	-6.45661
▁کت	-6.4572
▁"	-6.4631
▁بلوچی	-6.47007
▁مئے	-6.48952
▁دگہ	-6.49039
▁گپ	-6.52499
▁ہم	-6.53976
▁ات۔	-6.5524
▁’’	-6.56331
▁وت	-6.58547
▁گڑا	-6.61867
▁روچ	-6.6196
▁تئی	-6.62625
▁دو	-6.64923
▁سرا	-6.66535
▁دل	-6.67483
▁of	-6.68905
▁نام	-6.74436
▁رد	-6.74502
▁کے	-6.75306
▁ایت	-6.77442
▁جنگ	-6.79336
▁کرتگ	-6.79497
▁بنت	-6.79783
▁and	-6.80621
▁پدا	-6.81253
▁زبان	-6.81513
▁بیت۔	-6.81937
?	-6.83892
▁ھما	-6.84022
▁باز	-6.84775
▁را	-6.85828
▁اگاں	-6.86653
▁گوشتگ	-6.87125
▁بی	-6.87977
▁پر	-6.88208
▁بازیں	-6.88573
▁چو	-6.89653
‘‘	-6.90311
▁ہما	-6.90674
▁ہمے	-6.91902
▁ایشی	-6.9277
ان	-6.94521
▁دست	-6.94535
▁لوٹ	-6.94946
▁سے	-6.95358
▁اں	-6.96709
▁یے	-6.97819
▁ماں	-6.98098
▁کی	-6.98523
▁تہء	-7.00385
▁in	-7.00899
▁ائیء	-7.0169
ہ	-7.01909
▁to	-7.0214
▁مردمانی	-7.03481
▁مہ	-7.04569
▁نیمگ	-7.06017
▁در	-7.07395
▁میں	-7.07802
▁پاکستانی	-7.09511
▁a	-7.09619
▁ایں	-7.09961
▁چے	-7.10938
▁ھال	-7.12139
▁زند	-7.12638
▁جوڑ	-7.12769
▁کرت	-7.13011
▁دومی	-7.15018
(	-7.15023
▁نبشتہ	-7.155
ن	-7.1644
▁زانت	-7.16664
▁وھد	-7.17193
▁اور	-7.17574
▁ترا	-7.17731
▁دیگ	-7.18203
▁مزنیں	-7.18363
▁سک	-7.18413
▁پوج	-7.18637
▁‘‘	-7.19629
▁دور	-7.19638
▁واجہ	-7.19946
▁اس	-7.20332
▁نوں	-7.2096
▁که	-7.21097
▁گل	-7.21586
...	-7.22052
▁پیش	-7.22901
▁چار	-7.22983
ئے	-7.23
▁بند	-7.23459
▁داتگ	-7.23779
▁دات	-7.24235
!	-7.25114
▁رند	-7.26268
▁ہر	-7.26815
▁خان	-7.27373
▁ایر	-7.29673
ing	-7.30024
▁گیش	-7.30464
▁کنت۔	-7.30631
▁رنگ	-7.31309
▁مردماں	-7.31501
▁ھچ	-7.31644
▁دمگ	-7.32084
▁شپ	-7.33339
▁شنگ	-7.33383
▁زانگ	-7.33467
▁￴	-7.33472
▁نوکیں	-7.338
▁=	-7.33958
▁ھر	-7.3409
▁سال	-7.34573
▁جان	-7.35705
▁ارش	-7.35758
▁داں	-7.36197
▁گوشت	-7.37675
▁مارا	-7.38571
▁کنان	-7.38788
▁سرء	-7.38807
▁کا	-7.39183
▁کتاب	-7.39237
▁اپ	-7.39433
▁کس	-7.39508
▁اللہ	-7.396
▁جست	-7.40936
▁راج	-7.42062
▁نیست	-7.43452
ئ	-7.44313
▁جاہ	-7.45123
▁بوتگ۔	-7.45177
▁راہ	-7.46729
▁اوار	-7.46881
▁اش	-7.47141
▁گوش	-7.47306
▁وش	-7.47359
ت	-7.47615
▁میر	-7.4777
▁ہے	-7.48014
▁ایش	-7.48824
”	-7.49082
y	-7.49638
▁ھوار	-7.49867
’’	-7.50528
▁گیشتر	-7.50876
▁گوشگ	-7.51246
▁ایانی	-7.51429
▁دنیا	-7.52153
▁لوگ	-7.52153
▁کم	-7.5221
▁لشکر	-7.5226
▁”	-7.54013
▁او	-7.54269
▁توار	-7.54743
▁سی	-7.548
▁کو	-7.55639
▁اتگ	-7.55731
▁اولی	-7.57157
گ	-7.57234
▁اوں	-7.57483
▁مان	-7.57849
▁'	-7.5931
▁وھدے	-7.59568
"	-7.59867
ین	-7.60395
▁وڑ	-7.61019
▁گندگ	-7.61219
وں	-7.61509
▁بیگواہ	-7.61991
▁گوستگیں	-7.62058
▁جتگ	-7.62482
▁“	-7.62994
و	-7.63596
▁یکے	-7.63946
▁چک	-7.64344
▁کش	-7.65115
▁بوگ	-7.66433
▁بزاں	-7.66609
▁دار	-7.6715
▁بس	-7.67354
▁دوست	-7.67429
▁گشت	-7.67555
▁was	-7.67908
▁وڑیں	-7.68647
▁گشتگ	-7.69053
▁پاکستان	-7.69676
▁لبزانک	-7.70042
▁چم	-7.70136
▁بلئے	-7.70668
▁بلکیں	-7.70905
▁ماہ	-7.7162
▁گون	-7.71919
▁برجاہ	-7.71953
▁گ	-7.72132
@	-7.72492
▁چیزے	-7.72516
▁ھست	-7.73112
▁درشان	-7.73232
▁@	-7.73461
▁دیما	-7.74083
▁مردمے	-7.74386
▁اچ	-7.74694
▁اتکگ	-7.75032
▁ابید	-7.75144
▁چیز	-7.75494
▁زور	-7.75736
▁محمد	-7.76302
▁مروچی	-7.76559
▁وانگ	-7.7689
▁بن	-7.77946
▁پشت	-7.78488
▁کسے	-7.79664
ک	-7.80067
▁شاعری	-7.80233
▁شال	-7.80403
▁زمین	-7.8043
▁بیتگیں	-7.81423
▁چشکہ	-7.81977
▁The	-7.82119
▁ائرا	-7.82303
▁سرپد	-7.82451
▁￵	-7.82508
▁بیران	-7.82921
▁اتک	-7.82963
▁بدل	-7.8305
▁سرجمیں	-7.8305
▁ن	-7.83087
▁بندات	-7.83155
▁ازمانک	-7.83305
▁منا	-7.83485
▁دنت	-7.83542
▁زھرشانی	-7.83682
▁سوب	-7.83739
▁کر	-7.83752
نگ	-7.84123
▁مات	-7.84601
▁مزن	-7.84863
▁ان	-7.85009
▁ملک	-7.85073
▁راجی	-7.85081
▁اتنت	-7.85682
▁مدام	-7.85739
▁انگت	-7.85946
▁مراد	-7.86366
▁تر	-7.86437
▁دی	-7.86551
▁مرچی	-7.87229
-	-7.87453
▁چست	-7.87477
▁دارگ	-7.87786
▁ھیال	-7.88021
▁ڈاکٹر	-7.8823
▁[...]	-7.88371
▁بنت۔	-7.88801
▁پچ	-7.89024
▁کناں	-7.89278
▁شر	-7.89322
▁سیاسی	-7.89743
▁پاد	-7.89814
من	-7.89841
▁میان	-7.89868
▁برے	-7.89893
▁انچیں	-7.90111
▁کپتگ	-7.90603
▁انسان	-7.90764
▁دیوان	-7.91203
▁پی	-7.91533
▁واب	-7.92102
▁نے	-7.926
▁ہچ	-7.92955
▁کشگ	-7.93384
▁کدی	-7.93451
▁بوت۔	-7.93495
▁تاں	-7.93618
▁حیال	-7.93665
▁این	-7.93889
ly	-7.93929
▁انچو	-7.94011
▁است	-7.94381
▁بوتگیں	-7.95185
اے	-7.95196
▁ئیں	-7.95882
▁مرد	-7.959
▁شت	-7.96865
▁کسہ	-7.97235
▁ادا	-7.97612
ائی	-7.97716
▁کجام	-7.98113
▁رجانک	-7.98401
▁پٹ	-7.98452
▁سلاہ	-7.98587
▁بہر	-7.99228
▁شما	-7.9949
▁زر	-7.99843
▁ایاں	-8.00197
▁پت	-8.00755
▁سبب	-8.01522
▁دروشم	-8.01748
▁کراچی	-8.02522
▁چی	-8.02719
▁پرچا	-8.029
▁جتا	-8.0291
▁کمک	-8.03112
▁گور	-8.03934
▁جتائیں	-8.04144
▁بر	-8.04697
‘	-8.04732
▁ملا	-8.05129
کہ	-8.05523
▁جارکش	-8.05617
نت	-8.05648
▁جند	-8.05748
▁گڈا	-8.06664
▁سرجم	-8.06987
▁گار	-8.07312
▁پولیس	-8.0745
▁دپ	-8.07561
▁یل	-8.07836
▁as	-8.07951
▁چه	-8.08014
▁ایوک	-8.08058
▁ایشانی	-8.08101
▁that	-8.08168
▁اباد	-8.08459
▁تران	-8.08834
▁with	-8.09758
▁on	-8.09772
▁پنچ	-8.1003
▁مرگ	-8.10468
▁کجا	-8.11239
▁حال	-8.11659
▁for	-8.11716
▁گاڑی	-8.11729
ں	-8.12035
▁چاگرد	-8.12256
▁?	-8.12495
▁زندء	-8.12575
▁اجوئی	-8.12779
▁بابت	-8.13148
▁برتگ	-8.13728
▁کتگ۔	-8.1422
▁ایل	-8.14424
ر	-8.15034
▁شھر	-8.15189
ات	-8.15249
▁بھر	-8.15255
م	-8.15764
▁کیچ	-8.15895
▁بیان	-8.1599
▁واستا	-8.16172
▁پیسر	-8.16706
▁نزیک	-8.16949
▁چیر	-8.17169
▁کرتگ۔	-8.17309
▁انسانی	-8.17318
▁اسر	-8.17756
▁بیگ	-8.1826
▁کت۔	-8.18371
▁شاہ	-8.18632
▁دراھیں	-8.18845
▁راست	-8.19161
▁پوسٹ	-8.19181
▁ایک	-8.19282
▁جت	-8.19968
▁کپ	-8.20107
▁زندگ	-8.20531
▁الم	-8.20691
▁نا	-8.21541
▁سید	-8.22229
▁جھد	-8.22313
▁جن	-8.22446
▁اتاں	-8.22498
▁وہد	-8.22612
▁کارمرز	-8.22658
▁ترس	-8.22689
▁by	-8.23169
▁میتگ	-8.23273
▁جنین	-8.2328
▁لیکہ	-8.23637
▁!	-8.23666
▁ودی	-8.24205
▁بیست	-8.24539
▁بیا	-8.24618
▁بکن	-8.24663
▁زندگی	-8.24698
انت	-8.24878
▁چون	-8.24994
▁گشگ	-8.25028
▁چریشی	-8.251
▁سنگت	-8.25176
▁روگ	-8.25492
▁پیم	-8.25713
▁ھاتر	-8.25978
▁زورانسری	-8.26217
▁پجار	-8.26239
▁کیت	-8.26771
▁یات	-8.26788
▁is	-8.27072
▁گر	-8.27428
▁اود	-8.27534
▁برز	-8.27607
▁گپت	-8.27652
▁بندیں	-8.27767
ل	-8.27934
▁راستی	-8.2804
▁کپت	-8.2805
▁اہانی	-8.28172
▁گوادر	-8.28235
▁شہ	-8.28658
▁جہد	-8.28774
▁چارگ	-8.29737
▁مہر	-8.29906
▁دوئیں	-8.29927
▁درد	-8.30204
▁ڈی	-8.30407
▁ٹی	-8.30446
▁تیرگواری	-8.30502
▁اشی	-8.30517
▁واری	-8.30582
▁نشتگ	-8.30748
▁کسانیں	-8.30892
▁be	-8.31099
▁￶	-8.31127
e	-8.31149
▁ایم	-8.31232
▁نشانگ	-8.31308
▁دیست	-8.32379
▁ھالانی	-8.32391
▁وڑا	-8.32673
▁ادم	-8.3279
▁وئیل	-8.33022
▁درگت	-8.3303
▁برات	-8.3308
▁تربت	-8.33124
▁مستریں	-8.33834
▁چوش	-8.34473
▁منء	-8.3452
▁وھدیکہ	-8.35072
▁شریں	-8.35104
▁تاوان	-8.36244
▁شاعر	-8.36432
۔۔۔	-8.36802
▁پدر	-8.36887
▁گرگ	-8.36964
▁برگ	-8.37065
▁کساس	-8.3758
▁’	-8.3759
“	-8.37838
ه	-8.3791
▁ے	-8.37956
▁په	-8.38052
▁ہیں	-8.38747
’	-8.38756
▁جوانیں	-8.38786
▁ھند	-8.3902
▁بیتگ۔	-8.3909
▁زمانگ	-8.39203
▁تب	-8.39293
▁ساری	-8.39523
▁کوہ	-8.39548
▁نی	-8.39609
▁ار	-8.39891
▁زمہ	-8.40443
▁داد	-8.40575
▁سد	-8.40718
▁ارگ	-8.41006
▁داریت	-8.41046
▁سرکار	-8.41171
▁ورنا	-8.41491
▁علی	-8.41623
d	-8.41693
▁ملکی	-8.42144
▁کنگء	-8.42476
▁ہے۔	-8.42663
▁سما	-8.42773
▁بلکنا	-8.42939
▁وہدے	-8.42989
▁کنوکیں	-8.43661
▁کاری	-8.43882
▁؂	-8.44105
▁روان	-8.44216
▁کئے	-8.44255
▁شعر	-8.44704
▁دیر	-8.44896
▁شتگ	-8.45366
▁یہ	-8.45507
▁تک	-8.45535
▁اسلام	-8.45549
▁گپتگ	-8.45618
▁یلہ	-8.45738
▁اد	-8.45919
▁زان	-8.45935
▁نبشتانک	-8.45944
▁بنی	-8.46067
▁جی	-8.46082
▁چاپ	-8.46158
▁زرتگ	-8.4623
▁چشیں	-8.46442
▁وزیر	-8.46672
▁جنت	-8.46685
▁زاناں	-8.47269
▁چاگردی	-8.47504
▁دلگوش	-8.47524
▁کارے	-8.47751
▁نیم	-8.47785
ش	-8.48041
▁پل	-8.48057
▁جو	-8.48333
▁کتگیں	-8.48349
▁جنک	-8.48364
▁داشت	-8.48398
▁بازار	-8.48408
▁سیادی	-8.4856
▁پول	-8.48614
▁ناں	-8.48708
▁اھانی	-8.48984
▁هم	-8.49084
▁ھبر	-8.49141
▁دلء	-8.49213
▁لچہ	-8.49271
▁نوک	-8.49432
▁ورگ	-8.49528
ز	-8.49611
▁روچے	-8.49718
▁سردار	-8.49787
▁شش	-8.4991
▁بھی	-8.49938
▁سرمچاراں	-8.4995
▁گڈی	-8.50252
▁گران	-8.50521
▁تھا	-8.50846
▁ایس	-8.51104
▁کاروان	-8.5118
یت	-8.51472
▁جیڑہ	-8.5197
▁ھمک	-8.52199
▁کرتگیں	-8.52356
▁جاگہ	-8.52518
▁ٹپی	-8.52534
▁اردو	-8.52589
▁ایت۔	-8.52738
نہ	-8.52765
▁لس	-8.53512
▁دگ	-8.5362
▁ھمیش	-8.53737
▁بوھگ	-8.53847
▁from	-8.5398
▁کھول	-8.54124
▁کل	-8.54235
▁ھلاپ	-8.54501
▁نیمگا	-8.54659
▁زہرشانی	-8.548
▁ایران	-8.54843
▁تا	-8.54856
▁شیر	-8.55
▁گس	-8.55452
▁ایرانی	-8.5566
▁گمان	-8.55733
▁وہ	-8.55909
س	-8.56012
▁ھاترا	-8.56028
▁مارشت	-8.56072
▁دیمء	-8.56248
▁بچار	-8.56668
▁وار	-8.56669
▁ازم	-8.56725
▁کرد	-8.56726
▁کور	-8.56937
▁چماں	-8.57037
▁اہاں	-8.57238
▁اماچ	-8.57373
▁سروک	-8.5757
▁لبز	-8.57658
▁راجدپتر	-8.5811
▁گش	-8.58142
▁رو	-8.58222
▁کنیں	-8.58575
چہ	-8.58582
▁مھلوک	-8.58786
▁رس	-8.59047
▁لہتیں	-8.59065
▁باریں	-8.59156
▁ردء	-8.59193
▁بد	-8.59209
▁دیستگ	-8.5923
▁پس	-8.59395
▁لوٹیت	-8.59423
▁his	-8.59892
▁ھلاس	-8.59967
▁گورا	-8.60016
▁دژمن	-8.60083
▁گال	-8.60192
▁درا	-8.6052
▁بنجاھی	-8.60773
وتی	-8.60863
▁بوان	-8.61649
بلے	-8.61963
▁تاک	-8.62038
▁at	-8.6223
▁دہ	-8.62705
▁بار	-8.62734
▁دئیگ	-8.62928
▁درست	-8.63094
▁ڈن	-8.63134
▁دزگیر	-8.63597
▁جاور	-8.63828
▁بو	-8.64232
▁گند	-8.64351
▁نیام	-8.64739
▁احمد	-8.64974
▁گوات	-8.65141
▁رسول	-8.65336
▁بیگواھیں	-8.65544
▁پنجگور	-8.65604
▁ہوار	-8.65903
▁زدگ	-8.6598
▁لبزانکی	-8.66612
▁کشتگ	-8.66827
یک	-8.66844
▁ایشیء	-8.66889
▁پسو	-8.66943
▁زوت	-8.67032
▁بگیری	-8.67426
▁ایشاں	-8.6747
▁مال	-8.67825
▁کلات	-8.67851
▁الله	-8.67868
▁واستہ	-8.68064
▁لٹ	-8.68135
▁لگ	-8.68208
▁کٹ	-8.6834
......	-8.68607
▁کوش	-8.68896
▁باں	-8.69232
▁کمیٹی	-8.69476
▁ت	-8.69514
▁وھدی	-8.70029
تو	-8.70336
▁یکیں	-8.70463
▁مہلوک	-8.70726
یا	-8.70732
▁جون	-8.70743
▁لبریش	-8.70759
▁وتا	-8.71125
▁شہر	-8.713
;	-8.71519
▁گپے	-8.72328
▁بلوچانی	-8.72632
▁جہل	-8.72762
▁چوں	-8.73205
..	-8.73608
▁کوئٹہ	-8.7364
▁were	-8.73766
▁نہیں	-8.73982
▁بندی	-8.74146
▁بخش	-8.74501
▁ساہ	-8.74878
▁توک	-8.75074
▁ایدگہ	-8.75095
▁نودربر	-8.75118
▁بکنت	-8.75126
▁ریاست	-8.75184
▁روچاں	-8.75198
انء	-8.7535
▁علم	-8.7574
سگ	-8.75774
▁بنجل	-8.76348
▁عمل	-8.7656
▁داشتگ	-8.76747
▁المی	-8.77008
▁رنگیں	-8.77034
▁زالبول	-8.77294
▁لاش	-8.77396
▁کچ	-8.7752
▁ک	-8.77656
▁وتء	-8.77712
▁بال	-8.77885
▁کشی	-8.77915
▁دمگاں	-8.77936
▁شھید	-8.7794
▁تچک	-8.77955
▁it	-8.77962
▁پمیشا	-8.78204
▁ساحر	-8.78354
▁‘	-8.78473
▁حکومت	-8.78553
▁کنگی	-8.78704
▁تاکدیم	-8.78713
▁نه	-8.78869
▁زوراکی	-8.792
▁زرت	-8.79461
▁ایف	-8.79557
▁دمگی	-8.80088
▁ناشناسیں	-8.80105
▁سیاہ	-8.80137
▁پیداک	-8.80415
▁رسانکدر	-8.80457
▁دے	-8.80618
▁سرکاری	-8.80641
▁عمر	-8.80765
▁گچین	-8.8099
▁گیر	-8.8113
▁م	-8.81143
▁جار	-8.81222
▁اھاں	-8.81245
▁بچ	-8.81343
▁وشی	-8.81472
▁قوم	-8.81527
▁ال	-8.81612
▁کاراں	-8.81785
▁بات	-8.81788
▁ہو	-8.81851
▁سئے	-8.82228
▁روت	-8.82472
▁استاد	-8.82478
▁انی	-8.82698
▁روکپتی	-8.82898
▁پمیشکا	-8.82922
پہ	-8.83137
▁درستیں	-8.83162
▁کارانی	-8.83208
▁چمانی	-8.83388
▁باسک	-8.834
▁اودا	-8.83411
زورگریں	-8.83435
▁سیاست	-8.83538
▁ھزار	-8.83726
منی	-8.83758
▁کئیت	-8.83772
▁ازات	-8.84003
▁اشانی	-8.8405
▁بل	-8.84203
▁ٹک	-8.84615
▁""	-8.84866
▁نیمگء	-8.85018
▁تیر	-8.85137
ما	-8.85157
t	-8.85321
▁مکران	-8.85355
▁وسلم	-8.85376
▁چیا	-8.854
▁ڈول	-8.85493
▁دنیاء	-8.85518
▁ئی	-8.85729
▁پیر	-8.8575
▁دانکہ	-8.85999
▁درائیں	-8.85999
▁مھر	-8.86204
▁کیا	-8.86477
▁بستگ	-8.86629
▁کہول	-8.86947
▁سفر	-8.87011
▁پریس	-8.87109
▁شمئے	-8.87151
▁صاحب	-8.87156
▁ھدا	-8.87165
د	-8.87169
▁گدار	-8.87211
▁فلسفہ	-8.87441
▁درور	-8.87714
▁زھگ	-8.87867
▁سرپدی	-8.87909
▁زورگ	-8.88338
▁امیت	-8.88548
▁شائری	-8.88624
▁چش	-8.88661
▁تاریخ	-8.88729
▁پیلو	-8.88839
▁In	-8.89103
▁واتر	-8.89237
▁دوستی	-8.89238
▁نند	-8.89536
▁تہنا	-8.90031
▁چپ	-8.90137
▁چیریں	-8.90166
▁سنگ	-8.90214
▁کسی	-8.90434
▁he	-8.90624
▁ئے۔	-8.90777
▁دود	-8.90983
▁۔۔۔	-8.91071
▁کنوک	-8.91096
سر	-8.9123
▁گشیت	-8.91255
▁شری	-8.91305
▁ہست	-8.91363
▁حق	-8.91434
▁اکیڈمی	-8.91489
▁گیشیں	-8.91566
▁ھور	-8.91579
▁ادء	-8.91613
▁وشیں	-8.91659
▁وارت	-8.91693
بلوچی	-8.91744
▁پروش	-8.91823
▁واھگ	-8.91961
▁an	-8.91976
▁شوھاز	-8.91995
نی	-8.92046
▁بانک	-8.92054
....	-8.92185
▁کننت	-8.9223
▁ہند	-8.92313
▁مار	-8.92611
al	-8.92657
▁بنا	-8.9266
▁کسان	-8.92665
▁ایگ	-8.9284
▁مند	-8.92898
▁چل	-8.93342
▁ارمی	-8.93354
▁ھساب	-8.93363
▁نبشتگ	-8.93434
▁بزانت	-8.93627
▁حدا	-8.94001
▁نسبت	-8.9401
یء	-8.9405
▁نشان	-8.94374
▁دین	-8.94431
▁تانکہ	-8.94626
er	-8.94822
▁اتنت۔	-8.94836
▁مٹ	-8.94898
▁معنا	-8.94968
▁گوازی	-8.95275
▁بوئگ	-8.95391
▁به	-8.95711
بہ	-8.95794
ب	-8.9602
▁بیڑ	-8.96097
▁استمانی	-8.96371
▁مری	-8.96394
▁دم	-8.96556
▁بندوک	-8.9658
▁لاپ	-8.96721
▁مچی	-8.96812
▁اف	-8.969
▁جنان	-8.97087
گوں	-8.97373
غ	-8.97623
نا	-8.97722
▁حساب	-8.98093
▁مچ	-8.9829
▁چونیں	-8.98334
ێں	-8.98361
▁پگر	-8.98433
▁had	-8.98471
▁مانا	-8.986
▁ہمیش	-8.98651
▁بگر	-8.98826
▁گم	-8.98895
▁سپر	-8.98975
▁چوشیں	-8.98999
ےء	-8.9909
▁ہی	-8.99152
▁دیمروئی	-8.99153
▁برت	-8.99326
▁کنئگ	-8.99639
▁ادارہ	-8.9965
▁سیمی	-8.99689
▁ٹولی	-8.99954
▁ادب	-8.99986
▁برجم	-9.00124
▁نان	-9.00229
▁کشت	-9.00236
▁ہمک	-9.00321
▁مرتگ	-9.00383
▁ارزشت	-9.00429
▁ر	-9.00445
▁;	-9.00722
▁پکر	-9.00845
▁باروا	-9.00905
▁انچش	-9.01087
▁درستاں	-9.01147
▁کنگا	-9.01388
▁د	-9.01416
▁which	-9.01752
▁قصہ	-9.01788
▁ھشت	-9.01895
▁کارمند	-9.02021
▁بگٹی	-9.02085
▁نندانک	-9.02095
▁هما	-9.02217
▁حبر	-9.02411
▁چاران	-9.02478
▁پارٹی	-9.02621
▁فاضل	-9.02748
▁کماش	-9.02831
▁گپاں	-9.02872
▁گوست	-9.02886
▁ردا	-9.02945
▁ازمان	-9.04125
▁دیان	-9.0413
▁بنیاد	-9.04351
▁سنگتاں	-9.04358
▁گٹ	-9.04737
▁ساڑی	-9.0538
▁دنت۔	-9.05836
▁تراک	-9.05884
▁قاضی	-9.05984
▁نامیں	-9.06116
▁ایں۔	-9.06167
▁ی	-9.06185
ار	-9.06245
▁بیگواہیں	-9.06277
▁جنی	-9.0645
▁دراج	-9.06462
▁یکجاہ	-9.06508
▁روک	-9.0655
▁نشت	-9.06616
▁دستونک	-9.06618
▁س	-9.06625
▁بوتیں	-9.07028
▁بمب	-9.07182
▁ناز	-9.07231
▁میجر	-9.07262
▁اھت	-9.0742
▁دروازگ	-9.07844
▁باور	-9.07941
▁منت	-9.07942
▁دری	-9.07949
▁دمان	-9.07975
▁هر	-9.07982
▁ہیں۔	-9.08003
▁فارسی	-9.08254
▁کارء	-9.08471
▁همے	-9.08726
▁رستگ	-9.08985
▁جھمنند	-9.09018
▁وسیلہ	-9.09036
▁نظام	-9.09102
▁غلام	-9.09178
▁بئے	-9.09239
▁شرگداری	-9.09362
▁میار	-9.09406
▁رنگے	-9.09702
▁صل	-9.09738
▁ہ	-9.09785
▁اودء	-9.10146
▁کپیت	-9.10151
▁مکن	-9.10151
▁کمے	-9.10406
▁لھتے	-9.10482
▁پیدا	-9.10517
▁سلامتی	-9.10772
تہ	-9.10981
▁سیر	-9.11109
▁نادراہ	-9.11338
▁چینل	-9.11426
▁باید	-9.11441
▁عليه	-9.11579
▁جنگی	-9.1195
▁جندء	-9.12008
▁بستار	-9.12058
▁حمل	-9.12098
کی	-9.1232
▁حسین	-9.12358
▁وانوک	-9.12361
بے	-9.12616
▁کرا	-9.12633
▁گپء	-9.1276
▁دراہ	-9.12843
▁نندوک	-9.13219
▁بادشاہ	-9.13299
▁حسن	-9.13314
▁وڑے	-9.13448
es	-9.13593
▁اکس	-9.13645
n	-9.13676
▁ساز	-9.13811
▁دات۔	-9.14262
▁سوار	-9.14266
▁A	-9.14441
▁دراجیں	-9.14456
▁دز	-9.14472
▁ہزار	-9.14734
▁ازاتی	-9.15066
▁داری	-9.15261
▁ایان	-9.15323
▁ناکو	-9.15542
▁یار	-9.15571
▁ھمراہ	-9.15606
▁اثر	-9.16004
th	-9.16038
▁مں	-9.1608
▁شک	-9.16249
▁شئیر	-9.16302
▁وتارا	-9.16674
▁تیاب	-9.16755
▁چاکر	-9.16765
▁عکس	-9.17006
▁وھدء	-9.17024
▁بیرم	-9.17045
▁موسم	-9.1718
▁درچک	-9.17243
▁جاھے	-9.17297
▁اجو	-9.17298
▁دریا	-9.173
▁منزل	-9.17344
▁رامین	-9.17526
▁ترندیں	-9.17616
تگ	-9.17661
▁تریں	-9.17864
کار	-9.17934
▁are	-9.18017
▁بنداتی	-9.1811
▁داتگ۔	-9.18216
▁19	-9.18239
▁ڈیھ	-9.18265
▁نیکہ	-9.18368
▁کارست	-9.18448
▁ھپت	-9.18473
▁لوٹاں	-9.18522
▁سکیں	-9.18666
▁اڈ	-9.18755
▁انگریزی	-9.19004
...!	-9.19076
▁منیر	-9.19297
▁گوشیت	-9.19369
▁زبانء	-9.1939
▁بونگ	-9.19417
▁بندگ	-9.19432
▁امریکہ	-9.19477
▁کوٹی	-9.1954
▁٭	-9.19684
▁پرچے	-9.19709
▁یونیورسٹی	-9.19806
▁پیما	-9.1981
▁پوجی	-9.20021
▁اسکول	-9.2022
▁بیگاہ	-9.20277
▁پسہ	-9.20362
▁ھو	-9.20556
▁نو	-9.2073
▁لھتیں	-9.20817
▁کتہ	-9.20898
▁مبارک	-9.21113
▁کرت۔	-9.21163
▁گام	-9.21215
▁مھمد	-9.21219
▁نور	-9.21248
▁شمبے	-9.21487
▁اپنے	-9.21551
▁جہان	-9.21702
بی	-9.21703
▁اندر	-9.21703
▁ڈگار	-9.21977
▁ناول	-9.21993
▁شاد	-9.22067
▁چین	-9.22073
▁ریاستی	-9.22309
▁سندھ	-9.22495
▁جنز	-9.22659
▁بارو	-9.2269
▁اں۔	-9.22764
▁بنکی	-9.22991
▁درچ	-9.23063
▁بست	-9.2311
▁ندارگ	-9.23142
▁داتگیں	-9.23436
▁بدن	-9.23474
▁فیصلہ	-9.23486
▁منگ	-9.23498
گی	-9.23532
▁تاب	-9.23735
▁اب	-9.23777
▁نادراھی	-9.23806
▁تھنا	-9.23839
▁جاھاں	-9.23847
ئیں	-9.24063
▁بکش	-9.24087
▁کچے	-9.24118
▁ایشرا	-9.2416
ال	-9.24189
▁مالی	-9.24216
▁ودار	-9.24286
▁دیمروی	-9.24351
▁پاک	-9.24404
▁شائر	-9.24557
▁اول	-9.24658
▁ارس	-9.24666
▁گوشاں	-9.24708
▁اوشتاتگ	-9.24881
▁بنگپ	-9.24907
▁بدلی	-9.24908
ری	-9.24992
▁فکر	-9.25016
▁جوان	-9.25017
▁تکنیک	-9.25026
▁بندیگ	-9.25188
▁ھون	-9.25372
▁مردے	-9.25677
بلوچ	-9.25807
▁رنگء	-9.25988
▁راستیں	-9.26026
▁دستء	-9.26061
▁تیار	-9.26205
▁وس	-9.26228
▁کاینت	-9.26419
▁ای	-9.26455
▁دستاں	-9.26491
?‘‘	-9.26508
▁مراگش	-9.26606
▁پیمیں	-9.26623
▁اگر	-9.26732
▁زرد	-9.26885
▁گیشتریں	-9.27106
▁برو	-9.27129
ٹ	-9.27162
▁کاروبار	-9.27212
▁نصیر	-9.27288
ئی	-9.27328
▁نیشنل	-9.27349
▁انچوش	-9.27451
▁گامگیج	-9.27457
را	-9.27581
▁اکبر	-9.27736
▁سوج	-9.27831
▁قومی	-9.27913
▁خدا	-9.27989
▁کلیں	-9.2803
▁پڑ	-9.28108
▁نماز	-9.28136
▁البت	-9.28593
▁رھبند	-9.28615
▁درشانی	-9.28619
▁جواب	-9.28689
▁مول	-9.29252
▁خیال	-9.29283
▁بالی	-9.29305
▁ویل	-9.2946
نت۔	-9.29602
▁بہا	-9.2962
▁داب	-9.29629
▁وجود	-9.29877
▁صورت	-9.29944
▁نمدی	-9.30043
▁گشئے	-9.30071
▁ببیت	-9.30083
▁مئی	-9.30342
▁بلوچستانء	-9.30422
▁اصل	-9.30602
▁شمارا	-9.30667
ھ	-9.30821
▁کشک	-9.30855
▁با	-9.30867
▁بابتء	-9.3094
▁پاس	-9.31168
▁their	-9.31242
▁پرس	-9.31323
▁سائنس	-9.31399
▁گنگ	-9.31429
▁کریم	-9.3164
▁لہتے	-9.31677
▁بوہگ	-9.31766
▁but	-9.31824
▁ئیگ	-9.31874
a	-9.31942
▁دئے	-9.31989
▁کلب	-9.32004
▁عزت	-9.32171
▁شاری	-9.32313
▁وائس	-9.32794
▁not	-9.32823
▁دپتر	-9.32886
▁......	-9.33124
▁ماس	-9.33241
‘‘(	-9.33453
ێن	-9.33461
▁کوھنیں	-9.33906
▁مستونگ	-9.34047
پ	-9.34075
▁تنے	-9.34082
▁ارواہ	-9.34216
▁روچء	-9.34345
▁پدء	-9.34357
▁مولانا	-9.34362
▁وان	-9.34477
▁شہید	-9.34552
▁چٹ	-9.34573
▁first	-9.34584
ڈ	-9.34683
▁چیزانی	-9.34688
▁نیست۔	-9.34833
▁تالان	-9.34997
▁رسیت	-9.35116
▁درشانے	-9.35133
▁لوگء	-9.35178
۔۔۔۔	-9.35318
ج	-9.35452
▁ھکانی	-9.35505
▁یاد	-9.35619
▁کیس	-9.35725
وک	-9.35783
▁اشاں	-9.36028
▁پرچاکہ	-9.36187
st	-9.36349
▁سہب	-9.36457
▁جھان	-9.36603
▁عطا	-9.3665
▁گوستگ	-9.36661
▁باندا	-9.36743
▁لیب	-9.36813
▁ایپ	-9.36828
▁نامداریں	-9.3692
تی	-9.36927
▁کئی	-9.37025
ies	-9.3708
▁مارچ	-9.37124
▁زانتکار	-9.37173
▁بگیر	-9.37285
▁بامن	-9.37563
▁نبیسگ	-9.3769
نے	-9.37989
▁امان	-9.38016
ون	-9.38053
▁ھمراھی	-9.38081
▁باندات	-9.38102
▁ھب	-9.38231
کے	-9.38374
▁تمپ	-9.38384
▁ارام	-9.38533
▁سزا	-9.38586
▁چوکہ	-9.38588
▁بوتاں	-9.38668
▁رپورٹ	-9.38724
▁امیدگس	-9.38838
▁پھر	-9.38869
▁چھاپ	-9.38904
▁شے	-9.39135
▁جانی	-9.39144
▁وی	-9.39198
▁از	-9.39231
▁ندر	-9.39249
▁ستک	-9.39377
▁or	-9.3939
▁گلام	-9.39404
▁دورء	-9.39412
▁سرمایہ	-9.39467
▁پیسلہ	-9.39789
▁مدت	-9.39993
▁ازاد	-9.39995
▁ماہی	-9.40029
▁زیر	-9.4008
▁چاریں	-9.40343
▁کمیں	-9.40387
▁ساچشت	-9.40851
▁جس	-9.40886
وکیں	-9.40916
▁ب	-9.4111
▁کارندہ	-9.41151
▁...	-9.41182
▁ادبی	-9.41234
▁غم	-9.41275
▁اھتگ	-9.41332
▁بارت	-9.41386
▁سھب	-9.41408
▁انکہ	-9.41429
also	-9.41512
▁نز	-9.41529
بلوچستان	-9.41558
▁بوتنت	-9.41587
▁اھوالانی	-9.41611
▁ھرچ	-9.41639
▁ونتگ	-9.41658
گیں	-9.41734
▁رست	-9.41803
▁وہدء	-9.41865
▁بچک	-9.41895
▁ترقی	-9.41955
▁روزگار	-9.42054
▁ردوم	-9.42108
ھم	-9.42156
▁انکس	-9.42202
▁میل	-9.42288
▁تها	-9.42288
▁عربی	-9.42378
▁تنی	-9.42406
▁her	-9.42485
▁مالیات	-9.42509
▁کردار	-9.42673
▁جوانی	-9.42745
▁its	-9.4277
▁درمان	-9.43061
▁ہلاس	-9.43149
▁دروگ	-9.43178
▁ربیدگ	-9.43296
l	-9.43449
▁ھک	-9.43459
واجہ	-9.4355
▁نامی	-9.43693
▁ور	-9.43729
▁وارتگ	-9.44036
▁ہور	-9.44111
▁ائے	-9.44185
▁دراہیں	-9.44307
▁مر	-9.4464
▁کپگ	-9.44731
▁گرم	-9.44775
▁دیمتر	-9.45118
▁نزور	-9.45123
▁بنگیج	-9.45282
▁گیشی	-9.45375
▁سند	-9.45429
دو	-9.4552
▁اپنی	-9.45543
▁پرچہ	-9.45568
▁کمو	-9.45746
▁سالی	-9.45874
▁ذات	-9.46197
▁جاورانی	-9.46223
▁زانتگ	-9.46332
▁رھشون	-9.46439
▁وھداں	-9.46492
▁نسل	-9.46781
▁اڑ	-9.46786
▁بیگواہی	-9.46788
▁نواب	-9.46854
▁تی	-9.47075
▁جاوراں	-9.47081
تر	-9.47089
▁نمبر	-9.47245
▁گیس	-9.47357
▁فار	-9.47496
▁مثال	-9.4753
▁گراں	-9.47871
▁ساھت	-9.47881
▁بولان	-9.47923
▁زلم	-9.47993
▁دشت	-9.48058
تا	-9.48317
o	-9.48383
▁نھ	-9.48552
▁اواران	-9.48555
▁سازی	-9.48635
▁بالاد	-9.48767
▁چیزاں	-9.48831
دار	-9.48922
می	-9.48936
▁رواں	-9.4898
▁شکار	-9.49025
▁have	-9.49104
▁شور	-9.49107
▁زبانانی	-9.49119
▁سلام	-9.49324
▁گو	-9.49586
▁چراگ	-9.49599
▁He	-9.49681
▁طرح	-9.49848
▁one	-9.49967
▁مسنگ	-9.49977
▁ہمراہ	-9.49996
▁دیاں	-9.50024
▁لیکن	-9.50039
▁نظر	-9.50059
▁سیل	-9.50175
▁زہگ	-9.50231
▁ماما	-9.50263
▁شعری	-9.50303
▁نودربرانی	-9.50304
▁گڈ	-9.50355
▁کچک	-9.50396
▁کمی	-9.50471
▁زاھدان	-9.50815
▁ورنایے	-9.50926
▁اسراتی	-9.51066
▁مڈی	-9.51085
▁رندا	-9.51128
▁پتر	-9.51214
▁یکشل	-9.5151
▁گد	-9.51599
ھمے	-9.51607
▁بنشون	-9.51666
▁اگں	-9.5167
▁اگست	-9.51748
▁جوڈ	-9.51753
انت۔	-9.51801
▁مشکل	-9.51926
▁has	-9.51948
▁ارا	-9.51996
▁امر	-9.52041
▁تن	-9.52169
▁کلدار	-9.52444
▁جنجال	-9.52696
▁تلگرام	-9.52752
▁ترند	-9.52762
▁مست	-9.5278
ف	-9.52823
▁زندمان	-9.52866
▁زال	-9.5291
▁سور	-9.53037
▁ارشانی	-9.53055
یے	-9.53055
▁نئے	-9.53115
▁ایندگہ	-9.53209
▁روانک	-9.53294
▁بزان	-9.53436
▁I	-9.53543
▁بہرے	-9.53563
▁ڈیرہ	-9.53684
▁رسانک	-9.5372
▁بت	-9.53813
▁منوک	-9.53837
اس	-9.53844
▁باروء	-9.53855
▁مرید	-9.53857
▁چوکی	-9.5389
▁پمشکا	-9.53909
▁۔اے	-9.5394
▁زہر	-9.54125
▁سگ	-9.54148
▁چنچو	-9.54295
▁تامر	-9.54361
دل	-9.54375
▁گپانی	-9.54379
▁جیڑ	-9.54548
▁اھوالکار	-9.54732
▁عبداللہ	-9.54819
▁ھرکس	-9.54862
▁مزار	-9.549
▁نصیب	-9.54922
▁تباہ	-9.54938
▁جنرل	-9.54948
▁been	-9.54998
▁تل	-9.55006
▁جنگل	-9.55277
▁لاچار	-9.55427
▁two	-9.55478
▁ارمان	-9.55506
▁ھواریں	-9.55565
تئی	-9.55649
▁بیار	-9.55747
▁گنوک	-9.55756
▁پاھو	-9.55792
▁نویس	-9.558
ع	-9.55906
▁جیڑگ	-9.55918
▁زوریں	-9.56054
دی	-9.56105
وت	-9.56114
▁پرائی	-9.56133
▁برزی	-9.56172
▁who	-9.56284
▁ساھگ	-9.56289
▁وطن	-9.56398
▁جم	-9.56408
▁اسے	-9.56443
▁جا	-9.565
▁عرب	-9.56715
▁اوتی	-9.56737
▁لک	-9.56783
▁دیمی	-9.56793
▁کنئے	-9.56834
▁عشق	-9.56869
▁پری	-9.56986
▁بلکہ	-9.57034
▁چنت	-9.57067
▁عقل	-9.57216
▁سہ	-9.57221
▁واک	-9.57328
▁گشنت	-9.57329
▁رندء	-9.57483
▁سرجمی	-9.57512
▁لئے	-9.5761
▁گورء	-9.5764
▁درسیں	-9.57658
▁دوشی	-9.57806
▁جھانی	-9.57859
▁رب	-9.57931
▁وڑء	-9.57964
▁ابادی	-9.57965
▁کسانی	-9.58004
▁رواج	-9.58115
یہ	-9.58142
پر	-9.582
▁تنگ	-9.58582
▁پمن	-9.58688
▁ل	-9.5882
▁1	-9.58864
▁چاگردء	-9.592
▁بلوچاں	-9.59266
▁دگه	-9.5928
▁دکان	-9.59298
▁گوھرام	-9.5933
▁مرک	-9.59387
اناں	-9.59522
▁شکر	-9.59594
▁گنداں	-9.59652
▁اپریشن	-9.59671
اپ	-9.59681
▁رندے	-9.59711
▁مہمان	-9.59715
▁تہر	-9.59731
▁زھر	-9.59779
▁دان	-9.59805
▁پرسنز	-9.59964
▁مجید	-9.59994
چو	-9.60156
▁پریشان	-9.6017
▁دزبندی	-9.60182
▁زی	-9.60311
▁مستر	-9.6037
▁هچ	-9.60483
▁بالاچ	-9.60485
▁this	-9.60541
▁چوشکہ	-9.60693
▁سالاں	-9.60707
▁مینگل	-9.60805
▁رہبند	-9.60881
▁ش	-9.60935
▁کنڈ	-9.61088
▁منصوبہ	-9.61205
▁شرتر	-9.61209
▁پنجاہ	-9.61253
▁بارہ	-9.61333
▁نندگ	-9.61377
▁منند	-9.61505
ق	-9.61865
▁چرے	-9.61978
▁چیء	-9.62038
▁بئیت	-9.62088
▁چگل	-9.62097
▁دشتی	-9.62106
▁بوگء	-9.62213
ائیں	-9.62221
▁ایمان	-9.62247
▁پوہ	-9.62313
▁سامان	-9.62588
اگاں	-9.6266
کو	-9.6274
▁نشہ	-9.62748
در	-9.62788
▁رژن	-9.62819
▁سکین	-9.6284
▁اخر	-9.62919
▁سرمچار	-9.6303
▁کاگد	-9.63107
▁ھنچش	-9.63114
▁روس	-9.63189
▁ترک	-9.6323
▁مہمد	-9.6324
▁خبر	-9.6325
▁داستان	-9.63301
▁حاصل	-9.63403
▁کوئی	-9.63411
▁دوھزار	-9.63717
▁سری	-9.63778
▁زرمبشت	-9.63807
▁ذمہ	-9.63949
▁کمشنر	-9.63979
▁چاہ	-9.64145
▁چیدگ	-9.64156
▁شکل	-9.64201
▁بشیر	-9.64301
▁جنگء	-9.64365
▁شان	-9.6444
▁نومبر	-9.64464
..!	-9.64499
▁کارمنداں	-9.64501
▁گرد	-9.64551
▁ٹکر	-9.64555
▁F	-9.64572
▁ہوا	-9.64635
▁ساتھ	-9.64638
▁S	-9.64774
▁دعا	-9.6484
▁بان	-9.64963
▁کتابے	-9.64978
▁رحیم	-9.65041
▁اوشتوک	-9.65095
▁year	-9.65229
▁حد	-9.6532
▁ؤ	-9.65385
▁نامء	-9.65408
▁امیر	-9.65761
▁امام	-9.65786
▁سبز	-9.65873
خ	-9.65925
▁سوت	-9.65935
▁سندھی	-9.66016
▁شام	-9.66017
▁شرپ	-9.66094
▁گوزگ	-9.66116
ے۔	-9.66206
▁بزگ	-9.66219
▁جل	-9.66241
▁سنگتانی	-9.66257
▁پسند	-9.66293
▁غیر	-9.66369
▁گرانیں	-9.66623
▁چکاس	-9.66705
▁پاداں	-9.66954
▁تیوگیں	-9.67124
▁کرونا	-9.67257
▁تیز	-9.67317
یاں	-9.67344
▁دوا	-9.67355
▁کالج	-9.67438
▁لبزانی	-9.67499
یناں	-9.6756
▁اوشتات	-9.67621
▁نیمگے	-9.67646
▁کاروائی	-9.6768
▁کمال	-9.67699
▁براں	-9.67709
▁اوانی	-9.67812
▁قدیر	-9.67858
▁زبانے	-9.67979
▁ھاشمی	-9.67988
▁پمیشکہ	-9.68061
▁نوشکی	-9.68179
بر	-9.68204
▁اجازت	-9.68277
▁ایمنی	-9.68444
▁کتابانی	-9.68506
اب	-9.68607
▁2	-9.6862
▁لال	-9.68625
▁کنائینگ	-9.68647
ہم	-9.68697
▁کوہنیں	-9.687
r	-9.68713
▁شد	-9.6878
▁بید	-9.68811
▁معاشی	-9.68901
▁روڈ	-9.68901
▁والا	-9.68932
▁مک	-9.68938
▁شراب	-9.69002
▁ھزدار	-9.69048
▁نیاد	-9.69156
▁ازمی	-9.69193
▁مدامی	-9.69278
▁امید	-9.69295
▁دسمبر	-9.69332
▁نود	-9.69372
▁شوہاز	-9.69384
۔۔	-9.69387
▁توکا	-9.69517
▁ماڑی	-9.69569
▁جب	-9.69641
▁گیدی	-9.69647
▁دؤر	-9.69656
ور	-9.69688
▁انگور	-9.69741
▁ڈنی	-9.69758
▁دیوال	-9.69804
▁گوناپ	-9.69812
یگ	-9.699
▁یاکہ	-9.69904
▁واہگ	-9.70079
کا	-9.70089
▁تھی	-9.70104
▁گوازینگ	-9.70107
▁دیمپان	-9.70148
▁پیمء	-9.70313
▁موجود	-9.70499
بیت	-9.70501
ماں	-9.70521
▁صدر	-9.70743
▁سیت	-9.70869
▁شمے	-9.709
▁فوج	-9.70974
▁سلیم	-9.71064
▁جنوری	-9.7109
▁روچی	-9.71134
▁درائینت	-9.71138
▁جام	-9.71203
▁اشوب	-9.71224
▁کوکار	-9.71334
اد	-9.71391
▁لا	-9.71405
▁ٹپ	-9.71422
▁بھا	-9.71433
کن	-9.71482
▁دزگیری	-9.71548
▁گیری	-9.71585
▁کج	-9.71654
▁تیل	-9.71856
▁کنوکاں	-9.71915
▁اگن	-9.72053
▁مزنین	-9.72222
▁ھلک	-9.72233
▁انوں	-9.72241
▁ترانگ	-9.723
▁ہال	-9.72449
▁لیویز	-9.72468
▁ممکن	-9.72661
▁ورنائیں	-9.7294
▁نشتگیں	-9.72972
▁اوگانستان	-9.72987
▁قلات	-9.73097
▁بتل	-9.73112
▁بک	-9.73143
▁ونت	-9.73177
▁شریف	-9.73193
in	-9.73287
▁پ	-9.73306
▁کنٹرول	-9.7349
لی	-9.73632
▁مذہب	-9.737
جی	-9.737
▁ربیت	-9.73778
▁@,@	-9.73785
▁بڈ	-9.73814
▁after	-9.73929
▁زبانا	-9.73942
▁طاقت	-9.7396
▁ج	-9.73968
▁فرنٹ	-9.74
▁قران	-9.7406
▁گناہ	-9.74064
▁بیگواھی	-9.74222
▁دروت	-9.74239
سی	-9.74261
▁برکت	-9.74299
▁ایچ	-9.74307
▁ادگہ	-9.7431
▁سا	-9.74439
▁نودربراں	-9.74496
▁تام	-9.74543
▁حکم	-9.74545
▁گوشان	-9.74572
▁پسنی	-9.74622
▁گول	-9.74631
▁گری	-9.74634
▁تاج	-9.74683
▁اورتگ	-9.7471
۔اے	-9.74952
▁ازمانکانی	-9.75045
▁شون	-9.75109
▁اواز	-9.75151
▁دروگیں	-9.75161
▁گلزمین	-9.75211
▁شپء	-9.7525
▁عہد	-9.75364
▁وا	-9.75382
▁چنڈ	-9.75445
▁زیبائی	-9.75473
▁یکجھتی	-9.755
▁مارگ	-9.75623
▁ماتی	-9.75663
▁لڑ	-9.75692
▁بنجاہی	-9.75904
▁متلب	-9.75969
▁کرار	-9.76032
▁دیمپانی	-9.76095
ح	-9.76176
▁رگ	-9.76196
▁اکتوبر	-9.76281
▁ادارھانی	-9.76413
ص	-9.76436
▁عمران	-9.76463
▁کپتگیں	-9.76534
▁تپاک	-9.76586
▁اشیء	-9.76671
▁وائی	-9.76677
▁ھنکین	-9.76683
▁بود	-9.76807
▁اھوال	-9.76994
▁تئو	-9.77003
▁بگ	-9.77114
▁میڈیا	-9.77164
▁پمشکہ	-9.77196
چ	-9.77362
▁رکینگ	-9.77474
▁اسلم	-9.77491
▁حاجی	-9.77503
▁بہت	-9.77559
se	-9.77569
▁سول	-9.77579
▁اینچو	-9.77593
▁سہر	-9.77603
باز	-9.77631
▁الس	-9.77801
▁نشانی	-9.77948
▁جھل	-9.78015
تے	-9.78059
▁ھاسیں	-9.78254
▁کرنے	-9.78326
▁سروکی	-9.78356
▁نپ	-9.78361
▁B	-9.78411
▁هست	-9.78449
ائیء	-9.78466
▁دامن	-9.78559
▁اگہ	-9.78665
▁ز	-9.78687
▁It	-9.7873
مئے	-9.78825
▁نیک	-9.78867
▁چکانی	-9.79017
▁لڈ	-9.79017
▁ردی	-9.79035
▁ڈولیں	-9.79108
▁شعرء	-9.79195
ھو	-9.79282
ہمے	-9.79289
▁بیم	-9.79493
ion	-9.79528
▁مل	-9.79528
▁('	-9.7972
▁بنداں	-9.79757
▁زوراکیانی	-9.7979
▁انگر	-9.79837
▁داریں	-9.79904
▁بعد	-9.80063
▁ترندی	-9.8011
▁جتاجتائیں	-9.80147
▁چکاں	-9.80252
▁ہوئے	-9.80255
▁واجه	-9.8032
▁لوز	-9.80371
▁ڈک	-9.8055
▁اوپار	-9.8065
▁ھیل	-9.80734
▁گچکی	-9.80846
▁time	-9.80885
▁انت۔۔۔	-9.80915
▁کمپنی	-9.81063
▁عالم	-9.81082
▁زیارت	-9.81138
▁other	-9.81441
▁ایوکء	-9.81503
ھی	-9.81603
▁واقعہ	-9.81728
چے	-9.81737
▁حضرت	-9.8176
▁جنیں	-9.81802
▁چنکس	-9.81837
▁صد	-9.82012
▁چوناھا	-9.82082
▁انگریز	-9.82177
▁دزکپتگ	-9.82206
▁برجاھیں	-9.82256
▁دشمن	-9.82348
مہ	-9.8238
ھر	-9.82425
▁چاراں	-9.82512
▁۔۔	-9.82554
▁سرڈگار	-9.82629
▁رسم	-9.82633
▁صنعت	-9.82706
▁قبیلہ	-9.82713
گا	-9.82777
▁پنام	-9.82815
▁چیاکہ	-9.82842
▁سنگر	-9.82854
▁نزوری	-9.82955
▁ہرکس	-9.83027
▁نزیکی	-9.83034
▁استان	-9.83228
▁into	-9.83245
▁شمار	-9.83455
▁نوشتہ	-9.83499
▁ویبجاہ	-9.83546
▁کننت۔	-9.83571
▁18	-9.83608
کنگ	-9.83628
▁جولائی	-9.8364
▁چد	-9.83731
▁over	-9.83744
▁مرچاں	-9.83804
▁اندرء	-9.83828
▁زندان	-9.83856
▁کارمرد	-9.83981
▁بور	-9.84002
تگیں	-9.8403
▁بدیں	-9.84062
▁اوست	-9.84216
▁ایرانء	-9.84234
▁حقیقت	-9.84252
▁راجے	-9.84261
بزاں	-9.84265
ڑ	-9.84289
▁بانگ	-9.8431
▁گندیت	-9.84342
▁اتکگیں	-9.84434
▁لکھ	-9.84461
▁دشتیاری	-9.84468
▁پروفیسر	-9.84578
▁انہی	-9.84583
▁کد	-9.84653
▁کناں۔	-9.8472
دیم	-9.84729
▁بله	-9.84734
▁واکدار	-9.84744
▁لشکری	-9.84765
▁کشیت	-9.84829
▁شبین	-9.84837
▁نرم	-9.84838
▁پانزدہ	-9.84876
▁یوسف	-9.84903
▁ایوکیں	-9.84928
▁کشار	-9.85068
▁شھدگ	-9.8508
▁گہار	-9.85236
یانی	-9.8524
▁اسمبلی	-9.85274
▁اسپ	-9.85293
▁کنوکانی	-9.85397
گء	-9.85423
▁دپء	-9.85425
▁براس	-9.85466
▁ہوں	-9.8549
▁کازی	-9.85575
▁اپریل	-9.85602
▁ھمود	-9.85879
گڑا	-9.85886
▁ٹیم	-9.8593
▁کیت۔	-9.8597
▁داروکیں	-9.85986
'	-9.86108
▁روچانی	-9.86111
▁ستمبر	-9.86218
▁رنج	-9.86292
▁بیرانی	-9.86317
▁نگ	-9.86342
▁واحد	-9.8643
▁مردمان	-9.86577
▁گیوار	-9.86583
▁فروری	-9.86651
▁اتاں۔	-9.86694
▁ہشت	-9.86846
▁بندش	-9.86847
▁مھکم	-9.86893
▁مرزی	-9.86916
▁علاقہ	-9.86942
▁یو	-9.86974
▁کرنا	-9.86985
▁برجا	-9.8705
▁گدان	-9.87078
▁3	-9.87185
▁کرن	-9.87216
▁سبک	-9.87349
▁لگت	-9.87376
▁بوتہ	-9.87422
▁کلوہ	-9.87512
▁وہدیکہ	-9.87636
▁تحریک	-9.87644
▁راجانی	-9.87645
دومی	-9.87656
▁ہرچی	-9.87678
▁تہاری	-9.87716
▁بج	-9.87744
▁زندے	-9.87777
▁سائنسی	-9.87807
▁دگر	-9.87855
▁ردانک	-9.87918
▁پانگس	-9.87941
▁انساپ	-9.8795
▁بھتام	-9.87956
▁would	-9.87971
▁وانگء	-9.88014
▁more	-9.88072
▁گیا	-9.88116
▁مسیت	-9.88158
▁بلاھیں	-9.88163
▁ریل	-9.88284
▁سمی	-9.88346
▁خیر	-9.88414
▁ادار	-9.88423
▁پیک	-9.88449
▁گستا	-9.88461
▁شاعرے	-9.88545
کت	-9.88688
▁مرز	-9.8883
▁دمانے	-9.88856
▁لوٹوکیں	-9.88933
▁اسلامی	-9.89058
▁سان	-9.89113
mber	-9.89221
▁حب	-9.89293
▁سکی	-9.89298
▁تھے	-9.89343
▁نگد	-9.89368
▁پاکستانء	-9.89375
▁پرے	-9.89456
▁مناں	-9.8949
▁رسگ	-9.89534
▁ہاترا	-9.89549
▁ادینک	-9.89555
ي	-9.89662
▁خاص	-9.89716
▁پالیسیانی	-9.89753
▁اسمان	-9.89813
ت۔	-9.8983
▁مرچیگیں	-9.90251
ول	-9.90258
▁مومن	-9.9031
▁نیٹورک	-9.90393
▁یکبرے	-9.90415
▁گنج	-9.90462
▁گچینی	-9.90505
▁ساپ	-9.90534
داں	-9.90611
▁موہ	-9.90613
▁ملکاں	-9.90631
▁بچکند	-9.90701
▁کارگس	-9.90754
▁سالے	-9.90796
▁بدی	-9.9081
▁جنکے	-9.90869
تاکدیم	-9.90913
▁انت۔اے	-9.90928
کس	-9.90985
▁دوازدہ	-9.91104
▁بدئے	-9.91183
▁ماھتاک	-9.912
▁مجلس	-9.91228
▁دائم	-9.91253
▁کمیشن	-9.91268
او	-9.91304
▁اشتر	-9.91323
▁افغانستان	-9.91335
▁کندگ	-9.91417
چی	-9.9143
!‘‘	-9.91463
کر	-9.9149
▁T	-9.91545
▁سب	-9.91606
▁all	-9.9168
▁دستی	-9.91714
▁وانگی	-9.91754
on	-9.91769
▁لبزانکء	-9.9177
▁دینت	-9.91955
▁قدر	-9.92098
▁خاصیں	-9.92147
▁ھیر	-9.92179
▁ھاترء	-9.9225
▁واھند	-9.92285
▁بستگیں	-9.92301
▁الی	-9.92422
▁گا	-9.9248
▁ھنچیں	-9.92538
▁سسا	-9.92657
▁نئیت	-9.9271
▁دچار	-9.92711
▁طور	-9.92726
نوں	-9.92782
▁انسانء	-9.92824
▁سیمسر	-9.92838
▁چکے	-9.92901
ھا	-9.92944
ھما	-9.93084
▁پژدر	-9.93103
▁فوجی	-9.93114
ام	-9.93162
▁ہونا	-9.93164
▁جمالدینی	-9.93195
▁ہرچ	-9.93242
▁پارسی	-9.93251
▁واست	-9.93324
▁کند	-9.93377
انہ	-9.9338
▁شعرانی	-9.9338
▁چیئرمین	-9.93382
▁رؤگ	-9.93393
نوکیں	-9.93478
▁ھوش	-9.93479
▁گلانی	-9.9348
اش	-9.93488
▁کاریت	-9.93514
▁راز	-9.9358
▁خود	-9.93809
رو	-9.93863
▁دوستیں	-9.9394
▁نیوز	-9.93955
▁مردء	-9.93973
▁بیر	-9.93989
▁زالبولانی	-9.94018
▁نزینک	-9.94028
▁سرکماش	-9.94051
▁بینک	-9.94097
▁گالوار	-9.94227
▁می	-9.94534
▁گوم	-9.94574
▁حیران	-9.94598
▁گونڈیں	-9.94692
▁تاریخی	-9.94694
▁پراہ	-9.94737
▁انصاف	-9.94786
▁وتن	-9.9479
le	-9.94847
▁گیپت	-9.94868
▁پہک	-9.94869
▁برزیں	-9.94904
i	-9.9512
▁پیریں	-9.95135
▁تھا۔	-9.95156
▁امن	-9.95249
▁چ	-9.95304
▁چن	-9.95375
▁تواری	-9.9557
▁C	-9.95583
▁نویسگ	-9.95636
▁پادانی	-9.95677
▁مئیں	-9.95836
▁پکار	-9.95841
▁اسکواڈ	-9.95872
▁۔۔۔۔	-9.95881
▁سنگتے	-9.95925
▁پا	-9.95943
▁استیں	-9.95956
▁مردین	-9.95969
▁کنیں۔	-9.95984
▁ساچشتی	-9.96015
▁مطلب	-9.96042
▁سپت	-9.96077
▁ماسٹر	-9.96082
▁ایراد	-9.96085
▁نزانت	-9.96138
▁چارت	-9.96213
▁ساجد	-9.96269
▁سوچ	-9.96279
▁چادر	-9.96285
▁یورپ	-9.96331
▁عزیز	-9.96365
▁نادراہی	-9.96381
▁ہکانی	-9.96397
▁زئی	-9.96437
گر	-9.9645
▁راه	-9.96538
▁کول	-9.96597
▁اروس	-9.96613
▁چہر	-9.96642
▁گشاں	-9.96653
▁بروت	-9.96725
▁کچھ	-9.96739
▁بام	-9.96739
▁مقصد	-9.96745
▁جیئند	-9.9676
▁کمالان	-9.96798
گل	-9.96812
▁گریوگ	-9.96867
▁بلیدہ	-9.96867
▁بگوش	-9.96872
ھے	-9.96891
▁گندگء	-9.96909
ہر	-9.96925
▁درک	-9.96928
▁اشکنگ	-9.96984
▁نزاناں	-9.97036
▁لیے	-9.97099
▁مہناز	-9.97137
▁بگش	-9.97161
وی	-9.97481
▁براہ	-9.97609
▁چھ	-9.97641
▁کھ	-9.97651
ند	-9.97659
▁بلک	-9.97781
▁اسرائیل	-9.97831
▁فائدہ	-9.97849
▁اوشت	-9.98062
▁ملکء	-9.9807
▁معلوم	-9.98086
▁دروشمے	-9.98174
▁کلی	-9.98389
▁اسپیت	-9.9839
▁اؤرتگ	-9.98433
پد	-9.98466
ary	-9.98473
▁ایا	-9.98475
▁ہپت	-9.98475
▁جاہے	-9.98566
بند	-9.98732
▁ھراب	-9.98735
▁کوشست	-9.9874
▁جز	-9.98824
▁توامیں	-9.98827
▁غزل	-9.98966
▁گندئے	-9.9899
▁ھمگرنچ	-9.98999
▁تم	-9.99006
▁ماہتاک	-9.99012
▁پیچ	-9.99054
▁شیخ	-9.99086
▁she	-9.99261
▁نکش	-9.99263
▁لوٹت	-9.99264
▁یازدہ	-9.99277
ce	-9.99323
▁چارمی	-9.99359
▁دگنیا	-9.99447
▁ارت	-9.99489
▁٭٭٭	-9.9952
▁ف	-9.99545
▁پھل	-9.99636
▁بدار	-9.99786
▁لین	-9.99805
▁چارات	-9.99813
▁دوبر	-9.99829
▁پاکیں	-9.99838
▁مسلم	-9.99872
▁دراتک	-9.99879
▁لیک	-9.99897
▁اناں	-9.99975
▁وڈ	-10
▁زیبا	-10.0008
▁پلہ	-10.0008
▁وقت	-10.0008
▁نادراھجاہ	-10.0013
▁دیوانے	-10.0013
▁کانود	-10.0018
▁ڈپٹی	-10.0023
▁شئے	-10.0025
مان	-10.0026
▁اورت	-10.0026
▁ہوٹل	-10.0029
وا	-10.0031
▁ارب	-10.0033
▁چینی	-10.0034
▁زمانگء	-10.0039
ٹی	-10.0047
▁رسانکدراں	-10.0055
▁ملکانی	-10.0061
▁نقصان	-10.0067
▁سو	-10.0067
▁m	-10.0068
▁زیان	-10.0085
▁ریش	-10.0086
▁اتگ۔	-10.0091
▁when	-10.01
▁وفا	-10.0111
▁کرتے	-10.0125
▁up	-10.0137
▁موبائل	-10.0141
▁چر	-10.0165
▁کورٹ	-10.0169
▁گوما	-10.0184
اری	-10.0205
▁us	-10.0229
▁ھاک	-10.0233
▁ٹیکنالوجی	-10.0238
ish	-10.0253
▁درس	-10.0258
ائے	-10.0261
جاہ	-10.0263
▁دلجمی	-10.0278
▁جاہاں	-10.0283
▁پیسرا	-10.029
▁ناماں	-10.0295
▁سیاھیں	-10.0298
▁یکجہتی	-10.0301
▁کسمانک	-10.0302
▁دستیگ	-10.0302
▁سانگ	-10.0302
▁ظاہر	-10.0308
▁ناصر	-10.0311
▁شست	-10.0315
▁تنک	-10.0317
▁حصہ	-10.0322
▁مذہبی	-10.033
▁پوست	-10.0334
▁کام	-10.0341
▁ورناہ	-10.035
▁دلجم	-10.0356
شت	-10.0356
▁وانینگ	-10.0358
▁ھشک	-10.0359
▁وهد	-10.0361
▁ہبر	-10.0362
▁بوگی	-10.0363
▁سوبین	-10.0366
▁نیت	-10.0369
▁سارت	-10.0373
▁ھواری	-10.0383
▁باری	-10.0385
شپ	-10.0387
▁نمیران	-10.0388
رد	-10.0388
دہ	-10.039
▁میڑ	-10.0391
▁لوٹیت۔	-10.0414
▁بنیادم	-10.0418
▁برابر	-10.0423
▁نبیس	-10.0424
بل	-10.0432
▁ڈس	-10.0432
▁پرک	-10.0441
▁چند	-10.0443
▁زرتگ۔	-10.0446
▁دیگر	-10.0446
▁انتزامیہ	-10.0447
▁باگ	-10.0452
▁سگریٹ	-10.0453
▁most	-10.0456
▁راہء	-10.0472
▁صوبہ	-10.0477
▁باج	-10.048
▁پنجاب	-10.0486
▁گوز	-10.0489
▁سوشل	-10.0489
during	-10.0491
▁زیادہ	-10.0498
▁میری	-10.0504
۔۔۔۔۔	-10.0505
▁پوشاک	-10.0505
▁اتیں	-10.0508
▁لوگانی	-10.0519
▁جتگ۔	-10.052
▁سربوتگیں	-10.0522
▁اسل	-10.0532
▁نیں	-10.0535
▁گلاں	-10.0535
▁سارتیں	-10.0538
پدا	-10.0545
ترا	-10.0553
▁re	-10.0555
▁تچکیں	-10.0557
▁ظلم	-10.0558
▁out	-10.0565
▁شرف	-10.0569
▁جناں	-10.0577
▁زار	-10.0582
▁نیکی	-10.0592
▁جاه	-10.0593
▁احت	-10.0595
▁تاکت	-10.0612
کنت	-10.0612
▁ئا	-10.0621
▁گوئشت	-10.0626
▁ہنچو	-10.0628
کیں	-10.0635
▁گوشت۔	-10.0637
▁ھچبر	-10.0638
▁game	-10.0643
▁لبزانت	-10.0645
▁اتگیں	-10.065
▁جندئیگ	-10.0652
▁زیرگ	-10.0652
▁ہوتا	-10.0655
▁نیکراھی	-10.066
▁ھار	-10.0662
▁only	-10.0665
ic	-10.0668
▁گالبند	-10.0669
▁سبزیں	-10.0674
▁نامدار	-10.0679
▁ام	-10.069
▁ہاشمی	-10.0691
▁بلکن	-10.0693
▁ریچ	-10.0702
▁بیگا	-10.0704
▁جتائی	-10.0704
▁دیدگ	-10.0705
▁نامہ	-10.0707
▁اؤرت	-10.0709
▁اھگ	-10.0722
▁رہشون	-10.0724
▁کوپگ	-10.0728
▁حون	-10.073
دگہ	-10.0732
▁ندکار	-10.0736
▁شرتریں	-10.0741
▁رک	-10.0742
▁ستا	-10.0752
▁مگر	-10.0755
▁زندگیں	-10.0757
▁دولت	-10.0757
▁بوہان	-10.0758
▁کونسل	-10.0759
▁]	-10.0762
▁قول	-10.0765
▁کلام	-10.0771
▁کبر	-10.0775
▁روایت	-10.0779
▁مسلمان	-10.0797
▁زانتی	-10.0798
▁بلد	-10.0801
▁کاف	-10.0802
us	-10.0804
▁وانگجاہ	-10.0806
▁امریکی	-10.0807
▁ساعت	-10.0808
▁بوھیر	-10.0813
▁بہار	-10.0813
▁گشے	-10.0817
an	-10.0825
▁وکیل	-10.0842
▁راھے	-10.0853
▁گواہ	-10.0858
▁لیگ	-10.0862
ینگ	-10.0864
▁مردمء	-10.0864
▁بگل	-10.0866
▁صبا	-10.0869
▁اہوالکار	-10.0869
▁گاڑیانی	-10.0884
▁سست	-10.0884
▁زاھر	-10.0896
▁وهدے	-10.0908
▁سار	-10.0913
جان	-10.0916
▁قبر	-10.0918
▁نبی	-10.0924
▁تہار	-10.0927
▁لانچ	-10.0935
▁ڪہ	-10.0939
▁زباناں	-10.0942
میر	-10.0943
▁پور	-10.0947
▁علاج	-10.0961
▁ایوب	-10.0965
▁حلک	-10.0966
کل	-10.0976
▁شتاں	-10.0979
▁پرشت	-10.0983
▁نیامء	-10.0984
▁ھانی	-10.0991
▁نزیکیں	-10.1001
▁کینگ	-10.1007
▁تمام	-10.1011
ڑی	-10.1018
▁بکنت۔	-10.1025
about	-10.1026
tween	-10.1032
▁ضرورت	-10.1033
▁داراں	-10.1034
▁تچان	-10.1047
▁زیب	-10.1052
▁زیمر	-10.1053
کاری	-10.1056
▁سوال	-10.1063
▁فون	-10.1066
▁سئیں	-10.1068
▁ھمدا	-10.1071
▁گڑ	-10.1072
▁رضا	-10.1074
▁روگء	-10.1077
▁ھرچی	-10.108
▁اسی	-10.1081
▁ھندی	-10.1085
▁علیہ	-10.1087
▁کوٹ	-10.1088
ایاں	-10.1091
▁بران	-10.1095
▁دگے	-10.1099
▁ڈیک	-10.1104
▁مز	-10.1105
▁ساد	-10.1105
▁پروشگ	-10.1106
▁انور	-10.1107
▁دزی	-10.1111
▁محبت	-10.1112
▁پند	-10.1117
▁جگر	-10.1129
▁ثابت	-10.113
▁علمی	-10.1132
▁سنچ	-10.1133
▁مشکے	-10.1137
▁سیاد	-10.1145
▁M	-10.1146
▁حاترا	-10.1147
▁ارشاں	-10.1148
▁تگ	-10.1155
▁گی	-10.1156
▁نون	-10.1165
▁پیشی	-10.1167
▁گردن	-10.1169
▁سلامت	-10.1174
ers	-10.1175
▁him	-10.1178
▁سرمچارانی	-10.1182
▁جاہء	-10.1187
▁پالیسی	-10.1198
▁کامیاب	-10.1201
▁کتاباں	-10.1202
نام	-10.1203
▁سالانی	-10.1205
▁مین	-10.1205
▁play	-10.1208
▁حاکم	-10.1213
▁دمک	-10.1223
▁قانون	-10.1223
▁گڈسر	-10.1224
▁پرواز	-10.1229
▁قاسم	-10.123
▁داریت۔	-10.1231
دست	-10.1231
!......	-10.1249
ٰ	-10.126
▁شپے	-10.1261
▁","	-10.1265
▁یاں	-10.1268
▁ولی	-10.1274
▁گوشئے	-10.1275
▁تپاس	-10.1277
▁روش	-10.128
یر	-10.1286
▁ھمائی	-10.1287
▁ذاتی	-10.1291
▁چاردہ	-10.13
▁اومان	-10.13
▁پش	-10.1301
▁نامے	-10.1304
▁season	-10.131
▁میدان	-10.1315
▁کشندہ	-10.1317
▁سعید	-10.1318
▁کپان	-10.1325
▁ری	-10.1325
▁سینگ	-10.1329
▁رؤت	-10.1329
▁استمان	-10.133
▁ادارہانی	-10.1334
▁again	-10.1336
▁دودمان	-10.1338
لا	-10.1338
▁سسٹم	-10.1338
▁On	-10.1342
▁انگتہ	-10.1343
▁ہوش	-10.1343
▁پورا	-10.1348
▁بیوکیں	-10.1353
▁سمجھ	-10.1354
▁چیک	-10.1355
▁دماغ	-10.1357
▁چارگء	-10.1358
▁تجربہ	-10.1362
▁سلمان	-10.1363
▁گوک	-10.1364
▁ادارھاں	-10.137
▁گلہ	-10.1379
▁زوال	-10.138
▁رھادگ	-10.1381
▁جوش	-10.1385
▁three	-10.1386
▁چوک	-10.139
▁لج	-10.1394
▁موکل	-10.1395
بن	-10.1396
▁سالء	-10.1398
▁سوگند	-10.1405
▁ورنایانی	-10.1408
▁پونز	-10.1418
▁گیشینگ	-10.142
▁راجء	-10.142
سک	-10.1426
▁4	-10.1426
وش	-10.1427
▁راشد	-10.1434
▁کردے	-10.1434
▁ادینگ	-10.1437
ھاں	-10.1448
ہی	-10.145
▁زامران	-10.1451
▁عام	-10.1452
▁باپاری	-10.1454
▁نظم	-10.146
▁فضل	-10.1461
▁''	-10.1467
▁ہائی	-10.1467
وار	-10.147
▁زوریت	-10.1473
▁چا	-10.1473
▁فکشن	-10.1475
▁بنجاہ	-10.1481
▁انا	-10.1484
▁امین	-10.1486
▁ادمین	-10.1488
▁5	-10.15
▁مرت	-10.1505
▁پشتء	-10.1507
▁گشت۔	-10.1509
▁پاگ	-10.1509
▁قرار	-10.1512
▁بکناں	-10.1519
▁پترت	-10.1521
▁اندیم	-10.1531
▁اسپیتیں	-10.1536
گوشتگ	-10.1541
▁اؤکیں	-10.1544
▁۔ائی	-10.1556
▁جاتا	-10.1559
...?	-10.1565
▁وائرس	-10.157
▁دلیل	-10.1576
▁رحم	-10.1577
▁de	-10.158
▁استال	-10.1588
▁دلبڈی	-10.1599
▁تئ	-10.1602
▁ڈیہہ	-10.1605
▁رن	-10.1612
بوت	-10.1615
able	-10.1616
▁بازینے	-10.1619
▁بجٹ	-10.1623
▁بئیں	-10.1624
▁بری	-10.1631
▁تعلیم	-10.1631
▁صفت	-10.1639
▁than	-10.1653
▁المیں	-10.1656
▁وزن	-10.1665
گے	-10.1669
▁ھردو	-10.1669
en	-10.1683
▁پلانی	-10.1686
▁صاف	-10.1689
ایشی	-10.1691
▁رہ	-10.1704
▁پیرک	-10.1713
▁انگہ	-10.172
وس	-10.1736
▁ھیران	-10.1737
▁منظور	-10.1739
▁دوستین	-10.174
▁پہنات	-10.1745
▁فرق	-10.1745
▁زرباری	-10.1746
▁درامد	-10.1754
▁سوبمند	-10.1755
▁')	-10.1756
▁شاعرانی	-10.1759
▁راجمان	-10.1771
اور	-10.1771
▁باسکاں	-10.1776
▁السی	-10.1782
میں	-10.1788
▁زرء	-10.1794
▁جنوک	-10.1803
▁بئیگ	-10.1804
▁شاعریء	-10.1814
۔من	-10.1823
▁زھیر	-10.1828
▁کارمرزی	-10.1828
▁ابرم	-10.183
▁ع	-10.1842
ڈاکٹر	-10.1844
▁ساچ	-10.1849
▁گالاں	-10.1856
▁وانندہ	-10.1861
▁through	-10.1862
▁باریگ	-10.1865
▁غنی	-10.187
▁ردیں	-10.1898
▁بزگی	-10.19
▁رم	-10.19
▁گوھار	-10.1908
▁کشیں	-10.1917
▁نبشتگیں	-10.1917
▁پروگرام	-10.1922
▁دیا	-10.1923
▁ترکی	-10.1925
▁روسی	-10.1926
▁وڈیں	-10.1929
▁ھندوستان	-10.1934
▁متاثر	-10.1938
▁کیمپ	-10.1943
▁حانی	-10.1944
▁لعل	-10.1948
▁سن	-10.196
▁جنئگ	-10.1969
▁بز	-10.1973
ity	-10.1974
▁جاگہے	-10.1976
▁later	-10.1979
▁پرمان	-10.1988
▁جیل	-10.1991
▁سیم	-10.2
▁ارزان	-10.2002
▁لبزاں	-10.2003
▁بلوچے	-10.2003
▁جماعت	-10.2006
▁لائن	-10.2011
گاں	-10.2022
▁مئیل	-10.2023
▁رجینگ	-10.2027
▁چمشانک	-10.203
▁[	-10.2032
▁کپت۔	-10.2037
▁نظریہ	-10.2043
▁پنت	-10.2048
▁چندے	-10.2057
▁عملی	-10.2058
▁ٹاہ	-10.2062
▁زات	-10.2067
▁لوگاں	-10.2069
▁ہندوستان	-10.2077
▁دمب	-10.2079
▁while	-10.2094
▁تاکہ	-10.2095
▁پریات	-10.2096
▁شیئر	-10.21
▁ھمنچو	-10.2102
▁یعنی	-10.2113
▁لازم	-10.212
▁کمبر	-10.212
▁دگرے	-10.214
▁بلوچء	-10.2147
مراد	-10.2151
▁سرکارء	-10.2152
▁تاکبند	-10.2159
▁زالبولے	-10.2164
▁ھ	-10.2174
▁زہیر	-10.2174
▁خاندان	-10.2175
▁مے	-10.218
▁ارواح	-10.2187
▁زیات	-10.2189
▁بگندئے	-10.219
▁چتور	-10.2196
یت۔	-10.2197
▁زانشت	-10.2199
▁پرپٹ	-10.2201
▁درداں	-10.2202
▁مالک	-10.2202
▁دینی	-10.2204
▁برمش	-10.2215
▁ائید	-10.2217
▁پرواہ	-10.2219
▁لوگے	-10.2223
▁some	-10.2224
▁نیکیں	-10.2225
▁روح	-10.2232
▁ھان	-10.2237
?”	-10.2239
▁گواچن	-10.2249
▁گونڈو	-10.2251
▁ربیدگی	-10.2261
▁اشک	-10.2262
▁راجمانی	-10.2262
▁ہندی	-10.227
▁اچہ	-10.228
بس	-10.2287
▁پدریچ	-10.229
▁چنگ	-10.2295
از	-10.2298
made	-10.2301
▁مرگء	-10.2305
▁لوٹگ	-10.2308
▁ماتء	-10.2311
▁گراب	-10.2314
▁شت۔	-10.232
گپ	-10.2323
▁حاصیں	-10.2331
▁زیبائیں	-10.2334
▁نواز	-10.2337
▁ورنائی	-10.2344
▁پندل	-10.2345
▁ظفر	-10.2345
▁گلے	-10.2348
▁نندوکیں	-10.2355
▁گلگ	-10.2361
▁اگدہ	-10.2366
▁ھنچوش	-10.2372
▁رجانکار	-10.2372
▁ستر	-10.2377
۔بلے	-10.2378
▁کلاں	-10.2383
▁خاران	-10.2387
تریں	-10.2387
▁دلوت	-10.2391
▁ماه	-10.2393
▁پوش	-10.2398
▁مروچیگیں	-10.24
▁گوشدارگ	-10.2401
▁ساہگ	-10.2409
▁توارے	-10.2409
رے	-10.2412
▁اتک۔	-10.2419
▁گوشنت	-10.2423
ینتگ	-10.2428
▁زرمبش	-10.2428
▁گہگیری	-10.2429
▁گلامی	-10.2429
▁جد	-10.2432
▁رندی	-10.2435
▁بوتین	-10.2444
▁حرکت	-10.2445
اں۔	-10.2447
”.	-10.245
▁۔من	-10.2453
▁نیل	-10.2454
▁e	-10.2465
ever	-10.2467
▁ایوکا	-10.2467
▁کولواہ	-10.2467
▁سبی	-10.247
▁پناہ	-10.247
▁نوزدہ	-10.2473
▁دژمنیں	-10.2482
▁کمپیوٹر	-10.2492
▁پرشتگ	-10.2493
▁شرگدار	-10.2494
▁تچگ	-10.2498
▁گہرام	-10.2504
▁ڈیٹا	-10.2508
▁عابد	-10.251
▁طرف	-10.2519
▁چوپ	-10.2522
▁خانہ	-10.2523
▁صرف	-10.2524
گو	-10.2525
▁کمتر	-10.2528
▁ات۔۔۔	-10.2537
داد	-10.2547
▁گوزان	-10.2553
▁میڈیکل	-10.256
▁بوئیگ	-10.2562
مردم	-10.2567
▁قلم	-10.2568
▁اسان	-10.2571
▁بنزہ	-10.2575
▁چاریت	-10.2577
▁ھنچو	-10.2577
▁چمے	-10.258
▁ادیم	-10.258
تاکدیم۔	-10.2585
جو	-10.2591
▁ہمرائی	-10.2595
▁دستا	-10.2596
▁تجربت	-10.2598
▁اختر	-10.26
انا	-10.2612
▁پاٹی	-10.2612
▁قبول	-10.2616
▁کانفرنس	-10.2621
▁بندر	-10.2621
▁دریگ	-10.2623
▁برپ	-10.2624
▁سھر	-10.2624
▁ترین	-10.2632
▁محمود	-10.2643
ڈی	-10.2647
............	-10.2649
نبشتانک	-10.266
▁یونین	-10.266
▁نت	-10.2661
▁ناچ	-10.2664
▁ھستی	-10.2664
▁ضلع	-10.2665
▁بینگ	-10.2666
چار	-10.2667
▁اشنا	-10.267
▁درچکانی	-10.267
▁تری	-10.2674
▁کہنیں	-10.2675
▁سود	-10.2679
▁تہاریں	-10.2681
▁شاعراں	-10.2681
▁درگیجگ	-10.2688
▁گلیں	-10.27
▁ننگ	-10.2703
▁گھار	-10.2711
▁فقیر	-10.272
▁اسحاق	-10.2727
▁امریکا	-10.2729
شر	-10.2734
▁دیمترا	-10.2737
▁گوانک	-10.2737
▁امروز	-10.2738
▁کنغ	-10.2738
▁سیاھگ	-10.2752
یں۔	-10.2753
▁زبہر	-10.2754
▁لے	-10.2758
▁درشانداب	-10.2761
▁صلی	-10.2762
▁پائدگ	-10.2769
▁حقانی	-10.277
▁اتار	-10.2772
▁سرین	-10.2775
ڪ	-10.2777
▁سنی	-10.2788
▁ڈیتھ	-10.2789
لو	-10.2789
▁زانتکاری	-10.2795
▁جمبر	-10.2798
▁کلگ	-10.2799
▁ریڈیو	-10.2802
▁کوچگ	-10.2812
▁واہند	-10.2813
▁دانگ	-10.2817
▁سرے	-10.282
▁کایاں	-10.2821
▁دانک	-10.2822
▁بجلی	-10.2823
▁دیگء	-10.2823
▁new	-10.2828
نو	-10.2829
▁دریں	-10.2833
▁قدیم	-10.284
▁واکداراں	-10.2843
▁D	-10.2843
▁ھنر	-10.2845
▁ازادی	-10.2849
▁درملکی	-10.2853
▁بائد	-10.2854
▁جاری	-10.2872
▁وران	-10.2874
▁شھدربرجاہ	-10.2874
نگیں	-10.288
▁جہاں	-10.288
▁ادارگ	-10.2881
▁سیٹ	-10.2888
▁ڈرائیور	-10.289
▁ائیا	-10.2897
▁کاروباری	-10.2898
▁تہہ	-10.2905
▁ڈل	-10.2914
","	-10.2915
▁دپی	-10.2919
▁ہوئی	-10.2922
▁مدتے	-10.2922
▁یوکرین	-10.2924
▁زمینء	-10.2925
▁کارمندانی	-10.2926
▁بزگیں	-10.2927
▁ھستیں	-10.2937
▁وام	-10.2939
▁گرمیں	-10.2944
▁ژا	-10.2946
▁وپت	-10.2952
خان	-10.2967
▁استار	-10.297
ملا	-10.2973
▁میتگء	-10.2976
▁شروع	-10.2977
S	-10.2977
داری	-10.298
▁کاہ	-10.2984
▁شازادگ	-10.2985
ات۔	-10.2988
ط	-10.299
▁where	-10.2991
▁شپاں	-10.3001
land	-10.3002
▁ھسپتال	-10.3006
▁دا	-10.3006
▁غوث	-10.3008
▁بازین	-10.301
▁ارشے	-10.3013
▁مکسد	-10.3013
▁بالا	-10.3017
▁وتکشی	-10.3017
▁ذکر	-10.3019
▁میاں	-10.302
▁تہی	-10.3021
▁لوٹانی	-10.3022
▁R	-10.303
▁راجدپتری	-10.303
such	-10.3032
▁اہم	-10.3038
▁نمیرانیں	-10.3041
▁اندری	-10.3048
▁درکپت	-10.3067
▁رندگیری	-10.3067
▁حداء	-10.3082
gan	-10.3082
اک	-10.3085
▁ھپتاد	-10.3086
▁جنینے	-10.3089
▁زھری	-10.3089
u	-10.3095
▁بنیات	-10.3095
▁وجہ	-10.3104
▁ہمودا	-10.3111
▁مواد	-10.3112
▁مور	-10.3113
▁مساپر	-10.3113
▁موتک	-10.3114
▁ابا	-10.3119
▁them	-10.312
▁کوھانی	-10.3129
um	-10.3133
روچ	-10.3139
▁دیراں	-10.314
▁سرزمین	-10.3142
▁سرھال	-10.3142
▁انوگیں	-10.3147
▁بژن	-10.3147
▁نویسی	-10.3153
▁مولوی	-10.3161
▁number	-10.3174
▁ھاران	-10.3176
▁چرائی	-10.318
ست	-10.3182
▁مردمی	-10.3182
▁چیرا	-10.3195
▁لمب	-10.3214
▁بدنت	-10.322
▁لیاری	-10.3224
▁تبک	-10.3228
دان	-10.3231
▁باوست	-10.3235
▁چیرء	-10.3237
▁حمید	-10.324
▁گیگ	-10.3241
▁follow	-10.325
▁پلاں	-10.3251
▁گونڈ	-10.3254
▁مہرء	-10.3258
▁خالد	-10.326
▁نسیم	-10.327
▁چینچو	-10.3271
▁مس	-10.3277
زی	-10.328
▁دستگیر	-10.3283
▁نک	-10.329
▁اپء	-10.3292
h	-10.3297
▁ہمدا	-10.3312
▁چول	-10.3316
▁مرتگیں	-10.3317
▁سرحال	-10.3322
▁اھد	-10.3322
▁کشان	-10.3322
▁al	-10.3322
▁زندگانی	-10.3333
▁درسد	-10.3336
▁film	-10.3337
▁اشوبی	-10.3347
▁This	-10.3348
▁ہان	-10.335
▁توان	-10.3353
▁نیاما	-10.3353
▁دوری	-10.336
▁ہچبر	-10.3361
▁بندوکیں	-10.3361
ایت	-10.3366
▁N	-10.3366
▁پہر	-10.3372
▁هال	-10.3382
▁سوسائٹی	-10.3382
▁وابانی	-10.3398
▁بزدار	-10.3408
▁پازل	-10.342
▁under	-10.3421
▁جہدء	-10.3426
▁قوت	-10.343
بار	-10.3434
ھانی	-10.3442
▁پنچمی	-10.3442
▁بیل	-10.3446
▁ھمیشی	-10.3447
▁زیت	-10.3449
▁ھبرے	-10.3456
▁ہوتی	-10.3459
سید	-10.3462
▁ازار	-10.3462
▁ھکم	-10.3466
▁بزور	-10.347
▁گژن	-10.3479
▁ڈکال	-10.3484
▁ابن	-10.3486
▁بنیادی	-10.3506
▁000	-10.3506
▁being	-10.3515
▁جنکانی	-10.3515
▁نال	-10.3517
▁ھشکیں	-10.3523
▁چوٹ	-10.353
est	-10.3531
▁هبر	-10.3542
▁واکدارانی	-10.355
▁گریب	-10.3553
▁part	-10.3563
▁تاکدیم۔	-10.3568
▁یعنے	-10.3576
▁record	-10.3579
▁song	-10.3589
▁روچگ	-10.359
▁اختیار	-10.3591
▁ریک	-10.3593
▁اشکتگ	-10.3601
▁چکچینی	-10.3602
▁New	-10.3602
▁کلاس	-10.3602
▁مود	-10.3602
▁نوکی	-10.3607
زر	-10.361
▁شئر	-10.3615
▁ٹال	-10.3621
▁before	-10.3621
▁پن	-10.3625
▁رہے	-10.3629
▁ترجمہ	-10.3642
▁تپاوت	-10.3649
▁دن	-10.365
▁موت	-10.3662
▁زورگر	-10.3663
▁زد	-10.3666
▁ھوٹل	-10.3667
▁پتء	-10.3671
پیش	-10.3671
▁شعور	-10.3672
▁تپنگ	-10.369
▁وانوکاں	-10.369
▁وشبو	-10.3697
▁کپیت۔	-10.3699
▁مروچاں	-10.3699
▁الدین	-10.3702
▁پار	-10.3702
▁زنگ	-10.3703
▁گالانی	-10.3703
▁راھبند	-10.3705
▁وہداں	-10.3705
زبان	-10.3706
▁فیض	-10.3716
ھیں	-10.3719
▁مارشتانی	-10.3722
ation	-10.3724
▁کورء	-10.3735
▁دائمی	-10.3751
▁عباس	-10.3755
▁سراوان	-10.376
▁مجبور	-10.3766
▁استعمال	-10.3767
▁ہار	-10.3768
▁گز	-10.3768
▁وال	-10.3786
▁end	-10.379
▁ملکے	-10.3805
▁ازمانکے	-10.3806
▁تنقید	-10.3807
▁اہگ	-10.3821
▁جاگہہ	-10.3822
.....	-10.3823
▁سیکورٹی	-10.3823
▁درکانودی	-10.3824
سا	-10.3824
▁second	-10.3827
m	-10.383
▁can	-10.3833
▁یونانی	-10.384
▁اخلاقی	-10.3855
▁پھ	-10.386
▁t	-10.3864
▁رہا	-10.3867
▁معاملہ	-10.3867
▁پشک	-10.3871
▁ابد	-10.3872
▁جرم	-10.3877
▁لو	-10.388
▁درکار	-10.3883
▁انسانے	-10.3886
▁حیات	-10.3899
▁ایشان	-10.3904
▁دنیگا	-10.3906
▁نبیت	-10.3912
▁ناہ	-10.3912
▁پرشتگیں	-10.3915
شی	-10.3915
▁عیب	-10.3916
▁گوازینتگ	-10.3916
▁رمضان	-10.3918
بیا	-10.3919
▁تمن	-10.392
▁جنزان	-10.3924
▁نزوریں	-10.3925
▁no	-10.3925
▁تان	-10.3926
▁شاعرء	-10.3928
▁کرتا	-10.3933
بلئے	-10.3942
▁چاچ	-10.3947
▁work	-10.3949
▁خلاف	-10.3951
▁ند	-10.3957
▁جنجالانی	-10.3962
وہ	-10.3963
ریں	-10.3964
▁گزر	-10.3965
▁گشان	-10.3967
▁بیگء	-10.3968
▁کسء	-10.3978
or	-10.3994
▁درانگاز	-10.3996
▁عید	-10.3997
ازمانک	-10.4004
▁تاھیر	-10.4005
▁حالت	-10.4006
▁توپک	-10.4006
▁لاہور	-10.401
▁اقبال	-10.401
▁برانز	-10.4012
▁گپتگیں	-10.4018
▁گنوکی	-10.4023
▁جہانی	-10.4026
▁مڑ	-10.4029
▁بھرے	-10.403
▁چپی	-10.4033
▁اسماعیل	-10.404
▁کپوت	-10.4043
▁توسیپ	-10.4043
کم	-10.4044
▁وئیلاں	-10.4046
▁افسر	-10.4051
ہما	-10.4057
man	-10.4064
▁حکیم	-10.4066
▁جستے	-10.4066
▁P	-10.4067
▁انکار	-10.4088
▁ووٹ	-10.409
▁ڈالر	-10.409
▁دراں	-10.4099
▁ادمی	-10.4102
▁call	-10.4107
▁وہدی	-10.4108
▁نگاہ	-10.4108
▁لندن	-10.4109
▁پما	-10.4115
▁زمستان	-10.4117
▁6	-10.4119
▁الاج	-10.4126
▁گۆں	-10.4132
▁سعودی	-10.4135
▁شل	-10.4135
▁شار	-10.4142
▁دیوانء	-10.4151
▁نوکین	-10.4155
▁وسی	-10.4157
▁گپت۔	-10.4163
▁سیاہیں	-10.4169
▁مہرانی	-10.4171
▁پک	-10.4175
▁پدی	-10.4176
▁تور	-10.4176
▁نیاں	-10.4176
▁سوبمندی	-10.4178
▁صدی	-10.4182
▁ایگء	-10.4189
▁وابے	-10.419
▁سرشون	-10.419
▁نودربرے	-10.4192
سٹ	-10.4192
چک	-10.4193
▁عدالت	-10.4197
▁رسیت۔	-10.4197
▁چونائی	-10.4198
▁قادر	-10.4199
▁فارم	-10.4204
▁بابا	-10.4209
▁بلوچیء	-10.4212
▁ہمگرنچ	-10.4213
▁اہمد	-10.4215
▁سرد	-10.4216
▁دراتکگ	-10.4217
▁کریمہ	-10.4217
ث	-10.4219
▁دیدگاں	-10.4223
▁مسافر	-10.4224
▁لنٹ	-10.4228
▁دگرانی	-10.4229
▁اج	-10.4237
بو	-10.4239
▁گھر	-10.4242
▁پیری	-10.4242
▁پولی	-10.4245
شہ	-10.4247
out	-10.4248
ذ	-10.4252
▁قبائلی	-10.4253
▁دلے	-10.4261
▁جانسلامتی	-10.4264
▁صوبائی	-10.4266
▁خون	-10.4268
▁سواریں	-10.4269
▁وثی	-10.427
▁دنز	-10.4277
▁جنت۔	-10.4301
▁دوچار	-10.4304
▁لیٹ	-10.4315
▁نیمون	-10.4316
▁بحث	-10.4317
▁قسم	-10.4321
▁مارشتاں	-10.4323
▁خالق	-10.4329
▁مت	-10.433
▁منافع	-10.4331
▁کست	-10.4331
▁گماں	-10.4332
▁ملامت	-10.4332
▁پولکاری	-10.4334
▁جت۔	-10.4336
▁میزان	-10.4337
▁راگ	-10.4337
▁روگی	-10.4338
▁پشی	-10.4345
▁عظیم	-10.4348
▁large	-10.435
▁زوراک	-10.4357
▁نهانت	-10.4364
▁تھ	-10.4368
▁راکٹ	-10.437
▁high	-10.4371
▁وتگڑیں	-10.4371
▁نثار	-10.4377
▁دگانی	-10.4378
▁زیمل	-10.4379
▁شھری	-10.4379
▁تچ	-10.4381
با	-10.4381
▁ہیال	-10.4385
▁گئی	-10.4389
▁ہلک	-10.4395
▁کتابء	-10.4398
▁چمان	-10.4404
▁موٹر	-10.4406
▁احساس	-10.441
▁روژنائی	-10.4411
▁درانگازی	-10.442
▁زھگانی	-10.4421
▁there	-10.4422
▁نیا	-10.4426
▁ترمپ	-10.4427
▁album	-10.4433
▁As	-10.4436
▁area	-10.4437
▁مه	-10.4441
▁شوربندی	-10.4444
▁رزا	-10.4444
▁زاہر	-10.4452
▁کوھن	-10.4454
▁اشت	-10.4455
▁حبرے	-10.4458
▁اناگہ	-10.4459
▁کلاک	-10.4462
▁series	-10.4465
▁تعلق	-10.4467
▁سارتی	-10.4468
▁بوتگنت	-10.448
▁سببء	-10.4483
▁رودراتکی	-10.4484
▁ص	-10.4486
▁شاھی	-10.4488
▁سلیمان	-10.449
▁مارکیٹ	-10.45
▁کارمندے	-10.4507
▁زین	-10.4511
▁ھزاراں	-10.4518
یل	-10.4518
▁سنج	-10.4518
▁پال	-10.4521
▁حمزہ	-10.4525
▁اشارہ	-10.453
سے	-10.4532
▁پلاٹ	-10.4535
▁ابرمی	-10.454
ایر	-10.4542
▁سہی	-10.4551
▁جستانی	-10.4557
▁اینڈ	-10.4558
بازیں	-10.4558
دے	-10.4559
اتی	-10.4563
▁کوشش	-10.4564
▁نیٹ	-10.4567
▁ھاکم	-10.4573
▁ڈکھ	-10.4576
▁اولس	-10.4577
▁اسٹوڈنٹس	-10.4579
کش	-10.459
کگ	-10.459
▁جتگیں	-10.46
▁صابر	-10.4611
▁کرتنت	-10.4617
▁مزاحمت	-10.4618
▁بہادر	-10.4628
..?	-10.4629
▁شات	-10.463
▁کستریں	-10.4632
ہاں	-10.4644
▁جیہند	-10.4648
بلکیں	-10.4653
▁گندیں	-10.4655
▁دوچ	-10.4655
▁تار	-10.4656
▁بدے	-10.4657
▁چات	-10.4658
▁سہرا	-10.466
▁ہمراہی	-10.4662
▁تصور	-10.467
یم	-10.4675
▁جهد	-10.4675
▁درجہ	-10.4681
▁عیسیٰ	-10.4682
پل	-10.4686
▁بازی	-10.4688
▁پشتی	-10.4691
▁ق	-10.4692
▁ھپتگ	-10.4694
▁قبضہ	-10.4696
▁both	-10.4701
▁اتکگ۔	-10.4704
▁ممتاز	-10.4705
▁بیرک	-10.4706
▁ھمودا	-10.4708
▁جاوید	-10.4719
▁show	-10.4732
▁چاگردے	-10.4735
▁ایوکی	-10.4738
▁سپاہی	-10.4738
▁فرانس	-10.4745
▁جائے	-10.4745
▁انداز	-10.4747
▁اعظم	-10.4752
▁راجدوست	-10.4752
▁روکیں	-10.4752
چم	-10.4753
▁لی	-10.4755
▁الا	-10.4758
▁کھولانی	-10.4761
▁includ	-10.4761
▁برداشت	-10.4762
▁پلو	-10.4764
▁کشکے	-10.4765
▁بریں	-10.4765
▁عطاشاد	-10.477
▁جسم	-10.4771
▁حوالہ	-10.4771
▁والے	-10.4773
▁صبر	-10.4777
▁بازارء	-10.4777
▁حیالانی	-10.4777
▁خانء	-10.4778
▁کوھی	-10.478
▁تپ	-10.4785
دور	-10.4785
▁گیج	-10.4787
▁جیگ	-10.4787
▁پون	-10.4787
▁ڈنء	-10.4788
▁سریں	-10.479
زانت	-10.479
▁زبیر	-10.479
▁لفظ	-10.4791
▁فدا	-10.4797
▁لب	-10.4803
▁کھن	-10.4805
▁10	-10.4808
وز	-10.4812
▁سمو	-10.4812
▁نبشتانکے	-10.4812
▁کتیں	-10.4814
▁اوگان	-10.4815
▁سمین	-10.4816
▁بگند	-10.4816
▁شانک	-10.4821
▁گلاب	-10.4826
?......	-10.4829
▁قرض	-10.4833
▁تهنا	-10.4833
▁مو	-10.4837
▁شا	-10.4839
کاں	-10.484
▁نوکری	-10.484
▁شہری	-10.4845
ارا	-10.4846
!!	-10.4847
▁مشہور	-10.4847
اولی	-10.4849
▁کساسے	-10.4853
؂	-10.4854
▁ازمکار	-10.486
▁گلزار	-10.4862
▁استحکام	-10.4872
▁بندیت	-10.4876
▁ارادہ	-10.4876
▁سلطان	-10.488
▁کشء	-10.4882
▁پڑء	-10.4882
▁جزبگ	-10.4891
▁ہنچیں	-10.4892
▁گواری	-10.4894
▁درچکے	-10.4896
▁گھگیری	-10.4904
▁شو	-10.4908
▁گۆن	-10.4914
▁ضروری	-10.4916
▁دیریں	-10.4916
▁ول	-10.4916
ئگ	-10.4926
▁اشکت	-10.4927
▁گوراں	-10.4927
▁حراب	-10.4934
came	-10.494
▁زمان	-10.4941
▁ناکہ	-10.4941
▁دربرگ	-10.4946
▁form	-10.4959
▁سمندر	-10.496
▁سوئی	-10.4963
▁ناگمان	-10.4963
▁توپان	-10.4965
▁ساحرء	-10.4966
پی	-10.497
▁like	-10.4976
▁اوان	-10.4976
▁ماھیگ	-10.4978
’’(	-10.4986
▁then	-10.4988
▁میراث	-10.4997
غیں	-10.5001
▁ھنداں	-10.5003
▁ھوں	-10.5005
رہ	-10.5005
▁زالبولاں	-10.5011
▁بزانکہ	-10.5016
▁Brit	-10.5019
▁پگرء	-10.502
▁نازک	-10.5021
▁well	-10.5023
▁مکہ	-10.503
▁پروم	-10.5035
▁جک	-10.5038
▁برزء	-10.5041
▁بانور	-10.5043
▁پچیں	-10.5055
▁مهر	-10.5057
▁جیڑھانی	-10.5062
▁جدید	-10.5066
▁ٹپاس	-10.5066
▁شم	-10.5076
▁موومنٹ	-10.5078
▁known	-10.5078
▁بندانی	-10.5078
▁دلی	-10.5083
▁episode	-10.5086
▁چیزء	-10.5087
شاہ	-10.5092
is	-10.5093
▁E	-10.5097
▁اماچیں	-10.5097
▁زانش	-10.5099
▁کرم	-10.51
▁جہت	-10.51
▁باسکانی	-10.5106
▁کوہء	-10.5106
▁۔بلے	-10.5108
▁زبھر	-10.511
▁ملور	-10.5111
p	-10.5115
▁تھے۔	-10.5117
ؤ	-10.5123
▁واھگانی	-10.5126
▁گشتانک	-10.5128
▁مجگ	-10.513
▁نزر	-10.513
▁اہ	-10.5133
تاں	-10.5135
▁گچینکاری	-10.5138
جنگ	-10.514
▁اپی	-10.5141
▁زورگیریں	-10.5145
▁کنے	-10.5147
▁انقلاب	-10.5147
▁چیردستی	-10.5147
▁داران	-10.5147
▁والی	-10.5147
▁دمگانی	-10.515
▁پریں	-10.5151
▁کپتگ۔	-10.5152
▁بارے	-10.5156
▁گاریں	-10.516
▁بنگلہ	-10.5162
▁ٹنگ	-10.5166
▁ابراھیم	-10.5168
برے	-10.5173
▁مشین	-10.5178
▁جاک	-10.5185
▁راجدپترء	-10.5188
تیں	-10.5192
▁مسئلہ	-10.5192
▁ھد	-10.5193
▁so	-10.5203
▁تیاری	-10.5207
▁شہرء	-10.5207
▁گشاد	-10.5207
مات	-10.5208
▁یکوارے	-10.5211
▁عارف	-10.5214
▁بادینی	-10.5219
▁بدلیاں	-10.5231
مارا	-10.5239
▁گوہر	-10.5241
▁زری	-10.5242
▁مھکمیں	-10.5243
اللہ	-10.5248
▁بیدار	-10.5249
▁اھمد	-10.5253
زند	-10.5254
▁چندیں	-10.5263
▁رژنائی	-10.5265
▁w	-10.5278
▁بیبگر	-10.5282
▁تژن	-10.5295
▁پشتون	-10.5296
▁میتگے	-10.5309
ینت	-10.5312
اچ	-10.5316
▁سیمسراں	-10.5317
▁رپک	-10.5329
▁نیمگاں	-10.5338
▁کمار	-10.5346
▁بیھار	-10.535
▁زمانگے	-10.5352
▁۔۔۔۔۔	-10.5354
▁تہذیب	-10.5355
زور	-10.5356
▁سوگات	-10.5357
▁بھ	-10.536
محمد	-10.5367
▁دوار	-10.5368
c	-10.537
▁امل	-10.5371
▁پسندی	-10.5381
▁مھمان	-10.5382
ستان	-10.5384
▁بوہ	-10.5388
▁ابو	-10.5391
▁زندگیء	-10.5392
▁دنتان	-10.5397
▁گورنر	-10.5399
▁توارء	-10.5399
▁مقام	-10.5401
▁رجانکاری	-10.5403
▁گوازینت	-10.5407
▁اواں	-10.5412
▁many	-10.5414
▁پیشانی	-10.5417
گور	-10.542
▁پرستی	-10.5421
▁عبدالحمید	-10.5424
▁ندارہ	-10.5426
▁ٹیلی	-10.543
▁کوپگاں	-10.544
▁اپس	-10.5441
▁دردء	-10.5452
▁ٹاور	-10.5454
▁لگتمالی	-10.5458
▁لوگی	-10.546
▁رئیس	-10.5463
▁شائریء	-10.5466
▁چاڑ	-10.5471
▁جمعہ	-10.5472
though	-10.5474
▁ایکس	-10.5475
جن	-10.5477
▁منتگ	-10.5478
▁اشتاپ	-10.5481
▁عادت	-10.5485
▁پلیں	-10.5487
▁found	-10.5489
▁دستانی	-10.5489
▁زید	-10.549
▁تپاکی	-10.5491
▁سل	-10.5494
▁فاروق	-10.5495
b	-10.5495
▁تھت	-10.55
▁حملہ	-10.5503
▁کابل	-10.5513
▁کرء	-10.5516
▁۔ا	-10.552
▁گوزیت	-10.552
▁سنت	-10.552
▁ہمائی	-10.552
▁تلار	-10.5521
nited	-10.5521
▁K	-10.5522
▁پھک	-10.553
▁مطابق	-10.5533
▁ہیل	-10.5538
▁الیکشن	-10.5539
▁ہا	-10.5542
▁پہل	-10.555
▁وخت	-10.5551
رجانک	-10.5552
اف	-10.5553
▁un	-10.5554
▁ارساں	-10.5554
▁مانیت	-10.5557
▁رشید	-10.5559
▁حاک	-10.5562
▁مختلف	-10.5563
▁سورت	-10.5563
▁دیدار	-10.5564
زئی	-10.5565
▁باد	-10.557
▁پروشتگ	-10.5571
▁کشمیر	-10.5574
▁گرمی	-10.5575
▁شود	-10.558
▁یورپی	-10.558
▁ازمانکار	-10.5584
▁طاہرہ	-10.5588
▁long	-10.5588
▁خ	-10.5589
▁ڈ	-10.5593
▁میرے	-10.5596
۔۔۔۔۔۔۔۔۔۔۔۔۔۔۔۔	-10.5612
▁ویران	-10.5612
ۆ	-10.5614
▁پانی	-10.562
▁ٹارگٹ	-10.563
▁مقابلہ	-10.5632
وان	-10.5633
▁ایمن	-10.5636
▁ماھل	-10.5636
▁سرگوست	-10.5637
ہے	-10.5639
▁ٹ	-10.5649
▁خلیل	-10.5654
▁مانداشتگ	-10.5654
▁سهیگ	-10.5655
▁مندی	-10.5655
▁دردے	-10.5658
▁تخلیق	-10.566
▁کمکار	-10.5662
▁محنت	-10.5666
▁پکا	-10.5667
▁شرط	-10.5668
▁پڑا	-10.567
▁یکین	-10.5679
▁مادن	-10.5682
▁ناشرکاری	-10.5684
▁گریت	-10.5691
▁قیمتانی	-10.5693
▁سڑک	-10.5695
▁بزنجو	-10.5699
▁ریس	-10.57
▁درونت	-10.5704
▁کیسگ	-10.5705
▁اخراجات	-10.5705
اہاں	-10.5709
▁بلو	-10.571
▁شورو	-10.5713
▁اندازہ	-10.5713
▁گئے	-10.5716
▁سطح	-10.5718
▁جیڑہانی	-10.5726
▁سیستان	-10.5734
▁ہاں	-10.5738
▁دروشمء	-10.5738
▁دلبند	-10.5742
▁ادیب	-10.5742
▁فتح	-10.5746
دا	-10.5748
▁گواچنی	-10.5753
▁سروزیر	-10.5758
▁عذاب	-10.576
▁برا	-10.5762
▁لالا	-10.5762
▁درمیان	-10.5763
▁فلسفی	-10.5765
▁بلاش	-10.5767
▁ذہن	-10.5778
▁امارات	-10.5787
▁پروشت	-10.5795
▁پرچیکہ	-10.5795
▁پتو	-10.5796
▁ھڈ	-10.5801
▁داتہ	-10.5802
وئی	-10.5804
▁گلء	-10.5811
▁بوج	-10.5812
▁خضدار	-10.5812
▁ہندو	-10.5816
▁غریب	-10.5816
▁بیتہ	-10.5817
▁واہ	-10.5817
▁عاشق	-10.5818
▁کواس	-10.5821
▁use	-10.5825
▁وارث	-10.583
▁احوال	-10.5832
▁وردن	-10.5832
▁century	-10.5834
▁شاکر	-10.584
▁دیوک	-10.584
▁16	-10.5841
▁8	-10.5846
انے	-10.5851
▁پرایمن	-10.5855
▁ہونے	-10.5855
▁سودا	-10.5858
▁After	-10.586
▁جمیل	-10.5864
▁جرمن	-10.5865
▁لئیب	-10.5868
▁لذت	-10.5873
▁کرسی	-10.5873
اؤ	-10.5873
▁حیر	-10.5877
▁رستگیں	-10.5878
▁مشت	-10.588
▁جمال	-10.5883
▁تیلانک	-10.5891
▁کترینا	-10.5896
▁کروڑ	-10.5897
▁کاپر	-10.5903
▁نکنت	-10.5903
▁پیگمبر	-10.5905
▁اسد	-10.5906
▁W	-10.5907
▁دگراں	-10.5917
▁7	-10.5924
بوتگ	-10.5924
▁نوکتریں	-10.5925
▁پابندی	-10.5927
▁زراں	-10.5929
▁four	-10.5937
▁یہاں	-10.5938
▁پکرء	-10.5943
▁ڈولدار	-10.5943
▁گلی	-10.5944
وٹ	-10.595
▁9	-10.595
اشی	-10.5953
▁گنجیں	-10.5961
▁درامدیں	-10.5963
▁کارچ	-10.5964
▁قائم	-10.5965
▁تالبان	-10.5972
▁چڑھاؤ	-10.5973
▁کڈن	-10.5973
▁فن	-10.5974
▁کٹم	-10.5977
▁مجھے	-10.5981
▁0	-10.5982
▁شخصیت	-10.5985
▁پہلے	-10.5989
▁میران	-10.5993
▁گوادرء	-10.5997
▁چکء	-10.5998
▁گراہک	-10.5999
▁پئیم	-10.6003
▁بباں	-10.6005
▁چیف	-10.6009
▁شوک	-10.601
▁شرکت	-10.6011
g	-10.6011
▁مرگے	-10.6016
▁کائے	-10.6025
▁سٹی	-10.6029
▁طالبان	-10.6031
▁مج	-10.6034
▁دوئمی	-10.6036
▁کمکیں	-10.6039
................	-10.6039
▁تین	-10.6042
▁12	-10.6045
▁جنگے	-10.6046
▁دوران	-10.605
▁توکلی	-10.6051
▁شانزدہ	-10.6053
▁sever	-10.607
▁American	-10.6072
▁ماث	-10.6073
▁حیالء	-10.6077
ێ	-10.608
▁ھیالانی	-10.6085
▁گمانی	-10.6089
▁ماھے	-10.6092
▁ایکشن	-10.6095
▁رحمت	-10.6098
▁فکری	-10.6104
▁دئینت	-10.6106
▁وپتگ	-10.6107
▁غالب	-10.6109
▁دلانی	-10.6111
▁دلگوشی	-10.6121
▁یے۔	-10.613
▁عبادت	-10.6136
▁مندیں	-10.6136
▁ھمد	-10.6139
داریں	-10.6142
ٹر	-10.6145
▁چمگ	-10.6146
▁بجار	-10.6147
▁الما	-10.6149
▁ازاتیں	-10.6151
▁ھل	-10.6151
▁دلا	-10.6153
▁کاینت۔	-10.6155
▁گرک	-10.6155
▁دعوت	-10.6158
▁گشی	-10.6158
▁سٹ	-10.6159
▁لسبیلہ	-10.6161
اہ	-10.6162
▁جہاز	-10.6165
▁پلامرزی	-10.6167
▁تیوگ	-10.6171
▁بٹ	-10.6175
▁کوہن	-10.6175
▁زھم	-10.6178
▁دیت	-10.6178
▁اصف	-10.6182
▁جاڑیگ	-10.6184
▁منوگر	-10.6189
جا	-10.619
▁درخواست	-10.6196
راہ	-10.62
▁زبر	-10.6203
▁کسےء	-10.6208
▁بجن	-10.6211
▁بیلٹ	-10.6212
▁بوھگء	-10.6212
▁مسال	-10.6217
▁گوار	-10.622
▁ته	-10.622
سن	-10.6224
▁فی	-10.6225
▁سراں	-10.6231
▁فلسفہء	-10.6233
▁نبشته	-10.6233
▁گروک	-10.6234
ہو	-10.624
▁حاتم	-10.6241
▁ریکارڈ	-10.6245
یگیں	-10.6246
▁پلگار	-10.6252
▁صحت	-10.6257
▁دیوانجاه	-10.6259
روان	-10.626
▁کارستانی	-10.626
▁یاگی	-10.6271
غاں	-10.6274
▁مرو	-10.6274
گار	-10.6275
▁ساڑا	-10.6276
▁اڑے	-10.6278
▁شگان	-10.628
▁گرنچ	-10.6283
▁کن۔	-10.6284
▁بهر	-10.6284
▁نازرکیں	-10.6287
▁زبانی	-10.6288
▁زھگے	-10.6295
▁برطانیہ	-10.6296
▁تحت	-10.6296
▁مھتل	-10.6306
▁ڈگارانی	-10.6307
▁بھار	-10.6308
et	-10.6308
▁ہنر	-10.631
▁براتاں	-10.6312
▁بھت	-10.6316
▁ہستی	-10.6319
▁team	-10.632
▁راستیء	-10.6334
▁نگیگ	-10.6339
▁درائی	-10.6342
▁وراک	-10.6346
▁near	-10.6347
▁جنازہ	-10.6351
▁نماسگ	-10.6359
▁وپا	-10.637
▁ہواریں	-10.6372
▁ڈیل	-10.6377
▁حمایت	-10.6382
▁زھگاں	-10.6387
▁پیسری	-10.639
▁تراکے	-10.6398
cause	-10.6399
▁فرانسیسی	-10.64
▁توجیل	-10.6401
▁دربار	-10.6408
▁پلے	-10.6409
▁محفوظ	-10.6411
▁پیشدارگ	-10.6422
▁بندیگیں	-10.6422
▁پنجابی	-10.6429
▁کربانی	-10.6429
▁ریکی	-10.6431
▁گہتر	-10.6439
▁O	-10.6446
▁کارمستر	-10.6446
▁دابیں	-10.6449
▁جسٹس	-10.6459
▁اسٹیشن	-10.6464
▁سماجی	-10.6466
▁جہانء	-10.6466
▁گوھر	-10.647
▁رپ	-10.6471
▁علمء	-10.6473
▁سیہ	-10.6482
▁ٹو	-10.6487
▁مہکم	-10.649
▁عجب	-10.6495
▁ورنایاں	-10.6501
▁اظہار	-10.6506
دگ	-10.6512
▁قدرتی	-10.6514
▁remain	-10.6522
تک	-10.6527
▁کلمتی	-10.653
▁روئے	-10.6532
▁سیزدہ	-10.6533
▁رنداں	-10.6537
▁زوتاں	-10.6542
▁کامریڈ	-10.6544
▁دلپدردی	-10.6545
▁روا	-10.6547
f	-10.6554
▁زلورت	-10.6554
▁پاشک	-10.6555
ئیگ	-10.6555
▁کارکن	-10.6556
▁دردانی	-10.6557
رنگ	-10.6558
▁محکم	-10.6561
▁چھبار	-10.6561
▁گیٹ	-10.6561
▁سستگ	-10.6566
▁دستے	-10.657
▁گسء	-10.657
son	-10.6573
▁سالونک	-10.6574
▁شعرے	-10.6574
▁چت	-10.6575
اوں	-10.6576
▁شکاری	-10.6578
▁final	-10.6583
▁ہوتے	-10.6586
▁امیری	-10.6587
▁ھژدہ	-10.6588
▁ماتیں	-10.6591
▁سریاب	-10.6591
▁ح	-10.6593
k	-10.6594
▁درکنگ	-10.6606
▁رگام	-10.661
▁جوڑشت	-10.661
▁روز	-10.6611
▁سئی	-10.6612
کتگ	-10.6613
▁ھژدری	-10.6616
▁ھیالاں	-10.6617
▁زوربیگواہ	-10.6623
▁کرتہ	-10.6625
ض	-10.663
شما	-10.6635
▁براھوئی	-10.6636
▁جنگانی	-10.6636
ناں	-10.6643
▁لچ	-10.6648
▁گیرت	-10.665
▁ساچان	-10.665
▁کارندھاں	-10.6654
▁پدائی	-10.6656
▁جاتی	-10.6658
انک	-10.6658
▁پنجاپ	-10.666
▁شیطان	-10.666
▁براتانی	-10.6663
▁لنٹانی	-10.6664
▁شتیں	-10.6666
▁بش	-10.6668
▁پارٹیء	-10.6669
▁راہبند	-10.6669
▁میش	-10.667
▁بلۆچ	-10.667
▁early	-10.6671
▁لنگ	-10.6673
▁بنپد	-10.6674
▁مید	-10.6675
▁کنٹ	-10.6676
▁زمانہ	-10.6677
▁دودا	-10.6677
▁امد	-10.6677
▁لوزانک	-10.6678
▁could	-10.668
▁حافظ	-10.6686
▁انڈیا	-10.6688
▁17	-10.6692
▁کتنت	-10.6693
▁دوریں	-10.6694
▁نادر	-10.6696
▁بوجیگ	-10.6698
▁گوشیں	-10.6703
▁رھبندانی	-10.6704
▁اپنا	-10.6709
▁درایگ	-10.6717
▁ذہنی	-10.6718
ا۔	-10.6735
▁گشندہ	-10.6737
نبشتہ	-10.6738
▁گیں	-10.674
▁سیکرٹری	-10.6746
رند	-10.6746
▁کئیت۔	-10.6749
علی	-10.675
▁شدت	-10.6751
▁did	-10.6757
▁اخلاق	-10.6761
▁سمل	-10.6761
▁تکانسر	-10.677
▁سپاھی	-10.6771
▁زمینی	-10.6782
▁G	-10.6784
واب	-10.6784
▁جہگیر	-10.6785
پت	-10.6787
▁رنگی	-10.6787
▁صادق	-10.679
▁ٹوک	-10.6791
▁جرمنی	-10.6793
▁اولاک	-10.6799
▁پان	-10.68
▁یونان	-10.6801
▁پیداگ	-10.6801
▁توانائی	-10.6809
▁ترینت	-10.6814
▁ڈبلیو	-10.6814
''	-10.6814
el	-10.6819
▁مشک	-10.682
▁شامل	-10.6821
▁چیل	-10.6821
▁میز	-10.6821
▁سہت	-10.6826
▁توبہ	-10.6827
نڈ	-10.6832
▁کارندھانی	-10.6834
▁پیرا	-10.684
▁place	-10.6843
▁چمن	-10.6845
▁اپسر	-10.6845
▁زاہ	-10.6849
▁Al	-10.686
▁سلاھاں	-10.6868
۔۔۔۔۔۔	-10.6869
▁ھلاسی	-10.6872
▁زہری	-10.6873
▁دارگء	-10.6876
▁اوشتگ	-10.6877
▁باغ	-10.6878
""	-10.688
▁سنگتی	-10.6884
ist	-10.6887
▁ہمیشی	-10.6889
▁سمائی	-10.6902
▁قدرت	-10.6905
▁مبارکی	-10.6906
▁back	-10.6907
ایانی	-10.6913
▁ڈرامہ	-10.6914
▁جہلی	-10.6917
▁گوریچانی	-10.6921
گوش	-10.6921
▁اهانی	-10.6924
▁ٹوھیں	-10.6928
▁زانیں	-10.6932
▁میت	-10.6937
▁قیمت	-10.6939
▁درکپتگ	-10.694
▁سببا	-10.6941
▁along	-10.6947
▁ذریعہ	-10.6948
▁خلافا	-10.6953
▁کشاں	-10.6954
▁She	-10.6963
▁جمالی	-10.6967
▁حاکمی	-10.6968
▁دوت	-10.697
▁بیانیہ	-10.6972
▁شبیر	-10.698
▁ائیئ	-10.6983
▁کائنات	-10.6985
▁یکجا	-10.6989
▁بوچ	-10.6989
▁منٹ	-10.6993
▁لنکک	-10.6996
▁معناء	-10.6999
▁کتابجاہ	-10.6999
▁جنینانی	-10.6999
▁نیمروچ	-10.7004
▁may	-10.7019
▁شلوار	-10.7019
▁کمان	-10.7019
▁تاکے	-10.702
▁نائب	-10.7026
▁sai	-10.7034
▁ننداں	-10.7038
▁ون	-10.7041
▁دوئینانی	-10.7041
▁نوش	-10.7042
▁دبئی	-10.7042
▁حفیظ	-10.7043
▁سوشلزم	-10.7045
ایش	-10.7049
▁مسک	-10.705
▁رۆچ	-10.7053
▁لبزء	-10.7056
▁پرنٹ	-10.7061
▁ٹل	-10.7064
▁زرے	-10.7065
یکے	-10.7073
▁شی	-10.7074
نک	-10.7074
▁عاجز	-10.7075
▁بلال	-10.7076
▁تھانہ	-10.7082
تنت	-10.7082
▁مریت	-10.7091
▁صبور	-10.7097
▁بشکھندگ	-10.71
▁جور	-10.7107
▁مارکس	-10.7108
▁جھمنندیں	-10.7109
▁ہواری	-10.7113
▁اشتاپی	-10.7116
▁نوبت	-10.7117
ber	-10.7121
▁است۔	-10.7124
▁داشتگیں	-10.7131
اہانی	-10.7131
▁پہم	-10.7132
▁تاگت	-10.7144
سو	-10.7145
▁جسمانی	-10.7146
▁سہریں	-10.7147
▁شخص	-10.7149
▁مشکول	-10.7151
مرگ	-10.7161
▁تچکی	-10.7163
▁زنڈیں	-10.7165
▁مردمانء	-10.7166
گانی	-10.7166
ماہ	-10.7168
▁لیڈر	-10.7179
▁لرز	-10.718
▁تھر	-10.7183
▁نزینکی	-10.7185
▁شئیرانی	-10.7188
▁راجاں	-10.7188
▁پسء	-10.7191
▁رہادگ	-10.7193
▁نیتکگ	-10.7194
▁ساریء	-10.7195
▁ہون	-10.7196
▁ایمنیں	-10.7199
▁تیزی	-10.7199
کرت	-10.7202
▁بلبل	-10.7205
▁کتابی	-10.7206
▁زحم	-10.7206
کتاب	-10.7208
ton	-10.721
▁اصلی	-10.7215
▁رکھینگ	-10.7217
▁بحرین	-10.7217
▁کاردار	-10.7218
▁ارزانی	-10.7222
▁زانت۔	-10.7225
▁انت۔۔۔۔	-10.7229
▁حیثیت	-10.723
▁عوامی	-10.7232
اردو	-10.7234
▁کراچیء	-10.7241
▁ناشرکار	-10.7241
▁بزیں	-10.7244
۔ہمے	-10.7245
▁واباں	-10.7249
▁ھمل	-10.7254
▁حنیف	-10.7257
▁گوازین	-10.7259
▁ڈرون	-10.7267
▁کپتہ	-10.7271
▁کاگدے	-10.7274
ید	-10.7276
▁روتاک	-10.7282
▁زوان	-10.7282
▁نعمت	-10.7287
▁جنسی	-10.7289
▁گے	-10.7291
▁ھست۔	-10.7292
▁عالمی	-10.7293
▁نقش	-10.7299
▁نر	-10.7304
▁مدان	-10.7305
▁دید	-10.7305
▁مردگ	-10.7306
▁تاکاں	-10.7306
لچہ	-10.7307
▁کارڈ	-10.7307
▁کماندار	-10.7311
▁ببنت	-10.7314
▁جیونی	-10.7315
▁روت۔	-10.7316
▁اسکانی	-10.7317
▁جہ	-10.7319
▁بروکیں	-10.7319
نز	-10.7321
▁وسائل	-10.7331
▁درستانی	-10.7334
کور	-10.7336
▁باب	-10.7339
▁لینگویج	-10.734
▁سواری	-10.7341
▁پٹء	-10.7342
▁اکر	-10.7344
▁War	-10.7346
▁جلال	-10.7346
▁گت	-10.7348
▁شیپ	-10.7356
▁11	-10.7361
زم	-10.7361
▁صلاح	-10.7363
▁کارگشاد	-10.7363
▁مسعود	-10.7366
▁حلاپ	-10.7368
▁ندیم	-10.737
▁مرگانی	-10.7376
بد	-10.7385
▁لولی	-10.7387
▁بلا	-10.7392
▁ہمنچو	-10.7394
▁کمزور	-10.7394
▁بین	-10.7395
▁لیکگ	-10.7399
▁گروپ	-10.7399
▁وابء	-10.7402
▁شوق	-10.7405
▁داخل	-10.7413
▁صدیق	-10.7417
▁پکرانی	-10.7419
▁سرگ	-10.742
▁شانگ	-10.7424
▁افلاطون	-10.7426
▁مصر	-10.7431
▁At	-10.7433
ia	-10.7437
▁کوچ	-10.7444
▁کلو	-10.7444
▁بکار	-10.7446
▁بنگیجی	-10.745
▁داشتگ۔	-10.7451
▁ہب	-10.7452
▁جمع	-10.7453
▁ستکگ	-10.7454
▁توکء	-10.7456
▁گرانی	-10.7458
▁پگار	-10.7459
▁یونٹ	-10.7465
▁ھؤر	-10.7466
ینیت	-10.7469
▁تعالیٰ	-10.7472
▁انسانیت	-10.7473
▁دیگی	-10.7473
▁فلم	-10.7475
گری	-10.7484
▁لنٹاں	-10.7487
▁زگریں	-10.7489
▁انگیر	-10.7491
▁بستارے	-10.7493
▁حکمت	-10.7494
▁پترگ	-10.7495
▁بہتام	-10.7496
▁سبر	-10.7496
پٹ	-10.7499
▁ھزارانی	-10.7501
age	-10.7503
گال	-10.7505
▁L	-10.751
▁سنٹ	-10.7512
▁day	-10.7513
▁ہدا	-10.7513
▁فورسز	-10.7515
▁روم	-10.7516
▁پو	-10.7523
▁راھشون	-10.7525
▁یعقوب	-10.7526
ok	-10.7527
▁ازت	-10.7529
▁قربان	-10.7532
▁کاپٹر	-10.7533
▁بوتگاں	-10.7535
▁جنس	-10.7539
▁باھوٹ	-10.7539
round	-10.7545
▁زاتی	-10.7552
▁فکرء	-10.7552
▁شہم	-10.7554
▁میانی	-10.7555
▁دئیں	-10.7555
▁city	-10.7555
▁بغیر	-10.7556
▁شھیدانی	-10.7556
▁براہوئی	-10.7558
▁چئیرمین	-10.7564
▁15	-10.7569
▁سرباز	-10.7574
▁وسیلگ	-10.7574
دوست	-10.7575
▁موسیٰ	-10.7578
▁same	-10.7584
▁original	-10.7589
ue	-10.7592
▁ٹرک	-10.7593
▁راستے	-10.7594
▁نہاد	-10.76
▁نئیکہ	-10.7607
▁unti	-10.7607
▁کنز	-10.7609
▁پرز	-10.7614
▁million	-10.7615
▁چکر	-10.7618
▁سنگین	-10.7623
▁اسکی	-10.7627
ment	-10.7628
▁دمانء	-10.763
▁اوگام	-10.7641
▁پھم	-10.7642
▁میٹر	-10.7643
▁پادا	-10.765
▁ڈاہ	-10.7652
▁قابل	-10.766
▁کان	-10.766
▁اینکس	-10.7679
▁شئیرء	-10.768
▁بندء	-10.7681
▁لاچاری	-10.7687
▁شیشگ	-10.7689
▁لانک	-10.7691
▁برائی	-10.7693
▁کربان	-10.7693
▁یاتانی	-10.7694
▁ارشکار	-10.7703
▁مرزا	-10.7708
▁انت۔بلے	-10.771
▁زاہد	-10.7714
چر	-10.7724
▁بگندے	-10.7724
▁کھولاں	-10.7725
بت	-10.7729
▁people	-10.7729
▁احتگ	-10.7734
▁گیجگ	-10.7738
ازم	-10.7739
▁پجارگ	-10.7745
▁return	-10.775
▁نپس	-10.7751
▁بدنء	-10.7752
▁بچکے	-10.7754
▁تتکگ	-10.7757
▁دہک	-10.7759
▁any	-10.7761
▁ship	-10.7764
▁حل	-10.7771
▁توکل	-10.7771
▁off	-10.7775
▁کارا	-10.7775
▁درء	-10.7776
یشن	-10.778
▁نوجوان	-10.7781
▁محدود	-10.7782
▁جہہ	-10.7784
▁؂۔	-10.7784
▁عثمان	-10.7786
▁وارت۔	-10.7787
شان	-10.7789
▁پلیٹ	-10.7789
▁20	-10.7791
▁گوانکو	-10.7796
▁May	-10.7802
▁North	-10.7803
▁جامگ	-10.7804
▁بستارء	-10.7809
▁اوتاک	-10.781
▁چاریگ	-10.7811
▁کاریں	-10.7812
▁راہے	-10.7813
▁جمہوریت	-10.7814
▁لینڈ	-10.7819
▁km	-10.7823
▁سربازی	-10.7824
▁ست	-10.7825
پرچا	-10.783
▁مکتب	-10.7831
یات	-10.7832
▁ٹیسٹ	-10.784
▁بیغ	-10.7841
▁زانتکاریں	-10.7842
ٹک	-10.7847
▁لیبی	-10.785
▁جر	-10.7851
▁نازء	-10.7851
▁اخری	-10.7852
▁کلچر	-10.7854
▁میتگاں	-10.7858
▁ھشتاد	-10.786
▁زانتء	-10.7862
▁نفسیات	-10.7863
▁نکان	-10.7865
▁main	-10.7866
رگ	-10.7866
▁b	-10.7867
▁ڈیہی	-10.7868
ادا	-10.7871
ایک	-10.7873
▁بانل	-10.7874
▁اکرم	-10.7875
▁پریشانی	-10.7876
▁قیامت	-10.7879
▁دابے	-10.7881
▁رمگ	-10.7888
▁They	-10.7889
▁خطرہ	-10.789
▁گوستانک	-10.7891
▁player	-10.7892
▁تھاری	-10.7893
▁طبقہ	-10.7901
▁رہی	-10.7902
▁نوکر	-10.7904
▁پٹی	-10.7908
▁ظاھر	-10.7909
▁بلند	-10.7909
▁جلد	-10.7917
▁مہری	-10.7918
▁جنجالاں	-10.7919
▁حشک	-10.792
▁گاڑیاں	-10.792
▁کمیونسٹ	-10.7923
▁امباز	-10.7925
▁نبیسی	-10.7927
▁زاری	-10.7929
▁پشتو	-10.7933
▁ارتگ	-10.7934
▁منانک	-10.7935
▁پجہ	-10.7937
▁حیدر	-10.794
▁عہدی	-10.7941
▁ریپبلکن	-10.7941
▁خوش	-10.7945
▁ھاں	-10.7947
▁بوٹ	-10.795
▁ھوت	-10.7956
▁force	-10.7958
▁سبا	-10.7958
▁زوراکیں	-10.7967
▁نبوتگ	-10.7976
▁قربانی	-10.7981
یتگ	-10.7983
▁down	-10.7985
▁سالیں	-10.7986
▁برورد	-10.7988
▁تبء	-10.7991
▁ہزاراں	-10.7995
▁شودگ	-10.7997
ive	-10.7998
گیر	-10.8001
▁August	-10.8004
▁how	-10.8005
▁ورد	-10.8007
▁ششمی	-10.8009
▁گیت	-10.8009
مر	-10.8014
▁ورگء	-10.8016
▁ثبوت	-10.8016
▁تش	-10.8018
▁بہشت	-10.8019
ژ	-10.8023
▁ہنکین	-10.8027
▁John	-10.8033
▁شہداد	-10.8038
▁بیسہ	-10.804
▁بزگر	-10.8041
▁انچوشکہ	-10.8045
▁بارگ	-10.8046
▁گوشے	-10.8048
▁How	-10.8051
ry	-10.8053
▁الرحمن	-10.8072
▁شوانگ	-10.8079
▁لانگ	-10.808
▁زانگء	-10.808
▁لحاظ	-10.8081
▁سبزل	-10.8082
▁مپت	-10.8086
▁جتیں	-10.8087
▁اییا	-10.8087
گندگ	-10.8092
▁کپتاں	-10.8093
بنت	-10.81
▁وھدا	-10.8101
▁ایسا	-10.8101
▁اگ	-10.8102
مل	-10.8108
▁دعویٰ	-10.8113
▁دلپروش	-10.8115
▁وڈا	-10.812
▁دلمراد	-10.8121
▁South	-10.8123
▁مثل	-10.8125
▁محکمہ	-10.8127
▁گواتء	-10.8128
▁درگتء	-10.8128
▁ونڈ	-10.8131
▁سادگیں	-10.8131
▁ه	-10.8137
نس	-10.8138
واں	-10.8141
▁انٹرنیٹ	-10.8146
▁دانشور	-10.8148
فر	-10.8148
▁ماہء	-10.8152
▁اسرء	-10.8155
▁قومانی	-10.8159
▁واد	-10.8159
▁بندے	-10.8161
▁name	-10.8164
▁گدارء	-10.8166
لبزانک	-10.8168
▁پابند	-10.8172
▁لوٹوک	-10.8176
▁مغربی	-10.8179
▁شائرے	-10.8179
منا	-10.818
▁رؤکیں	-10.8181
▁سراج	-10.8185
▁کپنت	-10.8185
▁گڑاں	-10.819
▁سازگ	-10.8193
سہ	-10.8197
▁دوسرے	-10.8203
▁جبر	-10.8203
2	-10.8205
▁releas	-10.8208
▁کشگء	-10.8212
▁دیمرئی	-10.8215
▁ویب	-10.8221
▁اہمیت	-10.8225
▁شانی	-10.8225
▁ھائی	-10.8227
▁دوئیناں	-10.8229
▁جہدے	-10.8231
▁زانتکارانی	-10.8232
▁تکاں	-10.8237
▁ٹیکی	-10.8238
▁اہیء	-10.8241
▁ودان	-10.8241
▁شناسی	-10.8242
▁مبیت	-10.8242
▁هدا	-10.8243
▁انہیں	-10.8253
▁واہش	-10.8254
▁زوراکیاں	-10.8255
▁ازمانکاں	-10.8256
▁شپانک	-10.8259
▁شعراں	-10.8259
▁برف	-10.8267
▁H	-10.8268
▁کلم	-10.8269
▁درکیت	-10.8269
▁ڈالچار	-10.8271
▁مڈیانی	-10.8272
▁ترسینگ	-10.8273
▁ارزی	-10.8281
▁لوگوں	-10.8282
▁میا	-10.8286
▁اگوں	-10.829
ایا	-10.8295
▁اوداں	-10.8296
▁ھمرائی	-10.8299
▁پریشر	-10.8299
تاک	-10.83
▁یکرندے	-10.83
▁گالے	-10.8301
▁ناگت	-10.8306
▁support	-10.8307
▁معنی	-10.8308
▁رادگ	-10.8313
شک	-10.8314
▁میم	-10.8315
▁مادی	-10.832
▁رے	-10.8322
▁کستر	-10.8322
▁ہک	-10.8329
دات	-10.8331
▁بلاہیں	-10.8332
▁گواز	-10.8341
▁جھدکار	-10.8343
▁مارشتے	-10.8343
▁رپتگ	-10.8347
▁ڈگارء	-10.8349
▁برباد	-10.8352
▁ازباب	-10.8354
▁پانک	-10.8357
▁ہل	-10.8357
▁واریں	-10.836
▁تاہیر	-10.8361
اھاں	-10.8364
▁بوتاں۔	-10.8369
▁زیکیں	-10.8378
سال	-10.8378
▁شیرین	-10.838
▁سوبی	-10.8384
گوشت	-10.8384
▁کشتگ۔	-10.8387
▁قلعہ	-10.8389
▁سوراب	-10.8389
▁life	-10.839
▁٭٭	-10.8391
▁شکست	-10.8394
▁انہوں	-10.8394
مرچی	-10.8396
▁بہرء	-10.84
▁بچکندگ	-10.8401
▁دمکاں	-10.8402
▁شرت	-10.8404
nother	-10.8406
▁مزدور	-10.8409
▁گومازی	-10.8412
▁پگری	-10.8414
▁مستی	-10.8414
گشت	-10.842
▁درگتا	-10.842
▁سیالی	-10.8421
▁گرند	-10.8426
▁بلائیں	-10.8437
ma	-10.8441
▁بارگیں	-10.8441
▁ھاموش	-10.8449
▁شنک	-10.8459
ten	-10.8459
اتنت	-10.8467
▁دارایت	-10.8471
▁ادمء	-10.8472
▁فاضلء	-10.8473
▁تمامیں	-10.8478
کوہ	-10.848
▁انتظامیہ	-10.8483
▁قد	-10.8484
▁ہفت	-10.8486
▁ایشیا	-10.8488
چون	-10.8491
▁receiv	-10.8491
▁گاہ	-10.8492
▁وئیلے	-10.8495
▁ہیر	-10.8499
▁نندیت	-10.8502
▁یکدم	-10.8503
ڈو	-10.8509
▁small	-10.851
▁مزاحمتی	-10.8511
کسہ	-10.8517
▁بوؤکیں	-10.8518
وری	-10.8525
▁مگسی	-10.8528
ران	-10.8528
▁بانزل	-10.8532
▁بیں	-10.8535
▁ھاس	-10.8539
▁گپتار	-10.8543
▁St	-10.8545
نٹ	-10.8547
▁حبرء	-10.8553
▁کالونی	-10.8553
وف	-10.856
▁گشنت۔	-10.8564
▁لائبریری	-10.8569
▁ڈیم	-10.8571
▁مزنی	-10.8574
▁مزل	-10.8574
▁پترتگ	-10.8576
▁lead	-10.8579
▁درجگ	-10.8584
بچار	-10.8592
▁سئیل	-10.8596
▁لبزے	-10.8597
▁ھردوکیں	-10.8599
لک	-10.8605
▁زانئے	-10.8605
▁نگدی	-10.8605
▁اسکور	-10.8611
▁رضی	-10.8617
▁لچھ	-10.8623
▁تیرانی	-10.8624
▁واز	-10.8624
کان	-10.8628
▁دارو	-10.863
?"	-10.8634
ارگ	-10.8634
▁مولاداد	-10.8635
▁ریفرنس	-10.8637
▁وه	-10.864
لہ	-10.8641
▁سیمسری	-10.8642
▁دزگٹ	-10.8646
▁group	-10.8646
وء	-10.8651
شاعری	-10.8652
▁جستء	-10.8653
▁کرنل	-10.8658
▁راھی	-10.8659
ود	-10.866
▁احسان	-10.866
▁ھکومت	-10.866
▁سرپ	-10.8668
▁start	-10.8676
▁Be	-10.8677
ڈر	-10.8678
x	-10.8679
▁شریک	-10.868
▁Septe	-10.868
▁اینچک	-10.8689
▁مریم	-10.8693
▁عہدء	-10.8693
▁پوک	-10.8696
وھدے	-10.8698
▁رھشونی	-10.8698
▁مدینہ	-10.8703
جہ	-10.8715
▁each	-10.8715
▁پلان	-10.8716
▁پہمگ	-10.8718
▁روانکے	-10.8722
▁درج	-10.8723
▁غ	-10.8727
شن	-10.8727
گان	-10.8737
▁پریشی	-10.8745
▁باقی	-10.8745
▁ملیر	-10.8746
▁بیزار	-10.8746
▁رود	-10.8748
وکین	-10.8751
▁شاه	-10.8753
▁حر	-10.8753
فی	-10.8754
▁باھو	-10.8756
▁وتئی	-10.8758
▁c	-10.8759
▁German	-10.8761
▁صفحہ	-10.8762
▁مڑدم	-10.8763
پا	-10.8763
▁طارق	-10.8764
▁دروریں	-10.8767
▁رمب	-10.8767
گڈا	-10.8767
انچو	-10.877
▁گیشین	-10.8772
▁علامت	-10.8774
if	-10.8776
▁افغان	-10.8776
▁کرز	-10.878
?’’	-10.878
▁عطاء	-10.8781
▁امبار	-10.8783
▁مہلوکء	-10.8786
▁البتہ	-10.8788
▁معنائی	-10.8789
▁توئے	-10.8789
▁بیماری	-10.8795
▁امبازاں	-10.8797
▁قحطانی	-10.8807
▁تھی۔	-10.8817
▁گوشتی	-10.882
▁اداں	-10.882
▁کسه	-10.8822
▁اییئے	-10.8824
▁دوستدار	-10.8824
▁توم	-10.8824
▁زوران	-10.8825
راج	-10.8826
▁سنگے	-10.8829
▁وداریگ	-10.8829
یش	-10.883
▁World	-10.8831
▁کوه	-10.8832
▁برتگ۔	-10.884
یٹ	-10.8843
▁ڈگری	-10.8847
▁جسد	-10.8848
▁جھ	-10.8852
▁مد	-10.8854
▁سدکی	-10.8855
▁بلڈ	-10.886
▁دێما	-10.8866
▁لاھور	-10.8867
▁لیکھ	-10.8868
▁ناک	-10.8871
▁گسر	-10.8872
ملک	-10.8876
▁فرد	-10.8878
شاعر	-10.8879
▁سیاستء	-10.8882
▁ارد	-10.8882
▁ھزمت	-10.8883
▁مقامی	-10.8887
▁شموش	-10.8889
▁نازینک	-10.8896
▁سکا	-10.8903
▁ہسپتال	-10.8907
▁یت	-10.8911
▁گوارگ	-10.8913
z	-10.8913
▁حیالاں	-10.8917
▁فٹ	-10.892
▁دلمانگ	-10.892
▁ترسے	-10.8925
▁ملی	-10.8928
▁عرض	-10.893
▁نگن	-10.8931
▁هزار	-10.8931
▁بڑی	-10.8931
▁رپت	-10.8939
▁لاشانی	-10.8941
▁توری	-10.8944
ھچ	-10.8945
▁ھنچشیں	-10.8952
▁ترء	-10.8959
▁پھریز	-10.8959
رز	-10.8962
▁سقراط	-10.8962
▁محراب	-10.8963
▁کبرستان	-10.8964
انسان	-10.8965
▁سگگ	-10.8966
▁دھکان	-10.8967
▁زون	-10.8967
▁انگو	-10.897
▁پہریز	-10.8973
▁دریاء	-10.8974
▁زانشتی	-10.8974
▁کبھی	-10.8976
▁زندمانی	-10.8977
▁وکٹ	-10.898
▁دمے	-10.8981
▁دستان	-10.8983
▁لزت	-10.8983
▁five	-10.8983
▁سروس	-10.8987
▁اؤ	-10.8988
▁سینگار	-10.8992
▁رکین	-10.8992
▁خراب	-10.8995
▁اشتگ	-10.8996
▁ارٹ	-10.8996
▁single	-10.8998
▁چریشاں	-10.9001
▁ڈوک	-10.9005
است	-10.9006
▁اہت	-10.9006
▁دیار	-10.9007
▁دروہ	-10.9009
▁متحدہ	-10.901
▁سھیل	-10.9011
▁سوز	-10.9017
▁بوتہ۔	-10.9018
▁attack	-10.9019
▁بزرگ	-10.9019
▁کانٹ	-10.9021
▁تھام	-10.9027
▁اہان	-10.903
▁جاگھے	-10.9031
▁رات	-10.9038
▁result	-10.9055
▁گردش	-10.9065
▁اپوزیشن	-10.908
▁کافی	-10.9084
▁جزم	-10.9084
▁گورم	-10.9087
▁ترینگ	-10.9091
▁پیغام	-10.9092
▁ماڈل	-10.9094
▁بلی	-10.91
▁نوٹ	-10.91
▁appear	-10.9102
▁سواد	-10.9104
بندی	-10.9104
▁تکنیکی	-10.9106
منء	-10.9109
▁describ	-10.911
زمین	-10.9111
لے	-10.9112
▁یکشمبے	-10.9112
▁لاشاری	-10.9116
▁داتنت	-10.9116
▁مروارد	-10.9118
گین	-10.9121
▁فٹبال	-10.9122
▁کوسٹ	-10.9124
▁دراجی	-10.9125
▁پسگ	-10.9125
▁تنکیں	-10.9132
▁سہبء	-10.9134
▁کڑی	-10.9137
▁پیل	-10.914
▁اشرف	-10.914
▁ٹیبل	-10.9142
▁رژنا	-10.9158
▁کنٹگ	-10.9162
▁تشدد	-10.9164
▁کیلئے	-10.9168
?“	-10.9169
▁کنائینتگ	-10.9169
▁ماتے	-10.9172
▁بنگپانی	-10.9176
کانی	-10.918
▁عقلی	-10.9183
▁جے	-10.9186
▁منارا	-10.9188
▁ترو	-10.9189
▁بنء	-10.919
▁لگتمال	-10.9204
▁شہباز	-10.9206
▁گدارے	-10.9206
▁کوم	-10.9207
▁یقین	-10.921
▁دلاں	-10.9213
▁گپتگ۔	-10.9222
▁گلائیش	-10.9223
▁دوشمبے	-10.9227
▁اگاہ	-10.9227
▁ساچی	-10.9229
الی	-10.9234
▁پیپلزپارٹی	-10.9235
▁سردارانی	-10.9235
▁مگرب	-10.9236
▁ہدایت	-10.9237
▁دیمونی	-10.9238
▁ھورت	-10.9238
▁کلاسیکل	-10.9239
▁کشاری	-10.9241
▁لوار	-10.9242
▁ورک	-10.9244
▁نگور	-10.9247
▁ازمانء	-10.925
▁own	-10.925
▁جننت	-10.9251
▁ماھی	-10.9254
ch	-10.9257
▁شهر	-10.9261
▁جلوہ	-10.9267
▁مدار	-10.9268
وخ	-10.9269
▁زہگاں	-10.9276
▁ابیتک	-10.9282
▁تعلقداری	-10.9284
▁ایردستیں	-10.9284
▁پورٹ	-10.9284
▁باں۔	-10.9285
▁music	-10.9286
▁نازل	-10.9287
▁گاماں	-10.9289
▁ھا	-10.9293
▁بسمل	-10.9294
مہر	-10.9295
▁اناگت	-10.9297
مرد	-10.9309
▁ھرنائی	-10.9309
▁ظہور	-10.9311
▁جنزگ	-10.9318
▁کمکے	-10.9318
لگ	-10.9318
یئ	-10.9318
▁consider	-10.932
نیں	-10.9321
▁ویڈیو	-10.9325
▁چھر	-10.9329
▁وانیت	-10.9334
▁دالبندین	-10.9334
▁سبزی	-10.9334
▁بورڈ	-10.9337
مزنیں	-10.934
▁ملین	-10.934
▁تکانسری	-10.9341
رء	-10.9343
▁ایلیٹ	-10.9345
▁دومیء	-10.9348
▁سینٹر	-10.9351
▁تحقیق	-10.9355
▁دارگی	-10.9357
▁Dur	-10.9365
▁اثرات	-10.9365
▁کسہانی	-10.9365
▁نگار	-10.9366
▁سالروچ	-10.9368
▁وراں	-10.937
▁پربند	-10.937
▁کوہانی	-10.938
▁great	-10.9381
▁ایجنٹ	-10.9382
▁گونگیں	-10.9387
▁رزاق	-10.9388
ێا	-10.9389
▁درنیام	-10.9389
▁بیچ	-10.9389
▁یکروچے	-10.9398
▁ٹپیگ	-10.9403
راں	-10.9404
▁شوھازگ	-10.9404
uch	-10.9405
اھانی	-10.9406
راست	-10.9406
شیر	-10.9406
▁نشنل	-10.9406
▁June	-10.9406
▁پارلیمنٹ	-10.941
▁کابینہ	-10.9418
▁بکنیں	-10.9421
مند	-10.9426
▁رئیسی	-10.9434
▁سدانی	-10.9436
▁لاشار	-10.9438
▁رؤ	-10.9441
▁روگن	-10.9443
▁ادریس	-10.9444
▁بحر	-10.9446
▁جنگا	-10.9448
▁نفس	-10.9455
ها	-10.9467
▁کرکے	-10.9467
▁بلۆچی	-10.9469
▁اتیں۔	-10.947
▁زاھد	-10.9476
▁مھروان	-10.9481
▁صالح	-10.9484
یو	-10.9485
▁کردی	-10.9487
▁پژدرء	-10.9487
▁شاپ	-10.9489
▁اولاد	-10.9497
▁حبیب	-10.9498
▁مونجا	-10.9501
▁میرو	-10.9511
▁لہتین	-10.9511
ie	-10.9516
▁کوشت	-10.9519
▁ھوشاپ	-10.952
▁قسمت	-10.9521
▁دنیگہ	-10.9523
▁انٹر	-10.9524
رانی	-10.9528
▁مردی	-10.9535
▁مبارکیء	-10.9535
▁فیصل	-10.9537
▁مھتر	-10.9537
▁since	-10.9543
▁point	-10.9543
تب	-10.9546
▁پکیر	-10.9553
▁مہتل	-10.9558
▁اتوں	-10.9559
▁طلب	-10.9562
پس	-10.9563
ئت	-10.9567
▁زاکر	-10.9568
▁زندہ	-10.9577
▁دوستاں	-10.9577
کسے	-10.9581
▁دوسری	-10.9581
▁بھٹو	-10.9582
▁شئیرے	-10.9583
▁ژند	-10.9583
کراچی	-10.9584
▁زانشی	-10.9586
▁شعبہ	-10.9586
▁تیرے	-10.9586
▁فرض	-10.959
!’’	-10.9596
▁سانمند	-10.9596
▁دارے	-10.9597
▁پجی	-10.9601
▁زردیں	-10.9605
▁اہد	-10.9608
▁نفسیاتی	-10.9609
اتگ	-10.9609
▁دنیائے	-10.9616
▁سیکیورٹی	-10.9618
▁انت۔ائی	-10.9622
▁انسانانی	-10.9628
▁چیلنج	-10.963
▁برابری	-10.963
▁h	-10.9633
▁Man	-10.9635
▁order	-10.9637
▁استت	-10.9638
▁ات۔من	-10.964
▁جامی	-10.9641
▁نزام	-10.9643
▁Ap	-10.9644
▁انٹرنیشنل	-10.9645
▁ھسین	-10.9645
▁ارزشتے	-10.9647
▁what	-10.9648
▁لوگبانک	-10.9648
▁شوکت	-10.965
▁جیسے	-10.9651
▁چۆ	-10.9651
یس	-10.9651
ھمیش	-10.9651
▁ازمء	-10.9654
▁مرکزی	-10.966
▁واھشت	-10.966
▁نعیم	-10.9661
▁line	-10.9663
نگی	-10.9667
▁جانے	-10.9667
▁بنیاتی	-10.9668
▁گارڈ	-10.967
▁اسن	-10.9671
▁ٹکرے	-10.9672
▁ترگ	-10.9673
▁جهان	-10.9673
▁نزیکء	-10.9678
شرگداری	-10.9681
▁رابطہ	-10.9681
▁ہاتھ	-10.9683
▁States	-10.9685
▁گیابان	-10.9686
▁تہرے	-10.9687
▁مردک	-10.969
که	-10.969
▁ساہت	-10.969
▁اندگہ	-10.9691
▁شالء	-10.9695
▁تراکناک	-10.9701
▁جڑ	-10.9702
▁ئت	-10.9706
species	-10.9707
▁زن	-10.9712
▁لونجان	-10.9714
▁di	-10.9714
▁حالے	-10.9719
▁تنظیم	-10.9722
▁امبر	-10.9726
ہا	-10.973
▁سنگینیں	-10.9735
▁زہ	-10.974
لس	-10.9742
▁سنگانی	-10.9742
▁بھارت	-10.9743
▁مسلمانانی	-10.9744
▁پریدہ	-10.9746
▁قانود	-10.9752
▁چرس	-10.9752
▁دیمترء	-10.9755
▁بیمار	-10.9756
▁اماں	-10.9765
▁اسلوب	-10.9772
▁لوپ	-10.9775
▁No	-10.9777
▁خاطر	-10.9782
▁دئور	-10.9786
▁گندء	-10.9793
▁دگری	-10.9794
▁واجکار	-10.9795
▁مرکء	-10.9797
▁ڈان	-10.9802
▁شنز	-10.9804
▁شمس	-10.9812
▁شرم	-10.9813
کرتگ	-10.9814
کجام	-10.9815
▁کونڈ	-10.9817
▁انت۔من	-10.9817
▁گہتری	-10.9819
▁head	-10.9824
▁دورے	-10.9824
▁وزم	-10.9825
▁وانندگ	-10.9826
▁داگ	-10.9827
▁گپان	-10.9828
درد	-10.9831
▁ابدال	-10.9831
▁پرو	-10.9833
▁شوم	-10.9837
▁دھ	-10.9839
▁دیواناں	-10.984
بیت۔	-10.9842
▁بودلئیر	-10.9844
▁روایتی	-10.9845
▁پارلیمانی	-10.9846
▁reach	-10.9848
▁ادمے	-10.985
▁یکےء	-10.9858
▁قرن	-10.986
▁لیکہء	-10.986
▁ماحول	-10.9864
ty	-10.987
▁کیلو	-10.9871
▁ریاض	-10.9875
▁شگر	-10.988
مار	-10.988
▁رنگاں	-10.9884
▁ہزدار	-10.9887
▁پارک	-10.9887
▁انفارمیشن	-10.9887
▁نمب	-10.9889
ئین	-10.989
▁پیسریگیں	-10.9892
▁رشتگ	-10.9893
▁بیت۔اے	-10.9898
▁پلک	-10.9899
▁famil	-10.9899
▁کوھلو	-10.99
ٹو	-10.9902
▁جنکاں	-10.9904
▁راضی	-10.9905
▁بدلء	-10.9909
▁ساھتے	-10.991
▁نسیب	-10.9912
▁طرز	-10.9914
▁جبین	-10.9915
▁ڈبہ	-10.9916
▁ماہیگ	-10.9916
▁do	-10.9916
▁واقع	-10.9918
لٹ	-10.9918
▁ایسے	-10.9924
▁دودء	-10.9925
لیں	-10.9925
▁system	-10.9925
▁جوہر	-10.9928
▁پگ	-10.9929
▁will	-10.9932
▁کماشیں	-10.9932
▁state	-10.9933
▁late	-10.994
ٹا	-10.9941
▁جمبراں	-10.9945
▁اقتصادی	-10.9947
▁بامرد	-10.9948
▁پات	-10.9951
▁سگی۔	-10.9952
▁دونوں	-10.9954
▁شپانی	-10.9955
▁کلک	-10.9956
▁تپاسگ	-10.9959
▁مکنت	-10.9961
▁مسکرا	-10.9961
▁زورء	-10.9964
▁موسمانی	-10.9969
▁گوئشان	-10.9971
▁An	-10.9972
▁ھیالء	-10.9973
▁پجاہ	-10.9974
▁شب	-10.9978
▁بخت	-10.9982
▁اسک	-10.9991
▁وارس	-10.9993
▁باتن	-10.9993
▁یکجاھی	-10.9994
▁مڑد	-10.9996
▁نل	-10.9997
▁ونگ	-10.9997
▁ایجنسی	-10.9998
▁وشیانی	-11.0005
▁تربیت	-11.0007
▁نعرہ	-11.0007
▁انتظام	-11.0009
▁ائ	-11.0009
▁بچاں	-11.001
▁یدار	-11.0011
وگ	-11.0012
▁کوھاں	-11.0013
▁علاوہ	-11.0017
▁ٹوپ	-11.0019
▁سوری	-11.0025
▁چوناہا	-11.0025
▁فل	-11.0033
▁معیار	-11.0037
▁کانال	-11.0038
▁اہل	-11.0042
rote	-11.0046
پاکستانی	-11.005
پور	-11.0051
▁دارانی	-11.0053
▁ابیتکی	-11.0055
▁ارسطو	-11.0056
▁الف	-11.0057
▁جنیناں	-11.0057
توار	-11.0058
▁دام	-11.0059
▁روشن	-11.0061
▁راجدوستی	-11.0062
▁دودانی	-11.0069
▁last	-11.0069
▁پورسز	-11.007
▁ھورانی	-11.0072
▁جیڑھے	-11.0072
▁علت	-11.0073
▁ترسء	-11.008
▁Octo	-11.0082
▁معنہ	-11.0086
▁داشت۔	-11.0088
▁فرمان	-11.009
▁انگ	-11.0092
▁حدائی	-11.0095
▁ھوری	-11.0095
۔اگاں	-11.0097
▁پیادگ	-11.0098
▁منصور	-11.01
▁جتک	-11.0106
▁بھشت	-11.0107
▁کیف	-11.0108
▁ریسرچ	-11.0111
▁پیداوار	-11.0112
▁مراگشے	-11.0112
▁ہنداں	-11.0112
وڑ	-11.0113
▁رہبندانی	-11.0116
▁لیکہانی	-11.0118
▁چراگے	-11.0118
ھان	-11.0119
مزن	-11.0123
▁13	-11.0123
","","","","","	-11.0126
▁بیہار	-11.013
▁میانء	-11.0132
▁مضبوط	-11.0135
▁............	-11.0138
▁....	-11.0138
▁جعفر	-11.0139
▁کپتگاں	-11.0139
▁لالچ	-11.0139
ril	-11.014
▁قید	-11.0148
▁تمنی	-11.015
▁ڈولا	-11.015
▁کانودی	-11.0151
▁چشین	-11.0152
▁بنگالی	-11.0155
▁بلہ	-11.0159
▁دھلی	-11.0161
▁دژمنی	-11.0162
▁week	-11.0162
▁کلومیٹر	-11.0162
مروچی	-11.0164
▁عابدہ	-11.0168
▁Re	-11.0169
▁ات۔ائی	-11.0172
▁لہڑ	-11.0172
ork	-11.0173
پیر	-11.0173
جت	-11.0174
▁کوریں	-11.0176
▁صوفی	-11.018
▁نبشتانکاں	-11.018
▁دنیایے	-11.0181
▁تازی	-11.0182
▁ہو۔	-11.0183
▁سپاہ	-11.0184
▁رویہ	-11.0184
▁اوتاگ	-11.0186
▁بوتن	-11.0186
پاد	-11.0186
ra	-11.0187
▁won	-11.019
ده	-11.0191
▁اپہ	-11.0192
▁دہکان	-11.0192
▁رکھ	-11.0194
اتاں	-11.0198
▁کیا۔	-11.0201
▁کمکی	-11.0202
▁بولی	-11.0207
▁فری	-11.021
▁گوری	-11.0214
▁گین	-11.0217
ian	-11.022
▁کافر	-11.0221
▁ھمنکس	-11.0222
▁پیغمبر	-11.0225
ren	-11.0227
▁وبا	-11.0231
▁ائین	-11.0238
▁بوتنت۔	-11.0239
▁کیفیت	-11.024
▁سبارگ	-11.0243
▁اسپتال	-11.0244
▁نزء	-11.0244
کنت۔	-11.0244
▁قریش	-11.0245
▁کمرہ	-11.0245
▁کسانکیں	-11.0248
▁پسندیں	-11.0248
▁چراغ	-11.0253
▁درنگ	-11.0255
▁set	-11.0257
▁پیشرد	-11.0259
غی	-11.0259
▁ایرانشھر	-11.0261
▁اردوء	-11.0261
مال	-11.0261
کھ	-11.0268
▁ریکانی	-11.0269
▁درے	-11.027
▁رفیق	-11.0272
▁خمار	-11.0272
▁war	-11.0275
▁تاکانی	-11.0277
▁اوں۔	-11.0279
▁ششت	-11.0279
▁جیڑاں	-11.0284
▁روچا	-11.0286
▁یاتاں	-11.0288
▁غیرت	-11.0289
▁محسوس	-11.029
▁ساچگ	-11.029
▁دوزہ	-11.0293
▁رستگ۔	-11.0295
▁کلاگ	-11.0301
یار	-11.0307
▁کارستے	-11.0309
▁اوت	-11.0314
▁واھگاں	-11.0315
▁گندیم	-11.032
▁اتکاں	-11.032
▁ازل	-11.0323
ائرا	-11.0323
▁تنکہ	-11.0332
ese	-11.0333
▁چپیں	-11.0337
▁گاری	-11.0337
▁ہمینچو	-11.0338
▁اژ	-11.0339
▁پولنگ	-11.0342
مب	-11.0343
▁وہدا	-11.0348
▁خرچ	-11.0349
▁ادارہاں	-11.035
▁مقبول	-11.0354
▁سائیکل	-11.0363
▁نیاتکگ	-11.0363
▁world	-11.0365
▁سازیں	-11.0366
▁پلگ	-11.0369
پان	-11.0369
▁کندیل	-11.037
▁گڈاں	-11.0373
▁گرگء	-11.0375
جست	-11.0376
▁راشن	-11.0377
▁کسب	-11.0378
▁هور	-11.0378
▁پرست	-11.0378
▁همراه	-11.038
▁سوچگ	-11.038
برو	-11.0382
▁ماہناز	-11.0383
▁جاگہاں	-11.0384
▁De	-11.0387
▁بالگرد	-11.0393
▁عبدالواحد	-11.0394
▁ھوناں	-11.04
چوش	-11.0402
▁زہگانی	-11.0406
▁افسوس	-11.0407
▁شیہک	-11.0407
▁مرگاں	-11.0408
▁ترتیب	-11.0408
▁فطرت	-11.041
▁now	-11.0419
▁پہلی	-11.0426
اتک	-11.0429
▁شتہ	-11.0429
▁role	-11.0432
▁ھنی	-11.0433
▁ردانکی	-11.0435
▁درورے	-11.0442
▁زوراں	-11.0445
▁پے	-11.0445
▁بشک	-11.0447
▁شالا	-11.0447
▁کیں	-11.0448
سری	-11.0448
▁تیابدپ	-11.0449
▁گھتر	-11.0449
ھال	-11.045
ous	-11.0452
▁وہاں	-11.0456
▁گشتن	-11.0458
▁لیا	-11.0458
▁داروک	-11.0459
▁همک	-11.0462
▁لوزانی	-11.0464
▁پچار	-11.0464
▁بیث	-11.0465
شعر	-11.0466
▁رونت	-11.0469
▁افیسر	-11.047
زہ	-11.047
▁شاہی	-11.0471
لوٹ	-11.0472
▁سوبء	-11.0472
▁کپاں	-11.0472
▁یہی	-11.0472
▁پروجیکٹ	-11.0473
nd	-11.0473
▁پبلی	-11.0474
یز	-11.0475
▁طریقہ	-11.0476
▁take	-11.0477
▁ڈولداری	-11.0477
▁وابی	-11.0479
▁دلبر	-11.048
▁مٹیں	-11.0482
▁short	-11.0486
▁وعدہ	-11.049
▁ناکیں	-11.0491
گیش	-11.0491
▁گسانی	-11.0492
شتگ	-11.0493
▁ارشاد	-11.05
▁سامنے	-11.05
▁جانء	-11.0501
▁جذبہ	-11.0508
▁خدمت	-11.0515
▁بیورغ	-11.0516
▁کیو	-11.0518
▁لائق	-11.0522
▁رش	-11.0525
▁کسھے	-11.0532
▁پرش	-11.0533
▁due	-11.0534
▁عوام	-11.0541
▁تسلا	-11.0541
▁سیشن	-11.0545
▁دروازگء	-11.0545
دم	-11.0547
▁چمشانکے	-11.055
it	-11.0551
ئن	-11.0552
▁تنت	-11.0552
▁شادی	-11.0553
▁گردگ	-11.0553
▁ایسی	-11.0558
▁نشتہ	-11.0564
▁اشکر	-11.0564
▁الہان	-11.0565
▁بادشاه	-11.0568
▁چلیم	-11.0569
▁ھندء	-11.0569
▁کوٹیء	-11.0571
ern	-11.0576
▁بچے	-11.0577
▁گرپتار	-11.0581
ہچ	-11.0582
▁جبران	-11.0582
▁child	-11.0583
▁منتگیں	-11.0583
▁بیگواه	-11.0585
▁بہادری	-11.0588
▁پولکار	-11.059
▁عجبیں	-11.0592
very	-11.0593
▁p	-11.0595
▁اصغر	-11.0596
▁اسودگی	-11.0599
▁نبشت	-11.0601
▁قتل	-11.0602
▁دینا	-11.0602
▁مشرقی	-11.0603
▁نھاد	-11.0603
▁سردی	-11.0605
▁جتہ	-11.0607
▁کالم	-11.0613
▁ڈولء	-11.0613
▁اتحاد	-11.062
▁home	-11.0622
▁بوہگء	-11.0625
▁ڈال	-11.0626
▁کنائینت	-11.0626
▁دھک	-11.063
▁ابراہیم	-11.063
▁شومیں	-11.0632
اج	-11.0633
▁کاران	-11.0635
ul	-11.0636
▁قومے	-11.0637
نوک	-11.0643
▁اسکولء	-11.0644
ur	-11.0646
ance	-11.0648
▁چونائیا	-11.0649
▁منیت	-11.065
▁پیسرء	-11.0653
▁ھروھد	-11.0653
▁دیوکیں	-11.0653
hose	-11.0654
▁مکر	-11.0655
▁دێم	-11.0655
باں	-11.0656
▁سوگہ	-11.0662
▁جاگہء	-11.0663
▁ھمبل	-11.0667
▁بڑ	-11.0669
▁برء	-11.067
▁ہمت	-11.067
▁بیگواھیانی	-11.0671
▁پیماز	-11.0672
ڑو	-11.0672
▁پورہ	-11.0672
حال	-11.0674
▁سکندر	-11.0675
ائن	-11.0678
▁صورتء	-11.0681
▁گہ	-11.0687
بان	-11.0688
▁ساھتاں	-11.0693
▁ساحل	-11.0695
▁direct	-11.0695
▁ھمینچو	-11.0695
▁جائیکہ	-11.0696
▁عراق	-11.0696
▁ورلڈ	-11.0698
دین	-11.07
▁allow	-11.0709
▁نوشکے	-11.0712
▁بنڈ	-11.0716
ھور	-11.0717
▁ھیالے	-11.0718
لوگ	-11.0718
▁زوراور	-11.0718
▁اسکے	-11.0719
▁بودشت	-11.072
▁مستقبل	-11.0725
▁دوہمی	-11.0726
▁شونکار	-11.0726
واہ	-11.0728
▁جنکو	-11.0728
▁جاپان	-11.0732
▁?‘‘	-11.0733
▁ڈولداریں	-11.0737
▁ریچگ	-11.0738
▁کردء	-11.0741
▁گن	-11.0743
▁شرگداریء	-11.0747
▁پانکجن	-11.0747
دیگ	-11.0748
▁سادگ	-11.0748
کجا	-11.0757
▁قدم	-11.0758
جنین	-11.0761
▁تحفظ	-11.0765
▁میزائل	-11.0765
▁ماسی	-11.0767
▁شلی	-11.0767
▁انجمن	-11.0772
▁ڈب	-11.0774
▁بادشاہی	-11.0776
▁نئی	-11.0777
▁ساه	-11.0778
▁تبد	-11.0778
▁پیشگال	-11.0779
▁معیشت	-11.0779
▁دیں	-11.0783
▁کلکشان	-11.0784
▁14	-11.0787
▁مدد	-11.0791
▁کنڈگ	-11.0793
▁درساں	-11.0793
.“	-11.0793
▁death	-11.0794
▁نوری	-11.0798
چل	-11.0799
▁ملنگ	-11.0799
▁ڈائریکٹر	-11.08
▁جاتے	-11.0804
▁اسانی	-11.0806
▁ناگیگ	-11.0807
▁بیاریت	-11.0808
▁اؤٹ	-11.0812
تھ	-11.0818
▁طالب	-11.0819
▁اھم	-11.0821
▁شونگال	-11.0826
▁پشدر	-11.0827
▁مرکز	-11.0829
ar	-11.0831
▁ناولٹ	-11.0836
▁وهدا	-11.0838
▁ٹیکس	-11.0839
▁صائمہ	-11.0839
▁کسہاں	-11.0841
▁حیا	-11.0844
▁تخت	-11.0846
▁روتگ	-11.0847
▁عبدال	-11.0849
▁انچۆ	-11.0851
▁بالگتر	-11.0853
▁اسء	-11.0854
▁مشن	-11.0856
▁گوانزگ	-11.0858
▁اجتماعی	-11.0862
▁بوگا	-11.0865
▁پائپ	-11.0865
▁عنقا	-11.0867
▁پرچی	-11.0868
▁ھپتگے	-11.0872
▁ریڈ	-11.0872
▁لیلو	-11.0877
▁داخلہ	-11.0878
▁کبول	-11.088
▁ہژدری	-11.0881
ant	-11.0881
▁بول	-11.0887
▁نگیگیں	-11.0889
▁حدیث	-11.0891
▁چدء	-11.0893
▁سفرء	-11.0894
▁نگاری	-11.0895
▁گپتہ	-11.0895
re	-11.0896
▁غماں	-11.09
▁سینیٹ	-11.0901
▁bas	-11.0903
▁عیسوی	-11.0908
▁ڈیپارٹمنٹ	-11.0908
▁دئیگا	-11.0909
▁سہیل	-11.0911
▁بیتگین	-11.0911
▁پجا	-11.0916
▁واجہی	-11.0917
▁گجر	-11.0918
▁نرمیں	-11.0919
▁Janu	-11.0922
▁مولد	-11.0924
▁ختم	-11.0926
▁ھاش	-11.0927
▁ھج	-11.0927
▁سدل	-11.0929
▁دینت۔	-11.0935
▁six	-11.0935
▁included	-11.0939
غا	-11.0951
▁انشپی	-11.0952
▁ود	-11.0955
▁نبشتانکانی	-11.0956
▁30	-11.0956
▁زانتکاراں	-11.0957
▁پھازگ	-11.0959
▁اهاں	-11.0964
کدی	-11.0965
▁storm	-11.0966
▁پجارینگ	-11.0969
▁ایوان	-11.0971
کٹ	-11.0976
▁گلباگ	-11.0982
▁سپریم	-11.0985
▁لڈگ	-11.0989
وم	-11.0989
▁جہمنند	-11.099
da	-11.1002
id	-11.1002
▁گندان	-11.1002
▁left	-11.1008
▁دویں	-11.1009
▁کرمان	-11.101
▁سگار	-11.1013
▁زرت۔	-11.1013
▁ہاران	-11.1013
يں	-11.1014
ical	-11.1015
▁شیرکنیں	-11.1015
▁گورکی	-11.1021
▁اندوہ	-11.1023
▁بچاریں	-11.1026
▁زامات	-11.1027
▁سوچن	-11.103
ڑا	-11.1033
▁England	-11.1037
▁video	-11.1037
▁government	-11.1038
ہند	-11.1038
▁پھازگی	-11.1039
▁روانی	-11.104
▁کروس	-11.1042
▁نوروز	-11.1043
▁بابو	-11.1043
▁افسانہ	-11.1049
▁سچ	-11.1052
▁Nove	-11.1053
▁اشان	-11.1062
ندہ	-11.1064
▁درکپگ	-11.1064
▁۔ھمیش	-11.1067
▁پیروک	-11.1067
▁تعریف	-11.107
▁تھار	-11.107
▁کشتگیں	-11.107
▁زرداری	-11.1072
نیم	-11.1074
▁نیاز	-11.1076
▁ترمپے	-11.1076
▁سربوتگ	-11.1081
▁خاموش	-11.1081
دنیا	-11.1082
▁لگیت	-11.1083
دیوان	-11.1083
▁شناس	-11.1083
▁صباء	-11.1086
▁درہیں	-11.1089
▁نقل	-11.109
▁شموشگ	-11.1091
▁گندگا	-11.1093
▁چاری	-11.1096
▁جاورھال	-11.1103
▁غلامی	-11.1107
▁ھکل	-11.1108
▁جئیند	-11.111
زانگ	-11.111
▁سرداری	-11.1111
گوات	-11.1112
▁position	-11.1113
۔ھمے	-11.1114
▁اند	-11.1114
▁گرماگ	-11.1117
▁عکسے	-11.112
▁وغیرہ	-11.112
▁زندانی	-11.1124
پاکستان	-11.1129
▁اوارجنی	-11.1132
▁ذ	-11.1133
▁الفاظ	-11.1143
▁کارندھے	-11.1145
▁سروکاں	-11.1146
▁ھمراھاں	-11.1147
▁بھائی	-11.1148
وہدے	-11.1149
▁بڑا	-11.115
▁تھاریں	-11.1151
▁ماریت	-11.1151
▁عمرء	-11.1151
▁مندر	-11.1152
ھار	-11.1154
▁To	-11.1154
▁ریز	-11.1156
▁ملافاضل	-11.1157
▁اش۔	-11.1159
▁کورونا	-11.1159
▁پروری	-11.1162
▁March	-11.1171
▁ایریں	-11.1173
▁نیستی	-11.1173
▁فیس	-11.1174
▁بڑے	-11.1174
جل	-11.1175
▁عن	-11.1175
▁فورس	-11.1177
▁شیوار	-11.1179
▁اک	-11.1179
ماہتاک	-11.118
▁کیپ	-11.1181
▁رشتہ	-11.1183
▁ماھکان	-11.1184
▁سسی	-11.1184
▁attempt	-11.1184
▁تجربگ	-11.1189
▁گوہار	-11.1195
▁ھمیشانی	-11.1197
▁ملتان	-11.1199
▁موقع	-11.12
▁باہوٹ	-11.12
▁چکا	-11.12
▁قانونی	-11.1202
▁مھلوکء	-11.1205
ظ	-11.1205
▁include	-11.1213
▁کیمرہ	-11.1215
▁J	-11.1216
▁اژدری	-11.1217
وئیں	-11.1218
▁سرپدیں	-11.1221
▁اجب	-11.1222
▁نزیر	-11.1229
▁کاریت۔	-11.1229
▁ارسانی	-11.123
▁نمونگ	-11.1235
▁شہار	-11.1237
تاریخ	-11.1237
▁درپ	-11.1246
▁general	-11.125
▁کہتے	-11.1251
▁کون	-11.1258
علم	-11.1262
▁گداں	-11.1263
گون	-11.1264
▁جگ	-11.1266
▁کنڈے	-11.1266
▁ارداد	-11.1269
▁حرام	-11.1269
▁شہرے	-11.1269
▁دریگتیں	-11.1272
▁مکمل	-11.1276
▁ڪ	-11.128
▁سحر	-11.1281
▁third	-11.1287
▁گواتے	-11.1288
▁ملاقات	-11.1289
وانی	-11.129
▁مہار	-11.129
▁just	-11.1295
▁گراناز	-11.1297
▁نزان	-11.13
▁ایڈوکیٹ	-11.1302
▁بیڑبرتگ	-11.1303
▁راسک	-11.1304
▁کرے	-11.1307
▁سستگیں	-11.131
▁open	-11.1311
▁پجاروکی	-11.1315
▁men	-11.1317
سنگ	-11.1319
▁پلنگ	-11.132
▁کشکء	-11.132
▁سرچمگ	-11.1326
باریں	-11.1329
▁کارروائی	-11.1329
▁سین	-11.133
▁سبق	-11.1331
▁عملء	-11.1333
▁اقوام	-11.1334
▁اسرار	-11.1336
▁کبل	-11.1341
▁ھمگرنچیں	-11.1342
ine	-11.1358
▁کتار	-11.136
▁موسمی	-11.1361
▁شهید	-11.1361
▁الکاپیں	-11.1361
▁تکلیف	-11.1365
▁ھیلی	-11.1367
▁محل	-11.1372
▁شعوری	-11.1372
▁مالوم	-11.1373
▁لاف	-11.1373
▁نابود	-11.1374
▁زنڈ	-11.1377
▁برنج	-11.138
▁مھراب	-11.1382
▁water	-11.1383
▁سارتر	-11.1388
▁اہمیں	-11.139
▁اھان	-11.1391
▁میانجی	-11.1392
▁پیسرگیں	-11.1393
▁بلاہ	-11.1395
▁سج	-11.1395
▁نبوت	-11.1395
▁االله	-11.1396
اریں	-11.1398
▁ستکگیں	-11.1402
▁games	-11.1403
▁سیف	-11.1403
▁جانب	-11.1403
▁یاسر	-11.1403
▁قمبرانی	-11.1404
▁انگریزانی	-11.1404
▁school	-11.1407
▁Jul	-11.1408
▁بہہ	-11.1411
زان	-11.1411
▁ده	-11.1411
کنوکیں	-11.1413
▁وپسگ	-11.1417
▁previous	-11.1422
▁become	-11.1422
ڈن	-11.1423
▁منیرء	-11.1424
▁ھرچیز	-11.1424
▁ھاموشی	-11.1431
لبز	-11.1432
ين	-11.1433
▁پھناتاں	-11.1434
▁سیدء	-11.1436
▁ثواب	-11.1438
▁نین	-11.1442
▁دس	-11.1443
▁بستہ	-11.1443
▁go	-11.1445
▁تاپ	-11.1445
▁بروبر	-11.1449
▁دربر	-11.1449
▁چیخوف	-11.1451
▁south	-11.1452
▁north	-11.1454
▁دمگے	-11.1459
▁هو	-11.1459
یان	-11.1464
▁ٹکرء	-11.1464
▁تنا	-11.1467
▁بندن	-11.1471
▁اڑاند	-11.1474
▁design	-11.1476
▁ہساب	-11.1476
▁راہی	-11.1481
▁گڈگ	-11.1482
▁لگور	-11.1482
▁period	-11.1483
▁جگہ	-11.1484
شا	-11.1485
▁یونس	-11.1492
▁موضوع	-11.1493
▁چدا	-11.1497
▁تحصیلدار	-11.1505
▁ستار	-11.1509
▁اێر	-11.1511
▁ماندارگ	-11.1512
▁وزارت	-11.1513
▁چارگا	-11.1515
▁سلطنت	-11.1516
▁بارت۔	-11.1517
▁مستاگ	-11.1519
▁جنوکیں	-11.1521
انکہ	-11.1525
▁مڑاہ	-11.1525
▁ہمارے	-11.1525
چوکہ	-11.1526
▁ملام	-11.1526
▁سروکانی	-11.1528
▁نتیجہ	-11.1533
▁لشکرکشی	-11.1535
▁دکی	-11.1537
▁شیرکنی	-11.154
▁کتء	-11.1541
شریں	-11.1542
▁دلجمیں	-11.1542
پشت	-11.1548
▁ترسناکیں	-11.1558
▁دماگ	-11.156
▁release	-11.1561
▁گہہ	-11.1562
▁اھوالکارانی	-11.1563
▁رومن	-11.1566
▁جدا	-11.1567
▁گڈسرء	-11.1569
▁روژنا	-11.157
▁پریاتاں	-11.1571
▁جمپ	-11.1573
▁مزاج	-11.1574
▁پلی	-11.1578
▁اوشتاتگیں	-11.1581
▁سلاھانی	-11.1588
▁local	-11.159
بیل	-11.159
▁شاریء	-11.1594
▁حیالے	-11.16
▁II	-11.16
وال	-11.1601
▁زباد	-11.1605
▁وڑےء	-11.1611
▁بیس	-11.1612
▁فراہم	-11.1621
▁His	-11.1621
▁پہریزگ	-11.1622
▁درویش	-11.1625
▁ارزانیں	-11.163
▁پیلوی	-11.1631
▁کیل	-11.1631
▁اغا	-11.1632
▁بلوٹ	-11.1632
دپ	-11.1633
[	-11.1634
ھیال	-11.1634
کارے	-11.1635
▁سرور	-11.1635
کنان	-11.1636
▁Dece	-11.1637
▁تہنائی	-11.1641
▁جوزگ	-11.1641
▁اسٹیج	-11.1642
▁کرتی	-11.1645
▁باسکے	-11.1646
▁حاص	-11.1647
▁کورس	-11.1649
▁ھبرء	-11.165
شنگ	-11.1653
کئے	-11.1653
▁ترینتگ	-11.1655
▁مطالعہ	-11.1656
▁وتاک	-11.1658
▁For	-11.1659
▁ژ	-11.166
▁پردگ	-11.166
▁حاضر	-11.167
▁ہاتر	-11.167
▁پبلک	-11.1674
▁دھا	-11.1675
▁مچکدگ	-11.1675
مو	-11.1675
دری	-11.1676
▁ناجوڑی	-11.1678
▁سھت	-11.1679
▁ایدگرانی	-11.168
رس	-11.1682
▁نشتگاں	-11.1683
سار	-11.1691
▁شھراں	-11.1693
▁سرہال	-11.1696
▁best	-11.1698
▁افراد	-11.1698
مے	-11.1699
سیمی	-11.17
▁ساوڑ	-11.1705
سور	-11.1711
▁major	-11.1714
▁گریشگ	-11.1716
▁ہمراہیء	-11.172
▁نبشتکار	-11.172
▁book	-11.1722
کریم	-11.1727
چشکہ	-11.1732
▁بحت	-11.1732
▁مخلوق	-11.1733
▁title	-11.1736
▁کؤر	-11.1738
▁موش	-11.1743
▁اصول	-11.1745
▁character	-11.1747
فارسی	-11.1748
گند	-11.1751
▁develop	-11.1753
▁تئیی	-11.1757
گرد	-11.1757
▁رھبندے	-11.1758
▁یگ	-11.1759
تین	-11.1759
▁باوری	-11.1761
▁نیاتک	-11.1761
▁perform	-11.1767
▁رج	-11.1771
▁ڪت	-11.1772
▁River	-11.1776
▁ادمانی	-11.1777
▁سجدہ	-11.1779
▁زا	-11.178
یوں	-11.1782
▁جادو	-11.1787
▁ملامتی	-11.1789
▁By	-11.179
▁وپس	-11.1793
▁پدردی	-11.1795
▁زمانگاں	-11.1797
▁دہمی	-11.18
▁کڈ	-11.1802
▁جوریں	-11.1803
▁جتاھیں	-11.1806
▁شیدا	-11.1806
▁مگ	-11.1807
▁قریب	-11.1808
▁وسیم	-11.1808
▁سپاھیگ	-11.1811
▁شاتکامی	-11.1812
▁یکمی	-11.1813
▁پیداور	-11.1815
▁بیغ۔	-11.1817
▁اتکہ	-11.1819
▁جود	-11.182
▁تھنائی	-11.1826
▁continu	-11.1826
▁شیرانی	-11.1826
▁وھدئے	-11.1829
▁روبرکتی	-11.1833
▁buil	-11.1838
▁مش	-11.1838
▁سیکریٹری	-11.1839
ou	-11.1839
▁مضمون	-11.1841
▁سلکاری	-11.1841
▁شناخت	-11.1842
▁پہلوان	-11.1843
▁کرو	-11.1847
▁فدائی	-11.1848
▁افریقہ	-11.1851
▁صنعتی	-11.1853
یری	-11.1854
▁میاریگ	-11.1854
یب	-11.1855
▁City	-11.1856
▁ضرور	-11.1856
کوئٹہ	-11.1861
▁ھیالداری	-11.1863
ی۔	-11.1866
▁میتگانی	-11.1867
نند	-11.1869
▁شہیدانی	-11.187
▁سمیر	-11.1872
وڈ	-11.1875
▁امکان	-11.1875
▁تتک	-11.1875
▁حاجت	-11.1876
▁کندگے	-11.1878
ness	-11.1881
▁جانا	-11.1883
▁مانش	-11.1886
▁گلا	-11.1886
▁گوشدار	-11.1888
▁مارے	-11.1889
▁الگ	-11.189
▁چارگی	-11.189
▁بلوچوں	-11.1891
▁شوکیں	-11.1899
▁پرنگی	-11.19
▁گولہ	-11.19
▁ودارء	-11.19
گام	-11.1901
▁بچکندے	-11.1901
▁جۆڑ	-11.1902
▁تباہی	-11.1905
▁سواس	-11.1905
▁تھیوری	-11.1905
ینی	-11.1906
▁چاگی	-11.1907
وچ	-11.1908
▁نگر	-11.1909
▁پرسی	-11.1912
▁تند	-11.1914
ونی	-11.1915
▁کلان	-11.1918
پمیشا	-11.1921
▁سخت	-11.1921
▁اوشتیت	-11.1924
▁ملٹ	-11.1924
▁درہ	-11.1925
▁وڈھ	-11.1926
▁کران	-11.1926
▁بیگل	-11.1928
▁دربرتگ	-11.1935
جاه	-11.1937
▁تاس	-11.1938
▁لٹک	-11.1938
▁گالی	-11.1939
▁ہردو	-11.194
نان	-11.194
واری	-11.1943
▁تاوانے	-11.1947
▁حشکیں	-11.1948
▁باقاعدہ	-11.1949
▁برتانیہ	-11.195
▁راھبندانی	-11.1951
▁دیکھ	-11.1951
▁make	-11.1957
▁کلیت	-11.1958
▁سندی	-11.1959
▁گولی	-11.196
‘‘,’’	-11.1962
مری	-11.1965
▁اما	-11.1967
▁علاقے	-11.1968
وھد	-11.1969
▁گیا۔	-11.197
▁گزار	-11.1972
il	-11.1972
▁ملازم	-11.1972
▁مع	-11.1977
▁دراھگ	-11.1978
▁رستر	-11.1979
▁زو	-11.1984
مین	-11.1985
▁کڈک	-11.1987
▁ھالے	-11.1987
▁پث	-11.1988
▁یوک	-11.1991
▁سیائیں	-11.1991
▁ھرابی	-11.1993
جوڑ	-11.1994
▁رودراتک	-11.1995
▁month	-11.1997
▁When	-11.1997
▁ھید	-11.1997
▁ات۔اے	-11.1997
▁بوئگء	-11.1999
▁لیاقت	-11.2
▁publish	-11.2003
▁گوشتن	-11.2005
▁شھم	-11.2006
▁پیرزال	-11.2007
▁اپے	-11.2008
▁ہواں	-11.2009
چاگردی	-11.2011
▁سروز	-11.2011
▁سویڈن	-11.2012
▁version	-11.2013
▁مرداں	-11.2014
▁There	-11.2018
▁شاھد	-11.2019
ئنت	-11.2021
▁۔چہ	-11.2021
▁بابل	-11.2028
▁رنگانی	-11.2028
▁بکن۔	-11.2029
▁!!	-11.2034
▁اسرے	-11.2034
ism	-11.204
▁اختلاف	-11.204
3	-11.2042
▁ئنت	-11.2043
▁کاریز	-11.2045
کیت	-11.2046
▁صنف	-11.2046
▁اعتبار	-11.2046
▁ھمت	-11.2047
▁All	-11.2047
▁ڈنگ	-11.2047
▁بوتیں۔	-11.2048
▁دژمناں	-11.2054
▁اوستا	-11.2056
▁برت۔	-11.2058
▁اھی	-11.2058
▁شاگرد	-11.206
▁کیشنز	-11.2066
کپ	-11.2066
▁ناما	-11.2067
مت	-11.2072
▁شپی	-11.2079
▁گامے	-11.2079
▁شکایت	-11.208
▁تنگی	-11.208
▁ھیک	-11.2085
▁کدیر	-11.2087
▁لد	-11.2087
▁کرتیں	-11.2087
▁انو	-11.2094
▁National	-11.2094
▁باوجود	-11.2095
▁برادری	-11.21
▁پانگ	-11.21
▁دکانے	-11.21
▁گالرد	-11.2102
▁پیس	-11.2104
▁جاھمنند	-11.2111
▁طوفان	-11.2111
▁ناسر	-11.2115
▁گشیں	-11.2116
سد	-11.2123
چیزے	-11.2125
▁بارکھان	-11.2126
▁ھاوند	-11.2126
▁رچ	-11.2127
▁لیکہی	-11.2128
lo	-11.2129
▁کاسگ	-11.2133
▁ظالم	-11.2133
▁چنڈے	-11.2134
▁ابدل	-11.2134
▁هون	-11.2134
▁public	-11.2135
▁اھدی	-11.2135
▁کشا	-11.2137
▁چتگ	-11.2137
▁چری	-11.2138
▁بلوچانء	-11.2139
▁گوشگء	-11.2141
▁بندان	-11.2145
▁ترونگل	-11.2146
▁زرکاری	-11.2148
▁لم	-11.2149
▁دربرجاہ	-11.215
▁بیلہ	-11.2152
▁مزاری	-11.2154
▁واکاں	-11.2154
▁دیست۔	-11.2155
▁دوسد	-11.2155
▁گالریچ	-11.2157
▁2009	-11.2158
▁مدرسہ	-11.216
▁تولگ	-11.216
▁ماتانی	-11.2161
▁دشتار	-11.2161
▁چارء	-11.2162
▁استانی	-11.2174
▁2010	-11.2175
▁پشین	-11.2175
▁گا۔	-11.218
▁پہلو	-11.2181
▁رون	-11.2182
▁ائر	-11.2183
▁دیکھا	-11.2185
▁مہم	-11.2186
▁کساں	-11.2186
▁شنگکار	-11.2187
▁سربوت	-11.219
جر	-11.2192
▁داؤد	-11.2195
▁25	-11.2196
▁پنجگ	-11.2202
▁درصد	-11.2202
تم	-11.2203
▁side	-11.2203
▁تجارت	-11.2204
▁جنزء	-11.2204
▁شھیدی	-11.2206
▁کدر	-11.2206
▁ط	-11.2208
▁ناکام	-11.2209
▁شیک	-11.2211
▁گلاس	-11.2211
▁ھبراں	-11.2212
▁۔بلئے	-11.2212
▁دفتر	-11.2212
▁کدرت	-11.2214
▁مشکلیں	-11.2215
▁ملگ	-11.2216
▁نما	-11.2217
▁ہمود	-11.2217
▁رازی	-11.2217
▁کزا	-11.222
▁پرتو	-11.2222
▁2008	-11.2224
▁جلسہ	-11.2226
▁واشک	-11.2235
▁way	-11.2235
▁اتکگاں	-11.2237
سرا	-11.2237
ادی	-11.2238
▁مانگ	-11.2241
گش	-11.2246
▁بوھان	-11.2248
▁ایراں	-11.2251
نیست	-11.2252
▁جمہوری	-11.2254
نیمگ	-11.2254
▁جہاندپتر	-11.2257
▁لوڈ	-11.2263
ابید	-11.2265
یلہ	-11.2265
▁روگا	-11.2273
▁جرنیل	-11.2275
▁ارجان	-11.2278
▁ازاب	-11.228
▁even	-11.2281
▁بیرگ	-11.2281
اسی	-11.2283
▁دستور	-11.2284
▁ٹپانی	-11.2285
▁بم	-11.2286
▁تیراں	-11.2287
▁رحمان	-11.2294
▁نیکراہ	-11.2307
ٹن	-11.2307
▁ابدمان	-11.2309
جگ	-11.231
▁زراب	-11.231
رک	-11.231
▁وشیاں	-11.2313
▁nam	-11.2317
▁شتگ۔	-11.2319
▁کنغ۔	-11.232
▁تجزیہ	-11.2325
▁اگہی	-11.2326
▁کری	-11.2328
▁بلین	-11.2328
▁لالہ	-11.2329
▁وانان	-11.2336
▁واپس	-11.2337
▁ڈڈ	-11.234
▁اگرچہ	-11.234
▁سیاستدان	-11.2343
▁شرین	-11.235
▁پیکر	-11.235
گیشتر	-11.2351
ہانی	-11.2354
▁ڈگاراں	-11.2355
▁کردانی	-11.2356
▁نقطہ	-11.2359
▁مٹی	-11.2363
ایوک	-11.2363
▁لیکہے	-11.2365
وب	-11.2365
▁باث	-11.2371
▁حالاں	-11.2374
▁مغل	-11.2377
▁top	-11.2377
▁ھانل	-11.2384
▁پھلی	-11.2386
▁معتبر	-11.2391
▁حکومتی	-11.2393
▁داوا	-11.2396
▁سادہ	-11.2397
▁کریں	-11.2397
▁ٹوہیں	-11.2398
▁چکار	-11.24
وشی	-11.2401
ای	-11.2401
▁مستری	-11.2402
▁مہکمیں	-11.2402
بدل	-11.2402
▁شوہازگ	-11.2402
▁club	-11.2405
▁گساں	-11.2411
▁رفتار	-11.2414
▁کہتا	-11.2414
▁نپاد	-11.2421
▁اسودگ	-11.2426
▁حالات	-11.243
ھن	-11.2433
▁دینار	-11.2435
راستی	-11.2436
▁طاہر	-11.2436
▁نفرت	-11.2436
▁جال	-11.2437
▁ہمدردی	-11.2439
▁came	-11.244
▁چکی	-11.2444
▁واھگے	-11.2445
ایشانی	-11.2448
کیچ	-11.245
ent	-11.2451
▁برواں	-11.2452
ڑہ	-11.2452
▁شاھین	-11.2454
▁شف	-11.2454
▁انتظامی	-11.2455
▁الرحمان	-11.2456
▁اجبیں	-11.2457
▁وتکش	-11.2458
▁شه	-11.2465
ter	-11.2465
▁جنے	-11.2468
▁باران	-11.247
▁ہاؤس	-11.2472
▁پھریزگ	-11.2474
ne	-11.2476
▁per	-11.2478
▁خلیج	-11.2479
▁ڈولے	-11.2482
▁امب	-11.2491
▁کیونکہ	-11.2492
▁تواراں	-11.2494
▁تصویر	-11.2494
▁ڈر	-11.2498
▁زانا	-11.2504
ئر	-11.2504
▁اکسیجن	-11.2505
▁شھ	-11.2511
▁حبراں	-11.2512
▁present	-11.2513
▁لطیف	-11.2516
▁بێگواه	-11.2522
▁لهتے	-11.2522
▁اوکیں	-11.2523
▁ٹاپ	-11.2523
▁جھدے	-11.2526
▁گھ	-11.2527
▁اخبار	-11.2532
▁establish	-11.2538
▁man	-11.2539
ارش	-11.2543
▁بداریت	-11.2546
▁ھورک	-11.2547
▁گڈسرا	-11.2548
▁کنائین	-11.255
▁گوشتہ	-11.255
▁رژنائیں	-11.255
▁بوئگا	-11.2552
▁ھرابیں	-11.2553
▁حسنی	-11.2553
▁۔۔۔۔۔۔	-11.2553
▁یڪ	-11.2553
▁عبد	-11.2555
▁عاقل	-11.2555
▁سرگرمی	-11.2555
▁اشکار	-11.2556
▁بیت۔۔۔	-11.2557
▁جنگلے	-11.2558
▁حقیقی	-11.2561
▁اساپ	-11.2561
ودی	-11.2562
▁روئگ	-11.2562
▁انت۔۔	-11.2566
▁بئے۔	-11.2572
▁still	-11.2573
▁ایسوسی	-11.2574
te	-11.2578
uent	-11.2583
▁دیوالانی	-11.2584
▁جنیانی	-11.259
▁ھسابء	-11.2591
▁منگچر	-11.2592
▁جمب	-11.2597
▁شادہ	-11.2597
▁وانندگیں	-11.2598
▁کامل	-11.2598
▁ذاتء	-11.26
▁وانوکانی	-11.2602
▁درائینت۔	-11.261
▁رکگ	-11.2616
▁زورگء	-11.2619
▁نفسی	-11.2619
▁گمیگ	-11.2619
بنی	-11.2625
▁ھالاں	-11.2628
▁ھبدہ	-11.263
▁ازیز	-11.2632
▁نثر	-11.2633
ناک	-11.2638
▁وانگا	-11.264
▁کمزوری	-11.2641
ازات	-11.2642
▁زالم	-11.2643
▁career	-11.2643
▁کانون	-11.2645
▁اچار	-11.2648
▁ھردوک	-11.2649
▁وانین	-11.2651
▁بلیک	-11.2654
▁led	-11.2655
▁لکیر	-11.2656
▁نازرک	-11.2656
▁واجہء	-11.2658
▁history	-11.2658
وانگ	-11.2659
▁چیدگی	-11.266
▁دئیگء	-11.2661
▁رمس	-11.2662
▁انار	-11.2665
تگ۔	-11.2665
▁ہانی	-11.2668
▁قال	-11.2668
▁مچھ	-11.267
▁ھردیں	-11.2671
▁اپاں	-11.2674
ایی	-11.2675
▁common	-11.2675
▁اسپیکر	-11.2675
▁دلیری	-11.2678
▁کتہ۔	-11.2679
▁feature	-11.2682
▁گشتے	-11.2682
ہیں	-11.2682
▁گوئر	-11.2685
▁تبیں	-11.2688
▁حج	-11.2688
▁کنئگی	-11.2695
▁نئیں	-11.2695
▁پاداتک	-11.2695
▁old	-11.2695
▁ٹٹ	-11.2701
▁امیتے	-11.2701
▁رمزان	-11.2705
▁مردیں	-11.2705
▁وسیں	-11.2709
▁ابی	-11.2711
▁قیمتی	-11.2712
▁واکی	-11.2714
▁دیگا	-11.2717
بگ	-11.2719
▁پانچ	-11.2721
▁مہلہ	-11.2722
▁f	-11.2723
▁دیستگیں	-11.2724
▁گشیت۔	-11.2724
▁پوریاگر	-11.2724
▁ادراک	-11.2727
▁بکرتیں	-11.2732
▁ایدگراں	-11.2733
مبارک	-11.2734
by	-11.274
▁کدہ	-11.2741
الم	-11.2741
▁لوٹیں	-11.2742
▁دوستیگیں	-11.2744
▁گوشی	-11.2745
▁غصہ	-11.2745
بات	-11.2747
▁ماسء	-11.2748
▁زمیندار	-11.2748
▁اریپیں	-11.275
I	-11.2752
▁گنجائش	-11.2753
▁ایردست	-11.2753
D	-11.2755
▁اسٹیٹس	-11.2765
▁ھول	-11.2767
▁پہنچ	-11.2768
▁لہڑگ	-11.277
▁سریگ	-11.2773
▁زنداناں	-11.2774
▁دپا	-11.2778
▁میک	-11.278
▁ھجبر	-11.278
▁ایشن	-11.278
▁رول	-11.2781
▁جیڑھ	-11.2782
▁ڈھاڈر	-11.2784
▁اکسے	-11.2786
▁بتی	-11.279
▁سکھت	-11.2791
▁ٹاک	-11.2797
▁often	-11.2798
▁جاگه	-11.2798
▁منشیات	-11.2798
▁شائرانی	-11.2799
▁منظر	-11.2802
▁سھیگ	-11.2803
▁وشتر	-11.2806
▁ورگی	-11.2806
▁100	-11.2807
▁pass	-11.2808
گدار	-11.281
▁زیک	-11.2812
▁شریدار	-11.2812
▁سرینت	-11.2813
▁اگے	-11.2815
▁تگرانی	-11.2815
▁بلۆچانی	-11.2825
sh	-11.2827
▁ایٹم	-11.2827
▁site	-11.2828
▁شمال	-11.2832
▁قبرستان	-11.2834
▁سرکنگ	-11.2836
▁درکپ	-11.284
▁لوڑ	-11.2842
▁دارنت	-11.2844
▁رسینت	-11.2845
▁واتری	-11.2845
▁ٹیل	-11.2847
▁بکننت	-11.2849
▁اسسٹنٹ	-11.285
▁ي	-11.285
▁ببر	-11.285
▁ورزی	-11.2851
▁سلسلہ	-11.2852
▁قومء	-11.2852
▁ویکسین	-11.2852
▁سجہیں	-11.2856
▁جنوزام	-11.2857
▁زندگاں	-11.2858
▁دزاپ	-11.2859
▁تہران	-11.2861
▁we	-11.2861
ماھتاک	-11.2869
▁پهک	-11.2869
گوشگ	-11.2874
▁ھاسٹل	-11.2883
۔ائی	-11.2884
▁هلاس	-11.2884
▁دوبارہ	-11.2884
▁تال	-11.2885
▁ھدایت	-11.2888
▁سھرا	-11.2889
▁ضد	-11.2889
▁اسرمند	-11.2894
▁هیال	-11.2896
▁چتو	-11.2896
▁شاہد	-11.29
▁سکتا	-11.2902
...............	-11.2903
▁واناں	-11.2905
▁شئیری	-11.2908
▁دیئگ	-11.2909
اراں	-11.2911
پچ	-11.2914
▁ھاکمی	-11.2917
ارے	-11.2917
▁دیوانگ	-11.2919
▁ڈور	-11.2922
▁پرکار	-11.2923
▁دارء	-11.2925
▁انہ	-11.2927
▁تریاک	-11.2928
▁سیوی	-11.2929
▁مارکسی	-11.293
▁رتکگ	-11.293
▁کندان	-11.2931
▁help	-11.2935
شے	-11.2935
▁few	-11.2936
▁رئیسانی	-11.2938
▁کرکٹ	-11.2944
▁اثار	-11.2944
گپت	-11.2949
company	-11.2953
▁پنچیں	-11.2955
▁رویں	-11.2963
▁درنیامء	-11.2967
▁ھلکء	-11.2967
▁One	-11.2967
▁منطق	-11.2969
▁ٹور	-11.2969
▁list	-11.297
▁ٹوئٹر	-11.2971
▁ہاسٹل	-11.2973
▁لوغ	-11.2974
▁جرگہ	-11.2975
▁زانگی	-11.2976
▁لاپء	-11.2977
▁شادء	-11.2981
اگ	-11.2981
▁دوستے	-11.2981
▁سلیں	-11.2986
▁ایات	-11.2988
▁next	-11.2988
▁2007	-11.2988
▁داکٹر	-11.2988
▁جلیل	-11.2988
▁زاهدان	-11.2992
▁بیتگاں	-11.2994
▁طاقتور	-11.2995
▁نوشتانک	-11.2995
▁چنال	-11.2995
ھت	-11.2996
چیا	-11.2999
▁چاروک	-11.3
▁دامگ	-11.3001
▁دیوتا	-11.3004
▁ائولی	-11.3006
▁arm	-11.3006
▁میرا	-11.3009
▁لائک	-11.3018
▁ممبر	-11.302
▁ریا	-11.3021
▁دانا	-11.3021
▁وڑی	-11.3022
▁شاعریئ	-11.3025
▁برگء	-11.3026
▁پمے	-11.3026
▁دیش	-11.3028
▁ٹیچر	-11.3028
▁رائے	-11.3029
▁اجوئیں	-11.3034
ابی	-11.3037
▁سماج	-11.3037
سیاسی	-11.3039
▁درتکگ	-11.3041
▁کافکا	-11.3041
▁وومن	-11.3042
▁ھاجی	-11.3042
▁دوستانی	-11.3044
▁کینگی	-11.3046
تن	-11.3048
▁رھبنداں	-11.3049
▁نباں	-11.305
▁درو	-11.3051
▁بدواہ	-11.3052
▁fire	-11.3054
▁فر	-11.3055
▁بگندات	-11.3058
▁باپار	-11.3058
▁بریگیڈ	-11.3059
▁English	-11.3059
ہہ	-11.3059
▁اجکہ	-11.3061
▁building	-11.3063
am	-11.3063
▁دیمے	-11.3065
ؤں	-11.3067
سل	-11.3068
▁کال	-11.3073
▁حالتاک	-11.3073
▁پرمات	-11.3074
▁انتظار	-11.3074
▁چرت	-11.3076
بری	-11.3077
▁فوجء	-11.3078
▁مھرنگ	-11.3078
▁دودمانی	-11.3079
▁حرف	-11.308
▁بیمناکیں	-11.308
▁ہڈ	-11.308
▁کوھنگیں	-11.3082
شاد	-11.3082
▁ھبکہ	-11.3085
▁کارئے	-11.3091
▁یاسین	-11.3093
▁French	-11.3094
▁نگرانی	-11.3095
▁حالکار	-11.3096
▁مرچیگ	-11.3096
▁ماری	-11.3101
▁بادشاھی	-11.3102
▁سدک	-11.3103
کین	-11.3111
▁عیسائی	-11.3111
▁contain	-11.3112
▁similar	-11.3112
▁درھیں	-11.3116
▁کسہے	-11.3121
??	-11.3122
▁ھؤ	-11.3126
▁مادر	-11.3128
▁پیوست	-11.313
▁بارڈر	-11.3133
N	-11.3133
▁رکھا	-11.3135
▁دومیگ	-11.3137
▁ملار	-11.3137
▁تہرء	-11.314
▁باپ	-11.3143
گوادر	-11.3144
▁سنگینی	-11.3145
▁بساک	-11.3146
▁دیستگ۔	-11.3147
▁شریء	-11.3149
▁بروبری	-11.315
▁نصیحت	-11.3151
سٹر	-11.3152
▁right	-11.3153
▁دیرء	-11.3154
▁نئیت۔	-11.3155
سرجمیں	-11.3155
مست	-11.3155
▁نفر	-11.3157
▁متعلق	-11.3157
▁کٹگ	-11.3158
▁نیب	-11.3164
▁وفات	-11.3164
▁کنین	-11.3168
at	-11.3168
▁سدی	-11.317
▁شانتل	-11.3171
▁ولد	-11.3171
▁گشگء	-11.3174
▁ٹکے	-11.3177
▁رنگےء	-11.3182
▁لنک	-11.3183
درا	-11.3186
▁بعض	-11.3187
میان	-11.3189
▁خط	-11.319
▁بنداتء	-11.3191
دیر	-11.3194
▁سوزیں	-11.3196
▁سنگھ	-11.3197
▁پکری	-11.3197
▁حدے	-11.3198
▁بارہء	-11.3201
▁پشمبے	-11.3202
۔منی	-11.3203
▁برزا	-11.3203
▁درملک	-11.3204
▁کبزہ	-11.3205
▁ٹیک	-11.322
▁یلیں	-11.3223
▁درستی	-11.3224
▁استین	-11.3224
▁ساحلی	-11.3224
▁کرتاں	-11.3226
▁تماہ	-11.3227
▁شرک	-11.323
▁مسام	-11.3233
بتل	-11.3238
▁سوشلسٹ	-11.3239
ایے	-11.3243
ائین	-11.3244
▁حامد	-11.3244
▁دریائی	-11.3244
اسر	-11.3245
▁رہشوناں	-11.3246
تء	-11.3248
▁چلگ	-11.3248
▁چولانی	-11.3248
▁حیرانی	-11.3253
▁تلب	-11.3254
ھدا	-11.3262
▁رپتار	-11.3262
▁عاقبت	-11.3264
▁سلاح	-11.3266
▁سپا	-11.3266
سان	-11.3271
as	-11.3272
▁power	-11.3274
▁claim	-11.3274
▁دباؤ	-11.3275
▁اکثر	-11.3277
▁دئیان	-11.3278
▁produc	-11.3279
▁موٹل	-11.328
▁اث	-11.3281
▁موم	-11.3282
▁عامر	-11.3283
▁جھدء	-11.3283
▁انچین	-11.3288
held	-11.329
▁نزدیک	-11.3293
▁پیتی	-11.3293
وکی	-11.3296
▁ٹرانسپورٹ	-11.3301
▁محبوبہ	-11.3301
▁کھڈ	-11.3304
▁نپر	-11.3308
▁گردان	-11.3312
▁قصہانی	-11.3312
▁ردیت	-11.3312
▁ہمیں	-11.3313
▁گرا	-11.3317
▁ھاٹیگ	-11.3318
▁لانگو	-11.3326
▁زانتے	-11.3328
▁لنجیں	-11.333
▁writ	-11.333
▁زیم	-11.3331
▁جاورال	-11.3336
ینان	-11.3337
سرپد	-11.3337
اہی	-11.3339
▁کمانڈر	-11.3342
▁مجن	-11.3344
▁اسلء	-11.3345
▁تہرانی	-11.3345
ve	-11.3345
▁turn	-11.3346
▁With	-11.3348
▁ایردستی	-11.3349
▁مئیگ	-11.3353
▁مرادانی	-11.3354
▁حالی	-11.3354
▁دانش	-11.3355
w	-11.3355
▁دروشماں	-11.3359
5	-11.3359
▁کاکڑ	-11.3361
▁برطانیا	-11.3366
▁پہناتانی	-11.3366
▁تھسیل	-11.3366
▁ارگنائزیشن	-11.3366
▁بیستمی	-11.3369
▁نێست	-11.3369
▁چارشمبے	-11.3371
▁پنڈوک	-11.3373
فن	-11.3375
▁کنر	-11.3375
▁بالکل	-11.3376
▁قہر	-11.3376
▁وتیگ	-11.3379
▁جلدی	-11.338
▁یورپء	-11.3383
▁seven	-11.3384
▁رحمن	-11.3384
▁اوتھل	-11.3385
▁نانکہ	-11.3385
▁ھی	-11.3385
▁کوریا	-11.3387
▁ترز	-11.3388
▁Le	-11.3391
▁نکن	-11.3395
▁ٹن	-11.3396
▁تگرد	-11.3396
▁کورے	-11.3399
▁مهلوک	-11.3403
▁باند	-11.3404
▁نسیر	-11.3405
▁عادل	-11.3406
▁g	-11.3411
روگ	-11.3412
▁رام	-11.3418
▁you	-11.3419
▁چھو	-11.342
▁level	-11.3421
▁رچگ	-11.3421
▁جاہمنند	-11.3422
▁بھیسہ	-11.3424
▁نرمی	-11.3425
▁مسجد	-11.3425
▁واقعات	-11.3426
▁سدلی	-11.3432
▁ہچی	-11.3435
▁بجنت	-11.3438
▁متھدہ	-11.3439
▁گوشانی	-11.344
▁ارگء	-11.3442
▁نیلیں	-11.3444
▁کشوک	-11.3445
اخر	-11.3452
▁کارجاہ	-11.3452
▁گیران	-11.3453
ley	-11.3455
▁دژمنانی	-11.3456
▁half	-11.3461
▁چارئے	-11.3461
▁عبدالصمد	-11.3462
▁وانگجاھاں	-11.3463
▁سیال	-11.3463
▁سوڑگ	-11.3463
▁لیس	-11.3465
▁ایئر	-11.3466
▁سندء	-11.3471
فل	-11.3473
▁ڈیھاں	-11.3477
▁قلمکار	-11.3479
▁زہم	-11.348
رم	-11.348
▁مرا	-11.3484
▁مھروانیں	-11.3487
ئے۔	-11.3488
▁جما	-11.3489
دز	-11.3491
▁ببیت۔	-11.3492
▁سرئے	-11.3492
▁بیگہ	-11.3493
▁ھمراھداری	-11.3495
▁جوزہ	-11.3495
▁تشے	-11.3495
▁کچل	-11.3496
▁میوزک	-11.3497
▁ات۔بلے	-11.3498
▁بندہ	-11.3502
▁الکاپ	-11.3503
▁گزران	-11.3503
▁سامراج	-11.3505
▁بدر	-11.3505
na	-11.3506
▁songs	-11.3506
▁برد	-11.3506
▁ادماں	-11.3507
▁رھشوناں	-11.3509
▁نشار	-11.3509
▁قبائل	-11.3509
اق	-11.351
▁Division	-11.3513
▁گرنت	-11.3514
▁مزارء	-11.3515
li	-11.3516
▁former	-11.3518
▁گاڈی	-11.3522
کء	-11.3528
▁زالے	-11.353
▁پدرد	-11.353
▁لوگواجہ	-11.3531
▁ھالو	-11.3534
▁church	-11.3534
ll	-11.3535
▁ھاندان	-11.3537
داتگ	-11.354
منٹ	-11.3542
▁بڑھ	-11.3544
▁نگیگی	-11.3544
▁بادگیر	-11.3544
▁رجینتگیں	-11.3544
▁تحصیل	-11.3545
▁زمانے	-11.3545
▁بیک	-11.3545
▁ہمیشانی	-11.3545
▁لرزگ	-11.3551
▁وفاقی	-11.3551
▁یمن	-11.3551
▁تبے	-11.3551
spite	-11.3551
▁کسہء	-11.3554
▁یکوئی	-11.3555
▁گالوارے	-11.3556
▁کپگء	-11.356
▁اسرا	-11.356
▁زتک	-11.3561
▁دئینت۔	-11.3561
▁حاطرا	-11.3562
▁though	-11.3562
▁ولے	-11.3564
▁ہرچیز	-11.3565
▁State	-11.3565
▁ینگ	-11.3567
▁مناسب	-11.3567
▁بچارئے	-11.3568
▁among	-11.3569
▁total	-11.357
▁روچان	-11.3571
مک	-11.3571
▁اورماڑہ	-11.3571
▁ڈھل	-11.3572
▁ڈا	-11.3573
▁للہ	-11.3574
▁حالء	-11.3577
▁مراں	-11.3579
▁ادارانی	-11.358
▁مذھب	-11.3582
▁کسہی	-11.3585
▁دوراں	-11.3585
▁درین	-11.3587
▁گروہ	-11.3588
سوب	-11.3589
▁کھر	-11.3589
گس	-11.3589
▁برطانوی	-11.359
▁سرفراز	-11.3591
▁مسکیں	-11.3594
▁full	-11.3597
ایں	-11.3598
▁جنجالے	-11.3604
▁ناگ	-11.3604
▁مرغ	-11.3609
▁تؤ	-11.3614
▁درنگاز	-11.3614
▁نیزگار	-11.3614
پمشکہ	-11.3614
▁رجینتگ	-11.3616
▁نشت۔	-11.3622
کارانی	-11.3624
▁ڈیہ	-11.3624
▁ارپ	-11.3625
▁لیکو	-11.3626
▁اوور	-11.3628
بکن	-11.3631
▁قبل	-11.3631
▁پھنات	-11.3635
▁امداد	-11.3635
▁دروگے	-11.3637
ti	-11.3637
▁اسم	-11.3639
▁عاصم	-11.3639
▁گیشینت	-11.3642
▁شتگیں	-11.3648
▁want	-11.3648
▁کہدہ	-11.365
la	-11.3652
▁گونگ	-11.3653
▁field	-11.3654
▁ترسگ	-11.3655
▁ھئور	-11.3655
▁بوتگانت	-11.3657
▁دلوتانی	-11.3657
▁بمبے	-11.3657
▁صلاحیت	-11.3662
▁شعیب	-11.3663
▁گوشتانک	-11.3663
بیگ	-11.3664
▁شہہ	-11.3664
▁مسیح	-11.3665
▁جبکہ	-11.3666
▁خیرات	-11.3667
▁سدو	-11.3669
▁پرویز	-11.3669
▁اندام	-11.3672
▁یلو	-11.3672
▁حس	-11.3673
▁اومر	-11.3678
▁جملہ	-11.368
▁Arm	-11.368
▁ساچشتانی	-11.3681
▁مادہ	-11.3682
▁جج	-11.3684
▁المیہ	-11.3685
▁اسپر	-11.3686
▁سلاہاں	-11.3688
▁درشت	-11.3688
ھوں	-11.3689
▁ملائی	-11.369
▁نکت	-11.3691
▁تحریر	-11.3691
اگر	-11.3691
▁بائی	-11.3696
مدام	-11.3696
▁دینے	-11.3696
قی	-11.37
▁دیدگانی	-11.3701
▁اسٹال	-11.3701
▁واراں	-11.3705
▁اربی	-11.3706
جنک	-11.3708
دوئیں	-11.3711
▁مہے	-11.3712
ether	-11.3716
▁چارئگ	-11.3719
▁سرو	-11.3719
▁production	-11.3721
▁ہن	-11.3721
▁مریض	-11.3725
▁وارتگیں	-11.3726
▁سیرء	-11.3728
▁ناجوڑ	-11.3729
▁لیو	-11.3732
▁دپترء	-11.3733
▁روحانی	-11.3733
گیری	-11.3737
▁پشاور	-11.374
▁گنبد	-11.3741
▁پرا	-11.3742
▁کپودر	-11.3746
▁شہراں	-11.3749
▁ثناء	-11.375
سنگت	-11.375
چیاکہ	-11.375
ally	-11.3751
▁محبوب	-11.3752
▁الحق	-11.3753
▁امیتانی	-11.3758
▁پراموش	-11.3759
▁جین	-11.376
ینتہ	-11.3761
▁چیزئے	-11.3762
▁تضاد	-11.3763
▁suggest	-11.3765
▁گندی	-11.3766
▁مہربان	-11.3766
▁محتاج	-11.3767
▁ھرکسی	-11.3768
▁گندے	-11.377
▁سرئ	-11.3772
▁review	-11.3775
▁population	-11.3777
▁ریکوڈک	-11.3777
▁چڑ	-11.3778
▁مولم	-11.3778
▁ماحولیاتی	-11.3788
▁جبری	-11.3791
اصل	-11.3792
ir	-11.3792
مگ	-11.3793
لبزانکی	-11.3793
▁بندیک	-11.3793
انچیں	-11.3795
▁گنت	-11.3803
▁کوکو	-11.3806
▁جہلانکی	-11.3807
دیما	-11.3807
▁ترسناک	-11.3812
▁بمبگواری	-11.3816
▁شاہوانی	-11.3817
▁قاتل	-11.3818
▁نوید	-11.3819
ro	-11.382
▁گنتر	-11.3821
▁زرتگیں	-11.3824
▁ھچی	-11.3829
▁حسابء	-11.3831
▁مسائل	-11.3835
▁ڈیوٹی	-11.3836
▁نوخیں	-11.3837
▁کشگا	-11.3838
▁انجام	-11.3839
▁پوری	-11.3839
▁اسرائیلی	-11.3843
▁رجانکی	-11.3843
▁تریت	-11.3844
▁پٹگ	-11.3845
▁پیرمرد	-11.3846
▁سینیٹر	-11.3847
▁ھندے	-11.3847
▁کارپد	-11.3849
زاناں	-11.385
▁further	-11.3854
▁چونکہ	-11.3855
▁اسٹریلیا	-11.3856
ورگ	-11.3858
حق	-11.3859
▁اوشتوکیں	-11.3864
▁اوانء	-11.3867
▁دف	-11.3867
▁نیلگ	-11.3867
▁رزان	-11.3871
▁2011	-11.3873
▁لانچر	-11.3874
▁جناح	-11.3875
▁سباہ	-11.3877
▁close	-11.3883
▁بالاں	-11.3889
▁فہم	-11.3892
▁گرء	-11.3892
▁تراکانی	-11.3893
▁ازمانکاری	-11.3898
▁گلگدار	-11.3899
▁different	-11.3903
▁فورم	-11.3903
▁چکاسگ	-11.3903
▁کشتہ	-11.3904
▁عملے	-11.3909
▁change	-11.3909
▁سائٹ	-11.3911
▁زردء	-11.3912
▁ڈسٹرکٹ	-11.3912
▁add	-11.3912
▁مستیں	-11.3913
▁سماہ	-11.3914
▁اپسوز	-11.3915
▁پادان	-11.3916
گشگ	-11.392
▁مارت	-11.3921
▁بندرء	-11.3921
▁دیستہ	-11.3922
▁ابدی	-11.3926
▁وحید	-11.3929
▁مشینری	-11.3938
▁گواہی	-11.3938
▁ببا	-11.3939
▁ہد	-11.3942
▁نوداں	-11.3943
▁نیو	-11.3945
ھست	-11.3946
▁پرشگ	-11.3946
لاں	-11.3947
▁چانگ	-11.3948
▁real	-11.3949
ھند	-11.395
▁According	-11.3951
▁2006	-11.3951
▁نجیب	-11.3951
▁اولسر	-11.3953
▁همیش	-11.3954
بال	-11.3956
▁ششتگ	-11.3957
▁لسانی	-11.396
ادء	-11.396
▁روپ	-11.3964
▁track	-11.3966
گم	-11.3968
▁۔یک	-11.3969
▁اپانی	-11.3969
▁جنکیں	-11.3969
▁Church	-11.397
▁چمء	-11.397
▁strong	-11.3972
▁راجکاری	-11.3974
▁نادراہجاہ	-11.3977
▁نکس	-11.3977
▁run	-11.3982
▁مغرب	-11.3984
▁کارکنوکیں	-11.3986
▁ڈاک	-11.3989
جام	-11.399
استاد	-11.3991
▁کراس	-11.3991
▁مجیب	-11.3995
عمر	-11.3995
▁جیڑیت	-11.3998
▁بها	-11.4
اتکگ	-11.4
▁مارات	-11.4003
▁شگل	-11.4004
▁اگبالانی	-11.4004
اھی	-11.4011
▁kill	-11.4022
▁co	-11.4025
▁طبی	-11.4025
▁ٹکٹ	-11.4027
▁داس	-11.4028
▁ابوبکر	-11.4031
▁دمبرتگ	-11.4033
▁منزلء	-11.4036
▁دؤ	-11.4037
▁منزلے	-11.4037
▁قاصد	-11.4037
▁کلاتء	-11.404
ta	-11.4042
ate	-11.4044
▁دیتے	-11.4047
ھک	-11.4047
▁مدگ	-11.4048
ۆک	-11.4049
▁air	-11.4052
▁days	-11.4055
▁ٹولیانی	-11.4057
▁قمبر	-11.4059
ولی	-11.406
کسی	-11.4061
▁militar	-11.4068
▁بنگلزئی	-11.4068
گوستگیں	-11.4069
▁پجیگ	-11.4072
▁مولا	-11.4072
▁عنہ	-11.4073
▁پچے	-11.4074
▁خانگ	-11.4075
▁پادء	-11.4075
▁روشنی	-11.4076
▁جہلیں	-11.4076
▁فلسطین	-11.4082
▁سائنسدان	-11.4086
▁دورانی	-11.4088
▁ویروس	-11.4089
▁ھورکیں	-11.4091
▁شاباش	-11.4092
▁کلہ	-11.4093
▁ہورء	-11.4094
▁اشارگ	-11.4094
▁مانزمان	-11.4096
▁الکاپی	-11.4096
▁ھیرو	-11.4099
▁گوریچ	-11.4103
▁شئرانی	-11.4107
▁official	-11.4107
▁particular	-11.4107
▁اناگاہ	-11.4112
۔۔۔۔۔۔۔	-11.4114
▁گبار	-11.4115
▁بوتگ۔اے	-11.4118
غلام	-11.4119
▁توشگ	-11.412
کنئگ	-11.412
▁پارست	-11.412
چن	-11.4122
ling	-11.4122
▁پاہو	-11.4125
▁مجاہد	-11.4127
بیر	-11.4131
▁لیکہاں	-11.4131
▁شفیع	-11.4132
▁میرین	-11.4135
ther	-11.4139
▁نامینگ	-11.414
▁گمراہ	-11.414
▁پیرو	-11.414
▁کماشاں	-11.414
یج	-11.4141
▁خو	-11.4143
▁دستبندی	-11.4143
iz	-11.4143
احمد	-11.4146
▁زانوگر	-11.4148
▁تعداد	-11.4151
▁رھشونانی	-11.4151
▁گریبی	-11.4152
▁باھند	-11.4156
▁ساھدار	-11.4157
▁رخ	-11.4157
▁دانی	-11.4158
▁منہ	-11.4158
▁لوک	-11.4158
▁تواریں	-11.4159
▁ندارگاں	-11.4164
▁ھوشام	-11.4164
▁بگٹیء	-11.4166
▁سوتکگ	-11.4166
▁ندار	-11.4171
▁جھلی	-11.4172
حسن	-11.4172
▁ھرجاہ	-11.4173
▁بناربس	-11.4173
▁جبزگ	-11.4174
▁فارس	-11.4176
پنچ	-11.4176
▁فا	-11.4178
یث	-11.4184
▁زربار	-11.4192
▁بشام	-11.4194
▁ورنائے	-11.4198
▁کارکرد	-11.4199
▁کرنء	-11.4202
▁چلی	-11.4204
▁روی	-11.4204
اباد	-11.4204
▁بودناکی	-11.4205
▁کالب	-11.4205
▁ماپ	-11.4207
▁human	-11.4207
▁ٹریفک	-11.4207
▁یاداشت	-11.4207
▁پیرس	-11.4208
وخیں	-11.4208
▁سیا	-11.4209
▁رہشونی	-11.4211
▁رکینت	-11.4211
▁وارڈ	-11.4213
▁وابیں	-11.4214
▁بامنء	-11.4214
▁باشد	-11.4217
▁جنینء	-11.4228
▁ایمانداری	-11.423
▁روچتاک	-11.4231
▁هک	-11.424
▁کوڈ	-11.424
▁):	-11.4242
▁عبدالمالک	-11.4247
▁رسائی	-11.425
شل	-11.425
▁ورناھانی	-11.4253
▁وٹ	-11.4254
▁دزبمب	-11.4258
▁درستان	-11.426
▁پہناتاں	-11.4262
▁تنیگ	-11.4264
▁انچ	-11.4265
▁نزانتگ	-11.4269
▁انگلش	-11.4271
ساحر	-11.4271
شیا	-11.4273
▁تہل	-11.4273
▁درمانی	-11.4274
ts	-11.4274
ینے	-11.4275
▁جانور	-11.4278
▁کارگال	-11.4278
▁واہگانی	-11.428
▁پیٹ	-11.4281
▁روء	-11.4282
▁سچگ	-11.4285
▁scor	-11.4286
▁League	-11.4287
▁برج	-11.4287
▁مسترین	-11.4287
اسلام	-11.4288
▁مرگی	-11.4289
▁دکاندار	-11.429
▁unit	-11.429
▁دیبا	-11.429
▁every	-11.4291
▁ڈو	-11.4292
▁سخی	-11.4295
▁ئیء	-11.4295
▁عیش	-11.4296
▁ہلاسی	-11.4301
ab	-11.4302
▁ہزارانی	-11.4302
▁مھم	-11.4303
▁موسی	-11.4307
▁increase	-11.4307
▁ورزش	-11.4307
▁بہتر	-11.4307
▁سماء	-11.4308
▁ہمیشہ	-11.4309
پو	-11.4309
▁ریگستان	-11.431
▁control	-11.431
▁گیریں	-11.4312
▁کاپی	-11.4312
راجی	-11.4312
▁ہورت	-11.4313
▁امانت	-11.4314
▁بندگی	-11.4315
▁چرا	-11.4315
▁تیری	-11.4319
▁وادی	-11.4319
▁نشتاں	-11.4321
▁وتکاریں	-11.4322
▁ات۔۔	-11.4325
▁رائٹس	-11.4327
ھمک	-11.4328
▁کیشن	-11.4328
▁پگرے	-11.4328
▁دنیائی	-11.433
▁دامنء	-11.4331
▁ملنڈ	-11.4335
ھل	-11.4335
:’’	-11.4338
▁شدکش	-11.4341
۔پدا	-11.4344
▁ناسرپد	-11.4346
▁پرینتگ	-11.4346
▁اتھارٹی	-11.4347
▁گدانی	-11.435
▁السلام	-11.4355
▁دئیگی	-11.4357
▁مخالف	-11.4358
▁شاخ	-11.4359
▁سرداراں	-11.4362
میتگ	-11.4362
▁مجاں	-11.4363
▁چندر	-11.4364
▁ڈاکٹرء	-11.4366
▁ہردیں	-11.4366
▁عیسی	-11.4367
ائل	-11.4369
▁برگی	-11.4369
ایران	-11.437
▁اگل	-11.4372
▁band	-11.4372
▁ہندء	-11.4378
▁زیند	-11.4378
▁ٹہل	-11.438
▁نکل	-11.4382
▁باطن	-11.4386
پار	-11.4388
▁پرما	-11.4388
▁سھریں	-11.4388
▁Song	-11.4388
▁ھزانگ	-11.4388
▁لاشے	-11.439
▁ٹہک	-11.439
اڑ	-11.4392
▁گێشتر	-11.4392
بکش	-11.4396
▁جاورے	-11.4398
▁بلوچان	-11.44
بوگ	-11.4401
▁لوٹتگ	-11.4401
▁کرنچ	-11.4402
ebru	-11.4403
▁زهگ	-11.4411
▁سرگوز	-11.4413
▁توانا	-11.4413
▁کچھی	-11.4414
▁ڈیوا	-11.442
▁چرگ	-11.4422
▁ازیت	-11.4422
▁نامگال	-11.4423
▁چندن	-11.4426
▁service	-11.4428
▁استالاں	-11.443
▁finish	-11.443
▁جمڑی	-11.4431
less	-11.4434
▁میڑہ	-11.4434
▁ازمانکء	-11.4434
▁مڈیاں	-11.4435
▁پنج	-11.4436
▁Me	-11.4438
▁زهر	-11.4443
▁کنت۔۔۔	-11.4444
▁چرچ	-11.4445
▁شہدگ	-11.4447
▁لیپ	-11.445
▁کمیونٹی	-11.445
▁story	-11.4452
▁وتواجھی	-11.4452
ڈول	-11.4453
▁میراس	-11.4453
▁کامیو	-11.4455
▁21	-11.4456
▁انساناں	-11.4461
▁ساہدار	-11.4465
▁کلاہ	-11.4466
▁رسینتگ	-11.4466
gave	-11.4469
ینک	-11.4469
▁خیبر	-11.447
▁caus	-11.4476
▁دارئے	-11.4478
▁ایی	-11.4479
▁مختار	-11.448
▁کنانء	-11.448
▁ہاک	-11.4482
▁۔منی	-11.4482
▁زورگری	-11.4484
▁دلکش	-11.4485
▁بیئگ	-11.4487
▁defeat	-11.449
▁project	-11.449
▁بوتگنت۔	-11.449
▁ڈاؤن	-11.449
▁جیڑھاں	-11.4491
▁کاٹ	-11.4491
▁کوچگی	-11.4493
▁شاھو	-11.4496
▁محکمیں	-11.4499
▁body	-11.45
▁گولے	-11.4501
غ۔	-11.4501
▁مکرانء	-11.4504
▁‘‘(	-11.4506
ئگا	-11.4507
▁بلیدی	-11.4512
شم	-11.4513
▁بوته	-11.4514
▁واریاں	-11.4515
▁جنکء	-11.4515
▁ماحل	-11.4518
▁معنایے	-11.4521
▁دمگدار	-11.4524
اوتی	-11.4524
▁ترانگاں	-11.4529
stead	-11.4529
▁Dylan	-11.4531
▁وہم	-11.4531
▁جاورحال	-11.4533
▁پیمے	-11.4534
▁دارانت	-11.4535
▁سندگ	-11.4536
▁گنوکیں	-11.4538
▁گورے	-11.4539
▁۔ما	-11.4539
▁مہرک	-11.4541
▁reported	-11.4542
▁.....	-11.4542
▁کوپ	-11.4544
▁دردناکیں	-11.4544
▁تکہ	-11.4547
▁cover	-11.4549
▁دروغ	-11.455
▁ٹائم	-11.455
▁نئیل	-11.4553
▁الہ	-11.4555
▁چوگان	-11.4557
▁ٹپاں	-11.456
▁بنگال	-11.456
▁صوت	-11.4561
▁چریشیء	-11.4564
▁سامی	-11.4569
▁کرچک	-11.4569
▁تج	-11.4569
▁گفتار	-11.457
▁وانشت	-11.457
▁دستونکئ	-11.4571
▁پژم	-11.4572
▁چہرء	-11.4573
▁کلاسیک	-11.4574
▁شیری	-11.4575
▁نذر	-11.4575
ٹس	-11.4576
▁مہراں	-11.4576
▁جذبگ	-11.4577
▁شادان	-11.4579
▁شکلیں	-11.4579
A	-11.458
▁سنا	-11.4581
▁چنانچہ	-11.4581
▁Park	-11.4583
▁کامران	-11.4583
▁حفاظت	-11.4585
▁ایگی	-11.4587
▁علاقوں	-11.4593
▁منظم	-11.4594
▁جمھوری	-11.4595
هی	-11.4598
ڈا	-11.4603
▁پنڈ	-11.4605
▁اسپین	-11.4607
جم	-11.4612
▁زرانی	-11.4614
▁ماناء	-11.4615
▁کنوکے	-11.4615
▁land	-11.4616
▁ردان	-11.4618
▁بیثہ	-11.4619
▁اداراں	-11.4625
▁توپ	-11.4625
▁match	-11.4627
▁دلجان	-11.4629
▁جسے	-11.4632
▁بنام	-11.4633
▁لھم	-11.4634
▁پێسر	-11.4634
▁east	-11.4636
▁درچکاں	-11.4637
▁ملکا	-11.4637
▁بوتوں	-11.4641
▁فراز	-11.4642
زا	-11.4642
▁اتحادی	-11.4645
▁بچاریت	-11.4645
ain	-11.4647
▁بیائے	-11.4649
▁نار	-11.465
▁مرتگ۔	-11.4652
▁اصطلاح	-11.4652
ٹری	-11.4653
▁جنگول	-11.4654
▁2012	-11.4655
▁اتمانء	-11.4657
tic	-11.4661
▁گيئشتر	-11.4661
▁لوٹنت	-11.4663
▁انچوکہ	-11.4664
شال	-11.4665
▁ماوتی	-11.4665
برگ	-11.4666
امی	-11.4666
پدء	-11.4667
▁بنگ	-11.4672
▁پنوں	-11.4674
▁چھوڑ	-11.4675
▁بکناں۔	-11.4676
▁استادے	-11.4678
▁برگیڈ	-11.4679
▁۔اگاں	-11.468
▁تچوکیں	-11.4684
▁چاراتگ	-11.4685
▁لاگریں	-11.4687
▁تاچ	-11.4691
moved	-11.4696
▁راھاں	-11.4698
▁انگریزاں	-11.4702
....!	-11.4703
بہر	-11.4704
▁کسو	-11.4706
▁تنیگہ	-11.4707
▁منندیں	-11.4707
▁موسمء	-11.4707
▁تاجر	-11.4708
▁پہکیں	-11.4708
شھلچہ	-11.4711
▁خر	-11.4712
▁ہست۔	-11.4713
▁دیری	-11.4714
▁قریشی	-11.4714
▁بحران	-11.4714
خدا	-11.4714
▁تامربند	-11.4715
▁رنجاں	-11.4716
▁بزانتیں	-11.4716
▁لوچ	-11.4716
▁یونائیٹڈ	-11.472
▁مقرر	-11.472
▁ندارگے	-11.4721
▁تخلیقی	-11.4723
▁گوربام	-11.4725
▁low	-11.4726
▁لاگر	-11.4727
co	-11.473
▁جیڑہاں	-11.4731
▁ایڈ	-11.4735
▁ارزش	-11.4738
▁popular	-11.4739
▁کوہاں	-11.4739
▁کرناں	-11.474
▁شرح	-11.4741
▁درنجگ	-11.4741
▁پدرائی	-11.4741
▁سئید	-11.4743
▁مہلنج	-11.4743
▁بروک	-11.4747
▁ماہے	-11.4748
▁تاکء	-11.4749
▁بیگی	-11.475
پگ	-11.4752
پرچے	-11.4752
▁ادارے	-11.4753
نور	-11.4754
line	-11.4754
▁اوژناگ	-11.4755
▁ترانت	-11.4756
▁لوٹائینتگ	-11.4761
▁ببو	-11.4761
▁ننک	-11.4762
▁خوب	-11.4764
▁گؤں	-11.4766
▁دروشمیں	-11.4767
▁کانچ	-11.4769
▁ھمساھگ	-11.4775
▁جندے	-11.4775
▁گرے	-11.4778
▁ات۔ائیء	-11.478
▁تہلیں	-11.4781
بیان	-11.4781
▁کردہ	-11.4782
▁ٹکی	-11.4786
▁ھمروچیگیں	-11.4787
▁se	-11.4787
▁پلانٹ	-11.479
▁حوالے	-11.4794
▁ہوشام	-11.4798
▁کچہ	-11.48
وکے	-11.48
▁ملکیت	-11.4801
▁سوبا	-11.4801
▁tropic	-11.4804
▁نسب	-11.4805
▁پنڈگ	-11.4805
▁We	-11.4806
▁ذرائع	-11.4807
▁چٹی	-11.4811
▁گمء	-11.4811
ته	-11.4816
▁چنڈگ	-11.482
▁سوبمندیں	-11.4822
▁General	-11.4823
▁بیبو	-11.4824
▁creat	-11.4825
گاہ	-11.4836
شور	-11.4839
▁چاریگی	-11.4841
▁مانی	-11.4845
▁بخاری	-11.4845
ol	-11.4846
▁ٹرمپ	-11.485
▁دکتر	-11.4851
▁جذبات	-11.4854
▁اشکرانی	-11.4856
▁ترکیب	-11.4859
▁کلانچ	-11.4859
▁گندایت	-11.4861
▁بکشاتگ	-11.4862
انگت	-11.4869
▁رنگا	-11.4871
▁رہبنداں	-11.4872
▁چداں	-11.4876
ماتی	-11.4877
▁لوٹائینت	-11.488
▁ابرو	-11.488
▁پڑاں	-11.4882
▁نبیسوک	-11.4883
▁پتا	-11.4885
بیتگ	-11.4886
▁ڈویژن	-11.4887
▁house	-11.4888
▁انتخاب	-11.4888
▁ھترہ	-11.4892
ثہ	-11.4892
▁حالگش	-11.4893
صل	-11.4898
given	-11.4899
▁پہلوی	-11.49
▁کسا	-11.49
ell	-11.4903
▁گهار	-11.4904
▁تپر	-11.4906
سردار	-11.4908
▁کته	-11.4908
▁ہشک	-11.4908
▁ڈیموکریٹ	-11.4909
▁سمندری	-11.491
▁اسٹیٹ	-11.491
4	-11.491
▁ڈلگ	-11.4911
way	-11.4913
▁critic	-11.4913
▁ھمدردی	-11.4913
▁region	-11.4915
▁گنی	-11.4916
▁جارج	-11.4917
▁تباھی	-11.4919
▁گواھی	-11.4919
▁نازاں	-11.4919
▁وند	-11.4919
ترس	-11.4919
▁بدیاں	-11.492
ہوار	-11.4922
▁فیکٹری	-11.4923
▁رتک	-11.4923
▁hav	-11.4924
▁مالدار	-11.4925
جار	-11.4925
▁بھرام	-11.4927
▁novel	-11.493
▁Japan	-11.493
رنگیں	-11.4935
▁ھتم	-11.4937
ھیر	-11.4938
▁برائے	-11.4941
▁light	-11.4941
▁لشکرے	-11.4943
▁پورم	-11.4944
ابا	-11.4946
▁اتراپ	-11.4948
نیت	-11.4951
نج	-11.4951
▁times	-11.4952
▁سینزدہ	-11.4956
▁دیوانا	-11.4957
▁ردومء	-11.4958
▁غازی	-11.4958
شگ	-11.4958
▁ندوی	-11.4958
▁writing	-11.4959
▁خاک	-11.496
▁بالادء	-11.4963
▁گیشواری	-11.4968
▁گوئی	-11.4968
▁موسمے	-11.4971
em	-11.4973
▁مفت	-11.4973
▁پشتا	-11.4974
▁پج	-11.4975
▁دریاورد	-11.4976
▁بلکنہ	-11.4976
ig	-11.4976
▁term	-11.4978
▁شکی	-11.4978
ناز	-11.4978
ad	-11.498
عربی	-11.4982
▁گرو	-11.4982
اشانی	-11.4982
▁بیلاں	-11.4986
▁پاری	-11.4986
تری	-11.4986
▁()	-11.499
▁شمشتگ	-11.4991
یف	-11.4992
مز	-11.4994
▁جوانتریں	-11.4996
▁?”	-11.4997
هر	-11.4998
▁لاطینی	-11.5
هے	-11.5001
▁متلبے	-11.5002
▁بیانے	-11.5003
▁ڈاکٹرے	-11.5006
▁جدگال	-11.5008
▁members	-11.501
▁چما	-11.5015
▁pre	-11.5015
▁انلاین	-11.5016
▁زیل	-11.5016
▁بئیگا	-11.5017
▁star	-11.5017
اول	-11.5018
▁نکتہ	-11.5018
▁جنئک	-11.5021
▁انڈین	-11.5021
▁کہیر	-11.5024
▁ابر	-11.5024
▁کشکاں	-11.5025
▁لگا	-11.5026
یلی	-11.5028
▁زہگے	-11.5029
▁گرام	-11.503
▁west	-11.5032
▁ٹھ	-11.5032
▁ایڈیشن	-11.5035
▁گشتہ	-11.5036
اه	-11.5037
▁دزمانجنی	-11.5037
▁کارکردگی	-11.5039
▁رھم	-11.504
▁کسانیء	-11.504
▁مزور	-11.5042
lost	-11.5044
▁فرید	-11.5045
▁23	-11.5047
▁محسن	-11.5047
▁عمان	-11.5048
▁مڑا	-11.5048
▁پکراں	-11.5049
▁لوزاں	-11.5049
▁base	-11.5052
▁گیشنگ	-11.5053
▁ربیتی	-11.5054
▁زیروک	-11.5054
دستونک	-11.5055
▁عومر	-11.5056
▁ریاستء	-11.5058
seen	-11.506
▁انیگیں	-11.506
▁ھمدپ	-11.506
▁انچائیں	-11.5061
▁منتوار	-11.5061
▁ژانگول	-11.5061
▁پیڑ	-11.5062
▁ساپیں	-11.5063
▁لبرل	-11.5066
▁جوانسال	-11.5067
▁مچار	-11.5068
▁اٹلی	-11.5068
▁تما	-11.5068
▁نوٹس	-11.5068
▁یہودی	-11.5072
غنی	-11.5077
▁بچاراں	-11.5081
▁ذریعے	-11.5081
▁ہوکر	-11.5086
▁plan	-11.5087
▁انس	-11.509
وے	-11.509
▁تلک	-11.5099
▁اسمائیل	-11.5103
▁country	-11.5105
▁گریں	-11.5105
▁عبدالکریم	-11.5106
▁چنگیز	-11.5108
▁جناور	-11.5108
▁اہتگ	-11.5109
▁شاید	-11.511
▁تقریبا	-11.5111
▁برس	-11.5113
▁بربادی	-11.5114
▁چونا	-11.5118
▁گسے	-11.5119
▁America	-11.5119
▁گج	-11.5123
▁سہتے	-11.5124
▁درگ	-11.5124
▁young	-11.5125
گرگ	-11.5126
▁گی۔	-11.5127
▁fee	-11.5127
گران	-11.5128
▁کرپشن	-11.513
▁میس	-11.513
▁مزید	-11.513
بیگواہ	-11.5131
▁سنگتء	-11.5132
▁انعام	-11.5132
▁موج	-11.5141
▁متاہ	-11.5142
▁پڑی	-11.5143
▁۔بلوچی	-11.5147
▁Whil	-11.5147
▁کیوں	-11.5149
▁ہنری	-11.515
▁کارایت	-11.515
me	-11.5153
▁بیگاہء	-11.5153
▁کلمکار	-11.5157
▁سرون	-11.5159
os	-11.516
▁ھیات	-11.5162
▁ناامیتی	-11.5162
▁نرس	-11.5162
▁بیھال	-11.5165
▁درگیج	-11.5166
▁گشگا	-11.5167
▁ھمسیادی	-11.5172
▁جنگوجانی	-11.5173
▁ہنی	-11.5173
▁انگریزوں	-11.5173
نگا	-11.5174
▁کنا	-11.5176
▁مھلب	-11.5177
▁پرزند	-11.5177
▁نوشت	-11.5178
▁ازر	-11.5179
▁ھسن	-11.518
▁تھیں	-11.5183
...!‘‘	-11.5183
▁کوشانی	-11.5184
▁کلا	-11.5189
بنت۔	-11.519
▁خواتین	-11.5191
▁چارایت	-11.5191
mp	-11.5192
uarter	-11.5193
▁زانتیں	-11.5195
▁thought	-11.5196
▁برنت	-11.5198
▁اپیل	-11.5204
▁tour	-11.5204
▁اوزار	-11.5207
▁ھمایاں	-11.5208
▁ذیل	-11.5209
▁mak	-11.521
▁اقتدار	-11.5213
پک	-11.5213
▁ھرتال	-11.5217
▁گارڈز	-11.5218
ره	-11.5218
▁عدم	-11.522
▁پشومان	-11.522
▁range	-11.5223
▁گرئگ	-11.5225
▁کتب	-11.5225
▁ھالیگ	-11.5226
چوشکہ	-11.5227
▁جوک	-11.5228
▁West	-11.5229
▁براتی	-11.5231
▁کپتیں	-11.5233
▁کامیابی	-11.5233
▁تالہ	-11.5235
▁کماندان	-11.5236
▁کسھاں	-11.5237
▁بانداتء	-11.5237
F	-11.5239
▁اذیت	-11.5239
went	-11.5239
دروشم	-11.524
▁سرکارا	-11.524
one	-11.5241
▁مانگیش	-11.5241
چاپ	-11.5248
سفرخان	-11.5253
▁اثرمند	-11.5253
▁پاساں	-11.5255
▁ریگی	-11.5255
▁تماشا	-11.5255
▁2013	-11.5257
▁سینئر	-11.5257
▁دانائی	-11.5257
▁راجہ	-11.5258
▁برانت	-11.5263
ham	-11.5266
▁گواتانی	-11.5268
▁ماراں	-11.5268
▁باتیں	-11.5271
▁ہنچش	-11.5274
ٹل	-11.5274
▁کڑ	-11.5275
▁ایمنسٹی	-11.5279
▁ائیگ	-11.5283
▁روٹکی	-11.5285
▁ادیرہ	-11.5285
▁کرام	-11.5285
▁غفور	-11.5286
الہ	-11.5287
▁زم	-11.5288
▁چھٹی	-11.5289
▁سوک	-11.5289
▁گیشوار	-11.5289
▁پرشیت	-11.5289
▁۔پدا	-11.529
▁نیز	-11.5295
▁گوزگء	-11.5296
▁less	-11.5298
▁صحیح	-11.53
شانی	-11.5301
▁ضمانت	-11.5301
▁بارکزئی	-11.5302
▁کنگے	-11.5302
▁اشعار	-11.5304
▁پٹھان	-11.5305
▁وشحالی	-11.5307
▁واکیات	-11.5308
▁لگگ	-11.5314
▁پاچن	-11.5314
▁سجاد	-11.5315
▁King	-11.532
▁سرتاک	-11.532
▁کتگین	-11.5322
▁بیاراں	-11.5323
▁پاسپورٹ	-11.5324
▁con	-11.5325
▁بوتک	-11.5327
تران	-11.5327
▁operation	-11.5327
▁دراھی	-11.5328
کمے	-11.5328
▁اسری	-11.5331
▁رحمدل	-11.5332
▁لوٹے	-11.5336
▁اید	-11.5342
▁ناروے	-11.5343
تل	-11.5345
▁دیاں۔	-11.5346
▁فصل	-11.5346
▁نامانی	-11.5347
▁ایرجیگ	-11.5348
▁کینسر	-11.5348
صد	-11.535
▁پسوء	-11.535
▁پتاتگ	-11.535
▁ورناھاں	-11.5355
▁راھانی	-11.5357
سیت	-11.5357
ge	-11.5361
▁ادارکی	-11.5362
op	-11.5362
▁نیار	-11.5364
▁مسلہ	-11.5364
▁مکان	-11.5364
▁نانء	-11.5364
▁جاڑی	-11.5365
▁روزی	-11.5367
niversit	-11.5368
▁never	-11.5368
▁ماسکو	-11.5369
▁پیسہ	-11.5369
مھر	-11.5369
▁development	-11.537
▁ٹائپ	-11.5371
▁سم	-11.5375
▁دیوالاں	-11.5375
▁گشادی	-11.5376
یٰ	-11.5379
▁رچان	-11.538
▁Co	-11.5385
▁ٹھک	-11.5387
side	-11.539
▁مراگاہ	-11.5391
▁بہرانی	-11.5394
▁ینت	-11.5395
▁مشورہ	-11.5395
▁قطار	-11.5396
▁ریاستے	-11.5399
▁ازاتیء	-11.5399
▁انجینئر	-11.54
▁stated	-11.5401
▁شائراں	-11.5405
▁زانتکارے	-11.5407
▁کمکء	-11.5407
▁کدیم	-11.5407
▁زمینانی	-11.5412
▁اجزاء	-11.5413
▁سفیر	-11.5414
▁توام	-11.5415
▁جیڑہے	-11.5419
▁award	-11.5419
▁ایدیم	-11.542
▁پٹان	-11.542
▁مصیبت	-11.5421
▁پیشدار	-11.5422
▁زالکار	-11.5423
▁یکشلی	-11.5423
▁تگران	-11.5424
▁style	-11.5424
▁بلاک	-11.5425
▁دلسیاہ	-11.5426
▁action	-11.5432
▁جنگلی	-11.5434
▁واهگ	-11.5436
▁پراں	-11.5437
▁سفرنامہ	-11.5439
فت	-11.544
▁ھیروپ	-11.544
▁لینن	-11.5445
▁حدء	-11.5446
▁پجارے	-11.5452
▁ولید	-11.5453
▁واکب	-11.5454
▁اروک	-11.5454
▁سانتیاگونصر	-11.546
▁سدھ	-11.5464
▁بہرام	-11.5464
▁طائر	-11.5465
▁جیڑگء	-11.5468
▁complete	-11.5468
▁عالی	-11.5473
اؤں	-11.5474
بک	-11.5475
▁کردارانی	-11.5476
▁ازمانکی	-11.5478
▁حکمران	-11.5478
▁بوشت	-11.548
چشیں	-11.548
▁مردانی	-11.5482
▁ٹر	-11.5482
▁پرسیگ	-11.5483
▁روایات	-11.5483
▁ڈنگر	-11.5486
▁پہنچا	-11.5487
▁کمپان	-11.5488
▁راھبندے	-11.5491
▁ہوا۔	-11.5492
وند	-11.5494
▁لچه	-11.5494
▁سسائی	-11.5494
▁نہیں۔	-11.5496
▁کاش	-11.5497
▁کشادگ	-11.5502
▁بوت۔۔۔	-11.5504
▁بگو	-11.5504
▁اتش	-11.5506
▁نکاح	-11.5508
▁کسٹم	-11.5509
▁toward	-11.551
▁نادریں	-11.5512
▁دشمنی	-11.5516
▁جاو	-11.5518
▁سوا	-11.5519
▁v	-11.5521
کناں	-11.5523
چیر	-11.5523
▁کسھانی	-11.5524
▁لوڑی	-11.5526
▁پسانی	-11.5528
ئیت	-11.5529
▁دریافت	-11.5531
▁شن	-11.5531
▁نیادی	-11.5532
اماں	-11.5535
بانک	-11.5535
▁مردمےء	-11.5536
▁کچکے	-11.5537
▁جاھانی	-11.5537
▁دپار	-11.5538
▁دوداں	-11.5544
▁کارستاں	-11.5545
▁دمگء	-11.5545
▁ہپتاد	-11.5547
▁شوهاز	-11.5549
▁کفر	-11.5549
▁بگاوت	-11.555
▁تربتء	-11.5551
▁اصلیں	-11.5555
▁کمب	-11.5556
▁بحری	-11.5556
coming	-11.5556
▁Australian	-11.5557
▁ترسیت	-11.5558
▁سبکیں	-11.556
▁کفن	-11.5561
▁نگرہ	-11.5561
زاں	-11.5563
▁ہوارانت۔	-11.5563
,’’	-11.5563
ندر	-11.5566
▁چۆن	-11.5571
▁پلاسٹک	-11.5572
▁ھلو	-11.5572
▁بندیگی	-11.5574
▁جاورء	-11.5575
▁مومنٹ	-11.5578
▁زیراں	-11.5579
چاکر	-11.5582
to	-11.5582
▁جهل	-11.5583
▁کشیت۔	-11.5583
▁سرمچارے	-11.5584
▁کاپرء	-11.5586
▁ساعتے	-11.559
self	-11.5592
▁کسمت	-11.5592
▁ft	-11.5594
▁حضور	-11.5595
چھ	-11.5595
سریں	-11.5597
▁تعمیر	-11.5597
▁نمائندگی	-11.5599
▁راھ	-11.5599
▁اینٹی	-11.5601
▁کسارت	-11.5601
بھ	-11.5602
▁پراھگ	-11.5602
یکہ	-11.5605
▁پردہ	-11.5605
▁حیالداری	-11.5607
▁sign	-11.5608
▁بندری	-11.5609
▁تمبو	-11.561
▁اشکن	-11.561
▁مسلماناں	-11.561
▁سیاھی	-11.561
زیر	-11.5616
▁مصری	-11.5617
▁توازن	-11.5618
▁وصف	-11.562
▁28	-11.562
▁مشکت	-11.5625
▁سکھ	-11.5627
▁تیغ	-11.5628
▁ازمون	-11.5628
▁نشانے	-11.5629
▁تہت	-11.563
▁سعدی	-11.5631
ارت	-11.5633
▁فلاں	-11.5633
▁پھول	-11.5637
▁سورس	-11.5637
▁اٹھ	-11.5638
▁کدو	-11.5639
▁انگار	-11.5639
▁پسیل	-11.564
روکپتی	-11.564
▁تروتاب	-11.5641
▁گورنمنٹ	-11.5642
▁50	-11.5644
▁اندازگ	-11.5644
▁ملکموت	-11.5645
▁کیچء	-11.5645
گن	-11.5647
▁چور	-11.5649
▁بتلانی	-11.565
▁گیشینتگ	-11.5651
▁پشومانی	-11.5652
بز	-11.5653
▁۔ہمے	-11.566
▁زهیر	-11.5662
▁هوار	-11.5664
پن	-11.5664
▁عربانی	-11.5664
▁پشل	-11.5665
▁Ire	-11.5665
▁ھداء	-11.5668
▁گاڑیء	-11.5668
▁اہو	-11.567
▁دردی	-11.567
▁scene	-11.5672
▁گب	-11.5672
▁island	-11.5673
شتہ	-11.5675
▁واناک	-11.5681
▁ساھگء	-11.5681
▁بیچار	-11.5682
▁بستگ۔	-11.5683
ither	-11.5683
▁لبزی	-11.5683
▁شاھر	-11.5685
▁سہن	-11.5685
▁22	-11.5686
▁کھڑکی	-11.5687
▁enter	-11.5687
▁جارے	-11.5688
▁توصیف	-11.5689
▁ادت	-11.569
▁کائی	-11.5696
▁گوج	-11.57
▁گهتر	-11.5701
▁شتنت	-11.5702
▁پروشی	-11.5704
▁ساچشتکار	-11.5707
▁گیپت۔	-11.5708
تان	-11.5708
▁وانوکیں	-11.571
▁رستہ	-11.5711
▁ایرموش	-11.5713
▁نمونہ	-11.5713
▁دانکاں	-11.5717
▁chart	-11.5719
▁براتے	-11.5722
▁پچی	-11.5723
▁گیگان	-11.5723
▁تانا	-11.5725
▁جلی	-11.5728
▁سیٹھ	-11.5728
▁دابء	-11.5731
▁hour	-11.5733
▁انگلینڈ	-11.5733
▁نێمگا	-11.5734
▁ہرکسی	-11.5735
▁نگدء	-11.5735
▁مھکمی	-11.5735
وھدیکہ	-11.5736
▁ra	-11.5736
مردماں	-11.5739
▁رہبندے	-11.574
▁بشارت	-11.5741
▁کاڑ	-11.5742
▁پاور	-11.5743
▁سیاہی	-11.5745
▁دانگے	-11.5749
▁ہاسیں	-11.575
▁وجودء	-11.5752
▁دوھیں	-11.5753
▁کب	-11.5753
گڈی	-11.5755
▁زگر	-11.5756
▁سلاه	-11.5758
▁پروردگار	-11.5758
کپت	-11.5759
."	-11.5759
▁تسلسل	-11.5759
▁ڈیجیٹل	-11.576
تربت	-11.5761
de	-11.5762
▁مفتی	-11.5764
▁کیامت	-11.5768
ہان	-11.5772
▁پولگ	-11.5772
...‘‘	-11.5773
▁رسینگ	-11.5775
▁join	-11.5775
▁ٹکء	-11.5777
▁earlie	-11.578
▁مہتر	-11.5782
▁مولابخش	-11.5786
▁سخن	-11.5787
▁پدانک	-11.5788
▁سلہ	-11.5788
▁کرشی	-11.579
عطا	-11.5792
▁white	-11.5793
▁برزتر	-11.5795
▁جدل	-11.5796
▁تئوار	-11.5797
▁حذمت	-11.5802
▁تعالی	-11.5803
▁ھیرات	-11.5803
▁کمانچر	-11.5804
▁دیئے	-11.5805
▁نگدکاری	-11.5806
▁وفاق	-11.5808
▁سات	-11.5808
▁وہی	-11.5809
▁town	-11.5809
▁ورناہانی	-11.581
▁گوگل	-11.581
▁ھپتمی	-11.5815
▁میاریں	-11.5816
▁پداں	-11.5816
دک	-11.5816
▁حرچ	-11.5818
▁ذگریں	-11.5819
سین	-11.582
▁دیغ	-11.5821
مچ	-11.5822
▁ات۔ا	-11.5823
▁Black	-11.5827
▁وشھالی	-11.5827
▁ھانزا	-11.5827
▁زروان	-11.5828
▁نارشت	-11.5829
▁موسیقی	-11.583
▁Ma	-11.5831
سئے	-11.5834
▁صغیر	-11.5834
▁دمانی	-11.5836
دانی	-11.5837
▁سینہ	-11.5842
▁اگه	-11.5842
▁پرینگ	-11.5842
▁ارادگ	-11.5845
▁ھمودء	-11.5845
▁کلیر	-11.5849
لین	-11.5849
▁پمێشکا	-11.585
▁منظوری	-11.585
▁نورل	-11.5853
▁بیاں	-11.5857
ورنا	-11.5857
▁ھوراں	-11.5859
▁چلا	-11.5861
▁هرکس	-11.5862
ha	-11.5864
▁issue	-11.5864
▁یله	-11.5864
▁چشمک	-11.5867
▁گپی	-11.5867
مس	-11.587
▁شیرے	-11.587
▁مردان	-11.587
▁غمانی	-11.587
کرد	-11.5871
ence	-11.5876
▁مھرانی	-11.5877
▁چتکان	-11.5878
▁ملوک	-11.5879
▁مم	-11.5879
▁پکنک	-11.588
▁کرشن	-11.588
▁اصلء	-11.5886
▁پئیمیں	-11.5887
چیء	-11.5887
▁کین	-11.5888
▁لگام	-11.5889
▁ندی	-11.5892
▁کشمیری	-11.5893
▁نجات	-11.5893
▁انوگ	-11.5893
▁شزار	-11.5895
▁writer	-11.5895
▁بنگپے	-11.5895
▁گندگی	-11.5895
▁element	-11.5897
▁گرگی	-11.5898
لہتیں	-11.5898
▁نائک	-11.5898
▁نوہ	-11.5898
▁دراہگ	-11.5899
▁اشانء	-11.59
چارگ	-11.5902
▁اہی	-11.5903
▁ھونانی	-11.5904
▁ضمیر	-11.5905
▁برئے	-11.5906
▁ناھدا	-11.5908
▁ہوری	-11.5908
▁کشنت	-11.5908
▁جنگلء	-11.5908
▁منشی	-11.5914
زن	-11.5916
▁تلو	-11.5918
نشتگ	-11.592
▁ٹپاسگ	-11.5922
▁درپشوکیں	-11.5923
▁مجھ	-11.5926
▁نامداری	-11.5926
▁عبدالحکیم	-11.5926
▁ناتپاکی	-11.5927
▁عین	-11.5927
▁ھمگرنچی	-11.5928
▁post	-11.5928
▁بزیر	-11.593
کائی	-11.5932
▁سوبیں	-11.5933
حیال	-11.5933
▁بوپ	-11.5933
▁چکیں	-11.5933
▁ناگتی	-11.5934
▁گلامیں	-11.5936
▁موسماں	-11.5938
ھوار	-11.5939
▁24	-11.5939
▁وسوسگ	-11.5942
▁ھمگام	-11.5943
▁ائن	-11.5944
felt	-11.5944
im	-11.5947
▁امیدوار	-11.5949
▁ازلی	-11.595
▁رتکگیں	-11.595
▁واڑ	-11.5951
▁son	-11.5952
▁سرحد	-11.5952
▁الیاس	-11.5953
▁ساربان	-11.5955
▁noted	-11.5955
▁دائما	-11.5956
▁ابادیں	-11.5958
رات	-11.5961
▁عبید	-11.5962
▁ھیالی	-11.5966
ادب	-11.5967
▁ارمانی	-11.5967
▁London	-11.5968
▁مراقبہ	-11.5968
▁کێنگء	-11.5968
▁ماھاں	-11.597
▁ورناہاں	-11.597
▁بلاول	-11.5971
▁فنا	-11.5971
▁چمی	-11.5972
▁پیپلز	-11.5972
▁کپٹن	-11.5972
▁انگه	-11.5974
▁نادرا	-11.5974
▁مذھبی	-11.598
▁زاننت	-11.5981
▁پہمئن	-11.5982
▁پیژگاہ	-11.5983
P	-11.5983
▁زانتاں	-11.5984
across	-11.5985
▁کیوبا	-11.5988
▁گیشگیواری	-11.5989
▁ائوکیں	-11.5994
جس	-11.5997
▁مہربانی	-11.6
نچ	-11.6003
▁عدل	-11.6004
ہار	-11.6005
▁route	-11.6006
▁شہد	-11.6006
▁پتار	-11.6007
▁اصلاح	-11.6008
▁ابات	-11.6008
▁نندگء	-11.601
▁win	-11.601
▁برمشے	-11.6013
▁ابرمء	-11.6014
▁نگران	-11.6014
ship	-11.6015
▁ژوب	-11.6016
▁نالگ	-11.6017
▁see	-11.6021
▁داتیں	-11.6025
▁خدائی	-11.6025
اگہ	-11.6026
▁دانکے	-11.6026
▁وردی	-11.6027
▁چیدگے	-11.6031
▁ہلاپ	-11.6032
▁اہدی	-11.6033
ڑے	-11.6034
ting	-11.6035
▁میریں	-11.6035
▁زورگیر	-11.6036
▁ایجوکیشن	-11.6037
▁ناگتیں	-11.6039
▁چادرے	-11.604
▁ریسکیو	-11.604
▁پمپ	-11.604
▁بندرگاہ	-11.604
برز	-11.604
ندی	-11.6042
▁get	-11.6043
▁میچ	-11.6045
▁درتگیں	-11.6047
▁جنینی	-11.6047
▁ہمراہاں	-11.6048
▁دلگران	-11.6051
▁ھردوئیں	-11.6052
▁ھمداں	-11.6054
▁درہائ	-11.6054
نبشتگ	-11.6057
▁دۆست	-11.6058
▁ھمیشاں	-11.6058
▁رازاں	-11.606
▁پڈ	-11.6061
▁good	-11.6064
▁himself	-11.6064
▁زہرگ	-11.6065
▁سیاه	-11.607
▁رؤف	-11.607
▁تچکء	-11.6073
▁بقول	-11.6075
▁حبرانی	-11.6075
▁حلقہ	-11.6076
یکیں	-11.6077
▁چھوٹ	-11.6085
▁ایپلی	-11.6086
▁دوزواہ	-11.6088
ns	-11.609
▁گذر	-11.609
▁باکس	-11.609
مور	-11.6091
▁ریپ	-11.6092
▁مڈل	-11.6092
تھا	-11.6103
▁پلگاریں	-11.6105
▁فوٹو	-11.611
▁مثالے	-11.6111
▁black	-11.6112
▁تجابان	-11.6112
▁ایکسپریس	-11.6112
▁ماشین	-11.6113
▁واہشت	-11.6113
سیاہ	-11.6115
▁مہروان	-11.6116
▁ذی	-11.6117
▁جوھر	-11.6119
▁شموشتگ	-11.6119
وپ	-11.612
مٹ	-11.6125
▁!!!	-11.6125
▁ten	-11.6125
▁چمدار	-11.6126
▁featur	-11.6127
▁ہوت	-11.6128
▁ابیتکیں	-11.6131
الله	-11.6132
▁ندیستگ	-11.6132
▁کچکانی	-11.6133
ذا	-11.6134
▁اشترء	-11.6134
▁پیلہ	-11.6134
un	-11.6136
▁جاپانی	-11.614
▁لازمی	-11.6144
▁ڪنت	-11.6146
▁زھیروک	-11.6146
▁ڈیلہ	-11.6148
▁جامعہ	-11.6149
▁بکشیت	-11.615
▁بندگء	-11.6151
▁ایاز	-11.6152
▁دگرء	-11.6152
▁وارے	-11.6153
حدا	-11.6154
سم	-11.6154
▁خشک	-11.6155
▁یکسد	-11.6157
‘,’	-11.6161
▁لوزانت	-11.6163
▁کھور	-11.6163
▁گوشداران	-11.6165
باد	-11.6167
▁جاؤ	-11.6168
▁تیوک	-11.6169
▁ازگار	-11.6169
▁منڈ	-11.6169
اخ	-11.6171
اگن	-11.6172
▁پکرے	-11.6172
▁act	-11.6174
▁گوئشگ	-11.6174
ka	-11.6174
سرء	-11.6175
▁live	-11.6177
▁گئیں	-11.6178
کاراں	-11.6178
▁تز	-11.6179
▁پروشیت	-11.6182
اپی	-11.6184
▁رست۔	-11.6188
▁ارڈر	-11.6189
▁ازگ	-11.619
▁مبات	-11.619
▁هئیال	-11.6191
▁شوندات	-11.6191
▁ترہ	-11.6194
▁شھرء	-11.6196
▁ماہور	-11.6198
▁پچگرگ	-11.6199
▁تچیت	-11.62
▁Australia	-11.6201
▁پیمانہ	-11.6202
▁استا	-11.6202
شام	-11.6209
▁بندوبست	-11.6209
زہرشانی	-11.6209
▁تبدیلی	-11.6209
▁نزار	-11.6209
▁significant	-11.621
▁شاہین	-11.621
▁گارء	-11.6211
▁باہر	-11.6211
▁استونک	-11.6213
▁الزام	-11.6213
▁وپتگیں	-11.6214
▁بالشت	-11.622
▁سنگء	-11.6221
away	-11.6222
▁کمیونزم	-11.6223
▁اوبادگ	-11.6226
▁ھندو	-11.6227
uir	-11.6229
▁سلاحبند	-11.6229
▁ہستیں	-11.6229
▁باپشت	-11.6229
▁منو	-11.623
▁لہر	-11.6232
▁کرزیت	-11.6232
▁دہلی	-11.6233
▁ورنت	-11.6234
▁وهدی	-11.6234
▁رکھتے	-11.6234
▁26	-11.6235
▁کئور	-11.6235
▁بیتاں۔	-11.6235
▁فعل	-11.6238
▁سوداگر	-11.6239
جہل	-11.6242
▁خواہ	-11.6242
▁گمسار	-11.6243
▁عبدالغفار	-11.6244
▁راھا	-11.6244
حمل	-11.6248
▁امریکہء	-11.6249
▁شیریں	-11.6249
▁قصہی	-11.6249
▁دیوالء	-11.6252
▁ھاؤس	-11.6258
▁مرضی	-11.6258
▁عبدالرحمن	-11.6261
▁کباب	-11.6261
▁تانہ	-11.6262
▁الو	-11.6262
▁سنسکرت	-11.6263
▁شیراں	-11.6264
▁سادگی	-11.6266
▁ھدائی	-11.6269
▁age	-11.6272
جنت	-11.6279
▁بیدے	-11.6279
be	-11.6279
▁جول	-11.628
▁important	-11.6283
▁گناھیں	-11.6283
ن۔	-11.6283
بالاچ	-11.6286
▁وریں	-11.6287
▁گریو	-11.6287
▁ساہتے	-11.629
کمک	-11.629
cy	-11.6291
▁جائز	-11.6291
▁me	-11.6291
▁لاشعور	-11.6292
K	-11.6293
هم	-11.6294
▁مشکلات	-11.6295
▁انچشیں	-11.6296
▁کمبل	-11.6297
کت۔	-11.63
▁ثنا	-11.6301
▁روزگاری	-11.6303
▁یکپارگی	-11.6307
▁ٹاؤن	-11.6307
▁initial	-11.6307
▁شیعہ	-11.6307
ium	-11.6307
▁تؤکا	-11.6308
▁رستری	-11.631
▁فیلڈ	-11.631
▁miles	-11.6311
▁حمیدہ	-11.6315
▁چیزان	-11.6316
▁ازمکاری	-11.6318
▁داکتر	-11.632
▁کٹی	-11.632
جاگہ	-11.6322
▁ھشتمی	-11.6323
▁جمعی	-11.6323
▁father	-11.6331
عی	-11.6332
▁شاھ	-11.6332
▁پادے	-11.6333
▁تعاون	-11.6333
▁ساگر	-11.6333
▁شاتو	-11.6335
▁ہورک	-11.6339
▁ہماری	-11.6343
▁ملوری	-11.6343
▁گپتیں	-11.6345
▁وردنی	-11.6345
▁ناامیت	-11.6345
▁ساچشتے	-11.6347
▁ماش	-11.6349
▁کھیر	-11.6358
den	-11.6359
گہ	-11.6359
▁پائیدار	-11.6359
▁گوادری	-11.6361
▁جرمکار	-11.6366
▁شتر	-11.6367
بے۔	-11.6367
lin	-11.6369
▁۔تو	-11.6371
▁دیوار	-11.6372
▁تیابء	-11.6373
▁سیاہگ	-11.6375
▁female	-11.6381
▁modern	-11.6381
▁television	-11.6381
▁سیارہ	-11.6384
زندگی	-11.6393
▁تھریک	-11.6393
ought	-11.6393
▁Sa	-11.6394
▁سانکل	-11.6397
کنڈ	-11.6398
پمیشکا	-11.64
▁نوان	-11.64
کوش	-11.6401
▁کرگ	-11.6401
▁ترکگ	-11.6402
▁لیوس	-11.6402
▁زریں	-11.6405
▁eight	-11.6406
▁کردگالی	-11.6406
▁عبدالمجید	-11.6409
▁گنوکے	-11.6412
اکی	-11.6416
▁گلو	-11.6417
دود	-11.6418
▁ربیدگانی	-11.6421
▁واسطہ	-11.6421
چوشیں	-11.6422
▁بڈا	-11.6422
▁بیلی	-11.6423
▁پیدائش	-11.6425
▁عورت	-11.6426
▁چیری	-11.6426
▁یکتنا	-11.6429
▁various	-11.6431
▁کیسے	-11.6431
▁interest	-11.6431
▁انلائن	-11.6432
▁فنڈ	-11.6436
▁چربی	-11.6436
▁ڑ	-11.6436
▁چمپل	-11.6439
▁سربیت	-11.6442
شہر	-11.6444
▁کمر	-11.645
▁گلستان	-11.645
▁ریشاں	-11.6452
اسپ	-11.6452
▁جوہان	-11.6452
اسک	-11.6453
▁صحب	-11.6453
باید	-11.6454
no	-11.6455
▁minute	-11.6455
▁اخرت	-11.6456
▁مکی	-11.6457
▁road	-11.646
▁Her	-11.646
▁تکء	-11.6461
▁ناظم	-11.6461
رین	-11.6462
▁جنزے	-11.6463
▁روکپت	-11.6465
گاڑی	-11.647
▁باتاں	-11.6475
▁گیتکگ	-11.6475
▁ھدے	-11.6476
▁الماری	-11.6478
▁منڈی	-11.648
▁دادء	-11.648
▁تعلیمی	-11.648
▁ھندانی	-11.6482
ير	-11.6482
▁damage	-11.6486
▁مئیت	-11.6488
▁class	-11.6488
▁اسمی	-11.6492
ial	-11.6493
▁منئ	-11.6494
▁انت۔۔۔۔۔	-11.6494
▁موڑ	-11.6496
▁اشکنگء	-11.6498
▁وتئ	-11.6499
▁لیگار	-11.6499
▁درانی	-11.6501
کلی	-11.6501
▁کوت	-11.6506
▁امروہی	-11.6506
▁James	-11.6506
▁stage	-11.6507
▁تسلہ	-11.6507
sa	-11.6507
ach	-11.6507
▁ائیر	-11.6508
▁نادراھیانی	-11.6514
▁سکول	-11.6515
▁جہلء	-11.6516
▁مثلا	-11.6517
▁دکھ	-11.6517
▁زمینے	-11.6519
M	-11.6522
▁دھر	-11.6527
▁باعث	-11.6531
▁look	-11.6531
▁احترام	-11.6531
▁اینگو	-11.6532
▁تسلیم	-11.6536
▁پاچ	-11.6539
▁ردیاں	-11.6545
▁زگری	-11.6545
▁شھریاں	-11.6545
▁ازادیء	-11.6546
▁حور	-11.6547
▁سرینگ	-11.6548
▁پہوال	-11.6549
▁شفیق	-11.655
کپتگ	-11.6551
▁گنجی	-11.6553
▁موداں	-11.6553
▁دزکش	-11.6553
▁بیچارگ	-11.6553
▁عبدالرحیم	-11.6556
ایس	-11.6556
سما	-11.6559
ائینگ	-11.656
▁بدلا	-11.656
▁دوستء	-11.6561
▁برزگ	-11.6563
▁کندیت	-11.6567
▁رائی	-11.6569
▁پسے	-11.657
▁نیوگ	-11.6571
▁زمزیل	-11.6573
▁منصب	-11.6573
▁راہاں	-11.6574
▁اسٹور	-11.6576
▁امریکائی	-11.6577
▁دیستیں	-11.6579
▁جھاؤ	-11.6582
▁مراگہ	-11.6582
▁صدا	-11.6583
▁کید	-11.6585
▁تنگو	-11.6587
▁گشتگ۔	-11.6588
▁ھن	-11.6588
▁need	-11.6589
▁زبانوں	-11.6595
زو	-11.6596
▁غلط	-11.6596
▁بنجلے	-11.6596
▁گزرانی	-11.6596
اوار	-11.6597
ہور	-11.6598
رام	-11.6599
▁بیوس	-11.6603
▁success	-11.6603
▁ھڑتال	-11.6606
▁successful	-11.6607
▁case	-11.6607
▁نسر	-11.6608
▁پوائنٹ	-11.6608
▁does	-11.6609
▁یکجائی	-11.6609
▁رخصت	-11.6609
▁سرجمء	-11.6611
اڈ	-11.6611
▁برکش	-11.6612
▁اروہی	-11.6614
▁ہیرو	-11.6614
مئی	-11.6616
دنت	-11.6617
گٹ	-11.6618
▁درتگ	-11.6619
▁جنێن	-11.6619
▁نبیل	-11.662
▁میکسم	-11.6621
▁چرک	-11.6621
ساچشت	-11.6621
▁روپگ	-11.6621
▁events	-11.6624
▁نادراهی	-11.6625
▁نواں	-11.6625
▁برئگ	-11.6626
▁شاھگان	-11.6626
▁محرم	-11.6626
▁ایٹمی	-11.6627
▁تے	-11.663
▁sent	-11.6632
▁مسکرہ	-11.6634
▁کڑک	-11.6639
▁ھمایانی	-11.6643
▁ٹہینگ	-11.6648
▁امیتان	-11.6649
▁رھوت	-11.6652
▁کلانی	-11.6653
الو	-11.6654
▁peak	-11.6658
▁پنتء	-11.666
▁زینت	-11.6661
▁زابل	-11.6661
▁دنیگت	-11.6663
▁بوتت	-11.6663
زانی	-11.6665
▁زورایت	-11.6666
▁نوبل	-11.6669
▁جگا	-11.667
بچ	-11.667
ناکیں	-11.6671
▁بلوٹیت	-11.6671
▁زیملی	-11.6672
دیں	-11.6674
▁art	-11.6682
▁بکرتین	-11.6683
▁لکھا	-11.6684
رن	-11.6684
▁discover	-11.6684
▁مجرم	-11.6685
▁بانء	-11.6686
▁political	-11.6687
▁شرو	-11.6689
▁روئیں	-11.6692
▁بہرگاں	-11.6694
▁ساچشتاں	-11.6694
▁person	-11.6695
▁جوڑی	-11.6696
▁امنی	-11.6699
▁سنگاں	-11.6699
▁یوں	-11.6702
▁زلف	-11.6702
▁ائیڈیل	-11.6704
der	-11.6704
▁بدھ	-11.6705
▁سالا	-11.6707
▁تقسیم	-11.6708
▁نوشیروانی	-11.6709
▁تفسیر	-11.6711
ینانی	-11.6713
▁جیڑگانی	-11.6714
▁دزکشی	-11.6714
جھ	-11.6715
▁بروان	-11.6717
▁ض	-11.6718
▁کٹیت	-11.672
▁سرمگ	-11.6723
▁شپاد	-11.6724
▁مادنیں	-11.6728
▁تامدار	-11.6728
▁دلیر	-11.673
ایان	-11.6734
▁announc	-11.6734
▁ذال	-11.6736
▁دوسال	-11.6736
▁ریم	-11.6737
▁معاہدہ	-11.6738
ویل	-11.6739
▁ثمر	-11.674
▁فائنل	-11.674
نڈی	-11.6742
▁national	-11.6743
▁دیووند	-11.6746
C	-11.6747
▁تلاہ	-11.6747
▁پرین	-11.6748
▁کوئٹہء	-11.675
▁سنٹر	-11.6751
▁Ka	-11.6752
▁mm	-11.6752
مانی	-11.6753
▁بات۔	-11.6755
▁بابر	-11.6757
▁زیور	-11.6761
▁پائیدگ	-11.6761
وہد	-11.6762
نر	-11.6762
▁لمبر	-11.6763
▁الحاق	-11.6763
▁دیتا	-11.6765
▁مہلب	-11.6765
▁بچہ	-11.6765
▁فیروز	-11.6766
▁بتلے	-11.6768
▁گولڈ	-11.677
▁نازرکی	-11.6773
▁روشنائی	-11.6773
▁تنگیں	-11.6775
▁یکدار	-11.6777
▁اوٹ	-11.678
▁ایرکنگ	-11.678
▁شماری	-11.6784
▁لیکیت	-11.6786
▁ابداللہ	-11.6787
mo	-11.6788
▁انت۔چہ	-11.6788
▁سون	-11.6788
▁استادانی	-11.6789
▁نمائندہ	-11.6791
▁جمر	-11.6791
▁سهر	-11.6792
▁پاہار	-11.6793
▁پجاروک	-11.6797
سیر	-11.6797
▁میزاں	-11.6799
▁too	-11.6799
چونیں	-11.6803
▁پاگواجہ	-11.6808
tra	-11.6808
▁poem	-11.6811
▁لشکرء	-11.6813
▁مشاہدہ	-11.6814
▁ابکہ	-11.6814
▁اکل	-11.6816
▁کلوھے	-11.6816
▁رنجانی	-11.6816
▁گزی	-11.6817
زار	-11.6817
▁mid	-11.682
▁لہ	-11.6823
▁حملء	-11.6825
ودار	-11.6827
▁ھالتاک	-11.6831
▁هند	-11.6834
▁نگدکار	-11.6834
▁گشتگیں	-11.6837
▁میوزیم	-11.6837
▁تلوار	-11.6837
ساز	-11.6838
▁بیدء	-11.6839
رت	-11.6839
▁performance	-11.6839
▁سوٹ	-11.684
▁برٹش	-11.6841
▁شررنگی	-11.6842
▁سیکنڈ	-11.6843
▁بجائے	-11.6845
جب	-11.6845
▁پیشکان	-11.6846
تہ۔	-11.6848
▁حرابی	-11.685
ونک	-11.6852
▁ثقافت	-11.6853
▁ھیلکاری	-11.6855
مپ	-11.6855
▁اوشتات۔	-11.6856
▁شپک	-11.6859
▁مالاں	-11.6859
▁بێ	-11.6861
▁example	-11.6863
▁چارمکنڈ	-11.6863
▁County	-11.6864
▁استاداں	-11.6871
▁پربستگ	-11.6873
▁سپرے	-11.6873
▁اه	-11.6873
▁دراجکش	-11.6873
ful	-11.6876
▁ولا	-11.6878
▁شوھازء	-11.688
▁چینء	-11.6881
انچش	-11.6884
▁dis	-11.6884
▁خوبصورت	-11.6887
▁بوک	-11.6889
▁پولیٹیکل	-11.6889
عمل	-11.6889
▁اکبت	-11.689
▁چونین	-11.689
▁درورء	-11.689
▁دوچگ	-11.6892
▁کنڈی	-11.6892
▁کمپ	-11.6892
▁شوہازء	-11.6893
▁پیالہ	-11.6894
▁سوغات	-11.6895
▁ٹائمز	-11.6896
▁وھم	-11.6897
▁کاگدانی	-11.6898
▁واکان	-11.6898
▁سوتے	-11.69
▁انت۔ائیء	-11.6904
بادشاہ	-11.6907
ions	-11.6909
▁کارانت	-11.691
▁جرات	-11.6911
▁بژنیگ	-11.6911
▁اھوالکاراں	-11.6911
اھیں	-11.6912
▁پرکے	-11.6915
▁میاری	-11.6916
▁الخط	-11.6916
▁کماشے	-11.6917
▁نابودی	-11.6919
▁محض	-11.6919
▁مادگ	-11.6919
▁کنت۔اے	-11.692
▁رشت	-11.6921
▁ملاء	-11.6923
▁ترانے	-11.6923
▁عرفان	-11.6923
▁وشیء	-11.6924
▁پڑے	-11.6926
▁درشتگ	-11.6926
▁نویساں	-11.6928
▁غور	-11.6928
▁گونڈل	-11.6928
▁دیا۔	-11.693
▁ماہر	-11.6933
▁درابیت	-11.6935
▁انت۔ھمے	-11.6936
چین	-11.694
▁Road	-11.6942
▁influence	-11.6942
▁لوٹئے	-11.6942
قاضی	-11.6942
▁مخصوص	-11.6943
▁ٹھینگ	-11.6946
▁رودینتگ	-11.6948
▁ابھی	-11.6949
▁سیکس	-11.6952
▁امیج	-11.6954
▁wide	-11.6955
▁مبارکیں	-11.6956
▁should	-11.6956
▁ٹالسٹائی	-11.696
▁جنیادم	-11.696
▁بچکاں	-11.696
▁ائیگا	-11.6961
▁چاک	-11.6962
▁جاهے	-11.6962
اجوئی	-11.6965
▁۔ایشی	-11.6966
ترین	-11.6967
▁ناموس	-11.6969
نمدی	-11.697
▁پندلے	-11.6972
▁پندے	-11.6973
▁معلومات	-11.6975
▁سانکلاں	-11.6977
▁مقدمہ	-11.6977
▁leas	-11.6981
▁locat	-11.6983
▁تھران	-11.6984
▁منگی	-11.6984
▁effect	-11.6994
▁پادری	-11.6994
▁چوہدری	-11.6994
▁بہائیں	-11.6996
▁پرائمری	-11.6997
▁حطرہ	-11.6997
▁سرمگیں	-11.7
▁عبدالقادر	-11.7
hind	-11.7001
▁کردستان	-11.7001
خیر	-11.7006
▁نکال	-11.7007
▁ڈیھانی	-11.7009
زرت	-11.7009
▁نادان	-11.7009
▁مٹھا	-11.701
▁27	-11.7012
▁لڑے	-11.7016
کساس	-11.7018
▁شدید	-11.7018
▁شتاں۔	-11.7019
▁ویکاریو	-11.702
یڈ	-11.7022
▁sub	-11.7023
▁پاھار	-11.7023
▁ننگار	-11.7024
▁structure	-11.7024
▁حساس	-11.7024
پری	-11.7024
▁بختاور	-11.7025
nder	-11.7026
دوستی	-11.7026
ویں	-11.7027
▁قا	-11.7028
▁مارگء	-11.7028
▁La	-11.7028
▁بازارے	-11.7031
▁ذاتے	-11.7032
▁شیرگ	-11.7033
▁ماضی	-11.7037
ri	-11.7042
▁ارسطوء	-11.7043
▁لوٹاں۔	-11.7043
▁فعال	-11.7043
شش	-11.7044
▁اسنائپر	-11.7047
انگریزی	-11.7048
▁حوصلہ	-11.7049
▁لسٹ	-11.705
▁پولیسء	-11.7051
▁گچک	-11.7053
▁سرام	-11.7054
▁ادارگاں	-11.7054
▁سردارء	-11.7055
▁سکتے	-11.7055
▁نیکراہی	-11.7059
▁شانیں	-11.7061
لیکہ	-11.7066
▁بئیت۔	-11.7066
▁ارواہء	-11.7067
▁سداں	-11.707
ak	-11.7071
▁eventual	-11.7071
▁لانس	-11.7071
▁رازے	-11.7072
▁کی۔	-11.7072
▁ھاجت	-11.7074
▁پدمنتگیں	-11.7074
▁سیمسرانی	-11.7075
▁انٹیلی	-11.7076
انگ	-11.7077
دن	-11.7077
▁زانے	-11.7079
تاب	-11.708
▁Ra	-11.7082
بست	-11.709
مون	-11.709
▁درکرت	-11.7092
چاگرد	-11.7093
▁ساهگ	-11.7094
بندات	-11.7094
▁ویرانیں	-11.7094
▁اغاز	-11.7094
▁یکشلہ	-11.71
عت	-11.7102
▁جاگاہ	-11.7102
▁گوٹھ	-11.7103
▁دوزحہ	-11.7104
.......	-11.7105
▁شدیگ	-11.7107
▁لیں	-11.7107
▁گواش	-11.7109
▁ھورء	-11.7112
▁بئیگء	-11.7112
▁جائزہ	-11.7113
▁وحدت	-11.7113
rd	-11.7114
▁ریاضی	-11.7116
ld	-11.7117
▁Ha	-11.7118
تیر	-11.712
▁بدنام	-11.7121
برجاہ	-11.7121
v	-11.7122
▁ہپتگ	-11.7126
L	-11.7126
▁ہژدہ	-11.7126
▁ground	-11.7126
▁کشتی	-11.7127
▁اجازہ	-11.713
ینیت۔	-11.713
لال	-11.713
▁ترپ	-11.7131
▁بھرتی	-11.7131
▁ٹیکسی	-11.7132
▁چابک	-11.7133
▁بٹاک	-11.7134
نود	-11.7135
▁اطلاعات	-11.7135
▁سربر	-11.7136
▁چھرگ	-11.7136
▁رومان	-11.7137
▁پکائیں	-11.714
▁ناگتء	-11.7142
▁گوشداروک	-11.7143
▁لوٹائینگ	-11.7144
▁قطر	-11.7146
▁افس	-11.7147
▁نزیکا	-11.7148
▁وشنود	-11.7149
▁سرکش	-11.7152
▁٭۔	-11.7152
▁خلق	-11.7153
منیر	-11.7153
▁2004	-11.7154
بشکن	-11.7158
▁بانی	-11.7158
▁معمولی	-11.7158
▁حرماگ	-11.7161
▁ھمدء	-11.7162
▁دژمنء	-11.7167
پول	-11.7168
▁characters	-11.7168
۔۔۔بلے	-11.7172
▁چکان	-11.7172
▁گزشت	-11.7174
▁وختے	-11.7178
▁ھرچے	-11.7179
▁entire	-11.718
▁2005	-11.718
▁پروٹین	-11.718
▁کدیں	-11.7181
▁construction	-11.7181
▁بگلء	-11.7181
▁ھنگت	-11.7183
▁ایشانء	-11.7184
▁ھالی	-11.7185
▁دیمروئیء	-11.7187
▁نزارگ	-11.719
▁تیزیں	-11.7191
▁جنوبی	-11.7192
▁نمک	-11.7192
▁انکلاب	-11.7196
۔بزاں	-11.7198
▁hand	-11.7198
▁چال	-11.7199
▁جپت	-11.7201
▁کمبرانی	-11.7202
بلکنا	-11.7205
بید	-11.7205
▁اگان	-11.7208
▁مانیت۔	-11.7211
▁ٹا	-11.7211
▁تئیگ	-11.7214
▁باتیل	-11.7214
▁انان	-11.7215
▁ساخت	-11.7215
▁شربت	-11.7216
▁فاروقی	-11.7216
▁شکیل	-11.7217
▁بیگانگ	-11.7217
▁ماتاں	-11.7219
▁چارتگ	-11.722
▁سرجمیء	-11.7221
▁بستر	-11.7223
▁گندک	-11.7226
▁وتاس	-11.7227
▁ہمساہگ	-11.723
▁سوچیت	-11.7231
▁حالا	-11.7231
▁litt	-11.7231
▁کودکیں	-11.7233
▁ناکۆ	-11.7235
▁ائینی	-11.7235
▁چریک	-11.7238
▁ھجالت	-11.7238
▁کرامات	-11.7241
▁گرکی	-11.7241
▁ها	-11.7242
▁کک	-11.7244
▁نادراھانی	-11.7246
▁Ca	-11.7247
▁ورگا	-11.725
▁پرانی	-11.7252
▁مشگ	-11.7253
جوانیں	-11.7253
مردمانی	-11.7254
▁راھبنداں	-11.7255
▁represent	-11.7257
▁۔کہ	-11.7261
▁انٹرویو	-11.7261
▁قندیل	-11.7261
عر	-11.7264
▁سازء	-11.7264
▁کاؤنٹر	-11.7265
▁قصہے	-11.7265
اع	-11.7266
سندھی	-11.7266
▁شیشہ	-11.7268
▁منتء	-11.7269
▁قسمے	-11.727
▁شاہگان	-11.7273
دارگ	-11.7273
اتے	-11.7276
رچ	-11.7276
▁زیریت	-11.7277
▁پازلء	-11.7278
▁دوز	-11.728
تار	-11.7282
▁اکسانی	-11.7283
ائینت	-11.7284
▁دفاع	-11.7285
▁پتی	-11.7286
نیک	-11.7287
مانا	-11.7288
▁ساہء	-11.7289
▁حسد	-11.729
▁انونیں	-11.729
برات	-11.7294
▁exist	-11.7296
شرف	-11.7296
▁امت	-11.73
▁یانی	-11.7302
▁انجن	-11.7302
▁ابے	-11.7306
▁تامور	-11.7306
▁کردگار	-11.7307
ang	-11.7307
▁بازاراں	-11.731
▁ریشگ	-11.731
▁شیرء	-11.7314
▁ھدیس	-11.7314
▁نظریاتی	-11.7316
▁ازمانگ	-11.7317
▁سروکے	-11.7318
▁دیمرہی	-11.7321
یئے	-11.7322
T	-11.7323
ڑیں	-11.7323
▁..	-11.7325
▁اورتگ۔	-11.7326
▁پئیما	-11.733
▁کما	-11.7335
▁جیڑہء	-11.7338
▁اھر	-11.7338
▁صبیحہ	-11.7343
▁بانزلاں	-11.7343
ائیت	-11.7344
▁ہشتاد	-11.7344
پرچاکہ	-11.7345
▁رویش	-11.7345
▁سمالانی	-11.7345
لیٹ	-11.7352
▁دوستیء	-11.7352
▁ناراض	-11.7357
▁مرادساحر	-11.7363
▁کھندان	-11.7363
▁براتء	-11.7364
▁دلکشیں	-11.7366
▁ندات	-11.7366
▁بوجگ	-11.7367
▁شادمانی	-11.7367
▁گمے	-11.7368
▁comment	-11.737
▁السء	-11.7372
▁مملکت	-11.7374
▁خواہش	-11.7374
▁حالرسانی	-11.7375
▁زینب	-11.7377
مع	-11.7377
▁برق	-11.7378
یٹر	-11.7378
▁میرء	-11.7378
▁انتہائی	-11.738
▁ھش	-11.7384
شری	-11.7385
▁گہتریں	-11.7389
▁سبزگ	-11.739
▁ڈگارے	-11.7393
▁مدئے	-11.7393
ائز	-11.7394
▁برجاه	-11.7394
▁میڑے	-11.7395
▁سگریٹے	-11.7396
▁وانیں	-11.7396
زگ	-11.7396
▁Wi	-11.7397
▁میاربار	-11.7399
▁ھدامرزی	-11.7401
زندء	-11.7402
▁رازیگ	-11.7403
ٹے	-11.7403
▁come	-11.7405
جند	-11.7406
▁کشش	-11.7407
▁ریگزار	-11.7407
▁بنند	-11.7407
▁پیشہ	-11.7407
▁ہندے	-11.7408
▁ناس	-11.7414
▁وہاب	-11.7419
▁سوداگری	-11.7419
▁مھ	-11.742
▁کاملیں	-11.7421
▁ادبیات	-11.7422
▁مرادساحرء	-11.7424
▁ازماں	-11.7425
txt	-11.7425
▁غار	-11.7425
▁others	-11.7425
▁گناھے	-11.7425
▁چارلس	-11.7426
▁زورے	-11.7426
▁زاد	-11.7427
▁سیری	-11.7429
▁رکشہ	-11.7429
▁دمکے	-11.743
▁پادگ	-11.7431
▁نمائندگ	-11.7434
▁ہمگرنچیں	-11.7434
اٹ	-11.7434
نزیک	-11.7435
▁ماھانی	-11.7436
▁خواب	-11.7436
▁خیل	-11.744
▁provid	-11.7442
▁ناسرجم	-11.7442
ایم	-11.7443
▁ہندوستانی	-11.7447
▁دشمنیں	-11.7448
▁کوہی	-11.745
▁گرنیڈ	-11.7452
کاریں	-11.7453
▁ڈاکٹردیدگ	-11.7453
چا	-11.7455
▁چیئر	-11.7459
این	-11.7463
▁مائی	-11.7463
▁وج	-11.7464
گرمیں	-11.7465
▁زبریں	-11.7466
دء	-11.7467
▁بانداتے	-11.7468
▁date	-11.7468
۔ائیء	-11.7476
▁ازاتء	-11.7478
▁ہجبر	-11.7481
les	-11.7484
ائع	-11.7484
چکہ	-11.7484
کہول	-11.7486
▁بیمناک	-11.7486
▁اجز	-11.7486
▁زردار	-11.7487
▁حقاں	-11.7489
▁گرین	-11.7491
▁شہدیں	-11.7491
▁اکرء	-11.7492
▁داز	-11.7492
▁ندارگانی	-11.7492
ear	-11.7493
▁کنڈء	-11.7493
▁راجمانء	-11.7494
▁کیمت	-11.7497
vi	-11.7497
▁نگاہاں	-11.7498
بھر	-11.7499
▁رخشانی	-11.75
▁ھاکاں	-11.7501
▁کوڑی	-11.7503
▁کپئگ	-11.7506
▁کوارٹر	-11.7506
▁شیرزال	-11.751
بور	-11.751
▁کپوک	-11.7511
کمیں	-11.7512
▁گرانت	-11.7516
▁دزاں	-11.7516
امیت	-11.7519
▁عقلء	-11.7519
کچک	-11.752
▁روشے	-11.752
قوم	-11.752
▁پھمگ	-11.7522
▁گپا	-11.7523
▁مراداں	-11.7525
▁مردینانی	-11.7525
▁جاگھاں	-11.7529
▁عصا	-11.7531
▁دلوش	-11.7533
▁hurricane	-11.7535
,,,	-11.7537
▁یاتگیری	-11.7542
▁بنیں	-11.7544
▁موز	-11.7546
▁منطقی	-11.7548
▁بیبرگ	-11.7549
▁چولاں	-11.755
▁رہبندء	-11.7551
▁جنزاں	-11.7551
▁بوتگاں۔	-11.7551
▁command	-11.7554
▁ھندوستانی	-11.7555
▁فردوسی	-11.7555
▁شامء	-11.7555
یدہ	-11.7559
▁تنقیدی	-11.7563
▁لۆگ	-11.7564
▁ھدیسے	-11.7565
زمانگ	-11.7565
B	-11.7565
▁مکھیں	-11.7566
▁نداتگ	-11.7567
▁مرکب	-11.7569
▁مختصر	-11.7569
▁تاگ	-11.757
▁پدریں	-11.757
▁اکتر	-11.757
▁جات	-11.757
▁بندیگجاہ	-11.7571
▁کمپین	-11.7572
▁گناه	-11.7572
▁بژنی	-11.7573
▁سورء	-11.7581
▁عبدالعزیز	-11.7583
▁جمبرانی	-11.7583
ver	-11.7584
▁ہیران	-11.7586
ted	-11.7587
▁ٹیکسٹ	-11.7589
▁تاثر	-11.759
▁وھدان	-11.759
▁اصحاب	-11.7591
▁debut	-11.7591
یگاں	-11.7591
▁ریموٹ	-11.7592
▁نوعیت	-11.7592
▁دوسرا	-11.7592
▁بوس	-11.7593
▁کائیگر	-11.7595
▁تبی	-11.7596
▁ڈیمز	-11.7598
ford	-11.7599
▁Per	-11.7599
▁تاریخء	-11.76
▁چگ	-11.76
▁کہنا	-11.7601
▁پائے	-11.7601
خی	-11.7602
▁بھتی	-11.7602
▁نندیں	-11.7606
▁ھمراھانی	-11.761
▁اباں	-11.7611
▁خیالات	-11.7614
▁اںت	-11.7615
▁داغ	-11.7615
▁پارٹیانی	-11.7617
ئل	-11.7618
▁wh	-11.7619
▁پٹرول	-11.7619
▁difficult	-11.7619
▁Kingdom	-11.7619
▁حقوق	-11.762
▁رودپتر	-11.762
▁حاندان	-11.762
ci	-11.7621
ایشاں	-11.7621
▁گورگیج	-11.7621
▁ماڈرن	-11.7622
▁رہوت	-11.7625
▁ریں	-11.7625
▁پنجاپی	-11.7626
▁درپش	-11.7627
▁ھرام	-11.7629
▁نقشہ	-11.7629
▁مہروانیں	-11.7631
▁پنگ	-11.7631
▁۔۔۔۔۔۔۔	-11.7631
▁لنککاں	-11.7632
▁جاپر	-11.7632
نڑ	-11.7632
▁داشتہ	-11.7634
▁میارباری	-11.7636
چش	-11.7636
▁سیدھاشمی	-11.7637
ڈک	-11.7638
▁جوابی	-11.7639
▁والد	-11.764
▁تشبیہ	-11.7641
▁کویت	-11.7642
▁بھاگ	-11.7642
▁rest	-11.7644
▁عیبے	-11.7644
▁شیراز	-11.7644
▁اشکی	-11.7646
▁guns	-11.7647
▁campaign	-11.7647
▁واشنگٹن	-11.7647
▁سرریچ	-11.7648
▁Island	-11.7648
▁چاغی	-11.7648
▁غرض	-11.7648
▁چیروکائی	-11.7649
▁مارٹر	-11.7652
▁ڈبی	-11.7655
▁کانونی	-11.7657
▁استاراں	-11.7657
▁عصر	-11.7662
▁سرمچاری	-11.7662
▁کتبی	-11.7664
▁پاگاس	-11.7665
▁اژناگ	-11.7669
▁ھجالتی	-11.7671
▁زہن	-11.7674
▁بیگاه	-11.7675
▁Grand	-11.7676
▁ہمدپ	-11.7676
▁Cup	-11.7676
▁ریلوے	-11.7676
▁بداں	-11.7677
▁ہول	-11.7677
▁works	-11.768
▁گدارانی	-11.768
▁برتگیں	-11.7683
▁گوہرام	-11.7684
رود	-11.7684
▁گریڈ	-11.7684
▁بھنگ	-11.7685
▁director	-11.7687
▁نیمونے	-11.7687
ities	-11.7687
غوث	-11.7688
▁عنبر	-11.7694
▁سائنسداناں	-11.7695
▁ہوگا	-11.7695
بین	-11.7695
▁نبشتہی	-11.77
▁جہلانکیں	-11.7701
▁سچکان	-11.7701
دئیگ	-11.7703
▁رژناہ	-11.7703
▁liv	-11.7704
▁victor	-11.7704
▁امجد	-11.7704
▁ڈیھی	-11.7705
▁سوویت	-11.7706
▁تراں	-11.7709
▁فلیٹ	-11.7711
▁view	-11.7713
▁ہم۔	-11.7716
▁انیس	-11.7717
▁بوارت	-11.772
▁اشیا	-11.7721
▁ستون	-11.7722
▁دھکانء	-11.7723
ler	-11.7723
▁الت	-11.7724
▁مارء	-11.7724
▁وابجاہ	-11.7724
▁کردارے	-11.7725
▁سلی	-11.7725
▁جہگیری	-11.7729
▁مهمان	-11.7731
▁واجھیں	-11.7733
▁تیں	-11.7735
شئیر	-11.7736
▁ہمہ	-11.7737
▁کدء	-11.7738
▁زرتہ	-11.7739
▁کنئگا	-11.7739
گڈ	-11.7739
▁ننگر	-11.774
جاھے	-11.774
▁addition	-11.7741
▁پپ	-11.7741
دلی	-11.7744
▁ڪن	-11.7744
▁کلاکاں	-11.7744
▁کپن	-11.7746
▁تیگ	-11.7746
امان	-11.7747
▁ڈیوڈ	-11.7747
▁give	-11.7748
▁سردیں	-11.7753
اغ	-11.7757
اوانی	-11.776
▁سرپراز	-11.7761
▁fight	-11.7761
▁ئین	-11.7761
▁mi	-11.7762
▁شریعت	-11.7762
▁الطاف	-11.7763
▁گلائش	-11.7764
▁night	-11.7766
▁کنڈاں	-11.7767
▁گرز	-11.7767
▁دلوں	-11.7768
▁شھداد	-11.7768
لان	-11.7769
▁بچکانی	-11.7769
▁گردی	-11.7769
▁believ	-11.777
▁ودینگ	-11.777
▁بلۆچستان	-11.7771
ارس	-11.7773
▁المء	-11.7774
لانی	-11.7781
▁شکے	-11.7782
▁موں	-11.7783
اث	-11.7784
▁پرمائیت	-11.7788
▁Company	-11.7789
▁شانتگ	-11.7789
▁قر	-11.779
▁Roman	-11.7791
▁رہتا	-11.7792
▁ازمے	-11.7793
▁انت۔منی	-11.7794
▁بیزن	-11.7798
▁اثرے	-11.7798
▁مڑگ	-11.7799
▁اشوبے	-11.78
▁سساء	-11.7801
سپر	-11.7806
▁ترانگ۔۔۔	-11.7807
▁لۆٹ	-11.781
▁انکاری	-11.7813
اہے	-11.7815
▁سینٹ	-11.7817
▁process	-11.7818
▁کولیسٹرول	-11.7818
▁France	-11.7818
▁شاگ	-11.7818
▁نوشتگ	-11.7819
1	-11.782
▁لہڑی	-11.782
▁انسٹی	-11.7821
▁عبدالنبی	-11.7821
▁ساسانی	-11.7824
▁پتھر	-11.7824
▁انت۔یک	-11.7825
▁بچانی	-11.7827
▁کیگد	-11.7827
▁ہیک	-11.7829
▁complet	-11.7831
▁خوار	-11.7832
▁کنزگ	-11.7833
شو	-11.7833
▁بٹن	-11.7835
▁بالو	-11.7836
▁دوم	-11.7838
▁وشتریں	-11.7839
▁اسکا	-11.7842
▁کوهن	-11.7845
▁جاہی	-11.7846
▁گرفتار	-11.7846
▁male	-11.7847
▁گندات	-11.7848
اسحاق	-11.7849
▁پجارء	-11.785
▁شھزاد	-11.7851
زندگ	-11.7852
▁چیرمین	-11.7852
▁هاک	-11.7855
نانی	-11.7855
▁El	-11.7858
ایشیء	-11.786
▁sp	-11.786
▁offer	-11.7861
▁highway	-11.7862
▁سراپ	-11.7862
▁بهار	-11.7862
▁تاریک	-11.7863
▁بارء	-11.7865
بازار	-11.7866
▁والہ	-11.7866
تغیں	-11.7867
▁سنگیں	-11.7867
▁گوشیت۔	-11.7873
▁رپتگیں	-11.7874
▁کندن	-11.7874
▁کوالٹی	-11.7876
▁بابتا	-11.7876
▁زمستانی	-11.7877
فا	-11.7877
ئیل	-11.7878
▁پدمنتگی	-11.7878
ریک	-11.7879
۔ما	-11.788
روس	-11.788
▁ریھان	-11.788
▁لاک	-11.7885
▁نہایت	-11.7885
▁شانت	-11.7886
▁نیلیت	-11.7888
▁ہونا۔	-11.7889
▁شارء	-11.7889
▁سیما	-11.7889
▁ث	-11.789
▁مودانی	-11.7893
▁انگیں	-11.7893
▁شائرء	-11.7894
▁ھے	-11.7895
▁شموشت	-11.7895
▁اٹھا	-11.79
▁کپتنت	-11.7901
!!!	-11.7902
▁ئیت	-11.7903
ئو	-11.7903
▁روباہ	-11.7904
▁ڈوھدار	-11.7906
▁فرزند	-11.7906
▁stars	-11.7907
▁عنصر	-11.7908
▁visit	-11.791
▁گندوک	-11.791
▁دورہ	-11.7911
فاضل	-11.7913
▁کوہلو	-11.7914
▁رندانی	-11.7915
▁کلاتے	-11.7915
▁چاڑے	-11.7917
▁دادے	-11.7918
امین	-11.7919
▁بنگپی	-11.7919
ated	-11.7923
▁سیلاب	-11.7923
▁براث	-11.7927
▁رودینگ	-11.7928
▁جماز	-11.7928
▁ٹکانی	-11.793
شعرء	-11.7933
▁Some	-11.7933
▁اچکزئی	-11.7934
▁ڈاچی	-11.7934
▁ملان	-11.7934
▁کارکنانی	-11.7936
▁پیز	-11.7938
▁مزد	-11.7938
▁واجہیں	-11.7939
▁کوچگاں	-11.794
▁لہجہ	-11.794
▁بیراں	-11.7942
▁تامرے	-11.7943
▁چاپء	-11.7943
▁ہمبل	-11.7943
▁بڈء	-11.7945
▁گوازینگء	-11.7946
ud	-11.7951
▁دراتکگیں	-11.7953
▁زھیراں	-11.7954
▁جھلانکی	-11.7957
▁Love	-11.7957
▁میچل	-11.7958
▁figure	-11.7962
▁درامدانی	-11.7962
▁کنات	-11.7962
▁نیشنلزم	-11.7964
۔گڈا	-11.7965
▁گڑی	-11.7966
▁وانوکے	-11.7968
▁پتن	-11.797
▁سلا	-11.7974
▁کلیم	-11.7977
دریا	-11.7979
▁جہلگ	-11.7979
▁گرئے	-11.7982
▁خالی	-11.7983
▁پاسداری	-11.7987
▁بینت	-11.7988
▁سرپر	-11.7989
جتا	-11.799
▁رحمٰن	-11.7991
▁لقب	-11.7991
ga	-11.7992
▁بانگواہ	-11.7993
▁جرمے	-11.7994
▁دریکگ	-11.7994
▁ٹہ	-11.7995
▁واس	-11.7995
برا	-11.7997
▁سرھالانی	-11.7998
اولس	-11.8
ئیر	-11.8003
▁ھونی	-11.8003
▁جمعیت	-11.8009
▁بوٹگ	-11.8009
▁جزباتی	-11.8013
▁گرداں	-11.8016
▁حقء	-11.8016
ینا	-11.8016
▁کنک	-11.8017
▁طبیب	-11.8017
▁بادشاہء	-11.8019
ٹھ	-11.802
▁Battalion	-11.802
▁ناکوزتک	-11.802
ونگ	-11.8022
اچہ	-11.8023
▁بکال	-11.8024
ors	-11.8024
تہا	-11.8024
▁نظیر	-11.8024
▁ذاکر	-11.8028
▁سهب	-11.8029
▁بشکندگ	-11.8031
▁born	-11.8034
▁جستاں	-11.8034
▁کمیت	-11.8036
▁گونی	-11.8037
▁کنئے۔	-11.8038
▁ترات	-11.8042
▁گڈسری	-11.8042
▁بوھگی	-11.8042
▁زیبدار	-11.8043
کاف	-11.8043
وسی	-11.8043
▁تلاش	-11.8044
▁کھں	-11.8045
▁David	-11.8049
▁wife	-11.8049
▁southern	-11.8049
▁دھوت	-11.8051
▁چورہ	-11.8051
▁پھرہ	-11.8054
▁واگ	-11.8055
▁افسانے	-11.8056
men	-11.8056
▁coast	-11.8057
▁ابانی	-11.8057
کلات	-11.8059
▁بولک	-11.8061
فقیر	-11.8061
▁اندرا	-11.8063
▁جبل	-11.8063
▁جوانیء	-11.8064
▁کاروائیاں	-11.8065
▁انے	-11.8066
▁رسین	-11.8066
▁جاڑیں	-11.8069
بود	-11.807
▁میلانک	-11.8074
▁مروشی	-11.8075
▁سالار	-11.8075
▁ball	-11.8078
▁تالاں	-11.808
▁نوکنڈی	-11.8081
▁خواجہ	-11.8081
▁گریتگ	-11.8083
▁تہاریء	-11.8084
▁ھرچنت	-11.8086
▁صبح	-11.8087
▁گھنٹہ	-11.8087
▁دریاب	-11.8089
▁ماڈی	-11.8089
▁بلور	-11.8089
▁چڑو	-11.8089
▁نزوریاں	-11.8092
۔بلئے	-11.8093
▁سہل	-11.8095
▁دازن	-11.8095
جتائیں	-11.8097
▁حدود	-11.8097
▁چاھے	-11.8097
▁ناہک	-11.8098
▁دیتگ	-11.8103
▁درکئیت	-11.8104
▁ازمکارے	-11.8107
ھد	-11.8108
▁mother	-11.8108
▁women	-11.8108
▁وٹامن	-11.8108
▁پبلشرز	-11.8108
▁بیٹ	-11.8109
▁بندئے	-11.8109
▁مشترکہ	-11.8115
▁سلوات	-11.8115
▁رچیت	-11.8115
▁چیٹ	-11.8116
▁زھن	-11.8116
▁چوری	-11.8116
▁چرپ	-11.8117
99	-11.812
زے	-11.8124
▁non	-11.8125
مکران	-11.8125
انوں	-11.8128
▁کوشکار	-11.8128
وج	-11.8129
▁پٹک	-11.813
▁love	-11.813
▁Music	-11.813
▁ستارہ	-11.813
▁پدرا	-11.813
▁کوھے	-11.8131
▁ھزاریں	-11.8132
ؤک	-11.8132
▁دارئگ	-11.8133
▁ٹیوٹ	-11.8134
▁کلاکے	-11.8134
▁داوت	-11.8135
95	-11.8135
▁Brigade	-11.8137
▁study	-11.8137
▁ٹھاٹھ	-11.8137
▁وصیت	-11.8137
▁ہڑتال	-11.8137
▁نصراللہ	-11.8138
▁پێش	-11.8138
▁کلگی	-11.8138
▁ھیرانی	-11.8142
▁شورہاں	-11.8142
▁اتکیں	-11.8143
▁مادری	-11.8143
میار	-11.8143
▁اشکنوک	-11.8145
▁goal	-11.8145
▁عل	-11.8146
▁هں	-11.8146
▁ماتو	-11.8149
▁loss	-11.815
▁بہراں	-11.8152
▁رستم	-11.8153
▁put	-11.8154
▁رولہ	-11.8155
▁سچیت	-11.8156
▁اداره	-11.8156
▁چاکرء	-11.8156
روسی	-11.8157
چگ	-11.8157
▁ترانگء	-11.8157
▁Se	-11.8158
▁جھدا	-11.816
▁سکتی	-11.816
▁پرگ	-11.8162
ure	-11.8162
▁سرکپت	-11.8165
حر	-11.8167
▁لورالائی	-11.8167
▁مھرنھاد	-11.8167
▁چوھدری	-11.8167
▁بغاوت	-11.8167
ناکو	-11.817
▁نیامی	-11.8172
▁اعجاز	-11.8173
▁report	-11.8174
rs	-11.8175
▁واجہاں	-11.8175
▁ناسرپدی	-11.8177
ves	-11.8178
▁provide	-11.8178
▁یےء	-11.8178
▁انون	-11.8182
▁جائیں	-11.8182
▁Robert	-11.8183
▁جندئے	-11.8184
▁مانشانتگ	-11.8186
▁مقابل	-11.8186
▁مچانی	-11.8188
▁سائیٹ	-11.8188
پروش	-11.8189
”?	-11.8189
▁بیزاری	-11.8193
▁پوت	-11.8193
▁جواز	-11.8193
▁گاں	-11.8194
▁ڈیھء	-11.8197
▁ببارت	-11.8197
▁تندجاہ	-11.8197
▁رھیم	-11.8198
▁دلیں	-11.8199
▁نورخان	-11.8201
▁ہیڈ	-11.8202
▁جہانے	-11.8202
▁فرشتہ	-11.8203
▁بگوشاں	-11.8203
▁ائیوکیں	-11.8205
▁بیٹھ	-11.821
▁کچی	-11.821
▁المین	-11.8212
▁چیھال	-11.8214
▁حالانکہ	-11.8215
▁کادر	-11.8222
▁کاگدء	-11.8224
▁رہیم	-11.8224
▁East	-11.8225
▁village	-11.8226
▁ازمءگوازی	-11.8226
▁اکوام	-11.8226
▁eastern	-11.8227
▁ٹھوس	-11.8227
دھ	-11.8227
▁مارشل	-11.8228
▁اعلیٰ	-11.823
▁یاسمین	-11.8231
ویے	-11.8234
▁داستانانی	-11.8236
▁دال	-11.8237
▁ساھگے	-11.8238
▁نجی	-11.824
▁پرسن	-11.8243
▁جیڑت	-11.8245
▁رودین	-11.8245
▁بگشاں	-11.8247
ریچ	-11.8248
ڈل	-11.8248
▁نمای	-11.825
زین	-11.8253
گز	-11.8254
▁relationship	-11.8256
گمان	-11.8257
▁نبا	-11.8258
▁تالانی	-11.8259
▁بزھگ	-11.826
▁الودگی	-11.8261
ot	-11.8262
▁عکسء	-11.8262
▁تلوس	-11.8263
▁ڈؤل	-11.8264
▁رکست	-11.8266
ways	-11.8267
▁جوانین	-11.8267
▁زوتیں	-11.8269
▁نورمحمد	-11.8271
▁ھاکمانی	-11.8273
▁انفرادی	-11.8276
▁cell	-11.8276
▁انہاں	-11.8276
▁Tw	-11.8277
▁شہیدی	-11.8279
▁چراگاں	-11.8279
illa	-11.828
▁وٹس	-11.828
▁لڑء	-11.8282
▁پیلویں	-11.8282
▁قالب	-11.8283
ward	-11.8284
▁ھلوت	-11.8286
▁2015	-11.8286
انہی	-11.8286
▁2003	-11.8286
▁داروگہ	-11.8286
▁زریت	-11.8287
▁نشانیاں	-11.8288
▁علاقائی	-11.829
▁ھدابند	-11.829
▁Christian	-11.8291
▁front	-11.8291
▁بیت۔بلے	-11.8292
▁ٹینک	-11.8292
▁نگاھاں	-11.8294
▁گوئش	-11.8299
▁لیٹر	-11.8301
اہیں	-11.8302
▁گوئستگیں	-11.8304
▁نصر	-11.8304
mi	-11.8304
▁ہپتگے	-11.8304
▁بانوری	-11.8305
▁لنج	-11.8305
▁انقلابی	-11.8305
com	-11.8307
▁گالبندانی	-11.8307
▁ناشریں	-11.8314
▁ایمرجنسی	-11.8316
▁image	-11.8316
▁عاشقی	-11.8318
▁گیڑھ	-11.8319
سیل	-11.8321
▁نکسان	-11.8321
▁اون	-11.8321
▁درنز	-11.8321
▁سحب	-11.8322
▁روانبد	-11.8323
انچوش	-11.8323
▁اؤرت۔	-11.8326
▁سرائیکی	-11.8327
▁San	-11.8328
▁پائی	-11.8328
▁غفار	-11.8329
▁پہمئنء	-11.8331
▁سویت	-11.8333
اڑے	-11.8333
▁Li	-11.8337
▁وڈے	-11.8339
▁مخ	-11.834
چوں	-11.8341
▁ٹول	-11.8341
ac	-11.8341
کند	-11.8342
ھبر	-11.8343
▁امبری	-11.8345
▁افزائش	-11.8346
▁سیندک	-11.8347
▁کندگانی	-11.8347
▁گے۔	-11.8348
▁گرامر	-11.8349
▁دلپروشی	-11.8349
▁رۆچے	-11.8349
نازک	-11.8352
کسانیں	-11.8353
▁گوست۔	-11.8354
▁ارباب	-11.8356
▁توپانی	-11.8356
▁ناروائی	-11.8356
▁پزور	-11.8357
▁نوبتاں	-11.8358
▁وامدار	-11.837
▁continue	-11.837
ہ۔	-11.8376
▁Other	-11.8377
▁دیو	-11.8378
▁God	-11.8378
▁ھئیال	-11.8379
▁بنھشت	-11.8379
▁ہسین	-11.8381
▁سببے	-11.8384
▁کاھان	-11.8385
▁بوء	-11.8387
▁جاورھالانی	-11.8388
▁ہاترء	-11.8389
کشگ	-11.8391
▁مکسک	-11.8393
▁وین	-11.8394
▁گپتء	-11.8395
جین	-11.8397
mph	-11.8398
▁40	-11.8399
۔بلوچی	-11.8399
▁کثہ	-11.8401
▁دزانی	-11.8401
▁پیگام	-11.8404
▁rock	-11.8404
▁رھ	-11.8405
▁move	-11.8405
▁وائے	-11.8406
?!	-11.8406
▁پیٹر	-11.8408
▁جاندراھی	-11.8409
▁مران	-11.8412
نون	-11.8414
▁ویلے	-11.8415
دراہ	-11.8416
انکی	-11.8416
▁فائدگ	-11.8416
▁انجیر	-11.8417
▁پرشان	-11.8418
▁جمبور	-11.8419
▁بلڈنگ	-11.8419
▁دیوالے	-11.8419
▁پتریت	-11.842
▁اصطلاحات	-11.8421
▁سلاماں	-11.8421
▁گولا	-11.8423
▁الھان	-11.8423
▁حیوان	-11.8425
▁عاروس	-11.8429
.........	-11.8429
زال	-11.843
▁گشوک	-11.8431
▁سازش	-11.8431
روت	-11.8431
▁کلمت	-11.8433
▁نیزگاری	-11.8434
▁حوری	-11.8434
▁اهد	-11.8436
▁پیرکی	-11.8437
▁اۆدا	-11.8437
▁free	-11.8437
▁ارگنائزر	-11.8438
▁ماہل	-11.8439
▁taken	-11.844
▁دوارگ	-11.844
▁عمری	-11.844
▁سوزمان	-11.8441
▁race	-11.8441
▁fourth	-11.8441
▁مسقط	-11.8441
▁مرشی	-11.8443
▁جیک	-11.8443
ادم	-11.8443
▁تس	-11.8445
▁جواں	-11.8445
▁تت	-11.8446
▁زوراوریں	-11.8446
پش	-11.8449
▁ساعتاں	-11.845
ney	-11.8454
▁سرداروں	-11.8455
▁رئوت	-11.8455
▁رومی	-11.8456
▁چاکری	-11.8456
........	-11.8457
▁ملگزار	-11.8459
▁درانڈیھ	-11.846
▁دودے	-11.8461
▁مہرنگ	-11.8462
▁شاہدی	-11.8464
▁غریبی	-11.8465
▁کپے	-11.8467
▁تڑ	-11.8468
▁ڈنک	-11.8469
▁لٹریچر	-11.8471
▁کورانی	-11.8473
▁نبشتانکء	-11.8477
▁پین	-11.8479
▁کلاسیکی	-11.8479
▁اسراتیاں	-11.8479
بچک	-11.848
▁واھگء	-11.8483
▁کسھی	-11.8484
▁زندئے	-11.8489
▁تناظر	-11.8489
▁ثقافتی	-11.849
ow	-11.849
پجار	-11.8491
اینت	-11.8494
▁جزماں	-11.8496
▁بلگ	-11.8496
▁شومک	-11.8496
▁کالجء	-11.8496
▁دزگ	-11.8497
▁Europe	-11.8498
شاں	-11.8499
▁انگلستان	-11.8499
▁European	-11.8499
ke	-11.85
▁کماشانی	-11.8503
▁پشکپتگ	-11.8503
تانی	-11.8505
▁لچہانی	-11.8505
▁نمازء	-11.8506
▁چینکس	-11.8508
▁لینا	-11.851
ناصر	-11.8511
▁ہلاک	-11.8512
▁زیبائیء	-11.8514
▁سربیتگیں	-11.8517
▁مہرانکی	-11.8518
باری	-11.8524
روک	-11.8525
▁ابدمانیں	-11.8527
▁تفصیل	-11.8529
▁کورچات	-11.853
▁battle	-11.853
▁Con	-11.8533
ستگ	-11.8534
▁واقعی	-11.8534
▁لہم	-11.8534
ard	-11.8538
▁قدح	-11.8541
▁دھکاں	-11.8542
▁واھگدار	-11.8544
▁چادرء	-11.8545
▁Po	-11.8545
بخش	-11.8546
▁وترا	-11.8546
▁پژ	-11.8547
تاہے	-11.8547
▁کسانین	-11.8547
▁ماھو	-11.8548
اسل	-11.8551
▁شاہگانی	-11.8556
۔چہ	-11.8558
▁چدو	-11.8559
▁consist	-11.856
▁خدائیداد	-11.856
▁پتلون	-11.8561
▁اسکولے	-11.8562
▁دلار	-11.8564
▁رکھتا	-11.8565
▁ہرجاہ	-11.8576
▁فش	-11.8576
▁Or	-11.8576
▁دزکپتگ۔	-11.8579
▁ساجو	-11.8582
▁پھزدار	-11.8584
▁بوؤگء	-11.8584
▁lack	-11.8591
▁Port	-11.8591
ut	-11.8591
▁کارل	-11.8592
ئس	-11.8592
▁idea	-11.8593
▁decided	-11.8593
▁گورگ	-11.8593
R	-11.8595
چه	-11.8595
▁بؤکیں	-11.8598
▁افسرے	-11.86
▁ٹاپار	-11.8602
انسانی	-11.8609
▁ات۔۔۔۔	-11.8613
▁بیتہ۔	-11.8618
▁کنزان	-11.8618
▁مجتی	-11.8619
▁سئوت	-11.862
▁زادگ	-11.8621
▁heavy	-11.8622
▁عوض	-11.8622
▁mix	-11.8622
▁ککڑ	-11.8622
▁نکناں	-11.8622
▁دھن	-11.8623
▁دزرس	-11.8624
▁بچی	-11.8626
▁دیدگء	-11.8627
▁کؤل	-11.8628
▁face	-11.863
ill	-11.8631
▁سنگتان	-11.8631
▁ویسٹ	-11.8632
▁باہند	-11.8634
▁دارگا	-11.8636
رحم	-11.8636
▁مالانی	-11.8638
▁جاتو	-11.8638
▁سرک	-11.8638
▁ھمراھے	-11.8638
▁متھ	-11.864
▁رسانکجاھ	-11.8642
▁دریگء	-11.8643
قصہ	-11.8643
اثر	-11.8644
▁سرگوستے	-11.8647
شار	-11.8648
▁ارٹس	-11.865
▁ٹوٹ	-11.8651
▁لبنان	-11.8651
▁اکیڈیمی	-11.8653
جہان	-11.8653
▁پولیو	-11.8653
▁ملکان	-11.8654
▁سکریٹری	-11.8654
▁سرگوات	-11.8657
▁گزل	-11.866
▁کوار	-11.8663
▁ملٹری	-11.8664
▁لوکل	-11.8667
▁ٹرین	-11.867
▁باگیں	-11.8671
▁هوش	-11.8674
▁program	-11.8675
▁هار	-11.8675
▁چگین	-11.8675
▁ارامی	-11.8678
▁گوستگال	-11.8679
▁ایشیئ	-11.868
▁بتایا	-11.8684
▁problem	-11.8684
▁امشپی	-11.8684
▁condom	-11.8684
▁Royal	-11.8684
▁درچکء	-11.8685
▁White	-11.8686
▁sold	-11.8686
ca	-11.8686
▁وسواس	-11.8689
▁اہر	-11.869
▁زوریت۔	-11.8692
▁سینما	-11.8693
▁اروسی	-11.8693
▁دلچسپی	-11.8694
▁بدلہ	-11.8696
▁اہن	-11.8696
بلک	-11.8696
کارست	-11.8698
our	-11.87
▁امیتی	-11.87
▁مسل	-11.8702
▁نانے	-11.8702
حد	-11.8704
چیز	-11.8705
جون	-11.8706
▁کتکار	-11.8707
▁گٹی	-11.8708
▁ناں۔	-11.8708
ردی	-11.871
▁شئیراں	-11.8711
▁دکانء	-11.8713
▁نوائے	-11.8714
▁راگے	-11.8715
▁توجہ	-11.8716
▁پشکپتگیں	-11.8716
ہست	-11.8718
▁بانکیں	-11.8719
▁دیدانک	-11.8722
6	-11.8726
▁میرانی	-11.8728
▁وشاتک	-11.8729
▁گردیں	-11.873
میل	-11.8731
▁سنگار	-11.8731
▁کاروانے	-11.8731
▁far	-11.8733
▁ڈولی	-11.8733
▁نمیرانی	-11.8737
▁رہیں	-11.8741
ٹیو	-11.8741
رب	-11.8742
▁گامگیجے	-11.8742
▁سیریں	-11.8743
▁شیرکن	-11.8745
▁کاریاں	-11.8745
▁ضلعی	-11.8746
▁individual	-11.8746
▁تاثیر	-11.8746
▁مومنء	-11.8748
▁وسء	-11.8751
▁فرقہ	-11.8753
▁درامدے	-11.8755
▁اھوگ	-11.8756
▁کسانسال	-11.8756
▁کاٹار	-11.8756
▁پرینت	-11.8759
▁ترجمان	-11.8761
▁بشکھندگی	-11.8762
▁ببات	-11.8763
▁گیشتری	-11.8763
▁شورہ	-11.8766
▁باھوٹی	-11.8766
▁میٹرک	-11.8766
▁تھل	-11.8766
فکشن	-11.8767
▁رستیں	-11.8768
▁پرشتہ	-11.8769
▁اوستانی	-11.877
▁بستی	-11.8773
▁ہمد	-11.8775
▁چلو	-11.8775
▁shot	-11.8778
سند	-11.8778
▁بکشگ	-11.8779
▁جزیرہ	-11.878
▁خوف	-11.8782
وہدیکہ	-11.8785
▁پشپد	-11.8785
▁my	-11.8786
▁ھرجان	-11.8787
▁رزق	-11.8788
▁جیڑه	-11.8789
▁لاشاں	-11.879
▁tog	-11.8791
عبداللہ	-11.8792
▁Pol	-11.8795
▁گھڑی	-11.8797
▁میڑاں	-11.8798
▁gun	-11.8798
▁ھمید	-11.8799
▁زاھدہ	-11.88
▁ناوشیں	-11.8802
▁29	-11.8803
▁پہناد	-11.8803
▁جاھی	-11.8805
▁چیار	-11.8808
▁کدین	-11.8809
▁ٹریک	-11.8809
▁clear	-11.8809
▁فقط	-11.881
▁شاھگانی	-11.8813
▁ٹویٹ	-11.8813
▁ٹھیکہ	-11.8815
▁نیر	-11.8815
▁کمٹمنٹ	-11.8815
▁سمبل	-11.8816
▁چکگ	-11.8818
ایگ	-11.8821
▁واپار	-11.8822
▁گراد	-11.8823
▁کاسد	-11.8824
یگی	-11.8826
▁هساب	-11.8826
▁limit	-11.8827
▁پارٹیز	-11.8831
▁rule	-11.8833
▁احوالکار	-11.8834
▁دراز	-11.8835
▁درباری	-11.8836
ساری	-11.8837
▁زہیرانی	-11.884
غم	-11.8841
▁ارسی	-11.8841
▁عبدالرحمان	-11.8841
▁قندھار	-11.8841
▁Earl	-11.8841
▁Carey	-11.8842
▁سرکتگ	-11.8842
▁انکی	-11.8843
▁درخانی	-11.8844
▁ٹریننگ	-11.8845
▁ساچشتء	-11.8845
لڈ	-11.8845
▁گرانڈ	-11.8846
▁گھڑیال	-11.8847
▁ساهت	-11.8852
▁۔ائیء	-11.8852
رحیم	-11.8854
▁بشی	-11.8856
▁گوستگین	-11.8857
▁گزیر	-11.8859
▁ستاہ	-11.8859
▁نیبگ	-11.886
۔تو	-11.8861
▁cit	-11.8861
ھڑ	-11.8861
▁شدہ	-11.8862
▁گودی	-11.8863
▁درشک	-11.8867
▁گورانی	-11.8868
کماش	-11.8868
۔مئے	-11.8869
▁غذائی	-11.8869
▁وشین	-11.8871
وکانی	-11.8873
▁مح	-11.8873
▁مریء	-11.8873
▁افسوز	-11.8874
▁تصدیق	-11.8874
▁تخیل	-11.8874
▁باس	-11.8875
▁گوزوکیں	-11.8878
▁کراں	-11.8878
▁اچھا	-11.8879
▁center	-11.8881
▁مارشتء	-11.8882
▁وانوکء	-11.8882
▁Part	-11.8882
▁گوریچان	-11.8882
▁ایشر	-11.8882
کئی	-11.8884
▁بگرد	-11.8887
low	-11.8888
مثال	-11.8888
▁پلیت	-11.889
▁ہوں۔	-11.889
▁بیپاری	-11.8891
پڑ	-11.8893
▁بلیت	-11.8894
▁منزور	-11.8894
▁گيئش	-11.8895
خت	-11.8896
▁تاپگ	-11.8896
▁وشال	-11.8897
▁سدء	-11.8898
▁fl	-11.8902
▁کارہندہ	-11.8903
▁مدافعت	-11.8905
▁وتساچیں	-11.8905
▁چانسلر	-11.8905
▁انٹیلیجنس	-11.8905
▁برقرار	-11.8906
▁شیتان	-11.8906
▁accept	-11.8907
▁چریشانی	-11.8909
▁معراج	-11.8909
▁لل	-11.891
▁رواجی	-11.8911
▁ہوٹلء	-11.8913
▁بگنداں	-11.8913
واریں	-11.8913
▁دوہ	-11.8914
ونڈ	-11.8915
▁جٹ	-11.8916
ho	-11.8919
چپ	-11.8919
▁روژنائیں	-11.892
▁گژنگ	-11.8921
91	-11.8924
▁نازی	-11.8924
▁سوبے	-11.8926
▁نویسے	-11.8929
▁بالیچہ	-11.893
▁بسم	-11.893
▁شیرازی	-11.8932
چست	-11.8933
▁اغہ	-11.8934
▁begin	-11.8937
▁رپورٹس	-11.8938
▁ساھیل	-11.8939
وائی	-11.8941
▁ھوالگ	-11.8943
▁ھمش	-11.8944
▁مافیا	-11.8944
لاپ	-11.8948
▁دلوتاں	-11.8951
▁مشرف	-11.8951
▁جہدکار	-11.8952
▁مزھب	-11.8952
▁عزاب	-11.8954
▁بئیں۔	-11.8955
▁درگاہ	-11.8955
▁مارشتی	-11.8956
▁anti	-11.8956
▁کوھیں	-11.8958
گچین	-11.8961
▁وارتگ۔	-11.8961
▁ایماندار	-11.8963
▁واھش	-11.8963
▁درابوت	-11.8965
▁گڑھ	-11.8966
گھ	-11.8968
جد	-11.8969
▁بوتل	-11.8969
▁سافٹ	-11.8969
احت	-11.897
▁نادینت	-11.8974
▁Red	-11.8976
▁کچء	-11.8979
▁زنگی	-11.898
ساچ	-11.898
سکیں	-11.8982
▁زامرانی	-11.8986
▁زورگپت	-11.899
▁اگا	-11.8992
▁communit	-11.8997
رج	-11.8997
▁ادینکے	-11.8997
منت	-11.8998
▁گندئگ	-11.8999
▁کنڈیرا	-11.9002
▁دہل	-11.9002
▁انکھوں	-11.9003
گڑ	-11.9003
▁باطنی	-11.9003
▁قوتانی	-11.9003
field	-11.9004
▁سیپ	-11.9005
▁فیل	-11.9007
▁بینجو	-11.9008
▁سروسز	-11.9008
نتا	-11.9008
▁ہڑ	-11.9009
▁امیتء	-11.901
▁سلیمانی	-11.901
▁لاری	-11.9011
▁طالع	-11.9011
گراں	-11.9011
▁ارزشتی	-11.9012
▁سورج	-11.9014
▁بدنت۔	-11.9015
▁چلشت	-11.9015
۔نوں	-11.9016
▁دیھ	-11.9018
▁ھمائیء	-11.9018
▁دروشمانی	-11.902
▁گئے۔	-11.9024
▁کدم	-11.9024
▁تعلقات	-11.9025
▁رخشان	-11.9028
▁گشینگ	-11.9028
نل	-11.9028
▁پوره	-11.9028
▁mov	-11.9031
بلی	-11.9031
▁بارش	-11.9031
▁Federer	-11.9033
▁protein	-11.9033
▁اکانومی	-11.9033
▁درشانتگ	-11.9033
▁جھینگا	-11.9033
▁fre	-11.9037
va	-11.9037
▁جنگلات	-11.904
▁البرٹ	-11.9041
▁چھک	-11.9042
▁لپ	-11.9043
▁دہر	-11.9043
بیست	-11.9044
▁ارز	-11.9046
▁نیمء	-11.9047
ap	-11.9048
▁بھائیں	-11.9052
▁Ju	-11.9055
▁زیردستیں	-11.9055
گنوک	-11.9062
▁بینر	-11.9063
▁ھوس	-11.9064
▁تھو	-11.9064
▁زکر	-11.9064
▁ره	-11.9066
▁سؤب	-11.9068
7	-11.9071
▁گۆش	-11.9071
▁ناوشی	-11.9072
▁عبدالصبور	-11.9073
گ۔	-11.9075
pe	-11.9077
▁تحقیقی	-11.9078
▁fall	-11.9079
▁مکرانی	-11.9079
▁پھلوان	-11.908
▁کرداں	-11.9083
▁جنتر	-11.9085
▁شہمات	-11.9086
▁شنزگ	-11.9087
▁round	-11.909
▁لپرزگ	-11.9091
▁جدیدیت	-11.9093
▁مودی	-11.9094
▁ارسے	-11.9096
پال	-11.9097
▁source	-11.9098
▁پرنسپل	-11.9098
▁امتحان	-11.9099
▁سالیگیں	-11.9099
▁دربرت	-11.9099
▁رکھنے	-11.91
▁رهبند	-11.9101
▁کانی	-11.9101
▁جاں	-11.9101
▁زوم	-11.9103
▁مشھد	-11.9104
▁مشہوریں	-11.9105
▁مانتر	-11.9106
▁تبلیغ	-11.9106
▁اپسرے	-11.9106
▁کربلا	-11.9108
▁حاکمانی	-11.9109
▁کماشء	-11.911
▁داث	-11.9111
▁دھمی	-11.9112
▁لیبیاں	-11.9113
▁پتینکاں	-11.9114
جہد	-11.9114
▁گورکوپ	-11.9114
جوان	-11.9115
▁ہردوئیں	-11.9118
▁پروشان	-11.9118
▁ڈوبار	-11.9119
▁یم	-11.9122
▁نادانی	-11.9124
▁بحالی	-11.9125
▁تهار	-11.9125
▁ڈنگی	-11.9126
ہمک	-11.9126
▁انیگ	-11.9128
▁ask	-11.9128
▁تپل	-11.9129
▁شرتگ	-11.9129
▁بٹے	-11.9129
▁International	-11.913
▁ڈپارٹمنٹ	-11.913
▁نیکشھر	-11.9131
▁George	-11.9132
▁قیاس	-11.9132
▁گرمائشت	-11.9133
▁Hero	-11.9133
▁ہاجی	-11.9133
▁اقا	-11.9134
▁شناست	-11.9134
کارء	-11.9134
▁رژنے	-11.9134
▁واجھ	-11.9135
▁manager	-11.9135
▁ابتدائی	-11.9135
▁شموشکار	-11.9136
▁مہروانی	-11.9136
▁طاھر	-11.9137
ارو	-11.9137
▁ایرگیجگ	-11.9138
▁احمدان	-11.9138
▁جیسا	-11.9138
▁اشکانی	-11.9138
▁ترانگانی	-11.9138
▁گرپتاری	-11.9138
▁اکساں	-11.914
▁سرپرہ	-11.9141
▁مڑدے	-11.9144
ٹنگ	-11.9145
▁دوئم	-11.9145
▁William	-11.9146
▁حسی	-11.9148
▁بناء	-11.9149
پاس	-11.9149
▁ہالو	-11.915
▁ملگور	-11.9153
۔۔۔۔۔۔۔۔	-11.9153
▁اسراتیانی	-11.9153
▁port	-11.9153
▁رجانکارء	-11.9155
▁بکتیں	-11.9155
▁هاتر	-11.9157
▁جیسی	-11.9158
▁کارنت	-11.9158
رندء	-11.9158
▁نهات	-11.9161
▁روانت	-11.9161
▁لیڑو	-11.9161
▁بھارتی	-11.9163
▁activit	-11.9163
▁تفتان	-11.9163
▁مہنگائی	-11.9163
▁واهند	-11.9164
▁بوهگ	-11.9164
▁اسٹاپ	-11.9165
▁قاضیء	-11.9165
۔یک	-11.9165
▁گداری	-11.9166
▁چیلک	-11.9167
▁دئی	-11.9167
لء	-11.9169
▁ہاشم	-11.917
گد	-11.9171
▁ہکل	-11.9172
▁چیدگانی	-11.9172
▁ربیتے	-11.9172
▁نبیستگ	-11.9172
وڑیں	-11.9174
▁نشتگ۔	-11.9175
دیست	-11.9176
▁کردیا	-11.9178
▁سوالی	-11.9179
▁گوشتے	-11.918
▁"","	-11.918
▁رسمء	-11.9181
▁لنککانی	-11.9182
▁استعارہ	-11.9182
▁car	-11.9183
ریل	-11.9186
▁کپی	-11.9188
▁درامدی	-11.9188
▁ترست	-11.9189
پرو	-11.9195
▁language	-11.9196
▁مھناز	-11.9196
▁Wales	-11.9197
▁نابلد	-11.9198
▁دیوی	-11.9198
▁نیمگی	-11.9199
▁involv	-11.9199
▁جنوب	-11.92
▁subse	-11.92
▁هنچو	-11.9202
▁نندان	-11.9203
▁نج	-11.9203
▁لعنت	-11.9204
▁شرپی	-11.9204
ک۔	-11.9205
▁member	-11.9205
▁شاھگانیں	-11.9207
▁عکسانی	-11.9208
▁مصرعہ	-11.9209
▁بنگل	-11.9209
▁موڈ	-11.9212
▁بداتیں	-11.9214
▁گہیں	-11.9214
wood	-11.9215
▁خوبی	-11.9217
▁پڑھ	-11.9223
▁گریوان	-11.9224
اکہ	-11.9225
▁ااے	-11.9226
ٹہ	-11.9226
▁red	-11.9227
▁launch	-11.9229
▁ڈھانچہ	-11.9229
▁کانپرنس	-11.9229
برت	-11.923
▁جوھان	-11.923
▁ڈاکٹرانی	-11.9231
▁sea	-11.9231
▁مشق	-11.9232
▁جلشک	-11.9232
▁بیشک	-11.9233
▁ابادء	-11.9235
شین	-11.9238
گنج	-11.9238
▁باجی	-11.9239
۔۔۔من	-11.9242
▁opening	-11.9244
کول	-11.9247
▁شاپی	-11.9251
▁بنچ	-11.9257
گاه	-11.9259
▁نزانتکاری	-11.926
پرچہ	-11.926
ۆکێں	-11.9262
▁current	-11.9262
▁regular	-11.9262
▁مورے	-11.9263
▁سومری	-11.9263
▁صفائی	-11.9265
▁Day	-11.9266
▁واضح	-11.9266
▁لوت	-11.9266
▁جدلیات	-11.9267
▁دہقان	-11.9267
▁Su	-11.9269
▁wall	-11.9269
▁قلندر	-11.9269
▁گالوارء	-11.927
▁تمردی	-11.927
▁قاری	-11.927
▁court	-11.9278
مج	-11.9279
▁زاهر	-11.9281
▁کبرانی	-11.9282
▁عشقی	-11.9285
▁چھاپء	-11.9287
▁گوٹ	-11.9288
جک	-11.9288
▁destroy	-11.9291
▁پروا	-11.9293
▁بلکین	-11.9293
▁مڑائی	-11.9293
.”	-11.9294
▁دوائی	-11.9294
▁hit	-11.9295
▁House	-11.9295
▁مشکلے	-11.93
▁مشیر	-11.9302
▁ایکٹ	-11.9302
▁تصوف	-11.9302
▁پچاں	-11.9304
▁بریت	-11.9305
▁نودی	-11.9306
▁شریان	-11.9307
▁تھئی	-11.9308
▁دمکانی	-11.931
▁زیرک	-11.9311
جارکش	-11.9313
▁بنیادمء	-11.9314
دژمن	-11.9315
▁جدائی	-11.9317
▁ever	-11.9321
▁درکپان	-11.9323
لشکر	-11.9324
▁شول	-11.9325
▁زریات	-11.9325
▁نیزگاریں	-11.9326
پرس	-11.9326
▁فکرے	-11.9327
▁Mo	-11.9327
▁راولپنڈی	-11.9328
▁عبدالقیوم	-11.9328
▁بائیکاٹ	-11.9328
▁ریزمانک	-11.933
دھا	-11.933
▁اسٹاف	-11.9334
▁گورتگ	-11.934
▁نیما	-11.934
▁یاری	-11.9341
▁امنہ	-11.9341
▁لبزیات	-11.9342
▁نمی	-11.9343
فضل	-11.9344
▁گردہ	-11.9344
ircraft	-11.9344
▁گیتک	-11.9345
▁بانڈم	-11.9346
▁شدیک	-11.9346
نومبر	-11.9347
▁چہرگ	-11.9352
▁شمسی	-11.9355
▁لیل	-11.9355
ھیل	-11.9356
▁جذباتی	-11.9358
▁دراه	-11.9359
▁مانچسٹر	-11.9361
▁دروازگے	-11.9362
▁مادنی	-11.9362
کتہ	-11.9365
▁زبانےء	-11.9365
۔بلکیں	-11.9366
▁زبانزانت	-11.9367
▁میدانی	-11.9368
▁اسٹار	-11.9368
▁پسگاں	-11.9373
▁اریائی	-11.9374
▁تازہ	-11.9376
سازی	-11.9376
▁پٹاں	-11.9376
جنگل	-11.9376
▁جانشو	-11.9377
▁31	-11.9377
io	-11.9377
▁متن	-11.9378
▁دک	-11.9379
▁پرماتگ	-11.9379
▁ماد	-11.938
▁رؤت۔	-11.9382
og	-11.9383
غت	-11.9383
کشی	-11.9384
▁ڈوبر	-11.939
▁موکہ	-11.9391
▁grow	-11.9393
▁برین	-11.9394
▁contract	-11.9395
▁خلیات	-11.9395
▁size	-11.9395
▁کیچی	-11.9395
▁طویل	-11.9395
▁کانگریس	-11.9396
▁مارکسزم	-11.9396
▁رھبندء	-11.9397
▁میلان	-11.9398
▁کسهے	-11.94
دھی	-11.94
▁زرورت	-11.9403
▁سرنگ	-11.9403
▁پوچ	-11.9403
▁اعلان	-11.9404
▁شکلے	-11.9404
ربیت	-11.9406
▁Nav	-11.9407
▁مالا	-11.9408
▁مہرگ	-11.9408
▁پکن	-11.9408
▁ایدا	-11.941
▁گانی	-11.9411
▁تلگ	-11.9412
▁شھمیر	-11.9413
▁central	-11.9416
▁prais	-11.9417
▁ماھان	-11.9417
▁اچھی	-11.9421
▁نبشتگ۔	-11.9423
▁تورات	-11.9424
▁مالء	-11.9425
▁درونتاں	-11.9425
▁مبو	-11.9426
▁نوشگ	-11.9426
▁فوک	-11.9427
▁پتاں	-11.9428
▁Street	-11.9428
▁یوٹیوب	-11.9428
▁افیشل	-11.9428
▁کھار	-11.943
خیال	-11.9431
دگی	-11.9433
▁واژہ	-11.9433
▁پاکی	-11.9433
نین	-11.9435
الدین	-11.9436
▁ہمائیء	-11.9436
▁لۆگئے	-11.9437
▁ےء	-11.9442
▁Game	-11.9446
▁ناشری	-11.9446
▁زانگول	-11.9456
▁مارتگ	-11.9457
ێت	-11.9457
۔پمیشکہ	-11.9458
▁داناں	-11.9459
▁بہتامے	-11.946
▁پیت	-11.946
▁واج	-11.9461
▁recording	-11.9462
▁Championship	-11.9462
▁مبوتین	-11.9462
▁رودینی	-11.9463
▁بندنت	-11.9463
▁ھردوکانی	-11.9464
▁مھلہ	-11.9467
▁فاطمہ	-11.947
مش	-11.947
پے	-11.9471
▁ٹگل	-11.9471
▁دوہزار	-11.9471
▁ھسا	-11.9475
▁کنوں	-11.9476
▁توجیلے	-11.9477
▁وانینت	-11.9481
▁کامی	-11.9481
▁صورتے	-11.9483
▁دانے	-11.9484
▁پادمال	-11.9486
▁گوشتگیں	-11.9488
سپ	-11.9489
▁پترت۔	-11.949
▁ظ	-11.949
یپ	-11.949
▁ھزارہ	-11.9491
یچ	-11.9495
▁بڑگ	-11.9495
▁artist	-11.9496
▁Follow	-11.9496
▁رکاوٹ	-11.9496
▁گجرات	-11.9496
▁سفرے	-11.9497
▁لکانی	-11.9499
▁صف	-11.9499
▁شکور	-11.9499
▁کوکر	-11.9499
▁ماشکیل	-11.95
کوئی	-11.95
▁سریچک	-11.9501
▁گنڈ	-11.9501
▁ٹائر	-11.9501
di	-11.9503
▁find	-11.9503
▁مظہر	-11.9503
▁پیرین	-11.9505
▁موجودگی	-11.9506
▁تہلی	-11.9507
▁بدرنگ	-11.9507
▁کپات	-11.9507
▁صابرء	-11.9508
اود	-11.9509
▁خداء	-11.9511
بزانت	-11.9512
do	-11.9514
E	-11.9517
رھبند	-11.9519
▁شاھوانی	-11.9519
▁نزوریانی	-11.952
▁دستونکء	-11.9522
▁draw	-11.9523
▁دلئ	-11.9524
▁ازمانی	-11.9524
▁زندمانء	-11.9526
جاور	-11.9529
uest	-11.953
▁Jordan	-11.953
▁کوپگانی	-11.953
▁دفعہ	-11.953
▁سحار	-11.9532
قر	-11.9532
▁تمردیں	-11.9533
▁دیتی	-11.9534
▁بانڑی	-11.9534
▁گرائمر	-11.9537
▁درشانگ	-11.9537
▁پھزداری	-11.9537
▁appearance	-11.954
▁شمالی	-11.954
▁ہاتھوں	-11.9543
▁Ri	-11.9543
▁سچان	-11.9544
▁کارمرزگ	-11.9544
▁باتنء	-11.9544
▁مجبوری	-11.9545
سبز	-11.9545
▁زلمانی	-11.9545
▁جنگاں	-11.955
ہرکس	-11.9555
▁مھنت	-11.9556
▁کارکنگ	-11.9556
سندھ	-11.9556
▁سھی	-11.9557
▁کاسم	-11.9558
▁پوریا	-11.956
▁چاتے	-11.9561
lu	-11.9561
▁evidence	-11.9564
▁regard	-11.9564
▁commercial	-11.9564
▁From	-11.9564
▁معشیت	-11.9564
▁برگا	-11.9564
▁عبدالقدوس	-11.9566
▁سمیت	-11.9567
▁وسیع	-11.9567
▁سپرء	-11.9569
▁cast	-11.957
▁یادگار	-11.9571
2014	-11.9572
▁اوشتاتگ۔	-11.9573
▁مہماناں	-11.9575
▁چینچک	-11.9576
▁اھدء	-11.9577
▁نیادے	-11.958
▁فلسطینی	-11.9581
▁بیاات	-11.9583
▁سالہ	-11.9584
▁اي	-11.9584
لج	-11.9584
لر	-11.9585
▁ملیں	-11.9587
▁براں۔	-11.9588
▁نخ	-11.9588
▁اولسرء	-11.9588
▁جیڑگاں	-11.9593
▁ھالتران	-11.9594
▁مارکیز	-11.9596
▁Michael	-11.9598
▁gain	-11.9598
)"	-11.9598
▁غزہ	-11.96
▁لہڑئگ	-11.96
▁گوا	-11.9602
▁روشنا	-11.9602
▁فرعون	-11.9607
▁بیچارگیں	-11.9607
سکی	-11.9608
▁پہلا	-11.9609
▁واہگاں	-11.9609
▁دیرو	-11.9613
upon	-11.9613
▁سیمک	-11.9614
▁بیرگیری	-11.9614
▁مردیناں	-11.9614
▁سربوگ	-11.9616
۔دومی	-11.9617
▁river	-11.9617
▁yard	-11.9618
کسان	-11.962
▁جمالیاتی	-11.962
کیا	-11.9621
▁بہارگاہ	-11.9622
▁وڑین	-11.9622
سہب	-11.9623
قران	-11.9623
▁travel	-11.9624
▁ناٹک	-11.9625
پھ	-11.9625
▁break	-11.9626
▁Indian	-11.9626
▁پٹے	-11.9628
▁سوگاتے	-11.9632
▁سہولت	-11.9632
▁Rock	-11.9632
▁یورش	-11.9633
نیا	-11.9633
▁باراں	-11.9635
بانی	-11.9638
▁سوزش	-11.9639
▁فطری	-11.9639
▁ضیا	-11.9639
▁بغداد	-11.964
▁امرے	-11.9641
▁اوش	-11.9642
▁کسم	-11.9642
۔پرچاکہ	-11.9643
▁نویسانی	-11.9644
▁پلگاری	-11.9645
زات	-11.9645
الف	-11.9646
▁کھند	-11.9647
▁پنیر	-11.9648
▁مرتبہ	-11.9649
پیسر	-11.9649
▁Star	-11.965
زه	-11.9651
▁پورے	-11.9652
▁کھو	-11.9654
▁کٹوکیں	-11.9654
▁کھنت	-11.9655
▁سرکچ	-11.9656
▁شمشت	-11.9658
▁لائکی	-11.9658
▁تیس	-11.9659
▁کوتاہ	-11.9659
▁چھپ	-11.9664
▁agree	-11.9664
▁کپتان	-11.9665
▁مکہیں	-11.9666
▁کوھستگ	-11.9667
▁مشتمل	-11.9667
▁وانگیانی	-11.9668
مد	-11.9668
▁پسگانی	-11.9669
▁ہجرت	-11.967
بوان	-11.9672
▁جوڑینگ	-11.9674
▁سپاہیگ	-11.9674
▁اوپن	-11.9676
▁بندپتر	-11.9676
▁لکھوڑ	-11.9677
ھائی	-11.9677
▁بچوں	-11.9679
▁حمد	-11.968
▁بیتگینانی	-11.968
درچک	-11.968
ning	-11.9684
▁اچے	-11.9684
om	-11.9684
II	-11.9685
go	-11.9685
▁کوری	-11.9686
▁عشقء	-11.9687
▁گوستء	-11.9687
▁Ne	-11.9688
▁دتک	-11.9688
▁شخصی	-11.969
▁200	-11.969
▁قبرء	-11.9691
▁عمرے	-11.9693
▁کدام	-11.9695
▁قصو	-11.9697
po	-11.97
▁ساہگء	-11.97
..."	-11.9701
▁تقدیر	-11.9701
▁ارگی	-11.9704
▁ھوالہ	-11.9706
▁ھیبتان	-11.9709
▁saw	-11.971
نئے	-11.971
▁score	-11.9715
▁پاند	-11.9717
▁ورناھے	-11.9718
▁نپت	-11.9719
▁پوشاکاں	-11.972
درست	-11.9721
▁کساسء	-11.9721
▁چتر	-11.9721
▁الماس	-11.9722
مالی	-11.9723
▁تہراں	-11.9726
▁مرادجان	-11.9726
▁اجل	-11.9728
▁گراک	-11.9729
وانوک	-11.9731
▁ریت	-11.9731
▁ایرجنگ	-11.9732
▁اومیت	-11.9733
G	-11.9735
▁پوزیشن	-11.9736
▁So	-11.9736
▁ٹیچنگ	-11.9737
سب	-11.9737
▁چاچے	-11.9737
▁براھوی	-11.9739
▁نیویارک	-11.9739
▁حقدار	-11.974
جتگ	-11.974
▁Mary	-11.9743
▁تاہم	-11.9744
▁جوانتر	-11.9745
▁گؤر	-11.9745
▁بوہگا	-11.9747
▁کیک	-11.9748
▁And	-11.9749
▁مھربان	-11.9749
▁جہتء	-11.975
▁یکمشت	-11.975
ندگ	-11.975
▁ورناء	-11.9751
های	-11.9755
▁کوشاں	-11.9756
▁کرنانی	-11.9759
▁ہتم	-11.9761
▁ھدوناک	-11.9762
▁نامرد	-11.9766
لم	-11.9766
▁کدرتی	-11.9767
▁اتکء	-11.9767
▁معاف	-11.9768
▁سدگ	-11.9769
▁شوش	-11.977
▁reveal	-11.977
▁شہرانی	-11.9771
▁ازمائش	-11.9772
▁جھاز	-11.9772
read	-11.9773
day	-11.9773
▁پکی	-11.9778
▁بکشات	-11.9778
▁سجهێن	-11.9779
▁همش	-11.9782
▁نکہ	-11.9784
▁چمروک	-11.9786
aw	-11.9787
▁ھرمردم	-11.9787
▁خاصیت	-11.9788
▁سربراہ	-11.9791
مھ	-11.9794
▁نیچے	-11.9796
▁جہانگیر	-11.9796
▁کاریء	-11.9796
▁بندین	-11.9797
▁تمرد	-11.9797
▁مالداری	-11.9798
زوریں	-11.9798
▁پینل	-11.9799
داراں	-11.98
▁ییں	-11.9801
▁سوجکار	-11.9801
کنوک	-11.9803
ag	-11.9804
▁الاقوامی	-11.9805
▁ات۔کہ	-11.9806
▁outside	-11.9806
▁ساماناں	-11.9806
▁دوئین	-11.9806
▁troops	-11.9808
▁چالاک	-11.9808
ھون	-11.9809
▁دزگہار	-11.9809
???	-11.981
▁استالانی	-11.9811
▁ترمیم	-11.9811
▁عقیدہ	-11.9812
▁فریاد	-11.9812
▁ھلیل	-11.9813
▁کمکین	-11.9814
▁قدیمی	-11.9815
▁سمب	-11.9816
▁تھرو	-11.9817
▁replac	-11.9817
▁رز	-11.9818
تال	-11.9819
ass	-11.9819
▁دروراں	-11.9819
▁وجودی	-11.9822
▁event	-11.9823
▁ہجری	-11.9823
▁مجاھد	-11.9825
نم	-11.9825
▁کونج	-11.9828
▁بایدیں	-11.9829
▁ہشکیں	-11.983
▁معاشرتی	-11.983
▁pro	-11.9831
▁دراہی	-11.9831
مکن	-11.9831
▁کائیں	-11.9834
▁چس	-11.9835
نامہ	-11.9835
▁چارینگ	-11.9836
▁کرنا۔	-11.9838
▁northern	-11.9841
▁عنایت	-11.9841
▁اخلاقیات	-11.9841
▁افتاب	-11.9843
شمے	-11.9843
▁نوخ	-11.9844
▁رفت	-11.9844
▁ٹیپ	-11.9846
▁معصوم	-11.9847
▁خراسان	-11.9848
ner	-11.9848
▁هاترا	-11.9849
▁درشاندابے	-11.9852
▁راس	-11.9853
شد	-11.9854
▁پارس	-11.9856
▁بوانیت	-11.9857
▁experience	-11.9859
▁ماجد	-11.986
▁ھسابے	-11.986
▁پتات	-11.9861
شمس	-11.9862
ایت۔	-11.9863
بام	-11.9864
▁دیمروہی	-11.9865
▁جونے	-11.9865
▁پگرانی	-11.9866
▁دیگری	-11.9868
▁وحی	-11.9869
▁اشترانی	-11.987
▁rank	-11.987
▁برجمیں	-11.9873
▁راجداری	-11.9874
▁ہیت	-11.9874
▁روئٹرز	-11.9875
▁پریمئیر	-11.9875
▁لنکا	-11.9875
▁Tech	-11.9875
▁ٹہشت	-11.9876
▁دیمااہتگ	-11.9876
▁inter	-11.9878
▁۔۔۔۔۔۔۔۔	-11.9881
▁ہیومن	-11.9882
اتیں	-11.9882
معنا	-11.9882
▁قضا	-11.9883
▁اسکرین	-11.9884
▁نادرائی	-11.9884
▁منٹو	-11.9886
▁مرتگاں	-11.9887
بوتگ۔	-11.9888
▁سواراں	-11.9888
▁سیادانی	-11.9889
▁بالیگ	-11.989
▁r	-11.9891
مستریں	-11.9892
▁جامع	-11.9892
▁کچکول	-11.9892
▁mean	-11.9897
▁اھتک	-11.9897
▁اران	-11.9898
▁توکہ	-11.9901
▁نتا	-11.9901
▁رت	-11.9902
▁پھکیں	-11.9904
▁پچگ	-11.9907
ah	-11.9907
▁درزن	-11.9908
▁yards	-11.9911
▁ابابگر	-11.9911
▁میگ	-11.9911
▁سرجمین	-11.9912
▁زھنی	-11.9912
▁دگاں	-11.9913
وکاں	-11.9914
▁نپرت	-11.9914
▁ھکیکت	-11.9915
▁دوستناک	-11.9917
▁لڈء	-11.9917
▁جنئے	-11.9917
▁تراس	-11.9918
▁پکنت	-11.9918
▁ہوس	-11.9918
▁ساڑ	-11.9919
▁دائرہ	-11.9919
▁توکی	-11.992
▁سپائی	-11.9921
▁ستم	-11.9923
▁کھا	-11.9924
ولے	-11.9924
▁Bay	-11.9925
▁ضیاء	-11.9926
▁گٹء	-11.9929
▁درجنگ	-11.9929
▁met	-11.9932
head	-11.9933
▁مزھبی	-11.9934
▁مب	-11.9934
▁بنو	-11.9937
▁زدگیں	-11.9939
lorida	-11.9939
دانکہ	-11.9939
پولیس	-11.994
▁نیاریت	-11.9943
طر	-11.9945
▁reason	-11.9946
▁length	-11.9946
▁conduct	-11.9946
▁عبدالرزاق	-11.9946
▁ولگوج	-11.9946
▁وزبت	-11.9946
▁ملیشیا	-11.9946
▁زوربیگواہی	-11.9947
▁section	-11.9947
تاج	-11.9947
دہی	-11.9947
j	-11.9948
▁سانیٹ	-11.9948
▁ہروہد	-11.9949
▁حیدراباد	-11.9951
▁زرناز	-11.9951
▁نسلی	-11.9956
▁بهداشتی	-11.9957
▁ساٹ	-11.996
▁دمبر	-11.9961
▁تنیگا	-11.9961
▁لوٹیتگ	-11.9961
چاریں	-11.9962
▁سوجے	-11.9962
الے	-11.9962
▁پلگارگ	-11.9963
عد	-11.9963
زمان	-11.9964
▁اسانیں	-11.9965
روکیں	-11.9966
▁وشان	-11.9968
▁کنیت	-11.9968
▁واہد	-11.997
bi	-11.9971
▁دنگ	-11.9972
▁سازگر	-11.9972
چارمی	-11.9972
▁وشدل	-11.9973
▁بیٹا	-11.9973
▁وسیلہء	-11.9973
▁جفا	-11.9973
ہمیش	-11.9975
شھید	-11.9977
▁پھاز	-11.9977
▁قل	-11.9978
▁شریپ	-11.9978
▁درمانے	-11.9979
▁اسپیشل	-11.9982
▁possible	-11.9983
▁وانینتگ	-11.9985
جھد	-11.9986
▁کیمتی	-11.9986
▁سہمی	-11.9987
▁گھس	-11.9988
▁جنئگء	-11.9988
▁براہندگ	-11.9989
▁بچکندگے	-11.999
▁عطر	-11.9993
▁شفیقہ	-11.9994
▁موک	-11.9994
▁location	-11.9996
▁عمومدار	-11.9999
▁نیش	-12
▁ہیگل	-12
اتا	-12.0002
نپ	-12.0003
▁شھادت	-12.0004
▁گشین	-12.0004
▁مروک	-12.0007
▁جنید	-12.0012
▁مرادے	-12.0014
پدر	-12.0015
▁وروک	-12.0015
▁نویسوک	-12.0017
▁league	-12.0017
▁ھذمت	-12.0017
▁داعش	-12.0017
▁crew	-12.0017
▁جائیداد	-12.0017
راز	-12.0019
▁بامسار	-12.002
▁شھار	-12.002
▁رپکاں	-12.002
ite	-12.002
▁ہائیکو	-12.0021
▁saying	-12.0023
▁Paul	-12.0023
▁قائد	-12.0024
▁محشر	-12.0025
▁نتھا	-12.0025
▁ورئے	-12.0025
▁ھاشم	-12.0026
▁سرنامگ	-12.0026
▁اباتی	-12.0028
زمانہ	-12.0029
۔ایشی	-12.0029
▁کودک	-12.0029
▁سربار	-12.003
▁درتہ	-12.0032
دلگوش	-12.0033
▁بروس	-12.0036
▁حاموش	-12.0036
▁گوئشیت	-12.0037
▁اولا	-12.0037
رون	-12.0039
▁عطاشادء	-12.0042
▁500	-12.0043
▁دلسیاھی	-12.0043
▁رنگین	-12.0044
▁دران	-12.0045
لیب	-12.0045
پگر	-12.005
سرجم	-12.005
▁پاسپان	-12.0051
▁account	-12.0053
▁competition	-12.0053
▁material	-12.0053
▁تشریح	-12.0053
▁flood	-12.0053
▁فصیح	-12.0053
▁دیتہ	-12.0053
▁en	-12.0054
▁l	-12.0055
▁زیشان	-12.0055
▁نذیر	-12.0055
▁مکسدے	-12.0056
▁سئیمی	-12.0057
▁برھنگ	-12.006
res	-12.0061
▁جاہو	-12.0062
▁دربہ	-12.0063
▁ناسرجمیں	-12.0064
▁مرتب	-12.0065
▁لچہی	-12.0066
کنگء	-12.0066
▁نصیرء	-12.0066
الوں	-12.007
▁منکر	-12.0071
▁ھرروچ	-12.0072
▁گلشن	-12.0076
▁گوستگ۔	-12.0077
حاجی	-12.0077
▁رکینگء	-12.0077
▁کودکی	-12.008
بھی	-12.0081
ریش	-12.0082
ہال	-12.0082
▁دگء	-12.0083
زرد	-12.0084
▁رسگء	-12.0084
▁گلگل	-12.0085
بول	-12.0086
▁working	-12.0087
▁میڑھ	-12.0088
▁effort	-12.0088
▁international	-12.0088
▁ایڈووکیٹ	-12.0088
▁سنڈیمن	-12.0088
▁Richard	-12.0088
▁گدے	-12.0088
ory	-12.0089
▁مشرق	-12.0089
▁خداوند	-12.009
▁introduc	-12.009
▁whom	-12.0092
▁بووگ	-12.0094
▁کارکناں	-12.0095
▁مھکمہ	-12.0095
uick	-12.0096
▁گلوبل	-12.0097
▁گڑتی	-12.0097
▁بکر	-12.0099
▁جابر	-12.01
▁مزائیں	-12.01
▁دنزاں	-12.0107
٭	-12.0109
▁انام	-12.0109
▁دلدار	-12.011
▁پرام	-12.011
▁کھل	-12.0111
▁واپاری	-12.0112
▁تراش	-12.0117
ئتگ	-12.0121
▁سنداں	-12.0122
▁ولیعہد	-12.0125
▁تۆکا	-12.0125
▁شؤر	-12.0125
▁لینگ	-12.0126
▁بدبھتی	-12.0127
▁سوتانی	-12.0127
▁مھری	-12.0128
مہلوک	-12.0128
▁روہ	-12.0129
▁مبنی	-12.0129
ina	-12.0132
▁بئیان	-12.0134
▁استی	-12.0134
غیر	-12.0139
▁مردار	-12.0139
▁مسیتء	-12.0139
▁پرکاری	-12.0141
▁گوران	-12.0144
داب	-12.0146
▁گالوارانی	-12.0146
▁سفارت	-12.0146
▁اسرات	-12.0148
سربوتگیں	-12.0149
▁محکمی	-12.0149
▁پیراں	-12.0151
▁average	-12.0158
▁خور	-12.016
روپ	-12.016
▁Hurricane	-12.0161
▁Missouri	-12.0161
▁focus	-12.0161
▁ممبئی	-12.0161
▁poor	-12.0161
▁شرگدارے	-12.0163
▁اسپتیں	-12.0163
▁extend	-12.0163
more	-12.0164
زیت	-12.0164
قومی	-12.0164
▁وندر	-12.0165
▁شمشکار	-12.0166
▁بندروشم	-12.0167
min	-12.0169
نا۔	-12.017
▁Most	-12.0173
▁Sun	-12.0177
▁ابیل	-12.018
▁استنت	-12.0181
fore	-12.0183
▁زلپ	-12.0183
served	-12.0183
▁تاھیری	-12.0184
▁گؤن	-12.0184
▁گیچن	-12.0186
▁عکساں	-12.0187
کاگد	-12.019
▁لیکچر	-12.0194
▁appoint	-12.0194
▁مازگ	-12.0195
ana	-12.0196
▁بالغ	-12.0196
▁ظریف	-12.0197
▁2001	-12.0197
▁فروغ	-12.0198
▁رژنء	-12.0198
▁یقینی	-12.0199
▁فائر	-12.0199
▁دربی	-12.02
▁چلہ	-12.02
▁جھدکاراں	-12.0201
▁My	-12.0201
▁مہلونک	-12.0201
▁گندیت۔	-12.0203
▁گرگا	-12.0205
▁توس	-12.0205
▁گویا	-12.0209
▁بیوی	-12.0212
▁واقف	-12.0215
▁منج	-12.0217
ib	-12.0218
▁Do	-12.022
▁شرانت	-12.0221
▁کشکانی	-12.0221
واحد	-12.0222
چاہ	-12.0224
▁کساسیں	-12.0225
▁مہراب	-12.0226
اومان	-12.0226
▁لگے	-12.0226
▁درتک	-12.0228
▁مصنف	-12.0229
▁سفارش	-12.0229
▁لان	-12.0231
▁پوسٹے	-12.0232
▁مینجمنٹ	-12.0233
▁ہرنائی	-12.0234
▁لبزتکنیک	-12.0234
▁پہازگ	-12.0237
▁ریتک	-12.0238
▁سیبی	-12.0238
▁مکتبہ	-12.0238
▁بست۔	-12.0239
ze	-12.024
▁تع	-12.024
ual	-12.0242
▁سادے	-12.0242
▁کیفے	-12.0243
▁رگء	-12.0243
ذی	-12.0244
▁پتہ	-12.0245
▁افضل	-12.0247
▁زیاد	-12.0248
سلام	-12.0248
▁روڑ	-12.0249
▁کاریزکار	-12.0249
▁گنجے	-12.025
▁شپا	-12.025
▁۔مئے	-12.0254
▁بڑز	-12.0254
▁cap	-12.0254
▁نظریات	-12.0255
▁سستی	-12.0256
نظر	-12.0256
▁ساتھی	-12.0258
▁نندگی	-12.026
▁شھرے	-12.0262
▁یاں۔	-12.0264
▁هرچی	-12.0264
رجانکار	-12.0266
▁ہائوس	-12.027
▁دب	-12.0272
▁پیشتر	-12.0274
▁واش	-12.0274
▁ہیالء	-12.0275
▁احتجاج	-12.0275
▁ساب	-12.0275
▁دج	-12.0276
▁Am	-12.0276
▁ملایانی	-12.0276
▁اڑء	-12.0276
▁راہشون	-12.0278
▁مصرء	-12.0279
ster	-12.0279
▁میوہ	-12.028
led	-12.0281
▁پریم	-12.0281
▁شھزانت	-12.0283
▁ندکاراں	-12.0285
92	-12.0287
▁زیمرء	-12.0289
up	-12.0289
▁روبرکت	-12.0289
▁ٹویٹر	-12.029
ایرانی	-12.0291
▁اہدء	-12.0292
▁نوح	-12.0294
▁پروشیں	-12.0294
▁اتکنت	-12.0296
اط	-12.0298
▁اگاہی	-12.0298
▁ھلی	-12.0298
واک	-12.0298
▁همود	-12.0299
▁نوار	-12.0301
▁Cr	-12.0301
▁ساھب	-12.0301
▁شیڈول	-12.0303
ations	-12.0303
تھی	-12.0303
وریں	-12.0303
▁گوشدارگء	-12.0303
زادہ	-12.0306
▁پیچیدہ	-12.0307
▁یزید	-12.0307
▁سلحہ	-12.0307
▁ابرار	-12.0308
▁بیپار	-12.0308
▁کوٹگ	-12.0309
▁کینیڈا	-12.031
▁جکس	-12.0312
▁وژن	-12.0312
▁زلوری	-12.0314
▁مرہ	-12.0316
▁ڪار	-12.0316
▁نکرت	-12.032
▁امریکن	-12.032
▁درزی	-12.0324
▁ھمساھگیں	-12.0324
▁اقرار	-12.0324
قہ	-12.0324
▁موسمیات	-12.0327
▁لاپتہ	-12.033
▁کہدا	-12.0331
▁دپتری	-12.0333
▁زانتانی	-12.0335
▁Dr	-12.0336
▁ہاکمی	-12.0337
▁احتنت	-12.0338
▁زپت	-12.0341
▁special	-12.0341
▁گراؤنڈ	-12.0343
▁فرنٹیئر	-12.0344
▁فائل	-12.0344
▁ضامن	-12.0344
▁منیگ	-12.0344
▁برامدات	-12.0346
ڈگار	-12.0348
▁کوکب	-12.0349
▁تمثیل	-12.035
ai	-12.035
▁سفید	-12.0351
▁plann	-12.0351
▁خوشی	-12.0353
▁یافتہ	-12.0353
▁کؤش	-12.0355
▁مناک	-12.0357
▁سلامتیں	-12.0358
عن	-12.0358
▁بیٹے	-12.0359
▁گوپگ	-12.0359
▁بیت۔من	-12.0362
▁گیجیت	-12.0363
▁تلوسگ	-12.0367
▁seem	-12.0367
▁تف	-12.0368
▁گٹے	-12.0369
▁بازیابی	-12.037
▁روزرد	-12.0371
▁ترنج	-12.0375
لیکن	-12.0378
▁بگوشیت	-12.0379
▁اردشیر	-12.038
▁ماہکان	-12.0381
▁دارالعلوم	-12.0381
▁گریہان	-12.0384
▁پیوند	-12.0385
▁Ke	-12.0386
▁وھاب	-12.0387
▁عبدالغفور	-12.0388
▁مردماناں	-12.0388
▁راستین	-12.0391
86	-12.0391
▁امران	-12.0391
▁مامل	-12.0394
▁پذا	-12.0395
▁رھبر	-12.0397
درستیں	-12.0397
▁زل	-12.0398
▁ہسابء	-12.0399
▁بیدل	-12.0399
▁تسلی	-12.04
فو	-12.04
▁لچہے	-12.04
▁چشم	-12.0401
▁زندئ	-12.0402
▁انبار	-12.0403
ture	-12.0403
▁نندئے	-12.0403
▁روتگاں	-12.0404
▁سالانہ	-12.0405
▁هلک	-12.0406
▁کستء	-12.0407
mer	-12.0408
واجه	-12.0411
▁approach	-12.0411
▁producer	-12.0411
ہت	-12.0413
▁مھران	-12.0413
▁ادبء	-12.0413
▁دبستان	-12.0415
▁زھیرانی	-12.0416
▁سارے	-12.0416
▁magazine	-12.0417
▁stay	-12.0417
▁نگہداشت	-12.0417
▁football	-12.0417
▁مرشد	-12.0418
▁وسعت	-12.0418
.(	-12.0419
▁سکت	-12.0419
▁زیتون	-12.0422
▁نامگ	-12.0424
قول	-12.0424
▁خیالی	-12.0425
▁چکاریں	-12.0429
▁کارامد	-12.0429
ble	-12.043
▁اماچی	-12.043
▁سرگردان	-12.0431
▁سرکشی	-12.0434
ba	-12.0434
نب	-12.0436
▁کبلہ	-12.0436
وڑا	-12.0436
▁...............	-12.0437
▁تپد	-12.0438
وشیں	-12.0438
▁کوشی	-12.0441
▁زوراکانی	-12.0441
▁ہمیرنگ	-12.0442
زاد	-12.0444
▁جنجالی	-12.0445
▁نیتک	-12.0446
▁arriv	-12.0447
▁اگاھی	-12.0448
رژن	-12.0448
▁دراتک۔	-12.0449
▁پورس	-12.0451
▁تھرے	-12.0452
▁اروچ	-12.0452
▁Great	-12.0454
▁learn	-12.0454
▁بگندیت	-12.0454
▁بالیگراب	-12.0454
▁عھد	-12.0455
▁cause	-12.0455
ارک	-12.0455
▁اعتماد	-12.0456
▁امتیاز	-12.0457
▁اوگار	-12.0457
▁لقا	-12.0461
▁لوگا	-12.0461
▁ہوشاپ	-12.0462
▁بھادر	-12.0463
▁لاس	-12.0464
▁زرتء	-12.0465
بیں	-12.0465
▁دوستر	-12.0466
▁رئوگ	-12.0466
▁تامرانی	-12.0467
▁station	-12.0468
▁اڑان	-12.0468
▁مردینے	-12.0469
▁بوجی	-12.047
▁ناپگ	-12.0471
کڑ	-12.0472
بدی	-12.0472
▁سہرء	-12.0474
اشاں	-12.0475
▁پساں	-12.0476
▁نمادار	-12.0477
نصیر	-12.0477
▁قدرء	-12.048
زوت	-12.0481
▁کرپاس	-12.0481
▁ہمگرنچی	-12.0482
98	-12.0482
▁رۆچا	-12.0483
▁گندہ	-12.0484
▁voice	-12.0487
▁جمی	-12.0488
▁رجانکء	-12.0489
سٹل	-12.0489
▁گرماگی	-12.049
▁وک	-12.049
▁First	-12.0491
▁availab	-12.0491
▁بیوروکریسی	-12.0491
▁horse	-12.0491
▁سپلائی	-12.0491
▁لامحدود	-12.0491
▁سیٹلائٹ	-12.0491
▁flight	-12.0492
▁شہادت	-12.0493
▁شتیں۔	-12.0494
▁Best	-12.0497
▁کلانیں	-12.0498
▁ترپگ	-12.0498
▁نقاد	-12.0499
▁چاند	-12.0502
ہرچی	-12.0503
▁محاورہ	-12.0505
▁دراھ	-12.0505
▁leave	-12.0505
▁دیماارگ	-12.0506
▁law	-12.0506
▁اگدھ	-12.0508
▁."	-12.0509
▁شاھرگ	-12.0514
زیب	-12.0517
امریکہ	-12.0518
▁رانا	-12.0519
▁ولیم	-12.052
تاکبند	-12.0521
▁مارک	-12.0521
▁بازانت	-12.0522
▁سرخ	-12.0525
▁سورو	-12.0526
▁جاوران	-12.0527
▁دستاویز	-12.0527
▁اشترے	-12.0528
▁فخر	-12.0528
پھر	-12.0529
▁decision	-12.0529
▁condition	-12.0529
▁لن	-12.0529
▁جنء	-12.0529
▁1970	-12.0529
▁سربتگ	-12.053
▁شیدائی	-12.053
▁بچگ	-12.0535
▁ھدوناکی	-12.0538
یئر	-12.0539
▁بورخیس	-12.0539
uck	-12.0539
▁چڑکہ	-12.0541
یاکہ	-12.0542
▁سامراجی	-12.0543
▁ندکارے	-12.0545
cr	-12.0545
▁شرد	-12.0546
▁ماھیں	-12.0547
▁winds	-12.0547
▁کائینت	-12.0548
▁براہوی	-12.0551
ازمان	-12.0557
▁مردا	-12.0557
▁بوسگ	-12.0557
ازی	-12.0558
بشیر	-12.056
▁ٹام	-12.0562
▁چنکے	-12.0562
وٹی	-12.0563
▁محمدخان	-12.0566
▁چودھری	-12.0566
▁دیمھونی	-12.0567
▁براھیم	-12.0567
▁برادر	-12.0567
▁Jack	-12.0567
▁think	-12.0568
▁شیئری	-12.0569
▁کوٹیانی	-12.0571
انو	-12.0572
▁چنکہ	-12.0572
زک	-12.0573
▁رسترانی	-12.0575
▁پاروک	-12.0576
▁راستیاں	-12.0577
▁But	-12.0577
▁کئوم	-12.0579
▁حسابا	-12.0581
اکر	-12.0582
▁درنج	-12.0584
اڑی	-12.0585
▁گروکیں	-12.0589
قد	-12.059
▁پمیش	-12.0592
کشت	-12.0592
▁ایسٹ	-12.0592
▁شھزانتی	-12.0593
▁دراصل	-12.0593
▁مظلوم	-12.0596
ade	-12.0597
به	-12.06
uence	-12.0601
▁بائدیں	-12.0602
▁construct	-12.0603
▁چاراہ	-12.0603
▁above	-12.0604
▁نادیہ	-12.0605
▁past	-12.0606
▁لائی	-12.0608
▁جغرافیہ	-12.0608
ide	-12.061
▁نندے	-12.061
▁کشے	-12.0612
▁وانند	-12.0613
▁کوس	-12.0613
▁نشک	-12.0614
▁ٹاس	-12.0615
وئے	-12.0616
8	-12.0617
▁حقیں	-12.0618
▁دلیریں	-12.0621
▁مدیر	-12.0623
▁پریب	-12.0624
▁منفی	-12.0627
▁باسکی	-12.0628
ru	-12.0628
یتگیں	-12.0629
خو	-12.0629
▁گمبد	-12.0635
▁گیاب	-12.0637
▁چہار	-12.0637
▁رسگا	-12.0637
▁فساد	-12.0637
▁دروشمی	-12.0638
▁حلب	-12.0638
▁پؤج	-12.064
▁پونزء	-12.0641
▁نظرہیہ	-12.0642
▁کانپریس	-12.0642
▁لهتیں	-12.0643
▁بیگار	-12.0643
▁استانے	-12.0645
▁Hill	-12.0647
▁بکنئے	-12.0647
▁نندء	-12.0647
▁درخت	-12.0652
▁ویتنام	-12.0654
▁قصہاں	-12.0654
کٹر	-12.0654
▁نلی	-12.0655
▁نویستگ	-12.0655
▁اھوالکاری	-12.0656
▁سنیانلاین	-12.0658
▁ایرجتگ	-12.0658
▁Go	-12.0662
▁پئوج	-12.0663
▁ژپ	-12.0668
▁صفتء	-12.0669
اہم	-12.0669
▁گوازینان	-12.0669
▁نکشہ	-12.0671
▁الک	-12.0671
▁بخشش	-12.0672
▁تخلیقات	-12.0673
▁زادہ	-12.0676
▁برش	-12.0677
▁ھمکوپگ	-12.0678
▁Du	-12.0678
▁capital	-12.068
▁positive	-12.068
▁اقدار	-12.068
ub	-12.068
▁خطر	-12.068
▁٭٭٭٭	-12.0681
▁اکبال	-12.0681
نار	-12.0681
ائینتگ	-12.0682
▁soon	-12.0682
▁زیمی	-12.0684
▁شوانگے	-12.0684
▁وتسر	-12.0685
براس	-12.0685
ota	-12.0686
▁متل	-12.0686
▁جێڑه	-12.0687
▁یتک	-12.0688
▁ماہیں	-12.0688
ذات	-12.0691
▁کسمانکی	-12.0691
▁بھیر	-12.0692
▁امدام	-12.0696
▁ہورکیں	-12.0696
کشک	-12.0696
▁گوستہ	-12.0696
▁بیسہی	-12.0696
per	-12.0697
بگیری	-12.07
▁جوسک	-12.0701
شود	-12.0702
▁اشرپ	-12.0703
..........	-12.0703
▁نیائے	-12.0708
▁انتہا	-12.0709
▁امینی	-12.071
▁جھدکارانی	-12.071
▁ھز	-12.0714
▁دوہیں	-12.0715
▁نبنت	-12.0716
▁اڈہ	-12.0717
▁office	-12.0718
▁studio	-12.0718
▁اسٹریٹجک	-12.0718
▁business	-12.0718
له	-12.0718
▁جاھ	-12.0721
▁سیمینار	-12.0721
▁لوہار	-12.0722
ٹین	-12.0722
▁ہمراہداری	-12.0723
صبا	-12.0724
▁Sea	-12.0725
▁estimat	-12.0725
▁اھت۔	-12.0725
▁گزین	-12.0726
سز	-12.0727
▁کلر	-12.0727
▁هچبر	-12.0727
▁جیمز	-12.0728
▁leg	-12.0731
▁سہیں	-12.0734
▁ھنکینی	-12.0734
▁بارکان	-12.0735
▁ڈولین	-12.0735
▁بیرہ	-12.0736
▁جنزیت	-12.0737
▁پراھی	-12.0741
سروک	-12.0741
▁کندگء	-12.0743
رواں	-12.0743
▁پندلانی	-12.0744
▁دریائے	-12.0745
▁ماڑیانی	-12.0746
▁زیادتی	-12.0749
he	-12.075
▁دریگاں	-12.075
▁گرابانی	-12.075
لوک	-12.0752
▁گوازینگی	-12.0754
▁Africa	-12.0755
▁maintain	-12.0757
▁interview	-12.0757
▁بندانت	-12.0757
▁ثبت	-12.0757
▁یکتا	-12.0757
عہ	-12.0757
▁قلمی	-12.0757
▁نازانتی	-12.0758
▁سوریا	-12.0759
▁deal	-12.0759
شیں	-12.0759
▁لوذ	-12.076
▁tree	-12.0761
▁وڑوڑیں	-12.0762
▁چنچک	-12.0763
▁ہماہانی	-12.0766
▁گھشی	-12.0766
▁ربیدگاں	-12.0767
▁سرکل	-12.0768
▁ھگم	-12.0769
▁بوتگت	-12.077
▁must	-12.0775
▁مسیتے	-12.0776
▁ٹاہینگ	-12.0777
▁الگار	-12.0778
▁ہید	-12.0779
▁پراھیں	-12.078
باب	-12.0782
▁شہزاد	-12.0782
▁سارا	-12.0783
بکنت	-12.0783
▁ڪش	-12.0785
تنت۔	-12.0785
▁مروچ	-12.0786
▁شیرو	-12.0788
▁کندگاں	-12.0788
▁say	-12.0788
▁مھراں	-12.0788
▁ٹریکٹر	-12.0791
الاں	-12.0791
▁شہریانی	-12.0792
▁زبانئ	-12.0792
▁دئیے	-12.0793
▁زالمیں	-12.0794
▁جھگیر	-12.0795
▁ہمیشاں	-12.0795
▁Canada	-12.0795
چراگ	-12.0795
▁letter	-12.0795
▁پلسپہ	-12.0796
▁رجحان	-12.0796
▁تکرار	-12.0797
ادگہ	-12.0797
▁الوت	-12.0798
گشیت	-12.0798
▁مسلسل	-12.08
▁نکرتگ	-12.08
▁نوشی	-12.0801
▁کعبہ	-12.0801
ps	-12.0802
▁استالے	-12.0806
▁پارٹیاں	-12.0808
▁گویاک	-12.0808
▁زورگی	-12.0809
▁تھری	-12.0809
▁اڑزان	-12.081
▁بیکار	-12.0811
oc	-12.0811
▁سالگیں	-12.0812
▁پکائی	-12.0813
▁چاہے	-12.0814
▁حرکتء	-12.0816
▁stor	-12.0817
▁مینگلء	-12.0817
کاہ	-12.0817
▁کاریانی	-12.0819
جاھاں	-12.0823
▁ہفتگ	-12.0824
▁پیگور	-12.0828
▁دراهیں	-12.0833
▁President	-12.0834
▁Brown	-12.0834
▁ڈپریشن	-12.0834
▁معاشرے	-12.0834
▁فزکس	-12.0837
وران	-12.0838
▁ریچی	-12.0839
▁طورپر	-12.084
▁India	-12.0841
▁چاڑی	-12.0845
▁دئے۔	-12.0845
▁نادراہانی	-12.0847
▁گردینت	-12.0847
▁رجانکانی	-12.0847
▁اچانک	-12.0848
▁دگنیاء	-12.0848
▁۔ہمیش	-12.085
ائنت	-12.0853
▁چارٹر	-12.0854
بریں	-12.0855
▁2000	-12.0856
▁سھتے	-12.086
▁نھنگ	-12.0861
▁ناکامی	-12.0861
▁دروتے	-12.0862
town	-12.0863
▁چرائیء	-12.0863
▁زوراوری	-12.0863
▁میرچاکر	-12.0863
▁کوشء	-12.0865
▁عیسیٰء	-12.0867
▁نریان	-12.0871
▁Air	-12.0872
▁Henry	-12.0872
▁ساؤتھ	-12.0872
▁تیرء	-12.0873
▁اوپر	-12.0873
▁فراموش	-12.0873
▁ذہنیت	-12.0874
▁جھالاوان	-12.0875
▁تکمیل	-12.0875
▁مشان	-12.0875
▁مریں	-12.0876
▁نسخہ	-12.0877
▁سیاھگء	-12.0877
▁مون	-12.0877
یسی	-12.0877
▁ذر	-12.0879
▁نمازی	-12.088
tlantic	-12.0881
▁پرائیوٹ	-12.0882
▁پریشتگ	-12.0882
▁پیرجان	-12.0883
▁موٹ	-12.0884
▁cut	-12.0885
▁ویرانی	-12.0886
ینگء	-12.0887
▁بحال	-12.0889
▁لگوشت	-12.0889
▁پندلاں	-12.0891
▁پیپر	-12.0891
یلا	-12.0891
الوجی	-12.0892
▁تنء	-12.0892
▁referr	-12.0893
▁استادء	-12.0894
▁همدا	-12.0895
▁king	-12.0898
▁عرش	-12.0899
نیام	-12.09
▁کہبگ	-12.0902
▁موسا	-12.0902
شاعرء	-12.0904
اشک	-12.0904
▁پربندانی	-12.0904
افی	-12.0905
▁شائ	-12.0907
تنقید	-12.091
▁machine	-12.0911
▁transport	-12.0911
uadron	-12.0911
▁درمحمد	-12.0912
▁سجهێں	-12.0913
▁نشتیں	-12.0913
▁ریسگ	-12.0914
▁درکت	-12.0914
▁سریچ	-12.0914
▁کلیات	-12.0916
▁وقار	-12.0917
▁خلیفہ	-12.0917
▁ارواھ	-12.0918
▁سائنسء	-12.092
▁شیواری	-12.0925
▁حرپ	-12.0926
▁لڑائی	-12.0926
▁پیام	-12.0926
▁la	-12.0927
▁زاھری	-12.0928
▁تنیگت	-12.0928
▁اھو	-12.093
▁ٹارچر	-12.0931
ہیر	-12.0934
▁دراھت	-12.0939
▁Hall	-12.0939
mon	-12.094
گشئے	-12.094
عزت	-12.094
▁کنوکین	-12.0941
دشت	-12.0941
[...]
