<pad>	0
<unk>	0
<s>	0
</s>	0
[CLS]	0
[SEP]	0
[MASK]	0
<0x00>	0
<0x01>	0
<0x02>	0
<0x03>	0
<0x04>	0
<0x05>	0
<0x06>	0
<0x07>	0
<0x08>	0
<0x09>	0
<0x0A>	0
<0x0B>	0
<0x0C>	0
<0x0D>	0
<0x0E>	0
<0x0F>	0
<0x10>	0
<0x11>	0
<0x12>	0
<0x13>	0
<0x14>	0
<0x15>	0
<0x16>	0
<0x17>	0
<0x18>	0
<0x19>	0
<0x1A>	0
<0x1B>	0
<0x1C>	0
<0x1D>	0
<0x1E>	0
<0x1F>	0
<0x20>	0
<0x21>	0
<0x22>	0
<0x23>	0
<0x24>	0
<0x25>	0
<0x26>	0
<0x27>	0
<0x28>	0
<0x29>	0
<0x2A>	0
<0x2B>	0
<0x2C>	0
<0x2D>	0
<0x2E>	0
<0x2F>	0
<0x30>	0
<0x31>	0
<0x32>	0
<0x33>	0
<0x34>	0
<0x35>	0
<0x36>	0
<0x37>	0
<0x38>	0
<0x39>	0
<0x3A>	0
<0x3B>	0
<0x3C>	0
<0x3D>	0
<0x3E>	0
<0x3F>	0
<0x40>	0
<0x41>	0
<0x42>	0
<0x43>	0
<0x44>	0
<0x45>	0
<0x46>	0
<0x47>	0
<0x48>	0
<0x49>	0
<0x4A>	0
<0x4B>	0
<0x4C>	0
<0x4D>	0
<0x4E>	0
<0x4F>	0
<0x50>	0
<0x51>	0
<0x52>	0
<0x53>	0
<0x54>	0
<0x55>	0
<0x56>	0
<0x57>	0
<0x58>	0
<0x59>	0
<0x5A>	0
<0x5B>	0
<0x5C>	0
<0x5D>	0
<0x5E>	0
<0x5F>	0
<0x60>	0
<0x61>	0
<0x62>	0
<0x63>	0
<0x64>	0
<0x65>	0
<0x66>	0
<0x67>	0
<0x68>	0
<0x69>	0
<0x6A>	0
<0x6B>	0
<0x6C>	0
<0x6D>	0
<0x6E>	0
<0x6F>	0
<0x70>	0
<0x71>	0
<0x72>	0
<0x73>	0
<0x74>	0
<0x75>	0
<0x76>	0
<0x77>	0
<0x78>	0
<0x79>	0
<0x7A>	0
<0x7B>	0
<0x7C>	0
<0x7D>	0
<0x7E>	0
<0x7F>	0
<0x80>	0
<0x81>	0
<0x82>	0
<0x83>	0
<0x84>	0
<0x85>	0
<0x86>	0
<0x87>	0
<0x88>	0
<0x89>	0
<0x8A>	0
<0x8B>	0
<0x8C>	0
<0x8D>	0
<0x8E>	0
<0x8F>	0
<0x90>	0
<0x91>	0
<0x92>	0
<0x93>	0
<0x94>	0
<0x95>	0
<0x96>	0
<0x97>	0
<0x98>	0
<0x99>	0
<0x9A>	0
<0x9B>	0
<0x9C>	0
<0x9D>	0
<0x9E>	0
<0x9F>	0
<0xA0>	0
<0xA1>	0
<0xA2>	0
<0xA3>	0
<0xA4>	0
<0xA5>	0
<0xA6>	0
<0xA7>	0
<0xA8>	0
<0xA9>	0
<0xAA>	0
<0xAB>	0
<0xAC>	0
<0xAD>	0
<0xAE>	0
<0xAF>	0
<0xB0>	0
<0xB1>	0
<0xB2>	0
<0xB3>	0
<0xB4>	0
<0xB5>	0
<0xB6>	0
<0xB7>	0
<0xB8>	0
<0xB9>	0
<0xBA>	0
<0xBB>	0
<0xBC>	0
<0xBD>	0
<0xBE>	0
<0xBF>	0
<0xC0>	0
<0xC1>	0
<0xC2>	0
<0xC3>	0
<0xC4>	0
<0xC5>	0
<0xC6>	0
<0xC7>	0
<0xC8>	0
<0xC9>	0
<0xCA>	0
<0xCB>	0
<0xCC>	0
<0xCD>	0
<0xCE>	0
<0xCF>	0
<0xD0>	0
<0xD1>	0
<0xD2>	0
<0xD3>	0
<0xD4>	0
<0xD5>	0
<0xD6>	0
<0xD7>	0
<0xD8>	0
<0xD9>	0
<0xDA>	0
<0xDB>	0
<0xDC>	0
<0xDD>	0
<0xDE>	0
<0xDF>	0
<0xE0>	0
<0xE1>	0
<0xE2>	0
<0xE3>	0
<0xE4>	0
<0xE5>	0
<0xE6>	0
<0xE7>	0
<0xE8>	0
<0xE9>	0
<0xEA>	0
<0xEB>	0
<0xEC>	0
<0xED>	0
<0xEE>	0
<0xEF>	0
<0xF0>	0
<0xF1>	0
<0xF2>	0
<0xF3>	0
<0xF4>	0
<0xF5>	0
<0xF6>	0
<0xF7>	0
<0xF8>	0
<0xF9>	0
<0xFA>	0
<0xFB>	0
<0xFC>	0
<0xFD>	0
<0xFE>	0
<0xFF>	0
▁ءَ	-3.00503
▁ءِ	-3.33173
▁ءُ	-3.60322
▁کہ	-4.0441
▁انت	-4.1437
,	-4.29465
▁ء	-4.70666
▁اے	-4.7679
▁ات	-4.87856
▁,	-4.91306
▁نہ	-4.95093
▁وتی	-4.99464
▁چہ	-5.09974
▁۔	-5.22672
▁من	-5.22961
▁یک	-5.28086
▁	-5.28312
▁ائی	-5.28396
▁ا	-5.39724
▁انت۔	-5.40055
▁بیت	-5.42543
▁گوں	-5.47702
▁کنگ	-5.48176
▁پہ	-5.52346
▁بہ	-5.52411
▁و	-5.56133
▁(	-5.59143
▁:	-5.61484
ءِ	-5.74201
▁سر	-5.80074
▁بلوچ	-5.80945
▁بوتگ	-5.81092
انی	-5.82125
▁)	-5.88258
▁.	-5.89957
▁the	-5.92863
▁بلے	-5.96599
یں	-5.99227
▁منی	-5.99817
▁ئے	-6.00484
ءَ	-6.02515
s	-6.02736
▁کنت	-6.07146
▁ھم	-6.1052
اں	-6.11287
▁تو	-6.11526
▁کتگ	-6.1185
▁بوت	-6.13893
۔	-6.16293
▁بیتگ	-6.19831
)	-6.21963
▁بے	-6.22482
▁مردم	-6.23952
:	-6.24742
▁ئ	-6.24884
.	-6.2492
▁کن	-6.25228
▁بلوچستان	-6.26496
▁ما	-6.30528
ے	-6.32852
▁تہ	-6.36648
▁تہا	-6.36706
▁ھمے	-6.37314
▁دیم	-6.38094
▁یا	-6.40976
ed	-6.42571
▁"	-6.42957
▁بلوچی	-6.44096
ءُ	-6.44768
▁پد	-6.44866
▁کت	-6.45164
ی	-6.4525
▁کار	-6.45503
▁مئے	-6.46285
▁دگہ	-6.46394
▁گپ	-6.50986
▁’’	-6.53054
▁ہم	-6.53228
▁ات۔	-6.55293
▁وت	-6.57435
▁گڑا	-6.59363
▁تئی	-6.60126
▁روچ	-6.60516
▁سرا	-6.65097
▁of	-6.65429
▁دو	-6.6724
▁دل	-6.67843
▁کے	-6.72091
▁نام	-6.73485
▁رد	-6.73858
▁ایت	-6.75553
▁and	-6.77141
▁بنت	-6.78249
▁کرتگ	-6.78279
▁جنگ	-6.78429
▁پدا	-6.78745
▁زبان	-6.79907
▁بیت۔	-6.80856
ا	-6.81698
?	-6.82099
▁ھما	-6.826
▁اگاں	-6.84017
▁باز	-6.84507
▁گوشتگ	-6.85519
▁بازیں	-6.85804
▁را	-6.87056
‘‘	-6.87512
▁ہمے	-6.88692
▁ہما	-6.89396
▁ایشی	-6.90016
▁بی	-6.91015
▁چو	-6.91562
▁سے	-6.92459
▁دست	-6.93576
▁اں	-6.94025
▁لوٹ	-6.94757
▁یے	-6.95171
▁ماں	-6.95185
▁پر	-6.95627
▁in	-6.98542
▁کی	-6.98582
▁to	-6.9918
▁مردمانی	-7.01321
▁تہءَ	-7.02315
▁نیمگ	-7.04301
▁میں	-7.04418
▁مہ	-7.04815
▁پاکستانی	-7.07021
▁ایں	-7.07287
▁a	-7.07361
▁چے	-7.07921
▁زند	-7.11463
▁ھال	-7.11845
▁جوڑ	-7.11978
▁در	-7.12264
▁دومی	-7.12671
(	-7.12788
▁کرت	-7.12865
▁نبشتہ	-7.13379
▁زانت	-7.14594
▁مزنیں	-7.1546
▁وھد	-7.15716
▁دیگ	-7.16524
▁‘‘	-7.1653
▁اور	-7.16578
▁پوج	-7.17087
▁ترا	-7.17152
▁واجہ	-7.1769
▁نوں	-7.17859
▁سک	-7.18386
▁که	-7.18599
...	-7.19249
▁دور	-7.20517
▁اس	-7.21135
▁داتگ	-7.22548
!	-7.2272
▁پیش	-7.23726
▁دات	-7.23962
▁گل	-7.24081
▁خان	-7.25258
▁رند	-7.25297
▁چار	-7.25607
▁بند	-7.25925
▁مردماں	-7.2858
▁ہر	-7.28629
ing	-7.29083
▁ھچ	-7.29545
▁رنگ	-7.29779
▁کنت۔	-7.29836
▁گیش	-7.29953
▁￴	-7.30198
▁=	-7.30477
▁نوکیں	-7.30829
▁دمگ	-7.31094
▁زانگ	-7.31525
▁شنگ	-7.32505
▁ایر	-7.33267
▁شپ	-7.33503
▁داں	-7.33553
▁ارش	-7.34011
▁سال	-7.34348
▁جان	-7.3578
▁ھر	-7.36399
▁گوشت	-7.36511
▁کنان	-7.36676
▁مارا	-7.36712
▁اللہ	-7.37005
▁کتاب	-7.37697
▁کس	-7.38746
▁جست	-7.39081
ن	-7.41538
▁اپ	-7.41708
▁نیست	-7.41863
▁کا	-7.42782
▁راج	-7.42841
▁بوتگ۔	-7.43341
▁جاہ	-7.4381
ہ	-7.4428
▁ہے	-7.44623
▁اوار	-7.45366
▁ایش	-7.46159
▁راہ	-7.4624
”	-7.47128
▁گوش	-7.47137
▁اش	-7.47142
ئے	-7.47482
▁میر	-7.48421
’’	-7.48478
▁ایانی	-7.4882
▁وش	-7.48833
▁گیشتر	-7.48995
▁گوشگ	-7.49136
▁ھوار	-7.49308
▁سرءَ	-7.49505
▁دنیا	-7.50737
▁لوگ	-7.50805
▁”	-7.50938
▁لشکر	-7.51183
y	-7.5133
▁کم	-7.53473
▁اتگ	-7.53561
▁اوں	-7.54536
▁توار	-7.54852
▁اولی	-7.5515
▁'	-7.5588
▁وھدے	-7.57097
"	-7.57818
▁گندگ	-7.5927
▁سی	-7.59397
▁وڑ	-7.59534
▁کو	-7.59607
▁مان	-7.60013
▁گوستگیں	-7.60082
▁بیگواہ	-7.60197
▁یکے	-7.60248
▁“	-7.60607
▁او	-7.60998
▁جتگ	-7.61331
▁ائیءِ	-7.61668
▁بزاں	-7.6361
ء	-7.64508
▁was	-7.6482
▁بوگ	-7.64965
▁چک	-7.65555
▁وڑیں	-7.6602
▁دوست	-7.66476
▁کش	-7.66777
▁گشت	-7.67168
▁گشتگ	-7.67219
▁بلئے	-7.6735
▁لبزانک	-7.67651
▁پاکستان	-7.68086
▁بلکیں	-7.68091
▁بس	-7.68468
@	-7.6899
▁دار	-7.69476
▁چیزے	-7.69618
▁برجاہ	-7.69749
▁@	-7.70001
▁ماہ	-7.7121
▁چم	-7.71489
▁مردمے	-7.71821
▁دیما	-7.72232
▁درشان	-7.7233
▁ھست	-7.72358
▁گون	-7.72814
▁اچ	-7.73539
▁ابید	-7.73729
▁مروچی	-7.74403
▁اتکگ	-7.74997
▁چیز	-7.7511
▁وانگ	-7.75428
▁محمد	-7.75645
▁گ	-7.76313
▁پشت	-7.76532
▁کسے	-7.76643
▁شاعری	-7.76943
▁زور	-7.76952
▁ائیءَ	-7.78359
▁زمین	-7.78601
▁بیتگیں	-7.78761
▁چشکہ	-7.78843
▁The	-7.79003
▁￵	-7.7931
▁ائرا	-7.7962
▁منا	-7.80036
▁شال	-7.80263
▁سرجمیں	-7.80505
▁بن	-7.80809
▁بندات	-7.81327
▁بیران	-7.81358
▁ازمانک	-7.81606
▁سرپد	-7.82019
▁بدل	-7.82196
▁راجی	-7.8261
▁اتک	-7.82697
▁دنت	-7.82865
▁زھرشانی	-7.83013
▁مدام	-7.83089
▁اتنت	-7.83242
▁ملک	-7.83529
▁سوب	-7.83731
-	-7.83994
ان	-7.8459
▁مرچی	-7.84608
▁مزن	-7.84752
▁مراد	-7.8477
▁انگت	-7.84842
▁ڈاکٹر	-7.85091
▁مات	-7.8515
▁چست	-7.85449
▁کناں	-7.86351
▁دارگ	-7.86567
▁[...]	-7.86734
▁برے	-7.86951
وں	-7.86974
▁انچیں	-7.87154
▁ھیال	-7.87272
▁سیاسی	-7.87314
▁ان	-7.8829
▁بنت۔	-7.88376
▁میان	-7.8862
▁نے	-7.89178
▁انسان	-7.89339
▁کر	-7.8954
▁دیوان	-7.90303
▁پچ	-7.90689
▁ہچ	-7.90713
▁تاں	-7.90806
▁واب	-7.90894
اے	-7.91057
▁کپتگ	-7.91214
▁کدی	-7.91288
▁کشگ	-7.91648
▁حیال	-7.91907
ly	-7.92052
▁شر	-7.92084
▁پاد	-7.92242
▁انچو	-7.92381
▁بوت۔	-7.92501
▁دی	-7.92512
▁ئیں	-7.92566
▁بوتگیں	-7.92904
▁تر	-7.93103
ئ	-7.9356
▁این	-7.93864
▁ن	-7.9434
▁کسہ	-7.95217
▁ادا	-7.95775
▁کجام	-7.95957
▁است	-7.96352
▁رجانک	-7.96413
▁سلاہ	-7.96703
▁مرد	-7.96905
▁شما	-7.97071
▁پی	-7.97087
▁ایاں	-7.97762
▁سبب	-7.99482
▁بہر	-7.99569
▁پٹ	-7.99686
▁دروشم	-7.99988
▁پرچا	-8.00434
▁کمک	-8.00601
▁شت	-8.0062
▁کراچی	-8.01465
▁جتائیں	-8.01524
▁پت	-8.01538
ں	-8.0158
من	-8.03043
‘	-8.03057
▁جتا	-8.03511
▁زر	-8.03512
▁جارکش	-8.03698
ت	-8.04194
▁پولیس	-8.04338
▁چی	-8.04429
▁جند	-8.04596
▁that	-8.04686
▁سرجم	-8.05128
▁گڈا	-8.05404
▁ایشانی	-8.05507
▁as	-8.05775
▁چه	-8.05853
▁with	-8.06274
▁اباد	-8.0638
▁ملا	-8.06428
▁on	-8.06693
▁دپ	-8.07048
▁ایوک	-8.07439
▁یل	-8.0795
▁گور	-8.08325
نگ	-8.08573
▁حال	-8.08671
▁تران	-8.09227
▁for	-8.09281
▁گار	-8.09687
▁گاڑی	-8.10279
▁اجوئی	-8.10297
▁پنچ	-8.10328
▁?	-8.10385
▁کجا	-8.104
▁مرگ	-8.10411
▁بابت	-8.10568
▁چاگرد	-8.10675
▁برتگ	-8.12773
▁کتگ۔	-8.12835
▁کیچ	-8.14133
▁واستا	-8.14469
▁پیسر	-8.14531
▁بیان	-8.14754
▁نزیک	-8.14845
▁انسانی	-8.15008
▁کرتگ۔	-8.1512
▁شھر	-8.15124
▁دراھیں	-8.15841
▁ایل	-8.15996
▁بھر	-8.17506
▁کت۔	-8.17851
▁بیگ	-8.18334
▁ایک	-8.18437
▁اتاں	-8.18505
▁اسر	-8.18697
▁راست	-8.18849
▁بر	-8.19167
▁by	-8.19684
کہ	-8.19895
▁پوسٹ	-8.19913
▁زندگ	-8.20107
▁شاہ	-8.20251
▁چیر	-8.21347
▁وہد	-8.21551
▁جنین	-8.21557
▁جھد	-8.2157
▁جت	-8.21856
▁لیکہ	-8.21914
▁!	-8.21918
▁کپ	-8.22054
▁ترس	-8.22235
▁میتگ	-8.22315
▁کارمرز	-8.22471
▁زندگی	-8.22784
▁گشگ	-8.22881
▁ودی	-8.23173
▁الم	-8.23252
▁چریشی	-8.23624
▁is	-8.23628
▁بیست	-8.23809
▁سید	-8.2382
▁سنگت	-8.24185
ین	-8.24463
▁روگ	-8.2447
▁جن	-8.24558
▁بکن	-8.24564
▁چون	-8.24733
▁اہانی	-8.24885
▁پجار	-8.25341
▁راستی	-8.25364
▁بندیں	-8.25465
▁بیا	-8.25524
▁زورانسری	-8.25612
▁ھاتر	-8.25806
▁کیت	-8.25838
▁پیم	-8.25892
▁یات	-8.26356
▁گوادر	-8.26866
▁اود	-8.26917
▁دوئیں	-8.26923
▁کسانیں	-8.27887
▁￶	-8.27947
▁جہد	-8.28155
▁تیرگواری	-8.28475
▁واری	-8.28996
▁برز	-8.29035
▁نشانگ	-8.29075
▁اشی	-8.29118
▁چارگ	-8.29162
▁منءَ	-8.29178
▁وڑا	-8.29826
▁ھالانی	-8.29912
▁be	-8.30252
▁گپت	-8.30291
▁کپت	-8.30738
▁درد	-8.30856
▁مہر	-8.30926
▁مستریں	-8.31105
▁ادم	-8.31217
▁تربت	-8.31355
▁شہ	-8.3161
▁ایم	-8.31672
▁چوش	-8.3223
▁وئیل	-8.32332
▁شریں	-8.32368
▁نشتگ	-8.32582
▁درگت	-8.32795
▁برات	-8.32885
▁وھدیکہ	-8.33324
گ	-8.33383
ائی	-8.33518
▁ے	-8.34045
▁تاوان	-8.34145
▁ٹی	-8.34158
▁’	-8.34339
▁دیست	-8.34435
▁نا	-8.34438
▁ہیں	-8.35304
▁گرگ	-8.35957
▁جوانیں	-8.36059
▁کساس	-8.36225
▁ڈی	-8.36331
▁برگ	-8.36415
▁بیتگ۔	-8.36484
▁په	-8.36584
’	-8.37155
▁زمانگ	-8.37331
▁گر	-8.37405
▁ساری	-8.37534
“	-8.37649
▁داریت	-8.38063
▁زمہ	-8.38305
▁پدر	-8.38437
▁شاعر	-8.38891
▁ارگ	-8.39092
▁ھند	-8.39133
▁بلکنا	-8.39663
▁کاری	-8.39999
▁ورنا	-8.402
▁علی	-8.40305
▁ملکی	-8.40376
▁؂	-8.40412
▁وہدے	-8.40533
▁کنوکیں	-8.40648
▁تب	-8.40707
▁ہے۔	-8.40834
▁کوہ	-8.41106
▁سرکار	-8.41508
▁روان	-8.42229
▁کئے	-8.42588
▁یلہ	-8.42761
▁سد	-8.43054
▁یہ	-8.43409
▁بنی	-8.43425
▁چشیں	-8.435
▁داد	-8.43656
▁کارے	-8.44078
▁زاناں	-8.44328
▁اسلام	-8.44353
▁نی	-8.4456
▁چاگردی	-8.45097
▁شعر	-8.45311
▁جنت	-8.45552
▁سما	-8.45603
▁شتگ	-8.45607
▁کتگیں	-8.45763
▁گپتگ	-8.45922
▁زان	-8.46083
▁ناں	-8.46091
▁نبشتانک	-8.46104
▁زرتگ	-8.46174
▁روچے	-8.46477
▁سیادی	-8.46599
▁بازار	-8.46662
▁جنک	-8.46667
▁وزیر	-8.468
▁چاپ	-8.46826
▁لچہ	-8.46844
▁اھانی	-8.47169
▁ار	-8.47193
▁دلگوش	-8.47448
▁نیم	-8.47466
▁ورگ	-8.47648
▁سرمچاراں	-8.48
▁دیر	-8.48039
▁اد	-8.48433
▁نوک	-8.4848
▁زندءِ	-8.48754
▁تک	-8.49047
▁گڈی	-8.49206
▁کرتگیں	-8.49424
ک	-8.4964
▁پول	-8.49842
▁اردو	-8.49978
و	-8.50094
▁جیڑہ	-8.50142
▁جاگہ	-8.50156
▁سردار	-8.50184
▁ھمک	-8.50225
▁تھا	-8.50232
▁داشت	-8.50272
▁کاروان	-8.50295
▁بھی	-8.50398
▁from	-8.50499
▁ھبر	-8.5064
▁شش	-8.50954
▁ایس	-8.5125
▁جی	-8.5136
▁ایت۔	-8.51396
▁گران	-8.51405
▁زہرشانی	-8.51521
▁ٹپی	-8.51643
▁نیمگا	-8.52095
▁بوھگ	-8.52342
▁ھمیش	-8.52355
▁لس	-8.52564
▁دگ	-8.52925
▁ھلاپ	-8.53131
▁ایرانی	-8.53251
▁کھول	-8.5331
▁ایران	-8.53439
▁اہاں	-8.53922
▁چماں	-8.5393
▁پل	-8.54037
▁ھاترا	-8.54158
▁مارشت	-8.54245
▁هم	-8.54303
▁گمان	-8.54321
d	-8.55112
▁لہتیں	-8.55807
▁جو	-8.55837
▁راجدپتر	-8.55906
▁باریں	-8.5604
▁ازم	-8.56296
▁کنیں	-8.56371
▁اماچ	-8.56423
▁وہ	-8.56446
▁his	-8.56667
▁سروک	-8.56863
▁گس	-8.57095
▁بچار	-8.57571
▁ھلاس	-8.57866
▁لوٹیت	-8.58161
بلے	-8.5871
▁مھلوک	-8.58736
▁دژمن	-8.58807
▁لبز	-8.58823
▁at	-8.58981
▁شیر	-8.59104
▁بنجاھی	-8.59201
▁دیستگ	-8.59626
▁گش	-8.59982
▁رس	-8.60228
▁گورا	-8.60459
▁درست	-8.609
▁کرد	-8.61278
▁دئیگ	-8.6137
▁گال	-8.61386
▁تاک	-8.61841
▁بوان	-8.62097
▁دزگیر	-8.62536
▁کور	-8.63039
▁لبزانکی	-8.63065
▁تا	-8.63183
▁جاور	-8.63221
▁دیمءَ	-8.63358
▁پنجگور	-8.63492
▁پس	-8.63635
▁وار	-8.6371
▁نیام	-8.6398
▁ہوار	-8.64013
▁ایشاں	-8.64084
▁ڈن	-8.64121
▁زدگ	-8.64214
▁الله	-8.64655
▁رسول	-8.64682
e	-8.64713
▁کل	-8.64813
▁گوات	-8.64933
▁احمد	-8.65591
▁بیگواھیں	-8.65627
▁یکیں	-8.65712
▁بگیری	-8.65836
▁زوت	-8.66006
▁بار	-8.66281
▁درا	-8.66518
......	-8.66842
▁کلات	-8.66907
▁واستہ	-8.66908
▁وھدی	-8.66977
▁کشتگ	-8.67328
▁دہ	-8.67482
▁پسو	-8.67545
▁کمیٹی	-8.67776
▁وتا	-8.67848
▁نہیں	-8.67919
▁باں	-8.68051
چہ	-8.68118
وتی	-8.68179
▁گند	-8.68427
▁لبریش	-8.68891
▁مال	-8.68938
▁ریاست	-8.68976
▁مہلوک	-8.69208
▁گپے	-8.69659
▁رو	-8.69673
▁بلوچانی	-8.69687
▁لٹ	-8.69982
▁چوں	-8.7019
▁were	-8.70284
▁کوش	-8.70663
▁جہل	-8.70945
▁کوئٹہ	-8.71044
▁کنگی	-8.71855
▁روچاں	-8.71942
;	-8.72051
▁لگ	-8.72071
▁بندی	-8.72196
▁ردءَ	-8.72322
▁ایدگہ	-8.7239
▁شہر	-8.72464
..	-8.72473
۔۔۔	-8.72523
نہ	-8.7257
▁جون	-8.73013
▁بکنت	-8.73594
▁بد	-8.73641
▁رنگیں	-8.73798
▁المی	-8.74116
▁ساہ	-8.74291
▁it	-8.74656
▁بنجل	-8.74725
▁علم	-8.75251
▁ساحر	-8.75373
▁کٹ	-8.75409
▁وتءَ	-8.75533
▁بو	-8.75544
▁پمیشا	-8.75558
▁‘	-8.75592
▁دمگاں	-8.75617
▁بخش	-8.75626
▁عمل	-8.76026
زورگریں	-8.76195
▁کشی	-8.7628
▁حکومت	-8.76408
▁توک	-8.76516
▁نودربر	-8.7654
▁تاکدیم	-8.77202
▁داشتگ	-8.77392
▁تچک	-8.77406
▁ناشناسیں	-8.77525
▁کاراں	-8.77543
▁دے	-8.77653
▁ایف	-8.77665
▁زالبول	-8.777
▁دمگی	-8.7782
▁سرکاری	-8.77913
▁لاش	-8.78269
▁رسانکدر	-8.78487
▁زوراکی	-8.78709
▁اھاں	-8.78865
▁شھید	-8.78944
▁وشی	-8.79039
▁سئے	-8.79138
▁سیاہ	-8.79161
سگ	-8.79451
▁زرت	-8.79575
▁کارانی	-8.79708
▁روکپتی	-8.79901
▁پمیشکا	-8.79911
▁ک	-8.7999
▁پیداک	-8.80183
▁درستیں	-8.80184
▁انی	-8.80271
▁چمانی	-8.80301
▁فلسفہ	-8.80624
▁اودا	-8.80643
▁گچین	-8.80643
▁نه	-8.80758
▁سیاست	-8.80917
▁جار	-8.80938
▁عمر	-8.81046
▁اشانی	-8.81103
ر	-8.81115
نت	-8.81117
▁ازات	-8.81282
▁قوم	-8.81373
▁وسلم	-8.81984
▁ئی	-8.82225
▁چیا	-8.82307
▁""	-8.82366
▁بات	-8.82503
▁استاد	-8.8278
▁درائیں	-8.83079
▁مکران	-8.83124
▁باسک	-8.83409
▁کئیت	-8.83464
▁دانکہ	-8.83637
▁شمئے	-8.84243
▁کچ	-8.84269
▁سرپدی	-8.84492
▁بال	-8.84695
▁روت	-8.84903
▁کیا	-8.85121
▁شائری	-8.85664
▁ھزار	-8.85689
▁کہول	-8.85738
منی	-8.85918
▁ڈول	-8.86049
م	-8.86136
▁ٹک	-8.86347
انت	-8.86392
▁مھر	-8.86396
▁درور	-8.86409
▁زھگ	-8.86636
▁پریس	-8.86737
▁دوستی	-8.87069
▁زورگ	-8.87072
▁گدار	-8.87261
▁ت	-8.87285
▁صاحب	-8.87357
▁تہنا	-8.87479
▁نیمگءَ	-8.87499
▁چیریں	-8.87607
▁بستگ	-8.87667
▁تاریخ	-8.87729
▁امیت	-8.87849
▁کسی	-8.88011
▁پیلو	-8.88145
▁ھدا	-8.88229
▁گیر	-8.8835
▁وشیں	-8.88364
▁سفر	-8.8857
▁ئے۔	-8.88869
▁اکیڈمی	-8.88874
▁تیر	-8.88947
▁بچ	-8.88955
▁گیشیں	-8.88971
یک	-8.89006
▁پیر	-8.89513
▁گشیت	-8.89526
▁چش	-8.89543
▁شری	-8.89584
▁In	-8.89661
▁he	-8.89669
▁کننت	-8.90441
▁واتر	-8.90832
▁ہو	-8.90845
▁ہست	-8.90936
▁an	-8.91056
▁بزانت	-8.91087
▁ہند	-8.91465
▁نسبت	-8.91484
▁مند	-8.91511
▁حق	-8.91758
▁تانکہ	-8.91902
▁کسان	-8.91942
▁بل	-8.9212
تو	-8.92173
▁سنگ	-8.9234
▁ھساب	-8.92599
▁نند	-8.92645
▁پروش	-8.92696
بلوچی	-8.92762
....	-8.92767
▁نبشتگ	-8.92863
▁بوئگ	-8.92887
▁ارمی	-8.93038
▁ایگ	-8.93115
▁ھور	-8.93205
▁واھگ	-8.93232
▁دود	-8.9326
▁کنوک	-8.93549
▁شوھاز	-8.93612
پہ	-8.94126
▁بندوک	-8.94309
▁استمانی	-8.94376
▁وارت	-8.94973
▁دین	-8.94989
▁بگٹی	-8.95089
▁چونیں	-8.95135
▁حدا	-8.95145
▁جنان	-8.95314
▁نشان	-8.95324
▁had	-8.95444
▁چپ	-8.95949
▁چوشیں	-8.95985
▁اتنت۔	-8.96006
▁بانک	-8.96079
▁دیمروئی	-8.96319
▁حساب	-8.96349
▁کنئگ	-8.96382
▁بنا	-8.96388
▁معنا	-8.96495
▁گوازی	-8.96496
▁مچی	-8.96511
▁۔۔۔	-8.96513
▁کنگا	-8.968
▁سیمی	-8.97079
▁پگر	-8.97274
▁ہمک	-8.9739
▁بیڑ	-8.97558
▁مانا	-8.97684
▁مری	-8.97855
▁درستاں	-8.98015
▁حبر	-8.98074
▁;	-8.98079
▁انچش	-8.98165
▁باروا	-8.98167
▁به	-8.98262
▁which	-8.9827
▁ارزشت	-8.98476
▁گپاں	-8.98578
▁پکر	-8.9859
▁ادارہ	-8.98592
▁ہمیش	-8.98617
▁دلءَ	-8.98649
▁لاپ	-8.98789
ل	-8.98829
▁قصہ	-8.98908
▁ردا	-8.98982
▁چاران	-8.99548
▁ادب	-8.99644
▁ادءَ	-8.99662
ات	-8.99743
▁ٹولی	-8.99778
گوں	-8.99878
▁گم	-8.99936
▁فاضل	-8.99938
▁برجم	-8.99973
▁پارٹی	-9.00278
▁مرتگ	-9.00502
▁کارمند	-9.00616
▁هما	-9.00631
▁کماش	-9.00633
▁مار	-9.00773
▁مچ	-9.00811
▁نان	-9.00895
▁کنگءَ	-9.01099
▁دم	-9.01304
▁سنگتاں	-9.01334
▁سپر	-9.01723
▁دیان	-9.02105
▁مٹ	-9.02286
▁بگر	-9.02408
▁بیگواہیں	-9.02529
▁نندانک	-9.02537
▁ھشت	-9.02754
▁بوتیں	-9.02975
▁نامیں	-9.03023
▁کشت	-9.03105
▁ازمان	-9.032
یا	-9.03276
▁نظام	-9.03331
▁فارسی	-9.03747
▁ایں۔	-9.03954
▁بنیاد	-9.04047
▁دنت۔	-9.04168
▁گوست	-9.04422
▁ساڑی	-9.04676
▁دستونک	-9.05148
▁حمل	-9.05221
▁یکجاہ	-9.05258
▁دراج	-9.05266
▁قاضی	-9.05287
▁اف	-9.05303
▁چل	-9.05413
▁شرگداری	-9.05762
▁جنی	-9.05904
▁میجر	-9.05956
▁ہی	-9.06026
▁همے	-9.06123
▁رنگے	-9.06494
▁تراک	-9.06616
▁بئے	-9.06637
▁بمب	-9.06709
▁کمے	-9.06845
▁گٹ	-9.06888
▁وسیلہ	-9.07132
▁برت	-9.07522
▁ہیں۔	-9.07603
▁م	-9.07612
▁روک	-9.07776
▁اھت	-9.07791
▁جنگی	-9.07823
▁دروازگ	-9.07897
▁جھمنند	-9.07965
▁لھتے	-9.08325
▁منت	-9.08457
▁کپیت	-9.08481
▁عليه	-9.08541
▁باید	-9.08905
▁دمان	-9.08934
▁سلامتی	-9.09204
▁صل	-9.09218
▁چینل	-9.09297
▁هر	-9.09746
▁وانوک	-9.09897
▁حسین	-9.10283
▁غلام	-9.10446
▁وڑے	-9.10612
▁نندوک	-9.10654
▁دری	-9.10675
ش	-9.10848
▁د	-9.10965
▁پیدا	-9.11229
▁رستگ	-9.11292
▁ناز	-9.11356
▁حسن	-9.11424
▁دراجیں	-9.11453
▁ازاتی	-9.11531
▁ر	-9.11847
▁بادشاہ	-9.11924
ێں	-9.11927
▁میار	-9.11993
▁باور	-9.12082
▁ایان	-9.12155
بہ	-9.12679
▁مں	-9.12774
▁بستار	-9.12791
▁مکن	-9.12877
▁دراہ	-9.12997
▁عکس	-9.13089
▁دات۔	-9.13227
▁نشت	-9.13293
▁بیرم	-9.13617
▁داری	-9.13681
▁کرا	-9.13782
▁شئیر	-9.13826
▁نادراہ	-9.13872
▁رامین	-9.14117
▁ایشیءِ	-9.14194
▁تریں	-9.14448
▁بنداتی	-9.14647
▁ھمراہ	-9.14665
▁وتارا	-9.14832
▁سیر	-9.14879
▁نیکہ	-9.14958
▁ہزار	-9.15072
▁جاھے	-9.15126
▁لوٹاں	-9.15166
▁ی	-9.15243
▁are	-9.15376
▁انگریزی	-9.15615
▁سکیں	-9.15764
▁ترندیں	-9.1589
▁داتگ۔	-9.16068
▁منیر	-9.16074
▁بونگ	-9.1611
▁موسم	-9.16138
...!	-9.16169
▁درچک	-9.16258
▁چین	-9.16308
▁گوشیت	-9.16419
▁تیاب	-9.16485
▁اثر	-9.168
▁اکس	-9.1693
▁کارست	-9.16981
▁کوٹی	-9.17006
▁پوجی	-9.17035
▁کتہ	-9.17056
▁ھپت	-9.17174
▁دنیاءِ	-9.17206
▁ناکو	-9.17574
▁پرچے	-9.17601
▁ڈیھ	-9.17606
بے	-9.17806
▁٭	-9.17986
▁سندھ	-9.18006
▁لھتیں	-9.18014
▁امریکہ	-9.18105
t	-9.1817
▁اپنے	-9.18341
al	-9.18428
▁پیما	-9.18454
▁دریا	-9.18527
▁بدلی	-9.18757
▁پسہ	-9.18927
▁یونیورسٹی	-9.18986
▁چاکر	-9.19007
ه	-9.19014
▁سوار	-9.19182
▁س	-9.1944
▁شک	-9.19624
▁بیگاہ	-9.19685
▁A	-9.19707
▁داتگیں	-9.1991
▁ندارگ	-9.20071
▁اندر	-9.20171
▁بنکی	-9.20236
▁یار	-9.20378
▁مھمد	-9.20547
▁کرت۔	-9.20631
▁ریاستی	-9.20653
▁بندگ	-9.20702
▁شمبے	-9.20871
▁منزل	-9.20878
▁اسکول	-9.21062
▁اجو	-9.21082
▁ایشرا	-9.21138
▁جہان	-9.21554
▁مالی	-9.21587
▁نادراھی	-9.21612
▁بارو	-9.21699
▁ناول	-9.21702
▁اں۔	-9.21814
▁جاھاں	-9.21826
▁مبارک	-9.21881
▁ڈگار	-9.21889
▁دیمروی	-9.21912
▁فیصلہ	-9.22061
▁تکنیک	-9.222
▁مردے	-9.22484
▁کچے	-9.2252
▁گوشاں	-9.22523
▁دستاں	-9.22563
▁بدن	-9.22585
▁تھنا	-9.22605
▁ساز	-9.22626
▁راستیں	-9.22937
▁منگ	-9.23027
▁گام	-9.23032
▁بنگپ	-9.23058
▁ہ	-9.23264
▁پیمیں	-9.23329
س	-9.23693
▁ای	-9.23729
▁اودءَ	-9.23796
▁تاب	-9.23808
?‘‘	-9.2391
▁گیشتریں	-9.23968
▁بندیگ	-9.24056
▁ودار	-9.24088
▁شاد	-9.24139
▁اوشتاتگ	-9.24633
▁نور	-9.24785
▁مراگش	-9.24871
▁کاروبار	-9.25
▁شائر	-9.25013
▁کلیں	-9.25095
▁قومی	-9.25249
▁نیشنل	-9.25344
▁کاینت	-9.25631
▁اول	-9.25693
▁نصیر	-9.25732
▁درچ	-9.25799
▁انچوش	-9.26048
▁وجود	-9.26055
▁البت	-9.2612
▁جندءِ	-9.26166
▁جنز	-9.26312
▁جواب	-9.26354
▁دز	-9.26421
▁فکر	-9.26674
▁گامگیج	-9.26712
▁اکبر	-9.26745
▁گشئے	-9.26787
▁اگر	-9.27164
▁ببیت	-9.27399
▁خدا	-9.27411
▁شمارا	-9.27598
▁their	-9.27738
▁نمدی	-9.27842
▁جوان	-9.27943
▁درشانی	-9.2806
▁تیار	-9.28162
▁بالی	-9.28373
▁لہتے	-9.28388
▁بوہگ	-9.28452
▁سائنس	-9.28465
نی	-9.28686
▁پاک	-9.28764
▁سوج	-9.28778
▁صورت	-9.28854
▁ارس	-9.28891
▁دئے	-9.28926
▁19	-9.2907
▁داب	-9.29232
▁شاری	-9.29291
▁خیال	-9.29318
▁but	-9.29389
▁ھو	-9.29441
▁ھون	-9.29697
▁اصل	-9.29791
▁اڈ	-9.29937
▁بکش	-9.30062
▁رھبند	-9.30072
ز	-9.30229
▁not	-9.30567
▁کشک	-9.30581
▁کوھنیں	-9.30798
▁بست	-9.30798
▁تنے	-9.31066
‘‘(	-9.31098
▁first	-9.31102
▁وائس	-9.31191
▁عزت	-9.31334
▁چیزانی	-9.31406
▁مئی	-9.31947
▁......	-9.32033
▁بہا	-9.3222
ما	-9.32274
▁ئیگ	-9.32373
▁مستونگ	-9.32451
▁گنگ	-9.32455
▁مولانا	-9.32515
▁تالان	-9.32634
▁نماز	-9.3277
▁کریم	-9.32821
▁اشاں	-9.32827
▁زرد	-9.32915
▁اب	-9.32981
▁مول	-9.33006
▁شہید	-9.33052
▁درشانے	-9.33076
▁برو	-9.33117
▁ال	-9.3329
▁کلب	-9.33381
▁رسیت	-9.33469
▁مارچ	-9.33469
th	-9.3355
▁پرچاکہ	-9.33715
▁نیست۔	-9.34039
▁ارواہ	-9.34044
▁پدءَ	-9.34101
▁وس	-9.34162
▁دپتر	-9.34163
▁بامن	-9.34167
▁نامداریں	-9.3421
ies	-9.34627
▁سہب	-9.34768
▁ایپ	-9.34807
▁باندا	-9.34884
▁ماس	-9.3522
▁کنگءِ	-9.35226
▁چوکہ	-9.3523
▁ھکانی	-9.3525
▁جانی	-9.35293
▁عطا	-9.35369
▁زانتکار	-9.35516
▁پرس	-9.35644
▁نبیسگ	-9.35665
▁نو	-9.35964
▁بوتاں	-9.3604
▁سرمایہ	-9.36119
▁پڑ	-9.36177
▁امان	-9.36492
▁امیدگس	-9.36571
▁گوستگ	-9.36607
▁شے	-9.36637
▁ارام	-9.36738
▁کمیں	-9.36753
▁ماہی	-9.3685
▁بگیر	-9.36939
▁بابتءَ	-9.37065
▁ستک	-9.37105
▁وی	-9.37318
▁ویل	-9.37443
▁ھمراھی	-9.37486
▁ازاد	-9.37502
▁پیسلہ	-9.37627
▁پاس	-9.3771
▁ادبی	-9.37937
also	-9.38001
▁عربی	-9.38057
▁چھاپ	-9.38063
▁چاریں	-9.38257
بلوچ	-9.38263
▁اھوالانی	-9.38412
n	-9.38525
▁...	-9.38583
▁or	-9.38607
▁ترقی	-9.38645
▁ساچشت	-9.38676
▁انکہ	-9.3868
▁کئی	-9.3877
▁کیس	-9.38808
▁ربیدگ	-9.38839
▁مدت	-9.39017
er	-9.39023
▁مالیات	-9.39056
▁تها	-9.3916
▁لیب	-9.39206
▁its	-9.39225
▁سزا	-9.39259
▁وان	-9.39285
▁باندات	-9.39386
▁روزگار	-9.39574
▁ردوم	-9.39598
▁نامی	-9.39832
a	-9.39851
▁انکس	-9.39856
▁تمپ	-9.39866
▁جھان	-9.39907
▁ہلاس	-9.40089
▁بوتنت	-9.40125
▁ائے	-9.40128
▁چٹ	-9.4021
▁گلام	-9.40217
▁اھتگ	-9.40427
▁her	-9.40701
▁ھرچ	-9.40816
▁دراہیں	-9.40997
▁کردار	-9.41032
▁کارندہ	-9.41068
▁رپورٹ	-9.41106
▁ھب	-9.41125
▁دروگ	-9.41228
▁سھب	-9.41269
▁بچک	-9.41648
▁بیگواہی	-9.42075
▁ونتگ	-9.42099
▁اپنی	-9.42219
▁سالی	-9.42333
▁بارت	-9.42383
▁جس	-9.42563
▁یاد	-9.42708
▁تنی	-9.42718
▁وھداں	-9.42732
▁کپگ	-9.42775
▁پرچہ	-9.42788
▁گیشی	-9.42896
▁جوانی	-9.431
▁جاورانی	-9.43165
▁دیمتر	-9.43703
انءِ	-9.43753
▁زانتگ	-9.43844
▁میل	-9.4385
بلوچستان	-9.4391
▁جاوراں	-9.44037
▁بنگیج	-9.44464
▁گراں	-9.44468
▁کمو	-9.44537
▁وارتگ	-9.44578
▁سازی	-9.44664
▁غم	-9.44732
▁مثال	-9.44876
▁درمان	-9.44957
▁ذات	-9.4516
▁چیزاں	-9.45197
▁از	-9.45216
▁زبانانی	-9.45236
▁ھک	-9.45262
▁اواران	-9.45374
▁دشت	-9.45384
▁رھشون	-9.45675
▁have	-9.45964
▁نسل	-9.46134
▁بولان	-9.46299
▁وھدءَ	-9.46309
▁طرح	-9.46362
▁ہور	-9.46366
▁رواں	-9.46618
سر	-9.46721
▁زہگ	-9.46722
▁زیر	-9.46759
▁لیکن	-9.46823
▁شعری	-9.46832
▁ندر	-9.47192
▁نمبر	-9.47342
ئیں	-9.47441
▁رست	-9.47485
▁دیاں	-9.4765
▁ساھت	-9.47934
▁رندا	-9.47996
▁ماما	-9.48026
▁ورنایے	-9.48059
▁one	-9.48295
▁پھر	-9.4832
▁مسنگ	-9.48431
▁اتءُ	-9.48511
▁اگں	-9.48602
▁زلم	-9.48764
▁گرم	-9.48867
▁has	-9.48936
▁اسراتی	-9.48982
▁نزور	-9.49215
▁کمی	-9.49384
▁نودربرانی	-9.49457
▁فار	-9.49503
▁تلگرام	-9.49541
▁بنشون	-9.49704
▁سلام	-9.49736
▁بہرے	-9.49771
▁دلءِ	-9.49797
▁نواب	-9.49983
▁زاھدان	-9.50118
▁ہمراہ	-9.50192
▁مشکل	-9.50266
▁کلدار	-9.50351
▁چراگ	-9.50368
▁کچک	-9.504
▁بالاد	-9.50427
▁گپانی	-9.50442
▁دیمی	-9.50551
▁مڈی	-9.50559
▁ایندگہ	-9.50603
▁نئے	-9.50624
▁اگست	-9.50626
▁۔اے	-9.50865
▁دستءَ	-9.50893
▁پمشکا	-9.50952
▁گیس	-9.50983
ھمے	-9.51028
▁چوکی	-9.51126
▁ڈیرہ	-9.51505
▁been	-9.51511
▁مزار	-9.51582
▁زندءَ	-9.51608
▁بلوچاں	-9.51613
▁جوڈ	-9.51691
▁سند	-9.51717
▁شکار	-9.51828
▁اسے	-9.51863
▁two	-9.51996
▁ارشانی	-9.52031
▁زندمان	-9.52143
▁ھرکس	-9.52285
▁He	-9.5237
▁نز	-9.52407
▁عبداللہ	-9.52414
▁جنجال	-9.52517
▁who	-9.52621
▁ھواریں	-9.52984
▁زوریں	-9.53109
▁چنچو	-9.53133
▁اھوالکار	-9.53195
▁کنئے	-9.53201
▁پرائی	-9.53239
▁ارمان	-9.53379
▁اوتی	-9.53438
▁انتءُ	-9.53543
▁یکشل	-9.536
▁ساھگ	-9.53768
▁نھ	-9.53835
▁تباہ	-9.53839
▁بلکہ	-9.53864
▁عشق	-9.54016
▁لئے	-9.54136
▁روانک	-9.5423
▁جنرل	-9.54347
▁سرجمی	-9.54386
▁گڈ	-9.54417
▁تامر	-9.54502
▁سیل	-9.54768
▁جیڑگ	-9.5509
▁رسانک	-9.55161
▁کسانی	-9.5539
▁رندے	-9.55445
▁گشنت	-9.55461
▁بزان	-9.55483
▁درسیں	-9.55617
▁جنگل	-9.55635
▁جھانی	-9.55637
▁دوشی	-9.55667
▁ارا	-9.55684
▁گد	-9.55832
▁دگه	-9.55858
▁با	-9.55982
▁نظر	-9.5602
▁چنت	-9.56022
▁رواج	-9.56136
واجہ	-9.56146
▁امر	-9.56196
▁عقل	-9.56227
▁عرب	-9.5632
▁سری	-9.56439
▁ٹکر	-9.56468
▁برزی	-9.56486
▁گنوک	-9.56525
▁ور	-9.56688
▁گنداں	-9.56779
▁پاھو	-9.56796
د	-9.56928
▁this	-9.5706
▁منوک	-9.57087
▁نصیب	-9.57268
▁ترند	-9.57299
▁واک	-9.57361
▁پری	-9.57371
▁گوھرام	-9.57579
▁چوشکہ	-9.57749
▁منصوبہ	-9.57756
تئی	-9.57763
▁مجید	-9.5789
▁سالاں	-9.57941
st	-9.5815
▁وطن	-9.5846
▁رہبند	-9.58519
▁پرسنز	-9.586
▁دشتی	-9.58622
▁دزبندی	-9.58649
▁باروءَ	-9.58705
▁هچ	-9.58711
▁چرے	-9.58718
▁ب	-9.58777
تہ	-9.58817
▁نویس	-9.58838
▁لاچار	-9.58843
▁ابادی	-9.59233
▁بالاچ	-9.5926
▁پنجاہ	-9.59383
▁رنگءَ	-9.59527
▁امام	-9.59735
▁مینگل	-9.59868
▁مہمد	-9.59876
▁پریشان	-9.59893
▁تہر	-9.60182
▁ھنچش	-9.60233
▁نشہ	-9.60286
▁زال	-9.6039
▁دکان	-9.6046
▁نندگ	-9.60472
▁پمن	-9.60583
▁مرک	-9.60613
▁سامان	-9.60739
▁ذمہ	-9.60769
▁سکین	-9.60806
▁جیڑ	-9.60832
▁گوزگ	-9.60867
▁شور	-9.60982
▁مہمان	-9.60993
▁چگل	-9.61022
▁زرمبشت	-9.61255
▁بارہ	-9.61355
▁سرمچار	-9.61369
▁ایشیءَ	-9.61549
نے	-9.61559
▁ساتھ	-9.61607
▁تی	-9.61624
اگاں	-9.61658
▁بیار	-9.61709
▁year	-9.61746
▁کارمنداں	-9.61749
▁کمشنر	-9.61778
▁بئیت	-9.61911
▁دوھزار	-9.61924
▁اپریشن	-9.61933
▁پتر	-9.62054
▁نومبر	-9.62275
▁کوئی	-9.62322
▁بشیر	-9.62324
▁مر	-9.62407
▁اوشتوک	-9.62439
▁زہر	-9.62552
▁مرید	-9.62554
▁گو	-9.62593
▁I	-9.62614
▁شرتر	-9.6299
▁رژن	-9.63051
▁اخر	-9.63296
▁سندھی	-9.63453
▁پاداں	-9.63526
▁پوہ	-9.63589
▁گرانیں	-9.63625
..!	-9.63659
▁چیدگ	-9.63716
▁نیمگے	-9.63775
▁روس	-9.6382
▁اوانی	-9.63826
▁سگ	-9.63843
▁زبانے	-9.63844
▁ؤ	-9.63854
▁سنگتانی	-9.63951
▁براں	-9.63958
▁رحیم	-9.64091
▁شرپ	-9.64121
▁تیوگیں	-9.64129
▁سور	-9.64199
▁دعا	-9.64254
▁لبزانی	-9.64308
▁اڑ	-9.64368
▁حاصل	-9.64394
▁مست	-9.64488
▁تنگ	-9.646
es	-9.64696
▁پمیشکہ	-9.64791
▁کاگد	-9.64859
▁کتابانی	-9.64861
▁ھاشمی	-9.64976
▁کتابے	-9.65016
▁زی	-9.65233
▁کوہنیں	-9.65326
▁کاروائی	-9.65392
▁روچی	-9.65425
▁اجازت	-9.65568
▁ازمی	-9.65597
▁چیءَ	-9.65612
▁لک	-9.65617
▁معاشی	-9.65639
▁ایمان	-9.65716
▁منند	-9.65721
▁مدامی	-9.65726
▁سہ	-9.66057
▁صدر	-9.66097
▁رب	-9.66151
▁قدیر	-9.662
▁کرونا	-9.66211
▁ایمنی	-9.66244
▁رندءَ	-9.66359
▁گیدی	-9.66463
▁انگور	-9.66566
▁یاکہ	-9.66944
▁کالج	-9.66949
▁بلوچستانءِ	-9.67212
▁دان	-9.67262
▁شکل	-9.67289
▁غیر	-9.67331
▁گوازینگ	-9.67403
▁شام	-9.67428
▁سوت	-9.67471
▁فوج	-9.67474
▁تیز	-9.67527
▁روڈ	-9.67568
ێن	-9.67576
▁داستان	-9.67651
▁شمے	-9.67678
▁توکا	-9.6769
▁دوا	-9.67841
▁نوشکی	-9.67905
▁ڈنی	-9.6796
▁ماڑی	-9.67967
▁ھزدار	-9.67999
▁اشوب	-9.68007
▁ہوا	-9.68235
▁گورءَ	-9.68429
▁جم	-9.68484
▁زھر	-9.68639
▁ترک	-9.68946
▁زبانا	-9.68985
▁گوناپ	-9.69107
▁مزنین	-9.69124
▁دیوال	-9.69131
▁دسمبر	-9.69188
▁ممکن	-9.69246
▁انوں	-9.69294
▁جنوری	-9.6933
▁طاقت	-9.6946
▁چاہ	-9.69464
▁پسند	-9.69491
▁کنوکاں	-9.69641
▁جا	-9.69692
▁نیاد	-9.69727
▁موجود	-9.6973
▁دیمپان	-9.69845
▁ورنائیں	-9.69896
▁واہگ	-9.69951
▁چکاس	-9.69989
▁سلیم	-9.70008
▁درائینت	-9.70039
▁بید	-9.70048
▁شان	-9.70062
▁مستر	-9.70093
▁شکر	-9.70195
▁خبر	-9.70274
▁بت	-9.70293
▁@,@	-9.70304
▁دؤر	-9.70314
▁کنائینگ	-9.70651
▁کوکار	-9.70713
▁after	-9.70725
▁نشتگیں	-9.70731
▁دزگیری	-9.70795
▁والا	-9.70841
▁ترانگ	-9.70855
▁لیویز	-9.70914
▁شراب	-9.70921
▁ربیت	-9.70931
▁بزگ	-9.71096
▁بتل	-9.71157
▁میڈیا	-9.71189
▁گیری	-9.71293
کے	-9.71338
▁کنڈ	-9.71347
▁ادگہ	-9.71372
▁قران	-9.71412
یت	-9.7142
▁قلات	-9.71433
▁پسنی	-9.71434
▁گوشان	-9.71553
▁گناہ	-9.71654
▁1	-9.71666
▁کنٹرول	-9.71671
▁نودربراں	-9.71693
▁ازمانکانی	-9.71858
▁شریف	-9.71875
▁لال	-9.71881
▁مذہب	-9.72156
▁اگن	-9.7218
▁اوشتات	-9.7219
▁فرنٹ	-9.72206
▁وہدءَ	-9.7221
▁کمال	-9.72323
▁بنجاہی	-9.72421
▁نود	-9.72716
۔۔۔۔	-9.7281
▁ماتی	-9.72937
▁امید	-9.73033
▁حد	-9.73113
▁گرد	-9.73449
▁دروت	-9.73472
▁جب	-9.73501
▁گلزمین	-9.73678
▁سیت	-9.73751
▁گپءَ	-9.73755
▁اوگانستان	-9.73812
▁دروگیں	-9.73824
▁ایچ	-9.73935
▁تن	-9.74074
▁پمشکہ	-9.7409
▁عمران	-9.74241
▁الس	-9.74372
▁کپتگیں	-9.7443
▁تپاک	-9.74463
▁تل	-9.74482
▁وڑءَ	-9.74491
▁سروکی	-9.74625
▁اکتوبر	-9.74668
▁شوہاز	-9.7486
▁کرنے	-9.74985
▁ردی	-9.75045
▁رکینگ	-9.75061
▁کارءَ	-9.75075
▁یکجھتی	-9.75159
▁اینچو	-9.75196
▁دیمپانی	-9.75223
▁ھلک	-9.75264
▁It	-9.75364
▁بیگواھی	-9.75437
▁اسلم	-9.7544
▁پیمءَ	-9.75536
▁امیر	-9.75586
▁چکانی	-9.75619
▁ھاسیں	-9.75683
▁ادارھانی	-9.7579
▁زیبائی	-9.75801
▁جام	-9.75804
▁نشانی	-9.75808
▁ڈولیں	-9.75943
▁وائی	-9.75977
▁اورتگ	-9.76025
▁برکت	-9.76091
▁اواز	-9.76219
▁تھی	-9.76226
▁('	-9.76246
▁بنداں	-9.7627
▁اھوال	-9.76421
▁داریں	-9.76465
▁مناں	-9.7664
یے	-9.767
▁چکاں	-9.76784
▁تیل	-9.76927
▁جھل	-9.7702
▁لوگءَ	-9.77039
▁ہوئے	-9.77091
▁ہال	-9.77145
▁سبز	-9.77286
ب	-9.77314
▁زوراکیانی	-9.77379
▁ترندی	-9.77465
▁ٹپ	-9.77508
▁بعد	-9.77801
▁other	-9.77958
مئے	-9.78286
▁۔۔	-9.78317
▁ھنکین	-9.78338
▁بیم	-9.7836
▁time	-9.78399
▁بہت	-9.78438
▁حضرت	-9.78477
▁واقعہ	-9.78497
▁تئو	-9.78699
▁جنیں	-9.78861
▁حاجی	-9.79032
▁چوناھا	-9.79073
اناں	-9.79116
▁گری	-9.79144
▁ونت	-9.79165
▁عہد	-9.79206
کی	-9.79207
▁نپ	-9.79251
▁اگہ	-9.79413
▁تاج	-9.79452
▁متلب	-9.795
▁جتاجتائیں	-9.7951
▁روچءَ	-9.79595
▁دزکپتگ	-9.79675
▁تام	-9.79744
ہمے	-9.79763
▁کرار	-9.79777
▁چنکس	-9.79809
▁بان	-9.79813
▁چاراں	-9.79898
▁لشکری	-9.79981
▁نوشتہ	-9.80048
▁گچکی	-9.80091
بی	-9.80101
▁ویبجاہ	-9.80186
▁شد	-9.80221
▁چیاکہ	-9.80285
▁into	-9.80327
▁لوز	-9.80352
▁کشار	-9.8041
▁کننت۔	-9.8057
▁مرچاں	-9.80603
▁برجاھیں	-9.8069
▁پنام	-9.80758
▁رگ	-9.80826
▁دشتیاری	-9.80832
▁رسم	-9.80836
▁شون	-9.80914
▁بدیں	-9.80915
▁2	-9.80935
▁بله	-9.81205
▁ہرکس	-9.81242
▁ل	-9.81316
▁شبین	-9.81355
▁بھا	-9.81359
▁راجے	-9.81599
▁زبانءِ	-9.81739
▁سرڈگار	-9.81836
▁انگریز	-9.8195
▁زیارت	-9.81992
▁اتکگیں	-9.82074
▁ہوں	-9.82094
▁نزیکی	-9.82097
▁بڈ	-9.82125
▁انت۔۔۔	-9.82249
▁ایوکیں	-9.82305
▁گول	-9.82321
▁انہی	-9.82322
▁بیرانی	-9.82436
▁روچانی	-9.82485
▁پانزدہ	-9.8252
▁واجه	-9.82564
▁اسمبلی	-9.82564
▁علاقہ	-9.82624
▁بود	-9.82647
بزاں	-9.82721
▁مارگ	-9.8273
▁زندان	-9.8281
▁عالم	-9.82989
▁مردمان	-9.82994
▁زندے	-9.83033
▁گندیت	-9.83121
ماں	-9.83123
▁کارمرد	-9.83175
▁هست	-9.83199
وکیں	-9.83246
▁کنوکانی	-9.83296
▁دامن	-9.83372
▁شھدگ	-9.83394
▁انگر	-9.83409
▁کج	-9.83477
▁کشیت	-9.83554
▁نزوری	-9.83554
▁بوتہ	-9.83632
'	-9.83634
▁کناں۔	-9.83735
▁جولائی	-9.83738
▁کازی	-9.83972
▁دشمن	-9.83988
▁ایوکءَ	-9.84113
▁پرے	-9.84167
▁تہء	-9.84181
▁حقیقت	-9.84182
▁ہرچی	-9.84196
▁چد	-9.84207
▁داروکیں	-9.8423
▁فروری	-9.84357
▁تہاری	-9.84395
▁سہر	-9.84397
▁would	-9.8449
▁وا	-9.84508
o	-9.84526
▁براس	-9.84623
▁کمپنی	-9.8465
▁سائنسی	-9.84789
▁صنعت	-9.84799
▁وہدیکہ	-9.84838
▁راجانی	-9.85093
▁اپریل	-9.85095
▁واکدار	-9.85156
▁واحد	-9.85231
▁مھکم	-9.85323
▁یوسف	-9.85372
▁جنکے	-9.8547
▁سنگر	-9.85487
▁دمانے	-9.8551
▁more	-9.8553
▁استان	-9.85543
▁اوپار	-9.85638
▁مسیت	-9.85647
▁نامءَ	-9.85702
▁پانگس	-9.85707
▁بلاھیں	-9.85752
▁گدان	-9.85928
▁پروفیسر	-9.85942
▁قبیلہ	-9.85947
▁نیک	-9.85954
▁انساپ	-9.8597
▁دستی	-9.86089
▁گہار	-9.86101
▁لوٹوکیں	-9.86102
▁ش	-9.86125
▁بانگ	-9.86125
▁کرنا	-9.86166
▁تھے	-9.86344
▁ہاترا	-9.86604
▁رسگ	-9.86628
▁بھتام	-9.86661
▁کد	-9.8671
▁مرزی	-9.86726
▁ستمبر	-9.86847
▁اتاں۔	-9.86906
▁صد	-9.86992
▁مرچیگیں	-9.87123
گیں	-9.87134
▁حکم	-9.87175
▁ردانک	-9.87448
▁اوست	-9.87492
▁گچینی	-9.87562
▁ملکاں	-9.876
▁یکبرے	-9.87749
▁انت۔اے	-9.87774
▁کیت۔	-9.87817
l	-9.87887
▁ٹیم	-9.87926
▁نرم	-9.88088
▁سبک	-9.88166
▁برجا	-9.88317
▁لگت	-9.88347
▁ج	-9.88453
▁کرن	-9.88471
▁ھیل	-9.88475
▁شمار	-9.88533
▁گیوار	-9.88539
▁حب	-9.88593
▁کلوہ	-9.88724
ھم	-9.88749
▁خاصیں	-9.88808
▁گیا	-9.88873
▁پ	-9.88879
▁بدئے	-9.88933
تاکدیم	-9.88951
▁over	-9.89105
▁کمیشن	-9.89106
▁مجلس	-9.89207
▁دوازدہ	-9.89226
▁وانگی	-9.89259
▁اسمان	-9.8929
▁بستگیں	-9.89294
mber	-9.89324
▁شاعرے	-9.8933
▁سول	-9.89383
se	-9.89502
▁سکی	-9.89522
▁پیک	-9.89545
!‘‘	-9.89554
▁پالیسیانی	-9.89629
▁شعرانی	-9.89632
▁سالے	-9.89684
▁ادینک	-9.89838
▁بندش	-9.89935
▁نیٹورک	-9.9016
▁ھنچیں	-9.90179
▁ہشت	-9.90211
▁ہونا	-9.90293
▁چنڈ	-9.90375
▁دینت	-9.90404
▁تحریک	-9.90503
▁اشتر	-9.90529
▁نگد	-9.90626
▁گلانی	-9.90658
▁اسلامی	-9.90688
▁دوستیں	-9.90719
▁تاریخی	-9.90818
▁سسا	-9.90883
۔اے	-9.90897
▁اندرءَ	-9.90907
▁چکے	-9.90926
▁F	-9.90946
▁کاریت	-9.91022
▁سیمسر	-9.91077
▁ماھتاک	-9.91086
دومی	-9.91154
▁نزینک	-9.91172
▁ھاترءَ	-9.91267
▁کارگس	-9.91396
▁فوجی	-9.91416
▁دائم	-9.91508
▁کندگ	-9.91577
▁ڈک	-9.91605
▁اشکنگ	-9.91625
▁برزیں	-9.91705
▁موہ	-9.91765
ار	-9.91767
▁طور	-9.91787
▁نئیت	-9.91797
▁گونڈیں	-9.91838
▁جل	-9.91869
▁زالبولانی	-9.91954
▁پیریں	-9.91994
▁انصاف	-9.92027
▁all	-9.92033
▁چیئرمین	-9.92074
گڑا	-9.92255
▁مئیں	-9.9233
▁ماسٹر	-9.92373
▁نادراہی	-9.92374
▁پادانی	-9.92432
▁ساچشتی	-9.92475
▁لڈ	-9.92503
▁نویسگ	-9.92705
▁استیں	-9.92746
▁نیوز	-9.92747
▁سرکماش	-9.92804
▁ہکانی	-9.92881
▁خاص	-9.92896
چے	-9.92955
▁ریل	-9.93039
▁سنگتے	-9.93077
▁افغانستان	-9.93078
▁جاہے	-9.93192
▁تواری	-9.93227
▁لکھ	-9.93415
▁رؤگ	-9.93544
▁مومن	-9.93574
▁گالوار	-9.93615
▁رنج	-9.93664
▁لیے	-9.937
▁مک	-9.9371
▁پہک	-9.93846
▁مہناز	-9.93878
▁اتیں	-9.93898
▁پژدر	-9.9422
▁دگر	-9.94234
▁بدی	-9.94295
▁یورپ	-9.94327
▁ادار	-9.94391
▁حیران	-9.9441
▁ہرچ	-9.94507
▁تھا۔	-9.94539
▁ساجد	-9.94548
▁جمالدینی	-9.94599
▁راز	-9.94733
▁اروس	-9.94889
▁سپت	-9.95026
▁لڑ	-9.95071
▁کمالان	-9.95088
نوکیں	-9.95112
▁فائدہ	-9.95129
▁کنیں۔	-9.95146
▁جیئند	-9.95163
▁وتن	-9.95228
▁دیوانے	-9.95276
▁پارسی	-9.95286
▁سمی	-9.95446
▁بلیدہ	-9.9545
▁گستا	-9.95479
▁3	-9.95482
▁ایا	-9.95505
▁خیر	-9.95551
▁توامیں	-9.95561
▁دچار	-9.95583
▁گیپت	-9.95681
▁چادر	-9.9569
▁امن	-9.95756
▁گشاں	-9.95842
▁مرز	-9.9587
▁چہر	-9.95962
▁قدر	-9.96029
▁٭٭٭	-9.9603
▁بک	-9.96086
▁بینک	-9.96134
▁ماہتاک	-9.96147
▁معلوم	-9.96177
▁بچکند	-9.96281
نوں	-9.96394
▁پاکیں	-9.96456
▁اسپ	-9.96541
▁ساپ	-9.96556
▁اسکواڈ	-9.9656
▁اؤرتگ	-9.96674
▁بوگءَ	-9.96695
▁بلک	-9.96733
▁اناں	-9.96757
▁چارمی	-9.96767
▁کچھ	-9.96773
▁مردین	-9.96781
▁نگ	-9.96799
▁بگ	-9.96829
▁نزاناں	-9.96874
▁خود	-9.96882
▁پلہ	-9.97005
▁مطلب	-9.9702
▁ھمگرنچ	-9.97071
▁کرتے	-9.97076
▁اسپیت	-9.97113
▁یازدہ	-9.97145
▁نقصان	-9.97206
▁ڈپٹی	-9.97235
▁ناماں	-9.97478
▁ملکانی	-9.97507
▁when	-9.97517
▁she	-9.97528
▁شئے	-9.9754
ئی	-9.97579
▁۔۔۔۔	-9.97598
▁B	-9.97728
▁بروت	-9.97741
on	-9.97821
▁18	-9.97863
▁جاہاں	-9.97878
▁اتگ۔	-9.98041
▁چارت	-9.98084
▁واست	-9.98172
▁براہ	-9.9819
▁اورت	-9.98271
▁زیان	-9.98278
▁نزانت	-9.9844
▁ھیر	-9.98589
▁رسانکدراں	-9.98634
▁گندئے	-9.98771
▁پراہ	-9.98811
▁گریوگ	-9.98836
▁ھمود	-9.98897
▁غزل	-9.98945
▁ھراب	-9.99011
▁دروشمے	-9.99047
▁پیسرا	-9.99215
▁واھند	-9.99218
▁بوگی	-9.99286
▁کوشست	-9.99309
▁سان	-9.99329
▁ہبر	-9.99332
▁ھوش	-9.99424
▁اسرائیل	-9.99444
▁ئا	-9.99445
▁T	-9.99448
▁دوبر	-9.99472
ری	-9.99492
▁S	-9.99516
▁چینی	-9.9953
▁سانگ	-9.99614
▁وقت	-9.99627
▁مذہبی	-9.99638
▁بگوش	-9.99666
▁موبائل	-9.9971
▁یکجہتی	-9.99732
▁حصہ	-9.9984
▁گنج	-9.99938
▁کسمانک	-9.99987
▁ہوٹل	-10.0013
▁نادراھجاہ	-10.0013
▁دگنیا	-10.0014
▁سیاھیں	-10.0022
▁دپءَ	-10.0036
▁مسلم	-10.0043
▁سوال	-10.0044
▁بگش	-10.0044
▁راه	-10.0071
▁ز	-10.0075
▁ہاشمی	-10.0078
▁بیر	-10.008
▁شیخ	-10.0082
▁زرتگ۔	-10.0082
▁most	-10.0108
▁لوٹت	-10.0111
▁وانینگ	-10.0118
▁سوبین	-10.0123
▁کانود	-10.013
▁پکار	-10.0134
▁up	-10.0137
▁یو	-10.0137
▁گلاں	-10.0138
▁ناصر	-10.0144
▁دلجمی	-10.0151
▁مل	-10.0157
▁ہپت	-10.0165
▁ایراد	-10.0168
▁نمیران	-10.0169
▁دلجم	-10.0169
▁دستیگ	-10.0169
▁گالبند	-10.0172
during	-10.0173
▁گوما	-10.0175
▁سب	-10.0182
▁ورناہ	-10.0195
▁پنجاب	-10.0199
دو	-10.0201
▁دراتک	-10.021
▁چارات	-10.0223
▁جتگ۔	-10.0224
▁بام	-10.023
▁لوگانی	-10.0231
▁ارب	-10.0235
ary	-10.0236
▁زانتی	-10.0237
▁میری	-10.0237
نا	-10.0239
▁صفت	-10.024
▁انتزامیہ	-10.0241
ج	-10.0247
▁زیادہ	-10.0253
▁تچکیں	-10.0254
▁اتگیں	-10.0256
▁جناں	-10.0259
▁صوبہ	-10.027
▁سارتیں	-10.0274
کار	-10.0276
▁لوٹیت۔	-10.0277
▁وفا	-10.0281
▁کورٹ	-10.0283
▁game	-10.0297
▁گندگءَ	-10.0306
▁only	-10.0317
▁سوچ	-10.0322
▁سگریٹ	-10.0324
▁نیکراھی	-10.0325
▁گا	-10.0326
▁پوست	-10.0334
▁سبزیں	-10.0337
▁سربوتگیں	-10.034
▁ٹیکنالوجی	-10.0342
▁زباناں	-10.036
▁سوشل	-10.037
▁شست	-10.0385
▁جتائی	-10.0392
▁بج	-10.0397
▁ہوتا	-10.0404
▁ریش	-10.0406
▁پوشاک	-10.0406
▁وهد	-10.0407
▁پھل	-10.0408
▁نیں	-10.0419
▁دیگر	-10.0429
▁ھشک	-10.0431
▁شرتریں	-10.0432
▁ھچبر	-10.0433
▁الی	-10.0438
▁زیرگ	-10.0446
▁عزیز	-10.0453
in	-10.0453
▁مقصد	-10.0457
▁رہشون	-10.0459
▁زئی	-10.046
▁زندگیں	-10.0463
▁سا	-10.0465
▁ھواری	-10.0469
▁بنیادم	-10.0471
▁گشے	-10.0473
▁نامہ	-10.0478
چو	-10.0491
▁کند	-10.0497
▁درس	-10.0498
▁ہنچو	-10.0501
▁گوشت۔	-10.0502
▁بیگا	-10.0522
▁راھے	-10.0523
▁احت	-10.054
▁ندکار	-10.054
▁بور	-10.0542
▁گوم	-10.0546
▁روایت	-10.0555
▁تنک	-10.0567
▁وکیل	-10.0575
▁مسلمان	-10.0584
▁وڈ	-10.0589
▁ڈیہہ	-10.0594
▁اسل	-10.0597
▁تاکت	-10.06
ion	-10.0603
▁گاڑیانی	-10.0629
▁شرف	-10.0631
▁ارت	-10.0638
▁داراں	-10.0641
▁بلکن	-10.066
▁برابر	-10.0661
دل	-10.0662
▁]	-10.0669
▁جندئیگ	-10.067
▁باری	-10.0673
▁زیبا	-10.0678
▁امریکی	-10.0679
▁کاف	-10.0684
tween	-10.0684
▁سارت	-10.0689
▁شتاں	-10.0698
▁کلام	-10.0705
▁اسی	-10.0707
▁نزیکیں	-10.0709
▁میڑ	-10.0714
▁کتاباں	-10.0732
▁وهدے	-10.0734
▁دماغ	-10.0734
▁صبا	-10.0734
▁علاج	-10.0739
▁بوہان	-10.0741
▁نامے	-10.075
▁ڪہ	-10.0751
▁ھندی	-10.0752
▁دگے	-10.0756
about	-10.076
▁بئیگ	-10.0767
▁اہوالکار	-10.0773
می	-10.0774
▁ھاک	-10.0775
▁ھمدا	-10.0777
داں	-10.078
▁ھرچی	-10.0782
▁پرک	-10.0783
▁وانگجاہ	-10.0784
▁پرواز	-10.0786
▁سئیں	-10.0788
▁out	-10.0789
▁ھانی	-10.079
▁لین	-10.0796
▁کونسل	-10.0803
▁نیکی	-10.0808
▁اؤرت	-10.0811
▁ارشاں	-10.0813
▁پروشگ	-10.0818
▁him	-10.083
▁دزی	-10.083
▁دیدگ	-10.0839
ال	-10.0839
▁حاترا	-10.0845
▁زاھر	-10.0851
تی	-10.0856
۔۔	-10.0857
▁پیشی	-10.0858
▁علمی	-10.0865
▁علیہ	-10.0876
▁سالانی	-10.0878
▁لا	-10.088
▁کامیاب	-10.0907
▁ایوب	-10.0908
▁شپے	-10.0908
▁رضا	-10.0915
▁گلہ	-10.0917
▁کینگ	-10.0923
دی	-10.0924
▁گواہ	-10.0925
▁یاں	-10.0927
▁مگر	-10.0928
▁کام	-10.0932
▁تمام	-10.0936
▁گوئشت	-10.0938
▁ظلم	-10.0951
▁","	-10.0955
▁سرمچارانی	-10.0956
▁مشکے	-10.0961
▁play	-10.0964
▁انگتہ	-10.0969
▁محبت	-10.0971
▁ادارہانی	-10.0973
▁بلوچے	-10.0974
▁سلامت	-10.0976
▁حون	-10.0977
ce	-10.0978
▁ثابت	-10.0978
▁again	-10.0988
▁نون	-10.0998
▁لبزانت	-10.0999
▁کول	-10.1
▁کشندہ	-10.1006
▁جاه	-10.101
▁کوپگ	-10.1012
▁لیگ	-10.1018
▁سلمان	-10.1019
▁پورا	-10.1021
▁اوشت	-10.1029
▁ظاہر	-10.1034
▁three	-10.1037
▁ڈیک	-10.1039
نت۔	-10.1039
انت۔	-10.1041
▁اھگ	-10.1042
▁بوھیر	-10.1049
▁فکشن	-10.1065
!......	-10.1072
▁ھمائی	-10.1078
▁گوشئے	-10.108
r	-10.1082
▁درک	-10.1083
ہم	-10.1094
▁داریت۔	-10.1094
▁نکش	-10.1094
▁چند	-10.1102
▁بدار	-10.1103
▁season	-10.1105
▁ذاتی	-10.1121
▁ورنایانی	-10.113
وت	-10.1132
▁''	-10.1132
▁نامدار	-10.1137
▁باگ	-10.1138
▁رھادگ	-10.1139
▁نیت	-10.1144
▁ادمین	-10.1151
▁کپان	-10.1157
▁حلک	-10.1158
▁رؤت	-10.1161
▁جز	-10.1162
ish	-10.1167
▁بیوکیں	-10.1176
▁فضل	-10.1177
▁عام	-10.118
▁باج	-10.1186
▁چاردہ	-10.1203
▁ساعت	-10.1208
▁انور	-10.1209
▁ادارھاں	-10.1217
▁بکنت۔	-10.1217
▁زامران	-10.122
▁۔ائی	-10.1221
▁بکناں	-10.1225
▁نبیس	-10.1227
▁گیشینگ	-10.1228
▁بگل	-10.1232
▁تچان	-10.1234
▁استمان	-10.1235
▁لیک	-10.1236
▁پالیسی	-10.1241
▁On	-10.1244
▁چ	-10.125
گی	-10.1251
▁گشت۔	-10.1252
▁المیں	-10.1254
▁قاسم	-10.1256
▁کلی	-10.1258
اس	-10.1262
▁کبر	-10.1262
▁بنجاہ	-10.1266
▁تجربہ	-10.1271
▁اؤکیں	-10.1275
▁us	-10.1276
▁اسپیتیں	-10.1287
▁باپاری	-10.1303
▁چیک	-10.1307
▁گوک	-10.1309
▁ولی	-10.1311
▁than	-10.1312
یہ	-10.132
▁بران	-10.132
▁سعید	-10.1328
▁چن	-10.1329
▁گڈسر	-10.1331
▁راجمان	-10.1334
▁ستا	-10.1346
▁کردے	-10.1347
غ	-10.1349
▁تعلیم	-10.1351
▁وائرس	-10.1359
▁دلبڈی	-10.136
▁دلیل	-10.136
▁نبی	-10.1364
▁ہائی	-10.1366
▁دوستین	-10.1368
▁راجمانی	-10.1371
▁بئیں	-10.1372
▁امین	-10.1375
▁انگہ	-10.1382
▁شیئر	-10.1386
▁شاعرانی	-10.1388
▁اومان	-10.139
▁نظم	-10.1394
▁دمک	-10.1395
▁کارمرزی	-10.1396
▁حرکت	-10.1398
▁کمبر	-10.1402
...?	-10.1407
▁ہوش	-10.1408
▁ائیا	-10.1409
▁ردیں	-10.141
▁السی	-10.1412
▁سسٹم	-10.1412
▁')	-10.1416
▁فون	-10.1428
▁ھندوستان	-10.1432
▁قول	-10.1433
▁بجٹ	-10.1443
▁ضرورت	-10.1449
▁بزگی	-10.1463
▁C	-10.1469
▁باسکاں	-10.1492
▁پترت	-10.1502
▁گڑ	-10.1511
▁through	-10.1514
▁جاتا	-10.1521
▁زرباری	-10.1523
▁ادینگ	-10.1526
▁گالاں	-10.153
▁سنچ	-10.153
▁تئ	-10.1537
▁اندیم	-10.154
▁حاکم	-10.1547
▁موکل	-10.1548
▁رحم	-10.155
▁لانچ	-10.155
▁تہار	-10.1552
▁پونز	-10.1552
▁غنی	-10.1555
▁نبشتگیں	-10.1555
▁سرے	-10.1558
▁بہار	-10.1562
▁جاگہے	-10.1564
▁زبانءَ	-10.1564
▁دودمان	-10.1567
▁میدان	-10.1568
▁دولت	-10.1571
▁جنئگ	-10.1574
▁حانی	-10.1581
▁فرق	-10.1582
▁زوریت	-10.1594
▁سست	-10.1594
▁زیب	-10.1595
▁لوگے	-10.1597
▁کوٹ	-10.16
▁پلانی	-10.1611
▁5	-10.1615
▁پہنات	-10.1617
▁لوگاں	-10.1626
▁کشیں	-10.1628
▁زیمر	-10.1634
▁سیاد	-10.1665
▁قانون	-10.167
▁تگ	-10.1681
▁m	-10.1682
▁بازینے	-10.1684
▁[	-10.1684
▁لبزاں	-10.1685
▁سمجھ	-10.1686
▁سوبمند	-10.1687
▁عملی	-10.1691
▁ارواح	-10.1695
▁راشد	-10.1702
را	-10.1713
▁پیرک	-10.1715
▁ابرم	-10.1715
▁later	-10.1736
▁نیامءَ	-10.1737
▁پند	-10.174
▁چندے	-10.1741
▁while	-10.1746
▁قرار	-10.1771
▁ترکی	-10.1775
▁گوز	-10.1779
▁متاثر	-10.178
▁یعنی	-10.1783
▁ھیران	-10.1785
▁مے	-10.1785
▁منظور	-10.1786
▁وڈیں	-10.1789
▁ہندوستان	-10.1791
▁رجینگ	-10.1793
▁تاکہ	-10.1793
▁رجانکار	-10.1802
دیم	-10.1802
▁ھردو	-10.1803
▁روش	-10.1803
▁ھستی	-10.1805
▁درداں	-10.1806
گوشتگ	-10.1806
▁دینی	-10.1812
تگیں	-10.1835
▁قبر	-10.184
▁پیچ	-10.1862
▁بلد	-10.1863
▁دیا	-10.1866
▁زالبولے	-10.1867
▁بگندئے	-10.187
▁جنوک	-10.1871
▁some	-10.1875
▁زوال	-10.188
▁نظریہ	-10.188
▁لازم	-10.1888
▁اچہ	-10.1891
▁لائن	-10.1892
▁صاف	-10.1894
▁ہندی	-10.1895
▁سرء	-10.1898
▁تہی	-10.1909
▁زیات	-10.1911
▁گی	-10.1915
▁نیکیں	-10.1916
▁شعرءِ	-10.192
▁خاندان	-10.1936
▁گوھار	-10.1937
▁ریچ	-10.194
▁چتور	-10.1949
▁باریگ	-10.1956
made	-10.1958
▁ارزان	-10.1959
▁وانندہ	-10.1964
▁کلاں	-10.1968
▁زار	-10.1971
▁گلامی	-10.1974
▁تپاس	-10.1982
▁ربیدگی	-10.1984
▁زرمبش	-10.1986
▁پرپٹ	-10.1991
▁روسی	-10.1997
▁گلے	-10.1998
▁رندی	-10.2003
▁حاصیں	-10.2005
▁زیبائیں	-10.201
▁وزن	-10.202
▁لعل	-10.2023
دگہ	-10.2029
▁کپت۔	-10.203
▁پشتءَ	-10.2031
▁انا	-10.2038
▁نندوکیں	-10.2041
▁درامد	-10.2045
▁سینگ	-10.2048
▁چمشانک	-10.2048
?”	-10.2051
▁گوشدارگ	-10.2066
▁جگر	-10.2067
▁لوٹگ	-10.2073
▁گردن	-10.2075
▁گوشنت	-10.2075
▁گہگیری	-10.208
▁4	-10.208
▁اگدہ	-10.2087
▁می	-10.2093
▁کیمپ	-10.2097
▁خاران	-10.21
▁استال	-10.2101
ون	-10.2104
▁چر	-10.2112
▁ایشان	-10.2119
▁دگرے	-10.212
یاں	-10.213
▁مروچیگیں	-10.214
▁ھمنچو	-10.2144
▁گہرام	-10.2155
▁جوش	-10.2161
▁توارے	-10.2172
▁چوک	-10.2172
تگ	-10.2174
▁صرف	-10.2175
”.	-10.2175
▁گواچن	-10.2176
▁بوتین	-10.2176
▁ورنائی	-10.2177
ھو	-10.2178
able	-10.2179
▁مردمی	-10.2179
▁ایوکا	-10.219
▁پرواہ	-10.2196
▁ام	-10.2203
▁ریڈیو	-10.2204
▁لج	-10.2216
▁پا	-10.2222
▁دستا	-10.2227
▁گراب	-10.223
▁تچگ	-10.2231
▁دژمنیں	-10.2234
▁شت۔	-10.224
▁گلیں	-10.2244
▁ھار	-10.2252
▁ہمرائی	-10.2253
▁ظفر	-10.2255
▁شاعراں	-10.2256
▁ائید	-10.2259
بیت	-10.2263
▁ازادی	-10.2265
▁چھ	-10.227
▁پرشت	-10.2274
▁پش	-10.2274
▁۔من	-10.2274
▁تاکبند	-10.2282
▁اتک۔	-10.2284
▁جماعت	-10.2285
▁ھنچوش	-10.229
▁مئیل	-10.2292
▁نوزدہ	-10.2298
▁چمے	-10.2304
▁کمپیوٹر	-10.231
▁زات	-10.2318
▁بوئیگ	-10.232
▁اسان	-10.2321
▁مرت	-10.2324
▁طرف	-10.2326
پد	-10.2328
▁تہاریں	-10.2329
▁سبی	-10.2331
▁دلوت	-10.2333
▁دریں	-10.2338
▁گوزان	-10.2338
▁کہنیں	-10.2339
▁گلگ	-10.234
▁درچکانی	-10.2343
▁ھنچو	-10.2362
▁خانہ	-10.2365
▁ڈیٹا	-10.2374
▁زھیر	-10.2393
▁ضلع	-10.2396
▁تہہ	-10.24
▁پریات	-10.2401
ity	-10.2403
▁زانشت	-10.2411
▁درشانداب	-10.2412
▁مکسد	-10.2418
▁میڈیکل	-10.2419
us	-10.2436
▁اسحاق	-10.2441
تاکدیم۔	-10.2443
ھما	-10.2443
▁بنزہ	-10.2444
▁ساد	-10.2445
i	-10.2447
▁نواز	-10.2452
▁قبول	-10.2456
▁تم	-10.246
▁اشیءِ	-10.2461
▁دپی	-10.2461
▁شپاں	-10.2465
▁ادارگ	-10.2471
ٹ	-10.2472
▁فقیر	-10.2473
▁حقانی	-10.2486
▁کولواہ	-10.2487
▁پنت	-10.2489
▁دیمترا	-10.2493
▁پدریچ	-10.2499
▁کایاں	-10.2505
▁بز	-10.2506
▁سار	-10.2506
▁زہیر	-10.2509
▁کاروباری	-10.2512
▁اتار	-10.2517
▁پروگرام	-10.2519
▁جہاں	-10.252
▁پاگ	-10.252
▁روح	-10.2525
▁صلی	-10.2529
▁پرمان	-10.254
▁ھنر	-10.2547
▁اختر	-10.2555
▁لے	-10.2556
▁رک	-10.2563
▁چاریت	-10.2564
▁یونین	-10.2567
▁زانتکاری	-10.2572
▁ارشے	-10.2582
▁ھان	-10.2585
▁ہوئی	-10.2588
پدا	-10.2589
▁گرمیں	-10.2596
▁پندل	-10.2601
▁کانفرنس	-10.2605
▁چنگ	-10.2607
ever	-10.2607
▁واکداراں	-10.2624
▁بجلی	-10.2629
▁راجدپتری	-10.2633
▁new	-10.2646
▁مدتے	-10.2651
▁بائد	-10.2654
▁پناہ	-10.2654
▁سوگند	-10.2655
▁پاٹی	-10.2655
▁کارمندانی	-10.2657
▁ھستیں	-10.2658
▁قدیم	-10.2659
▁شازادگ	-10.266
▁کھ	-10.2668
▁where	-10.2675
▁جاری	-10.2676
▁تجربت	-10.2682
such	-10.2686
▁لوٹانی	-10.2686
▁بزگیں	-10.2686
▁وران	-10.2688
▁ڈیتھ	-10.2692
▁محمود	-10.2692
▁کلگ	-10.2701
▁جنینے	-10.2701
▁دورءِ	-10.2707
▁ڈس	-10.2708
▁عابد	-10.2714
▁ٹاہ	-10.2718
▁دورءَ	-10.2718
▁اندری	-10.2725
یانی	-10.2733
▁ہمودا	-10.2736
▁میاں	-10.2736
▁ھسپتال	-10.2738
▁درملکی	-10.274
▁بندر	-10.2743
▁کنغ	-10.2753
▁دوری	-10.2757
نبشتانک	-10.2757
▁them	-10.2757
▁یوکرین	-10.2758
▁درگیجگ	-10.2759
▁مالک	-10.2769
▁نویسی	-10.2771
▁دیراں	-10.2776
▁زبہر	-10.2781
▁شروع	-10.2788
▁کوچگ	-10.2791
▁چاگردءِ	-10.2791
ھ	-10.2793
▁کوھانی	-10.2799
▁گونڈو	-10.2803
▁ساہگ	-10.2816
▁دنیاءَ	-10.2817
▁مز	-10.2819
پ	-10.2822
▁number	-10.2826
▁جیل	-10.2832
▁شھدربرجاہ	-10.2833
▁غوث	-10.2836
▁ساچ	-10.2839
▁اہم	-10.284
▁انوگیں	-10.2855
▁مولوی	-10.2857
▁M	-10.286
▁دریگ	-10.286
▁ات۔۔۔	-10.2862
▁بدنت	-10.287
▁پلاں	-10.2875
▁بری	-10.2876
▁ترین	-10.2878
▁جاہءَ	-10.2887
▁ستر	-10.2896
▁سرھال	-10.2901
▁نمیرانیں	-10.2901
▁برمش	-10.2903
▁کمتر	-10.2905
▁پور	-10.2908
▁چرائی	-10.2913
▁وجہ	-10.292
▁قوت	-10.2922
▁ادیم	-10.2927
▁شرگدار	-10.2933
▁گوانک	-10.2937
▁رہ	-10.295
▁دانک	-10.296
","	-10.2961
▁نیاما	-10.2971
▁مرتگیں	-10.298
▁follow	-10.2983
▁ھاران	-10.2984
▁گژن	-10.2985
▁بینگ	-10.2996
▁اہگ	-10.2996
▁ذکر	-10.3
▁وتکشی	-10.3
▁پائدگ	-10.3007
▁دانگ	-10.3018
▁وابانی	-10.3023
▁پرشتگ	-10.3023
▁ھمیشی	-10.3024
▁زھری	-10.3029
▁سرین	-10.3031
▁تپاوت	-10.3032
▁This	-10.3034
▁نت	-10.304
▁چوپ	-10.304
▁ہچبر	-10.3041
▁امروز	-10.305
▁چیرا	-10.3054
▁اشوبی	-10.3059
▁بازین	-10.3064
▁دمب	-10.3067
▁ڈرائیور	-10.3067
▁خالد	-10.3077
▁امریکا	-10.3085
▁استار	-10.3087
کنگ	-10.309
میں	-10.3094
▁سود	-10.3101
▁ہمدا	-10.3103
اپ	-10.3105
باز	-10.3109
▁بنیادی	-10.3111
▁پنچمی	-10.3112
▁بژن	-10.3113
▁سرحال	-10.3119
▁جمبر	-10.3122
▁کشان	-10.3124
▁گھار	-10.313
▁مساپر	-10.3139
▁film	-10.3152
▁قلم	-10.3152
▁رن	-10.3153
▁موتک	-10.3161
▁being	-10.3165
▁سوسائٹی	-10.3168
▁جنکانی	-10.3171
▁بنیات	-10.3175
▁پازل	-10.318
▁نوکی	-10.3181
▁ھشکیں	-10.3185
▁زندگانی	-10.3186
▁تاکدیم۔	-10.3192
▁رندگیری	-10.3198
ڈ	-10.32
▁بندوکیں	-10.3204
▁دستگیر	-10.3206
▁ھپتاد	-10.3209
▁چینچو	-10.3211
▁000	-10.3219
▁سیاھگ	-10.3227
▁record	-10.3231
▁New	-10.3234
▁song	-10.3238
▁مین	-10.3239
▁کاہ	-10.3245
▁یعنے	-10.3249
▁باوست	-10.3252
............	-10.3252
▁ماه	-10.326
▁شعور	-10.3263
۔بلے	-10.3269
▁انسانءِ	-10.3272
▁before	-10.3273
▁شپءَ	-10.3275
▁part	-10.3278
▁جد	-10.3283
▁درسد	-10.3285
جی	-10.3293
▁ترجمہ	-10.3294
ےءَ	-10.3295
▁لیاری	-10.3295
▁ھبرے	-10.3306
ع	-10.331
▁وانوکاں	-10.3317
▁رہے	-10.3325
▁تپنگ	-10.3328
▁پدی	-10.3335
▁گالانی	-10.3336
مہ	-10.3337
▁بزدار	-10.334
▁وہداں	-10.3342
▁سنی	-10.335
▁اشنا	-10.335
▁مواد	-10.3351
▁نسیم	-10.336
▁سرزمین	-10.3366
مراد	-10.3371
▁e	-10.3391
▁واکدارانی	-10.3392
▁جاگہہ	-10.3394
▁مارشتانی	-10.3397
▁کپیت۔	-10.3404
▁مروچاں	-10.3405
▁ھکم	-10.3408
▁دراں	-10.3419
▁تری	-10.3419
▁چکچینی	-10.342
▁استعمال	-10.3426
▁ناچ	-10.3427
▁ہوتی	-10.343
▁دائمی	-10.3437
▁درکپت	-10.3437
▁ایرانءِ	-10.3442
▁لندن	-10.3448
▁ملکے	-10.3459
▁اشک	-10.346
▁ننگ	-10.3462
▁یونانی	-10.3471
▁چارگءَ	-10.3477
▁second	-10.3479
▁نیل	-10.3497
▁ھوٹل	-10.3499
▁ابن	-10.35
▁راھبند	-10.3502
ڈاکٹر	-10.3514
le	-10.3515
▁دلے	-10.3537
▁سیم	-10.354
▁سیٹ	-10.354
ایشی	-10.3544
▁شئر	-10.3544
▁سو	-10.3553
▁پہر	-10.3553
▁نبیت	-10.356
▁برپ	-10.3563
او	-10.3566
▁ازمانکے	-10.3568
▁اخلاقی	-10.3571
▁معاملہ	-10.3576
gan	-10.358
ایاں	-10.3581
▁رم	-10.3583
▁گیگ	-10.3596
▁پرشتگیں	-10.3598
▁درکانودی	-10.3604
▁عباس	-10.3604
▁جہانی	-10.361
▁ہان	-10.3613
تر	-10.3615
▁نزوریں	-10.362
▁ازار	-10.3624
▁توان	-10.3627
▁بالا	-10.364
▁وانگءَ	-10.3647
▁ژا	-10.365
▁دنیگا	-10.3651
▁گوازینتگ	-10.3656
▁هبر	-10.3657
▁سریں	-10.3661
▁وام	-10.3668
▁سیکورٹی	-10.3675
▁الدین	-10.3685
▁خلاف	-10.3685
▁زیت	-10.3691
▁جنزان	-10.3695
▁جنجالانی	-10.3695
▁وہدی	-10.3696
▁اقبال	-10.3696
▁under	-10.3703
▁پشک	-10.3707
▁کرتا	-10.3715
▁ابا	-10.3727
▁اختیار	-10.3729
▁ادمی	-10.3732
▁درانگازی	-10.3737
▁work	-10.374
ائیں	-10.374
▁سراوان	-10.3741
▁رہا	-10.3753
۔۔۔۔۔	-10.3754
▁تاھیر	-10.3777
▁تبک	-10.3781
▁گپتگیں	-10.3781
▁ری	-10.3782
▁گۆں	-10.3784
▁al	-10.3784
▁call	-10.3789
▁حمید	-10.3804
▁سیاہیں	-10.3807
▁صدی	-10.3808
بلئے	-10.381
▁مہرانی	-10.3826
▁گنوکی	-10.3826
▁افسر	-10.3836
▁جستے	-10.3841
▁بھرے	-10.385
▁گونڈ	-10.3852
▁پما	-10.387
▁اہمد	-10.3872
▁چات	-10.3873
▁چا	-10.3874
▁چاچ	-10.3874
▁end	-10.3889
▁روگی	-10.3889
an	-10.3891
▁سرشون	-10.3894
ترا	-10.3901
▁دیدگاں	-10.3902
▁اشکتگ	-10.3903
▁وثی	-10.3916
▁حکیم	-10.3918
▁ہمگرنچ	-10.3919
▁چول	-10.3934
▁انکار	-10.3936
▁مارشتاں	-10.3937
▁نیاں	-10.394
▁ڈکال	-10.3951
▁چپی	-10.3951
▁دگرانی	-10.3953
▁گشان	-10.3959
▁کارءُ	-10.3963
▁کسءَ	-10.3966
▁روچگ	-10.3968
▁can	-10.3969
▁زد	-10.3974
شپ	-10.3975
▁عدالت	-10.3977
▁تنقید	-10.3979
▁منافع	-10.3982
▁صوبائی	-10.3984
▁لاہور	-10.3987
▁de	-10.3987
▁کریمہ	-10.3992
▁سواریں	-10.3994
▁گماں	-10.3998
▁مود	-10.4
▁نازک	-10.4006
▁وابے	-10.401
انہ	-10.4016
▁کنے	-10.4022
▁high	-10.4023
▁انسانے	-10.4024
▁مجبور	-10.4036
▁بوتگنت	-10.4046
▁وپت	-10.4049
▁large	-10.4051
▁چونائی	-10.4052
▁area	-10.4054
▁وئیلاں	-10.4055
▁حبرے	-10.4057
▁گپءُ	-10.406
▁بابا	-10.4064
▁جنگءَ	-10.4068
▁نوکین	-10.407
▁there	-10.4073
land	-10.4073
▁album	-10.4085
▁گپت۔	-10.4091
▁سعودی	-10.4093
▁واہند	-10.4094
▁مبارکی	-10.4098
▁اھد	-10.4098
▁اسماعیل	-10.4104
سی	-10.4106
▁نوکری	-10.4113
▁حالت	-10.4116
▁series	-10.4117
▁زھگانی	-10.4126
▁ایوکی	-10.4127
▁نثار	-10.4136
▁جستانی	-10.4137
▁تعلق	-10.4143
▁کتیں	-10.4144
▁لبزانکءِ	-10.4145
▁شاھی	-10.4147
▁سن	-10.4149
▁زمانگءَ	-10.4157
▁سلیمان	-10.4158
چی	-10.4161
▁مکہ	-10.4167
▁دوچ	-10.4168
▁توسیپ	-10.4172
ف	-10.4178
▁خالق	-10.4183
▁وسی	-10.4185
▁نهانت	-10.4186
▁re	-10.4188
▁سببءَ	-10.4193
▁قبائلی	-10.4194
▁فیض	-10.4196
▁رمضان	-10.4196
▁الاج	-10.4197
▁جنت۔	-10.4202
▁رودراتکی	-10.4206
▁موت	-10.4213
▁جانسلامتی	-10.4214
▁شھری	-10.4215
▁نگاہ	-10.4217
تا	-10.4222
▁پوش	-10.4225
▁وتگڑیں	-10.4226
▁کارمندے	-10.4228
▁حمزہ	-10.423
▁دگانی	-10.4231
▁روژنائی	-10.4232
یءَ	-10.4241
▁جتگیں	-10.4245
▁ابرمی	-10.4248
▁گھر	-10.4251
▁رسیت۔	-10.4256
▁ھمودا	-10.4267
▁توپک	-10.4268
▁شوربندی	-10.427
▁ہمراہی	-10.4278
▁دن	-10.428
▁لنٹ	-10.4284
▁گندیں	-10.4288
▁کرتنت	-10.4292
▁جیہند	-10.43
▁پشتی	-10.43
▁پولی	-10.4304
▁تمن	-10.431
▁کپوت	-10.4311
▁زمستان	-10.4315
▁کستریں	-10.4321
▁سھر	-10.4324
▁لمب	-10.4326
▁عیسیٰ	-10.433
▁دراتکگ	-10.4344
▁ھزاراں	-10.4345
▁عظیم	-10.4346
▁سوبمندی	-10.435
▁both	-10.4353
▁حیات	-10.4356
▁بزور	-10.4356
▁چاگردے	-10.4364
▁دلی	-10.4365
▁زاہر	-10.4373
▁اشارہ	-10.4373
▁ملامت	-10.4375
رد	-10.4376
▁حیالانی	-10.4383
▁چاگردءَ	-10.4391
▁کلاک	-10.4393
▁ڈالر	-10.44
▁نودربرے	-10.44
▁نال	-10.4402
▁no	-10.4403
بلکیں	-10.4413
▁اتکگ۔	-10.4414
..?	-10.4415
▁اسٹوڈنٹس	-10.4415
▁قبضہ	-10.4417
یناں	-10.4417
▁ہار	-10.4423
▁جائے	-10.443
▁قادر	-10.443
▁بازی	-10.4431
▁گریب	-10.4436
▁جرم	-10.4437
▁ممتاز	-10.4442
▁عطاشاد	-10.4443
▁احساس	-10.4445
▁والے	-10.4445
▁روگءَ	-10.4447
▁روکیں	-10.4454
▁راگ	-10.4454
▁میزان	-10.4456
▁نیٹ	-10.4458
▁جت۔	-10.4464
▁مزاحمت	-10.4467
▁includ	-10.4468
▁کوھی	-10.4472
▁دربرگ	-10.4474
▁پولکاری	-10.4478
▁لوگءِ	-10.4484
▁نیمون	-10.4485
▁راکٹ	-10.4486
▁کساسے	-10.4486
▁چمان	-10.4499
▁جاوید	-10.4506
▁سہی	-10.4514
▁ھپتگ	-10.4519
▁استحکام	-10.4524
▁بندیت	-10.4524
▁عیب	-10.4525
▁چوٹ	-10.4528
▁درچکے	-10.453
▁دیریں	-10.4535
▁پریں	-10.4536
▁گوراں	-10.4556
▁سراں	-10.4556
▁زوراک	-10.4557
▁هال	-10.4558
▁ہنچیں	-10.4558
▁مسافر	-10.4567
▁نبشتانکے	-10.4577
▁صابر	-10.4578
▁کوشش	-10.458
▁ضروری	-10.4585
▁زیمل	-10.4586
▁کلاس	-10.4591
میر	-10.4593
?......	-10.4602
اش	-10.461
▁اولس	-10.4611
S	-10.4616
came	-10.4623
▁then	-10.4625
▁form	-10.4628
▁روچءِ	-10.4628
▁بدے	-10.463
▁سارتی	-10.4633
▁گلاب	-10.4636
▁انقلاب	-10.4636
▁اعظم	-10.4641
’’(	-10.4642
▁شانک	-10.4643
▁حراب	-10.4644
▁بندانی	-10.465
▁دوچار	-10.4651
▁بحث	-10.4655
▁درکار	-10.4662
▁بریں	-10.4668
▁گلزار	-10.467
▁well	-10.4672
▁گئی	-10.4672
▁برداشت	-10.4678
▁درانگاز	-10.4678
▁پچیں	-10.4681
▁خون	-10.4681
▁مارکیٹ	-10.4682
▁فرانس	-10.4686
▁پشی	-10.4689
▁پلاٹ	-10.4696
▁برانز	-10.4701
▁show	-10.4706
▁ھنداں	-10.4707
▁ترمپ	-10.4708
▁اوان	-10.4714
▁ووٹ	-10.4717
▁پاکستانءِ	-10.4717
▁سمندر	-10.4719
▁پیری	-10.4726
▁ھ	-10.4728
▁known	-10.473
▁بزانکہ	-10.4731
▁نیمگاں	-10.4735
▁episode	-10.4738
دار	-10.4738
▁گزر	-10.4738
▁حوالہ	-10.4739
تے	-10.4742
▁بیل	-10.4743
▁موومنٹ	-10.4745
در	-10.4747
▁ھوں	-10.4747
▁جسم	-10.4751
▁قرض	-10.4756
▁بارے	-10.4757
▁دمگانی	-10.4758
▁گاریں	-10.4761
▁تهنا	-10.4761
پر	-10.4762
▁ڈکھ	-10.4772
▁اماچیں	-10.4772
▁زالبولاں	-10.4778
▁چیرءَ	-10.4782
▁کھولانی	-10.4784
▁گۆن	-10.4785
out	-10.479
▁اواں	-10.4798
▁ناکہ	-10.4799
▁6	-10.4802
▁کپتگ۔	-10.4803
▁کوھن	-10.4803
▁واھگانی	-10.4806
▁ناگمان	-10.4806
▁ہیال	-10.4811
▁بیرک	-10.4813
▁زری	-10.4821
▁بیبگر	-10.4822
▁۔بلے	-10.4823
▁وشبو	-10.4824
▁دنز	-10.4828
▁بنگلہ	-10.4829
▁عید	-10.4829
▁گھگیری	-10.4834
▁بدلیاں	-10.4848
▁کست	-10.4848
▁جیڑھانی	-10.4849
▁زمان	-10.4859
▁زورگیریں	-10.4859
.....	-10.4862
▁فدا	-10.4869
▁جمعہ	-10.4875
▁تیاری	-10.4876
▁اناگہ	-10.4877
▁ازمکار	-10.488
▁اپی	-10.4881
▁رژنائی	-10.4886
▁لفظ	-10.4891
▁باسکانی	-10.4894
▁تصور	-10.4894
▁اینڈ	-10.4896
▁یکوارے	-10.4904
▁قسم	-10.4909
▁ابراھیم	-10.491
▁پیشانی	-10.4919
▁پروم	-10.4924
▁سرد	-10.4934
▁فارم	-10.4934
▁دا	-10.4942
▁گشتانک	-10.4953
▁چندیں	-10.4958
▁بیتہ	-10.4965
▁درجہ	-10.4967
▁ھاکم	-10.4973
▁دستانی	-10.499
▁کشکے	-10.4995
▁زبیر	-10.4995
▁میرے	-10.4996
▁زنگ	-10.5002
▁اوگان	-10.5005
▁جهد	-10.5011
est	-10.5012
یگ	-10.5016
▁سیمسراں	-10.5021
▁مھکمیں	-10.5022
▁چیردستی	-10.5024
▁مادن	-10.5026
▁بادینی	-10.5027
▁میتگے	-10.503
▁like	-10.5035
▁صبر	-10.5056
▁گچینکاری	-10.5056
▁زانش	-10.5061
▁شہری	-10.5065
▁many	-10.5065
ے۔	-10.5069
▁رجانکاری	-10.5069
▁سہرا	-10.5073
▁رزا	-10.5104
▁پلیں	-10.5112
▁مقام	-10.5114
▁پہل	-10.5121
though	-10.5124
▁ریک	-10.5135
▁10	-10.5145
▁ڈل	-10.5148
▁ہنر	-10.5149
▁دیدار	-10.5152
▁کوپگاں	-10.5155
▁تور	-10.5158
سید	-10.5159
▁As	-10.5161
▁found	-10.5163
▁مشہور	-10.5164
▁مسئلہ	-10.5166
▁جزبگ	-10.5168
▁پشتون	-10.5171
▁ہمائی	-10.5171
▁تھے۔	-10.5179
؂	-10.518
▁گوزیت	-10.5182
▁ارساں	-10.5184
nited	-10.5189
!!	-10.5193
▁یکین	-10.5208
▁عبدالحمید	-10.5212
تریں	-10.5214
▁رپک	-10.5215
▁زمانگے	-10.5218
▁ارادہ	-10.5222
▁مختلف	-10.5223
▁سمین	-10.5225
▁داران	-10.5226
▁ٹاور	-10.5234
جاہ	-10.524
▁گواری	-10.5241
▁زبانی	-10.5244
▁مانیت	-10.5247
▁ہلک	-10.5247
ائیءَ	-10.5248
▁لوگی	-10.5256
▁والی	-10.5259
▁ناہ	-10.5263
▁نیا	-10.5277
▁ندارہ	-10.5279
▁رئیس	-10.5283
▁لگتمالی	-10.5286
بازیں	-10.5287
▁طاہرہ	-10.5289
▁R	-10.529
▁موٹر	-10.529
▁long	-10.529
▁سوئی	-10.5296
▁مارکس	-10.5304
▁چاڑ	-10.5313
▁راجدوست	-10.5313
ملا	-10.5318
▁پار	-10.5318
▁درمیان	-10.5324
▁سهیگ	-10.5324
۔۔۔۔۔۔۔۔۔۔۔۔۔۔۔۔	-10.5329
▁یورپی	-10.5329
▁بزنجو	-10.5335
▁جیڑہانی	-10.5337
▁قیمتانی	-10.5339
▁ٹال	-10.5343
▁سلطان	-10.5344
▁گئے	-10.5347
نگیں	-10.5347
بس	-10.5349
▁جدید	-10.5351
ھر	-10.5351
▁ناشرکاری	-10.5356
▁سمو	-10.5357
▁اخراجات	-10.5357
▁ملور	-10.5359
▁use	-10.5361
▁D	-10.5361
ص	-10.5362
▁داتہ	-10.5365
▁تپاکی	-10.5367
▁شات	-10.5379
اد	-10.5379
▁بہادر	-10.5398
▁جہت	-10.54
▁جنگے	-10.54
▁مندی	-10.5401
▁۔۔۔۔۔	-10.5407
▁خلیل	-10.5416
▁فلسفی	-10.5426
ائیءِ	-10.5429
▁پون	-10.5431
▁انداز	-10.5432
▁عادت	-10.5435
▁فاروق	-10.5444
▁حملہ	-10.5444
▁اشکت	-10.5446
▁رشید	-10.5458
................	-10.5459
▁شورو	-10.546
▁تچ	-10.546
▁بانور	-10.546
▁بیدار	-10.5461
▁سطح	-10.5462
▁زراں	-10.5462
▁اھمد	-10.547
▁مانداشتگ	-10.5474
▁فتح	-10.5475
گل	-10.5477
▁ایمن	-10.5483
▁دلانی	-10.5483
▁بلاش	-10.5486
▁century	-10.5486
▁گشاد	-10.549
▁رستگیں	-10.5492
▁الیکشن	-10.5493
▁زین	-10.5494
▁جاک	-10.55
▁یہاں	-10.55
▁سوگات	-10.5505
▁گورنر	-10.5508
▁محنت	-10.551
▁منتگ	-10.5513
▁ہونے	-10.5521
ic	-10.5525
▁پرچیکہ	-10.5525
▁مشین	-10.5525
▁ازمانکار	-10.5528
ٹی	-10.5538
▁ٹارگٹ	-10.5538
▁شاعریءِ	-10.5539
▁پتو	-10.5539
ٰ	-10.5547
▁کترینا	-10.5548
یءِ	-10.5549
▁کشمیر	-10.5556
▁جمیل	-10.5559
مردم	-10.556
▁میران	-10.5563
▁تژن	-10.5565
ہر	-10.5572
▁تان	-10.5572
▁دردے	-10.5573
▁گوازینت	-10.5575
▁تار	-10.5577
▁گرمی	-10.5578
▁عارف	-10.5584
▁پرستی	-10.5586
▁ہاں	-10.5589
▁four	-10.5589
▁شار	-10.5597
▁دگراں	-10.56
▁نکنت	-10.5605
▁گنجیں	-10.562
▁چڑھاؤ	-10.5625
▁کرم	-10.5625
▁مطابق	-10.5627
▁پانی	-10.5629
▁پہلے	-10.5629
ت۔	-10.5631
کیں	-10.5633
▁سڑک	-10.5637
▁کمکیں	-10.5638
سے	-10.5639
▁After	-10.564
▁دلگوشی	-10.565
▁گراہک	-10.5651
▁مجھے	-10.5655
▁ڈیہی	-10.5657
▁گیج	-10.5662
▁اندازہ	-10.5668
▁so	-10.5669
▁بباں	-10.5679
▁درامدیں	-10.5682
▁نوکتریں	-10.5682
▁درونت	-10.5687
▁توپان	-10.5691
▁اشتاپ	-10.5692
▁ملکءِ	-10.5695
▁تہذیب	-10.5696
▁کن۔	-10.5701
▁فکری	-10.5705
▁ند	-10.5709
▁گواچنی	-10.571
▁ٹیلی	-10.5712
▁بیھار	-10.5713
▁گمانی	-10.572
▁سرءُ	-10.5721
▁sever	-10.5722
▁American	-10.5722
▁پابندی	-10.5725
▁کڈن	-10.5729
▁ماث	-10.573
▁مرگے	-10.573
▁بگند	-10.5732
▁جیگ	-10.5733
▁لالا	-10.5737
▁بلوچءِ	-10.5739
▁بیتءُ	-10.575
▁بلو	-10.5761
▁مسال	-10.5768
▁ھیالانی	-10.5768
▁قائم	-10.5769
▁امیری	-10.5771
▁مندیں	-10.5774
▁دنتان	-10.5783
کا	-10.5788
▁تھت	-10.5788
▁میراث	-10.5789
▁ف	-10.5799
▁اسد	-10.5805
▁ازاتیں	-10.581
▁ابد	-10.5814
▁N	-10.5818
▁دعوت	-10.582
▁دربار	-10.5822
▁دوئمی	-10.5826
▁پسندی	-10.5833
▁مجگ	-10.5834
▁دئینت	-10.5836
▁شانزدہ	-10.5838
▁ایکشن	-10.5844
▁پروشتگ	-10.5844
▁درخواست	-10.5847
▁کواس	-10.5851
▁کروڑ	-10.5858
▁شاکر	-10.5863
▁براتاں	-10.5863
ائے	-10.5869
▁غریب	-10.5872
▁توجیل	-10.5878
▁گوہر	-10.5881
▁رنداں	-10.5886
▁توکلی	-10.5887
▁Brit	-10.5888
▁ڈنءَ	-10.5892
▁حاتم	-10.5892
▁تخلیق	-10.5894
▁بوتگاں	-10.5901
▁پڑا	-10.5902
▁بیلٹ	-10.5904
دست	-10.5907
▁نزر	-10.5909
▁ھمد	-10.591
▁لسبیلہ	-10.5911
▁کرسی	-10.5912
▁مردءَ	-10.5913
▁چیف	-10.5915
▁اپس	-10.5917
▁پلو	-10.5918
▁کمار	-10.5918
▁تین	-10.5918
▁سپاہی	-10.5919
▁ٹپاس	-10.5919
ق	-10.592
▁اکر	-10.5923
▁یے۔	-10.5926
▁چمگ	-10.5927
▁دیوانجاه	-10.5928
▁سیستان	-10.5934
▁زبھر	-10.5935
▁اڑے	-10.594
▁مقابلہ	-10.5942
▁خضدار	-10.5943
▁نازرکیں	-10.5943
▁کارستانی	-10.5945
▁۔ا	-10.5948
▁ماھل	-10.5963
▁ڈگارانی	-10.5965
▁دوار	-10.5966
▁کمکار	-10.5966
▁team	-10.5972
کن	-10.5973
▁ہواریں	-10.5975
▁جرمنی	-10.5978
▁ماھیگ	-10.5979
▁کائے	-10.599
بن	-10.5993
▁پڑءَ	-10.5995
▁دلا	-10.5998
▁near	-10.5999
▁وخت	-10.6008
▁پیسری	-10.601
▁نک	-10.6018
▁تراکے	-10.6026
▁راجءِ	-10.6037
▁تلار	-10.6039
▁دستے	-10.604
▁پلامرزی	-10.6043
▁تیلانک	-10.6046
▁ماھے	-10.6048
cause	-10.605
▁ہستی	-10.605
▁حمایت	-10.6051
▁زھگاں	-10.6052
▁شخصیت	-10.6057
▁صحت	-10.6062
▁دیوک	-10.6062
▁پھک	-10.6067
▁پلے	-10.6069
▁برطانیہ	-10.6075
▁نبشته	-10.6077
▁مھتل	-10.6079
▁شرکت	-10.6089
▁زھگے	-10.6092
▁اوشتگ	-10.6101
▁جمال	-10.6101
▁سرگوست	-10.6104
▁کاینت۔	-10.6106
▁سماجی	-10.6109
▁پروشت	-10.6111
ازمانک	-10.6117
بیا	-10.6121
▁سروزیر	-10.6121
▁پک	-10.613
▁ہندو	-10.6132
▁گروک	-10.6133
▁دوریں	-10.6138
▁سورت	-10.614
▁ریکی	-10.6142
▁الما	-10.6142
▁جسٹس	-10.6147
▁دابیں	-10.6148
▁ائیئ	-10.6149
جان	-10.6149
▁عجب	-10.6152
▁زید	-10.6154
▁نگیگ	-10.6163
رجانک	-10.6164
▁ایکس	-10.6165
▁حاک	-10.6169
▁remain	-10.6173
▁بندیگیں	-10.6181
▁دردانی	-10.6181
▁پکا	-10.6182
▁ماتیں	-10.6184
▁سنج	-10.6193
▁ویران	-10.6194
▁فرانسیسی	-10.6195
▁ذہن	-10.62
▁ھیالاں	-10.6202
▁مہکم	-10.6203
▁جنگانی	-10.6211
▁قدرتی	-10.6212
▁محفوظ	-10.6216
▁گلی	-10.6225
▁جنازہ	-10.6228
▁عبادت	-10.6228
▁بوہ	-10.6235
▁اصف	-10.6237
▁زوتاں	-10.6238
▁مهر	-10.6244
▁گریت	-10.6246
▁ڈولدار	-10.6248
▁ھد	-10.6249
وک	-10.6252
▁کارچ	-10.6255
▁سودا	-10.6257
▁طالبان	-10.6262
▁محکم	-10.6263
▁گشی	-10.6264
اولی	-10.6267
▁شعرے	-10.6271
▁ورنایاں	-10.6281
▁گوشیں	-10.6282
▁چھبار	-10.6287
▁کرتہ	-10.6293
▁درائی	-10.6296
▁ھژدری	-10.6315
▁early	-10.6323
▁عذاب	-10.6323
▁زمانہ	-10.6325
▁ادیب	-10.6326
▁زورگر	-10.6327
▁کلمتی	-10.6328
▁could	-10.6332
▁پرایمن	-10.6334
▁دوران	-10.6339
▁احوال	-10.634
▁کابل	-10.6343
▁یاگی	-10.6344
▁لوزانک	-10.6346
▁واہ	-10.6349
▁زمینی	-10.6353
▁لنٹانی	-10.6354
▁بجار	-10.6354
▁سریاب	-10.6355
▁مور	-10.6355
ھانی	-10.6356
ہما	-10.6359
ھاں	-10.6371
▁جاڑیگ	-10.6373
▁دلبند	-10.6378
▁شل	-10.638
▁دلپدردی	-10.638
▁اظہار	-10.6386
▁شم	-10.6387
▁زلورت	-10.639
▁براتانی	-10.6396
▁ذہنی	-10.6396
کس	-10.6398
▁زوربیگواہ	-10.6398
▁انڈیا	-10.6405
▁پاشک	-10.6407
کت	-10.6407
▁final	-10.6408
▁did	-10.6408
▁رنگی	-10.641
▁0	-10.6412
▁گرک	-10.6416
▁امارات	-10.6417
▁ھژدہ	-10.6418
▁8	-10.6419
▁ہمیشی	-10.642
▁غالب	-10.6421
▁سمل	-10.6421
▁گیں	-10.6422
▁زھم	-10.6425
▁پن	-10.6436
▁براھوئی	-10.6438
▁عاشق	-10.6439
▁گز	-10.644
▁راہبند	-10.6444
▁اج	-10.645
▁انسانیت	-10.6452
▁جہلی	-10.6453
▁توانائی	-10.6458
▁پنجابی	-10.6461
▁سببا	-10.6462
▁وارث	-10.6466
▁ریکارڈ	-10.647
▁کربانی	-10.6471
▁شامل	-10.6472
▁جاتی	-10.6482
▁7	-10.6496
▁یونان	-10.6505
▁شتیں	-10.6506
▁صادق	-10.6508
روچ	-10.6511
▁کارندھاں	-10.6513
▁ہدا	-10.6519
▁وپتگ	-10.652
کنت	-10.652
▁سیزدہ	-10.6521
▁سیکرٹری	-10.6522
▁کتابی	-10.6525
▁رھبندانی	-10.6541
▁ڈبلیو	-10.6542
وش	-10.6543
▁ترینت	-10.6547
▁ہوتے	-10.6557
▁زرے	-10.6559
▁کئیت۔	-10.657
▁رحمت	-10.659
▁جنینانی	-10.6591
▁وردن	-10.6598
▁along	-10.6599
▁ایگءَ	-10.6599
▁خلافا	-10.6599
▁توبہ	-10.6601
▁کیسگ	-10.6601
▁اهانی	-10.6603
▁کتنت	-10.6608
نام	-10.661
▁پیشدارگ	-10.6613
▁بلوچستانءَ	-10.6615
▁راجاں	-10.6617
▁زانیں	-10.6619
▁ذریعہ	-10.6619
کگ	-10.6633
▁کتءُ	-10.6634
▁درایگ	-10.6638
زبان	-10.6639
▁روتاک	-10.6644
▁کتابجاہ	-10.6649
▁امل	-10.6649
▁اپنا	-10.6653
▁پیداگ	-10.6656
▁کوہن	-10.6657
▁دیگی	-10.6657
کو	-10.6661
▁گہتر	-10.6666
▁مھمان	-10.667
▁پنجاپ	-10.6672
▁ہیل	-10.6673
▁جرمن	-10.6676
▁سنت	-10.6677
▁کارکن	-10.6678
▁سلاھاں	-10.668
▁گے	-10.6685
▁تیوگ	-10.6689
▁ہواری	-10.6691
man	-10.6695
▁تپ	-10.6695
▁may	-10.6695
▁ٹوھیں	-10.6696
▁کارندھانی	-10.6697
um	-10.6698
ح	-10.6703
▁لب	-10.6704
▁قدرت	-10.6706
▁واباں	-10.6708
▁دوئینانی	-10.671
▁دودا	-10.671
▁نوبت	-10.6711
▁مردمءَ	-10.6724
▁جمالی	-10.6727
▁زہری	-10.673
▁ڈرامہ	-10.673
▁گوریچانی	-10.6732
▁sai	-10.6733
▁ھڈ	-10.6736
▁سنگتی	-10.6736
▁شوک	-10.6739
▁اسٹیشن	-10.674
▁لذت	-10.6746
▁لیٹ	-10.675
▁اشت	-10.6751
▁صبور	-10.6758
▁کارءِ	-10.6759
▁دبئی	-10.6759
▁روئے	-10.6762
▁place	-10.6765
▁شکاری	-10.6766
▁درجگ	-10.6772
▁تیزی	-10.6772
▁بلال	-10.6775
▁بشکھندگ	-10.6775
▁سہریں	-10.6776
▁حافظ	-10.6778
▁کشاں	-10.678
▁تچکی	-10.6781
▁حفیظ	-10.6783
▁جھمنندیں	-10.6791
▁پال	-10.6799
▁ابو	-10.6804
▁تاکے	-10.6805
▁اہ	-10.6808
▁کامریڈ	-10.6814
▁کاپر	-10.6817
▁سیہ	-10.6818
سک	-10.6821
▁ارزانی	-10.6823
پیش	-10.6825
▁شئیرانی	-10.6825
▁داشتگیں	-10.6828
▁سمائی	-10.6831
▁است۔	-10.6831
▁نیمروچ	-10.6832
▁اشتاپی	-10.6834
▁شخص	-10.6838
▁اصلی	-10.6848
ےءِ	-10.6857
▁تھانہ	-10.6859
▁بیانیہ	-10.6861
▁جسمانی	-10.6861
▁نزینکی	-10.6869
▁گرانی	-10.687
▁رہادگ	-10.6875
▁بحرین	-10.6875
▁یکجا	-10.6878
▁ائیء	-10.688
▁زنڈیں	-10.688
▁فن	-10.6885
▁کپتہ	-10.6885
▁رکھینگ	-10.6886
▁نائب	-10.6887
گپ	-10.689
▁عالمی	-10.6897
▁9	-10.6899
▁راہءَ	-10.6899
▁شگان	-10.6906
خان	-10.6907
ایانی	-10.6909
▁گیٹ	-10.6911
▁ایمنیں	-10.6913
▁منوگر	-10.6917
▁تاکاں	-10.6919
▁اخلاق	-10.6921
▁بوجیگ	-10.6922
ي	-10.6923
▁مس	-10.6923
▁عوامی	-10.6926
▁چمن	-10.6927
▁بزیں	-10.6933
▁زانت۔	-10.6935
نبشتہ	-10.694
▁ببنت	-10.694
▁پدائی	-10.6961
▁لی	-10.6967
▁پرنٹ	-10.6969
▁مرگانی	-10.6971
▁پہم	-10.6971
▁بوج	-10.6982
▁نماسگ	-10.6986
۔ہمے	-10.6989
▁سوشلزم	-10.6992
▁تحت	-10.6997
▁منٹ	-10.6998
▁پلگار	-10.7001
▁ھست۔	-10.7004
▁درستانی	-10.7005
▁سالونک	-10.7009
▁بلۆچ	-10.7016
▁کاریں	-10.7017
▁ھمل	-10.7021
▁وسائل	-10.7023
▁سستگ	-10.7025
▁اسکانی	-10.7027
▁ننداں	-10.7033
▁درکپتگ	-10.7036
▁پکرانی	-10.7038
▁دیت	-10.7044
▁ہمنچو	-10.7045
▁گروپ	-10.7047
▁سئی	-10.7051
▁شیطان	-10.7053
اور	-10.7054
▁میانی	-10.7055
▁E	-10.7062
برے	-10.7063
▁برا	-10.7069
▁رمگ	-10.7071
▁بروکیں	-10.7072
▁بنگیجی	-10.7073
▁جوڑشت	-10.7075
▁She	-10.7076
▁حلاپ	-10.7079
▁وپا	-10.708
▁بهر	-10.7085
▁افلاطون	-10.7086
▁گوھر	-10.7091
▁بکار	-10.7093
▁درکنگ	-10.7097
▁کارا	-10.7101
▁جیونی	-10.7107
چ	-10.711
▁تکانسر	-10.711
▁گرنچ	-10.7114
▁تالبان	-10.7116
▁کاگدے	-10.712
▁کاردار	-10.7122
▁لئیب	-10.7125
en	-10.7126
▁صدیق	-10.7128
▁unti	-10.7128
▁پئیم	-10.713
▁حاکمی	-10.7131
▁گیرت	-10.7139
▁داشتگ۔	-10.7145
▁کمزور	-10.7146
▁بستارے	-10.7147
▁مه	-10.715
▁لنکک	-10.715
▁back	-10.7151
▁ھلاسی	-10.7153
▁وراک	-10.7154
▁مریت	-10.7163
▁لنٹاں	-10.7163
▁تعالیٰ	-10.7164
▁جنگءِ	-10.7179
▁لینگویج	-10.7194
▁کٹم	-10.7202
▁دوت	-10.7207
▁city	-10.7208
▁سپاھی	-10.7209
▁براہوئی	-10.721
▁بہشت	-10.721
▁لیکگ	-10.7212
▁شبیر	-10.7224
▁چئیرمین	-10.7227
▁فورسز	-10.7227
ھے	-10.7232
▁same	-10.7236
▁original	-10.7237
▁ته	-10.7238
▁12	-10.7241
▁شلوار	-10.7242
▁راستے	-10.7246
▁ٹنگ	-10.7248
▁جہگیر	-10.7249
▁مشکول	-10.7254
▁روت۔	-10.7254
▁لو	-10.7254
round	-10.7257
▁زگریں	-10.7259
▁سٹی	-10.7259
▁عاجز	-10.7265
▁بجن	-10.7269
▁w	-10.727
▁یعقوب	-10.7271
▁کارمستر	-10.7292
▁زاتی	-10.7301
▁کائنات	-10.731
▁کارڈ	-10.7313
▁ساڑا	-10.7321
▁سواری	-10.7325
▁دئیں	-10.7325
▁قابل	-10.733
▁ایشیا	-10.7331
▁باب	-10.7334
▁سنگین	-10.7335
▁نئیکہ	-10.7342
▁ندیم	-10.7344
▁16	-10.7345
خ	-10.7348
▁انت۔بلے	-10.7357
▁سرباز	-10.7366
▁day	-10.737
▁million	-10.737
▁بندے	-10.7371
▁قیمت	-10.7375
▁اینکس	-10.738
▁people	-10.7381
▁زاہد	-10.7388
▁بگندے	-10.7389
▁انت۔۔۔۔	-10.7391
▁حکمت	-10.7393
▁جہاز	-10.7397
▁گوشے	-10.7399
▁return	-10.7402
▁any	-10.7409
▁تھ	-10.741
▁سرگ	-10.7416
بند	-10.7419
▁مڑ	-10.7425
▁جلال	-10.7427
▁یاتانی	-10.7429
▁نیتکگ	-10.743
▁جہہ	-10.743
▁داخل	-10.7431
▁رۆچ	-10.7431
▁باد	-10.7434
▁میتگاں	-10.7446
▁ڈیل	-10.7447
▁جنسی	-10.7449
▁ھزارانی	-10.7451
▁بغیر	-10.7453
اللہ	-10.7453
▁وھدا	-10.7459
▁کرءَ	-10.7463
▁player	-10.7469
▁کنتءُ	-10.7471
▁پھ	-10.7473
▁راہے	-10.7474
▁km	-10.7475
▁ناشرکار	-10.7482
دے	-10.7482
▁شیشگ	-10.7484
▁مسعود	-10.7486
▁شھیدانی	-10.7486
▁شود	-10.7489
مان	-10.7492
▁زانتکاریں	-10.7493
▁ستکگ	-10.7496
▁عثمان	-10.7497
ام	-10.7506
▁بچکے	-10.7507
▁موسیٰ	-10.751
▁حنیف	-10.7512
▁جنس	-10.7514
▁ٹوک	-10.7516
▁حیثیت	-10.7518
▁مردگ	-10.7529
▁پجارگ	-10.753
▁اسکی	-10.7534
▁They	-10.7538
▁خطرہ	-10.7541
▁گاڑیاں	-10.7542
▁پترگ	-10.7543
▁ڈرون	-10.7544
▁سرءِ	-10.7552
▁اخری	-10.7554
▁زوان	-10.7554
▁قربان	-10.7556
▁پٹی	-10.7557
▁main	-10.756
▁دلمراد	-10.7562
""	-10.7566
▁دروشمءَ	-10.7573
▁ارشکار	-10.7577
▁force	-10.7578
▁محدود	-10.7582
▁شپءِ	-10.7586
▁At	-10.7586
▁پجہ	-10.7593
▁دابے	-10.7594
▁شانگ	-10.7595
▁ھاں	-10.7595
▁ہزاراں	-10.7596
▁روم	-10.7596
▁شرط	-10.7601
▁لیڈر	-10.7601
اہانی	-10.7607
▁سالیں	-10.7615
▁ول	-10.7624
▁کاپٹر	-10.7625
▁جلد	-10.7627
▁انگیر	-10.7632
▁مرزا	-10.7636
▁پادا	-10.7636
▁سربازی	-10.7646
▁میٹر	-10.7646
▁بھت	-10.7653
▁کمیونسٹ	-10.7655
▁جنجالاں	-10.7657
▁how	-10.7657
▁برائی	-10.7658
▁عہدی	-10.7663
▁اکرم	-10.7667
▁ایسا	-10.7671
▁شدت	-10.7671
▁کپتاں	-10.7673
▁گوانکو	-10.7675
▁وارت۔	-10.7677
▁اولاک	-10.7681
▁un	-10.7684
▁چاریگ	-10.7685
▁باھوٹ	-10.7688
▁How	-10.7689
▁مصر	-10.7689
▁ازمانکاں	-10.769
▁جتیں	-10.7694
▁سہت	-10.7697
▁؂۔	-10.7699
ھی	-10.77
▁دیمرئی	-10.7708
▁نکان	-10.7712
▁پٹءُ	-10.7715
▁میز	-10.7722
شر	-10.7725
▁وھدءِ	-10.7726
▁زوراکیں	-10.7728
▁ہب	-10.773
▁John	-10.7731
بر	-10.7732
▁حیر	-10.7735
▁زاہ	-10.7736
▁انچوشکہ	-10.7737
▁ship	-10.7739
▁کارگشاد	-10.7742
▁اوتاک	-10.7742
▁North	-10.7744
''	-10.7747
▁سبزل	-10.775
▁August	-10.7755
▁الرحمن	-10.7755
▁تاگت	-10.7755
▁South	-10.7759
▁جمہوریت	-10.776
▁ششمی	-10.7761
▁شودگ	-10.7761
▁زبر	-10.7767
▁name	-10.7768
▁کھولاں	-10.7775
▁دمانءَ	-10.7777
▁سادگیں	-10.7777
▁اپسر	-10.778
دہ	-10.7783
▁رہی	-10.7788
▁توکءَ	-10.7789
▁اوگام	-10.7792
▁دعویٰ	-10.7797
▁مشک	-10.7801
▁گوستانک	-10.7807
▁مشت	-10.7811
▁اییا	-10.7811
▁فلم	-10.7815
▁شعراں	-10.7816
▁امد	-10.7817
▁گشندہ	-10.7819
▁روز	-10.782
▁قومانی	-10.7826
▁جامگ	-10.7828
▁May	-10.7829
▁down	-10.783
▁صلاح	-10.7835
▁محکمہ	-10.784
▁تھاری	-10.784
▁مغربی	-10.7843
▁سالءَ	-10.7855
▁دوسرے	-10.7856
▁releas	-10.7859
▁P	-10.7862
▁گالے	-10.7864
اوں	-10.7864
▁راھشون	-10.7868
▁ریپبلکن	-10.7871
▁مید	-10.7874
▁چیل	-10.7876
▁رگام	-10.7886
▁بانل	-10.7886
▁پیگمبر	-10.7886
▁بیسہ	-10.7889
▁مسک	-10.7891
▁کنٹ	-10.7891
▁کربان	-10.7892
▁انہیں	-10.7899
▁ازت	-10.79
▁لوگوں	-10.7901
▁اوداں	-10.7902
▁دوئیناں	-10.7909
▁جبر	-10.7909
▁دلپروش	-10.7925
▁اگوں	-10.7928
▁پیرا	-10.793
▁ٹرک	-10.7933
▁زانتکارانی	-10.7936
▁پشتو	-10.7936
▁جمع	-10.7939
▁گڑاں	-10.7945
▁سراج	-10.7946
▁گوازین	-10.7948
▁مردمءِ	-10.795
▁پلیٹ	-10.795
▁ھشتاد	-10.7961
▁ٹیسٹ	-10.7965
▁نفسیات	-10.7967
▁17	-10.7973
▁پریشر	-10.7973
▁رؤکیں	-10.7975
▁وڈا	-10.7976
▁ارتگ	-10.7978
▁کھن	-10.7979
▁ساچان	-10.7981
▁سازگ	-10.7982
▁ردءُ	-10.7983
▁پگری	-10.7984
▁معنی	-10.7986
▁مہری	-10.7998
▁ھؤر	-10.8001
▁زوراکیاں	-10.8004
▁کشتگ۔	-10.8008
▁رے	-10.8008
▁مادی	-10.8009
▁روا	-10.8011
▁پکرءُ	-10.8013
▁رادگ	-10.8017
▁support	-10.8022
▁درگتا	-10.8024
▁بلاہیں	-10.8024
▁کمان	-10.8026
▁لاچاری	-10.8026
▁بلا	-10.8026
▁دمکاں	-10.8028
▁انٹرنیٹ	-10.8028
▁کپنت	-10.8029
▁تکاں	-10.803
▁بلند	-10.8036
▁گوشتی	-10.8037
▁نپس	-10.8039
▁یکرندے	-10.8041
ھیں	-10.8046
▁شیپ	-10.8048
▁بش	-10.8049
▁سوبی	-10.8053
▁٭٭	-10.8054
▁ازباب	-10.8057
▁چت	-10.8058
▁شا	-10.806
nother	-10.8061
▁گومازی	-10.8064
ناں	-10.8065
▁انہوں	-10.8068
▁یونٹ	-10.8069
▁مڈیانی	-10.807
▁شہداد	-10.8071
▁مارشتے	-10.8073
▁سنٹ	-10.8081
▁جہدے	-10.8085
▁بیغ	-10.8099
اب	-10.8101
▁کتابءِ	-10.8103
روان	-10.8108
▁مزنی	-10.8111
▁لحاظ	-10.8111
یکے	-10.8119
▁گیجگ	-10.8119
▁ریس	-10.812
▁ھمرائی	-10.812
▁احتگ	-10.812
▁ساحرءِ	-10.8126
▁بارگیں	-10.8127
▁سوراب	-10.813
▁شانی	-10.8131
▁جھدکار	-10.8133
▁ترسینگ	-10.8136
▁تمامیں	-10.8137
▁زیکیں	-10.8149
▁توکل	-10.8152
▁درگتءَ	-10.8159
▁مبیت	-10.8161
▁small	-10.8162
▁لینڈ	-10.8163
▁بلائیں	-10.8165
▁انتظامیہ	-10.8166
▁دلاں	-10.8167
▁دارایت	-10.8167
▁بوؤکیں	-10.8168
▁lead	-10.8171
▁مزاحمتی	-10.8172
▁مپت	-10.8177
▁توارءَ	-10.8186
▁بارگ	-10.8197
▁پریشانی	-10.8204
تاں	-10.8207
▁پگار	-10.8209
▁off	-10.8211
▁پابند	-10.8217
▁بہتام	-10.8221
▁قربانی	-10.8225
▁پانک	-10.8227
▁دہک	-10.823
▁20	-10.823
▁life	-10.8233
▁مت	-10.824
▁اہمیت	-10.8243
▁لائبریری	-10.8243
▁شائرے	-10.8246
▁ودان	-10.8252
▁ھاموش	-10.8257
▁لولی	-10.8258
▁نوجوان	-10.8261
▁قلعہ	-10.8266
▁نگدی	-10.8269
▁نبیسی	-10.8279
داد	-10.828
▁ڈالچار	-10.8286
▁گپءِ	-10.8286
▁یکدم	-10.8286
▁مولاداد	-10.8287
▁ریفرنس	-10.8289
▁دیگءَ	-10.8289
▁گشنت۔	-10.8291
▁نقش	-10.8291
▁لبزے	-10.8293
▁group	-10.8298
▁تیرانی	-10.8301
▁بیں	-10.8302
?"	-10.8315
▁لوٹوک	-10.8316
▁ظاھر	-10.8321
▁start	-10.8323
▁اداں	-10.8323
▁بھ	-10.8324
▁مدینہ	-10.8324
ات۔	-10.8326
▁ناگت	-10.8328
▁درکیت	-10.8329
▁لیبی	-10.8331
▁Septe	-10.8332
▁کماندار	-10.8333
▁حیالاں	-10.8342
▁بین	-10.8343
وھدے	-10.8344
▁بوتاں۔	-10.8345
▁واریں	-10.8346
▁ارزی	-10.835
▁بنپد	-10.8351
اہاں	-10.8354
▁میش	-10.8359
▁سرکارءِ	-10.8361
▁شناسی	-10.8363
▁مدان	-10.8363
▁سیمسری	-10.8363
ہاں	-10.8363
▁ثبوت	-10.8366
▁ھاس	-10.8366
▁each	-10.8367
▁شریک	-10.8374
▁وئیلے	-10.8386
▁receiv	-10.84
▁ھردوکیں	-10.8407
▁صفحہ	-10.8412
▁لانگ	-10.8416
▁مریم	-10.8417
▁برتگ۔	-10.8418
▁روانکے	-10.8418
▁کلچر	-10.8422
▁وه	-10.8427
▁دروریں	-10.8433
▁تھر	-10.8438
▁مثل	-10.844
▁زاری	-10.844
?’’	-10.8448
▁زوران	-10.845
▁پھم	-10.8465
▁زانئے	-10.8465
ber	-10.8465
▁قحطانی	-10.8468
▁اییئے	-10.8476
▁German	-10.8479
▁ترسے	-10.848
▁World	-10.8483
▁البتہ	-10.8483
▁بزگر	-10.8486
▁کرنل	-10.8492
▁منانک	-10.8496
▁امباز	-10.8496
▁نہاد	-10.8497
▁حل	-10.85
▁شیرین	-10.8503
▁رپ	-10.8506
▁مقامی	-10.8509
▁دێما	-10.851
▁وال	-10.8512
▁ویب	-10.8522
▁توئے	-10.8532
▁ڈاہ	-10.8534
▁نادر	-10.8539
رے	-10.8541
▁طارق	-10.8544
▁حداءِ	-10.8546
▁نعمت	-10.8548
مارا	-10.8549
▁سیالی	-10.8549
▁گوار	-10.855
▁War	-10.8554
▁امبازاں	-10.8563
▁مرو	-10.8566
▁دراجی	-10.8573
▁برورد	-10.8573
بل	-10.8578
▁ھنچشیں	-10.8581
▁ناک	-10.8581
▁رھشونی	-10.8581
▁قانود	-10.8582
▁برباد	-10.8585
▁15	-10.859
▁بھار	-10.8593
گاں	-10.8593
▁سنگے	-10.8593
▁سدکی	-10.8598
▁فٹ	-10.86
▁دانشور	-10.8608
▁پو	-10.861
▁عرض	-10.861
▁شہم	-10.861
▁سبا	-10.8612
▁گورم	-10.8615
▁تتکگ	-10.8622
▁دستان	-10.8623
▁بچکندگ	-10.8624
▁دمے	-10.8626
▁لچھ	-10.8627
▁سقراط	-10.8635
▁five	-10.8635
انءَ	-10.8647
▁single	-10.8648
▁کبھی	-10.865
▁شکست	-10.8655
▁ھائی	-10.8663
▁ون	-10.8667
کم	-10.8671
▁تکنیکی	-10.8672
▁بلۆچی	-10.8675
▁مستی	-10.8681
▁دزگٹ	-10.8683
▁لاشانی	-10.8684
▁محراب	-10.8686
▁مردی	-10.8688
ok	-10.8691
▁حشک	-10.8692
▁ٹیکی	-10.8698
▁نندیت	-10.8699
▁پرز	-10.8699
▁کالونی	-10.87
▁وسیلگ	-10.8701
▁result	-10.8706
▁حیدر	-10.8707
▁ساریءَ	-10.8711
▁اسکور	-10.8714
▁زحم	-10.8724
▁مزدور	-10.8727
▁دارگی	-10.8728
▁بوتہ۔	-10.8728
▁ہا	-10.8734
لچہ	-10.8737
▁بلوچیءَ	-10.8749
▁دارو	-10.8751
▁appear	-10.8754
▁زانشتی	-10.8756
▁سھیل	-10.8759
▁رات	-10.876
چار	-10.8764
▁سل	-10.8765
▁گسر	-10.8771
▁اشتگ	-10.8774
▁معنائی	-10.8776
▁وتئی	-10.8776
▁رضی	-10.8779
▁زندگیءِ	-10.8782
▁عقلی	-10.8792
▁زمینءِ	-10.8795
▁کمکے	-10.8796
▁سکا	-10.8801
▁ع	-10.8804
▁کافی	-10.8804
اشی	-10.881
▁ڈ	-10.8815
جنگ	-10.8815
▁منارا	-10.8821
▁جنگا	-10.8824
▁بوچ	-10.8825
▁تنکیں	-10.8826
▁اہان	-10.8826
▁اتوں	-10.8828
▁پترتگ	-10.8828
▁Al	-10.8831
▁چریشاں	-10.8832
▁ص	-10.8833
ue	-10.8837
▁جہدءَ	-10.8838
ation	-10.884
▁علامت	-10.884
▁متحدہ	-10.8845
▁بنگپانی	-10.8848
▁سردارانی	-10.885
گر	-10.885
▁ہفت	-10.8856
▁شہباز	-10.8858
▁باقی	-10.8859
▁گپتگ۔	-10.8861
چم	-10.8863
▁شائریءِ	-10.8866
▁کیلئے	-10.8867
▁مڑدم	-10.8867
▁تھی۔	-10.8869
ور	-10.8874
▁own	-10.8874
▁واد	-10.8876
▁describ	-10.8876
▁رپتگ	-10.8879
▁هدا	-10.8886
مرچی	-10.8887
▁مکتب	-10.8888
▁کلاسیکل	-10.889
▁سبر	-10.8901
▁پہمگ	-10.8904
▁یکشمبے	-10.8906
▁تاہیر	-10.8909
▁یقین	-10.891
▁پیپلزپارٹی	-10.8912
▁ماتے	-10.8912
▁نوش	-10.8913
▁attack	-10.8915
▁جننت	-10.8916
یر	-10.8916
▁فٹبال	-10.8918
▁زہگاں	-10.8919
▁ھکومت	-10.8923
▁ہدایت	-10.8925
▁نازل	-10.8927
▁مگسی	-10.8933
▁نوکر	-10.8933
▁ڈگری	-10.8935
▁وداریگ	-10.8938
▁music	-10.894
▁ساچی	-10.894
▁شوق	-10.8944
▁اپوزیشن	-10.895
▁کسہانی	-10.8952
شت	-10.8956
▁دیمونی	-10.8956
▁مگرب	-10.8957
▁بڑی	-10.8959
▁وراں	-10.8968
▁کوہانی	-10.8978
▁کنائینتگ	-10.8979
▁جانے	-10.898
▁تعلقداری	-10.8983
▁ھوت	-10.8985
شما	-10.8986
▁لاھور	-10.8986
▁دوشمبے	-10.8988
▁دوستاں	-10.8989
▁حیالءَ	-10.8989
▁لنگ	-10.8993
▁پریشی	-10.9002
▁ویڈیو	-10.9008
▁اشیءَ	-10.9011
▁مروارد	-10.9011
▁سروس	-10.9012
▁بنءَ	-10.9012
▁ماھی	-10.9012
▁راھی	-10.9017
▁ایردستیں	-10.9017
▁لگتمال	-10.9021
▁طبقہ	-10.9021
▁ہون	-10.9022
▁ھرنائی	-10.9022
▁ٹپیگ	-10.9025
▁بلڈ	-10.9027
▁اثرات	-10.903
▁زندمانی	-10.9032
▁great	-10.9035
▁حالے	-10.9035
▁جے	-10.9043
▁مزل	-10.9047
▁بکنیں	-10.9048
▁کنز	-10.9051
▁گاماں	-10.9056
کل	-10.9058
▁June	-10.9058
▁گیت	-10.906
▁رئیسی	-10.9062
▁پسگ	-10.9064
▁11	-10.9065
▁انت۔ائی	-10.9066
▁سالروچ	-10.9067
▁پلان	-10.9067
▁انگو	-10.9068
▁اینچک	-10.9068
▁باھو	-10.907
▁ظہور	-10.9072
▁کشاری	-10.9072
▁ترینگ	-10.9074
▁ونڈ	-10.908
▁consider	-10.9081
دور	-10.9081
▁ورک	-10.909
▁لانک	-10.9093
▁اشرف	-10.9095
▁تحقیق	-10.9098
▁زندہ	-10.9098
▁گونگیں	-10.9102
▁سواد	-10.9105
▁نشنل	-10.9108
▁کمرہ	-10.9108
▁دیار	-10.9109
▁داتنت	-10.9115
▁لاشار	-10.9122
▁ٹیبل	-10.9125
▁Dur	-10.9125
▁مرگءِ	-10.9127
▁ئت	-10.913
▁کرکے	-10.9137
▁رزاق	-10.9137
▁درج	-10.9139
▁شئیرے	-10.9145
▁گپان	-10.9145
▁واہش	-10.9154
▁سدانی	-10.9155
▁تیرے	-10.9166
▁زاھد	-10.9171
▁یکروچے	-10.9174
▁تکانسری	-10.9174
▁بلبل	-10.9177
▁ملین	-10.9178
▁الا	-10.918
▁O	-10.9184
▁نگن	-10.9185
▁احسان	-10.9186
?“	-10.9186
▁جلوہ	-10.919
▁point	-10.9192
▁سینٹر	-10.9194
▁انسانانی	-10.9206
2	-10.9207
▁گت	-10.9211
▁پارٹیءِ	-10.9212
u	-10.9214
▁دارے	-10.9216
▁زردیں	-10.9221
▁ساہت	-10.9224
▁سبزی	-10.9226
▁باں۔	-10.9226
▁جبین	-10.9226
▁ملیر	-10.9231
▁کابینہ	-10.9232
▁جامی	-10.9233
▁سئیل	-10.9233
▁پارلیمنٹ	-10.9234
▁رنگاں	-10.9234
▁افغان	-10.9238
▁دنیگہ	-10.9238
▁K	-10.9241
▁گرند	-10.9241
وی	-10.9241
▁ارزشتے	-10.9243
زند	-10.9251
▁مہتل	-10.9252
▁وانیت	-10.9254
▁ھزمت	-10.9258
▁اگاہ	-10.9258
▁گلائیش	-10.9258
▁زانشی	-10.9258
▁دورے	-10.9261
▁دنیائے	-10.9264
▁جاگھے	-10.9276
▁قسمت	-10.9276
▁جزم	-10.9276
▁سگگ	-10.9277
▁قد	-10.9279
▁ماہیگ	-10.9282
▁دوسری	-10.9283
▁توم	-10.9288
▁ہک	-10.9288
▁order	-10.9289
▁بیزار	-10.9295
▁since	-10.9295
▁بنیاتی	-10.9297
▁what	-10.93
▁جیسے	-10.9302
▁گپتار	-10.9302
▁بوٹ	-10.9302
▁نفسیاتی	-10.9304
▁سیکیورٹی	-10.9308
▁یت	-10.9309
▁ٹکرے	-10.9314
▁ڈیم	-10.9321
▁ترگ	-10.9323
▁دیواناں	-10.9323
▁خوش	-10.9334
ایک	-10.9336
▁States	-10.9337
▁کبرستان	-10.9342
لبزانک	-10.9345
▁رابطہ	-10.9347
▁شوانگ	-10.9349
▁نعیم	-10.935
▁میرو	-10.9351
▁بورڈ	-10.9351
▁ماڈل	-10.9352
▁برابری	-10.9355
▁کستر	-10.9356
▁روچا	-10.9356
▁تراکناک	-10.9358
بوت	-10.9361
▁سنگانی	-10.9368
▁ات۔من	-10.9369
مزنیں	-10.9373
▁پوک	-10.9377
▁شوکت	-10.938
▁گاہ	-10.9382
▁شو	-10.9384
▁ایلیٹ	-10.9389
▁پریدہ	-10.9393
▁ہنکین	-10.9394
▁مردءِ	-10.9394
▁کوسٹ	-10.9396
▁دالبندین	-10.9399
▁جنکاں	-10.9409
محمد	-10.9415
▁گیابان	-10.942
▁درنیام	-10.9423
بوتگ	-10.9425
▁بھارت	-10.9426
▁توری	-10.9426
▁مسلمانانی	-10.9434
▁گیشین	-10.9436
▁ایسے	-10.9439
زانت	-10.9441
ایر	-10.9442
▁واھشت	-10.9442
▁ہاتھ	-10.9443
species	-10.9444
son	-10.9463
▁دگری	-10.9465
▁کڑی	-10.9469
▁تشدد	-10.9471
▁روایتی	-10.9471
▁t	-10.9473
▁شوھازگ	-10.9473
▁شپانک	-10.9478
▁ورد	-10.9478
▁پھریز	-10.9487
▁جور	-10.9489
▁شپانی	-10.9491
▁بیماری	-10.9493
کر	-10.9494
▁بودلئیر	-10.9496
▁زون	-10.9497
▁سنگینیں	-10.9497
▁راجدوستی	-10.9501
▁نبوتگ	-10.9507
▁اندگہ	-10.9509
▁لرز	-10.9512
▁مھروان	-10.9514
▁انٹرنیشنل	-10.9514
۔۔۔۔۔۔	-10.9515
▁قیامت	-10.9515
▁ادریس	-10.9515
▁لیکھ	-10.9517
▁پجی	-10.9522
▁جک	-10.9534
پرچا	-10.9539
▁ہزدار	-10.9539
داریں	-10.9539
▁ماحول	-10.9541
▁ٹو	-10.9543
انء	-10.9551
▁دارانی	-10.957
▁اسرءَ	-10.9572
▁وکٹ	-10.9572
▁لونجان	-10.9573
m	-10.9574
▁جنیناں	-10.9575
▁انفارمیشن	-10.9578
▁بیت۔اے	-10.9579
▁سگی۔	-10.9585
▁سانمند	-10.9588
▁state	-10.9589
▁late	-10.9591
▁پیسریگیں	-10.9596
انا	-10.9599
▁حبیب	-10.9601
▁موسمانی	-10.9601
چک	-10.9602
▁دونوں	-10.9602
ہی	-10.9605
▁مکنت	-10.9607
▁انت۔من	-10.9608
▁تپاسگ	-10.9609
▁پارلیمانی	-10.961
!’’	-10.961
▁طرز	-10.9613
▁ریاض	-10.9617
▁کلم	-10.962
▁نوٹ	-10.9621
ry	-10.9625
▁شعبہ	-10.9625
شاہ	-10.9626
▁پان	-10.9629
▁رژنا	-10.963
▁فرد	-10.9631
▁ڈولا	-10.9632
▁بدلءَ	-10.9633
▁ھوشاپ	-10.9635
▁بچاں	-10.9635
▁جمبراں	-10.9636
▁اماں	-10.9639
▁ڈبہ	-10.9641
▁ادمے	-10.9641
▁عراق	-10.9642
▁جسد	-10.9648
▁کلو	-10.965
▁منیت	-10.9654
▁گوئشان	-10.9655
▁فی	-10.9657
▁فلسفہءِ	-10.9659
▁گارڈ	-10.9659
▁استت	-10.9662
ئیگ	-10.9668
▁علاوہ	-10.9669
▁ہنداں	-10.967
▁line	-10.9675
▁ائین	-10.9679
▁نازینک	-10.9679
▁انتظام	-10.968
▁بانزل	-10.968
▁مہرءُ	-10.968
▁بوھگءَ	-10.9681
▁چوناہا	-10.9682
▁زاکر	-10.9683
▁بحر	-10.9684
▁باتن	-10.9687
▁پجاہ	-10.9689
▁نبشتانکاں	-10.969
▁بسمل	-10.9693
▁لبزانکءَ	-10.9695
▁جهان	-10.9699
گندگ	-10.97
▁will	-10.9702
▁کانال	-10.9711
▁مرکزی	-10.9711
▁اشان	-10.9715
یگیں	-10.9718
▁ھسین	-10.9719
▁لاشاری	-10.972
▁last	-10.9721
▁حدائی	-10.9726
▁کمکی	-10.9729
▁Octo	-10.9734
▁گدارے	-10.9735
▁کوھلو	-10.9735
▁نفس	-10.9737
▁ھورت	-10.9738
منا	-10.9742
▁لوگبانک	-10.9743
▁دودانی	-10.9744
▁زندءُ	-10.9746
▁وشیانی	-10.9748
▁مراگشے	-10.9749
▁کماشیں	-10.9758
▁تمنی	-10.9766
▁درے	-10.9768
▁زرءَ	-10.9771
▁گاری	-10.9771
▁کوھاں	-10.9773
▁بٹ	-10.9773
▁system	-10.9774
▁لیکہانی	-10.9777
▁چۆ	-10.9783
▁گندءُ	-10.9786
▁شموش	-10.979
▁کوریں	-10.9791
▁میم	-10.9799
▁رہبندانی	-10.98
▁ات۔ائی	-10.9808
▁دژمنی	-10.981
▁ھوری	-10.9812
▁ارٹ	-10.9813
▁عابدہ	-10.9814
▁week	-10.9814
▁سارتر	-10.9815
▁یکجاھی	-10.9816
▁جیڑھے	-10.9816
▁بھٹو	-10.9817
▁famil	-10.9817
▁ھورانی	-10.9819
▁ساھتے	-10.982
▁اتکاں	-10.9821
▁بیچ	-10.9824
▁نزیکءَ	-10.9825
▁ارسطو	-10.9831
▁مرگاں	-10.9836
▁داشت۔	-10.9842
▁....	-10.9848
▁قرن	-10.985
▁پورٹ	-10.9851
▁پورسز	-10.9854
▁اقتصادی	-10.9856
▁باغ	-10.9859
▁گرماگ	-10.9861
▁بلہ	-10.9862
▁لچ	-10.987
▁دلمانگ	-10.987
▁دھکان	-10.9872
rote	-10.9873
▁کوچ	-10.9873
▁راضی	-10.9874
علی	-10.9875
▁پسندیں	-10.9884
▁ھمنکس	-10.9886
ten	-10.9889
▁واھگاں	-10.9893
▁ایجنسی	-10.9897
▁مدار	-10.9897
▁شالا	-10.9901
▁بوگءِ	-10.9903
▁هزار	-10.9904
▁کیا۔	-10.9904
مات	-10.9905
▁جنزگ	-10.9906
▁ادارہاں	-10.9911
▁مردک	-10.9913
اتی	-10.9916
▁ریکانی	-10.9918
▁تاکانی	-10.9919
▁گوری	-10.9919
▁گہتری	-10.9919
▁جاگہاں	-10.9919
▁نر	-10.9922
▁اتیں۔	-10.9925
▁ایرانشھر	-10.9926
▁معنہ	-10.9936
▁وہاں	-10.9939
▁فیصل	-10.9942
▁قریش	-10.9942
▁محسوس	-10.9943
پاکستانی	-10.9943
▁جعفر	-10.9944
▁بیگءِ	-10.9944
▁یہی	-10.9947
if	-10.9948
▁شاہی	-10.9948
▁سازیں	-10.9953
ers	-10.9954
گڈا	-10.9955
▁تھام	-10.9959
▁وزم	-10.9962
ril	-10.9964
▁بوتنت۔	-10.9964
▁بزرگ	-10.9965
▁کسانکیں	-10.9967
▁سٹ	-10.9968
▁تربیت	-10.9968
▁اتا	-10.9968
▁نعرہ	-10.9969
▁کانودی	-10.9971
▁چپیں	-10.9971
▁پہریز	-10.9975
▁اوتاگ	-10.9982
▁مونجا	-10.9982
▁ملکءَ	-10.9986
▁ایسی	-10.9987
▁دھلی	-10.9991
▁رفیق	-10.9991
▁اپہ	-10.9992
▁دوستدار	-10.9992
uch	-10.9992
▁واجکار	-10.9994
▁Ap	-10.9995
▁ریسرچ	-10.9996
▁ہو۔	-10.9996
▁ابیتک	-10.9997
▁واجہی	-10.9999
▁شتہ	-11.0007
▁تہرے	-11.0008
▁یاتاں	-11.0012
▁پربند	-11.0013
▁گڈاں	-11.0013
۔من	-11.0015
▁دئور	-11.0015
▁world	-11.0017
▁روگن	-11.002
▁وہدا	-11.0022
▁پے	-11.0031
▁دروہ	-11.0031
▁زہگانی	-11.0035
▁ماہناز	-11.0035
▁کپتگاں	-11.0052
▁رستگ۔	-11.0054
▁جوہر	-11.0057
▁بولی	-11.006
▁شمس	-11.0061
▁فرض	-11.0062
▁کوشت	-11.0067
▁now	-11.0067
▁دویں	-11.0067
انچو	-11.0069
▁میتگءِ	-11.0071
▁کاران	-11.0072
▁ردانکی	-11.0073
▁reach	-11.0073
▁قید	-11.0073
▁دنیایے	-11.0078
▁بوتءُ	-11.0081
▁پیداوار	-11.0083
▁کیں	-11.0083
▁role	-11.0083
▁میت	-11.0084
▁جہانءِ	-11.0085
▁اہت	-11.0086
▁تئیی	-11.0089
▁اوں۔	-11.009
▁رونت	-11.0091
▁مسکرا	-11.0093
▁طلب	-11.0093
▁لوزانی	-11.0094
شہ	-11.0098
▁وابی	-11.0098
▁گوارگ	-11.0101
▁set	-11.0103
▁وہدءِ	-11.0103
▁شرت	-11.0105
▁میتگءَ	-11.0106
▁تنکہ	-11.0107
ھا	-11.0111
وا	-11.0114
گا	-11.0122
گوشت	-11.0125
▁ھوناں	-11.0125
▁مضبوط	-11.0126
▁طریقہ	-11.0127
▁مٹیں	-11.013
▁بچے	-11.013
▁نپاد	-11.0135
▁واقع	-11.0138
ton	-11.0141
▁بخت	-11.0148
▁پولنگ	-11.0152
▁won	-11.0153
▁سامنے	-11.0153
▁take	-11.0154
▁ناکیں	-11.0162
▁ہسپتال	-11.0165
▁بیورغ	-11.0168
▁دام	-11.0168
▁چارءُ	-11.0168
▁عبدالواحد	-11.0169
▁چمشانکے	-11.0171
▁ارشاد	-11.0171
اھانی	-11.0175
▁چراگے	-11.0179
▁گسانی	-11.0181
▁ہمت	-11.0195
▁کیفیت	-11.02
▁نگور	-11.0203
▁شاپ	-11.0204
▁خراب	-11.0208
▁منتگیں	-11.0211
▁برف	-11.0211
▁جیڑاں	-11.0212
▁نزام	-11.0213
▁پہلی	-11.0214
▁بازارءَ	-11.0215
▁نیستی	-11.0216
▁افریقہ	-11.0223
▁رکین	-11.0226
بچار	-11.0231
▁منصور	-11.0232
▁دیوانءَ	-11.0233
▁نیاتکگ	-11.0235
▁شیہک	-11.0235
▁راشن	-11.0235
زر	-11.0236
▁child	-11.0236
▁ماتءِ	-11.0239
▁صوفی	-11.024
لی	-11.0242
▁سپاہ	-11.0251
▁قتل	-11.0251
▁ساچگ	-11.0255
▁رنگءُ	-11.0257
▁ڈولداری	-11.0258
▁داروک	-11.0261
▁مشرقی	-11.0263
▁چکر	-11.0264
▁خاطر	-11.0264
▁ایجنٹ	-11.0265
▁سرپ	-11.0266
▁home	-11.0269
▁کپاں	-11.0269
▁کسےءَ	-11.0271
▁بامرد	-11.0272
▁کسہاں	-11.0273
اردو	-11.0274
▁بوتن	-11.0275
▁کسه	-11.0277
۔اگاں	-11.0279
▁رپت	-11.0288
▁عجبیں	-11.029
▁لوپ	-11.0293
▁شومیں	-11.0301
▁دیمترءَ	-11.0303
▁چاری	-11.0304
▁پارک	-11.0304
▁بہادری	-11.0307
▁بہہ	-11.0307
▁علمءِ	-11.031
▁دیوکیں	-11.0313
▁بلی	-11.0313
▁واز	-11.0313
▁پیادگ	-11.0318
▁افسوس	-11.0321
▁بادشاہی	-11.0323
▁امبار	-11.0324
▁سینگار	-11.0325
ork	-11.0325
▁کلومیٹر	-11.0326
▁معیار	-11.0327
▁ہمینچو	-11.0328
▁due	-11.0329
اچ	-11.0332
▁اہل	-11.0332
▁روشن	-11.0333
▁اسکے	-11.0339
▁جائیکہ	-11.0347
▁زرءِ	-11.0348
▁دیں	-11.0352
▁اسلوب	-11.0352
very	-11.0354
▁نوشکے	-11.0364
▁ساھتاں	-11.0368
▁چونائیا	-11.0368
▁ونگ	-11.037
▁اہی	-11.0374
▁رویہ	-11.0374
▁مستقبل	-11.0377
▁سردی	-11.0378
▁تنت	-11.0378
▁روانی	-11.0379
▁فطرت	-11.0381
▁بیتگین	-11.039
▁سوچگ	-11.0393
▁زوراں	-11.0394
▁ملافاضل	-11.0397
▁وعدہ	-11.0398
▁شاه	-11.0401
▁?‘‘	-11.0402
▁ڈوک	-11.0405
▁بیمار	-11.0406
▁لہتین	-11.0409
▁لائق	-11.0413
▁ڈولداریں	-11.042
▁اولاد	-11.0423
▁انسانءَ	-11.0426
▁چلیم	-11.043
▁ژند	-11.0431
▁چشین	-11.0433
▁death	-11.0445
▁درساں	-11.045
▁............	-11.0451
▁ھیالے	-11.0451
▁گردش	-11.0455
▁گپتہ	-11.0459
▁ابیتکی	-11.0463
▁allow	-11.0467
▁لالچ	-11.0467
▁نوری	-11.0472
▁پیغام	-11.0478
▁کیف	-11.0483
▁غماں	-11.0484
▁ایریں	-11.0484
▁کسھے	-11.0491
▁صائمہ	-11.0491
▁ناولٹ	-11.0495
▁صالح	-11.0498
▁تازی	-11.05
▁نگاری	-11.0502
▁انچۆ	-11.0504
▁درورے	-11.0506
▁پیسرءَ	-11.0508
▁direct	-11.051
ازم	-11.0512
▁اسپتال	-11.0515
▁وهدا	-11.0516
▁شرم	-11.052
▁جذبہ	-11.0521
▁سالءِ	-11.0521
▁بیگواھیانی	-11.0525
▁بیاریت	-11.0525
▁سرداری	-11.0526
کجام	-11.0531
▁کشءَ	-11.0531
▁همراه	-11.0536
.“	-11.0536
▁ہژدری	-11.0538
▁ٹوپ	-11.0538
▁اسانی	-11.0539
▁بالگرد	-11.054
▁تیابدپ	-11.0544
▁اصغر	-11.0545
▁کسب	-11.0547
▁غلامی	-11.055
▁داخلہ	-11.0552
▁تخت	-11.0555
زور	-11.0555
▁اوت	-11.056
▁دہکان	-11.0562
▁ساحل	-11.0565
▁ابراہیم	-11.0567
ارا	-11.0568
▁پبلی	-11.057
▁تحفظ	-11.0573
▁همک	-11.0576
▁سدل	-11.0577
▁راہی	-11.0583
کاری	-11.0583
▁کارستے	-11.0585
▁نگیگیں	-11.0587
▁نرمیں	-11.0587
▁سبارگ	-11.0588
▁head	-11.0588
▁کبول	-11.0589
▁Janu	-11.059
▁included	-11.0591
▁لوار	-11.0591
▁مقبول	-11.0592
▁اناگت	-11.0593
▁گندان	-11.0593
▁رشتگ	-11.0597
مرگ	-11.0603
▁سوری	-11.0603
▁ورلڈ	-11.0605
▁بوگا	-11.0607
کسہ	-11.0609
▁ق	-11.061
▁فرمان	-11.0611
▁نبشتانکانی	-11.0613
▁ناگیگ	-11.0613
▁storm	-11.0617
▁فری	-11.0619
▁ٹل	-11.0619
▁انشپی	-11.0619
▁معیشت	-11.0622
▁نشتہ	-11.0622
▁پرست	-11.0623
▁افیسر	-11.0623
▁یدار	-11.0628
▁زانتکاراں	-11.0629
▁علت	-11.063
▁پورہ	-11.0633
▁ختم	-11.0634
▁سینیٹ	-11.0638
▁اهاں	-11.0639
▁جاتے	-11.0639
▁کشتگیں	-11.0645
▁six	-11.0645
▁ماتءَ	-11.0646
▁اؤ	-11.0648
جو	-11.0648
▁سپریم	-11.0649
گوش	-11.0653
▁کنائینت	-11.0655
ادا	-11.0659
▁left	-11.066
▁جبران	-11.0661
▁لیا	-11.0668
▁قومے	-11.0672
▁ہاران	-11.0673
▁مرکز	-11.0674
▁کلاگ	-11.0674
▁ڈولءَ	-11.0676
▁دید	-11.0681
▁سادگ	-11.0684
▁England	-11.0689
▁government	-11.069
▁راجدپترءِ	-11.0692
▁ماسی	-11.0695
▁افسانہ	-11.0702
▁کہتے	-11.0704
▁شادی	-11.0711
▁دوہمی	-11.0712
▁گین	-11.0715
▁سیشن	-11.0721
▁شیرکنیں	-11.0722
▁سوبءَ	-11.0724
▁دینت۔	-11.0725
▁سروکاں	-11.0731
▁اؤٹ	-11.0732
▁سرپدیں	-11.0732
▁لگیت	-11.0734
▁مدد	-11.0738
▁روتگ	-11.074
▁پجارینگ	-11.074
▁درہیں	-11.0741
▁L	-11.0742
▁شموشگ	-11.0744
▁اپءِ	-11.0747
▁video	-11.0748
▁کلک	-11.0748
▁زرداری	-11.0748
▁دئیگا	-11.075
▁وانندگ	-11.0751
▁پولکار	-11.0757
▁include	-11.0761
▁بیہار	-11.0762
▁position	-11.0763
اھاں	-11.0763
▁گورکی	-11.0764
▁خرچ	-11.077
▁ھمینچو	-11.0773
ھچ	-11.0773
▁جتک	-11.0774
▁اش۔	-11.0775
▁شگر	-11.0775
▁ڈان	-11.0776
▁وغیرہ	-11.078
▁پلک	-11.0781
▁پیماز	-11.0783
▁کرمان	-11.0784
▁شی	-11.0787
▁جئیند	-11.0792
▁الفاظ	-11.0795
▁ماریت	-11.0795
▁ھمیشانی	-11.0796
▁سہیل	-11.08
▁پیروک	-11.0804
▁۔ھمیش	-11.0805
▁بڑے	-11.0808
▁ھنی	-11.0809
ese	-11.0812
▁دینا	-11.0814
▁قانونی	-11.0816
▁گرپتار	-11.0817
▁قدم	-11.0823
▁تسلا	-11.0823
▁ھپتگے	-11.0824
▁نل	-11.0824
ایش	-11.0831
▁30	-11.0834
▁ازل	-11.0834
▁شلی	-11.0834
▁چکا	-11.0835
▁حر	-11.0836
▁attempt	-11.0836
کتاب	-11.0839
▁جاگہءَ	-11.084
ہو	-11.0842
▁سسی	-11.0842
▁دودءُ	-11.0843
▁کنڈے	-11.0845
▁لزت	-11.0846
h	-11.085
▁March	-11.0852
▁کوم	-11.0854
▁اسودگی	-11.0854
ھمیش	-11.0854
▁موقع	-11.0855
▁ارسانی	-11.0858
▁عکسے	-11.0858
▁گھتر	-11.0867
▁فیس	-11.0882
▁ھمراھاں	-11.0884
▁گداں	-11.0892
▁چرس	-11.0893
▁انجمن	-11.0895
▁general	-11.0898
▁جتہ	-11.0898
▁موسمی	-11.09
▁عوام	-11.0903
▁ماھکان	-11.0905
▁war	-11.0906
▁بیث	-11.0908
▁کارندھے	-11.0912
▁دمگے	-11.0916
▁نمونگ	-11.0917
▁سائیکل	-11.0918
▁ارداد	-11.0919
▁اتحاد	-11.0919
","","","","","	-11.0919
▁پروری	-11.0922
▁دریگتیں	-11.0923
▁مکمل	-11.0926
▁ائ	-11.0933
▁رمب	-11.0934
▁گندگا	-11.0935
▁پیشرد	-11.0937
▁third	-11.0939
▁خ	-11.0944
▁پائپ	-11.0949
▁سوگہ	-11.0949
▁کاریت۔	-11.0949
▁پھازگی	-11.0953
▁ڈائریکٹر	-11.0957
▁اہد	-11.096
▁عیسوی	-11.096
▁گراناز	-11.096
▁نقل	-11.0962
▁نوروز	-11.0962
▁پجاروکی	-11.0965
▁جندءَ	-11.0965
▁short	-11.0977
▁ترمپے	-11.098
▁دھک	-11.0984
▁وابءَ	-11.0988
▁سرچمگ	-11.0999
▁ھاش	-11.1
▁کرز	-11.1001
▁کیمرہ	-11.1001
▁بچاریں	-11.1002
▁کرے	-11.1004
▁ھیلی	-11.1007
▁زرت۔	-11.1007
▁اوارجنی	-11.1009
▁بھائی	-11.1016
▁نھاد	-11.1016
▁ہساب	-11.1017
▁شعوری	-11.1017
▁کرتی	-11.102
▁وبا	-11.102
▁مشن	-11.1021
▁سستگیں	-11.1022
▁چیلنج	-11.1026
▁13	-11.1027
▁ھالے	-11.1029
▁کندیل	-11.103
▁اہمیں	-11.1031
▁تعریف	-11.1031
▁ھمگرنچیں	-11.1034
کتگ	-11.1034
▁گواتے	-11.1035
▁ٹ	-11.1037
گے	-11.1041
▁ایڈوکیٹ	-11.1045
▁games	-11.1055
▁ترو	-11.1055
▁ستکگیں	-11.1056
▁زمانگءِ	-11.1056
▁شنک	-11.1064
▁ھل	-11.1069
▁ہیر	-11.1072
یل	-11.1072
▁become	-11.1074
▁previous	-11.1074
▁No	-11.1076
▁خدمت	-11.1078
▁جاپان	-11.1079
▁گواز	-11.108
▁انگریزانی	-11.108
▁بیگواه	-11.1081
▁ناما	-11.1081
▁ترتیب	-11.1083
▁الکاپیں	-11.1083
▁فاضلءِ	-11.1084
▁Nove	-11.1085
▁north	-11.1086
ment	-11.1088
▁خاموش	-11.1088
▁شونگال	-11.109
▁پانکجن	-11.1099
وکین	-11.1103
▁ھرچیز	-11.111
▁کردی	-11.1115
▁پیسرگیں	-11.1116
▁تھاریں	-11.1119
▁بیڑبرتگ	-11.112
▁بیتگاں	-11.112
▁بڑا	-11.1125
منءَ	-11.1127
▁پیلوی	-11.1131
▁رود	-11.1131
▁جنکو	-11.1132
▁جگہ	-11.1134
▁ملاقات	-11.1134
▁بیتاں	-11.1135
کراچی	-11.1138
▁کنٹگ	-11.1142
▁میا	-11.1142
▁شونکار	-11.1142
▁انت۔۔	-11.1148
▁دێم	-11.1153
▁اجتماعی	-11.1154
▁ہمارے	-11.1159
▁میزائل	-11.1161
▁ٹیکس	-11.1173
▁تہنائی	-11.1181
▁اجب	-11.1182
▁design	-11.1185
▁پلگ	-11.1185
▁نگار	-11.1186
▁شپی	-11.1186
▁اژدری	-11.1187
▁کارروائی	-11.1189
▁ست	-11.1192
▁چیخوف	-11.1195
▁پرچی	-11.1197
▁حرام	-11.1202
▁پکیر	-11.1203
▁پریاتاں	-11.1204
▁ملتان	-11.1205
▁موضوع	-11.1205
▁دلجمیں	-11.1206
▁گہہ	-11.1206
▁نزان	-11.1207
ڑ	-11.121
▁حیالے	-11.121
▁مھراب	-11.1213
▁release	-11.1215
▁باسکے	-11.1218
▁چدا	-11.1218
▁رومن	-11.1219
ماہتاک	-11.1221
▁مرگءَ	-11.1221
▁الہان	-11.1221
▁بھشت	-11.1222
▁school	-11.1226
▁اقوام	-11.1226
▁پھناتاں	-11.1226
▁open	-11.1228
▁کورونا	-11.1229
▁نیاز	-11.123
▁سروکانی	-11.1231
▁جنوکیں	-11.124
▁اڑاند	-11.1243
▁رشتہ	-11.1252
▁bas	-11.1259
▁ماندارگ	-11.126
▁لشکرکشی	-11.1262
▁بارت۔	-11.1264
▁زمانگاں	-11.1265
ren	-11.1266
▁سویڈن	-11.1277
▁ڈیپارٹمنٹ	-11.1278
▁ترسناکیں	-11.128
▁بنگالی	-11.1284
▁ھمبل	-11.1284
▁کراچیءَ	-11.1285
▁فراہم	-11.1288
▁Dece	-11.1288
▁اپے	-11.1289
▁باوری	-11.1292
▁14	-11.1294
▁قمبرانی	-11.1295
▁یاسر	-11.1296
▁W	-11.1297
شاعری	-11.13
وہدے	-11.1301
▁سکندر	-11.1305
▁مطالعہ	-11.1309
▁پتءَ	-11.131
▁ارزانیں	-11.1311
▁نمب	-11.1315
▁بالگتر	-11.1315
▁نزیر	-11.1316
▁کوه	-11.1321
▁ایراں	-11.1322
▁کساں	-11.1324
▁کالم	-11.1324
▁جاورھال	-11.1325
▁بلوچوں	-11.1328
▁بودشت	-11.1328
▁انٹر	-11.1328
▁اپءَ	-11.1332
▁گشتن	-11.1342
▁ایدگرانی	-11.1344
▁do	-11.1345
▁کرتیں	-11.1353
▁کافر	-11.1359
▁وتاک	-11.1359
▁چارگی	-11.1362
▁مرداں	-11.1363
راہ	-11.1365
▁شھراں	-11.1366
▁پژدرءَ	-11.1367
▁south	-11.1371
ست	-11.1373
▁سلاھانی	-11.1374
▁major	-11.1375
▁پھازگ	-11.1375
▁اسک	-11.1377
▁ناجوڑی	-11.1381
▁نتیجہ	-11.1385
▁حدیث	-11.1387
▁title	-11.1389
چشکہ	-11.1391
▁تکلیف	-11.1393
▁بلاہ	-11.1393
▁Man	-11.1393
▁اتکہ	-11.1398
▁تنظیم	-11.1402
▁شیوار	-11.1403
▁سلطنت	-11.1404
▁جہمنند	-11.1405
▁سبق	-11.1406
ہے	-11.1407
▁men	-11.141
▁go	-11.1414
▁داگ	-11.1415
▁سربوتگ	-11.1416
▁ادمانی	-11.1418
▁شہرے	-11.1419
▁یکمی	-11.1421
▁غیرت	-11.1426
▁هور	-11.1426
▁رنگانی	-11.1428
▁نسیب	-11.1428
▁لیلو	-11.1429
▁جہ	-11.1432
▁اھوالکارانی	-11.1435
[	-11.1436
▁وھدئے	-11.1438
▁اسن	-11.1442
▁His	-11.1442
▁صنعتی	-11.1443
▁دوزہ	-11.1444
▁ملامتی	-11.1446
▁جوریں	-11.1448
▁اصول	-11.1449
▁رھبندے	-11.145
▁اھم	-11.1451
▁develop	-11.1453
▁character	-11.1454
▁perform	-11.1457
▁وپسگ	-11.146
▁میتگانی	-11.1461
▁سجدہ	-11.1461
▁کلکشان	-11.1463
▁دہمی	-11.1467
▁تباہی	-11.1473
▁افراد	-11.1476
▁مھتر	-11.1478
▁بوتگءُ	-11.1479
▁جانب	-11.1481
▁پجا	-11.1485
▁شیرانی	-11.1488
▁گندیم	-11.1488
▁کہتا	-11.1491
▁شہرءَ	-11.1496
▁شئیرءِ	-11.1497
▁شیرکنی	-11.1498
▁پہریزگ	-11.15
▁جتاھیں	-11.1501
▁زامات	-11.1504
▁شہیدانی	-11.1504
▁مضمون	-11.1505
▁City	-11.1507
▁پچار	-11.1508
▁شناخت	-11.1508
لا	-11.151
▁ہواں	-11.1512
▁شاعرءِ	-11.1518
▁روبرکتی	-11.1523
▁ھیالداری	-11.1526
▁book	-11.1528
▁اودءِ	-11.1528
▁لیکہی	-11.1528
▁کتار	-11.153
▁بابو	-11.1532
▁کندگے	-11.1533
▁just	-11.1533
ند	-11.1535
▁مالوم	-11.1539
باریں	-11.1541
غیں	-11.1543
▁وزارت	-11.1544
▁فدائی	-11.1544
▁کیلو	-11.1544
▁بچکندے	-11.1545
▁کیو	-11.1556
▁چدءُ	-11.156
▁بیغ۔	-11.1565
▁چکی	-11.1565
▁ارد	-11.1568
▁buil	-11.157
▁اوشتاتگیں	-11.157
▁پشدر	-11.1573
▁ہاتر	-11.1579
▁چیزءِ	-11.158
▁شوہازگ	-11.1581
▁چارگا	-11.1584
▁اتکگاں	-11.1587
▁ئنت	-11.1588
▁Jul	-11.1591
▁اندوہ	-11.1595
▁ورگءَ	-11.1596
▁وسیم	-11.1598
▁بستارءَ	-11.1603
▁گڈسرءَ	-11.161
▁سخت	-11.161
▁جمپ	-11.1614
▁شوکیں	-11.1614
▁نبشتکار	-11.1617
▁علاقے	-11.1618
▁اوشتیت	-11.1621
▁راھبندانی	-11.1621
▁حشکیں	-11.1621
▁نبوت	-11.1624
▁گوادرءَ	-11.1625
▁پرسی	-11.1629
▁نزءَ	-11.163
▁شاتکامی	-11.163
▁ات۔اے	-11.1634
▁مارے	-11.1637
▁make	-11.1637
▁یونس	-11.1638
▁پث	-11.1639
▁water	-11.1642
▁best	-11.1645
▁When	-11.1649
▁month	-11.1649
▁باقاعدہ	-11.165
▁By	-11.1655
▁دژمناں	-11.1655
▁جدا	-11.1656
▁دیمے	-11.1658
ریں	-11.166
▁version	-11.1666
▁زندانی	-11.167
▁نشتگاں	-11.1672
▁پیشگال	-11.1676
▁چراغ	-11.1677
▁ھالاں	-11.1678
▁publish	-11.1678
▁سیائیں	-11.1679
▁حاص	-11.168
▁اسرے	-11.1683
▁باہوٹ	-11.1686
کاں	-11.1687
▁اێر	-11.1692
▁پرنگی	-11.1694
یئ	-11.1696
انے	-11.1697
▁سندی	-11.1699
▁ھمت	-11.1704
چاگردی	-11.1704
▁مردمانءِ	-11.1706
▁بستہ	-11.1706
▁ھبراں	-11.1708
▁گولہ	-11.171
▁پگرءِ	-11.1713
▁فورس	-11.1713
▁سپاھیگ	-11.1714
انکہ	-11.1715
▁مزاج	-11.1715
▁بوتیں۔	-11.1719
▁گوانزگ	-11.1724
▁II	-11.1728
وہ	-11.173
▁ششت	-11.1731
▁کان	-11.1739
پت	-11.174
▁سرہال	-11.175
▁دکی	-11.1752
▁ضرور	-11.1754
▁دومیءَ	-11.1755
▁واکاں	-11.1759
▁باوجود	-11.1763
▁ماتانی	-11.1766
▁کدیر	-11.1766
▁االله	-11.1767
▁اغا	-11.1769
▁All	-11.1772
▁ھاموشی	-11.1773
▁۔چہ	-11.1773
▁ادمءِ	-11.1774
▁period	-11.1777
▁حالاں	-11.1778
▁پبلک	-11.1779
▁گالرد	-11.178
▁!!	-11.1784
▁بلوچیءِ	-11.1785
▁چنڈے	-11.1786
▁روژنا	-11.1787
▁There	-11.1788
▁بروبر	-11.179
▁گیا۔	-11.1791
▁طالب	-11.1791
▁اپاں	-11.1792
▁دربرتگ	-11.1796
▁بادشاه	-11.1796
▁تاوانے	-11.1799
ءَرا	-11.1802
▁مزاری	-11.1804
▁continu	-11.1807
▁2009	-11.181
▁گامے	-11.1818
▁سلکاری	-11.1819
▁ڪت	-11.1821
▁شھیدی	-11.1824
▁2010	-11.1826
▁مچکدگ	-11.183
▁ہمراہیءَ	-11.1831
▁تواراں	-11.1831
▁کونڈ	-11.1831
▁جنے	-11.1832
▁بندن	-11.1834
▁تیراں	-11.1836
▁local	-11.184
▁ناسر	-11.1841
▁way	-11.1843
▁تحصیلدار	-11.1844
▁نابود	-11.1844
ty	-11.1845
▁رازی	-11.1846
▁ترینتگ	-11.1847
▁دکانے	-11.1848
▁جانا	-11.1849
▁قریب	-11.1849
زئی	-11.185
▁۔بلئے	-11.1855
▁تجارت	-11.1856
▁کریں	-11.1856
▁وڈھ	-11.1862
▁لہڑ	-11.1863
▁بندان	-11.1867
▁زوراور	-11.187
▁اگ	-11.1871
▁تھنائی	-11.1871
▁حیا	-11.1871
▁2008	-11.1875
که	-11.1875
▁National	-11.1876
▁اوستا	-11.1878
ڑی	-11.1879
▁پیرزال	-11.1879
▁عنقا	-11.188
▁کورءَ	-11.1883
▁شوم	-11.1887
▁وشیاں	-11.1889
▁بارکھان	-11.1893
▁برزءَ	-11.1894
▁جلسہ	-11.1894
▁استانی	-11.1895
▁مشکلیں	-11.1897
۔ھمے	-11.19
▁درصد	-11.1905
▁وارس	-11.1915
▁جمہوری	-11.1916
▁اھدی	-11.1918
▁سوز	-11.1919
▁شتگ۔	-11.1922
▁کورءِ	-11.1924
▁even	-11.1927
▁زمینءَ	-11.1928
▁خانءَ	-11.1931
▁اختلاف	-11.1932
▁گلباگ	-11.1934
▁ڈگاراں	-11.1936
▁گردگ	-11.194
▁اگہی	-11.1945
▁تبد	-11.1949
▁کبل	-11.1951
▁ھروھد	-11.1954
▁ایوان	-11.1956
▁ملٹ	-11.1957
▁لیاقت	-11.196
▁River	-11.1967
▁بکن۔	-11.1969
▁جہاندپتر	-11.1974
▁25	-11.1975
▁تجزیہ	-11.1977
▁زیک	-11.1979
▁کنغ۔	-11.1979
▁واھگے	-11.1983
▁واشک	-11.1987
▁جادو	-11.1988
▁اگرچہ	-11.199
▁وانان	-11.1992
▁سمیر	-11.1992
▁زانگی	-11.1994
▁زرکاری	-11.1994
▁دیگا	-11.1996
▁برادری	-11.1997
▁شاھد	-11.1999
▁کشا	-11.2009
▁نین	-11.2014
▁گساں	-11.2016
▁مندر	-11.2019
▁ہمدردی	-11.2023
▁انگ	-11.2026
رو	-11.2029
▁ائر	-11.2031
▁nam	-11.2031
▁ٹپانی	-11.2032
▁تجربگ	-11.2033
▁سگار	-11.2034
▁حالات	-11.204
▁مہکمیں	-11.2042
▁دیست۔	-11.2042
رند	-11.2044
▁چاگی	-11.2044
▁حکومتی	-11.2056
▁club	-11.2057
▁دوسد	-11.2058
▁کیشنز	-11.2058
▁سیاستدان	-11.2059
▁حبراں	-11.2062
▁ڈولے	-11.2063
▁جوزگ	-11.2063
▁ٹوہیں	-11.2065
▁دراھگ	-11.2066
▁ھکل	-11.2067
▁کاسگ	-11.207
▁بیلہ	-11.207
▁جھدے	-11.2071
پمیشا	-11.2071
▁چھر	-11.2077
▁بابل	-11.2079
▁برواں	-11.2079
▁ساه	-11.2085
▁واپس	-11.2088
▁زنڈ	-11.209
▁میانجی	-11.2091
▁سادہ	-11.2092
▁ناکام	-11.2093
▁لڈگ	-11.2096
▁لوٹیں	-11.2097
▁گا۔	-11.2097
▁ارجان	-11.2101
▁ملازم	-11.2102
شریں	-11.2109
▁دربرجاہ	-11.2112
کنوکیں	-11.2117
▁مڑاہ	-11.212
▁برتانیہ	-11.2125
▁وڑی	-11.2133
▁تھار	-11.2133
▁باران	-11.2136
▁اجبیں	-11.2136
ماہ	-11.2142
▁گوشی	-11.2142
▁public	-11.2143
▁کیونکہ	-11.2143
▁ملی	-11.2148
▁شنگکار	-11.2151
ness	-11.2154
ائرا	-11.2158
▁اکسیجن	-11.2158
▁صورتءَ	-11.2158
▁تنگی	-11.216
▁تھیوری	-11.2161
▁ریچگ	-11.2162
▁سرور	-11.2166
▁شهر	-11.2166
▁ہانی	-11.2166
‘‘,’’	-11.217
▁درنگ	-11.2175
▁لاف	-11.2177
▁خانءِ	-11.218
▁امکان	-11.2182
▁وتیگ	-11.2183
▁زانا	-11.2184
▁کردانی	-11.219
▁establish	-11.219
▁الرحمان	-11.2192
▁درکپگ	-11.2193
▁مستری	-11.2194
▁ترءُ	-11.2194
▁گسءَ	-11.2195
▁ھرابیں	-11.2196
▁Be	-11.22
▁اوکیں	-11.22
▁سیکریٹری	-11.2208
▁گجر	-11.2209
▁لهتے	-11.221
▁ریڈ	-11.2212
▁سھت	-11.2216
▁بداریت	-11.2221
▁ڈنگ	-11.2221
▁still	-11.2225
▁بئے۔	-11.223
▁نیکراہ	-11.223
▁سرگرمی	-11.2232
▁کنگے	-11.2233
▁امیتے	-11.2233
ive	-11.2234
▁زندگاں	-11.2237
▁درائینت۔	-11.2237
▁یکےءَ	-11.2238
▁لطیف	-11.2238
▁گوشتن	-11.224
نیں	-11.2241
▁روگا	-11.2242
▁درویش	-11.2245
▁مڑد	-11.2246
▁راسک	-11.2247
تاریخ	-11.2248
▁یڪ	-11.2248
▁مستاگ	-11.2255
▁بوئگا	-11.2255
▁گلاس	-11.226
▁چیدگی	-11.2261
▁بوھان	-11.2262
...............	-11.2263
▁دیوالانی	-11.2263
▁پات	-11.2266
▁پشین	-11.2268
▁رؤ	-11.2268
▁نفرت	-11.2268
▁کورس	-11.2269
▁میاریگ	-11.227
▁کافکا	-11.2271
▁وانوکانی	-11.2273
▁ابدال	-11.2274
▁شرگداریءِ	-11.2275
▁وپس	-11.2277
▁کتہ۔	-11.2279
▁شرین	-11.228
▁ورگی	-11.2282
▁feature	-11.2282
▁انتظامی	-11.2283
▁زانتے	-11.2284
▁وانگا	-11.2285
ایشانی	-11.2285
▁رودراتک	-11.2285
▁دماگ	-11.2286
▁گڈسرا	-11.2287
▁ہمیں	-11.229
▁امبر	-11.2292
▁career	-11.2294
▁قیمتی	-11.2295
▁دیستگیں	-11.2297
▁ثواب	-11.2298
▁پرش	-11.2299
▁گشیت۔	-11.2304
▁نفسی	-11.231
▁history	-11.231
▁منگچر	-11.2311
واب	-11.2318
▁پدردی	-11.2319
▁پلنگ	-11.232
▁طوفان	-11.232
▁وانندگیں	-11.2324
▁common	-11.2327
▁گدارءِ	-11.2329
راست	-11.233
▁مدرسہ	-11.2331
▁رژنائیں	-11.2338
▁رستر	-11.2342
▁چیزءَ	-11.2346
▁کانٹ	-11.2348
ێا	-11.2348
▁اگے	-11.2349
▁ابدمان	-11.2352
▁St	-11.2353
▁مردیں	-11.2359
▁تبیں	-11.236
▁اکسے	-11.236
▁روئگ	-11.2362
▁لیکہے	-11.2362
▁اسپیکر	-11.2364
▁گشتے	-11.237
▁رمس	-11.2379
▁ایسوسی	-11.238
▁دپا	-11.2381
▁اشکر	-11.2382
▁سیف	-11.2388
▁اعتبار	-11.2388
▁بلیک	-11.2388
تیں	-11.2389
▁b	-11.2391
▁رمزان	-11.2391
▁کران	-11.2392
▁زمیندار	-11.2393
▁لہڑگ	-11.2395
▁اسودگ	-11.2397
▁غصہ	-11.2397
▁دستءِ	-11.2401
▁جاھمنند	-11.2403
▁An	-11.2403
▁کلان	-11.2405
▁گہ	-11.2406
جن	-11.241
▁بنداتءَ	-11.2413
▁ایشن	-11.2413
▁اساپ	-11.2415
▁مٹی	-11.2415
▁مہلہ	-11.2419
▁شیدا	-11.242
پاکستان	-11.2421
کوئٹہ	-11.2425
▁ادراک	-11.2431
▁بلین	-11.2433
▁ایدگراں	-11.2434
▁دلیری	-11.2435
▁led	-11.2436
▁حبرءَ	-11.2437
▁گنجائش	-11.2438
کئے	-11.2439
▁میرا	-11.244
▁وڑےءَ	-11.2444
▁کنین	-11.2445
▁واناں	-11.2447
▁often	-11.2447
انسان	-11.2448
▁جۆڑ	-11.2449
▁100	-11.245
▁گشیں	-11.245
▁پنچیں	-11.245
▁ڈب	-11.2451
▁present	-11.2453
▁۔۔۔۔۔۔	-11.2453
uent	-11.2457
▁شائرانی	-11.2458
▁old	-11.2463
▁اریپیں	-11.247
▁سھیگ	-11.2471
▁الگ	-11.2473
▁ھردیں	-11.2474
شرگداری	-11.2476
▁site	-11.2477
▁دیکھا	-11.2481
▁حقیقی	-11.2481
▁بلۆچانی	-11.2482
▁چری	-11.2483
▁ھجبر	-11.2484
▁تگرانی	-11.2485
▁ھاوند	-11.2486
▁رحمان	-11.2488
▁دارنت	-11.2496
▁طاہر	-11.2497
▁top	-11.25
کسے	-11.2502
▁دوستانی	-11.2505
▁ازیز	-11.2506
▁شکایت	-11.2508
▁زہ	-11.2509
▁دوراں	-11.2509
▁کمزوری	-11.2511
▁اھی	-11.2511
▁گڈگ	-11.2514
▁تہران	-11.2517
▁سلسلہ	-11.252
▁اسٹیٹس	-11.252
▁محل	-11.2521
▁side	-11.2522
▁di	-11.2524
▁کدرت	-11.2525
▁ویکسین	-11.2526
▁ھبدہ	-11.253
▁دوبارہ	-11.2537
▁اسسٹنٹ	-11.2538
▁بیت۔۔۔	-11.2539
▁نقطہ	-11.2544
▁رائے	-11.2545
▁پرتو	-11.2546
▁بکننت	-11.2546
▁دوستے	-11.2548
▁برت۔	-11.2549
▁چتو	-11.255
▁دورءُ	-11.2551
▁مہے	-11.2552
▁وسیں	-11.2553
▁ھسابءَ	-11.2554
▁سکھت	-11.2555
▁ملنگ	-11.2556
وز	-11.2556
▁کنئگی	-11.2557
▁وتکش	-11.2557
▁جنیانی	-11.2565
▁جگ	-11.2569
داری	-11.2575
▁شہار	-11.2584
▁few	-11.2587
ماھتاک	-11.2589
▁کنڈگ	-11.259
▁ساوڑ	-11.2591
▁بول	-11.2593
▁دیرءَ	-11.26
▁شاعریئ	-11.2602
▁اسرار	-11.2602
▁ہچی	-11.2603
company	-11.2604
▁سکتا	-11.2606
▁منشیات	-11.2606
▁سجہیں	-11.2612
▁One	-11.2614
▁گولی	-11.2614
▁list	-11.2615
ملک	-11.2616
▁وانگءِ	-11.2616
▁روچان	-11.2622
▁جرنیل	-11.2624
▁رویں	-11.2625
▁گلءِ	-11.2627
▁نگر	-11.2631
▁پروجیکٹ	-11.2632
▁next	-11.264
▁2007	-11.264
▁گوہار	-11.264
▁جلیل	-11.2643
▁نیاتک	-11.2644
▁زنداناں	-11.2645
▁نبشت	-11.2645
▁درستی	-11.2646
▁مهلوک	-11.2648
▁ھدایت	-11.2649
▁مج	-11.2655
▁مارکسی	-11.2655
ڈی	-11.2657
▁ائولی	-11.2659
ایت	-11.2662
▁ھید	-11.2663
▁دزاپ	-11.2666
کش	-11.2668
▁جنگلے	-11.2668
▁اسٹیج	-11.2669
▁کینگی	-11.2669
▁بیگل	-11.2672
▁پکری	-11.2673
▁سرئے	-11.2676
▁شاگرد	-11.2676
▁منظر	-11.2676
▁ایی	-11.2679
▁سلیں	-11.2679
▁گالی	-11.2682
▁رھبنداں	-11.2683
▁طاقتور	-11.2689
▁شئیری	-11.2692
▁help	-11.2693
ہچ	-11.2693
▁ایرانءَ	-11.2702
▁arm	-11.2705
▁بلوچءَ	-11.2709
▁English	-11.2711
▁ٹوئٹر	-11.2711
▁بگندات	-11.2712
▁building	-11.2715
▁ہمود	-11.2718
▁ھردوک	-11.2718
▁سھرا	-11.2719
▁پمے	-11.2724
▁دوستیگیں	-11.2725
▁چکار	-11.2726
▁حالی	-11.273
▁پاکستانءَ	-11.2731
▁دودمانی	-11.2731
▁جرگہ	-11.2733
▁سرکنگ	-11.2733
▁کوھنگیں	-11.2733
يں	-11.2735
▁نگرانی	-11.2735
▁رئیسانی	-11.2737
▁فکرءُ	-11.2743
▁دیستگ۔	-11.2743
▁French	-11.2747
▁دروشماں	-11.2749
▁کرتاں	-11.2749
▁حدے	-11.275
▁دلبر	-11.275
▁یوک	-11.2755
▁کسہے	-11.2757
▁ھرابی	-11.2759
▁پرکار	-11.2763
▁دشتار	-11.2763
▁similar	-11.2764
▁میانءَ	-11.2765
▁یلیں	-11.2765
▁سروز	-11.2765
▁لائک	-11.2766
▁کاریز	-11.2768
▁گوشتہ	-11.2769
▁عیسائی	-11.277
▁خمار	-11.2771
▁گوشانی	-11.2771
▁برزا	-11.2772
▁دامگ	-11.2772
رنگ	-11.2775
▁بتی	-11.2777
فارسی	-11.2778
▁شناس	-11.2781
▁پہلو	-11.2786
▁دینار	-11.2786
▁نازرک	-11.2786
▁ھبکہ	-11.2787
▁وشتر	-11.2787
زانگ	-11.2789
▁مولد	-11.2791
▁ایردست	-11.2791
▁ھچی	-11.2797
▁کنر	-11.2798
پی	-11.2803
▁ملام	-11.2805
▁اجکہ	-11.2807
▁متعلق	-11.2812
▁پتءِ	-11.2814
▁درھیں	-11.2814
▁دومیگ	-11.2814
▁زانتءُ	-11.2818
▁وومن	-11.2818
▁جود	-11.2828
▁سوزیں	-11.2829
▁حالتاک	-11.2832
▁سرئ	-11.2833
▁ردیت	-11.2834
▁چتگ	-11.2837
▁لالہ	-11.2837
▁بعض	-11.2839
3	-11.284
▁بادشاھی	-11.284
از	-11.2841
نو	-11.2841
▁ستار	-11.2849
▁زباد	-11.2851
▁سدک	-11.2851
مروچی	-11.2852
▁ڈال	-11.2853
▁درءَ	-11.2853
▁مخلوق	-11.2855
▁ساحلی	-11.2855
▁سرکارءَ	-11.2857
▁بلوچان	-11.2857
▁رہشوناں	-11.2857
▁کسہی	-11.2865
▁ح	-11.2865
▁سربوت	-11.2868
▁ھاجی	-11.2875
▁کارئے	-11.2875
??	-11.2887
▁درنیامءَ	-11.2888
▁بیمناکیں	-11.2888
▁مرادانی	-11.2892
▁پسءِ	-11.2894
▁چولانی	-11.2895
held	-11.2897
▁اند	-11.2898
▁power	-11.2906
▁right	-11.2911
▁سرینت	-11.2913
یات	-11.2916
▁مغل	-11.2917
▁یاسین	-11.292
▁دریائی	-11.2921
▁شادہ	-11.2926
▁دباؤ	-11.2926
▁بریگیڈ	-11.2926
▁پنجگ	-11.2928
▁اکثر	-11.293
▁کڈک	-11.2931
▁رچگ	-11.2937
▁ھج	-11.2937
▁انچین	-11.2938
سرجمیں	-11.2944
▁تبے	-11.2945
کوہ	-11.295
▁تہرانی	-11.2951
▁اما	-11.2951
▁محبوبہ	-11.2951
▁قصہانی	-11.2952
▁نئیت۔	-11.2953
▁نثر	-11.2955
▁سیوی	-11.296
ئگ	-11.2962
▁لینن	-11.2967
▁لکیر	-11.2975
▁بحت	-11.2975
پس	-11.2976
▁ٹکے	-11.2977
وس	-11.298
▁اجوئیں	-11.298
▁دئیان	-11.2981
▁came	-11.2983
کدی	-11.2983
▁دیکھ	-11.2986
et	-11.2989
▁چارئے	-11.2989
▁کہدہ	-11.299
▁ود	-11.2994
▁باث	-11.2996
▁عامر	-11.2998
▁پہناتانی	-11.3
▁produc	-11.3004
▁رسینت	-11.3008
▁اثار	-11.3008
▁سلاہاں	-11.301
گوادر	-11.3013
▁شاھین	-11.3014
▁ھانل	-11.3015
▁شهید	-11.3018
▁With	-11.3018
▁سلاح	-11.3019
▁ھاکمی	-11.302
▁نێست	-11.3023
▁بالکل	-11.3024
▁پیتی	-11.3026
▁رش	-11.3027
▁ادماں	-11.3027
▁پھلی	-11.303
▁بیستمی	-11.3031
▁seven	-11.3036
▁رجانکی	-11.3036
▁بارہءَ	-11.3038
▁بکرتیں	-11.3038
▁داکٹر	-11.3043
▁بوتگانت	-11.3044
▁ڈھاڈر	-11.3045
▁لوغ	-11.3047
▁گن	-11.3047
گوشگ	-11.3048
مہر	-11.305
▁ورزی	-11.3052
▁کلیت	-11.3052
▁کنگ۔	-11.3057
▁تاس	-11.3059
▁کنگء	-11.3064
▁ایردستی	-11.3064
▁گالریچ	-11.3067
▁مرچیگ	-11.3067
▁you	-11.3067
▁لنجیں	-11.3069
▁level	-11.3073
▁جلدی	-11.3074
▁کانون	-11.3075
▁جاہمنند	-11.3076
age	-11.3078
لے	-11.3081
▁سدلی	-11.3081
گور	-11.3085
▁ہاسٹل	-11.3087
▁گمیگ	-11.3089
▁writ	-11.309
▁۔ءُ	-11.3092
▁بیرگ	-11.3097
▁لٹک	-11.3102
▁بێگواه	-11.3106
▁قال	-11.3107
چون	-11.311
زمین	-11.311
▁بروبری	-11.3112
▁half	-11.3113
▁حاضر	-11.3114
▁مہم	-11.3114
ث	-11.3115
▁بساک	-11.3118
▁زالے	-11.3118
▁وفات	-11.3121
▁نیلیں	-11.3124
▁نانکہ	-11.3124
▁تلب	-11.3127
▁دیگءِ	-11.3128
▁رچ	-11.3132
▁نیب	-11.3133
▁ھالو	-11.3133
▁تتک	-11.3138
▁ولے	-11.3142
▁عاقل	-11.3145
▁For	-11.3145
▁پوریاگر	-11.3146
▁claim	-11.3146
ern	-11.3148
▁دیوتا	-11.315
▁کدر	-11.3156
▁باپار	-11.3157
▁شتگیں	-11.3158
▁سہبءَ	-11.3161
▁ہاؤس	-11.3161
▁اسلءَ	-11.3163
▁Division	-11.3165
یم	-11.3166
▁songs	-11.3166
وار	-11.3166
▁former	-11.3169
▁عبدالصمد	-11.317
▁زمانے	-11.317
▁شریدار	-11.3171
▁ودارءَ	-11.3172
گشت	-11.3172
▁جہلانکی	-11.3174
▁عبد	-11.3175
▁pass	-11.3176
▁نئیں	-11.3177
▁پہلوان	-11.3181
▁یکوئی	-11.3182
▁ات۔بلے	-11.3183
▁عاقبت	-11.3185
▁کبزہ	-11.3186
پل	-11.3187
▁نسیر	-11.3188
▁پشمبے	-11.319
▁رجینتگیں	-11.3191
▁ہمیشانی	-11.3193
▁دئینت۔	-11.3198
▁انہ	-11.3199
▁زاهدان	-11.3201
▁بچارئے	-11.3203
▁تشے	-11.3204
▁contain	-11.3204
▁متھدہ	-11.3204
▁ایٹم	-11.3204
▁مھرنگ	-11.3205
▁دینے	-11.3209
▁دژمنانی	-11.321
▁کوہءِ	-11.3211
▁واکی	-11.3212
▁though	-11.3213
▁شب	-11.3213
▁کرکٹ	-11.3214
▁ایات	-11.3214
▁شھم	-11.3215
▁داؤد	-11.3217
▁among	-11.3221
▁درملک	-11.3223
▁وانگجاھاں	-11.3224
▁ہردو	-11.3224
▁گرنت	-11.323
▁مسکیں	-11.3231
▁رجینتگ	-11.3232
▁للہ	-11.3232
▁لوڈ	-11.3238
▁حج	-11.3238
▁واتری	-11.3239
▁رحمن	-11.3243
▁الکاپ	-11.3243
▁fire	-11.3244
ا۔	-11.3244
▁برنج	-11.3251
▁صنف	-11.3253
▁لوگواجہ	-11.3254
▁حاطرا	-11.3258
▁میوزک	-11.3262
▁کڈ	-11.3262
▁درکپ	-11.3266
▁De	-11.3271
▁turn	-11.3272
▁اپانی	-11.3278
▁درین	-11.3284
▁المیہ	-11.3286
▁مناسب	-11.3287
دنیا	-11.329
▁جنوزام	-11.3292
اتنت	-11.3294
▁جاگه	-11.3295
پٹ	-11.3295
▁مادہ	-11.3296
▁want	-11.3297
▁اوتھل	-11.3297
▁برطانوی	-11.3299
▁شاہد	-11.33
▁ازمءِ	-11.3301
▁ھمراھداری	-11.3301
▁شہہ	-11.3304
▁ھاٹیگ	-11.3305
▁ھورک	-11.3315
▁کؤر	-11.3318
▁چارشمبے	-11.3319
▁گندے	-11.332
▁تھسیل	-11.3321
وئی	-11.3322
▁ببیت۔	-11.3325
▁جیڑھ	-11.3325
▁State	-11.3325
▁یگ	-11.3326
▁کامل	-11.3329
▁منہ	-11.333
▁جبکہ	-11.3332
▁ساچشتانی	-11.3334
▁ادارانی	-11.3334
▁شہراں	-11.3335
▁مھروانیں	-11.3335
▁جملہ	-11.3335
▁سج	-11.3335
▁زراب	-11.334
▁پھریزگ	-11.3345
▁رنگےءَ	-11.3346
▁انو	-11.3346
▁دیدگانی	-11.3346
▁کزا	-11.3349
▁خلیج	-11.3349
▁پچے	-11.3349
ether	-11.3352
▁امیتانی	-11.3353
▁پیل	-11.3355
▁church	-11.3356
▁بندہ	-11.3357
▁گریشگ	-11.3358
▁اسرا	-11.3359
by	-11.3361
▁روحانی	-11.3365
▁پیرمرد	-11.3367
▁ھا	-11.3368
▁کشگا	-11.3369
▁production	-11.3373
▁شعیب	-11.3373
▁قبائل	-11.3374
زی	-11.338
▁اربی	-11.3382
▁نما	-11.3385
کور	-11.3385
▁پلی	-11.3393
▁نگیگی	-11.3394
▁هلاس	-11.3394
▁انتظار	-11.3394
▁پرویز	-11.3395
▁full	-11.3396
▁امداد	-11.3396
سیمی	-11.3396
▁بم	-11.3397
▁دستور	-11.34
▁کٹگ	-11.3401
▁رھشوناں	-11.3402
▁رکگ	-11.3405
▁رکھ	-11.3406
▁نرمی	-11.3406
▁گپی	-11.3406
▁چیزئے	-11.3407
▁پیغمبر	-11.341
▁ارگنائزیشن	-11.3411
▁سماج	-11.3413
▁ترسگ	-11.3414
▁سریگ	-11.3417
▁H	-11.342
▁گردان	-11.3421
▁کون	-11.3423
▁suggest	-11.3426
▁دیئگ	-11.3427
▁جنگءُ	-11.3429
▁population	-11.3429
▁واقعات	-11.3431
▁وفاقی	-11.3432
▁تحصیل	-11.3432
▁ماحولیاتی	-11.3436
▁ھرکسی	-11.3438
▁دیش	-11.3438
کجا	-11.3438
▁گوشدار	-11.344
▁ابدل	-11.3442
ینگ	-11.3443
▁وانین	-11.3448
▁تریاک	-11.3449
▁گاڈی	-11.345
سیاسی	-11.345
▁مادر	-11.3452
▁ڈیھاں	-11.3454
شاعر	-11.3457
▁بمبے	-11.3464
▁حامد	-11.3464
▁جبری	-11.3466
چوش	-11.3468
▁گیران	-11.3468
▁زرتگیں	-11.3469
▁review	-11.3472
▁الف	-11.3473
▁وارتگیں	-11.3473
▁گلا	-11.3474
▁total	-11.3474
▁تواریں	-11.3475
▁پادان	-11.3478
▁لانگو	-11.3479
▁عن	-11.348
▁نوخیں	-11.3482
▁خانگ	-11.3486
▁مسائل	-11.3489
▁ازمانکاری	-11.349
▁انجام	-11.3492
▁چونکہ	-11.3497
▁اسرائیلی	-11.3498
▁اسرمند	-11.3498
▁کیل	-11.3501
▁برءَ	-11.3504
دوست	-11.3504
▁further	-11.3506
▁مہرءِ	-11.3507
▁close	-11.3514
▁تراکانی	-11.3516
▁قبرستان	-11.3517
▁لسانی	-11.3518
▁مستیں	-11.3519
▁دلوتانی	-11.3522
▁شاہوانی	-11.3523
▁نباں	-11.3523
▁2011	-11.3525
is	-11.3526
▁کنائین	-11.3528
▁جال	-11.3529
▁field	-11.3533
▁دس	-11.3534
▁زالم	-11.3534
▁مہار	-11.3538
▁ٹیچر	-11.3539
▁مئیگ	-11.354
▁مرگی	-11.354
▁پوری	-11.3542
▁کروس	-11.3542
▁سواس	-11.3543
▁ٹرانسپورٹ	-11.3544
▁نوداں	-11.3544
▁جناح	-11.3546
▁کورے	-11.355
▁add	-11.3552
▁کاکڑ	-11.3554
▁پیداور	-11.3556
▁ازاب	-11.3556
▁واراں	-11.3558
کنان	-11.3559
▁چاروک	-11.3564
▁different	-11.3564
▁ڈیوٹی	-11.3565
▁۔یک	-11.3566
▁اخبار	-11.3566
▁گندی	-11.3567
▁اوشتوکیں	-11.3572
▁اشکار	-11.3581
▁الحق	-11.3582
▁ریکوڈک	-11.3585
▁نوید	-11.3585
▁سوچن	-11.3586
▁رفتار	-11.3589
▁سدو	-11.3593
▁کمانڈر	-11.3597
▁پهک	-11.3602
▁According	-11.3602
▁2006	-11.3603
▁ھؤ	-11.3603
▁اژ	-11.3607
▁پاداتک	-11.3615
▁بڑ	-11.3616
▁حسنی	-11.3616
▁ھاسٹل	-11.3619
▁تگرد	-11.3619
▁جاورال	-11.3621
▁Church	-11.3622
▁سوڑگ	-11.3626
▁یلو	-11.363
▁ہل	-11.363
▁ھیک	-11.363
▁کھڈ	-11.3631
▁منطق	-11.3632
▁جہلیں	-11.3632
▁بیک	-11.3636
▁ابدی	-11.3639
▁تریت	-11.364
▁درنگاز	-11.3643
▁لیکہاں	-11.3646
▁مجیب	-11.3647
spite	-11.3648
▁نادراہجاہ	-11.3649
▁جنکیں	-11.365
▁بالاں	-11.3651
▁run	-11.3652
▁اپسوز	-11.3653
▁ماری	-11.3653
ism	-11.3655
▁J	-11.3656
▁پردگ	-11.3657
▁عاصم	-11.3659
▁دانی	-11.3659
انچیں	-11.366
▁سحر	-11.3661
▁چرت	-11.3662
▁طبی	-11.3669
لوگ	-11.3676
▁محبوب	-11.3679
▁روشنی	-11.368
▁مسجد	-11.368
▁ڈسٹرکٹ	-11.3681
▁موٹل	-11.3682
شنگ	-11.3687
جست	-11.3687
▁یمن	-11.3689
▁اومر	-11.3692
▁شمال	-11.3698
توار	-11.3698
▁زن	-11.3699
▁هون	-11.37
▁کندان	-11.3702
▁اولسر	-11.3703
▁ارپ	-11.3704
▁زتک	-11.3705
▁پیکر	-11.3705
▁days	-11.3706
▁سرفراز	-11.3707
▁ھئور	-11.3708
▁حاجت	-11.3714
▁اورماڑہ	-11.3717
▁بیس	-11.3718
گوستگیں	-11.3718
▁مانگ	-11.3721
▁militar	-11.3721
اری	-11.3722
▁کماشاں	-11.3723
بتل	-11.3724
▁ڈڈ	-11.3728
▁ھورکیں	-11.3734
▁ینگ	-11.3735
اؤ	-11.3738
▁سدی	-11.3738
▁سنگینی	-11.374
▁اچار	-11.3741
ie	-11.3744
▁اث	-11.3745
▁دئیگی	-11.3749
چیاکہ	-11.375
▁بودناکی	-11.3753
▁ندارگاں	-11.3755
▁جھلی	-11.3756
▁گواہی	-11.3756
▁particular	-11.3759
▁official	-11.3759
▁کوریا	-11.376
▁اشارگ	-11.3765
▁انساناں	-11.3765
▁درپ	-11.3767
▁بندگی	-11.3767
▁کارکنوکیں	-11.3769
بو	-11.3773
▁change	-11.3775
▁برگی	-11.3779
▁بنگلزئی	-11.3779
▁تیری	-11.378
▁سرداراں	-11.3781
▁مانزمان	-11.3783
▁ٹولیانی	-11.3783
چوکہ	-11.3785
▁بوتگ۔اے	-11.3785
▁مد	-11.3787
▁وابیں	-11.3787
▁رپتار	-11.3788
لبزانکی	-11.379
▁مشینری	-11.3794
▁ات۔۔	-11.38
▁ظالم	-11.3801
▁نجیب	-11.3802
▁پانگ	-11.3806
▁بلوچستانء	-11.3806
▁مارات	-11.3809
▁گوئر	-11.3811
▁درستان	-11.3811
▁پگرے	-11.3813
▁دورانی	-11.3814
▁باند	-11.3818
▁حیرانی	-11.3818
سال	-11.3821
▁بدواہ	-11.3824
▁چکاسگ	-11.3825
▁دستبندی	-11.3825
▁بناربس	-11.3825
▁پراموش	-11.3826
▁گیریں	-11.3832
▁تحریر	-11.3832
▁درمانی	-11.3834
▁چریشیءَ	-11.3837
▁سینیٹر	-11.3838
کیچ	-11.3839
▁سوشلسٹ	-11.3842
▁شفیع	-11.3843
▁شاباش	-11.3844
▁پگ	-11.3845
▁ردان	-11.3849
▁جنجالے	-11.3851
▁ورنائے	-11.3855
▁سنگھ	-11.3857
▁human	-11.3859
▁ائیگ	-11.3861
▁شئرانی	-11.3862
▁دیوانگ	-11.3866
نک	-11.3867
چیزے	-11.3867
▁h	-11.3868
▁کدہ	-11.387
▁پراں	-11.3872
▁پہناتاں	-11.3873
▁کنانءَ	-11.3876
▁ھرجاہ	-11.3876
▁چارئگ	-11.388
▁لگور	-11.3885
▁مچھ	-11.3886
▁راجکاری	-11.3889
▁وحید	-11.3889
▁حرف	-11.3893
▁گورے	-11.3893
▁نشت۔	-11.3894
▁تنا	-11.3896
▁زورگری	-11.3896
▁ہزارانی	-11.3899
وئیں	-11.39
▁شاعریءَ	-11.3901
▁scor	-11.3903
▁بھیسہ	-11.3904
▁ھیالءَ	-11.3909
▁لوڑ	-11.391
▁بوته	-11.3912
▁لاشے	-11.3914
▁بیگءَ	-11.3914
نیم	-11.3915
▁گدانی	-11.3918
▁دھا	-11.3918
▁درہ	-11.3919
▁strong	-11.3921
▁نشتاں	-11.3923
▁رکھا	-11.3927
ول	-11.3927
▁اگبالانی	-11.3931
ou	-11.3933
▁پداں	-11.3936
▁رسائی	-11.3938
▁League	-11.3938
▁پانچ	-11.3939
▁ٹریفک	-11.3939
▁دیتے	-11.3941
▁مہراں	-11.3942
▁انگلش	-11.3942
▁گوشگءَ	-11.3942
▁every	-11.3942
▁پیس	-11.3943
▁دانش	-11.3944
▁سین	-11.3944
▁نامینگ	-11.3946
▁دارگءِ	-11.3946
▁ملکا	-11.3949
▁پاکستانء	-11.3951
▁گریبی	-11.3951
▁واریاں	-11.3953
▁قبل	-11.3955
▁ورناھانی	-11.3955
▁گزران	-11.3958
▁گوشتانک	-11.3958
▁increase	-11.3959
▁واہگانی	-11.3961
▁ملائی	-11.3962
1	-11.3964
▁بشک	-11.3965
▁گونگ	-11.3965
▁رتکگ	-11.3971
مبارک	-11.3974
▁جاورے	-11.3976
▁عبدالمالک	-11.398
▁سیاستءِ	-11.3982
▁جما	-11.3985
▁مجاں	-11.3986
▁دنیائی	-11.3988
▁نئی	-11.3991
▁گنتر	-11.3992
تب	-11.3994
▁جوزہ	-11.3997
▁دکاندار	-11.3997
▁تضاد	-11.3998
:’’	-11.4001
▁محتاج	-11.4001
▁مو	-11.4002
▁تند	-11.4002
▁control	-11.4003
▁):	-11.4004
▁السلام	-11.4004
▁ھندے	-11.4005
ستان	-11.4009
▁ہرچیز	-11.4014
▁To	-11.4015
▁ترونگل	-11.4015
▁نوشتانک	-11.4015
▁داوا	-11.4016
▁عنہ	-11.402
▁ابوبکر	-11.402
▁دزبمب	-11.4022
▁منیرءِ	-11.4025
▁راستیءِ	-11.4025
▁رنگا	-11.4026
▁لشکرے	-11.4027
▁عیش	-11.4028
▁نپر	-11.4032
▁وتکاریں	-11.4032
▁بنڈ	-11.4034
▁بجنت	-11.4034
▁بیگی	-11.4042
▁مڈیاں	-11.4045
▁ہمیشہ	-11.4045
▁اناگاہ	-11.4048
▁استالاں	-11.4053
▁وادی	-11.4053
گو	-11.4055
▁لم	-11.4056
ارش	-11.4056
ebru	-11.4059
▁جڑ	-11.4059
▁دروگے	-11.406
▁man	-11.4062
▁پدرد	-11.4064
▁ٹور	-11.4069
▁ایگی	-11.4077
▁لوٹے	-11.4077
▁هو	-11.4078
▁رکینت	-11.4079
▁service	-11.408
▁جج	-11.4081
▁finish	-11.4082
▁جمڑی	-11.4082
▁دمبرتگ	-11.4083
▁عملے	-11.4083
▁باشد	-11.4084
▁شدکش	-11.4084
▁گیشینت	-11.4085
▁سامراج	-11.4086
▁شہدگ	-11.4092
کریم	-11.4096
▁چندر	-11.4096
▁بمبگواری	-11.4097
▁کامیو	-11.4097
▁عادل	-11.41
▁لنک	-11.4107
▁دیوانءِ	-11.4109
▁کسا	-11.411
▁میرین	-11.4111
▁kill	-11.4111
▁track	-11.4111
▁پیمے	-11.4113
▁باپ	-11.4113
▁کیشن	-11.4114
▁گیشوار	-11.4114
▁ماہے	-11.4115
▁گرے	-11.4117
▁تکہ	-11.4118
▁بارڈر	-11.4118
▁کوچگی	-11.412
▁ترسناک	-11.4121
▁اتھارٹی	-11.4122
gave	-11.4122
▁تش	-11.4122
▁تصویر	-11.4124
▁درتکگ	-11.4125
▁روچتاک	-11.4126
▁بها	-11.4128
▁گنت	-11.4129
▁سوبا	-11.4129
▁ابی	-11.4129
دان	-11.4131
گشگ	-11.4132
▁ہردیں	-11.4134
اف	-11.4137
▁caus	-11.4137
▁صلاحیت	-11.4138
▁محکمیں	-11.4139
▁۔منی	-11.4141
▁defeat	-11.4142
▁ولد	-11.4143
▁زرانی	-11.4145
▁کوہاں	-11.4145
▁رھشونانی	-11.4146
▁کچھی	-11.4159
▁جیڑہاں	-11.416
▁سباہ	-11.4161
▁دمگدار	-11.4162
▁مانی	-11.4165
▁معنایے	-11.4169
▁real	-11.4173
▁تعداد	-11.4178
▁دلکش	-11.418
▁‘‘(	-11.4182
▁Song	-11.4182
▁مگ	-11.4182
▁Dylan	-11.4183
▁رائٹس	-11.4184
▁بلیدی	-11.4186
▁جانور	-11.4187
▁ترانگاں	-11.419
بدل	-11.419
▁درچکاں	-11.4192
moved	-11.4192
▁مولا	-11.4192
▁جسے	-11.4193
▁reported	-11.4194
▁زیم	-11.4195
▁گالوارے	-11.4195
x	-11.42
ھمک	-11.4203
▁دستونکئ	-11.4205
▁اسٹریلیا	-11.4205
▁پشاور	-11.4205
▁شکلیں	-11.4206
▁جندے	-11.421
▁سھریں	-11.4212
▁لوٹنت	-11.4213
▁گنوکیں	-11.4213
▁ہڈ	-11.4215
▁نازءِ	-11.4216
▁دربر	-11.4216
▁مراں	-11.4219
نیمگ	-11.422
▁تولگ	-11.422
▁موم	-11.4221
▁ٹپاں	-11.4223
▁عہدءِ	-11.4223
▁دیمء	-11.4225
▁انار	-11.4225
علم	-11.4227
▁ورزش	-11.4227
▁قمبر	-11.4228
▁بیائے	-11.423
▁منء	-11.4231
▁چنانچہ	-11.4233
▁چندن	-11.4234
▁بنگال	-11.4238
▁ہورت	-11.424
▁بازارءِ	-11.4243
▁ترانت	-11.4245
▁ویروس	-11.4246
▁دروشمیں	-11.4246
▁ڈاؤن	-11.4247
▁ساھدار	-11.4247
▁unit	-11.4247
▁ناجوڑ	-11.4248
▁دارانت	-11.425
▁G	-11.4252
▁موش	-11.4252
▁حفاظت	-11.4252
▁نزدیک	-11.426
▁شیری	-11.426
▁بیانے	-11.4265
▁بیثہ	-11.4265
▁علاقوں	-11.4266
▁دیوانا	-11.4266
▁مہربان	-11.4266
▁شف	-11.4267
▁منظم	-11.4268
▁دیبا	-11.4268
▁پہکیں	-11.427
▁گزار	-11.427
▁جیڑھاں	-11.4271
▁نفر	-11.4272
▁ماوتی	-11.4274
▁بلوٹ	-11.4274
▁دردناکیں	-11.4275
▁اداراں	-11.4276
▁بزانتیں	-11.4278
▁کشتہ	-11.4278
▁کال	-11.4282
▁سوتکگ	-11.4282
▁کمیونزم	-11.4283
▁ریگستان	-11.4284
▁صباء	-11.4288
▁story	-11.4291
▁خیرات	-11.4291
▁غ	-11.4291
▁کارجاہ	-11.4293
▁بیاں	-11.4294
▁تخلیقی	-11.4296
▁منندیں	-11.4298
گیش	-11.4301
▁سچ	-11.4301
▁حداءَ	-11.4301
▁مذھب	-11.4303
▁اوانءِ	-11.4305
▁2012	-11.4307
▁دلجان	-11.4309
▁ملکیت	-11.4312
▁ثناء	-11.4313
▁سپا	-11.4315
▁رخ	-11.4321
▁ٹاپ	-11.4321
▁رنجاں	-11.4323
▁پنوں	-11.4323
▁ادارے	-11.4323
▁سخی	-11.4323
▁مہرک	-11.4324
ؤ	-11.4329
▁رہشونی	-11.4333
▁مرتگ۔	-11.4333
▁land	-11.4334
▁انگریزاں	-11.4335
یں۔	-11.4336
▁جمھوری	-11.4336
▁نیلگ	-11.4343
▁زہم	-11.4344
▁اسم	-11.4347
▁زانتیں	-11.435
▁بوتوں	-11.4353
▁گمراہ	-11.4355
▁گيئشتر	-11.4355
▁تنیگہ	-11.4357
▁body	-11.4358
▁سماہ	-11.436
▁۔اگاں	-11.436
▁ہلاسی	-11.4361
زاناں	-11.4367
▁راھاں	-11.4368
▁دانا	-11.4369
▁نصیحت	-11.4369
▁حالکار	-11.4373
▁عطاء	-11.4373
▁منزلے	-11.4375
▁ہست۔	-11.4375
▁تماہ	-11.4376
▁بلوچانءِ	-11.438
▁ماحل	-11.438
▁چلی	-11.4388
▁ببا	-11.4392
نان	-11.4392
▁مہلنج	-11.4395
▁تچوکیں	-11.4398
سا	-11.44
▁شرح	-11.4402
▁پشتا	-11.4402
▁یاداشت	-11.4403
▁کردہ	-11.4412
▁یونائیٹڈ	-11.4414
▁کنوکے	-11.4416
▁گؤں	-11.4416
▁دیستہ	-11.4419
▁مولم	-11.4427
▁نازاں	-11.4427
▁توشگ	-11.4427
▁پڑاں	-11.4429
▁شنز	-11.443
▁انچوکہ	-11.4431
▁کارگال	-11.4435
▁ھمروچیگیں	-11.4438
▁حوالے	-11.444
▁بیتیں	-11.4442
▁گێشتر	-11.4444
▁قریشی	-11.4444
▁تہل	-11.4445
▁cover	-11.4451
▁ٹن	-11.4453
▁جیڑیت	-11.4454
▁گرا	-11.4455
▁match	-11.4455
▁tropic	-11.4456
▁ذرائع	-11.4456
▁دروغ	-11.4457
▁استادے	-11.4464
▁حس	-11.4465
▁.....	-11.4467
▁سوبمندیں	-11.4468
▁ڈاکٹرے	-11.4468
بنی	-11.4469
▁ٹکٹ	-11.4471
▁لھم	-11.4473
▁ٹائم	-11.4474
▁کراس	-11.4475
▁General	-11.4475
▁برگیڈ	-11.4476
▁معتبر	-11.4478
▁اوور	-11.4479
▁فارس	-11.448
▁لاگریں	-11.4482
▁ایئر	-11.4486
▁چلگ	-11.4486
▁چداں	-11.4487
▁وانشت	-11.4489
▁تہلیں	-11.4495
▁گبار	-11.4496
▁کرناں	-11.4499
▁ازمانکی	-11.4502
▁لرزگ	-11.4509
شھلچہ	-11.451
▁گولے	-11.4514
ھوں	-11.4515
▁east	-11.4518
▁ٹکی	-11.4519
▁سمندری	-11.4519
▁ٹرمپ	-11.4524
اں۔	-11.4524
▁براتی	-11.4529
▁بکناں۔	-11.4531
▁چاریگی	-11.4533
▁گسے	-11.4533
▁رہبنداں	-11.4534
▁دیری	-11.4536
▁ازیت	-11.4538
▁کنت۔۔۔	-11.454
▁لوٹائینت	-11.4541
▁فورم	-11.4542
▁بدیاں	-11.4542
▁گوریچ	-11.4543
▁air	-11.4546
▁گروہ	-11.4547
▁پیرس	-11.455
▁بکشاتگ	-11.4551
▁شرک	-11.4556
▁we	-11.4558
▁ڈویژن	-11.456
▁وتواجھی	-11.4561
▁hav	-11.4565
دوئیں	-11.4566
▁سامی	-11.4566
▁راہءُ	-11.4566
▁بشام	-11.4567
▁per	-11.4567
ٹک	-11.4569
▁region	-11.4569
یلہ	-11.4569
▁پہلوی	-11.457
▁لاگر	-11.4571
▁طائر	-11.4572
▁اسپین	-11.4574
▁زہگے	-11.4576
▁ندارگے	-11.4578
▁critic	-11.4578
▁لوچ	-11.4578
▁باطن	-11.4579
▁بوتگنت۔	-11.4581
▁بدنءِ	-11.4581
▁برائے	-11.4582
گون	-11.4582
▁Japan	-11.4582
▁کشکاں	-11.4585
▁حالگش	-11.4586
▁پدرائی	-11.4591
▁فیکٹری	-11.4592
nd	-11.4596
▁اشکرانی	-11.4599
▁times	-11.4604
▁شہرءِ	-11.4608
▁نامانی	-11.4608
▁ربیتی	-11.4609
اوتی	-11.461
▁writing	-11.4611
▁کرنچ	-11.4615
▁پورم	-11.4618
▁ھاندان	-11.462
▁fee	-11.462
▁سائنسدان	-11.4622
▁مغرب	-11.4624
▁مجاہد	-11.4624
▁21	-11.4624
seen	-11.4625
▁بہتر	-11.4625
▁بیلاں	-11.4626
▁قاصد	-11.4633
▁لوزاں	-11.4634
پمشکہ	-11.4635
▁ماپ	-11.4635
▁موسی	-11.4637
▁ٹیک	-11.4638
▁بئیگا	-11.4639
▁متلبے	-11.4642
▁چنال	-11.4643
▁members	-11.4643
▁پکراں	-11.4649
اشانی	-11.465
▁کسو	-11.4652
▁house	-11.4654
▁کلاہ	-11.4656
اک	-11.4657
▁استین	-11.4658
▁ندوی	-11.4662
▁ڈلگ	-11.4663
▁کته	-11.4663
▁جنگول	-11.4663
▁پارست	-11.4664
▁فلسطین	-11.4665
▁low	-11.4669
▁کامران	-11.467
▁شاعرءُ	-11.4671
▁ھترہ	-11.4671
▁ڈیموکریٹ	-11.4672
▁غازی	-11.4673
▁تاپ	-11.4674
▁creat	-11.4683
▁بہرءَ	-11.4686
▁کیوں	-11.4689
بار	-11.469
▁کارکردگی	-11.469
▁گیشنگ	-11.4695
▁?”	-11.4699
▁ششتگ	-11.4701
است	-11.4701
▁سرکارا	-11.4701
stead	-11.4703
▁اسٹال	-11.4706
▁project	-11.4707
▁اسری	-11.4707
▁base	-11.4707
▁دارگءَ	-11.4711
▁کمیونٹی	-11.4712
▁بنام	-11.4714
▁لبرل	-11.4716
▁کیپ	-11.4717
▁لاطینی	-11.4717
▁جوانسال	-11.4718
عربی	-11.4718
▁ساپیں	-11.4719
▁ایڈیشن	-11.4719
مدام	-11.4721
▁ھتم	-11.4725
▁گندگی	-11.4733
▁مشکت	-11.4733
▁ذریعے	-11.4734
▁تقریبا	-11.4738
▁سہتے	-11.4739
▁مسیح	-11.4744
ازات	-11.4744
▁بلکنہ	-11.4745
▁چھو	-11.4747
▁نوٹس	-11.4748
▁گشگا	-11.475
▁فرید	-11.4751
▁عیسی	-11.4754
▁ایمانداری	-11.4755
▁راجہ	-11.4756
▁انچائیں	-11.4756
▁پجارے	-11.4757
▁country	-11.4757
ایران	-11.4757
▁نزانتگ	-11.4758
▁پاہو	-11.4758
راجی	-11.4758
▁انڈین	-11.4764
▁۔بلوچی	-11.4764
▁میڑہ	-11.4766
▁term	-11.4768
▁کارپد	-11.4769
▁کلاسیک	-11.4769
▁تؤ	-11.477
▁دارئے	-11.4771
▁America	-11.4774
▁west	-11.4777
▁ھمدردی	-11.4785
▁پھنات	-11.4786
▁گشتہ	-11.479
▁مزید	-11.4795
lost	-11.4795
▁تھیں	-11.4795
▁باتیں	-11.4796
▁بیبو	-11.4797
▁کارایت	-11.4797
▁گوئی	-11.4798
▁کوہءَ	-11.48
▁پاری	-11.4804
▁ہنری	-11.4805
▁دکتر	-11.4805
▁شانتل	-11.4806
▁گرگءَ	-11.4809
▁بہرانی	-11.4812
▁گی۔	-11.4813
▁نامگال	-11.4814
given	-11.4816
▁جوانتریں	-11.4817
▁کرتءُ	-11.4819
▁سچگ	-11.4819
▁انگریزوں	-11.482
▁دزمانجنی	-11.482
▁شکی	-11.4823
▁عبدالکریم	-11.4824
▁همیش	-11.4824
▁جنگوجانی	-11.4824
▁ھمسیادی	-11.4824
▁پاساں	-11.4827
▁محسن	-11.4829
▁جمب	-11.4834
ارگ	-11.4834
▁پرشگ	-11.4836
▁ملگ	-11.4839
▁ہاک	-11.484
راج	-11.484
▁چما	-11.4842
uarter	-11.4843
▁خواتین	-11.4843
▁ہوکر	-11.4845
▁()	-11.4845
▁ممبر	-11.4845
▁اتش	-11.4847
▁بائی	-11.4848
▁ده	-11.4854
▁thought	-11.4855
▁tour	-11.4855
▁کێنگ	-11.4855
▁صوت	-11.4856
▁چنڈگ	-11.4857
▁Whil	-11.4858
▁پرمات	-11.4859
▁سئید	-11.4859
▁بیئگ	-11.486
▁ڈاک	-11.4861
▁شادان	-11.4862
▁گواتانی	-11.4864
▁لوک	-11.4866
▁ژانگول	-11.4867
▁young	-11.4868
▁کرپشن	-11.4868
▁گیشواری	-11.487
▁برنت	-11.4872
▁بچاراں	-11.4872
▁موسمے	-11.4873
▁پیرو	-11.4874
▁ذیل	-11.4876
▁ملار	-11.4878
▁عمان	-11.4878
▁ٹٹ	-11.4879
▁تباھی	-11.4888
▁اسمائیل	-11.4888
▁گارڈز	-11.4889
▁انتخاب	-11.4897
▁کماندان	-11.4899
▁کتگین	-11.4899
▁پہنچ	-11.49
▁لانچر	-11.4901
▁وارڈ	-11.4902
جوڑ	-11.4904
سن	-11.4906
▁2013	-11.4909
▁ریاستے	-11.491
▁اقتدار	-11.491
▁شاھو	-11.4913
▁ھمایاں	-11.4913
▁زانتاں	-11.4913
▁عدم	-11.4915
▁کپتیں	-11.4916
▁انیگیں	-11.4918
▁جنگلی	-11.4919
▁پرینتگ	-11.4921
▁منو	-11.4925
▁پہمئن	-11.4926
▁لیکہءِ	-11.4927
▁مانش	-11.4929
▁لگگ	-11.4931
▁روٹکی	-11.4934
▁خیبر	-11.4935
▁ھزانگ	-11.4935
▁ابرو	-11.4935
▁تنیگ	-11.4937
▁زمینانی	-11.4939
▁توانا	-11.4941
▁کلہ	-11.4945
▁کرشی	-11.4945
▁mak	-11.4949
▁دیاں۔	-11.495
▁صحیح	-11.495
▁نشار	-11.495
▁بندیک	-11.495
▁برطانیا	-11.4951
ط	-11.4952
▁ضمانت	-11.4953
تک	-11.4956
سفرخان	-11.4958
▁یکشلی	-11.4959
▁جوڑی	-11.4959
▁شائراں	-11.496
▁اندام	-11.4962
▁ھالیگ	-11.4962
ایوک	-11.4965
▁چمی	-11.4967
▁مجن	-11.4968
▁هیال	-11.4971
▁لیوس	-11.4972
▁ایمنسٹی	-11.4977
▁بچاریت	-11.4977
▁operation	-11.4977
▁اتراپ	-11.4987
▁دانائی	-11.4988
▁پشومان	-11.4989
▁ترکیب	-11.4992
4	-11.4993
▁گواھی	-11.4995
▁ھندءُ	-11.4995
▁روزی	-11.4996
▁بخاری	-11.4997
▁سینئر	-11.4998
▁مکر	-11.5
▁اشعار	-11.5
▁style	-11.5
▁باھند	-11.5
▁رام	-11.5001
▁بنتءُ	-11.5001
▁درنجگ	-11.5002
▁زانتکارے	-11.5002
▁غفور	-11.5002
▁نذر	-11.5005
went	-11.5008
▁کارکرد	-11.5011
▁ماسکو	-11.5012
▁لبزی	-11.5013
▁بیگہ	-11.5013
▁کوشانی	-11.5015
▁دیوالاں	-11.502
niversit	-11.502
▁never	-11.502
▁بارکزئی	-11.5021
▁development	-11.5021
▁امب	-11.5025
ous	-11.5027
▁جذبگ	-11.5028
▁دردی	-11.5028
....!	-11.5029
▁میراس	-11.5029
▁ساہدار	-11.5032
▁پیسہ	-11.5034
▁جاورحال	-11.5035
▁کسھاں	-11.5035
▁چٹی	-11.5038
▁دشمنی	-11.5041
▁دھ	-11.5043
▁فہم	-11.5043
▁بروک	-11.5046
▁پسانی	-11.5051
▁stated	-11.5053
ساحر	-11.5056
▁سینزدہ	-11.5057
▁کچکے	-11.5057
▁ضد	-11.5057
▁لبزءُ	-11.5058
▁ھیالی	-11.506
▁ھمساھگ	-11.5063
▁پتا	-11.5063
▁سائٹ	-11.5066
▁اجزاء	-11.5066
▁مشورہ	-11.5067
▁ایدیم	-11.5069
▁action	-11.507
▁جدگال	-11.5075
▁دوداں	-11.5077
▁popular	-11.5078
▁less	-11.5079
▁plan	-11.5079
▁سرگوز	-11.5081
▁رچان	-11.5081
▁range	-11.5082
▁زالکار	-11.5083
▁بادگیر	-11.5083
▁کلمکار	-11.5086
▁رسینتگ	-11.5087
▁براتے	-11.5089
▁سفرنامہ	-11.509
▁چھٹی	-11.5091
▁مدگ	-11.5092
▁ڈور	-11.5092
▁پنڈگ	-11.5095
▁کمپان	-11.5099
▁بہرام	-11.5101
▁ناروے	-11.5102
▁جارج	-11.5103
▁گرئگ	-11.5105
اسلام	-11.5107
▁سسائی	-11.511
▁ھرتال	-11.5112
▁راھانی	-11.5112
▁سانتیاگونصر	-11.5112
▁پٹگ	-11.5115
▁West	-11.5115
▁منئ	-11.5119
▁گنی	-11.512
▁چاراتگ	-11.5122
▁کاپی	-11.5123
▁روی	-11.5124
▁جذبات	-11.5125
▁award	-11.5126
راستی	-11.513
▁ادارکی	-11.5133
جنین	-11.5135
▁رون	-11.5136
▁نادریں	-11.5136
▁سرون	-11.5136
▁complete	-11.5137
▁راھبندے	-11.5139
▁ترسءَ	-11.5142
▁گفتار	-11.5143
▁ماراں	-11.5144
▁بھرام	-11.5148
▁ہوا۔	-11.5148
▁بیھال	-11.5153
▁ماہءَ	-11.5153
▁درو	-11.5159
▁کارستاں	-11.5161
▁ورناھاں	-11.5162
▁بندرءَ	-11.5163
▁جاڑی	-11.5163
کمے	-11.5165
▁لوٹائینتگ	-11.5167
▁شعرءَ	-11.517
▁نہیں۔	-11.5171
▁کردارانی	-11.5174
بنت	-11.5174
▁ژ	-11.5175
▁تہت	-11.5178
▁Park	-11.5178
▁۔پدا	-11.5181
▁حکمران	-11.5181
▁وشحالی	-11.5182
▁کشادگ	-11.5183
▁ولید	-11.5183
▁دمانی	-11.5185
▁عبدال	-11.5186
▁بندری	-11.5187
▁اصلیں	-11.5188
▁ترسیت	-11.5191
▁ڈیہ	-11.5195
▁سبکیں	-11.5196
▁کپودر	-11.5197
▁مسام	-11.5197
▁بدر	-11.5198
▁بحری	-11.5199
▁سندگ	-11.52
▁گوادرءِ	-11.5201
▁مردانی	-11.5202
▁بگاوت	-11.5202
دیوان	-11.5203
▁کری	-11.5204
▁Australian	-11.5204
▁پروشی	-11.5206
▁مارت	-11.5209
▁متاہ	-11.521
▁برانت	-11.5211
▁سجاد	-11.5212
▁نسب	-11.5213
▁ہپتاد	-11.5216
▁کسھانی	-11.5216
▁مہلوکءِ	-11.5217
▁بوتک	-11.5219
▁مصری	-11.5222
▁نشانے	-11.5226
▁ft	-11.5227
لوٹ	-11.5229
▁اٹلی	-11.5231
▁مسلماناں	-11.5233
▁گریں	-11.5235
▁اینٹی	-11.5236
▁نمائندگی	-11.5238
▁بحران	-11.5238
▁ہنچش	-11.5241
▁جیڑہے	-11.5242
▁سرتاک	-11.5247
▁star	-11.5253
مردماں	-11.5267
▁گشادی	-11.5268
▁جنینی	-11.5269
▁مخالف	-11.5271
▁توازن	-11.5271
▁ینت	-11.5273
▁بتلانی	-11.5274
▁پێسر	-11.5277
ها	-11.5277
▁فراز	-11.5285
روکپتی	-11.5289
▁سرمچارے	-11.529
▁اوژناگ	-11.5291
▁جاھانی	-11.5292
رز	-11.5292
▁گورنمنٹ	-11.5294
▁بستگ۔	-11.5295
coming	-11.5295
▁اپیل	-11.5295
▁پیوست	-11.5296
▁فلاں	-11.5296
▁ادیرہ	-11.5297
▁میریں	-11.53
self	-11.5301
▁عربانی	-11.5301
▁زهر	-11.5302
▁چکءَ	-11.5303
▁تانا	-11.5303
گار	-11.5305
▁نئیل	-11.5307
▁اذیت	-11.531
▁پردہ	-11.5317
▁وہی	-11.5317
ؤں	-11.5318
▁Ire	-11.5318
▁scene	-11.5319
▁23	-11.5319
▁ہرکسی	-11.532
▁مریض	-11.5322
▁اسٹیٹ	-11.5322
▁رہبندے	-11.5323
نوک	-11.5326
ally	-11.5326
▁تپر	-11.5327
▁ریگی	-11.5327
▁انچ	-11.5329
بیگواہ	-11.5333
▁شتنت	-11.5334
▁ھوراں	-11.5335
▁سفیر	-11.5335
▁island	-11.5336
▁زہرگ	-11.5337
▁enter	-11.5339
▁toward	-11.5339
ہوار	-11.5343
▁مفتی	-11.5344
▁گنبد	-11.5344
▁جارے	-11.5345
▁سعدی	-11.5348
ای	-11.535
▁سوبیں	-11.5352
ائع	-11.5355
▁تاجر	-11.5358
▁دریافت	-11.5361
▁پجیگ	-11.5362
▁تروتاب	-11.5362
▁نمونہ	-11.5363
ither	-11.5363
دپ	-11.5364
▁پرسیگ	-11.537
گیشتر	-11.5371
▁سرانی	-11.5372
▁لوٹتگ	-11.5377
▁chart	-11.5378
▁ناامیتی	-11.5379
▁وانوکیں	-11.5379
▁دریاورد	-11.538
▁ابادیں	-11.5382
▁novel	-11.5385
▁hour	-11.5386
▁فل	-11.5391
▁مبارکیءَ	-11.5393
▁قلمکار	-11.5393
▁راستیءَ	-11.5396
ئگا	-11.5397
▁گیگان	-11.5397
▁شاید	-11.5398
ther	-11.5399
▁زانگءَ	-11.5405
▁پیٹ	-11.5405
▁داتیں	-11.5405
▁اھان	-11.541
▁تسلسل	-11.5411
ایا	-11.5414
وان	-11.5416
▁گیپت۔	-11.5418
▁ہاسیں	-11.5423
مرد	-11.5425
▁ھمدپ	-11.5427
▁گسءِ	-11.5428
▁کشیت۔	-11.5428
▁join	-11.543
پچ	-11.543
▁light	-11.543
▁فصل	-11.5432
...!‘‘	-11.5433
▁الہ	-11.5433
▁منظوری	-11.5435
▁earlie	-11.5435
▁issue	-11.5436
▁کنا	-11.5436
▁داتءُ	-11.5437
▁زهگ	-11.5438
▁چکیں	-11.5439
▁امانت	-11.5439
▁نکس	-11.5439
▁ٹاک	-11.5452
▁town	-11.5453
یتگ	-11.5454
▁پروردگار	-11.5456
,’’	-11.5456
وھدیکہ	-11.5459
▁موسماں	-11.546
▁مولابخش	-11.5462
▁ناسرپد	-11.5462
▁ننک	-11.5462
▁دانکاں	-11.5462
▁یله	-11.5462
▁سینہ	-11.5463
▁گارءُ	-11.5464
▁ساعتے	-11.5465
۔منی	-11.5466
▁غمانی	-11.5466
▁برئے	-11.5467
▁ذگریں	-11.5467
▁گندایت	-11.5469
▁دراھی	-11.547
پنچ	-11.547
▁سورس	-11.5471
▁ھانزا	-11.5471
غلام	-11.5471
▁زانوگر	-11.5472
مست	-11.5473
▁پنڈوک	-11.5474
▁چرا	-11.5478
▁زا	-11.5479
▁شیرے	-11.548
▁مومنٹ	-11.5481
▁یہودی	-11.5481
...‘‘	-11.5483
▁جر	-11.5484
▁دانگے	-11.5484
▁۔ہمے	-11.5486
▁دوھیں	-11.5486
▁گوگل	-11.5486
▁رسینگ	-11.5488
▁کدیم	-11.5488
▁راہاں	-11.5493
▁writer	-11.5493
▁ڈگارءَ	-11.5496
▁ارمانی	-11.5497
▁دفتر	-11.5498
▁زیراں	-11.5498
▁گواتءَ	-11.55
چوشکہ	-11.5501
▁پمێشکا	-11.5502
▁ریا	-11.5503
▁بوئگءَ	-11.5503
▁وارے	-11.5505
▁ورناہانی	-11.5505
▁پاسپورٹ	-11.5505
▁صغیر	-11.5505
▁کسارت	-11.5505
▁جدل	-11.5505
▁وفاق	-11.5508
▁منشی	-11.5508
▁چارایت	-11.5509
▁برد	-11.551
▁میاریں	-11.5511
▁نبیسوک	-11.5516
▁رحمدل	-11.5516
▁مزور	-11.5518
▁پادے	-11.5521
▁روایات	-11.5521
▁مھرانی	-11.5524
▁band	-11.5524
▁لگام	-11.5528
▁ملنڈ	-11.553
▁بلاک	-11.553
▁خط	-11.5531
▁دردءُ	-11.5533
▁ھپتمی	-11.5534
▁الکاپی	-11.5534
▁white	-11.5542
▁چوگان	-11.5542
تاک	-11.5546
▁سیا	-11.5546
لہتیں	-11.5546
▁50	-11.5548
▁element	-11.5549
سنگ	-11.5549
▁اصطلاح	-11.555
▁نائک	-11.555
."	-11.555
▁مڑا	-11.5555
▁پرزند	-11.5555
▁لیکو	-11.5556
▁دائما	-11.5558
▁لیس	-11.5559
▁واکیات	-11.5562
▁ورناہاں	-11.5563
▁بربادی	-11.5564
استاد	-11.5568
میان	-11.5569
▁قاتل	-11.5569
▁تگران	-11.557
▁چنگیز	-11.5573
▁ایرموش	-11.5574
▁گواتءِ	-11.5578
▁اگه	-11.5578
▁توصیف	-11.558
▁وسوسگ	-11.5582
▁ھیرو	-11.5583
▁زربار	-11.5586
▁ھالی	-11.5586
▁مھم	-11.5592
▁کشنت	-11.5592
▁اتحادی	-11.5595
felt	-11.5596
لس	-11.5598
▁درپشوکیں	-11.56
▁چونا	-11.5603
پشت	-11.5603
▁روگءِ	-11.5604
away	-11.5606
▁دپار	-11.5606
▁پئیمیں	-11.5607
▁نجات	-11.5607
▁ھمیشاں	-11.5607
▁noted	-11.5608
▁کسمت	-11.5609
▁کامیابی	-11.5609
▁چیری	-11.5611
▁هک	-11.5612
▁درہائ	-11.5612
▁ببو	-11.5616
▁شاھر	-11.5619
▁پشل	-11.5619
▁London	-11.562
▁مراقبہ	-11.5621
▁انگه	-11.5623
▁دانکے	-11.5624
▁عبدالحکیم	-11.5626
▁الیاس	-11.5626
c	-11.5627
▁ہمراہاں	-11.5628
▁درانی	-11.5628
▁واناک	-11.563
▁پشومانی	-11.5632
▁مذھبی	-11.5633
▁هرکس	-11.5633
across	-11.5634
▁رتکگیں	-11.5636
▁کلانچ	-11.5637
▁کشگءَ	-11.5637
▁شگل	-11.5638
▁کینسر	-11.5639
▁رازاں	-11.5639
▁ٹپاسگ	-11.5639
▁پکرے	-11.564
▁ٹائپ	-11.564
▁گوربام	-11.5641
▁کسٹم	-11.5644
▁مختار	-11.5645
▁ٹہک	-11.5645
▁Arm	-11.5645
▁شیراں	-11.5646
▁ائوکیں	-11.5648
▁بلاول	-11.5648
▁ھمگرنچی	-11.565
▁عدل	-11.5651
▁راہءِ	-11.5652
▁انلاین	-11.5652
▁ھونانی	-11.5653
▁منتوار	-11.5656
▁سیدءِ	-11.5657
▁گپا	-11.5657
▁ایرانء	-11.5658
▁route	-11.5659
▁حبرانی	-11.5661
▁گلامیں	-11.5662
▁مردان	-11.5665
۔۔۔۔۔۔۔	-11.5667
▁رزان	-11.5672
ودی	-11.5674
▁ھمداں	-11.5676
▁زاننت	-11.5678
ley	-11.5681
▁ڈیجیٹل	-11.5682
▁ردء	-11.5685
▁پچی	-11.5687
▁نگرہ	-11.5688
▁انگار	-11.569
▁بندرگاہ	-11.5692
▁28	-11.5693
▁پرو	-11.5694
▁کشوک	-11.5694
▁مکان	-11.5695
▁زیند	-11.5696
▁درتگیں	-11.57
▁نکاح	-11.5701
▁ماھاں	-11.5701
▁پاور	-11.5702
▁ھردوئیں	-11.5702
▁نگران	-11.5702
▁انعام	-11.5704
▁اہدی	-11.5706
▁کشمیری	-11.5709
▁ایرجیگ	-11.5714
▁good	-11.5716
▁ایجوکیشن	-11.5716
▁himself	-11.5716
▁پیپلز	-11.5718
▁چادرے	-11.5719
یو	-11.572
▁حیالداری	-11.572
▁گلگدار	-11.572
▁get	-11.5721
▁رؤف	-11.5721
▁ناگتی	-11.5723
درد	-11.5723
▁ھلو	-11.5726
▁سیاہی	-11.5726
▁دلسیاہ	-11.5729
▁چانگ	-11.5729
▁ایپلی	-11.573
▁شیریں	-11.5731
واں	-11.5732
▁سرو	-11.5734
▁واکب	-11.5736
▁سوا	-11.5742
▁قصہی	-11.5743
▁پتاتگ	-11.5743
▁مھکمی	-11.5744
▁کتب	-11.5745
▁عبید	-11.5746
▁ناگتیں	-11.5747
▁win	-11.575
▁جلی	-11.5753
▁رستہ	-11.5754
▁توام	-11.5755
▁22	-11.5756
▁توپ	-11.5756
▁دلگران	-11.5756
▁ہمد	-11.5757
▁بیاراں	-11.5758
▁زمینے	-11.5758
▁سالا	-11.576
▁ریسکیو	-11.5764
شی	-11.5765
▁داس	-11.5768
▁ابات	-11.577
▁بابتء	-11.5771
▁بقول	-11.5772
کیت	-11.5776
▁نێمگا	-11.5776
▁ہستیں	-11.5777
وانگ	-11.5781
▁دردءِ	-11.5781
▁کچکانی	-11.5786
▁جناور	-11.5787
کرت	-11.5787
▁وٹ	-11.5787
▁شاہین	-11.5788
▁خدائی	-11.5789
▁کہنا	-11.579
▁لازمی	-11.579
▁ڪنت	-11.579
▁ایکسپریس	-11.579
▁جنئک	-11.5792
▁رھم	-11.5793
hose	-11.5793
▁رومان	-11.5794
▁نیزگار	-11.5797
▁حضور	-11.5798
▁دف	-11.5808
▁age	-11.5808
▁فنا	-11.5809
▁پیلہ	-11.5811
▁کیوبا	-11.5812
▁بدلا	-11.5813
‘,’	-11.5813
▁وتئ	-11.5814
▁روزگاری	-11.5814
▁مقرر	-11.5815
▁وهدی	-11.5816
▁تماشا	-11.5817
▁کتگءُ	-11.5819
▁پلاسٹک	-11.5824
▁وشھالی	-11.5824
▁مہربانی	-11.5825
▁رست۔	-11.5829
▁امیدوار	-11.5829
▁ہوری	-11.5831
▁پڑی	-11.5836
▁چکءِ	-11.5838
▁گوشداران	-11.5839
▁ھمودءَ	-11.5839
▁پیمانہ	-11.5843
▁ازلی	-11.585
▁featur	-11.5852
▁پلگاریں	-11.5852
▁تے	-11.5852
▁بکشیت	-11.5854
▁24	-11.5856
▁مجھ	-11.5857
▁Australia	-11.5857
زہرشانی	-11.5859
▁معناءُ	-11.5859
▁ترز	-11.5861
▁significant	-11.5862
▁چیدگے	-11.5866
▁ہوشام	-11.5869
▁اگل	-11.587
▁پلانٹ	-11.5871
گوات	-11.5877
▁ناتپاکی	-11.5878
▁سلاحبند	-11.588
دیگ	-11.588
▁زریں	-11.5883
▁کائی	-11.5884
▁وپتگیں	-11.5886
▁انگلینڈ	-11.5886
▁ابیتکیں	-11.5888
▁چتکان	-11.5894
▁پٹان	-11.5895
ical	-11.5896
▁see	-11.5896
▁حسابءَ	-11.5896
▁کسےءِ	-11.5898
▁تچیت	-11.5899
▁مرضی	-11.5899
▁ارڈر	-11.59
▁ڈیوا	-11.5901
▁جاپانی	-11.5903
▁کرزیت	-11.5904
▁son	-11.5904
▁تاچ	-11.5908
▁تعالی	-11.591
اء	-11.5916
▁وند	-11.5917
▁نکل	-11.5919
▁نارشت	-11.5919
▁ایاز	-11.592
▁شعرءُ	-11.5921
ڪ	-11.5922
▁بوت۔۔۔	-11.5922
▁رج	-11.5924
▁ضمیر	-11.5924
▁جین	-11.5928
▁راجدپترءَ	-11.5928
شان	-11.593
▁انچشیں	-11.5931
▁ساہتے	-11.5932
▁لیپ	-11.5933
▁important	-11.5934
▁تجابان	-11.5934
▁جمعی	-11.5935
▁عبدالرحمن	-11.5937
▁حلقہ	-11.5944
▁نبشتہی	-11.5945
▁ہوت	-11.5949
▁سیاھی	-11.595
▁نگدکاری	-11.5954
ھدا	-11.5957
▁پیژگاہ	-11.5958
▁initial	-11.5959
▁تؤکا	-11.5959
▁کمانچر	-11.596
▁ملوری	-11.5961
▁بیدے	-11.5964
▁لاشعور	-11.5966
▁پسے	-11.5971
▁بدنءَ	-11.5971
▁شاتو	-11.5973
شعر	-11.5976
▁ساگر	-11.5977
▁شیک	-11.5979
▁مسترین	-11.5981
دستونک	-11.5982
▁وہم	-11.5983
▁father	-11.5985
▁ٹاؤن	-11.5985
▁کفن	-11.5985
▁یکپارگی	-11.5986
▁ازمانکءِ	-11.5988
▁ھدائی	-11.5992
▁نادرا	-11.5994
▁تانہ	-11.5995
▁کیسے	-11.5997
▁تبدیلی	-11.5999
وھد	-11.6005
میتگ	-11.6007
▁سیال	-11.6011
▁۔ما	-11.6012
▁دیستیں	-11.6012
▁چھوٹ	-11.6012
▁ٹیل	-11.6012
▁گناھیں	-11.6014
▁رستری	-11.6016
▁sign	-11.6018
▁ورنت	-11.6019
▁درشت	-11.602
▁ھشتمی	-11.602
▁ہماری	-11.602
▁act	-11.602
نیست	-11.6021
▁ائیر	-11.6021
▁ھبرءَ	-11.6021
▁چرگ	-11.6029
▁کتابءَ	-11.603
▁King	-11.6032
▁عبدالغفار	-11.6032
▁female	-11.6033
▁television	-11.6033
▁شیعہ	-11.6035
شال	-11.6038
▁باپشت	-11.6038
▁ملکموت	-11.6039
▁miles	-11.604
▁کوکو	-11.604
▁ریشاں	-11.604
▁جامعہ	-11.6044
▁الزام	-11.6049
▁عالی	-11.6049
▁اخرت	-11.605
▁نکت	-11.605
▁eight	-11.6057
▁کمبل	-11.6061
▁مڈل	-11.6064
▁ه	-11.6064
▁ھیروپ	-11.6065
▁خوب	-11.6066
▁۔ایشی	-11.6066
▁گشتگ۔	-11.6067
▁سنا	-11.6073
▁جوھر	-11.6075
▁ہپتگ	-11.6078
چیا	-11.6078
▁برمشے	-11.6078
▁دیئے	-11.6079
▁various	-11.6082
▁interest	-11.6082
▁کرچک	-11.6083
▁ھاؤس	-11.6084
▁سیٹھ	-11.6084
▁چربی	-11.6086
▁سلہ	-11.609
▁مسلہ	-11.6094
▁تیوک	-11.6099
▁damage	-11.6099
▁زبانوں	-11.6102
▁!!!	-11.6102
▁نواں	-11.6103
▁ردیاں	-11.6104
▁حمیدہ	-11.6105
▁عورت	-11.6107
▁مراگاہ	-11.6107
▁ھدے	-11.6108
▁minute	-11.6108
▁جرمکار	-11.6108
▁لگا	-11.6108
▁کوپ	-11.6109
▁ژوب	-11.6109
▁عبدالمجید	-11.611
با	-11.6111
یکہ	-11.6112
▁پیدائش	-11.6113
سئے	-11.6113
▁بندیگی	-11.6116
▁اک	-11.6116
▁یکتنا	-11.6116
▁مئیت	-11.6116
▁حرچ	-11.6117
▁واسطہ	-11.6123
▁سکول	-11.6126
▁مثلا	-11.6131
دین	-11.6132
▁روپ	-11.6132
▁چرچ	-11.6134
▁ناامیت	-11.6137
▁کانچ	-11.6137
▁دامنءَ	-11.6137
غنی	-11.6145
اتک	-11.6145
▁کرو	-11.6149
▁چھوڑ	-11.6149
▁گنوکے	-11.615
▁گرگی	-11.6152
▁ربیدگانی	-11.6157
▁James	-11.6158
▁یکسد	-11.6158
▁بوتت	-11.6158
▁امروہی	-11.6159
▁راھا	-11.6162
لبز	-11.6164
▁ھیرات	-11.6167
▁پرینگ	-11.6168
▁گرام	-11.617
▁پرشیت	-11.6171
▁ساچشتے	-11.6173
▁نازءَ	-11.6176
▁ھیات	-11.6176
▁سیاہگ	-11.6177
▁کلانی	-11.6177
▁پرانی	-11.6179
▁نادراھیانی	-11.6183
▁گوئشگ	-11.6183
▁تسلہ	-11.6183
▁باعث	-11.6183
▁موداں	-11.6184
▁stage	-11.6188
بے۔	-11.6188
▁تسلیم	-11.6189
▁ھسن	-11.6189
▁زروان	-11.6192
▁باتاں	-11.6195
▁بنجلے	-11.6196
▁شفیق	-11.6205
▁سنگاں	-11.6208
▁بڈا	-11.6209
▁سربر	-11.6212
▁بیلی	-11.6214
▁سہن	-11.6216
▁تھریک	-11.6217
▁کی۔	-11.6218
▁کوڈ	-11.622
▁گزرانی	-11.6221
▁یکجائی	-11.6222
▁منزلءَ	-11.6225
▁لچه	-11.6228
▁ھندانی	-11.6229
▁پولگ	-11.6234
▁مراگہ	-11.6235
▁اہیءَ	-11.6235
شاد	-11.6236
ماتی	-11.6238
▁رکھتے	-11.6238
▁تعلیمی	-11.6239
▁امریکائی	-11.6239
▁کھڑکی	-11.624
▁بنگپے	-11.6243
▁ہلاپ	-11.6243
▁نیو	-11.6246
▁مالاں	-11.6252
▁جاؤ	-11.6253
▁success	-11.6257
▁successful	-11.6258
▁case	-11.6259
▁does	-11.6259
▁ساچشتاں	-11.6263
▁اروہی	-11.6264
کارے	-11.6269
▁تعاون	-11.6269
▁امنی	-11.6271
▁کلیر	-11.6271
▁اکہ	-11.6272
تربت	-11.6273
گءَ	-11.6275
▁پرا	-11.6275
▁events	-11.6276
▁بگو	-11.6279
ہند	-11.6281
▁ترانے	-11.6281
▁گلستان	-11.6281
▁دیغ	-11.6285
▁عبدالرحیم	-11.6285
وڑ	-11.6287
▁وصف	-11.6288
▁برکش	-11.6295
▁پنتءُ	-11.6296
▁پہوال	-11.6301
▁ناھدا	-11.6303
▁اصلءَ	-11.6308
▁اینگو	-11.6309
▁peak	-11.6309
▁زیروک	-11.6309
▁شوهاز	-11.6313
▁گیشگیواری	-11.6314
▁نبیل	-11.6315
▁استاداں	-11.6316
▁جیڑگانی	-11.6318
▁نوبل	-11.6318
▁شالءَ	-11.6323
▁برج	-11.6323
▁ماتاں	-11.6326
▁ازمکاری	-11.6327
دگ	-11.6328
▁ڈنگر	-11.6328
▁شموشتگ	-11.6329
▁بہرگاں	-11.6331
▁دیمءِ	-11.6332
▁یکدار	-11.6332
▁ہنی	-11.6334
▁یوں	-11.6335
▁اید	-11.6336
▁discover	-11.6336
▁قہر	-11.6337
▁political	-11.6338
▁بچہ	-11.6338
▁ھمایانی	-11.6342
یکیں	-11.6344
▁عومر	-11.6347
▁شھریاں	-11.6347
▁جاہی	-11.635
▁تنگیں	-11.635
▁وردنی	-11.6353
▁بیچار	-11.6354
▁سادگی	-11.6355
▁بروان	-11.6356
▁جائز	-11.6357
▁سرینگ	-11.6358
▁live	-11.6358
▁ائیگا	-11.6361
▁جھاؤ	-11.6361
▁کردگالی	-11.6361
▁تقسیم	-11.6362
▁وردی	-11.6364
▁اصلاح	-11.6365
▁اسءَ	-11.6365
▁نسر	-11.637
پرچے	-11.637
▁لۆگ	-11.6371
▁تال	-11.6372
▁بیوس	-11.6374
▁گیشینتگ	-11.6377
▁پکنک	-11.6378
▁ہد	-11.6381
▁دابءَ	-11.6381
بالاچ	-11.6382
▁ایٹمی	-11.6383
▁road	-11.6385
▁ازمانءَ	-11.6386
▁کفر	-11.639
بیت۔	-11.639
▁Black	-11.639
▁mm	-11.6391
▁فائنل	-11.6391
▁دراہگ	-11.6395
▁تلاہ	-11.6398
▁مہلوکءَ	-11.6404
▁ناظم	-11.6404
▁گلءَ	-11.6404
چوشیں	-11.6406
▁موسیقی	-11.6409
▁دزکش	-11.6412
▁پراھگ	-11.6413
▁میزاں	-11.6414
▁الحاق	-11.6415
▁سات	-11.6417
▁گشتگیں	-11.6418
▁دھر	-11.642
▁زانے	-11.6421
▁سیارہ	-11.6425
▁انت۔۔۔۔۔	-11.6425
▁زورءُ	-11.6425
▁میکسم	-11.6426
▁کارانت	-11.6427
▁شالءِ	-11.6436
▁نوہ	-11.6437
▁حالا	-11.6438
▁ابداللہ	-11.6438
▁کرشن	-11.6441
بد	-11.6442
▁مادنیں	-11.6443
▁کٹی	-11.6445
▁دہلی	-11.6445
▁سداں	-11.6446
▁بات۔	-11.6447
سرپد	-11.6447
▁منگی	-11.6448
▁رنجانی	-11.6449
سرا	-11.6451
▁پروشیت	-11.6455
▁شاخ	-11.6459
▁درگیج	-11.6461
▁ten	-11.6461
▁پرکے	-11.6463
▁poem	-11.6463
▁تلک	-11.6464
▁ازمانءِ	-11.6464
▁look	-11.6464
▁استادانی	-11.6469
▁گوادری	-11.6469
▁بوؤگ	-11.6469
▁art	-11.647
▁زیملی	-11.647
▁ایرکنگ	-11.647
▁گوں۔	-11.647
▁۔تو	-11.6471
▁دزکشی	-11.6472
▁سوتے	-11.6474
▁نزیکا	-11.6478
▁ثنا	-11.6479
▁جھ	-11.648
▁انت۔چہ	-11.6482
▁انجینئر	-11.6485
شن	-11.6485
▁باہر	-11.6488
▁کماشے	-11.6491
▁performance	-11.6491
▁بندوبست	-11.6491
▁ات۔ا	-11.6494
▁درگ	-11.6495
چونیں	-11.6499
▁ابکہ	-11.6501
▁پدانک	-11.6503
N	-11.6505
▁راجءَ	-11.6508
▁چیزان	-11.6511
گانی	-11.6511
▁c	-11.6512
ئین	-11.6513
گڈی	-11.6514
▁example	-11.6515
▁ھڑتال	-11.6515
▁need	-11.6516
▁County	-11.6516
▁وریں	-11.6517
▁ہوارانت۔	-11.6517
▁مبارکیں	-11.6525
مال	-11.6526
زم	-11.6528
▁پاگواجہ	-11.6529
▁پنج	-11.653
▁بانی	-11.6531
▁ذاتے	-11.6533
▁درتگ	-11.6534
نز	-11.6535
▁سنسکرت	-11.654
▁پربستگ	-11.654
▁sent	-11.6541
▁پولیٹیکل	-11.6543
▁مشکلات	-11.6543
▁too	-11.6544
▁برٹش	-11.6546
▁شه	-11.6546
▁چلا	-11.6546
▁مفت	-11.6547
▁لیکیت	-11.6555
پدءَ	-11.6556
▁کٹیت	-11.6556
▁کپٹن	-11.6559
▁مصیبت	-11.6562
▁ائن	-11.6563
▁گپتیں	-11.6564
▁اکبت	-11.657
▁زورے	-11.6571
▁پسوءَ	-11.6572
▁ڈھل	-11.6573
▁بجائے	-11.6573
▁ثقافت	-11.6575
▁پیشکان	-11.6575
▁ارادگ	-11.6577
▁درابیت	-11.6577
▁بوک	-11.6578
تنت	-11.6578
▁گنجی	-11.6579
▁الماری	-11.6585
حسن	-11.6585
▁نامداری	-11.6585
▁دیا۔	-11.6586
▁بہائیں	-11.6588
▁میاری	-11.6588
▁اندازگ	-11.6589
▁چۆن	-11.6592
▁ہم۔	-11.6593
▁اھوالکاراں	-11.6595
▁influence	-11.6595
▁شاھگان	-11.6595
▁چونین	-11.6595
▁مثالے	-11.6597
▁مخصوص	-11.6598
▁انلائن	-11.66
▁لڑے	-11.6602
▁زینت	-11.6604
▁کلا	-11.6604
▁قطار	-11.6606
▁ادءِ	-11.6607
▁سیکس	-11.6609
▁امیتان	-11.6609
▁کاگدانی	-11.6611
▁کیامت	-11.6611
▁ٹالسٹائی	-11.6611
▁انس	-11.6614
▁ازمانگ	-11.6616
▁انت۔ھمے	-11.6617
▁رازے	-11.6619
شیا	-11.662
▁چارمکنڈ	-11.662
▁معلومات	-11.662
▁عرفان	-11.6624
▁ناگ	-11.6625
▁بچکاں	-11.6626
▁should	-11.6629
▁سروکے	-11.6632
▁سرجمءَ	-11.6633
ھیال	-11.6634
▁برئگ	-11.6635
▁لد	-11.6637
▁26	-11.6637
5	-11.6641
▁مسکرہ	-11.6643
▁سرمگیں	-11.6645
▁effect	-11.6646
▁پتی	-11.6649
▁مشاہدہ	-11.6649
▁فعل	-11.665
اتاں	-11.6652
▁لوٹئے	-11.6654
▁شانیں	-11.6659
▁زگری	-11.6659
▁modern	-11.6661
▁نابودی	-11.6662
▁سوداگر	-11.6663
▁هوار	-11.6663
▁تامدار	-11.6665
▁یانی	-11.6666
▁نگدکار	-11.6668
▁ہشک	-11.6669
▁نکتہ	-11.6669
▁ویکاریو	-11.6673
▁بڑھ	-11.6674
▁ازمون	-11.6675
▁خوبصورت	-11.6677
▁کلوھے	-11.6677
▁جنیادم	-11.6679
▁تعمیر	-11.668
▁مقدمہ	-11.6681
▁کنت۔اے	-11.6681
▁structure	-11.6682
▁جنزے	-11.6682
▁نوشیروانی	-11.6683
▁شوندات	-11.6686
▁بتلے	-11.669
▁کشگءِ	-11.6691
▁مراداں	-11.6694
▁مجرم	-11.6695
▁سانکلاں	-11.6696
▁کالب	-11.6699
▁شاریءِ	-11.6701
▁بزیر	-11.6701
▁حساس	-11.6702
▁دوزواہ	-11.6702
▁شدید	-11.6702
▁دروازگءَ	-11.6703
▁سانکل	-11.6703
▁احترام	-11.6704
▁تھران	-11.6704
▁ائینی	-11.6708
▁کپوک	-11.671
▁ماضی	-11.6712
▁eventual	-11.6717
▁دریاءِ	-11.6719
▁کمکءَ	-11.6722
▁چوہدری	-11.6726
▁black	-11.6727
▁وڑءُ	-11.6728
ینان	-11.6728
▁قصہے	-11.6729
▁ابے	-11.6731
ینتگ	-11.6734
▁درکرت	-11.6734
▁ھرچے	-11.6735
یار	-11.6735
▁نیکراہی	-11.6735
ایں	-11.6737
▁ادارگاں	-11.6738
▁ریاضی	-11.6739
▁پسیل	-11.6742
▁شمشتگ	-11.6746
▁بازاراں	-11.6747
▁ویرانیں	-11.6748
▁محض	-11.6749
▁تمبو	-11.675
▁سپرے	-11.6751
شتگ	-11.6753
▁سخن	-11.6753
▁اورتگ۔	-11.6753
▁حوصلہ	-11.6754
▁عبدالقادر	-11.6756
▁وھدان	-11.6757
▁پڑے	-11.6758
▁پیشہ	-11.676
▁ھمگام	-11.6766
▁دلیں	-11.6766
▁برزگ	-11.6768
▁ہژدہ	-11.6768
▁اروک	-11.6768
▁سیمسرانی	-11.677
▁غور	-11.6771
حمل	-11.6773
g	-11.6774
▁ground	-11.6776
▁کشءُ	-11.6776
▁اسنائپر	-11.6779
▁سیاه	-11.6781
▁اجازہ	-11.6782
▁ڈیلہ	-11.6783
▁لیگار	-11.6783
▁ادت	-11.6783
▁بئیت۔	-11.6788
▁وختے	-11.679
چل	-11.6792
▁برزتر	-11.6793
▁ماش	-11.6796
▁ٹیکسی	-11.6799
▁پتار	-11.6799
▁جبزگ	-11.6804
▁2004	-11.6805
▁معمولی	-11.6808
▁لوڑی	-11.6808
▁بلوٹیت	-11.6809
▁تیزیں	-11.6812
▁نویساں	-11.6812
▁نیز	-11.6812
▁اطلاعات	-11.6813
▁جائزہ	-11.6814
▁پکائیں	-11.6816
▁روشنائی	-11.6816
▁واهگ	-11.6819
▁جاو	-11.6819
پیر	-11.6819
▁بنیں	-11.6819
▁characters	-11.682
▁mid	-11.682
or	-11.6821
▁شماری	-11.6821
▁ناموس	-11.6822
▁بنگ	-11.6824
▁فنڈ	-11.6825
▁اگان	-11.6828
▁ازماں	-11.6829
▁پدمنتگیں	-11.6829
▁حوری	-11.683
▁entire	-11.6832
▁2005	-11.6832
▁construction	-11.6832
▁پروٹین	-11.6833
▁هئیال	-11.6833
▁پرائمری	-11.6835
▁دوزحہ	-11.6835
▁لوٹاں۔	-11.6837
uir	-11.6838
▁بوہگءَ	-11.6839
▁نازرکی	-11.684
▁ہندے	-11.6841
▁ساھگءَ	-11.6843
▁زبانءُ	-11.6844
▁اغاز	-11.6845
سری	-11.6851
▁خاک	-11.6853
▁یکشلہ	-11.6856
▁ھیلکاری	-11.6857
▁ندیستگ	-11.6858
▁درشتگ	-11.686
▁گوٹھ	-11.6861
▁اسمی	-11.6862
▁مانیت۔	-11.6864
▁چمدار	-11.6865
۔۔۔بلے	-11.6869
▁قسمے	-11.6869
▁کدیں	-11.687
▁اکسانی	-11.6871
▁پائیدگ	-11.6872
▁جرات	-11.6874
▁سلاه	-11.6875
▁پمپ	-11.6876
▁گمے	-11.6878
▁تبی	-11.688
▁سوچیت	-11.688
▁پچگرگ	-11.6881
▁کودکیں	-11.6881
▁مھلب	-11.6882
▁وشنود	-11.6884
▁کوٹیءَ	-11.6885
▁ڈگارے	-11.6885
پرچاکہ	-11.6887
▁نیار	-11.6888
▁راھبنداں	-11.6891
▁پادری	-11.6893
برو	-11.6895
▁ڈر	-11.6896
▁مالدار	-11.6898
رگ	-11.6899
چاپ	-11.6899
▁جاهے	-11.6904
سندھی	-11.6905
▁کوہی	-11.6909
▁جستاں	-11.691
▁represent	-11.6912
▁ہمہ	-11.6913
▁ارزش	-11.6917
▁جانءِ	-11.692
▁زگر	-11.6922
▁جوہان	-11.6924
▁شررنگی	-11.6925
گدار	-11.6925
لیں	-11.6931
▁ھجالت	-11.6932
▁گچک	-11.6933
▁ترکگ	-11.6936
پاد	-11.6937
▁انونیں	-11.6937
▁منصب	-11.6937
▁پژم	-11.6938
▁حقاں	-11.694
▁قومءِ	-11.6942
▁گئیں	-11.6943
▁واجہیں	-11.6944
▁کید	-11.6946
▁شیشہ	-11.6946
▁شاہگان	-11.6949
احمد	-11.6949
▁کشش	-11.695
▁اشیا	-11.695
▁لوٹائینگ	-11.6951
▁رھوت	-11.6953
جنک	-11.6955
▁خواہ	-11.6955
▁سدھ	-11.6957
▁بانزلاں	-11.696
▁تیغ	-11.6961
▁مرغ	-11.6963
▁روکپت	-11.6966
دا	-11.6966
▁بیتاں۔	-11.6969
▁شزار	-11.6971
▁دیمرہی	-11.6972
▁انٹیلی	-11.6973
▁واجہاں	-11.6977
▁اںت	-11.6977
یشن	-11.6978
▁زمزیل	-11.6979
▁مکی	-11.6979
▁ھدیس	-11.698
▁تج	-11.6981
لو	-11.6981
▁زیریت	-11.6981
▁ہشتاد	-11.6982
▁بانداتے	-11.6987
▁ڈیھانی	-11.6988
▁انتہائی	-11.6993
▁اثرمند	-11.6994
▁بازارے	-11.6995
▁الخط	-11.6997
▁گاں	-11.7002
▁ھنگت	-11.7002
▁پئیما	-11.7002
▁گونی	-11.7003
▁ریں	-11.7004
▁فوٹو	-11.7005
▁دفاع	-11.7008
▁ائیڈیل	-11.701
▁نظریاتی	-11.701
▁ہورک	-11.7014
▁گهتر	-11.7018
▁اہتگ	-11.7018
▁چکان	-11.7019
▁جنوبی	-11.702
▁ہندوستانی	-11.7022
▁مملکت	-11.7026
▁بوشت	-11.7026
بانک	-11.7026
▁announc	-11.7028
▁بکرتین	-11.7029
▁رتک	-11.7035
▁کرام	-11.7035
▁ریز	-11.7035
▁بھرتی	-11.7036
بت	-11.7037
▁کباب	-11.7038
▁بداں	-11.7038
گیر	-11.7038
▁کھر	-11.7041
▁national	-11.7043
▁گہتریں	-11.7045
▁عمرءَ	-11.7047
▁کندیت	-11.7049
▁کاڑ	-11.705
▁کردستان	-11.705
▁ننگار	-11.705
سٹ	-11.7051
▁ورگا	-11.7052
▁ھدامرزی	-11.7052
▁کمبرانی	-11.7054
▁وہاب	-11.7054
▁انے	-11.7056
▁سفرءَ	-11.7058
▁ہمگرنچیں	-11.7062
▁معاہدہ	-11.7062
▁تفسیر	-11.7064
گال	-11.7073
ہانی	-11.7073
▁تراں	-11.7073
▁رازیگ	-11.7074
ئت	-11.7076
txt	-11.7077
گرمیں	-11.7077
▁others	-11.7078
▁رکشہ	-11.708
ڈن	-11.7081
▁نیادی	-11.7081
▁پدریں	-11.7082
▁مٹھا	-11.7082
▁حطرہ	-11.7082
▁رندانی	-11.7085
بشکن	-11.7086
▁زبریں	-11.7088
▁leas	-11.7088
▁کنڈی	-11.7089
▁دلکشیں	-11.709
▁نکن	-11.7092
▁لکھا	-11.7093
▁سگریٹے	-11.7094
مزن	-11.7095
▁جوابی	-11.7097
▁صحب	-11.7097
▁چارلس	-11.7098
سریں	-11.71
▁ھوشام	-11.7101
▁نگاہاں	-11.7102
▁date	-11.7103
▁locat	-11.7103
▁ڈاکٹردیدگ	-11.7106
▁ادبیات	-11.7109
▁ھمدءَ	-11.7111
▁برجاه	-11.7113
▁ولا	-11.7114
▁نورل	-11.712
▁نمائندہ	-11.7121
▁گرانت	-11.7124
▁گزشت	-11.7124
▁شہد	-11.7126
▁یورپءِ	-11.7127
▁اوشتات۔	-11.7127
▁ٹائمز	-11.713
▁تنقیدی	-11.7131
▁شہدیں	-11.7132
▁صبیحہ	-11.7132
▁پیالہ	-11.7134
▁ہجبر	-11.7134
▁ھاکاں	-11.7134
▁Road	-11.7135
▁دیتا	-11.7136
▁روشے	-11.7137
وچ	-11.7137
▁حالرسانی	-11.7138
▁منتءَ	-11.7139
▁دزاں	-11.714
▁زندگیءَ	-11.714
مردمانی	-11.7145
▁منطقی	-11.7146
شرف	-11.7147
▁اباں	-11.7147
▁نیمگی	-11.7149
▁سرمچاری	-11.7151
سوب	-11.7151
▁برزءِ	-11.7153
▁سوداگری	-11.7155
▁ناسرجم	-11.7155
▁دۆست	-11.7157
▁رخشانی	-11.7158
▁جاگاہ	-11.7161
▁سرام	-11.7162
▁شتاں۔	-11.7163
▁مردینانی	-11.7166
▁اسکولءِ	-11.7166
▁نادراھانی	-11.7169
▁کاملیں	-11.717
▁پٹھان	-11.7171
شیر	-11.7172
▁برتگیں	-11.7173
▁ٹکرءَ	-11.7174
▁دادے	-11.7179
▁زندء	-11.7184
ابا	-11.7186
اماں	-11.7187
▁hurricane	-11.7187
▁کہیر	-11.7188
▁عملءِ	-11.7189
گش	-11.7191
▁ندارگانی	-11.7193
▁حذمت	-11.7193
▁چولاں	-11.7193
▁مچار	-11.7194
▁منڈی	-11.7197
▁داشتہ	-11.7198
▁زهیر	-11.7201
▁کتبی	-11.7203
▁غلط	-11.7203
▁ھدیسے	-11.7205
▁کوارٹر	-11.7206
▁کوڑی	-11.7207
▁پجاروک	-11.7208
اگر	-11.7209
▁ٹیکسٹ	-11.721
▁گرکی	-11.7211
▁بہراں	-11.7211
▁کمپین	-11.7211
▁ھندوستانی	-11.7214
▁پاچن	-11.7215
▁کپئگ	-11.7216
▁پائے	-11.7218
▁پارٹیانی	-11.7218
▁بژنی	-11.7219
▁المءَ	-11.7226
▁دلوں	-11.7226
▁واہشت	-11.7229
▁گمسار	-11.7229
▁جنزاں	-11.723
▁اکتر	-11.7231
▁پھمگ	-11.7231
▁رنگءِ	-11.7233
▁چارتگ	-11.7235
▁پندے	-11.7241
▁کنک	-11.7242
▁دشمنیں	-11.7243
پمیشکا	-11.7243
▁ھول	-11.7243
▁debut	-11.7243
▁تلو	-11.7244
▁نوعیت	-11.7245
رس	-11.7245
▁بابتا	-11.7246
▁بندءُ	-11.7248
▁لنککاں	-11.7248
▁خشک	-11.7249
▁میارباری	-11.7253
▁دیووند	-11.7253
▁استاراں	-11.7255
▁گپتءُ	-11.7256
▁پائیدار	-11.7257
ینت	-11.7258
▁ازگ	-11.726
▁difficult	-11.7271
▁Kingdom	-11.7271
▁حقوق	-11.7272
▁ابھی	-11.7275
▁کنات	-11.7277
▁جاپر	-11.7279
▁۔کہ	-11.728
▁دلیر	-11.7282
▁میڑے	-11.7282
▁انت۔یک	-11.7284
▁رخصت	-11.7285
▁سیدھاشمی	-11.7287
▁لسٹ	-11.7288
▁ساچشتکار	-11.7288
▁ٹہینگ	-11.729
▁زورگءَ	-11.729
▁خیالات	-11.7292
▁ذی	-11.7292
less	-11.7295
▁تشبیہ	-11.7296
▁زورگیر	-11.7298
▁campaign	-11.7299
▁رویش	-11.73
دات	-11.7301
▁گورگیج	-11.7301
▁کردارے	-11.7302
▁خو	-11.7306
▁قندیل	-11.7306
▁27	-11.7306
▁کلاتے	-11.7308
دیما	-11.7308
▁جاگھاں	-11.7311
▁wide	-11.7312
▁گدارانی	-11.7312
انگت	-11.7313
ایشاں	-11.7313
▁provid	-11.7318
▁نیمونے	-11.7318
▁ئین	-11.7319
▁پگرءُ	-11.732
▁دوسرا	-11.7326
▁کنڈاں	-11.7326
▁عبدالعزیز	-11.7327
▁چریک	-11.7327
▁شکے	-11.7327
▁رول	-11.7327
▁Cup	-11.7328
▁ریلوے	-11.733
▁شرو	-11.7331
hind	-11.7331
▁سکھ	-11.7332
▁سنٹر	-11.7335
▁کشکءَ	-11.7335
▁کنئگا	-11.7336
غوث	-11.7336
▁ببر	-11.734
برجاہ	-11.7341
▁مرکءِ	-11.7343
▁گیتکگ	-11.7344
z	-11.7344
▁دنیگت	-11.7344
▁بوھگی	-11.7346
▁انکلاب	-11.7346
▁جمبرانی	-11.7346
▁اتکیں	-11.7349
▁جہلانکیں	-11.7349
▁سیری	-11.7349
ia	-11.7352
▁استا	-11.7353
▁انیس	-11.7353
▁victor	-11.7356
▁دوسال	-11.7356
way	-11.7356
▁نہایت	-11.7357
▁چیروکائی	-11.7358
k	-11.7359
▁چاغی	-11.7359
▁کاؤنٹر	-11.736
▁خواہش	-11.7364
▁works	-11.7365
▁اشوبے	-11.7366
▁وابجاہ	-11.7373
۔ائی	-11.7376
▁بنگپی	-11.7376
▁نزارگ	-11.7376
▁سنگیں	-11.738
▁بوتگاں۔	-11.7382
▁نقشہ	-11.7382
▁تچکءَ	-11.7383
▁مہروانیں	-11.7385
▁انٹرویو	-11.7386
▁امجد	-11.7386
▁موں	-11.7387
▁سردیں	-11.7389
▁ماہر	-11.739
▁میوزیم	-11.7393
▁گیشتری	-11.7394
▁addition	-11.7396
▁وانوکے	-11.7397
ہیں	-11.7398
▁ہمدپ	-11.7398
▁تیں	-11.7404
▁guns	-11.7406
▁رژناہ	-11.7406
▁انان	-11.7407
▁سوٹ	-11.7408
▁گردی	-11.7412
▁ساحرءَ	-11.7413
▁سائنسداناں	-11.7413
▁یاتگیری	-11.7414
▁بچانی	-11.7415
رنگیں	-11.7419
▁نوشتگ	-11.7422
▁گناھے	-11.7423
▁داکتر	-11.7424
▁come	-11.7424
▁ھمراھانی	-11.7425
▁بیبرگ	-11.7425
▁بابر	-11.7427
▁عصا	-11.743
▁مرادساحر	-11.7432
▁بھتی	-11.7434
▁جھدا	-11.7439
▁فوجءِ	-11.744
▁بدھ	-11.744
▁Company	-11.7441
▁گوزگءَ	-11.7441
▁اسٹور	-11.7441
▁ریموٹ	-11.7442
▁گرنیڈ	-11.7443
▁پٹرول	-11.7443
▁سمالانی	-11.7444
▁کاپرءِ	-11.7445
▁مکھیں	-11.7446
▁گرءُ	-11.7447
▁گوشیت۔	-11.7447
رانی	-11.7448
▁offer	-11.7448
▁ئیت	-11.7449
▁give	-11.7449
▁ترانگ۔۔۔	-11.7453
▁ستون	-11.7454
▁..	-11.7455
▁پرمائیت	-11.7457
▁گرو	-11.7458
▁بلۆچستان	-11.7461
▁fight	-11.7463
▁complet	-11.7464
▁سرحد	-11.7467
▁پرما	-11.7467
▁هند	-11.7469
▁کولیسٹرول	-11.7469
▁دراجکش	-11.7469
▁کپن	-11.7471
▁Island	-11.7472
▁سوویت	-11.7472
▁بیچارگ	-11.7475
▁لیں	-11.7476
▁زمستانی	-11.7478
▁اثرے	-11.7483
▁زورایت	-11.7485
▁بلوچیں	-11.7486
▁ٹکانی	-11.7487
▁موڑ	-11.7493
▁کلاکاں	-11.7494
▁بیراں	-11.7494
▁شیراز	-11.7496
▁واجھیں	-11.7496
▁لمبر	-11.7497
▁کمب	-11.75
▁حرماگ	-11.75
▁نیامی	-11.75
▁عبدالنبی	-11.7502
▁پندلے	-11.7502
▁گلو	-11.7505
▁پدمنتگی	-11.7506
▁ساسانی	-11.7507
راں	-11.7507
▁دورہ	-11.7509
▁امت	-11.7511
▁انت۔منی	-11.7512
▁گونڈل	-11.7512
▁highway	-11.7512
▁نمک	-11.7514
▁liv	-11.7515
▁سکتے	-11.7515
کانی	-11.7516
▁انکاری	-11.7518
▁چاڑے	-11.7519
انگریزی	-11.752
▁litt	-11.7523
▁سرجمیءَ	-11.7526
▁اشکنگءَ	-11.7527
▁ڈیھی	-11.7528
▁person	-11.7529
▁گرفتار	-11.753
▁ہونا۔	-11.7531
چکہ	-11.7532
▁ھے	-11.7532
▁شھداد	-11.7533
▁پوائنٹ	-11.7537
▁نیلیت	-11.754
▁ھونی	-11.7542
اجوئی	-11.7548
▁وتء	-11.7553
▁وحدت	-11.7553
▁بچکانی	-11.7556
▁بیزن	-11.7557
زندگی	-11.7557
سور	-11.7558
▁الطاف	-11.7558
▁وشتریں	-11.7559
اہ	-11.7561
▁کوہلو	-11.7561
▁شکیل	-11.7562
▁رپتگیں	-11.7563
▁مودانی	-11.7564
▁تما	-11.7566
▁لہڑی	-11.7567
▁زیل	-11.7567
▁فاروقی	-11.7569
▁کئور	-11.7569
▁رودینگ	-11.757
6	-11.7571
ابید	-11.7572
▁ابانی	-11.7573
▁گلائش	-11.7573
چشیں	-11.7575
کسی	-11.7576
▁کڑک	-11.7576
▁visit	-11.7578
▁ٹھک	-11.7584
▁Some	-11.7585
▁رودینتگ	-11.7586
▁باتیل	-11.7586
▁انوگ	-11.7586
▁سرپراز	-11.7587
ێ	-11.7587
▁سرریچ	-11.7588
▁لہجہ	-11.7589
▁مہروان	-11.759
▁جنگاں	-11.759
▁کارکنانی	-11.7591
▁حرابی	-11.7593
▁زینب	-11.7595
▁کوچگاں	-11.7596
▁ردومءِ	-11.7599
▁ڈگارءِ	-11.7604
▁بژنیگ	-11.7604
▁زابل	-11.7605
دم	-11.7606
▁گڈسری	-11.7607
▁بناء	-11.7613
▁figure	-11.7614
▁پھول	-11.7621
▁حسد	-11.7621
▁کانونی	-11.7622
▁کشتی	-11.7622
بہر	-11.7624
▁کھندان	-11.7624
▁Love	-11.7624
▁جنزءِ	-11.7626
▁لانس	-11.7626
▁دراتکگیں	-11.7628
▁پرین	-11.7635
▁گریڈ	-11.7636
▁لیو	-11.7637
▁پنجاپی	-11.7638
▁کویت	-11.764
▁وین	-11.7641
▁رحمٰن	-11.7644
▁تامرے	-11.7644
▁ڈوھدار	-11.7645
▁نالگ	-11.7646
▁لقب	-11.7647
▁male	-11.7647
▁چیرمین	-11.7648
▁ازمے	-11.7648
▁بینت	-11.7651
▁ھرام	-11.7652
بندات	-11.7652
▁نزوریاں	-11.7652
▁جمعیت	-11.7652
▁رہوت	-11.7654
▁گندوک	-11.7655
▁گرداں	-11.7655
▁زھیراں	-11.7656
▁ھزاریں	-11.7663
▁انسٹی	-11.7663
گری	-11.7665
ought	-11.7667
▁بوجگ	-11.7668
▁ماہور	-11.7668
▁پھرہ	-11.7669
▁Battalion	-11.7672
▁جزباتی	-11.7674
▁پاسداری	-11.7677
لٹ	-11.7679
▁born	-11.768
▁اتکءُ	-11.7687
▁خواب	-11.7688
▁پادگ	-11.769
▁کھں	-11.769
▁ہوگا	-11.7692
▁believ	-11.7694
▁روئیں	-11.7695
▁شتر	-11.7695
▁کلگی	-11.7697
▁تالاں	-11.77
▁David	-11.7701
▁southern	-11.7701
▁wife	-11.7702
▁عمری	-11.7703
▁موج	-11.7703
▁ناہک	-11.7703
▁سبزگ	-11.7703
▁کپے	-11.7703
▁ذاکر	-11.7704
▁افسانے	-11.7707
▁تالہ	-11.771
▁نادراهی	-11.7712
▁کوالٹی	-11.7715
▁سرھالانی	-11.7717
▁جاڑیں	-11.7717
▁مروشی	-11.7718
▁ھرچنت	-11.7721
▁ڈبی	-11.7722
▁بالشت	-11.7723
▁۔۔۔۔۔۔۔	-11.7725
▁لوزانت	-11.7726
▁سوک	-11.7728
▁بوپ	-11.7728
▁France	-11.7729
▁غرض	-11.7731
▁class	-11.7732
▁صبح	-11.7735
▁دردءَ	-11.7736
▁کاروائیاں	-11.7737
▁گھنٹہ	-11.7737
▁بختاور	-11.7738
▁comment	-11.7744
سنگت	-11.7745
▁مرا	-11.7747
▁ناکۆ	-11.7749
▁جواں	-11.7754
▁فیروز	-11.7758
▁مدئے	-11.7759
▁women	-11.776
▁زوتیں	-11.776
▁اچکزئی	-11.776
الم	-11.776
▁وٹامن	-11.7761
▁شادمانی	-11.7761
▁stars	-11.7761
▁نمائندگ	-11.7761
▁ائیوکیں	-11.7763
▁انگیں	-11.7764
▁مشترکہ	-11.7766
▁عنبر	-11.777
جتائیں	-11.7774
▁وھم	-11.7775
▁ستارہ	-11.7776
▁فردوسی	-11.7776
▁چھرگ	-11.7777
▁انجن	-11.7777
▁خیل	-11.7779
▁شورہاں	-11.7781
▁ماھانی	-11.7781
▁نندیں	-11.7785
▁love	-11.7786
▁دیمروہی	-11.7788
▁Brigade	-11.7789
▁study	-11.7789
▁ٹھاٹھ	-11.779
▁ازگار	-11.7793
▁واڑ	-11.7793
▁هں	-11.7793
▁نیشنلزم	-11.7794
▁ٹھینگ	-11.78
▁loss	-11.7802
▁سببے	-11.7802
▁چراگاں	-11.7802
▁شہیدی	-11.7802
▁ٹہل	-11.7803
▁مادری	-11.7805
▁پیلویں	-11.7806
▁تاثر	-11.7806
▁بستر	-11.7809
▁فعال	-11.7812
یت۔	-11.7812
▁کچی	-11.7814
▁گولڈ	-11.7814
▁جرمے	-11.7815
▁اصحاب	-11.7818
▁المین	-11.7819
▁چوھدری	-11.7819
re	-11.7822
▁کنئے۔	-11.7824
▁خواجہ	-11.7825
▁بیزاری	-11.7825
▁زو	-11.7825
▁ڈیوڈ	-11.7826
▁ودینگ	-11.7827
▁ساھگے	-11.7827
▁ھلکءِ	-11.7828
▁چاھے	-11.7828
▁تامور	-11.7828
▁اسپر	-11.7828
▁سیکنڈ	-11.7835
▁سچکان	-11.7835
▁چرپ	-11.7837
▁اسکولءَ	-11.7841
▁ثمر	-11.7842
▁مشرف	-11.7843
▁گشگءَ	-11.7845
▁report	-11.7846
▁سوبے	-11.7846
▁ویلے	-11.7847
▁کنزگ	-11.7848
▁ناکوزتک	-11.7849
▁دودے	-11.785
▁وصیت	-11.7851
▁mother	-11.7851
▁command	-11.7852
▁مچانی	-11.7853
▁جندئے	-11.7853
▁نورخان	-11.7857
بلکنا	-11.7859
▁رشت	-11.7859
▁قطر	-11.7859
▁process	-11.7861
▁رستم	-11.7864
▁provide	-11.7866
اگن	-11.7868
▁میلانک	-11.787
▁Robert	-11.7871
▁view	-11.7872
▁eastern	-11.7878
▁کراں	-11.7879
▁چاکری	-11.788
▁اکوام	-11.788
▁والد	-11.7881
▁انقلابی	-11.7882
▁continue	-11.7882
▁East	-11.7883
▁اعلیٰ	-11.7884
▁ھندو	-11.7885
▁جائیں	-11.7887
▁دارگا	-11.789
▁تبءَ	-11.789
D	-11.7896
▁حالانکہ	-11.7896
▁بیگانگ	-11.7896
▁کوٹیءِ	-11.7896
▁انہاں	-11.7902
▁پاھار	-11.7904
مے	-11.7904
▁شانتگ	-11.7904
▁night	-11.7907
▁relationship	-11.7908
▁الودگی	-11.7911
▁مارٹر	-11.7913
▁واشنگٹن	-11.7914
▁میرانی	-11.7914
▁جھلانکی	-11.7916
▁وائے	-11.7919
▁وانیں	-11.7922
▁شھزاد	-11.7927
▁تئیگ	-11.7928
▁گزی	-11.7929
▁نرس	-11.7929
▁چمپل	-11.7937
▁نوشت	-11.7937
▁سینٹ	-11.7937
▁2015	-11.7938
▁2003	-11.7938
▁داروگہ	-11.7938
▁دمکے	-11.7941
▁Grand	-11.7942
اتکگ	-11.7943
▁داستانانی	-11.7946
▁سلاماں	-11.7947
انوں	-11.7953
▁بدنام	-11.7953
▁بیت۔بلے	-11.7953
▁گوئستگیں	-11.7954
▁ھاکمانی	-11.7957
شے	-11.7957
▁اوبادگ	-11.7958
▁جانءَ	-11.7958
▁نشانیاں	-11.7963
▁se	-11.7964
▁گالبندانی	-11.7964
▁مائی	-11.7965
▁دلپروشی	-11.7965
▁درامدانی	-11.7965
کاراں	-11.7965
▁رۆچے	-11.7966
چاکر	-11.7968
▁ٹھوس	-11.7969
▁نکسان	-11.797
ادءَ	-11.7971
▁علاقائی	-11.7971
▁گیڑھ	-11.7971
▁واکان	-11.7973
da	-11.7975
▁image	-11.7976
چارگ	-11.7989
▁پیرکی	-11.799
▁کورانی	-11.7991
ist	-11.7991
▁کھور	-11.7994
▁دروازگءِ	-11.7995
▁پسءَ	-11.7995
▁زورءَ	-11.7996
▁وڈے	-11.7997
▁افزائش	-11.7998
▁گرامر	-11.7998
▁لورالائی	-11.7999
▁کاش	-11.8
ance	-11.8001
▁یاسمین	-11.8003
▁ایشیئ	-11.8004
ادب	-11.8008
▁ازر	-11.8008
▁توپانی	-11.8009
▁ي	-11.801
▁دیوالے	-11.8011
▁عیبے	-11.8012
▁اتمان	-11.8014
”?	-11.8014
▁دیوار	-11.8018
▁شپک	-11.802
ودار	-11.802
▁کاریاں	-11.8022
▁جوک	-11.8026
▁Other	-11.8029
▁تندجاہ	-11.803
چاگرد	-11.8031
▁عین	-11.8032
▁زندئے	-11.8033
▁فیلڈ	-11.8034
▁ازادیءِ	-11.8036
عطا	-11.8039
▁انت۔ا	-11.8041
▁گرین	-11.8044
▁بندئے	-11.8045
▁کثہ	-11.8047
▁امیتی	-11.8049
▁ہسین	-11.805
▁سرمگ	-11.8051
▁گوشتے	-11.8053
▁ماشین	-11.8056
▁چیئر	-11.8059
▁سهر	-11.8061
▁سحب	-11.8062
▁ڈولی	-11.8062
▁خالی	-11.8063
▁نگاھاں	-11.8063
▁سراپ	-11.8064
▁فائدگ	-11.8064
▁بوٹگ	-11.8065
▁لبزءِ	-11.8065
▁نوبتاں	-11.8066
▁وٹس	-11.8068
▁سرائیکی	-11.807
▁اصطلاحات	-11.8072
▁سرداروں	-11.8072
▁بزھگ	-11.8072
▁جہانے	-11.8073
▁لچہانی	-11.8073
▁بندیگجاہ	-11.8074
▁گواش	-11.8075
▁پیگام	-11.8077
▁زرتہ	-11.8077
▁شاہدی	-11.8077
▁بشارت	-11.808
▁زوراوریں	-11.808
نٹ	-11.808
▁سیما	-11.808
▁کردگار	-11.8081
▁ہیران	-11.8083
▁بغاوت	-11.8086
▁میچل	-11.8086
▁ساعتاں	-11.8087
▁تئوار	-11.8087
▁ایمرجنسی	-11.809
▁ارگنائزر	-11.809
▁taken	-11.8091
▁مسقط	-11.8091
▁مرشی	-11.8092
▁fourth	-11.8092
▁اۆدا	-11.8093
▁روپگ	-11.8093
▁روانبد	-11.8096
▁گریتگ	-11.8096
▁اشکنوک	-11.8097
▁٭۔	-11.8098
▁کماشانی	-11.81
▁دزانی	-11.8104
کنت۔	-11.8105
▁امبری	-11.8109
▁جهل	-11.8109
ہا	-11.8109
ھال	-11.811
▁move	-11.8111
▁انفرادی	-11.8114
▁پنگ	-11.8114
▁دارئگ	-11.8114
▁ماڈرن	-11.8118
▁رئوت	-11.8118
▁non	-11.8119
▁ثقافتی	-11.8119
▁اؤرت۔	-11.812
▁بنھشت	-11.8121
.........	-11.8122
▁Music	-11.8122
▁مشگ	-11.8123
▁نانے	-11.8123
▁بیمناک	-11.8129
▁جمبور	-11.8132
▁برس	-11.8134
▁ہیڈ	-11.8135
▁درکئیت	-11.8135
▁برق	-11.8137
▁جیڑت	-11.8137
▁کلاسیکی	-11.814
▁بگلءَ	-11.8141
▁ناسرپدی	-11.8141
▁ساربان	-11.8141
ران	-11.8145
▁سربیت	-11.8146
▁کاروانے	-11.8146
▁مادگ	-11.8147
▁ریشگ	-11.8148
▁Europe	-11.815
مار	-11.815
▁European	-11.8151
▁نیزگاری	-11.8152
▁اردوءَ	-11.8156
▁انون	-11.8157
▁تالانی	-11.8159
?!	-11.8159
▁دوارگ	-11.816
▁اسراتیاں	-11.8162
▁زاد	-11.8163
▁کپتنت	-11.8163
▁مقابل	-11.8163
▁مارشتی	-11.8163
اولس	-11.8166
▁بوتل	-11.8166
▁کندگانی	-11.8167
▁بدلہ	-11.8169
▁ابدمانیں	-11.817
▁ناراض	-11.8171
▁غفار	-11.8171
چیءَ	-11.8176
▁مھرنھاد	-11.8176
▁مہرانکی	-11.8176
▁coast	-11.8177
▁شاہگانی	-11.8178
▁بیتہ۔	-11.818
▁تناظر	-11.8181
▁ٹیوٹ	-11.8183
▁اشکی	-11.8183
▁نوکنڈی	-11.8184
▁لٹریچر	-11.8184
اوار	-11.8186
▁وتاس	-11.8187
▁چہرءُ	-11.8189
▁کسانین	-11.8189
▁goal	-11.8189
▁افسرے	-11.8191
▁تاگ	-11.8194
▁استونک	-11.8196
cy	-11.8198
▁باکس	-11.82
▁کسھی	-11.8202
▁اوزار	-11.8203
▁جگا	-11.8204
el	-11.8205
▁exist	-11.8206
▁رودپتر	-11.8206
▁مبات	-11.821
▁ازمءُگوازی	-11.8212
▁نصراللہ	-11.8212
▁بگوشاں	-11.8213
▁خدائیداد	-11.8214
▁Roman	-11.8216
▁دزکپتگ۔	-11.8217
▁مہتر	-11.8217
▁ہرجاہ	-11.8223
▁مالانی	-11.8224
▁ماہءِ	-11.8225
▁شئیراں	-11.8226
دری	-11.8227
▁گے۔	-11.8229
▁گوشتگیں	-11.8229
▁نادان	-11.8229
▁تفصیل	-11.823
▁پرسن	-11.8231
▁جہگیری	-11.8232
▁جات	-11.8232
▁بگشاں	-11.8234
▁ناشریں	-11.8236
▁face	-11.8236
▁لاپءَ	-11.8237
▁صدا	-11.8238
▁ارامی	-11.8239
▁جزماں	-11.8239
▁اروسی	-11.8241
▁نازی	-11.8244
▁جاندراھی	-11.8244
▁decided	-11.8246
▁ذاتءِ	-11.8246
▁پاگاس	-11.8246
▁سرگوستے	-11.825
▁سیریں	-11.8251
▁چشمک	-11.8252
▁جوانین	-11.8256
▁رہیم	-11.8257
▁مارشل	-11.8258
▁ماھو	-11.8258
▁مانشانتگ	-11.8261
▁باگیں	-11.8264
▁مختصر	-11.8265
الوں	-11.8266
▁لاشاں	-11.827
▁جواز	-11.8271
▁کلیم	-11.8271
▁روباہ	-11.8271
▁heavy	-11.8273
▁زوریت۔	-11.8274
▁ھیرانی	-11.8275
▁گردیں	-11.8279
▁شوہازءَ	-11.828
▁رستیں	-11.828
▁نکناں	-11.8281
▁دلچسپی	-11.8281
▁مران	-11.8286
▁سربیتگیں	-11.8289
▁idea	-11.829
گین	-11.829
▁ارٹس	-11.8291
▁پھزدار	-11.8292
سہ	-11.8296
اراں	-11.8299
▁گرئے	-11.8302
▁race	-11.8304
▁ھجالتی	-11.8306
۔بزاں	-11.8307
▁ساجو	-11.8308
▁چاک	-11.8309
▁دریکگ	-11.8309
جا	-11.831
▁cell	-11.831
▁بانکیں	-11.831
وری	-11.8313
▁بلور	-11.8316
جت	-11.8316
▁مجتی	-11.8317
▁ڑ	-11.8317
▁گوستگال	-11.8318
ford	-11.8318
▁ڈنک	-11.8318
▁ضلعی	-11.8319
▁دھکاں	-11.832
شک	-11.832
▁ہاترءَ	-11.8321
ایان	-11.8322
▁ملوک	-11.8326
▁لاک	-11.8331
▁کاھان	-11.8331
مند	-11.8332
اسر	-11.8333
▁کوھے	-11.8334
▁problem	-11.8336
▁پبلشرز	-11.8336
▁فلیٹ	-11.8338
▁sold	-11.8338
▁بشکھندگی	-11.8338
▁گندک	-11.8338
▁امشپی	-11.8338
▁گولا	-11.8339
▁باھوٹی	-11.834
▁White	-11.834
▁ھمراھے	-11.8343
▁پچاں	-11.8345
▁بیدء	-11.8349
▁دوز	-11.8351
▁ہلاک	-11.8354
▁نوان	-11.8355
▁پتھر	-11.8355
▁کیچی	-11.8355
▁نوائے	-11.8357
کرتگ	-11.836
▁جاورھالانی	-11.8364
▁بچی	-11.8366
▁40	-11.8367
▁اکیڈیمی	-11.8369
▁نداتگ	-11.8369
▁گورانی	-11.8371
حیال	-11.8374
▁کنزان	-11.8382
▁چرک	-11.8382
▁ملکان	-11.8384
▁ارزشتی	-11.8386
▁کیمت	-11.8388
▁نویسے	-11.8389
▁program	-11.8392
▁individual	-11.8398
▁رواجی	-11.8399
▁پتلون	-11.84
▁tog	-11.84
▁گوست۔	-11.8401
▁کوهن	-11.8403
▁بؤکیں	-11.8404
▁سویت	-11.8404
▁گھڑی	-11.841
▁گوہرام	-11.8411
▁سچیت	-11.8411
چوں	-11.8412
▁توجہ	-11.8422
▁ھرجان	-11.8422
▁افس	-11.8424
نبشتگ	-11.8425
▁ندات	-11.8425
▁تلوار	-11.8427
▁سوغات	-11.8429
▁lack	-11.843
▁شریءَ	-11.8431
▁سکریٹری	-11.8432
یان	-11.8436
▁پاچ	-11.8437
▁شپاد	-11.8437
ھوار	-11.8438
▁شیرکن	-11.8439
▁کرداں	-11.8442
▁دلوش	-11.8444
▁زاھدہ	-11.8446
II	-11.8451
▁شاھگانی	-11.8451
▁consist	-11.8452
▁نمای	-11.8452
▁درباری	-11.8452
▁پشکپتگیں	-11.8452
▁ایشر	-11.8452
▁زہیرانی	-11.8453
▁اهد	-11.8453
▁مڑگ	-11.8457
▁بانوری	-11.8458
ma	-11.8458
▁دریاب	-11.8458
▁احمدان	-11.8459
▁ازمکارے	-11.8459
▁زانگءِ	-11.8459
▁اوستانی	-11.8461
▁condom	-11.8461
▁ندی	-11.8461
▁خلق	-11.8463
▁فقط	-11.8464
▁ناگتءَ	-11.8464
▁جزیرہ	-11.8465
▁me	-11.8465
▁پولیو	-11.8466
وہدیکہ	-11.8467
▁mi	-11.8469
▁سندءَ	-11.8469
▁اشکن	-11.847
▁ملٹری	-11.847
▁ملان	-11.8472
▁We	-11.8475
▁تپد	-11.8477
▁زریت	-11.8479
▁غار	-11.8483
▁تامربند	-11.8483
▁چکگ	-11.8483
▁put	-11.8488
▁کادر	-11.8488
▁چھاپءُ	-11.8491
شہر	-11.8491
▁limit	-11.8491
▁rule	-11.8492
▁Earl	-11.8493
▁Carey	-11.8494
▁سیندک	-11.8494
▁rest	-11.8494
کمیں	-11.8494
▁میڑاں	-11.8496
▁درخانی	-11.8498
▁بسم	-11.8499
▁عاشقی	-11.8501
▁داوت	-11.8505
▁دنیاء	-11.8506
▁ہڑتال	-11.8511
ھموداں	-11.8511
▁سنگتان	-11.8514
▁دوچگ	-11.8516
▁جھدءَ	-11.8517
▁بیپاری	-11.8518
▁تاریک	-11.852
▁دروشمانی	-11.852
▁ٹریکٹر	-11.8522
!!!	-11.8523
▁غذائی	-11.8523
▁Royal	-11.8525
▁لینا	-11.8525
▁تصدیق	-11.8525
▁واجہءَ	-11.8527
▁زامرانی	-11.853
▁ٹھیکہ	-11.853
▁بیٹ	-11.8531
▁جپت	-11.8535
▁اندرا	-11.8537
▁اچے	-11.8539
▁شدہ	-11.8543
▁سلیمانی	-11.8544
کنئگ	-11.8545
▁رسانکجاھ	-11.8547
▁کلاکے	-11.8547
▁دازن	-11.8548
▁پٹاں	-11.8549
جوانیں	-11.8551
▁ماہل	-11.8551
▁ارسی	-11.8552
▁ڈیمز	-11.8552
روگ	-11.8553
۔پدا	-11.8553
▁زھن	-11.8555
▁سہل	-11.8557
▁مدافعت	-11.8557
▁برقرار	-11.8557
▁گندات	-11.8558
▁accept	-11.8559
▁زیور	-11.8561
▁وتساچیں	-11.8561
▁گوزوکیں	-11.8563
▁مہرنگ	-11.8563
▁عاروس	-11.8566
▁جستءَ	-11.8566
▁پٹک	-11.8567
▁گوریچان	-11.8568
▁روژنائیں	-11.8573
▁مکرانی	-11.8575
بندی	-11.8576
▁لوکل	-11.8576
▁اغہ	-11.8577
الی	-11.8578
عمر	-11.8581
▁سرک	-11.8582
▁رائی	-11.8583
▁بتایا	-11.8585
▁منان	-11.8586
انچش	-11.8587
.......	-11.8587
▁ہپتگے	-11.8589
▁begin	-11.8589
▁shot	-11.8591
▁انٹیلیجنس	-11.8593
▁اسکولے	-11.8595
▁کلمت	-11.8596
▁وارتگ۔	-11.8596
▁communit	-11.8597
▁گوشداروک	-11.86
▁کردءَ	-11.86
نازک	-11.8602
▁ستاہ	-11.8602
▁غریبی	-11.8604
▁دلوتاں	-11.8604
▁خوار	-11.8606
▁احوالکار	-11.8607
▁سوزمان	-11.8609
▁سالار	-11.861
▁وشال	-11.8617
▁گھ	-11.862
کارانی	-11.8621
▁سافٹ	-11.8622
▁مزھب	-11.8622
▁عبدالرحمان	-11.8623
▁منڈ	-11.8629
▁my	-11.8631
▁واقعی	-11.8631
▁قوتانی	-11.8636
▁سیاستءَ	-11.8638
▁village	-11.8642
▁کچل	-11.8643
▁ننگر	-11.8645
▁زلف	-11.8648
▁جیڑگءَ	-11.8651
▁post	-11.8651
▁29	-11.8654
▁بئیں۔	-11.8654
▁کنڈیرا	-11.8655
▁پٹے	-11.8655
▁گئے۔	-11.8656
▁انکھوں	-11.8656
▁درامدے	-11.8657
▁کوھیں	-11.8658
▁چینکس	-11.8659
▁چور	-11.8661
▁جنێن	-11.8661
▁اسءِ	-11.8661
▁گندئگ	-11.8662
▁تعلقات	-11.8667
▁دئیگءَ	-11.8667
▁جاں	-11.8669
▁جنگلات	-11.8672
▁ہوں۔	-11.8672
▁کسانیءَ	-11.8673
▁جبل	-11.8673
کسانیں	-11.8674
▁اوٹ	-11.8679
▁تلاش	-11.8679
▁حسی	-11.868
▁شھادت	-11.868
▁پارٹیز	-11.8683
▁protein	-11.8685
▁اکانومی	-11.8685
▁Federer	-11.8685
▁سکتی	-11.8685
▁اعجاز	-11.8687
▁گانی	-11.8687
سردار	-11.8687
▁تحقیقی	-11.8687
▁جھینگا	-11.8688
▁معراج	-11.8689
▁کمر	-11.869
▁البرٹ	-11.8692
▁رزق	-11.8692
▁پتاں	-11.8693
▁زہن	-11.8697
▁رپورٹس	-11.8699
ities	-11.8702
اڑے	-11.8702
▁نمیرانی	-11.8702
▁ناوشیں	-11.8705
▁بٹے	-11.8706
▁ہالو	-11.8711
▁فکرے	-11.8712
▁رژنے	-11.8718
▁سؤب	-11.8718
▁بینر	-11.8719
▁نشتگ۔	-11.8719
▁مشہوریں	-11.8721
▁سروسز	-11.8722
▁فرقہ	-11.8722
▁اکساں	-11.8723
▁بستی	-11.8724
▁حدود	-11.8725
▁شانت	-11.8726
▁عبدالصبور	-11.8726
▁co	-11.8726
▁fall	-11.8727
▁ریھان	-11.8728
▁خوف	-11.8729
▁پروشان	-11.873
▁ترجمان	-11.8735
▁ترانگانی	-11.8736
▁سوالی	-11.8738
کہول	-11.8738
▁گرپتاری	-11.8739
▁کمیت	-11.8739
▁بدنت۔	-11.8739
▁شنبہ	-11.8739
▁رکھتا	-11.8741
▁پرشتہ	-11.8743
▁اچھا	-11.8744
▁ڈاکٹرانی	-11.8745
برگ	-11.8747
▁وشین	-11.8748
▁اجز	-11.8749
▁ناوشی	-11.875
▁ربیتے	-11.8752
▁رکھنے	-11.8752
▁ڈوبر	-11.8753
▁ارسے	-11.8755
تم	-11.8758
▁پتینکاں	-11.8758
▁مڑدے	-11.8759
▁حاکمانی	-11.8759
▁source	-11.8762
▁داغ	-11.8762
▁کربلا	-11.8762
▁بحالی	-11.8763
▁ازمانی	-11.8764
▁میک	-11.8766
▁چیٹ	-11.8766
▁ہردوئیں	-11.8767
▁director	-11.8768
▁چیدگانی	-11.8769
▁gun	-11.8773
▁ازاتیءِ	-11.8775
▁front	-11.8776
▁عشقی	-11.8777
▁کرگ	-11.8778
▁International	-11.8782
▁George	-11.8783
▁گرمائشت	-11.8784
▁ہاجی	-11.8785
▁ساھیل	-11.8785
one	-11.8786
▁گودی	-11.8787
▁manager	-11.8787
▁منزور	-11.8787
▁William	-11.8788
▁جہانءَ	-11.8791
▁شناست	-11.8791
▁عکسانی	-11.8792
▁پرگ	-11.8794
نس	-11.8794
▁شرپی	-11.8795
▁دروازگے	-11.8796
▁جیسی	-11.8798
▁دوئم	-11.8802
▁دلئ	-11.8803
▁جیسا	-11.8808
▁دہر	-11.881
بیل	-11.8812
▁center	-11.8818
▁ااے	-11.882
▁سورج	-11.8823
▁شادءَ	-11.8826
ve	-11.8827
▁ہاشم	-11.8831
▁نیما	-11.8832
▁استعارہ	-11.8833
▁مشکلے	-11.8833
▁ناں۔	-11.8834
▁activit	-11.8836
▁ادینکے	-11.8839
▁سالیگیں	-11.884
▁میٹرک	-11.8841
▁کما	-11.8842
ine	-11.8842
▁کارنت	-11.8843
▁کندن	-11.8845
▁برگا	-11.8845
▁language	-11.8848
▁شیتان	-11.8848
▁Wales	-11.8848
▁چورہ	-11.8849
▁میاربار	-11.885
▁دوائی	-11.885
▁پرنسپل	-11.8852
▁بشی	-11.8854
▁شومک	-11.8854
▁شورہ	-11.8858
▁پیز	-11.8858
K	-11.8859
ورگ	-11.886
روسی	-11.886
▁involv	-11.8861
▁گيئش	-11.8862
چست	-11.8863
▁لبنان	-11.8869
▁بھارتی	-11.8872
▁گہیں	-11.8872
حال	-11.8875
▁اسراتیانی	-11.8877
▁ڈھانچہ	-11.8881
دیر	-11.8882
▁روانت	-11.8882
▁شاھگانیں	-11.8884
▁مشق	-11.8884
▁چریشانی	-11.8885
▁میدانی	-11.8886
▁member	-11.8887
▁سرکش	-11.8888
▁شدیگ	-11.8888
▁جاھی	-11.8891
▁ارگی	-11.8891
▁رخشان	-11.8892
▁مصرعہ	-11.8893
▁opening	-11.8895
▁ریزمانک	-11.8896
▁چڑو	-11.8898
▁mov	-11.8898
▁گامگیجے	-11.8898
▁نزانتکاری	-11.8899
▁ڈنگی	-11.8899
▁زیردستیں	-11.89
▁ات۔۔۔۔	-11.8901
▁کپی	-11.8901
▁ask	-11.8901
▁میس	-11.8902
▁جنوب	-11.8902
▁کارہندہ	-11.8907
یش	-11.8909
ساچشت	-11.8909
▁نودی	-11.891
▁God	-11.8911
▁رکست	-11.8913
▁regular	-11.8914
▁current	-11.8914
▁کارل	-11.8916
▁صفائی	-11.8916
▁بٹاک	-11.8916
▁بیشک	-11.8917
▁ھوالگ	-11.8918
▁واضح	-11.8918
▁بوھگءِ	-11.8918
▁حور	-11.8919
▁wall	-11.8919
▁کبرانی	-11.8922
▁کوشکار	-11.8923
▁قاری	-11.8923
▁بشکندگ	-11.8925
▁گج	-11.8926
▁دکھ	-11.8927
▁دؤ	-11.8927
فکشن	-11.8928
▁درامدی	-11.8929
▁مافیا	-11.893
▁دیوی	-11.8935
▁مہروانی	-11.8936
▁دوہ	-11.8937
▁حاندان	-11.8937
▁کراچیءِ	-11.8942
▁ra	-11.8943
کشگ	-11.8944
▁چانسلر	-11.8947
▁نجی	-11.8947
▁ڈپارٹمنٹ	-11.8948
▁جدلیات	-11.8948
▁گردہ	-11.8949
▁نبشتگ۔	-11.8949
ئنت	-11.895
▁مشھد	-11.895
▁ویسٹ	-11.8951
▁House	-11.8951
▁زردار	-11.8952
▁تصوف	-11.8953
گٹ	-11.8953
ship	-11.8956
▁درکپان	-11.8956
▁صورتے	-11.8957
▁سائیٹ	-11.8957
▁دوم	-11.8959
▁جیک	-11.896
جارکش	-11.8963
▁چگین	-11.8966
▁کک	-11.8966
▁امنہ	-11.8972
p	-11.8973
▁tho	-11.8973
▁پادءَ	-11.8974
▁دھمی	-11.8974
▁مادنی	-11.8976
▁ٹویٹ	-11.8977
ٹر	-11.8978
▁تھئی	-11.8978
▁زیرک	-11.8981
▁سومری	-11.8984
رہ	-11.8984
▁کپگءَ	-11.8985
▁سرپرہ	-11.8986
▁چلشت	-11.8989
▁نادینت	-11.899
▁زنگی	-11.8991
ircraft	-11.8991
▁لبزیات	-11.8993
▁بھائیں	-11.8995
نومبر	-11.8996
▁مرادے	-11.8997
▁لنج	-11.8998
rought	-11.9
▁ناس	-11.9001
▁مرکءَ	-11.9001
▁داناں	-11.9002
▁destroy	-11.9003
▁اشکانی	-11.9003
مر	-11.9004
▁subse	-11.9005
▁اکل	-11.9005
▁نیوگ	-11.9008
▁کساسءَ	-11.9009
▁دھوت	-11.901
▁راولپنڈی	-11.9014
▁لہر	-11.9016
▁مودی	-11.9017
▁نیزگاریں	-11.9023
▁ہیک	-11.9024
▁موکہ	-11.9025
▁بنند	-11.9027
ناصر	-11.9029
▁پلیت	-11.903
▁نظیر	-11.903
▁باجی	-11.9031
▁رسین	-11.9037
▁ٹرین	-11.9038
▁Hero	-11.9039
▁نادانی	-11.9041
▁تورات	-11.9042
۔پمیشکہ	-11.9044
▁لنککانی	-11.9045
▁clear	-11.9047
▁خلیات	-11.9047
ld	-11.9047
▁زورگپت	-11.9048
▁اردوءِ	-11.9048
▁مارکسزم	-11.9049
▁طویل	-11.9049
مچ	-11.9053
▁سلوات	-11.9054
▁توکی	-11.9054
▁کارمرزگ	-11.9055
▁بٹن	-11.9059
▁کپتان	-11.9061
▁نندان	-11.9061
▁wh	-11.9061
▁شاپی	-11.9062
▁درونتاں	-11.9063
▁بلکین	-11.9064
▁گداری	-11.9065
▁prais	-11.9066
▁مانگیش	-11.9067
▁گڑی	-11.9068
▁بہتامے	-11.9069
▁ہمبل	-11.9071
▁far	-11.9071
▁درپش	-11.9073
▁پپ	-11.9075
▁اعلان	-11.9075
▁بلیت	-11.9076
▁پہنچا	-11.9076
▁باراں	-11.9077
▁سیلاب	-11.9078
▁Street	-11.908
▁لۆگئے	-11.9081
▁گورگ	-11.9082
▁ساهگ	-11.9082
▁نیکشھر	-11.9082
▁بھاگ	-11.9088
▁داز	-11.9088
باید	-11.9088
▁زرورت	-11.9088
▁جماز	-11.909
▁کرنءِ	-11.9091
جہ	-11.9091
▁باطنی	-11.9091
▁شرتگ	-11.9091
▁سینما	-11.9094
▁دیتی	-11.9095
▁پوره	-11.9095
▁کسهے	-11.9098
▁مہماناں	-11.9098
داتگ	-11.9105
▁درشانگ	-11.9106
▁هنچو	-11.911
▁وانگءُ	-11.911
▁پہلا	-11.9112
▁recording	-11.9114
▁Championship	-11.9114
▁ماڈی	-11.9114
▁گشینگ	-11.9115
▁مہنگائی	-11.9115
▁تفتان	-11.9115
▁مش	-11.9116
ian	-11.9118
▁توجیلے	-11.9119
▁ھاجت	-11.9119
▁مشیر	-11.912
▁اریائی	-11.9124
بیان	-11.9125
▁گزل	-11.9125
تن	-11.9128
▁ever	-11.9129
▁بڑگ	-11.913
▁انیگ	-11.9131
▁شائریءَ	-11.9132
▁محرم	-11.9135
مانءَ	-11.9137
ين	-11.914
حق	-11.9142
▁کاٹ	-11.9144
▁جمر	-11.9145
▁واہگاں	-11.9147
▁artist	-11.9147
▁Follow	-11.9148
▁عبدالقیوم	-11.9148
▁مانچسٹر	-11.9148
▁ریگزار	-11.9149
▁مھلہ	-11.9151
▁لیبیاں	-11.9151
▁دیتگ	-11.9152
▁موجودگی	-11.9152
▁رودین	-11.9153
ھان	-11.9153
▁فاطمہ	-11.9155
▁دمکانی	-11.9157
▁کوپگانی	-11.9161
▁تمردی	-11.9162
▁شمالی	-11.9163
▁خوبی	-11.9164
▁عمرے	-11.9165
▁رؤت۔	-11.9166
▁ھردوکانی	-11.9171
A	-11.9171
▁میلان	-11.9177
▁پترت۔	-11.9178
ۆکێں	-11.918
▁ابتدائی	-11.9181
.”	-11.9181
▁Jordan	-11.9182
▁پسگاں	-11.9183
▁منٹو	-11.9183
▁کدو	-11.9184
▁بندءَ	-11.9184
▁اسٹاف	-11.9184
▁عصر	-11.9184
▁کرامات	-11.9186
▁مردیناں	-11.9186
▁ماشکیل	-11.9187
▁نزوریانی	-11.9189
▁appearance	-11.9192
ایے	-11.9196
عر	-11.9197
▁کانی	-11.92
▁hit	-11.92
▁یاری	-11.9202
▁زرتءُ	-11.9204
باں	-11.9205
▁لچہی	-11.9206
▁پتن	-11.9208
▁mix	-11.9209
▁دروراں	-11.921
▁پاہار	-11.9212
▁طالع	-11.9212
▁From	-11.9216
▁evidence	-11.9216
▁regard	-11.9216
▁commercial	-11.9216
▁استی	-11.9216
▁براں۔	-11.9216
▁عبدالقدوس	-11.9218
▁نویسانی	-11.9218
▁ٹائر	-11.9218
▁گورکوپ	-11.9219
▁بندین	-11.9219
▁ٹریک	-11.9219
▁گب	-11.9219
▁دفعہ	-11.9219
▁انگلستان	-11.922
▁طاھر	-11.922
▁کوشاں	-11.922
▁الھان	-11.922
▁وسیع	-11.9221
2014	-11.9222
▁اہر	-11.9225
▁رودینی	-11.9225
تران	-11.9226
▁خر	-11.9227
اوانی	-11.9227
اسحاق	-11.9228
اول	-11.9228
▁زیبدار	-11.9229
▁دگاں	-11.923
▁ٹریننگ	-11.9231
▁ھالتاک	-11.9231
▁ییں	-11.9232
▁anti	-11.9233
▁زلمانی	-11.9235
▁کوری	-11.9239
▁"","	-11.9241
........	-11.9241
▁yard	-11.9242
▁central	-11.9243
▁سرکتگ	-11.9244
یس	-11.9246
▁کین	-11.9248
▁معشیت	-11.925
▁gain	-11.925
جگ	-11.925
▁بیچارگیں	-11.9251
▁ھالتران	-11.9251
▁لہڑئگ	-11.9252
▁نیمگء	-11.9254
▁بیاات	-11.9256
▁وجودی	-11.9258
▁تہراں	-11.9258
▁گوج	-11.9259
▁ہاتھوں	-11.926
▁سفرے	-11.9261
▁ٹینک	-11.9261
▁ساخت	-11.9261
▁کھنت	-11.9262
▁ببارت	-11.9262
▁بارش	-11.9262
▁شہرانی	-11.9262
▁وانگیانی	-11.9263
▁جذباتی	-11.9265
▁جمالیاتی	-11.9265
▁ترپ	-11.9266
▁Christian	-11.9266
▁لائکی	-11.9267
▁جدیدیت	-11.9269
▁بہرءُ	-11.9278
لیکہ	-11.9281
عبداللہ	-11.9282
حدا	-11.9283
▁جیڑگاں	-11.9284
▁سہولت	-11.9285
▁ابر	-11.9285
▁رچیت	-11.9286
▁hand	-11.9286
▁سوزش	-11.9287
کان	-11.9288
▁رہتا	-11.9292
▁چینچک	-11.9295
▁دلار	-11.9295
خدا	-11.9295
▁مکہیں	-11.9297
نشتگ	-11.9299
▁مرتبہ	-11.9299
▁ایدا	-11.9299
▁بچوں	-11.93
▁کؤل	-11.9301
▁ڈاچی	-11.9303
▁کردیا	-11.9305
▁Le	-11.9307
▁اوپن	-11.9307
▁پورے	-11.9312
▁تمردیں	-11.9314
غاں	-11.9315
▁جونے	-11.9315
▁نیادے	-11.9316
▁امیج	-11.9317
▁agree	-11.9318
▁چاچے	-11.9318
▁find	-11.9321
▁کمکین	-11.9321
▁افیشل	-11.9322
▁مشتمل	-11.9322
▁لکھوڑ	-11.9325
▁پوشاکاں	-11.9326
▁زانتءِ	-11.9329
▁کسانسال	-11.9329
▁بندنت	-11.9332
گان	-11.9334
▁cit	-11.9336
▁اچھی	-11.9339
▁لکانی	-11.9339
▁ات۔کہ	-11.934
▁کوتاہ	-11.9342
▁دانے	-11.9342
▁بائیکاٹ	-11.9342
▁جوانیءَ	-11.9344
▁200	-11.9346
▁کرتگءُ	-11.9346
▁چاپءُ	-11.9347
▁سیمک	-11.9348
▁Red	-11.9351
▁بکال	-11.9356
▁قدیمی	-11.9356
▁بانڑی	-11.9358
▁پێش	-11.9361
▁saw	-11.9362
▁نصر	-11.9362
▁دیگری	-11.9363
▁free	-11.9365
▁تبءِ	-11.9366
▁سمیت	-11.9366
▁Part	-11.9367
▁سرکچ	-11.9367
▁مرادجان	-11.9368
▁نامءِ	-11.9368
▁اسکا	-11.9368
▁اوشتاتگ۔	-11.9368
▁پدرا	-11.9368
▁ماتو	-11.937
▁ٹاپار	-11.9371
▁ات۔ائیءَ	-11.9371
▁کتکار	-11.9371
▁grow	-11.9372
▁بوتگت	-11.9373
▁زانتانی	-11.9373
▁سرپر	-11.9375
▁توکہ	-11.9376
▁ھیبتان	-11.9378
▁واجہءِ	-11.9379
▁گوستگین	-11.938
▁draw	-11.9381
▁سالہ	-11.9383
▁درشانتگ	-11.9386
▁اسٹاپ	-11.9387
▁ہجرت	-11.9391
َ	-11.9393
گس	-11.9395
▁درانڈیھ	-11.9396
ways	-11.9397
▁کرنا۔	-11.94
▁شیرگ	-11.94
▁بکشگ	-11.94
▁مرکب	-11.94
▁بایدیں	-11.9402
▁پھزداری	-11.9402
سد	-11.9402
▁کٹوکیں	-11.9404
▁نیمءَ	-11.9405
▁ہتم	-11.9406
▁راگے	-11.9406
▁اتنتءُ	-11.9407
)"	-11.941
▁لوگا	-11.9411
▁مالداری	-11.9412
▁برجمیں	-11.9414
▁کدرتی	-11.9415
▁پوسٹے	-11.9415
▁واپار	-11.9417
95	-11.9419
▁تبلیغ	-11.942
▁شمسی	-11.9421
▁reveal	-11.9422
▁رھیم	-11.9422
▁سواراں	-11.9423
▁براھوی	-11.9426
▁تاہم	-11.9427
ham	-11.9427
▁ترات	-11.9428
▁لاری	-11.9428
▁ردے	-11.9429
▁سرجمین	-11.943
▁ندار	-11.943
▁ترہ	-11.9431
▁واهند	-11.9434
▁سوجے	-11.9434
▁مھنت	-11.9439
▁معاف	-11.9439
▁اپسرے	-11.944
▁نیچے	-11.9441
▁کب	-11.9444
قاضی	-11.9444
▁experience	-11.9445
▁بیتگینانی	-11.9445
▁دروشمی	-11.9447
▁Mary	-11.9449
▁گراک	-11.945
▁نکہ	-11.9452
ہمک	-11.9452
▁استالانی	-11.9454
▁Nav	-11.9455
▁الاقوامی	-11.9457
▁جتءُ	-11.9458
▁بالیچہ	-11.9459
▁جاہو	-11.9459
▁دہل	-11.9459
▁troops	-11.9459
امیت	-11.946
▁گورتگ	-11.946
▁کرنانی	-11.946
▁نیویارک	-11.9461
▁نورمحمد	-11.9461
▁replac	-11.9461
▁ھوالہ	-11.9462
▁بیرگیری	-11.9462
▁نسلی	-11.9464
upon	-11.9465
▁دپءِ	-11.9465
▁پشکپتگ	-11.9468
▁شخصی	-11.947
▁معاشرتی	-11.9471
▁size	-11.9471
▁پہمئنءِ	-11.9473
▁زدگیں	-11.9474
▁درمانے	-11.9475
▁ساماناں	-11.9476
▁واھش	-11.9477
▁پگرانی	-11.9478
▁هاترا	-11.9479
▁اشترانی	-11.9479
▁بیٹا	-11.9479
▁ترمیم	-11.9481
▁یکمشت	-11.9483
▁launch	-11.9484
▁چستءُ	-11.9485
▁battle	-11.9487
▁لنکا	-11.9488
▁اگا	-11.9489
▁جہدءِ	-11.9489
▁سرگوات	-11.9491
..."	-11.9493
▁ٹیچنگ	-11.9493
▁northern	-11.9493
امان	-11.9494
▁event	-11.9494
▁مکسک	-11.9494
▁کائیں	-11.9494
فاضل	-11.9495
▁پزور	-11.9497
اج	-11.9498
▁ہشکیں	-11.9499
▁دران	-11.9499
▁اجل	-11.95
▁اھتک	-11.95
▁Her	-11.9502
▁وترا	-11.9506
▁اسٹار	-11.951
منیر	-11.951
▁بلڈنگ	-11.951
▁ذال	-11.9511
▁گوٹ	-11.9515
▁افسوز	-11.9516
▁خراسان	-11.9517
▁جنینءَ	-11.9517
▁سهب	-11.9518
▁انکی	-11.9519
▁اران	-11.9519
▁ھش	-11.9522
▁Rock	-11.9524
▁پھکیں	-11.9524
▁لگے	-11.9524
▁rank	-11.9524
▁چابک	-11.9525
▁کامی	-11.9525
▁امتحان	-11.9528
▁شکور	-11.9528
▁پیراں	-11.953
▁تقدیر	-11.9531
▁عنایت	-11.9531
▁ھئیال	-11.9533
▁گٹی	-11.9535
▁بانگواہ	-11.9535
▁کنیت	-11.9535
▁گڑھ	-11.9536
وٹ	-11.9538
▁شاھوانی	-11.9539
▁دلءُ	-11.9539
▁جامع	-11.9539
▁ماجد	-11.9539
▁ذ	-11.954
side	-11.954
▁پسگانی	-11.9545
▁ایماندار	-11.9548
▁ملیں	-11.955
▁دیدانک	-11.9551
▁ھزارہ	-11.9551
بگ	-11.9553
▁وشان	-11.9558
▁درجنگ	-11.9562
▁San	-11.9563
▁راجداری	-11.9564
▁مزھبی	-11.9566
▁ورناھے	-11.957
▁ساتھی	-11.9573
▁چڑ	-11.9575
▁اسانیں	-11.9575
▁yards	-11.9577
▁rock	-11.9579
lorida	-11.958
▁اھوگ	-11.9581
▁ھرمردم	-11.9581
▁تنیگا	-11.9585
▁ارباب	-11.9586
▁پڈ	-11.9587
دیمرھی	-11.9595
ناکو	-11.9595
▁کیمتی	-11.9596
کاف	-11.9597
▁واہد	-11.9598
▁section	-11.9598
▁زرناز	-11.9601
▁ابابگر	-11.9601
▁سانیٹ	-11.9602
▁گشوک	-11.9602
▁بهداشتی	-11.9603
▁جدائی	-11.9603
▁دائرہ	-11.9605
▁شریعت	-11.9605
▁Game	-11.9606
▁زانگول	-11.9608
▁کہدا	-11.961
▁مارتگ	-11.961
▁نیاریت	-11.9612
▁کساسیں	-11.9619
چارمی	-11.9619
▁گوران	-11.962
▁مزد	-11.962
▁اباتی	-11.9621
▁مڑائی	-11.9622
▁شموشت	-11.9622
فن	-11.9626
▁جوڑینگ	-11.9627
▁ٹکءِ	-11.9627
▁زم	-11.9628
▁سفارت	-11.9628
▁فطری	-11.963
▁river	-11.9632
▁جفا	-11.9633
▁Tech	-11.9634
▁possible	-11.9636
▁location	-11.9637
نمدی	-11.964
▁لیٹر	-11.964
▁الو	-11.9641
دانکہ	-11.9643
▁بوهگ	-11.9645
دریا	-11.9646
▁منیگ	-11.9646
▁کاسد	-11.9649
▁نتھا	-11.9651
▁عکساں	-11.9651
uest	-11.9656
▁درتہ	-11.9657
▁رپکاں	-11.9657
پولیس	-11.9657
شل	-11.966
▁سپاہیگ	-11.966
▁outside	-11.9662
▁نپرت	-11.9662
▁پہناد	-11.9663
▁کشے	-11.9666
▁منکر	-11.9666
▁مھری	-11.9669
▁league	-11.9669
▁crew	-11.9669
▁ہول	-11.9669
▁ولگوج	-11.9669
▁گژنگ	-11.967
▁جائیداد	-11.9671
▁دوستناک	-11.9671
▁مھناز	-11.9671
▁Paul	-11.9672
▁مرتگاں	-11.9673
▁ہائیکو	-11.9674
▁جنتر	-11.9675
▁saying	-11.9675
▁محکمی	-11.9675
▁مورے	-11.9678
▁نهات	-11.968
▁مھلوکءِ	-11.9681
ذ	-11.9682
▁درابوت	-11.9683
▁دربہ	-11.9685
▁لپرزگ	-11.9688
ٹو	-11.9689
▁پیشدار	-11.9691
▁پتہ	-11.9691
▁موسمءَ	-11.9692
▁دراز	-11.9694
▁سران	-11.9703
▁competition	-11.9704
▁گدے	-11.9705
▁تشریح	-11.9705
▁شیرازی	-11.9706
▁بچکندگے	-11.9706
▁فصیح	-11.9707
▁جنید	-11.9707
▁سیادانی	-11.9708
▁غزہ	-11.9708
شمے	-11.971
▁سنداں	-11.9711
▁شفیقہ	-11.9713
▁عمرءِ	-11.9713
▁ورئے	-11.9714
▁سوتانی	-11.9714
▁مناک	-11.9717
مانا	-11.9718
▁کارکناں	-11.9718
▁تهار	-11.9719
▁استنت	-11.9722
▁ناروائی	-11.9722
مستریں	-11.9724
▁گوستگ۔	-11.9724
▁گرگا	-11.9725
ترس	-11.9725
▁اسرات	-11.9725
یوں	-11.973
▁نامگ	-11.973
▁انام	-11.9731
▁ایرجنگ	-11.9731
▁سستی	-11.9731
▁میچ	-11.9731
▁دنزاں	-11.9732
▁بانداتءِ	-11.9733
▁شریپ	-11.9735
▁حاموش	-11.9735
▁شکلے	-11.9735
▁پرکاری	-11.9736
▁cast	-11.9736
▁working	-11.9738
▁effort	-11.974
▁international	-11.974
▁ایڈووکیٹ	-11.974
▁کانپرنس	-11.974
▁500	-11.9742
▁whom	-11.9742
▁عبدالرزاق	-11.9743
▁نذیر	-11.9743
ولی	-11.9745
uick	-11.9745
▁گڑتی	-11.9747
▁یوٹیوب	-11.9748
▁مزائیں	-11.9749
▁باہند	-11.975
واہ	-11.975
▁شپا	-11.9752
▁گالوارانی	-11.9753
▁راستیاں	-11.9754
▁اژناگ	-11.9754
▁خیالی	-11.9755
▁اماچی	-11.9755
▁زندئ	-11.9757
▁31	-11.9757
۔پرچاکہ	-11.9758
▁مجبوری	-11.9758
▁گنجے	-11.9758
▁پساں	-11.976
▁سمبل	-11.976
▁گٹے	-11.9761
▁Most	-11.9761
▁دلسیاھی	-11.9763
▁شموشکار	-11.9764
▁ط	-11.9764
▁دوہزار	-11.9764
▁هاتر	-11.9766
▁کھیر	-11.9767
▁break	-11.977
مین	-11.9771
▁دزگہار	-11.9771
▁چال	-11.9771
▁مکرانءِ	-11.9771
فقیر	-11.9772
▁گورءِ	-11.9772
▁برھنگ	-11.9772
▁سچان	-11.9774
پا	-11.9774
▁دپتری	-11.9776
▁ولیعہد	-11.9777
▁سنڈیمن	-11.9777
▁گلوبل	-11.9778
▁شؤر	-11.9778
▁لہم	-11.9779
▁اسکرین	-11.9779
▁برگءَ	-11.9779
▁باروء	-11.9779
▁مبنی	-11.978
▁پوریا	-11.9782
▁جوھان	-11.9783
▁حقدار	-11.9783
▁اھر	-11.9786
▁مکسدے	-11.9787
▁سئیمی	-11.9787
▁حیالی	-11.9788
لہ	-11.9788
▁چلہ	-11.9792
▁پلگاری	-11.9793
▁تۆکا	-11.9794
▁یقینی	-11.9794
▁کائیگر	-11.9795
▁مھربان	-11.9795
I	-11.9799
▁فریاد	-11.98
سربوتگیں	-11.98
▁شرانت	-11.98
▁عمومدار	-11.98
▁عوض	-11.9807
▁contract	-11.9807
▁ماہیں	-11.981
ھست	-11.9812
▁وندر	-11.9812
▁Hurricane	-11.9812
▁Missouri	-11.9812
▁پریمئیر	-11.9813
▁poor	-11.9814
▁extend	-11.9814
▁تاھیری	-11.9816
▁introduc	-11.9816
▁ناسرجمیں	-11.9816
▁بوہگءِ	-11.9818
اگ	-11.9818
▁اسپتیں	-11.982
▁چیار	-11.9821
▁ہجری	-11.9821
گاڑی	-11.9822
▁average	-11.9822
mph	-11.9825
جام	-11.9825
▁براث	-11.9827
▁رہیں	-11.9829
▁کپات	-11.983
▁گلشن	-11.983
▁جہلءَ	-11.9832
حاجی	-11.9832
▁کانگریس	-11.9833
▁پاسپان	-11.9838
ium	-11.9838
▁کودکی	-11.9838
▁هساب	-11.9843
▁mean	-11.9844
نزیک	-11.9844
▁درزن	-11.9845
▁سادے	-11.9848
▁flood	-11.9848
▁2001	-11.9849
▁دلدار	-11.9849
▁reason	-11.9852
▁شمشکار	-11.9853
▁ککڑ	-11.9853
▁بکشات	-11.986
▁دزرس	-11.9862
وخ	-11.9862
▁نندگی	-11.9864
▁مہراب	-11.9865
▁پیشءَ	-11.9866
▁زھنی	-11.987
زمانہ	-11.9871
▁ھدوناک	-11.9874
▁واپاری	-11.9875
رحیم	-11.9876
▁چوری	-11.9876
▁۔مئے	-11.9878
▁مکتبہ	-11.9878
▁شربت	-11.9879
▁length	-11.9882
▁ناٹک	-11.9882
wood	-11.9883
▁لبزتکنیک	-11.9886
▁داعش	-11.9886
▁مصنف	-11.9887
۔بلئے	-11.9887
▁Port	-11.9888
▁وشاتک	-11.989
▁پیرین	-11.9891
▁مردماناں	-11.9891
▁ندکاراں	-11.9894
▁شریان	-11.9894
▁بریت	-11.9896
▁اگاہی	-11.9896
▁خوشی	-11.9897
▁پروشیں	-11.9898
▁ابرمءِ	-11.9899
▁هرچی	-11.9901
field	-11.9902
▁کیفے	-11.9904
مری	-11.9904
▁رسمءُ	-11.9904
قران	-11.991
▁سیپ	-11.9913
▁بڈءَ	-11.9913
served	-11.9915
ید	-11.9917
▁سھی	-11.992
▁حیوان	-11.992
▁راستین	-11.992
▁ہائوس	-11.9921
▁فروغ	-11.9922
▁بدبھتی	-11.9922
▁جنئے	-11.9923
▁نظریات	-11.9923
▁جستءُ	-11.9924
▁انگتءَ	-11.9924
▁زیشان	-11.9924
▁پارس	-11.9928
▁میوہ	-11.993
▁ھی	-11.9934
▁گرز	-11.9936
▁مھران	-11.9937
▁مھکمہ	-11.9937
بیتگ	-11.9939
tlantic	-11.9941
کٹ	-11.9943
▁برین	-11.9944
▁ہاکمی	-11.9944
▁قندھار	-11.9945
▁ھاشم	-11.9947
اومان	-11.9949
▁بکتیں	-11.9949
▁پرینت	-11.9949
▁امرے	-11.9953
درستیں	-11.9953
▁زلوری	-11.9954
▁لچہے	-11.9954
▁بینجو	-11.9954
▁گؤن	-11.9955
▁شیڈول	-11.9957
بیست	-11.9957
▁material	-11.9958
▁سلحہ	-11.9959
▁زھیروک	-11.9959
▁پیچیدہ	-11.996
▁کشکانی	-11.9961
▁چاتے	-11.9962
▁سہمی	-11.9962
▁رندان	-11.9966
▁ایتءُ	-11.9967
▁بازانت	-11.9967
▁گندیت۔	-11.9967
▁عقیدہ	-11.9969
▁جہلگ	-11.997
▁بست۔	-11.9971
▁voice	-11.9972
▁امریکن	-11.9972
▁سیرءُ	-11.9975
▁تازہ	-11.9977
▁جوانتر	-11.9979
▁producer	-11.998
▁کچکول	-11.9987
▁بیٹے	-11.9987
▁سنگتءَ	-11.9989
▁appoint	-11.9993
▁متن	-11.9996
▁برامدات	-11.9997
▁جھدکاراں	-11.9997
▁دوئین	-11.9997
▁یافتہ	-11.9998
▁ہرنائی	-11.9998
▁ابرار	-11.9999
▁کینیڈا	-11.9999
▁پذا	-12
▁حیدراباد	-12
▁رومی	-12
▁فلسطینی	-12.0001
▁تمثیل	-12.0002
▁تسلی	-12.0006
▁بگنداں	-12.0007
▁بازیابی	-12.0008
▁معصوم	-12.0008
▁هاک	-12.001
▁تخیل	-12.0011
▁بالو	-12.0012
▁نندئے	-12.0012
▁متھ	-12.0014
▁کمٹمنٹ	-12.0017
▁گیجیت	-12.0018
▁سوگاتے	-12.0019
▁مظہر	-12.0021
▁جنجالی	-12.0023
▁ایکٹ	-12.0023
▁مجاھد	-12.0023
▁ہیرو	-12.0024
▁گندہ	-12.0024
▁زھیرانی	-12.0025
te	-12.0027
▁اتکنت	-12.0027
▁لعنت	-12.0028
▁بیٹھ	-12.0029
▁account	-12.003
▁ممبئی	-12.0032
▁دارالعلوم	-12.0033
▁گریہان	-12.0033
▁چدو	-12.0033
▁سالانہ	-12.0033
▁قائد	-12.0034
▁اردشیر	-12.0034
▁واقف	-12.0035
ھور	-12.0035
▁تھرو	-12.0036
▁ھلیل	-12.0037
▁گناه	-12.0037
▁بامسار	-12.0038
▁کیک	-12.0041
▁نبیستگ	-12.0041
مئی	-12.0043
▁بیپار	-12.0043
▁بهار	-12.0043
▁گاراں	-12.0043
زندگ	-12.0044
▁بوس	-12.0044
▁قلندر	-12.0045
▁جیڑه	-12.0047
چیر	-12.0049
▁حسابا	-12.005
▁کدین	-12.005
▁مہرگ	-12.0051
b	-12.0053
▁روتگاں	-12.0056
▁نہنت	-12.0056
▁سون	-12.0058
▁سحار	-12.0059
▁درگاہ	-12.006
▁وامدار	-12.0061
▁بیت۔من	-12.0062
▁ریت	-12.0064
▁زبانئ	-12.0067
▁Indian	-12.0067
▁ہمساہگ	-12.0069
▁stay	-12.0069
▁نگہداشت	-12.0069
▁تھرے	-12.0069
▁magazine	-12.0069
▁مینجمنٹ	-12.0069
▁مرشد	-12.007
▁پارٹیاں	-12.007
▁قصہاں	-12.0072
▁بنچ	-12.0073
▁امران	-12.0074
▁مہرے	-12.0075
▁زیتون	-12.0076
▁ہیگل	-12.0076
▁سلامتیں	-12.008
▁ہمگرنچی	-12.008
▁کدم	-12.0082
▁لاپتہ	-12.0083
▁پرماتگ	-12.0085
▁فوک	-12.0086
▁دراتک۔	-12.0087
▁چالاک	-12.0087
▁زورگی	-12.0087
▁ھمید	-12.0088
▁گشتی	-12.0089
▁کبلہ	-12.009
▁نندے	-12.009
▁جنکءَ	-12.0091
▁شرگدارے	-12.0096
▁ذہنیت	-12.0096
ترین	-12.0097
▁cause	-12.0097
مکران	-12.0098
▁تیس	-12.0101
▁گویا	-12.0103
▁نادرائی	-12.0103
▁گوئش	-12.0103
▁conduct	-12.0105
▁learn	-12.0106
▁Great	-12.0106
▁ھدابند	-12.011
▁سارے	-12.0111
▁کچہ	-12.0112
▁ہوشاپ	-12.0112
▁عبدالغفور	-12.0113
ورنا	-12.0113
▁مردا	-12.0114
▁ڈو	-12.0114
▁بسے	-12.0114
▁ایڈ	-12.0116
▁قدح	-12.0116
▁مرتب	-12.0117
▁لیکچر	-12.0118
▁station	-12.0119
▁۔۔۔۔۔۔۔۔	-12.0119
▁بوہگا	-12.012
▁وزبت	-12.012
یری	-12.0121
▁رئوگ	-12.0125
▁leave	-12.0127
▁تلگ	-12.0129
▁پوزیشن	-12.0129
▁ملایانی	-12.0135
▁نوار	-12.0136
▁بداتیں	-12.0137
▁arriv	-12.0138
▁بئیان	-12.0138
▁شیئری	-12.0139
▁Re	-12.014
▁شھزانتی	-12.0141
▁بیوروکریسی	-12.0143
▁First	-12.0143
▁شہادت	-12.0144
▁availab	-12.0145
▁فرنٹیئر	-12.0146
▁Best	-12.0147
کائی	-12.0147
▁فائر	-12.0148
▁سدءُ	-12.0148
ne	-12.015
▁نقاد	-12.015
▁ہیومن	-12.0152
▁ہیت	-12.0153
▁دیماارگ	-12.0153
واری	-12.0155
▁مالا	-12.0157
▁ھکیکت	-12.0159
▁نیر	-12.0159
▁ضیا	-12.016
▁سرکپت	-12.016
▁کڑ	-12.0161
▁زیمی	-12.0162
انسانی	-12.0163
▁court	-12.0163
▁چکاریں	-12.0165
▁چاند	-12.0167
▁سفرءِ	-12.0167
▁دوستر	-12.0172
▁ٹہشت	-12.0177
▁لوٹیتگ	-12.0177
▁Michael	-12.0178
▁قیاس	-12.0179
▁پتریت	-12.018
▁شیدائی	-12.018
▁decision	-12.0181
▁روئٹرز	-12.0181
▁1970	-12.0181
▁condition	-12.0181
▁بیگاه	-12.0181
▁بغداد	-12.0182
▁اشترے	-12.0184
▁پرشان	-12.0184
▁زاهر	-12.0185
▁ہمیشاں	-12.0188
▁ماھیں	-12.0189
▁مردینے	-12.0189
▁بورخیس	-12.0191
▁براہوی	-12.0192
▁بہارگاہ	-12.0192
▁تھل	-12.0194
▁رجانکانی	-12.0196
▁چنکے	-12.02
▁مبو	-12.02
▁وحی	-12.0201
▁ھدوناکی	-12.0201
▁تنگو	-12.0201
f	-12.0203
▁."	-12.0203
▁ایگءِ	-12.0204
▁چیھال	-12.0205
▁اہو	-12.0207
▁ادء	-12.0207
▁ہورءَ	-12.0207
▁شہمات	-12.0209
دارگ	-12.0209
▁ستم	-12.0211
▁نمی	-12.0211
▁مارکیز	-12.0211
▁رسگا	-12.0211
▁چنکہ	-12.0212
▁نانی	-12.0214
▁زوراکانی	-12.0215
دود	-12.0216
▁محمدخان	-12.0216
▁حقیں	-12.0218
بوگ	-12.0219
▁تربتءَ	-12.0219
▁دیو	-12.0219
▁چودھری	-12.022
▁پیشتر	-12.0221
▁تمرد	-12.0221
▁ھمساھگیں	-12.0222
۔مئے	-12.0223
▁دیمروئیءِ	-12.0224
▁پاروک	-12.0226
▁کسمانکی	-12.0228
▁نازانتی	-12.023
▁winds	-12.0231
▁approach	-12.0233
▁دراصل	-12.0235
▁قالب	-12.0237
▁تاپگ	-12.0237
▁ترست	-12.0237
▁ھمش	-12.0238
▁Me	-12.0239
▁دزگ	-12.0241
▁کلانیں	-12.0241
▁کائینت	-12.0243
▁اھوالکاری	-12.0243
▁red	-12.0244
uence	-12.0246
▁ندکارے	-12.0248
▁افضل	-12.0249
▁شھرے	-12.0251
▁مھراں	-12.0252
▁ڈؤل	-12.0253
▁رانا	-12.0253
▁سیبی	-12.0254
▁سامراجی	-12.0256
▁above	-12.0257
▁دیتہ	-12.0258
▁براھیم	-12.0259
▁فرشتہ	-12.0259
▁travel	-12.026
▁افتاب	-12.026
▁معناءِ	-12.0262
پرچیکہ	-12.0262
▁کاریانی	-12.0264
▁ساهت	-12.0265
▁جہدکار	-12.0269
▁ماناءَ	-12.0272
▁چاراہ	-12.0272
▁گرائمر	-12.0275
more	-12.0278
▁چلو	-12.028
▁جہدءُ	-12.0281
ch	-12.0282
▁گوازینان	-12.0283
▁بیسہی	-12.0284
عمل	-12.0285
▁عنصر	-12.0287
منٹ	-12.0289
▁بائدیں	-12.0291
▁پاکی	-12.0294
▁نظرہیہ	-12.0294
▁کانپریس	-12.0295
▁Day	-12.0295
▁Sun	-12.0296
▁چاہے	-12.0298
▁درخت	-12.03
ڑو	-12.0302
▁پتے	-12.0304
▁بگرد	-12.0305
دہی	-12.0307
▁رۆچا	-12.0308
▁چیلک	-12.0312
▁باسکی	-12.0312
▁موسمیات	-12.0313
▁زوم	-12.0316
▁دریگاں	-12.0317
کمک	-12.0317
▁شوانگے	-12.0318
▁met	-12.0321
▁Bay	-12.0321
▁زوربیگواہی	-12.0323
▁نکشہ	-12.0323
▁رکاوٹ	-12.0326
▁حلب	-12.0327
▁سدگ	-12.0327
▁بیرہ	-12.0329
▁horse	-12.0332
▁positive	-12.0332
▁Jack	-12.0333
▁فر	-12.0333
▁تیگ	-12.0333
▁٭٭٭٭	-12.0334
▁soon	-12.0334
▁جغرافیہ	-12.0335
▁پورس	-12.0336
ory	-12.0336
▁اگاھی	-12.0336
▁نادیہ	-12.0336
▁ہورکیں	-12.0337
سیاہ	-12.0339
▁جستءِ	-12.0339
▁استانے	-12.034
▁فرزند	-12.0342
▁پراھی	-12.0345
▁کلاتءِ	-12.0345
line	-12.0346
▁تامرانی	-12.0346
read	-12.0347
▁سہیں	-12.0349
▁روڑ	-12.035
▁گروکیں	-12.035
▁پچگ	-12.035
▁round	-12.0351
▁ایرگیجگ	-12.0351
▁ball	-12.0356
▁عطر	-12.0357
▁ملگور	-12.0359
کناں	-12.036
مل	-12.0361
اصل	-12.0363
▁کیے	-12.0364
▁کوہے	-12.0364
گام	-12.0364
▁ھلوت	-12.0365
▁راہشون	-12.0365
rd	-12.0365
▁نشتگءُ	-12.0367
ارے	-12.0368
▁office	-12.037
▁گرماگی	-12.037
▁business	-12.037
▁studio	-12.037
▁نویستگ	-12.037
▁اسٹریٹجک	-12.0372
▁ویتنام	-12.0372
▁سساءِ	-12.0372
▁لوہار	-12.0372
▁منفی	-12.0374
▁اسپیشل	-12.0374
▁نادراہانی	-12.0375
ves	-12.0376
▁هچبر	-12.0376
▁ربیدگاں	-12.0377
▁رسانکدری	-12.038
▁بارکان	-12.038
بکن	-12.0384
▁گوازینگی	-12.0385
▁اه	-12.0389
ar	-12.0391
▁زکر	-12.0393
▁امریکہءِ	-12.0393
▁درشاندابے	-12.0393
▁pre	-12.0393
▁خاصیت	-12.0396
▁گجرات	-12.0397
هر	-12.0397
لال	-12.0399
▁ٹیپ	-12.0399
▁بخشش	-12.0403
▁کندگاں	-12.0406
▁ہماہانی	-12.0407
▁ملیشیا	-12.0407
▁دژمنے	-12.0407
▁maintain	-12.0408
▁ثبت	-12.0408
▁شوھازءَ	-12.0409
▁Africa	-12.0409
▁مظلوم	-12.0409
▁یاں۔	-12.0411
▁ہمراہداری	-12.0411
▁بوارت	-12.0412
▁plann	-12.0413
▁گھشی	-12.0413
▁واگ	-12.0414
▁جیمز	-12.0416
▁ریچی	-12.0417
▁ھرروچ	-12.0417
▁ٹاہینگ	-12.0418
▁دوہیں	-12.0419
▁قلمی	-12.0421
▁اولسرءَ	-12.0424
▁پیڑ	-12.0426
شئیر	-12.0428
▁کوراں	-12.0428
▁ھسا	-12.0429
▁کوٹیانی	-12.0435
▁امینی	-12.0435
▁درزی	-12.0436
شش	-12.0437
▁کنوں	-12.0439
▁say	-12.044
▁ھسابے	-12.0442
▁estimat	-12.0442
▁وسعت	-12.0444
▁شہریانی	-12.0444
▁محاورہ	-12.0445
▁And	-12.0446
▁نلی	-12.0447
▁Canada	-12.0447
▁پولیسا	-12.0448
▁پائی	-12.0448
▁tree	-12.0449
▁letter	-12.045
▁دلیریں	-12.0451
▁مسلسل	-12.0452
▁پنڈ	-12.0453
▁اروچ	-12.0453
▁وڑوڑیں	-12.0456
▁ماڑیانی	-12.0457
▁پینل	-12.0457
اشاں	-12.0459
▁مرہ	-12.0461
▁دستءُ	-12.0462
اریں	-12.0464
▁بیوی	-12.0465
▁پہازگ	-12.0465
▁گرانڈ	-12.0466
▁والہ	-12.0471
▁دراهیں	-12.0471
▁ہفتگ	-12.0472
هم	-12.0472
▁مشرق	-12.0476
▁score	-12.0478
▁گرابانی	-12.0478
▁ماھان	-12.0479
▁مہمانداری	-12.048
▁بنیادمءِ	-12.048
▁چاڑی	-12.0484
اگہ	-12.0485
▁سپلائی	-12.0486
▁ریسگ	-12.0487
▁معاشرے	-12.0487
▁President	-12.0487
▁کدام	-12.0488
▁طورپر	-12.0488
▁لهتیں	-12.0488
▁ڈولین	-12.0489
▁ڈپریشن	-12.0489
▁سنگی	-12.0492
▁زاھری	-12.0494
▁نیبگ	-12.0494
once	-12.0495
▁اولا	-12.0497
کلات	-12.0499
▁ملگزار	-12.05
▁پیمء	-12.0501
▁رنگین	-12.0502
▁سجهێن	-12.0504
▁پازلءِ	-12.0505
▁کاسم	-12.0505
▁ھبرانی	-12.0506
▁ناشری	-12.0506
▁پندلانی	-12.0509
▁جنگلءَ	-12.051
▁stor	-12.0512
▁2000	-12.0516
▁construct	-12.0516
▁رسترانی	-12.0516
▁ھداءِ	-12.0516
ینیت	-12.0517
▁اچانک	-12.0519
town	-12.052
▁جھدکارانی	-12.0521
▁ہکل	-12.0522
۔بلکیں	-12.0524
▁Henry	-12.0525
▁اکبال	-12.0525
▁دیمھونی	-12.0525
▁authorit	-12.0526
▁فزکس	-12.0526
▁چارینگ	-12.0529
▁دئے۔	-12.0529
▁نسخہ	-12.0529
▁پادمال	-12.0529
▁referr	-12.0531
▁ھوریں	-12.0532
▁بہرگ	-12.0532
▁نتا	-12.0532
▁پربندانی	-12.0536
▁بیگاہءَ	-12.0536
▁سنیانلاین	-12.0538
لشکر	-12.0539
▁زیادتی	-12.0539
▁مشان	-12.054
▁لڈءُ	-12.054
▁چاگرداں	-12.0541
▁پراھیں	-12.0541
▁واجھ	-12.0541
▁زالمیں	-12.0542
▁کلیات	-12.0544
▁کوئٹہءَ	-12.0546
▁دال	-12.0547
▁اوپر	-12.0547
▁سازش	-12.0547
▁دبستان	-12.0551
▁نمادار	-12.0552
▁king	-12.0554
▁۔ہمیش	-12.0557
▁لڑائی	-12.0559
▁India	-12.056
اخر	-12.056
▁شیواری	-12.0561
▁کاریزکار	-12.0563
uadron	-12.0563
▁۔۔۔۔۔۔۔۔۔	-12.0563
▁ساؤتھ	-12.0564
▁سجهێں	-12.0565
▁مع	-12.0565
▁جھالاوان	-12.0566
▁پلسپہ	-12.0566
▁خلیفہ	-12.0569
▁machine	-12.057
▁امدام	-12.0575
▁دیمااہتگ	-12.0575
▁پندلاں	-12.0579
▁دریائے	-12.058
▁مرے	-12.058
▁جندی	-12.0583
بوان	-12.0586
ادگہ	-12.0586
بیگ	-12.0588
گران	-12.0588
▁جھاز	-12.0589
▁سالگیں	-12.0589
▁زوراوری	-12.0591
▁دپترے	-12.0593
▁استالے	-12.0594
▁تلوسگ	-12.0597
▁سیادے	-12.0597
▁بحال	-12.0598
▁کیگد	-12.06
▁کنوکین	-12.06
▁Oldham	-12.0602
▁1990	-12.0602
▁متہدہ	-12.0602
۔ائیءَ	-12.0602
▁تہلی	-12.0604
▁عروض	-12.0607
???	-12.0607
▁اھت۔	-12.0607
▁نھنگ	-12.0607
▁غسل	-12.0608
▁کبیر	-12.061
▁اومیت	-12.061
▁metre	-12.0612
▁شاگ	-12.0612
▁دروتے	-12.0612
▁نشتیں	-12.0613
▁لگوریں	-12.0616
▁بوانیت	-12.0616
▁ماد	-12.0617
▁گوپگ	-12.0625
▁موز	-12.0626
▁ٹر	-12.0626
▁سنگار	-12.0628
▁interview	-12.0631
▁لامحدود	-12.0631
۔چہ	-12.0632
▁گهار	-12.0633
▁شانے	-12.0634
▁زیانی	-12.0634
▁کوشی	-12.0635
▁ریتک	-12.0638
سرمچاراں	-12.0638
▁ھذمت	-12.0641
▁law	-12.0641
▁sometime	-12.0642
▁social	-12.0642
▁اہستہ	-12.0643
▁ھنکینی	-12.0644
▁usual	-12.0645
تین	-12.0647
▁شاھرگ	-12.0647
▁مازگ	-12.0653
▁اقدار	-12.0653
▁شاعرءَ	-12.0653
▁طبیب	-12.0656
▁Times	-12.0657
')	-12.0657
▁قمر	-12.0657
▁پوشیں	-12.0658
تاکبند	-12.0659
مھر	-12.0661
▁بالادءَ	-12.0663
ئے۔	-12.0665
▁بچکنداں	-12.0668
▁Chin	-12.0669
▁چڑکہ	-12.067
▁ساہگءَ	-12.067
▁کپیں	-12.0671
▁کوت	-12.0673
▁پادیں	-12.0673
▁کارکنگ	-12.0677
▁اوہد	-12.0678
▁گپتاراں	-12.0678
▁تنیگت	-12.068
▁Olivier	-12.0681
▁سکت	-12.0682
▁ٹرالنگ	-12.0682
▁پتران	-12.0683
▁وقار	-12.0683
کاریں	-12.0683
▁اسلی	-12.0683
▁نظامے	-12.0683
گچین	-12.0686
وڑیں	-12.0687
▁فراق	-12.0687
▁سجئیں	-12.0688
▁thing	-12.0688
▁گشین	-12.0689
▁روشنا	-12.069
▁تورگ	-12.0691
▁مہریں	-12.0692
▁چھت	-12.0692
▁ریپینگ	-12.0692
▁انت۔بلوچی	-12.0692
▁ھوس	-12.0693
قومی	-12.0694
▁دراھاں	-12.0694
▁burn	-12.0694
▁زانان	-12.0697
▁سازاں	-12.0702
▁اڈہ	-12.0705
نئے	-12.0713
▁نادراھیں	-12.0714
▁میلے	-12.0715
▁داتگین	-12.0716
▁ئیءَ	-12.0719
▁special	-12.0719
▁ظریف	-12.0721
▁سم	-12.0722
▁western	-12.0722
▁سلوک	-12.0723
▁lower	-12.0723
▁تعبیر	-12.0724
لیکن	-12.0724
▁مونجائی	-12.0725
▁nine	-12.0727
▁پرائیوٹ	-12.0727
پور	-12.0727
▁ڈلگیں	-12.0729
▁بکنئے	-12.0732
▁Ma	-12.0732
▁بندانت	-12.0732
بال	-12.0732
▁پدری	-12.0736
▁ھمکوپگ	-12.0738
▁بگوشیت	-12.0739
▁ناپگ	-12.0741
▁deal	-12.0743
▁focus	-12.0749
▁روءَ	-12.0751
▁کرگین	-12.0754
▁شدیک	-12.0754
▁گریوان	-12.0756
▁دیمتری	-12.0756
▁وانت	-12.0757
سندھ	-12.0759
▁concert	-12.076
▁response	-12.076
▁مھلوکءَ	-12.076
▁پلانگری	-12.0761
▁واجھی	-12.0762
▁نویسوک	-12.0763
▁توسیف	-12.0763
▁write	-12.0765
▁ڈنا	-12.0766
ایرانی	-12.0766
▁وانگجاھانی	-12.0767
▁اسباب	-12.0767
▁علامہ	-12.0767
▁ہارون	-12.0768
▁دیریگیں	-12.0768
▁قدرانی	-12.0769
▁وشدل	-12.0769
▁قرنانی	-12.0772
▁روبرکت	-12.0774
▁احتنت	-12.0774
▁استارانی	-12.0777
▁گراؤنڈ	-12.0778
▁گیتک	-12.0778
▁ویئر	-12.0779
▁اداره	-12.0784
▁سرنامگ	-12.0786
▁سرپداں	-12.0786
▁کائنت	-12.0787
▁ئنت۔	-12.0789
▁رانی	-12.0791
▁اڑءُ	-12.0792
▁دہقان	-12.0793
▁ریم	-12.0794
▁ترسیں	-12.0796
▁توارانی	-12.0797
▁Regiment	-12.08
▁ٹورنمنٹ	-12.08
▁recent	-12.08
▁نوشی	-12.0801
▁زوالی	-12.0801
▁taking	-12.0801
▁قہریں	-12.0801
▁کپوتے	-12.0801
▁mention	-12.0802
▁نزار	-12.0802
▁فخر	-12.0803
▁تھرا	-12.0806
جنت	-12.0808
▁جانشو	-12.081
▁توپانے	-12.0811
▁ٹاھینگ	-12.0813
▁پکی	-12.0814
▁چارٹر	-12.0815
دز	-12.0815
▁داستانے	-12.0817
▁صدیقی	-12.0817
day	-12.0817
▁چونی	-12.0818
▁ناکی	-12.0822
▁زادہ	-12.0824
▁چہار	-12.0825
▁پرچیا	-12.0828
▁ایلن	-12.0829
دروشم	-12.0829
▁ایشنت	-12.083
▁ٹویٹر	-12.083
▁goals	-12.0831
▁ایسٹ	-12.0832
▁بچگ	-12.0833
▁تبءُ	-12.0834
▁مومنءِ	-12.0834
▁ٹکراں	-12.0835
▁دیوانگی	-12.0836
چاریں	-12.0837
وشی	-12.0839
▁Mexico	-12.084
▁School	-12.084
▁religious	-12.084
ietnam	-12.084
▁کجائے	-12.084
▁انحصار	-12.084
▁ہمینچک	-12.0841
▁Later	-12.0841
▁جاگهے	-12.0841
▁مروچگیں	-12.0842
▁جمعه	-12.0842
▁بھارگاہ	-12.0843
دراھیں	-12.0844
▁اسلیں	-12.0844
▁پکنت	-12.0845
▁اہمے	-12.0847
▁حزب	-12.0847
▁اکادمی	-12.0849
▁حقءَ	-12.0851
▁گذر	-12.0855
▁وژن	-12.0856
▁احتجاج	-12.0858
لگ	-12.0858
▁بوتیناں	-12.0859
▁تکینک	-12.0859
▁car	-12.086
▁همدا	-12.0862
لک	-12.0865
▁شھباز	-12.0865
جار	-12.0865
▁ہشتمی	-12.0869
ll	-12.087
▁میرگل	-12.087
▁ورگاں	-12.0872
▁پنیر	-12.0872
▁گڈانی	-12.0874
▁ولیم	-12.0875
▁بھنگ	-12.0875
▁وسواس	-12.0877
▁وانینت	-12.088
▁Irish	-12.088
▁ے۔	-12.088
▁پراسیس	-12.088
▁ستاشانی	-12.0882
▁نیادانی	-12.0882
▁test	-12.0882
▁کارامد	-12.0883
▁شیرزال	-12.0883
▁کیپٹن	-12.0884
▁پروا	-12.0884
▁تشکیل	-12.0884
▁ھگم	-12.0884
▁ئرا	-12.0885
بان	-12.0885
▁خورشید	-12.0886
▁Mark	-12.0888
▁پتانی	-12.0889
▁پؤج	-12.0891
▁ارز	-12.0892
▁درسی	-12.0893
▁ہفتاد	-12.0894
▁لاشعوری	-12.0895
▁سرگوستاں	-12.0896
▁زہیراں	-12.0897
▁دمگا	-12.0898
▁مردما	-12.0898
▁گلگل	-12.0898
▁فرعون	-12.0903
▁ئے۔۔۔	-12.0904
▁parts	-12.0904
سرکاری	-12.0905
▁پکائی	-12.0908
▁ترامجا	-12.091
▁اقرار	-12.091
▁ہریک	-12.0911
▁گوئشتگ	-12.0914
▁ائیڈل	-12.0917
▁سیٹلائٹ	-12.0918
▁مردمےءِ	-12.092
▁prevent	-12.092
▁مداخلت	-12.092
▁لیبارٹری	-12.0921
▁بادشاھے	-12.0922
ی۔	-12.0923
▁زانشتجاہ	-12.0923
▁پدمنتگ	-12.0924
▁پیچھے	-12.0925
▁تلمیح	-12.0926
▁جیکب	-12.0927
▁نار	-12.0928
▁سورو	-12.0931
▁...............	-12.0933
▁لہ	-12.0934
▁اولگا	-12.0936
▁ہندءُ	-12.0938
▁جنگلانی	-12.0939
▁اڑزان	-12.0944
▁ھالت	-12.0948
▁مروک	-12.0948
▁transport	-12.0948
▁سنجیدگی	-12.0949
▁تکانی	-12.095
▁ڈیزل	-12.095
ial	-12.0952
▁حکمرانی	-12.0954
▁جمیں	-12.0958
▁اون	-12.0958
▁brother	-12.0961
▁نگدءِ	-12.0961
بلوچانی	-12.0962
▁یوسپ	-12.0962
▁هاشمی	-12.0963
▁زریات	-12.0963
▁کرتنت۔	-12.0964
وف	-12.0968
▁سفارش	-12.097
▁کئیز	-12.0972
▁گلاسے	-12.0974
▁صحبت	-12.0975
▁ایت۔۔۔	-12.0978
▁وڑین	-12.0979
▁تراس	-12.098
▁ھوٹلے	-12.098
▁دیگ۔	-12.098
▁نیائے	-12.0981
ریاست	-12.0982
▁براھندگ	-12.0982
▁زران	-12.0982
▁گراباں	-12.0982
▁چنچک	-12.0983
امریکہ	-12.0985
ہمیش	-12.0986
......!	-12.0987
فضل	-12.0987
▁پکگ	-12.0988
▁خیالا	-12.0994
▁چس	-12.0995
▁دربرت	-12.1001
▁flight	-12.1001
▁Thomas	-12.1001
▁Canadian	-12.1001
▁رینجرز	-12.1002
▁ایشاناں	-12.1002
▁پیمائش	-12.1003
▁sea	-12.1003
▁اشرپ	-12.1003
▁سریچ	-12.1006
▁اورت۔	-12.1009
▁سلامے	-12.1009
کچک	-12.1009
▁مجموعہ	-12.101
▁ڈائیلاگ	-12.101
▁کھثہ	-12.101
▁دراہی	-12.1012
گمان	-12.1014
▁پریب	-12.1015
▁تیوگی	-12.1015
▁همش	-12.1016
▁Peter	-12.1017
▁پھاز	-12.1019
▁امدنی	-12.102
▁football	-12.102
▁یتکگ	-12.102
▁پوچ	-12.102
دژمن	-12.1021
▁ھمبلاں	-12.1025
▁stone	-12.1025
وشیں	-12.1031
▁دئیگءِ	-12.1032
۔بلوچی	-12.1032
▁فیل	-12.1032
▁زیمراں	-12.1032
▁رسمی	-12.1032
▁جہتءَ	-12.1035
دلگوش	-12.1036
▁must	-12.1038
▁توانمند	-12.1038
▁ھلار	-12.1042
▁اتراپاں	-12.1042
▁subject	-12.1042
▁ها	-12.1043
▁مخاطب	-12.1043
▁عبدالحق	-12.1044
▁انتہا	-12.1045
▁نمائش	-12.1046
▁اہن	-12.1046
▁ھمنچک	-12.1049
▁شاہو	-12.1051
▁مفکر	-12.1054
▁واژہ	-12.1055
زان	-12.1055
▁پلگارگ	-12.1056
▁دیوانانی	-12.1057
▁گیمرتگیں	-12.1058
▁سرینان	-12.106
▁مبوتین	-12.106
▁بندءِ	-12.1061
▁نیٹو	-12.1062
▁سوجکار	-12.1065
▁واھگدار	-12.1066
▁کمپ	-12.1067
▁کریک	-12.1068
▁لینے	-12.1068
▁زردءِ	-12.1069
▁ہمئے	-12.1069
▁گدارءَ	-12.1071
▁ویرانی	-12.1071
▁چوشی	-12.1072
▁ڪتگ	-12.1075
▁گوئشیت	-12.1075
▁باس	-12.1077
▁broke	-12.1078
▁سرجاہ	-12.1079
▁کسم	-12.108
▁Mount	-12.1083
▁عبدالستار	-12.1083
▁slow	-12.1083
کساس	-12.1084
▁بچارات	-12.1085
▁عبدالغنی	-12.1085
▁تنت۔	-12.1087
▁مدے	-12.1087
▁وشھال	-12.1087
▁Du	-12.1087
▁میرچاکر	-12.1088
▁جیڑگی	-12.1088
نور	-12.1089
▁ونتگ۔	-12.1089
▁ارسیگ	-12.1089
▁شہزاد	-12.1089
▁capital	-12.1091
▁شرپے	-12.1091
▁ہروہد	-12.1092
▁ہؤ	-12.1092
▁forward	-12.1094
▁سلا	-12.1097
▁نندءُ	-12.1098
▁رپیک	-12.1099
▁داتاں	-12.1099
▁چلے	-12.1099
▁زپت	-12.1099
▁سنجیدگ	-12.1101
▁همود	-12.1102
▁کارگرگ	-12.1105
▁بھیر	-12.1105
▁گریو	-12.1107
▁سھتے	-12.1108
▁شالکوٹ	-12.1108
▁بیگار	-12.1111
▁شتیں۔	-12.1113
▁پیام	-12.1113
▁ماہکان	-12.1114
▁اٹھ	-12.1114
▁ورئگ	-12.1114
▁حمد	-12.1115
▁بایدانت	-12.1116
▁حیالان	-12.1116
▁دستاویز	-12.1116
▁شررنگیں	-12.112
▁۔وتی	-12.1123
▁explain	-12.1124
▁network	-12.1124
▁pressure	-12.1124
▁دستگ	-12.1125
▁ٹولیاں	-12.1125
▁surface	-12.1126
▁ترامجاھاں	-12.1126
▁قابض	-12.1127
▁پختہ	-12.1127
▁جنگلاں	-12.1128
▁پلیری	-12.1129
▁میلادی	-12.113
▁بچارے	-12.1131
▁کودک	-12.1133
▁نادلگوشی	-12.1134
▁في	-12.1135
▁لائقی	-12.1137
▁سہیگ	-12.1139
▁تامل	-12.114
▁مریں	-12.114
▁رولہ	-12.1141
▁سریت	-12.1142
▁بئیگءَ	-12.1145
▁ہردک	-12.1145
▁فکرءِ	-12.1145
▁جہانگیر	-12.1145
▁پیوند	-12.1145
▁ات۔منی	-12.1146
▁مسیتے	-12.1147
▁ڈاکٹرءَ	-12.1147
بگیری	-12.1147
▁باگی	-12.1148
▁یادگار	-12.1148
▁اھوالاں	-12.1148
▁ہسابءَ	-12.115
▁ٹپے	-12.1154
▁وشبواں	-12.1155
▁سرگردان	-12.1158
▁گھس	-12.1163
▁نامرد	-12.1164
▁قیام	-12.1164
▁Hall	-12.1164
▁hold	-12.1164
▁برازیل	-12.1164
▁نیند	-12.1165
▁ترپگ	-12.1165
▁1960	-12.1166
▁ڪن	-12.1166
▁ناکامی	-12.1167
▁intend	-12.1168
▁ملوریں	-12.1171
▁شنزگ	-12.1171
▁کلر	-12.1171
▁دیھ	-12.1175
▁بدرنگ	-12.1175
▁گلین	-12.1175
▁دریاءَ	-12.1176
▁سبوت	-12.1176
▁سربراہ	-12.1177
▁دیناں	-12.1178
▁کاگداں	-12.118
▁studie	-12.1181
..!‘‘	-12.1182
▁انت۔کہ	-12.1182
جند	-12.1184
▁بھادر	-12.1184
۔۔۔۔۔۔۔۔	-12.1184
▁رجحان	-12.1191
▁ناکامیں	-12.1191
▁سکہ	-12.1193
▁ہید	-12.1195
▁چاء	-12.1196
▁بروتاں	-12.1197
▁شھیداں	-12.1197
▁ردیانی	-12.1199
▁ببات	-12.1199
▁غزلے	-12.12
▁پنجگوری	-12.12
▁زخم	-12.1205
▁صلہ	-12.1205
▁طاقتے	-12.1206
▁امیدگسی	-12.1207
▁برامد	-12.1207
▁سربوگ	-12.1207
▁approximate	-12.1207
▁Guitar	-12.1207
▁increasing	-12.1207
▁فساد	-12.1208
▁انجیر	-12.121
قصہ	-12.1211
▁مرحوم	-12.1211
▁لڑءَ	-12.1211
▁صف	-12.1211
den	-12.1211
▁وضاحت	-12.1211
▁piece	-12.1211
▁لمہ	-12.1213
▁تنہا	-12.1213
nion	-12.1217
▁Air	-12.1218
▁دیمیگ	-12.122
▁امیدگساں	-12.122
▁ہیرت	-12.1221
▁دانائیں	-12.1222
▁شول	-12.1223
▁پراہی	-12.1223
▁زرینہ	-12.1223
▁Richard	-12.1223
انک	-12.1225
▁standard	-12.1226
▁Per	-12.1227
▁دردانہ	-12.1227
کوش	-12.1229
یاکہ	-12.123
▁قومیت	-12.123
جتا	-12.1234
▁املی	-12.1235
▁کارچے	-12.1235
▁نبنت	-12.1235
▁وروک	-12.1235
▁علیه	-12.1238
▁بیتگنت۔	-12.1239
98	-12.124
▁زیاد	-12.124
▁ایرجتگ	-12.1242
▁بگندیت	-12.1243
▁نشگ	-12.1245
▁ناگیگی	-12.1246
▁حقیقتے	-12.1246
▁لگوشت	-12.1246
▁foot	-12.1247
▁کوار	-12.1247
▁گستائی	-12.1248
▁That	-12.1249
▁professional	-12.125
▁گوزاں	-12.1251
زوریں	-12.1253
▁عائشہ	-12.1253
▁وفائی	-12.1254
▁ایجاد	-12.1255
▁سپائی	-12.1255
جاھاں	-12.1257
▁وزیرستان	-12.1257
▁ٹونا	-12.1257
وانی	-12.1257
▁مزنێن	-12.1258
▁ڪار	-12.1261
▁انگراں	-12.1261
▁ہمکاری	-12.1263
▁دپترءَ	-12.1263
tic	-12.1264
▁گیواری	-12.1265
▁ارٹیکل	-12.1267
▁ضامن	-12.1267
▁کعبہ	-12.1272
▁پادایگ	-12.1273
▁ھونڈ	-12.1274
▁چاہیے	-12.1274
▁ھکاں	-12.1275
▁اڑان	-12.1277
▁اسودگیں	-12.1277
.(	-12.1278
▁حجالتی	-12.1279
▁شنگیں	-12.1281
سو	-12.1285
▁چلتن	-12.1285
▁specific	-12.1286
▁خداوند	-12.1288
▁شرابی	-12.1289
▁ہوس	-12.129
▁سکون	-12.129
▁وھاب	-12.1291
▁چہرے	-12.1292
▁cost	-12.1293
▁تراتگ	-12.1293
▁مجموعی	-12.1295
▁خاتون	-12.1295
▁هوش	-12.1295
▁دپترءِ	-12.1296
▁اخلاقیات	-12.1296
گرگ	-12.1296
▁مہلب	-12.1298
▁actor	-12.1298
▁کردن	-12.1299
▁تہمبل	-12.13
▁جتاہیں	-12.1301
▁پھلوان	-12.1302
۔۔۔ءُ	-12.1303
▁دھن	-12.1305
▁دلکشی	-12.1309
▁بزاناں	-12.1309
▁دنتاناں	-12.1311
▁بیدل	-12.1311
▁بالیگ	-12.1311
نگی	-12.1312
▁ٹکگ	-12.1312
▁بیرگیں	-12.1313
▁نشاناں	-12.1314
▁گواریت	-12.1314
▁پا۔	-12.1314
جنگی	-12.1316
▁رہتے	-12.1318
۔نوں	-12.1319
▁پیرجان	-12.1319
▁پمیش	-12.1321
سلام	-12.1321
▁گلگدارے	-12.1322
▁ساھب	-12.1322
▁جاہانی	-12.1324
▁سازے	-12.1326
▁lines	-12.133
▁اینگلز	-12.1331
▁past	-12.1331
▁دلشاد	-12.1332
▁گزین	-12.1333
▁typical	-12.1334
▁relative	-12.1335
▁کمءَ	-12.1336
▁fact	-12.1336
▁create	-12.1337
مٹ	-12.1338
▁قیدی	-12.1338
▁ترجمے	-12.134
▁پرستیں	-12.1342
▁درنگازی	-12.1344
▁گئی۔	-12.1347
▁My	-12.1348
▁بامنءَ	-12.135
▁وانینتگ	-12.135
▁بندپتر	-12.135
▁جارچین	-12.1351
▁بیکار	-12.1352
low	-12.1353
▁00	-12.1353
▁جہداں	-12.1355
▁fly	-12.1358
▁Sea	-12.1358
▁ریحان	-12.1358
▁گھتری	-12.1359
امین	-12.1359
▁لسانیات	-12.1362
▁گوستہ	-12.1362
▁عکاسی	-12.1362
▁واٹر	-12.1362
▁ملایاں	-12.1362
▁تکمیل	-12.1362
▁زاہدان	-12.1364
▁یورپا	-12.1365
▁وشھالیں	-12.1365
شری	-12.1366
شتہ	-12.1367
▁پورو	-12.1367
▁ہاکم	-12.1368
▁کلاکانی	-12.1368
گراں	-12.1371
▁هلک	-12.1373
چر	-12.1373
▁کشیتگ	-12.1374
گم	-12.1374
▁وابءِ	-12.1375
▁مستحکم	-12.1375
▁ڈے	-12.1376
▁چائنا	-12.1376
nder	-12.1376
▁election	-12.1376
▁برازتک	-12.1377
ناکیں	-12.1379
▁گوازینتگ۔	-12.138
▁تازگ	-12.138
▁ایسپ	-12.1383
▁پژ	-12.1383
▁مترجم	-12.1384
▁وسیلہءَ	-12.1385
▁ارگءَ	-12.1386
▁مشکلاں	-12.1386
شھید	-12.1392
▁ھفت	-12.1393
▁قطب	-12.1394
▁راستہ	-12.1396
▁بروس	-12.1398
▁تمباک	-12.1402
▁دلاور	-12.1402
▁ائل	-12.1403
▁برادر	-12.1406
▁تکرار	-12.1407
▁بدکاری	-12.1408
▁یادگہ	-12.1409
▁ہوپ	-12.1409
گپت	-12.1409
▁دراھ	-12.1412
▁بندروشم	-12.1412
▁چیء	-12.1414
▁پیدائشت	-12.1415
نیکہ	-12.1415
▁territor	-12.1417
▁certain	-12.1417
▁winning	-12.1417
▁injur	-12.1417
▁might	-12.1417
▁علمءُ	-12.1418
▁واش	-12.1419
▁بہارگہ	-12.142
▁پائلٹ	-12.142
▁پزل	-12.142
▁seem	-12.142
جب	-12.1421
▁انجینئرنگ	-12.1422
▁“”	-12.1423
▁مروچ	-12.1424
▁اٹکل	-12.1425
شمس	-12.1425
▁ذمواری	-12.1426
▁بیت۔۔۔۔	-12.1426
▁شمارہ	-12.1427
کفایت	-12.1428
▁pitch	-12.1428
▁یکجاہی	-12.1429
▁ھامین	-12.143
▁جناب	-12.1431
▁مہمانی	-12.1431
▁حیالءُ	-12.1433
▁وارثاں	-12.1434
▁سربتگ	-12.1434
▁لکھن	-12.1436
▁یکجاھیں	-12.1436
▁دنتانانی	-12.1436
▁جنزیت	-12.1437
▁شھمیر	-12.1438
دودا	-12.1439
special	-12.1439
▁گاٹ	-12.1439
▁تلاراں	-12.144
▁additional	-12.1442
▁واکیہ	-12.1444
▁هزاراں	-12.1444
▁تپاوتے	-12.1445
▁سارا	-12.1445
▁اوگانی	-12.1447
▁اٹھا	-12.1447
ئن	-12.1451
▁زادگ	-12.1452
جنوری	-12.1454
▁ازگاریں	-12.1454
▁زوراکاں	-12.1455
ball	-12.1455
▁شمشت	-12.1457
!‘	-12.1457
▁ایاناں	-12.1457
▁جائے۔	-12.1458
▁سازءُ	-12.1458
▁60	-12.1458
▁Brown	-12.1459
▁رهبند	-12.1459
▁Pacific	-12.146
▁immediate	-12.146
رک	-12.146
▁division	-12.1461
▁ٹارچر	-12.1461
▁بوھوکیں	-12.1462
▁رندءِ	-12.1463
▁failed	-12.1463
▁ہوٹلے	-12.1464
▁گھڑیال	-12.1464
▁چیزے۔	-12.1465
▁عبدالخالق	-12.1466
▁موجودہ	-12.1466
▁کمپنیاں	-12.1466
▁عطاءِ	-12.1467
▁سربار	-12.1467
▁La	-12.1467
▁صدو	-12.147
▁چتر	-12.1471
▁police	-12.1472
▁ہمید	-12.1474
▁دئیوک	-12.1477
▁ڈکشن	-12.1477
▁نوح	-12.1479
▁سماء	-12.148
▁دپتراں	-12.1483
▁ئیءِ	-12.1483
▁شھار	-12.1484
تان	-12.1484
▁معناہ	-12.1485
▁سرکشی	-12.1486
▁مردمانء	-12.1486
▁بشامی	-12.1491
چه	-12.1492
▁ودگ	-12.1494
▁جاوران	-12.1494
▁زمزیلاں	-12.1494
▁تہرءُ	-12.1498
▁ضیاء	-12.15
▁display	-12.1503
▁Light	-12.1503
▁depression	-12.1503
▁detail	-12.1503
سما	-12.1504
▁movement	-12.1505
▁حرص	-12.1505
▁موچی	-12.1506
▁چوناھیگا	-12.1507
▁سلسلے	-12.1507
▁گریشہ	-12.1507
▁گہبودی	-12.1508
▁شاھدی	-12.1508
بک	-12.1509
▁علوم	-12.1509
▁تسپ	-12.1509
▁دیمدرائی	-12.1509
▁رھبندی	-12.1509
▁پتات	-12.151
▁تائید	-12.1511
▁تکنیکے	-12.1512
▁اشیء	-12.1513
▁پراہیں	-12.1514
چراگ	-12.1515
▁وہدئ	-12.1516
▁انکھیں	-12.152
▁بدئے۔	-12.1522
▁پؤجی	-12.1522
▁ٹیلیفون	-12.1524
▁سروکیءَ	-12.1525
▁پارلیمان	-12.153
▁ہیوم	-12.1532
▁حامل	-12.1533
▁جہلانک	-12.1535
nough	-12.1535
▁گزراں	-12.1539
▁روشناھی	-12.1539
▁مشکلانی	-12.1539
▁اکاؤنٹ	-12.1542
▁تجریدی	-12.1543
▁دھل	-12.1544
▁جیش	-12.1545
▁beginning	-12.1546
▁Wheeler	-12.1546
▁according	-12.1546
▁کلہے	-12.1546
▁شپانکے	-12.1547
▁hard	-12.1547
▁کہور	-12.1548
▁خدیجہ	-12.1548
▁اسامہ	-12.1549
▁رواں۔	-12.155
▁training	-12.1551
▁رجانکءِ	-12.1551
▁نریان	-12.1551
▁ادمءَ	-12.1552
▁ریسٹ	-12.1553
▁سعد	-12.1554
▁نادینگ	-12.1554
▁Histor	-12.1555
▁occurr	-12.1558
▁نوشگ	-12.1562
▁forest	-12.1562
▁عامیں	-12.1564
▁رنز	-12.1566
▁برسیت	-12.1568
▁بواں	-12.1568
▁راجمانءِ	-12.1569
بادشاہ	-12.1571
▁دوستیءِ	-12.1573
▁ایگا	-12.1573
این	-12.1573
illa	-12.1573
▁مبوتیں	-12.1578
▁مجازی	-12.1578
▁اشانء	-12.1579
▁پاسے	-12.158
▁بادی	-12.1581
▁دنتءُ	-12.1582
▁states	-12.1583
▁دنزے	-12.1584
▁مجلساں	-12.1585
▁دمگءَ	-12.1585
▁ازمود	-12.1586
▁ٹھ	-12.1586
اچہ	-12.1589
▁food	-12.1589
▁شانزدھمی	-12.1589
▁2002	-12.1589
▁gold	-12.1589
▁هرچ	-12.1589
▁شئیرءَ	-12.159
▁هیران	-12.159
رءَ	-12.1591
▁کستءُ	-12.1592
▁جٹ	-12.1593
▁کنائینتگ۔	-12.1597
▁بیٹنگ	-12.1597
ney	-12.1598
▁دوشیگیں	-12.1598
پرچہ	-12.1599
▁رجانکارءَ	-12.16
▁عذابے	-12.1601
▁بندگءَ	-12.1602
▁resident	-12.1603
▁names	-12.1604
▁اندیمیں	-12.1604
▁ٹونی	-12.1605
▁سیاھک	-12.1605
براس	-12.1606
▁پریم	-12.1607
▁نہادی	-12.1607
▁وجودءِ	-12.1609
انہی	-12.1612
▁charge	-12.1612
▁نکنت۔	-12.1613
▁ریپ	-12.1613
▁سابر	-12.1614
▁compar	-12.1616
▁نفی	-12.1621
▁یکدمے	-12.1623
▁شکون	-12.1626
▁گردینت	-12.1628
▁پیٹر	-12.163
▁port	-12.1631
stein	-12.1632
▁Film	-12.1632
▁daughter	-12.1633
▁پھریزی	-12.1634
▁خدابخش	-12.1634
▁ڈرگ	-12.1634
▁ایوارڈ	-12.1635
99	-12.1635
▁روانہ	-12.1635
▁لکھتے	-12.1636
کئی	-12.1636
▁العین	-12.1636
▁کیچءَ	-12.1636
▁کرداراں	-12.1637
▁غلطی	-12.1637
ter	-12.1638
▁بوتگ۔ائی	-12.1638
▁ازگر	-12.1638
▁للک	-12.1643
▁دلدوستیں	-12.1644
▁گوزنت	-12.1645
▁سہبءِ	-12.1648
▁مزاح	-12.1648
▁سوبینی	-12.165
▁سردارے	-12.165
▁جاکر	-12.1651
▁موڈ	-12.1652
▁جاگها	-12.1652
▁چمروک	-12.1654
▁گپے۔	-12.1656
▁بکر	-12.1656
▁قوماں	-12.1656
▁ہنرکاری	-12.1656
latter	-12.1656
▁بارام	-12.1658
▁نپت	-12.1659
▁انت۔ائیءَ	-12.166
▁بردار	-12.1661
▁اعتماد	-12.1661
▁مردہ	-12.1661
▁ریتکگ	-12.1661
▁بوئے	-12.1662
یگاں	-12.1662
▁مدیر	-12.1664
,,,	-12.1664
▁یورش	-12.1667
▁حکایت	-12.1667
ده	-12.1668
▁شاریءَ	-12.1669
وخیں	-12.167
▁مردار	-12.1671
▁کاه	-12.1672
▁شہریاں	-12.1673
▁زانتگیں	-12.1674
▁ٹکنالوجی	-12.1676
▁leg	-12.1677
▁نویسیت	-12.1679
▁fund	-12.168
▁منتقل	-12.168
▁چراہاں	-12.168
▁مہلونک	-12.1681
▁سلک	-12.1681
▁صلح	-12.1681
▁راجءُ	-12.1681
▁کلیدی	-12.1683
▁Jin	-12.1684
▁سئوت	-12.1685
▁کوٹھی	-12.1685
▁زوری	-12.1686
▁دوتل	-12.1686
▁ارگءِ	-12.1687
▁دوستگیں	-12.1687
▁نقاب	-12.169
▁ٹینکر	-12.169
▁ھالد	-12.169
▁friend	-12.1691
▁کئیا	-12.1693
▁ترسی	-12.1695
ایی	-12.1696
▁بہتی	-12.1699
▁مزارءِ	-12.1699
▁ہتھیار	-12.1699
نچێں	-12.1701
▁معناءَ	-12.1703
▁بولک	-12.1704
▁مانایے	-12.1704
▁هار	-12.1705
مہلوک	-12.171
▁فنکشن	-12.1711
▁کوکر	-12.1713
▁ارواه	-12.1713
▁ونت۔	-12.1717
کپتگ	-12.1718
▁کیز	-12.1719
▁battalion	-12.1719
▁کپتاں۔	-12.172
▁مضامین	-12.172
▁p	-12.172
▁ہومر	-12.1721
▁مالے	-12.1723
▁بشکن	-12.1725
ض	-12.1725
سیر	-12.1725
▁chose	-12.1725
▁تکے	-12.1726
▁بالادیں	-12.1727
▁سنگراں	-12.1728
▁عرش	-12.1728
▁خزانہ	-12.1729
▁رپورٹے	-12.1729
▁تاکءَ	-12.173
▁یکر	-12.1734
▁captur	-12.1734
▁گنگیں	-12.1736
▁لٹے	-12.1737
▁تاثیر	-12.1737
▁نسرالل	-12.1737
▁کھندگ	-12.1737
▁ثانی	-12.1737
▁لوذ	-12.1738
▁بامنءِ	-12.1739
▁شھدیں	-12.174
▁spen	-12.174
▁Awards	-12.1742
▁ائیارا	-12.1743
▁عنہا	-12.1743
▁زرین	-12.1743
ير	-12.1744
▁سریچک	-12.1748
▁مرادساحرءِ	-12.1749
▁گندنت	-12.1749
▁ارسطوءِ	-12.175
▁ٹا	-12.175
▁چراگانی	-12.1754
▁منج	-12.1755
▁چہرگ	-12.1757
▁میڑھ	-12.1757
▁گنوکاں	-12.1757
▁دزبمبے	-12.1758
▁مزنێں	-12.1758
▁گٹو	-12.1759
چمشانکے	-12.176
▁ہمیرنگ	-12.176
▁وپاداری	-12.1761
▁Catholic	-12.1763
▁اسٹوڈنس	-12.1763
▁coach	-12.1763
▁rate	-12.1763
۔وہدے	-12.1763
▁ہیلتھ	-12.1764
▁ٹریڈ	-12.1765
▁صورتحال	-12.1765
▁Force	-12.1765
[...]
