<pad>	0
<unk>	0
<s>	0
</s>	0
[CLS]	0
[SEP]	0
[MASK]	0
<0x00>	0
<0x01>	0
<0x02>	0
<0x03>	0
<0x04>	0
<0x05>	0
<0x06>	0
<0x07>	0
<0x08>	0
<0x09>	0
<0x0A>	0
<0x0B>	0
<0x0C>	0
<0x0D>	0
<0x0E>	0
<0x0F>	0
<0x10>	0
<0x11>	0
<0x12>	0
<0x13>	0
<0x14>	0
<0x15>	0
<0x16>	0
<0x17>	0
<0x18>	0
<0x19>	0
<0x1A>	0
<0x1B>	0
<0x1C>	0
<0x1D>	0
<0x1E>	0
<0x1F>	0
<0x20>	0
<0x21>	0
<0x22>	0
<0x23>	0
<0x24>	0
<0x25>	0
<0x26>	0
<0x27>	0
<0x28>	0
<0x29>	0
<0x2A>	0
<0x2B>	0
<0x2C>	0
<0x2D>	0
<0x2E>	0
<0x2F>	0
<0x30>	0
<0x31>	0
<0x32>	0
<0x33>	0
<0x34>	0
<0x35>	0
<0x36>	0
<0x37>	0
<0x38>	0
<0x39>	0
<0x3A>	0
<0x3B>	0
<0x3C>	0
<0x3D>	0
<0x3E>	0
<0x3F>	0
<0x40>	0
<0x41>	0
<0x42>	0
<0x43>	0
<0x44>	0
<0x45>	0
<0x46>	0
<0x47>	0
<0x48>	0
<0x49>	0
<0x4A>	0
<0x4B>	0
<0x4C>	0
<0x4D>	0
<0x4E>	0
<0x4F>	0
<0x50>	0
<0x51>	0
<0x52>	0
<0x53>	0
<0x54>	0
<0x55>	0
<0x56>	0
<0x57>	0
<0x58>	0
<0x59>	0
<0x5A>	0
<0x5B>	0
<0x5C>	0
<0x5D>	0
<0x5E>	0
<0x5F>	0
<0x60>	0
<0x61>	0
<0x62>	0
<0x63>	0
<0x64>	0
<0x65>	0
<0x66>	0
<0x67>	0
<0x68>	0
<0x69>	0
<0x6A>	0
<0x6B>	0
<0x6C>	0
<0x6D>	0
<0x6E>	0
<0x6F>	0
<0x70>	0
<0x71>	0
<0x72>	0
<0x73>	0
<0x74>	0
<0x75>	0
<0x76>	0
<0x77>	0
<0x78>	0
<0x79>	0
<0x7A>	0
<0x7B>	0
<0x7C>	0
<0x7D>	0
<0x7E>	0
<0x7F>	0
<0x80>	0
<0x81>	0
<0x82>	0
<0x83>	0
<0x84>	0
<0x85>	0
<0x86>	0
<0x87>	0
<0x88>	0
<0x89>	0
<0x8A>	0
<0x8B>	0
<0x8C>	0
<0x8D>	0
<0x8E>	0
<0x8F>	0
<0x90>	0
<0x91>	0
<0x92>	0
<0x93>	0
<0x94>	0
<0x95>	0
<0x96>	0
<0x97>	0
<0x98>	0
<0x99>	0
<0x9A>	0
<0x9B>	0
<0x9C>	0
<0x9D>	0
<0x9E>	0
<0x9F>	0
<0xA0>	0
<0xA1>	0
<0xA2>	0
<0xA3>	0
<0xA4>	0
<0xA5>	0
<0xA6>	0
<0xA7>	0
<0xA8>	0
<0xA9>	0
<0xAA>	0
<0xAB>	0
<0xAC>	0
<0xAD>	0
<0xAE>	0
<0xAF>	0
<0xB0>	0
<0xB1>	0
<0xB2>	0
<0xB3>	0
<0xB4>	0
<0xB5>	0
<0xB6>	0
<0xB7>	0
<0xB8>	0
<0xB9>	0
<0xBA>	0
<0xBB>	0
<0xBC>	0
<0xBD>	0
<0xBE>	0
<0xBF>	0
<0xC0>	0
<0xC1>	0
<0xC2>	0
<0xC3>	0
<0xC4>	0
<0xC5>	0
<0xC6>	0
<0xC7>	0
<0xC8>	0
<0xC9>	0
<0xCA>	0
<0xCB>	0
<0xCC>	0
<0xCD>	0
<0xCE>	0
<0xCF>	0
<0xD0>	0
<0xD1>	0
<0xD2>	0
<0xD3>	0
<0xD4>	0
<0xD5>	0
<0xD6>	0
<0xD7>	0
<0xD8>	0
<0xD9>	0
<0xDA>	0
<0xDB>	0
<0xDC>	0
<0xDD>	0
<0xDE>	0
<0xDF>	0
<0xE0>	0
<0xE1>	0
<0xE2>	0
<0xE3>	0
<0xE4>	0
<0xE5>	0
<0xE6>	0
<0xE7>	0
<0xE8>	0
<0xE9>	0
<0xEA>	0
<0xEB>	0
<0xEC>	0
<0xED>	0
<0xEE>	0
<0xEF>	0
<0xF0>	0
<0xF1>	0
<0xF2>	0
<0xF3>	0
<0xF4>	0
<0xF5>	0
<0xF6>	0
<0xF7>	0
<0xF8>	0
<0xF9>	0
<0xFA>	0
<0xFB>	0
<0xFC>	0
<0xFD>	0
<0xFE>	0
<0xFF>	0
▁ءَ	-3.05566
▁ءِ	-3.3822
▁ءُ	-3.65367
▁کہ	-4.09275
▁انت	-4.19147
,	-4.34325
▁ء	-4.7569
▁اے	-4.81936
▁ات	-4.91501
▁,	-4.96262
▁نہ	-4.99628
▁وتی	-5.04446
▁چہ	-5.14897
▁۔	-5.2262
▁من	-5.25232
▁	-5.27087
▁یک	-5.3183
▁ائی	-5.32629
ی	-5.36163
▁ا	-5.37213
▁انت۔	-5.42375
اں	-5.42936
ءِ	-5.45444
▁بیت	-5.46205
ءَ	-5.46542
▁کنگ	-5.51337
▁گوں	-5.5253
▁و	-5.52664
ے	-5.54023
انی	-5.55672
▁بہ	-5.56162
▁پہ	-5.56657
یں	-5.61569
▁(	-5.64185
▁:	-5.66525
▁سر	-5.76645
▁بلوچ	-5.83826
▁بوتگ	-5.84919
۔	-5.85866
▁)	-5.93195
▁.	-5.94901
ا	-5.97099
▁the	-5.97747
▁بلے	-6.01634
s	-6.02715
ءُ	-6.04758
▁منی	-6.05076
▁ئے	-6.055
▁کنت	-6.11895
▁ھم	-6.11979
▁تو	-6.12654
▁کتگ	-6.15772
▁بوت	-6.17473
▁بیتگ	-6.24077
▁کن	-6.25063
▁بے	-6.2574
)	-6.26672
▁مردم	-6.2721
▁ئ	-6.28276
.	-6.28368
▁ما	-6.29307
:	-6.29321
▁بلوچستان	-6.31113
▁تہ	-6.39922
▁تہا	-6.40913
▁دیم	-6.41046
▁ھمے	-6.42615
▁کار	-6.43288
▁یا	-6.43731
▁کت	-6.46822
ed	-6.46942
▁پد	-6.47161
▁"	-6.4765
▁بلوچی	-6.49141
▁مئے	-6.51313
▁دگہ	-6.51454
▁ہم	-6.53131
▁گپ	-6.5341
▁ات۔	-6.56427
▁’’	-6.57949
▁وت	-6.60083
▁روچ	-6.63202
▁گڑا	-6.64122
▁دو	-6.64287
▁تئی	-6.64438
▁دل	-6.66971
▁سرا	-6.67976
ان	-6.67986
▁of	-6.7047
▁نام	-6.73939
▁رد	-6.74494
ہ	-6.75704
▁کے	-6.77138
▁ایت	-6.80036
▁جنگ	-6.80599
▁کرتگ	-6.81617
▁and	-6.82192
▁بیت۔	-6.82268
▁زبان	-6.82458
▁بنت	-6.82832
▁پدا	-6.83206
▁پر	-6.84532
?	-6.85024
▁باز	-6.85443
▁ھما	-6.85582
▁را	-6.85893
▁بی	-6.87193
▁اگاں	-6.89091
▁گوشتگ	-6.8984
▁چو	-6.90416
▁بازیں	-6.90992
‘‘	-6.91342
▁ہما	-6.9139
▁دست	-6.93659
▁ہمے	-6.94076
▁ایشی	-6.94507
▁لوٹ	-6.96472
▁سے	-6.9754
▁کی	-6.97583
▁یے	-6.99177
ن	-6.99664
▁اں	-6.99767
▁ماں	-7.00297
▁in	-7.00834
ء	-7.01697
▁to	-7.03275
▁در	-7.03445
▁مہ	-7.04066
▁مردمانی	-7.06601
▁تہءَ	-7.07726
▁نیمگ	-7.078
▁میں	-7.09521
▁a	-7.1008
▁پاکستانی	-7.12243
▁ایں	-7.12814
▁چے	-7.12937
▁زند	-7.13294
ئے	-7.13325
▁جوڑ	-7.13889
▁ھال	-7.14535
▁کرت	-7.15358
(	-7.15876
▁دومی	-7.16609
▁زانت	-7.1707
▁دور	-7.17678
▁نبشتہ	-7.1799
▁وھد	-7.18045
▁اور	-7.18187
▁اس	-7.18276
ت	-7.18821
▁سک	-7.1886
▁ترا	-7.19132
▁دیگ	-7.19452
▁مزنیں	-7.20575
▁واجہ	-7.20643
▁گل	-7.213
▁پوج	-7.21448
▁‘‘	-7.21508
▁که	-7.22067
...	-7.22076
▁چار	-7.22187
▁بند	-7.22355
▁نوں	-7.22932
▁پیش	-7.23694
!	-7.24345
▁دات	-7.24918
▁داتگ	-7.24961
▁رند	-7.25902
▁ہر	-7.26133
و	-7.2736
گ	-7.27835
▁ایر	-7.28268
▁خان	-7.28576
ing	-7.28779
ئ	-7.28945
▁گیش	-7.3148
▁کنت۔	-7.31885
▁رنگ	-7.32507
▁دمگ	-7.33128
▁ھچ	-7.33487
▁کا	-7.33776
▁ھر	-7.33847
▁شنگ	-7.33922
ین	-7.34084
▁مردماں	-7.34273
▁شپ	-7.34412
▁سال	-7.3448
▁زانگ	-7.3479
▁￴	-7.3486
▁=	-7.35526
▁نوکیں	-7.3593
▁جان	-7.36299
▁اپ	-7.36598
▁ارش	-7.38265
▁کتاب	-7.3855
▁داں	-7.38665
▁گوشت	-7.39122
▁کس	-7.40178
▁مارا	-7.40756
▁کنان	-7.40985
▁اللہ	-7.4167
▁جست	-7.42412
▁راج	-7.43334
▁نیست	-7.43929
▁جاہ	-7.44576
▁راہ	-7.46195
▁میر	-7.46199
ک	-7.4662
▁بوتگ۔	-7.46658
▁اش	-7.46688
وں	-7.47438
▁گوش	-7.48243
▁وش	-7.48269
▁اوار	-7.48723
▁ایش	-7.49413
”	-7.49431
▁ہے	-7.4977
y	-7.50819
’’	-7.50989
▁او	-7.51087
▁کم	-7.51349
▁گوشگ	-7.52026
▁ھوار	-7.52096
▁لشکر	-7.52369
▁لوگ	-7.52576
▁گیشتر	-7.52832
▁سی	-7.52938
▁دنیا	-7.53151
▁توار	-7.53622
▁ایانی	-7.5399
▁کو	-7.54188
▁سرءَ	-7.55626
▁”	-7.56007
▁مان	-7.57017
▁اتگ	-7.58657
▁اولی	-7.58943
▁اوں	-7.59664
"	-7.59802
▁وڑ	-7.60586
▁'	-7.60889
▁گندگ	-7.61087
▁وھدے	-7.6231
▁کش	-7.62868
▁دار	-7.62905
▁چک	-7.64739
▁بیگواہ	-7.64759
▁جتگ	-7.64926
▁گوستگیں	-7.65157
▁“	-7.65242
▁دوست	-7.65417
▁یکے	-7.65738
▁چم	-7.65938
▁گ	-7.66462
▁گشت	-7.67386
▁بس	-7.67456
▁ائیءِ	-7.67583
▁بوگ	-7.68029
▁لبزانک	-7.68335
▁بزاں	-7.68697
▁was	-7.69476
نگ	-7.7009
▁ماہ	-7.70588
▁وڑیں	-7.71214
▁پاکستان	-7.71662
▁گشتگ	-7.71666
▁بلئے	-7.72412
▁بلکیں	-7.73159
▁گون	-7.73472
▁بن	-7.73654
▁چیزے	-7.73747
▁ن	-7.73817
@	-7.74034
▁دیما	-7.74061
▁زور	-7.74525
▁برجاہ	-7.74812
▁درشان	-7.74956
▁چیز	-7.74979
▁@	-7.75056
▁ھست	-7.75118
▁اچ	-7.75448
▁اتکگ	-7.75871
▁مردمے	-7.7628
نت	-7.7655
▁ابید	-7.77713
▁پشت	-7.779
▁وانگ	-7.78102
▁کر	-7.7856
▁مروچی	-7.78587
▁محمد	-7.78628
▁زمین	-7.79036
ائی	-7.79712
ات	-7.79865
▁تر	-7.80014
▁ان	-7.81276
▁شاعری	-7.81369
▁کسے	-7.81683
▁اتک	-7.82925
▁The	-7.83434
▁ملک	-7.83748
▁سرپد	-7.8377
▁شال	-7.83811
من	-7.83815
▁چشکہ	-7.83895
▁ازمانک	-7.83939
▁بدل	-7.8401
▁￵	-7.84192
▁ائرا	-7.84348
▁بیتگیں	-7.84456
▁بندات	-7.84681
▁سوب	-7.84844
▁مات	-7.85181
ر	-7.85181
▁ائیءَ	-7.85191
▁مراد	-7.852
▁شر	-7.85294
▁منا	-7.8551
▁سرجمیں	-7.85649
▁بیران	-7.85955
▁دی	-7.85974
م	-7.86059
▁دنت	-7.86206
▁مزن	-7.86412
▁پی	-7.86688
▁ڈاکٹر	-7.86717
▁پاد	-7.87723
▁مدام	-7.87838
▁زھرشانی	-7.88061
▁اتنت	-7.88096
▁راجی	-7.88179
▁ھیال	-7.88623
▁انگت	-7.88694
-	-7.88946
▁پچ	-7.89111
▁مرچی	-7.89517
▁دارگ	-7.89721
▁چست	-7.9042
▁بنت۔	-7.90515
▁دیوان	-7.9064
▁انسان	-7.91054
▁کناں	-7.91288
▁میان	-7.91297
▁کپتگ	-7.91521
▁واب	-7.91555
▁سیاسی	-7.91609
▁[...]	-7.91784
▁برے	-7.91995
▁انچیں	-7.92192
▁زر	-7.9259
▁است	-7.92768
▁ہچ	-7.93988
▁بوت۔	-7.94024
▁کشگ	-7.94242
▁این	-7.94269
▁حیال	-7.94302
▁کدی	-7.94462
▁نے	-7.94606
▁بر	-7.94668
▁پٹ	-7.95008
ly	-7.9503
▁شت	-7.95461
▁مرد	-7.95482
▁انچو	-7.95989
▁تاں	-7.9603
▁کسہ	-7.9688
ل	-7.97082
▁ئیں	-7.97277
ه	-7.97569
▁بہر	-7.97631
▁ادا	-7.97995
اے	-7.98232
▁بوتگیں	-7.98909
▁پت	-7.99466
▁رجانک	-7.99518
▁چی	-7.99531
▁کجام	-8.00535
▁گور	-8.00547
▁دروشم	-8.00921
▁سلاہ	-8.01054
▁شما	-8.01342
کہ	-8.01951
▁ملا	-8.01956
▁سبب	-8.02576
▁ایاں	-8.0298
▁کمک	-8.03282
▁دپ	-8.04001
▁کراچی	-8.04433
▁پرچا	-8.04993
▁جتا	-8.05507
▁جند	-8.05524
▁حال	-8.05534
‘	-8.05968
▁گار	-8.0652
▁جتائیں	-8.06582
▁پولیس	-8.07705
▁ایوک	-8.08305
▁گڈا	-8.0844
▁یل	-8.08472
▁اباد	-8.08496
▁تران	-8.08678
▁جارکش	-8.08749
▁سرجم	-8.08942
▁as	-8.08982
▁that	-8.09735
▁چه	-8.09797
▁چاگرد	-8.10086
▁مرگ	-8.1018
▁نا	-8.10245
یت	-8.10304
▁on	-8.10633
انت	-8.10646
▁ایشانی	-8.10772
▁بھر	-8.10945
▁with	-8.11275
▁پنچ	-8.11473
▁گاڑی	-8.12191
▁for	-8.1239
▁شھر	-8.12431
ں	-8.12923
▁کجا	-8.1303
▁اجوئی	-8.13686
▁?	-8.13699
▁بابت	-8.15239
▁چیر	-8.15417
e	-8.15492
▁کتگ۔	-8.15708
▁جن	-8.15911
▁شاہ	-8.15912
▁ایل	-8.16002
▁اسر	-8.16123
▁برتگ	-8.1613
ز	-8.16186
▁بیان	-8.1636
▁کیچ	-8.16888
▁پیسر	-8.1814
▁جت	-8.18262
▁نزیک	-8.18708
▁واستا	-8.19065
▁کرتگ۔	-8.19202
▁بیگ	-8.19321
▁کت۔	-8.19389
▁راست	-8.19433
▁کپ	-8.19744
▁ترس	-8.20092
▁الم	-8.20169
▁ایک	-8.20269
▁گر	-8.20352
▁انسانی	-8.20452
▁دراھیں	-8.20897
▁پجار	-8.22145
▁بیا	-8.22161
▁زندگ	-8.22236
س	-8.22299
▁سید	-8.22668
▁وہد	-8.22729
▁لیکہ	-8.23075
▁جنین	-8.23213
▁جھد	-8.23508
▁پوسٹ	-8.2363
▁بکن	-8.241
▁گشگ	-8.24323
▁سنگت	-8.24378
▁چون	-8.24436
▁کارمرز	-8.24491
▁میتگ	-8.24617
ش	-8.24665
▁!	-8.2473
▁by	-8.24743
▁روگ	-8.25569
▁ودی	-8.25638
▁زندگی	-8.26389
▁مہر	-8.26514
▁یات	-8.26962
▁برز	-8.27497
▁اتاں	-8.27517
▁پیم	-8.2752
▁بیست	-8.27948
▁چارگ	-8.27986
▁کپت	-8.28229
▁چریشی	-8.28316
▁درد	-8.28366
▁راستی	-8.28441
▁ڈی	-8.28499
▁اود	-8.28577
▁شہ	-8.28593
▁جہد	-8.28609
▁is	-8.28663
▁کیت	-8.28693
▁ٹی	-8.28937
▁ھاتر	-8.29085
▁گپت	-8.29374
▁گوادر	-8.2971
▁اہانی	-8.30006
۔۔۔	-8.30042
d	-8.30134
▁برات	-8.3051
▁زورانسری	-8.30645
▁بندیں	-8.3065
▁be	-8.30828
▁نشتگ	-8.31268
▁اشی	-8.31585
▁دوئیں	-8.32003
▁واری	-8.32161
▁ایم	-8.32186
▁ار	-8.3257
▁دیست	-8.32762
▁￶	-8.32838
▁ادم	-8.32942
▁کسانیں	-8.33011
▁نی	-8.33109
▁تیرگواری	-8.3352
▁وڑا	-8.3385
▁نشانگ	-8.34154
▁تب	-8.34393
▁تربت	-8.34604
▁زمانگ	-8.34865
▁پدر	-8.35055
▁چوش	-8.35248
▁ھالانی	-8.35284
▁درگت	-8.35695
“	-8.35696
▁شاعر	-8.36063
▁داد	-8.36196
▁مستریں	-8.36202
▁سد	-8.36334
▁تاوان	-8.36648
▁ھند	-8.36764
▁وئیل	-8.36959
▁شریں	-8.37381
▁برگ	-8.3769
▁په	-8.37814
▁منءَ	-8.37883
▁گرگ	-8.38006
▁وھدیکہ	-8.38379
▁’	-8.38831
▁کوہ	-8.39012
▁سما	-8.39315
’	-8.39534
▁جی	-8.39731
▁کساس	-8.39769
▁ساری	-8.39922
▁تک	-8.40142
▁ورنا	-8.40281
▁ہیں	-8.40498
▁جوانیں	-8.41171
▁اد	-8.41241
▁بیتگ۔	-8.41297
▁ے	-8.42099
▁ارگ	-8.42143
▁شعر	-8.42516
▁علی	-8.42534
▁سرکار	-8.42742
▁داریت	-8.42923
▁زمہ	-8.43274
▁ہے۔	-8.43432
▁کاری	-8.43817
▁زان	-8.43959
▁پل	-8.43987
▁وزیر	-8.44396
▁روان	-8.44433
▁جنت	-8.4459
▁کئے	-8.44731
▁جو	-8.44761
▁بلکنا	-8.44775
▁چاپ	-8.44955
▁وہدے	-8.45096
▁گپتگ	-8.4533
▁نبشتانک	-8.45471
▁پول	-8.45621
▁؂	-8.4566
▁اسلام	-8.4572
▁سردار	-8.45722
▁بازار	-8.4578
▁کنوکیں	-8.45838
▁ملکی	-8.45977
▁داشت	-8.46034
▁جنک	-8.46256
▁بد	-8.46395
▁دیر	-8.46664
▁شتگ	-8.4685
▁یہ	-8.46986
▁لچہ	-8.47314
نہ	-8.47334
▁هم	-8.47382
▁نیم	-8.47842
▁یلہ	-8.47911
▁بنی	-8.48158
▁ھبر	-8.48196
▁کل	-8.48594
▁چشیں	-8.48644
▁گران	-8.48727
▁ورگ	-8.48736
▁زرتگ	-8.4876
▁تا	-8.49112
▁کارے	-8.49259
▁سیادی	-8.49449
▁رو	-8.49506
▁زاناں	-8.49567
▁دلگوش	-8.49588
▁نوک	-8.49763
یا	-8.5008
▁چاگردی	-8.50346
▁شیر	-8.50756
▁بھی	-8.5107
د	-8.51402
▁ناں	-8.51489
▁گڈی	-8.52068
▁کتگیں	-8.52095
▁جاگہ	-8.52261
▁اھانی	-8.52281
▁ایس	-8.52292
▁جیڑہ	-8.52314
▁تھا	-8.5258
▁روچے	-8.5269
▁ایت۔	-8.52907
▁اردو	-8.52928
▁شش	-8.53094
▁سرمچاراں	-8.53121
▁کاروان	-8.53256
▁بو	-8.53347
ار	-8.53861
▁گمان	-8.53883
▁بوھگ	-8.54016
▁ازم	-8.54158
▁لس	-8.54176
▁دگ	-8.54225
▁زندءِ	-8.54262
▁مارشت	-8.54295
▁رس	-8.54437
▁کور	-8.5456
▁وار	-8.5466
▁گس	-8.54906
▁ھمک	-8.55009
▁کرتگیں	-8.55177
▁ٹپی	-8.5518
چہ	-8.55218
یک	-8.55286
▁from	-8.55548
▁ھمیش	-8.55678
▁پس	-8.55706
▁وہ	-8.5585
▁ت	-8.55936
▁بچار	-8.56084
▁نیمگا	-8.56098
▁راجدپتر	-8.56277
▁زہرشانی	-8.5637
▁کھول	-8.5639
▁ایران	-8.56542
▁کرد	-8.57248
▁لبز	-8.57348
▁سروک	-8.57738
▁تاک	-8.57796
ب	-8.57809
▁ھلاپ	-8.58003
▁بار	-8.58141
▁درا	-8.58174
▁ھاترا	-8.58272
▁ایرانی	-8.58276
▁گال	-8.58497
▁گش	-8.58932
▁اہاں	-8.59085
▁دژمن	-8.59153
▁گند	-8.5956
▁چماں	-8.59589
▁اماچ	-8.59957
▁مھلوک	-8.60196
▁ال	-8.60241
▁کٹ	-8.60545
▁گورا	-8.60827
▁لہتیں	-8.60856
وتی	-8.61082
▁دہ	-8.61177
▁باریں	-8.6125
▁کوش	-8.61355
▁his	-8.61461
▁بوان	-8.61528
▁کنیں	-8.61531
▁لوٹیت	-8.61532
▁ڈن	-8.61586
▁دیستگ	-8.61613
▁گوات	-8.61877
بلے	-8.62451
▁ھلاس	-8.62484
نا	-8.63047
▁at	-8.63098
▁احمد	-8.63137
▁جاور	-8.63825
▁پسو	-8.63907
سر	-8.64237
▁بنجاھی	-8.64248
▁دئیگ	-8.64338
▁مال	-8.64426
▁درست	-8.64955
تو	-8.65064
▁م	-8.65261
▁نیام	-8.65442
▁لٹ	-8.65769
▁دزگیر	-8.65981
▁لگ	-8.66575
▁ہوار	-8.6658
▁پنجگور	-8.66627
▁الله	-8.6688
▁رسول	-8.67062
......	-8.6753
▁شہر	-8.67642
▁زوت	-8.68023
▁ساہ	-8.68247
▁کلات	-8.68262
▁زدگ	-8.68507
▁جون	-8.68574
al	-8.68795
▁لبزانکی	-8.68973
▁دیمءَ	-8.69545
▁کشتگ	-8.6958
ما	-8.69691
t	-8.69707
▁ایشاں	-8.69865
▁ریاست	-8.69926
▁واستہ	-8.70053
غ	-8.70358
▁کمیٹی	-8.70391
▁جہل	-8.70458
▁بگیری	-8.70588
▁بیگواھیں	-8.70677
▁علم	-8.71058
▁بال	-8.71067
▁کوئٹہ	-8.71239
سگ	-8.71491
;	-8.71506
▁باں	-8.71983
▁مہلوک	-8.72111
▁عمل	-8.72272
▁وھدی	-8.72812
er	-8.7302
▁کچ	-8.73189
▁ک	-8.73306
نی	-8.73307
پہ	-8.73326
▁بخش	-8.73435
▁وتا	-8.73517
..	-8.73796
▁بندی	-8.73815
▁ٹک	-8.73936
▁لبریش	-8.74093
▁عمر	-8.7431
▁یکیں	-8.74349
▁چوں	-8.75237
▁were	-8.75333
▁گپے	-8.75354
▁بنجل	-8.75528
▁نودربر	-8.75863
▁تیر	-8.76117
▁بلوچانی	-8.76162
▁توک	-8.76206
▁بچ	-8.76661
▁بکنت	-8.773
▁ایدگہ	-8.7744
▁ہو	-8.77462
▁بات	-8.77588
▁کشی	-8.77914
▁گیر	-8.77954
▁نہیں	-8.77975
▁قوم	-8.78036
منی	-8.78255
▁حکومت	-8.7827
▁پیداک	-8.783
▁جار	-8.78335
▁وشی	-8.78627
▁تچک	-8.78778
▁لاش	-8.78785
▁ردءَ	-8.7879
▁زالبول	-8.78864
▁روچاں	-8.78875
▁سنگ	-8.78991
▁تاکدیم	-8.79092
▁المی	-8.79228
▁داشتگ	-8.79284
▁رنگیں	-8.79387
▁نه	-8.79439
▁ساحر	-8.79472
▁it	-8.79591
▁بل	-8.79605
▁استاد	-8.79642
▁پمیشا	-8.80166
▁پیر	-8.80221
▁زرت	-8.80249
▁‘	-8.80343
ری	-8.8057
▁زوراکی	-8.80574
▁سیاہ	-8.80753
کار	-8.80907
ال	-8.8092
▁رسانکدر	-8.81029
▁دے	-8.81041
▁نند	-8.81047
▁ازات	-8.81122
▁شھید	-8.81405
▁دمگاں	-8.81645
ٹ	-8.82064
▁سیاست	-8.82129
▁وتءَ	-8.82134
▁ناشناسیں	-8.82578
▁ایف	-8.82587
▁مھر	-8.827
▁ھدا	-8.82745
▁کاراں	-8.83151
▁گچین	-8.83258
▁روت	-8.83436
▁سرکاری	-8.83541
کی	-8.83681
▁مار	-8.83698
▁فلسفہ	-8.83737
▁اھاں	-8.8405
▁سئے	-8.84161
▁دمگی	-8.84276
▁شری	-8.84818
▁کہول	-8.84838
▁پمیشکا	-8.84958
▁روکپتی	-8.8497
▁کنگی	-8.8531
▁چپ	-8.85316
▁درستیں	-8.8538
▁امیت	-8.85437
▁اودا	-8.85512
▁سفر	-8.85725
▁کئیت	-8.85766
▁چمانی	-8.85806
▁صاحب	-8.85848
▁باسک	-8.85917
▁حق	-8.86015
▁بستگ	-8.86065
▁کارانی	-8.86094
تگ	-8.86288
▁مکران	-8.86432
▁ڈول	-8.86453
▁""	-8.86459
▁ئی	-8.86472
▁انی	-8.86554
▁گدار	-8.86605
▁اشانی	-8.8666
▁ھور	-8.86682
بہ	-8.8673
▁ھزار	-8.86957
▁وسلم	-8.87043
وک	-8.87134
▁تاریخ	-8.87176
▁چش	-8.87559
▁د	-8.87754
▁چیا	-8.87763
▁چل	-8.87801
▁کیا	-8.87966
بلوچی	-8.8803
▁In	-8.88092
▁درائیں	-8.88172
▁سرپدی	-8.88314
n	-8.88363
▁درور	-8.88625
▁پیلو	-8.88694
▁دانکہ	-8.8871
▁مچ	-8.88762
▁ہند	-8.88926
▁زورگ	-8.88985
▁پروش	-8.89096
▁بزانت	-8.89108
▁مند	-8.89206
▁شائری	-8.89272
▁شمئے	-8.89305
ج	-8.8962
▁دوستی	-8.89652
▁حدا	-8.89881
▁دم	-8.90009
▁شوھاز	-8.90094
▁ہست	-8.90102
▁اکیڈمی	-8.90291
▁پریس	-8.90303
▁دود	-8.9034
▁an	-8.90636
....	-8.9067
▁زھگ	-8.90677
▁he	-8.90898
▁کسان	-8.90923
زورگریں	-8.90948
▁ر	-8.90982
▁دین	-8.91072
▁ئے۔	-8.91135
▁تہنا	-8.91157
▁واھگ	-8.91255
ون	-8.91317
es	-8.91386
▁ایگ	-8.91621
دار	-8.91683
▁واتر	-8.91847
▁۔۔۔	-8.92343
▁وارت	-8.92366
▁گم	-8.92368
تہ	-8.92419
▁بنا	-8.92427
▁مری	-8.92441
ێں	-8.92447
▁مٹ	-8.92626
▁بانک	-8.92723
▁اف	-8.92806
▁مچی	-8.92903
▁چیریں	-8.92968
▁کنوک	-8.93056
▁نیمگءَ	-8.93199
▁کسی	-8.93221
▁گشیت	-8.93389
▁ہی	-8.93445
▁ھساب	-8.93527
▁نشان	-8.93544
▁نسبت	-8.93729
ڈ	-8.93967
▁وشیں	-8.93998
▁گوست	-8.94141
▁کننت	-8.94415
▁اتنت۔	-8.94569
▁گیشیں	-8.94645
پ	-8.9469
▁نان	-8.94892
▁پگر	-8.94894
▁سپر	-8.94974
▁بگر	-8.95098
▁لاپ	-8.95284
▁معنا	-8.95465
▁حساب	-8.95541
▁مانا	-8.95576
▁به	-8.95577
▁نبشتگ	-8.95642
▁برت	-8.9581
▁ٹولی	-8.95934
▁بگٹی	-8.96078
▁س	-8.96187
▁بیڑ	-8.96208
ھ	-8.96335
▁حبر	-8.96565
▁گوازی	-8.96702
گوں	-8.96714
▁ارمی	-8.96852
▁تانکہ	-8.96957
▁ارزشت	-8.97
▁پکر	-8.97188
▁جنان	-8.97209
▁بوئگ	-8.97348
گی	-8.98112
▁بندوک	-8.98465
▁کماش	-8.99
▁کنئگ	-8.99046
▁دیمروئی	-8.99416
▁استمانی	-8.99553
▁ادب	-8.99825
▁ہمیش	-8.99944
▁had	-9.0004
▁ادارہ	-9.00084
▁فاضل	-9.00207
th	-9.00275
▁گٹ	-9.0034
▁چونیں	-9.00467
▁کشت	-9.0059
▁ہ	-9.00647
▁ازمان	-9.00887
▁حمل	-9.01097
▁قصہ	-9.01204
▁چوشیں	-9.01274
▁ہمک	-9.01385
▁سیمی	-9.01883
▁بنیاد	-9.0191
▁;	-9.02514
▁مرتگ	-9.02717
▁پارٹی	-9.02783
▁انچش	-9.03002
▁هما	-9.03061
▁باروا	-9.03102
▁برجم	-9.03236
▁which	-9.0332
▁نشت	-9.03349
▁قاضی	-9.03373
▁درستاں	-9.0339
▁کنگا	-9.03415
می	-9.03509
▁چاران	-9.03748
▁دستونک	-9.03767
▁نظام	-9.03806
بے	-9.04167
▁دیان	-9.04426
▁ناز	-9.04464
▁ردا	-9.04554
▁کارمند	-9.04692
▁بمب	-9.04716
▁ادءَ	-9.05103
▁ھشت	-9.05278
▁سیر	-9.05299
▁دلءَ	-9.05372
▁نندانک	-9.05673
▁ی	-9.05793
▁روک	-9.05807
▁دز	-9.05883
▁بادشاہ	-9.05941
▁اھت	-9.05976
▁رستگ	-9.06202
▁گپاں	-9.06367
▁میار	-9.0644
▁هر	-9.06468
▁تراک	-9.06607
▁فارسی	-9.06701
ێن	-9.06717
▁تاب	-9.06827
▁سنگتاں	-9.06898
▁دنت۔	-9.06906
▁دمان	-9.06907
▁دراج	-9.07059
▁باور	-9.07083
▁شک	-9.07094
بی	-9.0741
▁وانوک	-9.07568
▁غلام	-9.07789
نت۔	-9.07978
▁ساڑی	-9.0798
▁بیگواہیں	-9.08056
▁منت	-9.08403
▁ایں۔	-9.08441
▁ہیں۔	-9.08499
▁حسین	-9.085
ئی	-9.08731
▁دری	-9.08759
▁یکجاہ	-9.08764
▁شرگداری	-9.08822
▁دروازگ	-9.09001
▁پیدا	-9.09024
▁نامیں	-9.09396
▁میجر	-9.09485
وکیں	-9.09541
▁صل	-9.09544
▁مکن	-9.09743
▁بوتیں	-9.09791
▁وسیلہ	-9.09843
▁چاکر	-9.09979
▁درچک	-9.10138
▁جنی	-9.10286
▁کنگءَ	-9.10594
▁دراہ	-9.10655
▁کرا	-9.10721
st	-9.10766
▁نندوک	-9.10812
ف	-9.1097
▁بئے	-9.11027
▁A	-9.11095
تی	-9.11139
▁ساز	-9.11205
▁بستار	-9.11273
▁همے	-9.11416
▁یار	-9.11465
▁جھمنند	-9.11665
▁عکس	-9.11719
ئیں	-9.11763
▁رنگے	-9.11893
▁ناکو	-9.12041
▁نور	-9.12148
▁کپیت	-9.1221
ق	-9.12537
▁حسن	-9.12691
▁با	-9.12805
▁ھو	-9.12846
▁ایان	-9.1296
▁کمے	-9.1299
تر	-9.13089
▁نادراہ	-9.13188
▁عليه	-9.13246
▁سلامتی	-9.13276
▁اڈ	-9.13342
▁لھتے	-9.13377
▁چینل	-9.13402
▁بندگ	-9.13613
▁ازاتی	-9.13744
▁شئیر	-9.13791
▁باید	-9.13837
▁سوار	-9.14123
▁منزل	-9.14218
▁دات۔	-9.14479
▁اکس	-9.14558
▁وڑے	-9.14598
▁ب	-9.14651
نے	-9.14756
▁چین	-9.14817
▁پڑ	-9.14855
▁گام	-9.14869
▁نو	-9.15088
ع	-9.1522
▁ودار	-9.15298
▁وس	-9.15563
▁داری	-9.15719
▁ہزار	-9.15726
▁تیاب	-9.15756
▁برو	-9.15844
▁یونیورسٹی	-9.15922
▁جنگی	-9.16028
▁شاد	-9.16352
▁کارست	-9.16551
▁بکش	-9.16624
▁دراجیں	-9.16638
▁انگریزی	-9.16836
▁ھمراہ	-9.16901
▁اجو	-9.16941
▁جاھے	-9.16974
▁19	-9.17006
▁اثر	-9.17084
▁ڈیھ	-9.17412
▁دریا	-9.17472
ور	-9.17609
▁مں	-9.17677
انءِ	-9.17822
▁موسم	-9.17956
دو	-9.18312
▁بونگ	-9.18316
▁بیرم	-9.1869
▁اندر	-9.18783
یگ	-9.18841
▁بست	-9.18882
▁اب	-9.18896
l	-9.19132
...!	-9.19135
▁are	-9.19173
▁رامین	-9.19179
▁وتارا	-9.19517
▁جنز	-9.19645
▁پاک	-9.19875
▁امریکہ	-9.19923
▁نیکہ	-9.2007
▁ایشیءِ	-9.20096
▁بیگاہ	-9.20124
▁تریں	-9.20228
بلوچ	-9.20275
▁داتگ۔	-9.20284
خ	-9.20303
▁ڈگار	-9.20504
▁نادراھی	-9.20507
▁پرس	-9.206
▁بنداتی	-9.20919
▁ترندیں	-9.21026
▁منیر	-9.21034
▁گوشیت	-9.21159
▁ھپت	-9.21278
▁سندھ	-9.21284
▁٭	-9.21333
▁کوٹی	-9.21383
▁بنگپ	-9.21383
▁اسکول	-9.21392
▁سکیں	-9.21413
▁بندیگ	-9.21446
▁جواب	-9.21466
▁لوٹاں	-9.21513
▁مول	-9.21531
▁پرچے	-9.21534
▁درچ	-9.21595
▁جہان	-9.2167
▁رھبند	-9.2181
▁منگ	-9.21843
▁پیما	-9.21952
ھم	-9.22017
▁شائر	-9.22022
▁پسہ	-9.22155
▁ویل	-9.2224
▁تکنیک	-9.2226
▁کرت۔	-9.22538
▁دنیاءِ	-9.22891
▁کتہ	-9.22979
▁خدا	-9.23055
▁لھتیں	-9.23064
▁بدن	-9.23309
▁اپنے	-9.23423
▁بدلی	-9.23427
▁ناول	-9.23548
▁مبارک	-9.23569
▁ندارگ	-9.23592
▁دیمروی	-9.23604
پر	-9.23638
▁اکبر	-9.23849
▁فکر	-9.23909
▁چٹ	-9.2404
▁زرد	-9.24114
▁اول	-9.24169
▁سوج	-9.24296
▁جوان	-9.24354
اس	-9.24357
▁مھمد	-9.24382
▁پوجی	-9.24506
▁شمبے	-9.24583
▁بارو	-9.2478
▁مراگش	-9.24946
▁اں۔	-9.25057
▁فیصلہ	-9.25109
▁بنکی	-9.25342
تا	-9.25429
بر	-9.25452
▁ارس	-9.25568
ح	-9.25873
▁داتگیں	-9.25911
▁مردے	-9.2603
▁ایشرا	-9.26141
▁ریاستی	-9.26259
▁نصیر	-9.26414
▁نمدی	-9.26469
▁تھنا	-9.26637
▁خیال	-9.26654
▁مالی	-9.26771
▁نماز	-9.26775
▁کچے	-9.26896
▁جاھاں	-9.26909
▁وجود	-9.26924
▁اوشتاتگ	-9.2696
اد	-9.26966
▁گامگیج	-9.27045
▁ھون	-9.27321
▁اگر	-9.27521
▁گوشاں	-9.27593
▁پاس	-9.27601
▁ای	-9.27698
▁کلب	-9.27843
▁داب	-9.27921
?‘‘	-9.28026
▁تیار	-9.28038
▁عزت	-9.28288
▁راستیں	-9.28358
کے	-9.28574
▁کاروبار	-9.28654
اپ	-9.28676
▁پیمیں	-9.28721
▁صورت	-9.28772
▁کشک	-9.2879
▁کاینت	-9.2885
▁ئیگ	-9.28884
در	-9.2903
▁گنگ	-9.29056
▁وان	-9.29123
▁مئی	-9.29325
▁اودءَ	-9.2936
▁ہور	-9.29516
▁مر	-9.29573
▁گیشتریں	-9.29718
▁تل	-9.29719
▁انچوش	-9.29743
▁دستاں	-9.29989
گیں	-9.29998
▁ماس	-9.30067
۔۔۔۔	-9.3017
▁کریم	-9.302
▁قومی	-9.30207
ےءَ	-9.30221
▁نیشنل	-9.30398
▁کلیں	-9.30524
▁البت	-9.30622
▁از	-9.30634
▁نز	-9.30679
▁بالی	-9.30725
▁اصل	-9.31032
یہ	-9.31036
▁میل	-9.31046
▁زیر	-9.31238
▁ستک	-9.31494
▁سائنس	-9.3162
▁لیب	-9.31636
▁جندءِ	-9.31643
▁ببیت	-9.31684
▁گشئے	-9.31898
لی	-9.31914
▁دپتر	-9.32042
o	-9.32234
▁بوہگ	-9.32255
▁بہا	-9.32262
▁غم	-9.32331
▁ارواہ	-9.32385
▁یاد	-9.32725
▁شمارا	-9.32728
را	-9.32803
▁their	-9.32833
دی	-9.33204
▁نبیسگ	-9.33243
▁but	-9.33389
▁لہتے	-9.33437
▁درشانی	-9.33452
اب	-9.33453
▁عطا	-9.33505
▁شہید	-9.33574
▁بچک	-9.33576
▁امر	-9.33591
▁اڑ	-9.33598
سی	-9.33647
بند	-9.3371
▁......	-9.3385
▁not	-9.33933
▁تالان	-9.33963
▁کیس	-9.33972
ھی	-9.34022
کا	-9.34032
▁دئے	-9.34061
▁شاری	-9.34157
▁سہب	-9.34237
▁مدت	-9.34367
وت	-9.34397
▁جھان	-9.34603
▁ایپ	-9.34893
▁ھک	-9.34902
▁ارام	-9.34925
‘‘(	-9.3495
▁زانتکار	-9.35037
▁مارچ	-9.35281
▁گلام	-9.35298
▁گوستگ	-9.35802
ائیں	-9.3583
▁نسل	-9.35832
▁کوھنیں	-9.35899
▁سند	-9.35901
▁درمان	-9.35925
▁ازاد	-9.35972
a	-9.36135
▁first	-9.36152
▁وائس	-9.36287
▁بگیر	-9.36318
▁تنے	-9.36344
▁پھر	-9.36358
▁مولانا	-9.36462
▁دروگ	-9.36636
▁نیست۔	-9.36858
▁ل	-9.36938
▁سھب	-9.36973
▁چیزانی	-9.37015
▁ربیدگ	-9.37038
▁رسیت	-9.37047
▁سیل	-9.37195
انت۔	-9.3729
▁مستونگ	-9.37501
▁تی	-9.37644
▁درشانے	-9.37774
▁ور	-9.37827
▁بامن	-9.37946
▁کردار	-9.3803
▁باندا	-9.38345
▁مثال	-9.3839
▁کئی	-9.38424
▁روزگار	-9.38463
▁S	-9.38484
▁ھب	-9.386
▁ساچشت	-9.38731
▁پرچاکہ	-9.38783
▁ردوم	-9.38848
▁باندات	-9.38939
چ	-9.38947
▁امیدگس	-9.3912
ies	-9.39137
▁سزا	-9.39221
▁تن	-9.3924
▁or	-9.39351
▁نامداریں	-9.39352
▁اشاں	-9.3947
رو	-9.39497
▁وی	-9.39627
▁پتر	-9.39664
▁F	-9.39676
▁رپورٹ	-9.39718
▁امان	-9.40258
▁شکار	-9.40411
▁چوکہ	-9.40418
▁نمبر	-9.40434
▁ھکانی	-9.40441
▁گو	-9.40499
کو	-9.40622
▁تمپ	-9.40823
▁عربی	-9.40944
▁چھاپ	-9.41016
▁ھمراھی	-9.41154
▁سرمایہ	-9.41167
▁گد	-9.41203
▁زال	-9.41278
▁شے	-9.41474
واجہ	-9.41698
یے	-9.41748
▁رست	-9.41759
▁گرم	-9.41824
▁کارندہ	-9.41857
▁her	-9.41883
▁پیسلہ	-9.41942
▁جس	-9.41993
▁جوانی	-9.42009
▁ندر	-9.42122
▁بارت	-9.42284
▁ذات	-9.42375
▁ماہی	-9.42553
▁...	-9.42649
▁شور	-9.42663
▁کمیں	-9.42708
▁بابتءَ	-9.42741
▁پدءَ	-9.4276
بلوچستان	-9.42777
جی	-9.42885
▁جانی	-9.42946
also	-9.43042
▁اھتگ	-9.43115
▁ھرچ	-9.43137
▁چاریں	-9.43146
▁چراگ	-9.43191
▁ادبی	-9.43226
▁ونتگ	-9.43356
دل	-9.4345
▁تنی	-9.43492
▁اھوالانی	-9.43555
▁ترقی	-9.43688
▁انکہ	-9.43778
▁بوتاں	-9.43836
▁نواب	-9.43998
▁زہر	-9.4403
▁انکس	-9.4403
▁مالیات	-9.44084
▁تها	-9.44188
▁I	-9.44217
▁its	-9.4434
▁بوتنت	-9.44466
▁دشت	-9.44571
ص	-9.4458
r	-9.44628
▁سور	-9.44665
▁ہلاس	-9.44684
▁ائے	-9.44819
▁بالاد	-9.44916
▁کنگءِ	-9.44942
▁زلم	-9.45203
▁جا	-9.45258
▁کپگ	-9.45446
▁زہگ	-9.45492
▁فار	-9.45695
ے۔	-9.45804
▁زانتگ	-9.46173
▁گڈ	-9.46174
▁سگ	-9.46214
▁وارتگ	-9.4624
▁دراہیں	-9.46245
▁ارا	-9.4638
▁دیمتر	-9.46447
▁بت	-9.4651
▁بیگواہی	-9.46559
▁کچک	-9.46559
یءِ	-9.46668
▁سازی	-9.46707
▁بیار	-9.46791
▁مزار	-9.46839
▁نظر	-9.46896
▁نزور	-9.46998
▁رب	-9.47057
▁بنگیج	-9.4718
▁مست	-9.47212
یءَ	-9.47249
▁اپنی	-9.47338
▁نھ	-9.47813
▁کلدار	-9.47861
▁پرچہ	-9.47921
▁ساھت	-9.47952
▁گراں	-9.47968
▁کمو	-9.47982
▁مشکل	-9.48115
ول	-9.48241
ھو	-9.48278
▁گیس	-9.48316
▁نامی	-9.48426
▁جاورانی	-9.48472
▁ش	-9.48499
▁تنگ	-9.4861
in	-9.48614
▁زندمان	-9.48939
▁ہمراہ	-9.49023
وا	-9.49081
▁He	-9.49102
▁گرد	-9.49141
▁گیشی	-9.49222
▁جنجال	-9.49222
▁دان	-9.49584
ام	-9.49609
▁سا	-9.49616
▁جاوراں	-9.49618
▁سالی	-9.49705
▁رھشون	-9.49855
▁تامر	-9.49907
▁وھداں	-9.50014
چو	-9.50032
▁مرید	-9.50298
▁اواران	-9.50343
▁جم	-9.50499
▁سلام	-9.50663
▁have	-9.50675
▁ماما	-9.50692
▁ارمان	-9.50729
▁بولان	-9.50821
▁کمی	-9.50898
بیت	-9.50957
▁لا	-9.51096
▁جیڑگ	-9.51142
▁طرح	-9.51417
▁شعری	-9.51445
ند	-9.51487
ڑ	-9.51526
▁چیزاں	-9.51567
▁لیکن	-9.5159
▁one	-9.51648
▁زبانانی	-9.51702
▁رواں	-9.51776
▁پ	-9.51791
▁واک	-9.51804
▁زی	-9.51897
▁جیڑ	-9.51935
۔۔	-9.52008
▁جنگل	-9.52065
▁لک	-9.52076
▁بان	-9.52259
▁ٹکر	-9.52263
▁پری	-9.52462
▁عرب	-9.52504
ھر	-9.52518
▁دیاں	-9.52542
کنگ	-9.52756
▁رواج	-9.52852
تئی	-9.52884
▁ساھگ	-9.52973
شت	-9.53079
▁ورنایے	-9.53114
▁زاھدان	-9.53136
▁جوڈ	-9.53195
▁بزان	-9.53246
▁وھدءَ	-9.53257
▁کنڈ	-9.53321
▁بنشون	-9.53354
▁عشق	-9.53379
▁رسانک	-9.53381
▁بہرے	-9.53417
▁مڈی	-9.53438
▁رندا	-9.53497
▁مسنگ	-9.53499
▁has	-9.53521
یاں	-9.53606
▁عقل	-9.53657
▁اگں	-9.53658
▁شد	-9.53762
▁اسراتی	-9.53763
▁دکان	-9.54121
کس	-9.54149
▁چنچو	-9.54163
▁ترند	-9.54193
▁زھر	-9.54344
▁اھوالکار	-9.54454
▁ج	-9.54485
▁نویس	-9.54557
▁تلگرام	-9.54592
انہ	-9.54612
▁نودربرانی	-9.54733
ھمے	-9.54755
▁یکشل	-9.54876
▁1	-9.54923
▁اگست	-9.55025
▁نئے	-9.55026
▁مینگل	-9.5514
▁کاگد	-9.55337
▁سبز	-9.55454
▁مرک	-9.55631
▁ترک	-9.55652
▁ایندگہ	-9.55657
▁رہبند	-9.55704
▁پرائی	-9.55755
▁دلءِ	-9.55912
▁تہر	-9.5596
▁پمشکا	-9.55964
▁۔اے	-9.56092
▁شان	-9.56113
▁لال	-9.56242
کن	-9.56278
▁چوکی	-9.56327
▁کسانی	-9.56379
▁ڈیرہ	-9.56569
▁been	-9.56572
▁روانک	-9.56605
▁چاہ	-9.56664
▁ھرکس	-9.56708
ہم	-9.56742
▁نصیب	-9.56767
مہ	-9.56784
▁نندگ	-9.56834
▁two	-9.57046
▁شام	-9.57103
▁بالاچ	-9.57136
▁دشتی	-9.57179
▁گنوک	-9.57345
▁عبداللہ	-9.57469
▁مہمان	-9.57472
▁منوک	-9.5752
▁دعا	-9.57572
▁گپانی	-9.5758
▁سرجمی	-9.57592
▁جنرل	-9.57722
▁چکاس	-9.57743
▁دستءَ	-9.5778
▁چنت	-9.57793
▁who	-9.57849
▁ارشانی	-9.57903
▁سامان	-9.57904
▁تباہ	-9.5793
یناں	-9.57968
▁برزی	-9.57979
▁مستر	-9.58015
▁گنداں	-9.58029
▁وطن	-9.5803
▁سہ	-9.58082
▁لاچار	-9.58117
▁زوریں	-9.58256
▁هچ	-9.58345
▁مجید	-9.58389
▁پاھو	-9.58451
▁گوزگ	-9.58468
▁زندءَ	-9.58704
▁کنئے	-9.58718
▁اوتی	-9.58724
▁داستان	-9.58813
گا	-9.58836
▁خبر	-9.58936
▁بلکہ	-9.58983
▁ھواریں	-9.5899
▁لئے	-9.59239
▁ز	-9.59483
▁شکل	-9.5949
▁کالج	-9.595
▁اسے	-9.59515
▁گشنت	-9.59557
ےءِ	-9.59581
▁اخر	-9.59595
تگیں	-9.59634
▁شکر	-9.59702
▁B	-9.59741
تے	-9.59773
▁دوشی	-9.59822
▁روس	-9.59871
اگاں	-9.59892
▁گری	-9.59916
▁کمال	-9.60056
▁سہر	-9.60129
▁بک	-9.60154
▁رژن	-9.60462
ینگ	-9.6063
▁پسند	-9.60636
▁لڑ	-9.60676
مان	-9.60735
▁درسیں	-9.60756
▁ابادی	-9.60773
▁دگه	-9.60991
▁سوت	-9.61019
▁گناہ	-9.61078
▁چنڈ	-9.61097
▁پمن	-9.61114
▁مک	-9.61237
▁جھانی	-9.61245
▁منند	-9.61277
▁ماڑی	-9.61303
▁بھا	-9.6148
▁چیدگ	-9.615
▁امام	-9.61646
▁اتءُ	-9.61655
▁گوھرام	-9.61705
▁مل	-9.61739
کر	-9.61858
▁سکین	-9.61872
▁اشوب	-9.62005
▁ایمان	-9.62091
▁this	-9.62109
▁پریشان	-9.62161
▁ربیت	-9.62188
▁نپ	-9.62207
▁بور	-9.62241
▁حد	-9.62356
اناں	-9.62382
▁شراب	-9.6269
▁شرتر	-9.6272
▁نشہ	-9.62748
▁منصوبہ	-9.62805
▁بشیر	-9.62827
▁چوشکہ	-9.62832
دہ	-9.62847
▁رندے	-9.62856
گر	-9.62916
▁ٹپ	-9.62933
▁بڈ	-9.62969
▁دیمی	-9.62993
▁بارہ	-9.63029
▁اپریشن	-9.63065
▁جل	-9.63123
▁نود	-9.63356
▁سیت	-9.63419
▁بود	-9.63471
▁کوئی	-9.63565
▁دزبندی	-9.63622
▁پرسنز	-9.63655
ت۔	-9.63703
▁امیر	-9.63795
▁وا	-9.63847
▁باروءَ	-9.63869
▁چرے	-9.63912
▁روڈ	-9.63964
se	-9.64071
▁پنجاہ	-9.64172
▁2	-9.64272
▁اواز	-9.64429
▁پوہ	-9.64432
▁بئیت	-9.6445
▁شرپ	-9.64589
▁لڈ	-9.64597
▁مہمد	-9.6482
▁دیوال	-9.64848
▁والا	-9.65008
▁صدر	-9.65013
وس	-9.65021
▁فوج	-9.65076
▁سرمچار	-9.65081
▁چگل	-9.65088
▁ھنچش	-9.65167
▁کج	-9.65214
۔اے	-9.65219
▁سالاں	-9.6524
▁واہگ	-9.65307
▁ہوا	-9.65382
ماں	-9.65414
▁حاصل	-9.65442
▁کد	-9.65566
▁بزگ	-9.65594
▁رنگءَ	-9.65653
▁ھاشمی	-9.65716
▁طاقت	-9.65739
▁جام	-9.65747
▁مذہب	-9.65773
▁کمشنر	-9.65813
▁ذمہ	-9.65815
▁دؤر	-9.65932
گل	-9.65987
▁بلوچاں	-9.66029
..!	-9.66046
▁زرمبشت	-9.66091
▁ساتھ	-9.66111
باز	-9.6634
▁ایمنی	-9.6635
▁تھی	-9.66393
▁نیاد	-9.664
▁بتل	-9.66423
▁ھلک	-9.66471
▁بید	-9.66552
▁شوہاز	-9.6666
▁year	-9.66798
▁موجود	-9.66818
اری	-9.66838
▁تیز	-9.6685
ي	-9.66896
▁دوھزار	-9.66974
▁کوکار	-9.67053
▁تیل	-9.67141
▁ؤ	-9.67174
▁کارمنداں	-9.67197
▁رحیم	-9.67259
▁ترانگ	-9.67312
▁نومبر	-9.67325
▁اوشتوک	-9.67361
▁رکینگ	-9.67445
▁نگ	-9.67668
یانی	-9.67708
▁گوازینگ	-9.6784
چی	-9.67907
کاری	-9.68015
▁گیدی	-9.68046
جاہ	-9.68093
▁کتابے	-9.68126
▁سندھی	-9.68181
▁نیمگے	-9.68204
▁ہال	-9.68205
وار	-9.68213
▁غیر	-9.68216
او	-9.68349
ہر	-9.68364
▁انگور	-9.68449
▁ایشیءَ	-9.68715
▁شون	-9.68794
اش	-9.68808
i	-9.68833
▁اوست	-9.68862
ٹی	-9.68876
▁شریف	-9.68888
▁قران	-9.68955
▁اوشتات	-9.69048
ion	-9.69108
▁گرانیں	-9.69109
le	-9.69113
بل	-9.69231
▁مارگ	-9.69236
▁تیوگیں	-9.69239
▁دوا	-9.69374
▁کرونا	-9.69395
▁سنگتانی	-9.69474
▁تاج	-9.69489
▁رنج	-9.69524
▁جھل	-9.69647
▁لبزانی	-9.69715
▁پمیشکہ	-9.69842
▁گلزمین	-9.69849
کت	-9.69945
▁سول	-9.69961
▁پاداں	-9.70024
▁گوناپ	-9.70055
▁اھوال	-9.70072
▁کاروائی	-9.70234
▁اوانی	-9.70328
▁براں	-9.70384
▁اجازت	-9.70406
▁کوہنیں	-9.70432
▁معاشی	-9.70676
▁میڈیا	-9.707
▁قلات	-9.70728
▁کتابانی	-9.7091
ھا	-9.70983
▁قدیر	-9.71037
وی	-9.71065
▁کھ	-9.71078
▁زبانے	-9.71207
▁جب	-9.71228
▁سری	-9.71282
▁درائینت	-9.71294
▁الس	-9.71404
▁گول	-9.71535
▁امید	-9.71557
یر	-9.71591
▁ازمی	-9.71597
▁چیءَ	-9.71606
▁نوشکی	-9.71625
▁ڈک	-9.71802
▁توکا	-9.71923
▁ف	-9.71932
▁دسمبر	-9.71971
▁یاکہ	-9.72152
▁کنائینگ	-9.72398
▁ڈنی	-9.72432
▁پسنی	-9.72478
▁سلیم	-9.72479
کل	-9.72534
▁ممکن	-9.72612
▁مدامی	-9.72685
▁دیمپان	-9.72894
▁شمے	-9.72898
▁تام	-9.72964
▁ھزدار	-9.73051
▁زیبائی	-9.73077
▁ونت	-9.7308
▁دروت	-9.73143
ic	-9.73195
▁جنوری	-9.73321
دان	-9.73504
▁رندءَ	-9.73542
▁سرڈگار	-9.73653
▁براس	-9.73778
▁می	-9.73875
▁بگ	-9.73903
▁گیری	-9.74184
▁سنگر	-9.74227
چے	-9.74236
▁مزنین	-9.74457
▁اگن	-9.74516
▁گورءَ	-9.74551
▁اسپ	-9.74566
▁انوں	-9.74596
▁رگ	-9.74663
▁برکت	-9.74696
▁واقعہ	-9.74878
▁عہد	-9.74898
▁بیر	-9.74915
▁ھنکین	-9.74949
▁ورنائیں	-9.74958
دیم	-9.74971
▁18	-9.75048
▁لیویز	-9.75066
▁دزگیری	-9.75211
▁کنوکاں	-9.7523
▁انگریز	-9.75246
▁انتءُ	-9.75287
▁واجه	-9.75299
ers	-9.75352
▁@,@	-9.75353
▁تئو	-9.75424
▁فرنٹ	-9.75492
▁after	-9.75496
▁بلوچستانءِ	-9.75548
▁زیارت	-9.75584
▁لکھ	-9.75638
▁بج	-9.75641
▁کنٹرول	-9.7572
ہمے	-9.75727
▁بیم	-9.75886
▁پا	-9.75962
▁ماسٹر	-9.76093
▁حکم	-9.76212
▁دامن	-9.7628
▁کشار	-9.76286
▁نشتگیں	-9.7639
▁کرار	-9.76402
▁گوشان	-9.76431
ط	-9.7647
h	-9.76496
▁ادگہ	-9.76505
▁اینچو	-9.76595
▁ایچ	-9.76652
▁نشانی	-9.76663
▁زبانا	-9.76677
لو	-9.76705
▁روچی	-9.76829
▁اورتگ	-9.76954
▁زندان	-9.76975
▁گہار	-9.7703
میر	-9.77109
▁اوگانستان	-9.77202
▁لوز	-9.77225
▁نودربراں	-9.77371
▁ازمانکانی	-9.77562
▁بنجاہی	-9.77714
سٹ	-9.77767
▁علاقہ	-9.77823
▁عمران	-9.77974
▁ھیل	-9.78094
▁متلب	-9.78117
▁وہدءَ	-9.78119
یت۔	-9.78173
گڑا	-9.78217
▁مسیت	-9.78226
▁حقیقت	-9.78332
▁اکتوبر	-9.7846
▁ع	-9.7848
▁نیک	-9.78533
▁بیگواھی	-9.78714
▁تپاک	-9.78771
▁نرم	-9.78789
▁بہت	-9.78799
▁شبین	-9.78817
▁دروگیں	-9.7909
▁پمشکہ	-9.79153
▁بز	-9.792
▁تہاری	-9.79337
▁گدان	-9.79402
▁مجلس	-9.79498
▁ترندی	-9.79498
▁گچکی	-9.79499
▁داریں	-9.79527
▁اسمبلی	-9.79549
▁اسمان	-9.79567
▁دیمپانی	-9.79613
on	-9.79741
▁کپتگیں	-9.79747
▁بانگ	-9.79777
▁دشمن	-9.79779
▁اسلم	-9.7979
ھے	-9.79799
▁رسم	-9.79805
▁دشتیاری	-9.7985
▁سروکی	-9.79924
▁m	-9.79986
▁یو	-9.8007
ائے	-9.80134
▁اگہ	-9.8018
▁جنیں	-9.80193
▁یکجھتی	-9.80208
▁وائی	-9.80236
▁ماتی	-9.80238
▁کرنے	-9.80275
پد	-9.80303
▁It	-9.80321
▁نزوری	-9.80392
▁کول	-9.80511
▁حاجی	-9.80634
▁C	-9.80722
▁ھاسیں	-9.80766
▁صد	-9.80834
▁ادارھانی	-9.80837
▁بعد	-9.80847
▁هست	-9.80894
وش	-9.80994
▁re	-9.81023
▁وڑءَ	-9.81158
یں۔	-9.81229
▁('	-9.81282
▁سوچ	-9.81285
ینتگ	-9.81299
▁ڈولیں	-9.81335
مئے	-9.81346
▁پیمءَ	-9.81449
▁چکانی	-9.81655
▁انت۔۔۔	-9.81721
▁انگر	-9.8182
▁رسگ	-9.8184
ڪ	-9.81857
▁قدر	-9.8186
▁چر	-9.82016
▁کندگ	-9.82147
▁ہوئے	-9.82155
▁عالم	-9.82286
▁ٹ	-9.82329
▁time	-9.82373
▁مز	-9.82429
ھما	-9.82453
▁over	-9.82522
▁ردی	-9.82619
▁زوراکیانی	-9.8269
▁کارمرد	-9.8275
▁اوپار	-9.82894
▁کند	-9.82937
▁گپءَ	-9.82953
▁other	-9.83008
از	-9.83109
نوں	-9.8314
▁راجے	-9.83185
▁دگر	-9.83197
▁لگت	-9.8328
▁ھوش	-9.8329
▁نگد	-9.83308
▁بنداں	-9.83437
an	-9.83475
▁حضرت	-9.8353
▁لوگءَ	-9.8365
▁ام	-9.837
▁جز	-9.83708
▁ادینک	-9.83753
▁گریوگ	-9.83761
▁چکاں	-9.83816
▁سبک	-9.83865
▁ھمود	-9.83936
▁ریل	-9.83955
▁صنعت	-9.84125
▁سان	-9.84158
▁چوناھا	-9.84216
▁پژدر	-9.84249
داں	-9.84254
▁کارگس	-9.84313
▁بام	-9.84334
▁into	-9.84335
▁استان	-9.84336
mber	-9.84393
▁چد	-9.84451
▁بیرانی	-9.84477
▁کمپنی	-9.84495
▁قبیلہ	-9.84525
▁کناں۔	-9.84537
▁جتاجتائیں	-9.8456
▁دزکپتگ	-9.84633
▁ادار	-9.8469
▁مومن	-9.84802
▁پیک	-9.84806
جو	-9.84836
دومی	-9.8485
▁چنکس	-9.84866
▁تم	-9.84886
اک	-9.85002
▁ہرکس	-9.85036
▁بدی	-9.85038
▁نوشتہ	-9.85122
▁بروت	-9.85167
▁ٹیم	-9.85201
▁ویبجاہ	-9.85237
▁شمار	-9.85297
رد	-9.85307
en	-9.8533
شپ	-9.85332
▁چیاکہ	-9.85362
داری	-9.85553
▁مرچاں	-9.85671
▁کننت۔	-9.85675
▁3	-9.85686
▁۔۔	-9.85704
نوکیں	-9.85734
▁برجاھیں	-9.85739
▁سیمسر	-9.85795
▁یوسف	-9.85815
▁پنام	-9.8582
▁ریش	-9.85826
▁اتاں۔	-9.85886
▁کارءَ	-9.85964
▁چ	-9.85965
▁رک	-9.8597
جان	-9.85975
▁چاراں	-9.86001
▁نزیکی	-9.86017
▁اوشت	-9.86039
▁سو	-9.86112
▁جولائی	-9.86163
▁انہی	-9.8617
▁مرز	-9.86181
▁بله	-9.86322
▁کلوہ	-9.86368
▁گندیت	-9.86474
▁پھل	-9.86514
▁پروفیسر	-9.8652
▁بدیں	-9.86696
▁گا	-9.86728
▁کشیت	-9.86858
▁سپت	-9.86976
▁سمی	-9.8713
▁حب	-9.87138
▁بچکند	-9.87144
▁ہوں	-9.87184
▁ردانک	-9.87193
▁گیا	-9.87194
کنت	-9.8727
▁چن	-9.87276
بزاں	-9.87349
▁گنج	-9.87376
▁واکدار	-9.87387
لا	-9.87429
▁پانزدہ	-9.87566
▁ماھتاک	-9.87634
▁اتکگیں	-9.87682
▁کرن	-9.87693
'	-9.87703
▁کیت۔	-9.87775
▁ھیر	-9.87777
▁اپریل	-9.878
▁خود	-9.8784
چک	-9.8788
داد	-9.87891
▁برجا	-9.87902
▁کازی	-9.87993
▁جنکے	-9.88061
▁راز	-9.88062
▁T	-9.88065
▁واحد	-9.88087
▁زندے	-9.88105
▁ایوکیں	-9.88132
ce	-9.88176
▁بگوش	-9.88248
▁نویسگ	-9.88305
تاکدیم	-9.88323
▁بھتام	-9.88362
▁دائم	-9.88412
▁ھاک	-9.88451
▁شھدگ	-9.88456
زی	-9.88554
▁کنوکانی	-9.88642
▁امن	-9.88648
ھاں	-9.88664
▁گیوار	-9.88681
▁کرنا	-9.8884
▁بلک	-9.88884
▁زبانءِ	-9.89054
▁روچءَ	-9.89097
▁ستمبر	-9.89139
ہی	-9.89241
▁ارت	-9.89249
▁مردمان	-9.89263
▁ہشت	-9.89289
▁مرزی	-9.89312
▁سسا	-9.89347
▁مھکم	-9.89388
▁داروکیں	-9.8939
▁فروری	-9.89409
ڑی	-9.89421
▁لشکری	-9.89447
▁would	-9.89539
▁گالوار	-9.8958
p	-9.89631
▁more	-9.89643
▁ہرچی	-9.8968
نام	-9.89795
▁تحریک	-9.89809
▁نادراہی	-9.89841
▁اروس	-9.89881
▁وہدیکہ	-9.8989
▁دیگر	-9.89941
▁ایوکءَ	-9.89944
▁بندش	-9.90089
▁روچانی	-9.90106
▁اشتر	-9.90119
▁دمانے	-9.90198
▁نئیت	-9.9031
▁سائنسی	-9.90402
▁خیر	-9.90497
▁انساپ	-9.90639
u	-9.90652
▁تہء	-9.90665
▁M	-9.90702
▁گستا	-9.90714
▁پانگس	-9.90756
▁شاعرے	-9.90793
▁بوتہ	-9.90803
▁بلاھیں	-9.90809
▁واھند	-9.91123
▁بدار	-9.91126
▁وڈ	-9.91214
▁لوٹوکیں	-9.91315
▁خاص	-9.91327
▁راجانی	-9.91358
▁حیران	-9.9137
▁سانگ	-9.91423
▁انصاف	-9.91455
▁چہر	-9.91465
▁all	-9.91517
▁قول	-9.91584
▁تھے	-9.91648
▁ہاترا	-9.91708
▁نیوز	-9.91755
▁دوازدہ	-9.91847
▁سوال	-9.91863
▁احت	-9.92064
▁مرچیگیں	-9.92244
▁ہرچ	-9.92271
▁سرکماش	-9.92325
▁سب	-9.92335
▁راه	-9.92341
▁دراتک	-9.92543
اں۔	-9.92547
▁چادر	-9.92638
▁پرک	-9.92674
▁کلی	-9.92675
▁اسلامی	-9.92735
▁چھ	-9.92751
▁پند	-9.92837
▁ساپ	-9.92838
▁یکبرے	-9.92885
▁موہ	-9.92901
!‘‘	-9.92935
▁ایراد	-9.92991
▁باگ	-9.93019
▁نکش	-9.9307
▁انت۔اے	-9.93179
▁مین	-9.9329
▁پراہ	-9.93301
▁ساجد	-9.93387
ary	-9.93413
▁بدئے	-9.93457
▁ہبر	-9.93472
▁گچینی	-9.93568
گاں	-9.9358
▁چارت	-9.93655
▁کمیشن	-9.93693
▁سکی	-9.93699
▁گالبند	-9.93805
▁سار	-9.93807
▁وهد	-9.93877
▁ستا	-9.93878
▁خاصیں	-9.93992
▁ھار	-9.94027
▁دینت	-9.9415
ish	-9.94306
▁مقصد	-9.94308
▁کبر	-9.9438
▁پرے	-9.94411
▁دچار	-9.94417
سک	-9.94483
▁ملکاں	-9.94496
▁نزانت	-9.94516
▁ہونا	-9.94686
▁طور	-9.94754
▁پالیسیانی	-9.94755
▁نامءَ	-9.94757
▁ورناہ	-9.94772
▁بستگیں	-9.9478
▁براہ	-9.94785
▁بگش	-9.94842
دست	-9.94866
▁سالے	-9.94948
▁الی	-9.94964
▁پہک	-9.95003
روچ	-9.9505
▁پیچ	-9.95096
گے	-9.95141
▁نیٹورک	-9.95207
▁شعرانی	-9.95209
دا	-9.95221
▁ھنچیں	-9.95226
▁وفا	-9.95234
▁رؤگ	-9.95267
ست	-9.95273
▁تھا۔	-9.95408
or	-9.95418
▁جمالدینی	-9.95478
کیں	-9.95488
▁گوک	-9.95503
▁وانگی	-9.95518
▁اؤرتگ	-9.95522
▁پارسی	-9.9553
▁یورپ	-9.9554
▁درک	-9.9559
گپ	-9.95593
▁لانچ	-9.95609
▁ایا	-9.95677
▁زئی	-9.95709
▁کاریت	-9.95738
▁کینگ	-9.95743
▁نزینک	-9.95744
▁ہوٹل	-9.95751
▁پکار	-9.95767
ترا	-9.95821
▁صبا	-9.95923
▁فوجی	-9.95938
▁بہار	-9.95948
▁بینک	-9.96013
▁چیئرمین	-9.96039
▁کچھ	-9.96061
▁کسمانک	-9.96129
ڈی	-9.96167
▁اندرءَ	-9.9617
▁کوشست	-9.96173
▁وانینگ	-9.96193
▁واست	-9.96269
▁چکے	-9.96307
▁ھ	-9.96329
▁اشکنگ	-9.96431
▁وکیل	-9.96464
▁گیپت	-9.96516
▁عزیز	-9.96746
▁تاریخی	-9.96888
▁سنگتے	-9.96906
▁گونڈیں	-9.96999
▁رم	-9.97039
▁ھاترءَ	-9.971
▁دوستیں	-9.9711
▁زالبولانی	-9.97323
▁she	-9.97395
▁مئیں	-9.97409
▁دگنیا	-9.97429
▁گلانی	-9.97443
▁برزیں	-9.97474
▁پیریں	-9.9754
▁دستی	-9.97554
▁پوست	-9.97583
▁دیوانے	-9.97618
۔۔۔۔۔	-9.97625
▁اسپیت	-9.97628
ئگ	-9.9768
▁حون	-9.97687
▁مطلب	-9.97841
▁جاہے	-9.97858
▁زیرگ	-9.9788
▁اسکواڈ	-9.97909
ث	-9.97936
▁زیبا	-9.97955
▁ہکانی	-9.97994
▁لیک	-9.98032
▁افغانستان	-9.98073
▁ساچشتی	-9.98107
گو	-9.9811
▁۔۔۔۔	-9.98119
▁گوم	-9.98157
▁پنجاب	-9.98201
▁وتن	-9.98201
▁استیں	-9.98218
▁نیت	-9.98257
▁مردین	-9.98266
▁کمالان	-9.98336
▁کنیں۔	-9.98354
▁ھراب	-9.98373
▁پادانی	-9.98519
▁پونز	-9.98581
اور	-9.98639
us	-9.98894
▁مہناز	-9.98946
▁تنک	-9.98972
▁لیے	-9.98981
▁٭٭٭	-9.99002
گءَ	-9.99159
▁دیدگ	-9.99211
▁تواری	-9.99219
▁درس	-9.99236
▁گڑ	-9.99248
▁قبر	-9.99323
▁گوئشت	-9.99339
▁ھشک	-9.99362
▁نزاناں	-9.9944
▁میڑ	-9.99465
▁فائدہ	-9.99506
▁گشاں	-9.99578
▁de	-9.99618
▁ہپت	-9.99641
▁گی	-9.99682
▁کوٹ	-9.99687
ژ	-9.99691
▁بلیدہ	-9.99698
نو	-9.99839
▁معلوم	-9.99881
▁پیرک	-9.99896
▁جیئند	-9.99973
▁محبت	-10.0011
یم	-10.0015
ستان	-10.0019
چار	-10.0023
▁اورت	-10.0025
▁ہار	-10.0043
بو	-10.0054
b	-10.0057
▁ماہتاک	-10.0058
▁توامیں	-10.0063
ٰ	-10.007
▁out	-10.0073
▁ندکار	-10.0079
▁غزل	-10.0083
▁گندئے	-10.0085
▁ارب	-10.0107
▁تگ	-10.011
▁گوز	-10.0112
▁دروشمے	-10.0118
▁زیادہ	-10.0133
▁بئیگ	-10.0133
▁میدان	-10.0141
▁شیخ	-10.0143
▁زیمر	-10.0147
▁دمب	-10.0148
رے	-10.0148
رہ	-10.0157
▁وقت	-10.0158
▁پوشاک	-10.0163
بوت	-10.0165
▁ھمگرنچ	-10.0166
▁لوٹت	-10.0169
▁چارات	-10.0172
▁اسرائیل	-10.0174
▁سگریٹ	-10.0176
شر	-10.0181
▁پاکیں	-10.0186
پدا	-10.0188
ایاں	-10.0188
▁زار	-10.019
▁چارمی	-10.0191
▁لین	-10.0191
▁جاه	-10.0195
▁ڈس	-10.0195
ۆ	-10.0198
▁اسل	-10.0198
▁رحم	-10.0203
▁رضا	-10.0212
▁یازدہ	-10.022
▁نقصان	-10.0222
▁پلہ	-10.0224
▁شئے	-10.0228
▁ڈپٹی	-10.0229
ینت	-10.0233
▁ہوش	-10.0238
▁شرف	-10.0239
▁صوبہ	-10.0247
▁بوگءَ	-10.0247
▁when	-10.0257
ation	-10.026
▁ہوتا	-10.0261
ذ	-10.0267
▁خ	-10.0271
وز	-10.0273
بن	-10.0274
▁کونسل	-10.0277
▁پش	-10.0281
▁دوبر	-10.0282
▁پور	-10.0287
دگہ	-10.0288
▁up	-10.0289
▁دا	-10.0292
ٹر	-10.0294
▁اھگ	-10.03
▁مسلم	-10.0304
▁زیان	-10.0313
▁us	-10.0315
▁پہنات	-10.0321
▁اتگ۔	-10.0327
▁کوپگ	-10.0329
▁اناں	-10.0337
▁جتائی	-10.0339
▁موبائل	-10.0342
▁پھ	-10.0349
▁روایت	-10.0351
▁سارت	-10.0352
▁لج	-10.0353
▁ملکانی	-10.0355
▁بنیادم	-10.0362
▁بلد	-10.0367
▁گواچن	-10.0369
▁کلام	-10.0369
▁مناں	-10.0382
▁ظلم	-10.0387
▁چینی	-10.0393
▁کورٹ	-10.0401
▁جناں	-10.0412
▁گوما	-10.0418
جن	-10.0424
▁کانود	-10.0432
▁چا	-10.0433
نڈ	-10.0437
▁نادراھجاہ	-10.0438
▁ہاشمی	-10.0442
▁رسانکدراں	-10.0444
▁صفت	-10.0447
▁ظاہر	-10.0449
▁سنچ	-10.0451
▁زات	-10.0462
▁کام	-10.0463
▁تاکت	-10.0463
▁ٹیکنالوجی	-10.0465
▁یکجہتی	-10.0478
زر	-10.0482
▁حرکت	-10.0483
▁ساد	-10.0485
▁کرتے	-10.0486
▁دلجمی	-10.0486
▁حصہ	-10.0488
▁پیسرا	-10.0488
▁رہشون	-10.049
▁مرت	-10.0493
▁قرار	-10.0508
▁ناصر	-10.0513
▁ماه	-10.0514
▁مذہبی	-10.0516
▁پروشگ	-10.0518
▁اومان	-10.0519
▁دودمان	-10.053
▁سیاھیں	-10.0532
!......	-10.0532
during	-10.0545
▁دلجم	-10.0547
▁چند	-10.0565
▁نبیس	-10.0566
▁شست	-10.0574
▁دمک	-10.0576
▁سوبین	-10.0581
▁برابر	-10.0582
▁زرتگ۔	-10.0592
▁جاہاں	-10.0595
▁اؤرت	-10.0608
▁most	-10.0612
▁چوک	-10.0613
▁دپءَ	-10.062
▁نمیران	-10.062
▁علاج	-10.0621
▁نامدار	-10.0623
۔من	-10.0625
وان	-10.0642
▁جیل	-10.0657
زبان	-10.066
▁لوٹیت۔	-10.0662
▁ولی	-10.0663
▁باری	-10.0667
▁دستیگ	-10.0667
▁باج	-10.067
▁ڈیہہ	-10.068
▁]	-10.0702
▁لمب	-10.0706
▁شل	-10.0709
بس	-10.0726
▁انا	-10.0728
▁جتگ۔	-10.0733
▁شیئر	-10.0739
▁حاکم	-10.0743
▁انتزامیہ	-10.0745
▁سوشل	-10.0747
▁اشک	-10.0756
میں	-10.0757
▁بیگا	-10.0767
▁بوگی	-10.0776
مردم	-10.0781
▁سینگ	-10.0784
▁سارتیں	-10.0793
▁game	-10.0794
▁سن	-10.0795
▁بگل	-10.0795
▁لبزانت	-10.0798
▁اسی	-10.0799
▁تچکیں	-10.0805
▁نیں	-10.0807
بار	-10.081
▁نیکی	-10.0813
▁لیگ	-10.0814
▁only	-10.0822
▁ہنچو	-10.0825
▁زیب	-10.0828
▁ڈیک	-10.0838
▁ضرورت	-10.084
S	-10.0842
▁گوشت۔	-10.0849
▁سربوتگیں	-10.085
▁ھواری	-10.0857
▁لوگانی	-10.0862
▁استمان	-10.0867
▁سبزیں	-10.087
▁نیکراھی	-10.0871
▁ناماں	-10.0872
▁زانتی	-10.0877
▁تچان	-10.0877
▁عام	-10.0883
▁فقیر	-10.0884
▁میری	-10.0893
▁بلکن	-10.0895
▁فون	-10.09
▁کاف	-10.09
▁باریگ	-10.0903
▁گلہ	-10.0916
▁دماغ	-10.0919
▁گیشینگ	-10.0922
▁مسلمان	-10.0925
▁گندگءَ	-10.0926
▁دولت	-10.0927
▁بنجاہ	-10.093
کم	-10.0931
۔بلے	-10.0934
▁مگر	-10.0939
▁ھچبر	-10.0948
▁پرواز	-10.095
▁بوہان	-10.0952
▁شرتریں	-10.0959
▁مو	-10.0959
▁نامہ	-10.097
▁ساعت	-10.0971
▁بوھیر	-10.0975
▁زندگیں	-10.0981
▁تپاس	-10.0988
▁موکل	-10.0992
▁گواہ	-10.0997
▁برمش	-10.1001
▁R	-10.1008
سا	-10.1012
▁اتگیں	-10.1012
▁روش	-10.1013
▁ساچ	-10.1016
▁نک	-10.1018
▁بری	-10.1024
▁وانگجاہ	-10.1024
▁ئا	-10.1025
▁اہوالکار	-10.1026
▁ریچ	-10.1031
▁p	-10.1033
able	-10.1035
▁ص	-10.1037
▁پاگ	-10.1038
▁کمبر	-10.1041
▁سست	-10.1042
▁رہ	-10.1045
▁راھے	-10.1046
▁دزی	-10.1046
▁گلاں	-10.1054
▁زاھر	-10.1064
▁ھمائی	-10.1064
▁نظم	-10.1068
▁ری	-10.107
▁پدریچ	-10.1072
▁امریکی	-10.1074
▁فکشن	-10.1076
▁تہار	-10.1078
▁D	-10.1079
▁قانون	-10.1086
▁گشے	-10.1087
▁پوش	-10.1088
▁پن	-10.11
▁گردن	-10.1102
یل	-10.1103
▁سسٹم	-10.1109
▁","	-10.1122
▁ق	-10.1131
um	-10.1135
▁ایوب	-10.1138
ات۔	-10.1152
▁نبی	-10.1153
▁دریگ	-10.1157
▁وهدے	-10.1167
▁ابرم	-10.1174
▁جندئیگ	-10.1176
▁تمام	-10.1176
▁راجمان	-10.1179
▁سعید	-10.1182
▁زھیر	-10.1184
about	-10.1186
tween	-10.1189
▁پرشت	-10.1199
▁ڪہ	-10.12
▁زہیر	-10.1206
▁گاڑیانی	-10.1206
اہ	-10.1209
▁پترت	-10.1217
▁جد	-10.1222
▁بکنت۔	-10.1222
▁مڑ	-10.1226
▁چنگ	-10.1233
▁نون	-10.1244
ity	-10.1252
▁علیہ	-10.1261
...?	-10.1266
▁ھانی	-10.1267
▁بران	-10.1267
c	-10.1273
▁کاہ	-10.1287
▁ارواح	-10.1288
k	-10.1291
▁حلک	-10.1292
▁دگرے	-10.1293
▁نزیکیں	-10.1295
▁سئیں	-10.1296
▁ھندوستان	-10.1304
▁ھمدا	-10.1304
▁ہائی	-10.1307
▁شتاں	-10.1311
▁بینگ	-10.1312
▁ثابت	-10.1314
ڈاکٹر	-10.1325
▁جگر	-10.1327
▁جنئگ	-10.1332
▁سیٹ	-10.1333
▁him	-10.1334
▁ھرچی	-10.1336
▁play	-10.134
▁زیات	-10.1345
زئی	-10.1351
▁انور	-10.1358
▁حاترا	-10.136
▁کامیاب	-10.136
▁سلامت	-10.1365
▁دگے	-10.137
▁سمجھ	-10.137
▁سیاد	-10.1372
خان	-10.1375
انء	-10.139
با	-10.139
کش	-10.1394
▁علمی	-10.1398
▁گڈسر	-10.14
▁ظفر	-10.14
▁داریت۔	-10.1413
▁تعلیم	-10.1418
land	-10.1425
▁مشکے	-10.1429
▁داراں	-10.1437
▁ھندی	-10.1439
وہ	-10.144
▁ریک	-10.1445
▁گوشئے	-10.1455
▁زباناں	-10.1459
پی	-10.1461
▁پشک	-10.1464
▁امروز	-10.1464
▁season	-10.1465
▁گوشدارگ	-10.1469
▁قاسم	-10.1472
تریں	-10.1476
▁سرمچارانی	-10.1477
وری	-10.148
▁هال	-10.1481
▁امین	-10.1482
▁again	-10.1493
▁ہندوستان	-10.1496
▁چاردہ	-10.1501
▁بزگی	-10.1503
▁On	-10.1505
▁کیمپ	-10.1506
▁یاں	-10.1509
▁ادارہانی	-10.151
▁کشندہ	-10.1512
تیں	-10.1519
▁کپان	-10.1521
▁سلمان	-10.1526
پل	-10.1528
▁انگتہ	-10.153
▁ورنائی	-10.1531
▁جماعت	-10.1533
▁پالیسی	-10.1534
اللہ	-10.1536
▁three	-10.1542
▁مس	-10.1547
▁شرگدار	-10.1548
▁تجربہ	-10.1552
▁سالانی	-10.1552
ایشی	-10.1557
ایت	-10.156
ض	-10.157
▁کلگ	-10.1572
▁جوش	-10.1573
▁زوال	-10.1574
مراد	-10.1581
▁پورا	-10.1586
▁کتاباں	-10.159
▁رجانکار	-10.1592
▁ھیران	-10.1594
▁سیم	-10.1599
▁لو	-10.16
▁رؤت	-10.1603
▁ذاتی	-10.1604
▁جنوک	-10.1606
▁than	-10.1609
▁گراب	-10.1621
▁جاگہے	-10.1623
▁''	-10.1625
▁4	-10.163
▁تپنگ	-10.1633
▁سوگند	-10.1634
▁شپے	-10.1636
▁ورنایانی	-10.1639
▁کوچگ	-10.164
▁مئیل	-10.1642
▁رھادگ	-10.1642
f	-10.1648
▁سرھال	-10.1654
▁5	-10.1661
▁ارشاں	-10.1662
▁اتیں	-10.1663
▁گشت۔	-10.1671
▁فضل	-10.1676
▁گوھار	-10.168
▁راشد	-10.168
▁ادمین	-10.1685
▁چیک	-10.1688
▁بیوکیں	-10.1695
▁زامران	-10.1695
انا	-10.1697
▁کردے	-10.1698
▁صاف	-10.1703
▁تئ	-10.1705
گوشتگ	-10.1705
▁اندیم	-10.1709
▁سرحال	-10.1712
▁جاتا	-10.1713
▁دن	-10.1714
▁ادارھاں	-10.1722
▁زوریت	-10.1724
دگ	-10.1728
▁پیشی	-10.1729
▁دلیل	-10.1734
▁ڈل	-10.1735
▁بندر	-10.1742
▁ریڈیو	-10.1764
▁نیل	-10.1768
▁t	-10.1781
▁e	-10.1781
▁اؤکیں	-10.1782
▁ادینگ	-10.1784
▁دلبڈی	-10.1784
▁تچگ	-10.1789
▁زبہر	-10.1789
▁بکناں	-10.1792
▁ذکر	-10.1792
▁ترکی	-10.1798
▁فرق	-10.1798
▁وائرس	-10.1801
▁استال	-10.1802
▁اسپیتیں	-10.1805
▁بجٹ	-10.1815
▁وزن	-10.1815
▁ساہگ	-10.1816
▁باپاری	-10.1818
▁زانشت	-10.1818
▁ژا	-10.1825
▁خاندان	-10.1832
▁پروگرام	-10.1834
جا	-10.1837
▁بیل	-10.1839
▁المیں	-10.1855
▁وشبو	-10.1861
▁۔ائی	-10.1864
▁جمبر	-10.1866
▁گلاب	-10.1867
▁ننگ	-10.187
▁ھنر	-10.1871
▁مالک	-10.1873
ھانی	-10.1873
▁بئیں	-10.1873
▁روح	-10.1877
is	-10.1878
▁لائن	-10.1886
▁انگہ	-10.1891
▁نامے	-10.1898
▁سرین	-10.1898
m	-10.19
اشی	-10.19
g	-10.1904
▁چوپ	-10.1908
▁')	-10.1909
▁راجمانی	-10.1917
▁وپت	-10.1923
▁ھردو	-10.1926
▁دوستین	-10.1936
▁بازینے	-10.1937
▁درامد	-10.1937
▁پلانی	-10.1943
▁منظور	-10.1944
▁وام	-10.1945
ێ	-10.1946
▁شازادگ	-10.1949
▁گلگ	-10.1954
▁پرواہ	-10.1954
▁رن	-10.1954
▁نواز	-10.1955
▁شاعرانی	-10.1965
▁السی	-10.1966
▁P	-10.1981
▁پائدگ	-10.1995
وم	-10.2004
▁through	-10.2018
▁درشانداب	-10.2039
▁زرباری	-10.204
نگیں	-10.2044
▁سوبمند	-10.2047
▁پرشتگ	-10.205
▁وانندہ	-10.2059
▁غنی	-10.2063
▁پار	-10.2073
▁پرمان	-10.208
▁باسکاں	-10.2081
▁K	-10.2082
▁نال	-10.2084
............	-10.2086
▁زرمبش	-10.209
اف	-10.209
▁متاثر	-10.2094
▁لوگے	-10.2094
▁واہند	-10.2095
▁دیا	-10.2096
فی	-10.2096
▁نبشتگیں	-10.2103
▁ھستی	-10.2106
▁حانی	-10.2115
▁خاران	-10.2118
▁ڈکال	-10.2123
▁later	-10.2135
▁کنغ	-10.2136
▁ادارگ	-10.2136
▁کارمرزی	-10.214
▁ازادی	-10.2147
دے	-10.215
▁گالاں	-10.2153
شی	-10.2156
▁ائید	-10.2156
▁زورگر	-10.2159
▁گیگ	-10.2163
▁ٹاہ	-10.2167
▁زد	-10.2167
لہ	-10.2169
▁ناچ	-10.2172
▁گوانک	-10.2177
▁c	-10.2184
el	-10.2185
▁رجینگ	-10.2185
▁[	-10.219
اتی	-10.2195
▁ارزان	-10.2196
▁گلامی	-10.2197
▁لعل	-10.2199
▁نظریہ	-10.2201
▁عملی	-10.2206
▁کپت۔	-10.2214
سید	-10.2216
▁بزور	-10.2216
▁چمشانک	-10.2224
▁روسی	-10.2228
▁شار	-10.2231
▁کشیں	-10.2237
▁شا	-10.2238
▁پنت	-10.2243
▁گشان	-10.2249
▁while	-10.2251
نک	-10.2256
et	-10.2269
▁N	-10.2269
▁لازم	-10.2273
▁چندے	-10.2274
▁گزر	-10.2278
▁یعنی	-10.2288
رند	-10.229
▁دانگ	-10.2298
▁ترین	-10.2299
▁ایشان	-10.2306
▁تبک	-10.2307
▁اگدہ	-10.2307
▁لبزاں	-10.2312
▁وڈیں	-10.2316
▁مور	-10.2319
▁تاکبند	-10.2319
▁نیامءَ	-10.232
کگ	-10.2327
▁ردیں	-10.2327
▁تری	-10.2329
فر	-10.2332
▁دانک	-10.2333
▁حر	-10.2333
ملا	-10.2334
▁تاکہ	-10.2337
شان	-10.2337
ید	-10.2341
gan	-10.2344
▁پریات	-10.2346
▁درگیجگ	-10.2346
▁new	-10.2355
▁ازار	-10.2355
▁مت	-10.2357
▁وال	-10.2361
▁گھار	-10.2362
▁مے	-10.2362
▁ھمنچو	-10.2367
▁اج	-10.2374
▁شم	-10.2377
▁بگندئے	-10.2379
▁some	-10.2381
▁تھ	-10.2384
▁پناہ	-10.2384
شہ	-10.2387
▁سھر	-10.239
▁لوٹگ	-10.2395
مل	-10.2397
▁چاڑ	-10.2398
▁تپ	-10.2412
?”	-10.2413
▁زیمل	-10.2418
▁ح	-10.2419
ever	-10.242
▁ھسپتال	-10.2421
▁ھنچو	-10.2425
▁گز	-10.2425
▁پرپٹ	-10.2437
▁ہلک	-10.2443
▁نیکیں	-10.2444
▁ناہ	-10.2447
▁چتور	-10.2447
▁ضلع	-10.2449
▁دینی	-10.2449
▁۔من	-10.2454
▁اچہ	-10.2463
▁باوست	-10.2465
made	-10.2465
▁لوگاں	-10.2466
▁E	-10.247
▁نویسی	-10.2474
▁زالبولے	-10.2476
▁درداں	-10.2477
▁شعرءِ	-10.2483
▁کمپیوٹر	-10.2483
▁اتک۔	-10.2487
▁سیاھگ	-10.2494
▁نت	-10.2502
▁ھان	-10.2503
کاں	-10.2504
▁مکسد	-10.2505
▁حاصیں	-10.2514
▁شت۔	-10.2516
▁زیبائیں	-10.2516
est	-10.2519
▁گونڈو	-10.2521
▁ہندی	-10.2528
▁مهر	-10.2531
▁دلوت	-10.2542
▁نگاہ	-10.2546
▁جاری	-10.2557
▁ستر	-10.2558
▁موتک	-10.2563
▁ربیدگی	-10.2568
▁سود	-10.2569
▁گریب	-10.2574
▁ھنچوش	-10.2581
▁گہگیری	-10.2587
▁فارم	-10.2589
▁نندوکیں	-10.2589
ہما	-10.2594
▁راھبند	-10.2594
▁اشنا	-10.2597
▁پاٹی	-10.2598
▁ات۔۔۔	-10.2599
▁تہہ	-10.2599
▁کلاس	-10.2609
▁گوشنت	-10.2622
▁کلاں	-10.2626
▁زبانءَ	-10.2628
انک	-10.2631
دور	-10.2632
▁سنی	-10.2632
▁پندل	-10.2638
▁صلی	-10.2644
▁ه	-10.2645
”.	-10.2647
▁مروچیگیں	-10.2648
▁هبر	-10.2655
▁گہرام	-10.266
▁اختر	-10.2673
▁طرف	-10.2676
▁ڈرائیور	-10.2676
▁عابد	-10.2677
گور	-10.2679
▁صرف	-10.2681
ؤ	-10.2682
ھیں	-10.2695
▁ڈیٹا	-10.2706
▁ایوکا	-10.2708
زند	-10.2711
▁نوزدہ	-10.2713
▁ند	-10.2718
▁بوئیگ	-10.2719
▁مساپر	-10.2729
▁گوزان	-10.273
▁ادیم	-10.273
▁اھد	-10.2734
تاکدیم۔	-10.2736
▁پشتءَ	-10.2736
▁کولواہ	-10.2736
▁چات	-10.2738
▁ہمرائی	-10.2739
▁تجربت	-10.274
▁مواد	-10.2744
▁بنزہ	-10.2757
","	-10.2757
▁دوچ	-10.2764
▁خانہ	-10.2768
▁کمتر	-10.2769
▁قلم	-10.2779
یشن	-10.278
▁بوتین	-10.2785
▁سبی	-10.2805
▁دژمنیں	-10.2806
out	-10.2807
انءَ	-10.281
▁سرزمین	-10.2815
▁سرء	-10.2816
▁اسان	-10.2816
▁دستا	-10.2818
▁توارے	-10.2819
▁ھمیشی	-10.2826
نبشتانک	-10.2827
▁محمود	-10.2832
▁ھوٹل	-10.2832
▁al	-10.2834
▁قبول	-10.2834
▁چاریت	-10.2834
▁گونڈ	-10.2839
▁گلے	-10.2855
▁بازین	-10.2857
▁لی	-10.2858
غیں	-10.2863
▁تہاریں	-10.2865
▁تاھیر	-10.2867
▁ہیال	-10.2873
ہاں	-10.2874
▁کہنیں	-10.288
▁مدتے	-10.2882
▁ووٹ	-10.2885
▁درچکانی	-10.2885
▁گژن	-10.289
▁سنج	-10.2891
▁دپی	-10.2893
▁برپ	-10.2911
▁شاعراں	-10.292
▁میڈیکل	-10.2924
نز	-10.293
▁چرائی	-10.293
▁کانفرنس	-10.2938
▁پلو	-10.2939
▁دیمترا	-10.294
▁اسحاق	-10.2949
▁چمے	-10.2949
اؤ	-10.2949
▁پازل	-10.2953
▁تور	-10.2955
▁قوت	-10.2967
▁قدیم	-10.2974
▁شئر	-10.2976
▁ابا	-10.2983
▁لے	-10.2995
▁رندی	-10.2995
▁یونین	-10.2996
▁زانتکاری	-10.3001
▁روچگ	-10.3002
زانت	-10.3007
▁گروک	-10.3012
▁الا	-10.3016
بیا	-10.3027
▁اہم	-10.3029
▁وران	-10.3033
▁حقانی	-10.304
▁گلیں	-10.3042
▁وسی	-10.3044
▁جہاں	-10.3045
▁کایاں	-10.3046
▁بجلی	-10.3046
▁اشیءِ	-10.3046
▁بالا	-10.305
▁ہمودا	-10.3057
رنگ	-10.3059
▁اہگ	-10.3064
▁under	-10.3065
مر	-10.307
▁شعور	-10.3071
پیش	-10.3079
▁G	-10.3083
▁اتار	-10.3088
▁درملکی	-10.3093
▁نیا	-10.3094
وٹ	-10.3097
▁سٹ	-10.3098
▁follow	-10.3102
▁زاہر	-10.3102
▁کاروباری	-10.3103
▁اندری	-10.3103
▁where	-10.3106
گال	-10.3109
▁بلوچے	-10.3113
▁سل	-10.3113
▁توان	-10.3116
▁استار	-10.3122
▁ہوئی	-10.3123
man	-10.3129
▁برانز	-10.3131
▁سوسائٹی	-10.3134
▁اشت	-10.3135
▁گرمیں	-10.3137
▁شروع	-10.3141
▁b	-10.3141
▁سرشون	-10.3144
▁بائد	-10.3148
▁خون	-10.3149
▁واکداراں	-10.3164
▁غوث	-10.3179
▁بھ	-10.3184
▁درکپت	-10.3186
▁حمید	-10.3186
▁کارمندانی	-10.3194
such	-10.3196
▁ڈیتھ	-10.3198
▁ابن	-10.321
▁مج	-10.3214
▁بزگیں	-10.322
▁یوکرین	-10.3226
▁دریں	-10.3235
▁W	-10.3238
▁زنگ	-10.3242
شاہ	-10.3247
اولی	-10.325
▁تپاوت	-10.3254
▁وجہ	-10.3261
▁ہان	-10.3266
▁دوری	-10.3268
نس	-10.3269
▁رندگیری	-10.3269
▁مود	-10.3281
▁موت	-10.3283
▁اقبال	-10.3283
▁میاں	-10.33
▁ہمدا	-10.3303
▁اناگہ	-10.331
▁صابر	-10.3314
▁راجدپتری	-10.3314
چم	-10.3317
▁بنیات	-10.3319
▁کوھانی	-10.332
▁ٹال	-10.3322
▁them	-10.3324
▁ھستیں	-10.3325
▁وتکشی	-10.3325
▁number	-10.3331
▁شھدربرجاہ	-10.3337
▁چاچ	-10.3342
▁مولوی	-10.3363
▁انوگیں	-10.3365
ایر	-10.3367
▁لیٹ	-10.3367
▁عیب	-10.3368
▁ملکے	-10.3372
▁اختیار	-10.338
▁بژن	-10.338
▁زید	-10.3382
▁سرد	-10.3389
▁زمستان	-10.3395
▁بدنت	-10.34
▁مه	-10.3402
▁تان	-10.3403
▁شپاں	-10.3406
▁چاگردءِ	-10.3411
ائیءَ	-10.3413
▁نمیرانیں	-10.3419
▁جنینے	-10.3419
ہے	-10.3419
▁پہر	-10.3421
ra	-10.3426
▁دیراں	-10.3431
▁ڈکھ	-10.3431
▁کشان	-10.3436
▁تار	-10.3439
▁چول	-10.3442
▁دستگیر	-10.346
▁چینچو	-10.3462
▁ھاران	-10.3471
▁no	-10.3474
▁لوٹانی	-10.3478
▁کلاک	-10.348
▁ھپتاد	-10.3482
▁خالد	-10.3485
▁لیاری	-10.3489
▁چیرا	-10.3489
▁پک	-10.349
▁دورءِ	-10.3491
▁film	-10.3494
▁حیات	-10.35
▁پون	-10.3501
▁ارشے	-10.3501
▁This	-10.3505
▁بگند	-10.3508
چر	-10.3513
▁رپک	-10.3515
▁part	-10.3517
▁اپس	-10.3519
▁مرتگیں	-10.3534
▁بانور	-10.3536
▁عید	-10.3538
▁زھری	-10.3538
▁ہوتی	-10.3538
▁پلاں	-10.3544
▁نیاما	-10.3551
▁ہچبر	-10.3555
▁سڑک	-10.3559
▁un	-10.3561
▁بزدار	-10.3566
▁گنوکی	-10.3569
▁زندگانی	-10.3574
▁گشتانک	-10.3576
▁توسیپ	-10.358
انے	-10.358
▁مسافر	-10.3584
▁امریکا	-10.3584
مات	-10.3584
سو	-10.3587
▁ڈ	-10.3591
سے	-10.3595
▁کست	-10.36
▁اشوبی	-10.3607
▁کپوت	-10.3612
▁نسیم	-10.3616
▁دنز	-10.3617
▁بیرک	-10.362
▁پنچمی	-10.3622
▁نوکری	-10.3622
▁مشک	-10.3625
▁حالت	-10.3626
▁شو	-10.3626
▁دنیاءَ	-10.3629
▁افسر	-10.3632
▁call	-10.3633
▁گوازینتگ	-10.3638
▁وابانی	-10.3643
▁زیت	-10.3649
▁چوٹ	-10.3651
▁000	-10.3655
▁دورءَ	-10.3668
زم	-10.3671
▁being	-10.3673
▁درسد	-10.3676
▁انقلاب	-10.3681
ch	-10.3685
▁ھبرے	-10.3699
▁ھشکیں	-10.371
زور	-10.3711
اء	-10.3713
ازمانک	-10.3714
▁جاہءَ	-10.3714
ur	-10.3718
▁ھد	-10.3721
▁ابد	-10.3722
▁ھکم	-10.3731
▁لفظ	-10.3735
▁record	-10.3736
▁تاکدیم۔	-10.3738
غاں	-10.3744
▁song	-10.3745
یگیں	-10.3745
▁بنیادی	-10.3746
▁ھپتگ	-10.3748
▁جنکانی	-10.375
▁end	-10.3753
▁یعنے	-10.3754
▁New	-10.3762
▁لندن	-10.3765
▁پال	-10.3768
▁بندوکیں	-10.3771
▁before	-10.3778
ar	-10.3794
▁ترجمہ	-10.38
▁درکار	-10.3804
تک	-10.3809
▁تچ	-10.3811
▁قسم	-10.3812
▁گھر	-10.3822
▁فرانس	-10.3829
▁اشکتگ	-10.3842
▁اکر	-10.3851
▁زوراک	-10.3854
ینیت	-10.386
▁جک	-10.3862
▁ایوکی	-10.3875
▁روژنائی	-10.3876
▁رہے	-10.3876
▁سلیمان	-10.3886
▁نوکی	-10.3888
ist	-10.3892
▁کپیت۔	-10.3899
.....	-10.3905
▁تلار	-10.3907
▁وانوکاں	-10.3908
▁گالانی	-10.3912
▁انسانءِ	-10.3915
▁مروچاں	-10.3916
▁واکدارانی	-10.3916
▁جاگہہ	-10.3918
▁فیض	-10.3922
▁چکچینی	-10.3924
▁حاک	-10.3928
▁رہا	-10.3928
▁استعمال	-10.3931
▁سراوان	-10.3937
▁کوھن	-10.3937
▁سہرا	-10.3939
▁can	-10.3945
▁الدین	-10.3949
▁تہی	-10.3951
▁مشین	-10.3952
▁درانگازی	-10.3961
▁ائیا	-10.3968
▁عباس	-10.3968
▁مجبور	-10.3969
▁مارشتانی	-10.397
بلئے	-10.3974
▁تنقید	-10.3978
▁چمگ	-10.3979
▁دائمی	-10.3982
▁جھ	-10.3983
▁second	-10.3984
▁work	-10.4002
▁As	-10.4004
▁زمان	-10.4013
▁یونانی	-10.4014
▁تمن	-10.4017
▁ول	-10.4021
▁ایرانءِ	-10.4024
▁پشی	-10.4037
▁گوار	-10.4037
▁w	-10.4039
▁وہداں	-10.4041
بت	-10.406
جہ	-10.4065
▁فی	-10.4075
▁معاملہ	-10.408
بازیں	-10.4083
▁اخلاقی	-10.4085
▁چارگءَ	-10.4085
▁چاگردے	-10.4086
▁سمین	-10.4088
▁نبیت	-10.4089
داریں	-10.4091
▁بش	-10.4092
▁راکٹ	-10.4094
▁زانش	-10.4094
▁دنیگا	-10.4103
ment	-10.4103
▁درکانودی	-10.4108
▁بلو	-10.4115
▁شپءَ	-10.4117
شن	-10.4122
▁عطاشاد	-10.4122
یات	-10.4123
▁پرشتگیں	-10.4124
▁خلاف	-10.4129
▁رمضان	-10.4132
گار	-10.4136
گانی	-10.4141
▁پما	-10.4142
▁شگان	-10.4143
▁ٹو	-10.4147
▁سرے	-10.4148
ریں	-10.4149
پا	-10.4149
▁ادیب	-10.4149
▁نزوریں	-10.416
▁لاہور	-10.4174
▁6	-10.4175
یز	-10.4179
▁سیکورٹی	-10.418
▁سپاہی	-10.4181
▁حوالہ	-10.4182
▁درانگاز	-10.4183
▁کرتا	-10.4187
▁جنزان	-10.4189
▁ازمانکے	-10.4199
▁نازک	-10.4201
▁جرم	-10.4205
جنگ	-10.4207
▁چپی	-10.4212
it	-10.4218
▁جنجالانی	-10.4227
▁گرک	-10.4247
▁انسانے	-10.4247
▁دیدار	-10.4252
▁اسماعیل	-10.4255
▁جہانی	-10.4256
▁گپت۔	-10.4258
▁حکیم	-10.426
▁چونائی	-10.4265
وئی	-10.4265
ارا	-10.4265
▁توپک	-10.4274
▁تعلق	-10.4283
▁عیسیٰ	-10.4286
▁کمار	-10.4286
▁گۆں	-10.4289
▁دربرگ	-10.43
▁لب	-10.4304
▁انکار	-10.4309
▁show	-10.431
▁صبر	-10.4322
▁وانگءَ	-10.433
▁مکہ	-10.4337
گوشت	-10.4341
پت	-10.4352
▁نزر	-10.4367
▁عدالت	-10.4368
▁اہمد	-10.4372
▁جهد	-10.4372
▁سیاہیں	-10.4373
▁قادر	-10.4374
اچ	-10.4376
▁بھرے	-10.4377
▁ہمگرنچ	-10.4378
سن	-10.4381
▁مردمی	-10.4382
▁تین	-10.4384
▁صدی	-10.4385
▁رسیت۔	-10.4389
▁سعودی	-10.4392
lo	-10.4393
▁ازمکار	-10.4393
▁گپتگیں	-10.4396
▁ڈالر	-10.4403
▁ہنر	-10.4404
▁الاج	-10.441
▁شات	-10.4419
..?	-10.4421
▁لنٹ	-10.4422
▁زین	-10.4423
▁ادمی	-10.4423
▁کھن	-10.4426
▁وثی	-10.4429
▁there	-10.4438
▁مہرانی	-10.4442
ڑو	-10.4443
▁پولی	-10.4445
▁دیدگاں	-10.4445
ائیءِ	-10.4445
▁ته	-10.4447
▁قبائلی	-10.445
▁سوبمندی	-10.4452
اج	-10.4458
▁دراتکگ	-10.4459
?......	-10.446
▁نوکین	-10.4463
▁وہدی	-10.4466
▁نیاں	-10.4468
▁بابا	-10.4469
▁پیشانی	-10.4474
ہو	-10.4476
▁شود	-10.4479
▁large	-10.448
▁راگ	-10.4482
▁درچکے	-10.4486
▁کارءُ	-10.4487
▁منافع	-10.4488
▁صوبائی	-10.449
▁دگرانی	-10.449
▁بادینی	-10.4494
▁گئی	-10.4495
▁10	-10.4499
▁گپءُ	-10.4503
▁نودربرے	-10.4505
مارا	-10.4507
re	-10.4509
▁موٹر	-10.4513
▁جنت۔	-10.4515
▁میزان	-10.4515
▁کریمہ	-10.4516
▁نیمون	-10.4518
▁وابے	-10.4522
▁ملامت	-10.4523
▁نهانت	-10.4526
▁high	-10.4527
▁عظیم	-10.4529
▁کوشش	-10.453
▁خالق	-10.4531
▁مجگ	-10.4532
▁بحث	-10.4533
▁پولکاری	-10.4534
▁جت۔	-10.4536
▁دوچار	-10.4544
▁اہ	-10.4545
▁سنت	-10.4545
▁بوہ	-10.4546
▁ہا	-10.4546
▁بہشت	-10.4546
یٹ	-10.4548
▁سواریں	-10.4552
▁ریس	-10.4553
▁رزا	-10.4555
▁نثار	-10.4557
!!	-10.4557
▁جستے	-10.456
▁گشاد	-10.4566
▁مشت	-10.4567
▁ماھیگ	-10.457
شک	-10.457
▁پیری	-10.4578
▁احساس	-10.4581
▁ھڈ	-10.4585
یس	-10.4585
▁album	-10.459
▁مارشتاں	-10.4594
ma	-10.4596
▁امل	-10.4597
▁توپان	-10.46
واں	-10.4601
▁چمان	-10.4605
▁کساسے	-10.4605
▁مبارکی	-10.461
▁گماں	-10.4617
▁series	-10.4621
محمد	-10.4622
؂	-10.4623
یتگ	-10.4624
▁گیج	-10.4626
▁بزنجو	-10.4629
▁ترمپ	-10.4634
▁تہذیب	-10.4637
▁area	-10.4637
▁کاپر	-10.4638
▁غریب	-10.4642
▁دراں	-10.4645
▁ہمراہی	-10.4649
▁حبرے	-10.4671
سال	-10.4681
▁زھگانی	-10.4681
▁روگی	-10.4683
▁اشارہ	-10.4696
▁میش	-10.4697
▁پلاٹ	-10.4699
▁جانسلامتی	-10.4705
▁پھک	-10.4707
▁مارکیٹ	-10.4708
▁جمعہ	-10.4717
ا۔	-10.4719
▁رژنائی	-10.4721
▁نیمروچ	-10.4722
▁ٹنگ	-10.4724
▁تپاکی	-10.4725
ul	-10.4728
▁کرسی	-10.473
▁سورت	-10.4732
▁زبیر	-10.4732
▁تھت	-10.4733
▁وتگڑیں	-10.4733
▁رودراتکی	-10.4734
▁حمزہ	-10.4735
تاں	-10.4737
▁بوتگنت	-10.474
▁وئیلاں	-10.474
برے	-10.4746
ton	-10.4747
گوش	-10.4748
▁اولس	-10.4749
▁ھاکم	-10.475
▁جاک	-10.475
▁رجانکاری	-10.4775
▁سہی	-10.4775
▁شوربندی	-10.4776
▁بہادر	-10.4777
ent	-10.4777
▁نیٹ	-10.4779
▁تھر	-10.4781
▁مزاحمت	-10.4784
▁مسال	-10.479
▁ھمودا	-10.4794
▁تژن	-10.4795
▁مھمان	-10.4796
ia	-10.4799
▁شاھی	-10.4801
▁لبزانکءِ	-10.4805
▁جیہند	-10.4805
▁دگانی	-10.4806
▁ابرمی	-10.4806
▁بجار	-10.4811
▁مادن	-10.4813
▁زمانگءَ	-10.4817
▁سارتی	-10.4823
▁تیلانک	-10.4824
بلکیں	-10.4825
▁کارمندے	-10.4829
▁کستریں	-10.4839
▁جستانی	-10.4841
▁اینڈ	-10.485
son	-10.4851
ود	-10.4852
▁سوگات	-10.4854
▁both	-10.4857
at	-10.4859
▁تصور	-10.4861
▁کسءَ	-10.4861
▁شھری	-10.4862
▁so	-10.4866
▁کرم	-10.4867
▁کرتنت	-10.4869
▁راجدوست	-10.487
▁O	-10.4877
▁ممتاز	-10.4877
▁includ	-10.4884
▁جاوید	-10.4892
▁گندیں	-10.4898
▁سببءَ	-10.4898
▁رحمت	-10.4901
▁مارکس	-10.4904
علی	-10.4905
▁عاشق	-10.4908
راہ	-10.4916
▁اتکگ۔	-10.4919
▁اسٹوڈنٹس	-10.492
▁بیدار	-10.4921
▁قبضہ	-10.4923
تھ	-10.4924
▁بٹ	-10.4925
▁اعظم	-10.4932
▁گچینکاری	-10.4933
▁جہت	-10.4933
▁انداز	-10.4936
▁سوئی	-10.4938
▁دلے	-10.4938
▁چیل	-10.4939
▁میتگے	-10.494
▁بیبگر	-10.4953
▁جتگیں	-10.4956
▁بدے	-10.4957
▁جائے	-10.496
▁ھزاراں	-10.4961
▁بھت	-10.4962
▁اوان	-10.4963
▁درجہ	-10.4965
▁کنز	-10.4967
▁جیگ	-10.4969
▁برداشت	-10.497
▁جسم	-10.4971
▁عادت	-10.4972
▁اوتاک	-10.4973
▁قرض	-10.499
▁سمو	-10.4991
▁تهنا	-10.4992
▁والے	-10.4998
▁شانک	-10.5004
▁کشکے	-10.5009
سہ	-10.5009
▁like	-10.5013
▁حیالانی	-10.5018
▁روکیں	-10.5024
▁کوھی	-10.5027
▁استحکام	-10.5028
’’(	-10.503
▁فدا	-10.5031
لے	-10.5032
▁مد	-10.5033
▁لیڈر	-10.5034
▁Brit	-10.5048
▁سلطان	-10.5056
▁پدی	-10.5057
▁ہمائی	-10.5057
▁روگءَ	-10.5062
▁چاگردءَ	-10.5063
▁ارادہ	-10.5063
▁باد	-10.5064
▁حراب	-10.5065
▁ہنچیں	-10.5068
▁مشہور	-10.5068
▁گۆن	-10.5071
▁ٹپاس	-10.5075
▁سہت	-10.5081
▁ایکس	-10.5087
▁نبشتانکے	-10.509
il	-10.509
▁جزبگ	-10.5094
▁form	-10.5097
came	-10.5098
▁ابو	-10.51
▁سمندر	-10.5101
▁ضروری	-10.5103
▁اشکت	-10.5105
▁ازمانکار	-10.5105
▁گلزار	-10.5106
▁بندیت	-10.5106
▁بریں	-10.5109
ران	-10.5115
▁Al	-10.5121
▁شہری	-10.5127
▁ھل	-10.5129
▁پشتی	-10.5132
▁مع	-10.5134
▁ناگمان	-10.5135
تاک	-10.5138
▁دیریں	-10.5142
▁درونت	-10.5146
▁پروشتگ	-10.5149
▁میراث	-10.5153
گری	-10.5165
▁اوشتگ	-10.5168
کتگ	-10.5169
▁then	-10.5173
▁well	-10.5182
▁گوھر	-10.5205
▁والی	-10.5211
▁لوگءِ	-10.5216
▁سنٹ	-10.5224
▁درمیان	-10.5227
▁known	-10.5235
▁پشتون	-10.5235
▁بجن	-10.5235
▁بزانکہ	-10.5236
▁ھوں	-10.5238
▁بزگر	-10.524
▁episode	-10.5242
▁گوازینت	-10.5245
▁موومنٹ	-10.525
▁تھے۔	-10.5252
▁برا	-10.5257
▁قدرت	-10.5259
▁جدید	-10.5263
▁گواری	-10.5266
▁اپی	-10.5275
ber	-10.5281
▁کمکار	-10.5289
▁جنگءَ	-10.529
ظ	-10.5294
▁ساڑا	-10.5295
▁فن	-10.5296
▁توجیل	-10.5301
▁وارث	-10.5306
لبزانک	-10.5307
▁سطح	-10.5308
▁نر	-10.531
▁دیوک	-10.531
▁ناکہ	-10.5321
▁پیشدارگ	-10.5322
پاد	-10.5326
یب	-10.5326
▁کپتگ۔	-10.533
▁مطابق	-10.5333
▁بنگلہ	-10.5335
▁کتیں	-10.5336
▁گھگیری	-10.5339
▁ملور	-10.5339
▁زری	-10.5342
▁عذاب	-10.5345
اھاں	-10.5347
▁عارف	-10.5347
▁پڑا	-10.5349
▁شی	-10.5352
▁پروم	-10.5352
▁۔بلے	-10.5354
▁اوگان	-10.5355
▁کھولانی	-10.5357
▁جیڑھانی	-10.5358
▁اماچیں	-10.5359
▁گوراں	-10.5362
▁واھگانی	-10.5365
ئیگ	-10.5367
▁زورگیریں	-10.5369
▁پچیں	-10.537
▁سرگوست	-10.537
▁بلۆچ	-10.538
▁داران	-10.5385
▁بازی	-10.5385
▁نوش	-10.5394
▁لذت	-10.5395
▁گوہر	-10.5395
▁زبھر	-10.5396
▁اشتاپ	-10.5397
▁7	-10.5402
▁پروشت	-10.5404
▁یکوارے	-10.5404
▁کارچ	-10.5405
▁مسئلہ	-10.5406
▁پاکستانءِ	-10.5406
▁زالبولاں	-10.5413
▁ھنداں	-10.5414
▁ابراھیم	-10.5415
اہاں	-10.5425
▁نادر	-10.5426
ارگ	-10.5431
▁بارے	-10.5431
▁بدلیاں	-10.5442
▁گاریں	-10.5444
▁حیر	-10.5447
▁L	-10.5447
▁لنگ	-10.5449
▁باسکانی	-10.5455
▁راہبند	-10.5456
▁پابندی	-10.546
▁ویران	-10.5467
بوتگ	-10.5468
▁دلبند	-10.5469
▁تیاری	-10.5474
▁وپا	-10.5474
▁بندانی	-10.5483
ٹک	-10.5486
▁چندیں	-10.5486
▁چیرءَ	-10.5494
▁ٹوک	-10.5495
▁کلو	-10.5496
▁دمگانی	-10.5506
▁لنکک	-10.551
بد	-10.5511
گیر	-10.5516
مرد	-10.5517
▁0	-10.5519
▁گریت	-10.5522
▁ہمیشی	-10.5522
▁دوار	-10.5538
▁کیسگ	-10.5538
▁پکا	-10.5543
▁مقام	-10.5544
الی	-10.5545
▁مھکمیں	-10.5549
▁روتاک	-10.5549
▁منوگر	-10.5551
▁بلاش	-10.5559
▁many	-10.5571
▁سیمسراں	-10.5574
▁دنتان	-10.5579
▁پسندی	-10.5579
▁۔۔۔۔۔	-10.56
▁پرستی	-10.5601
▁مسک	-10.5605
▁ٹیلی	-10.5606
▁H	-10.5609
شاد	-10.5611
▁12	-10.5621
یش	-10.5627
▁یورپی	-10.5628
▁جر	-10.5628
though	-10.5629
▁جہاز	-10.563
▁found	-10.5632
▁روچءِ	-10.5633
▁قد	-10.5639
مار	-10.5644
▁باب	-10.5646
▁رئیس	-10.565
▁پہل	-10.5652
▁ندارہ	-10.5658
▁دعوت	-10.5664
▁فلسفی	-10.5665
▁long	-10.5668
▁فاروق	-10.5668
▁زمانگے	-10.5669
▁ٹاور	-10.567
▁پریں	-10.5671
▁وخت	-10.5679
nited	-10.5679
▁گوزیت	-10.5684
▁چیردستی	-10.5685
▁سریں	-10.5693
▁زھم	-10.5695
کور	-10.5697
▁درکپتگ	-10.5699
▁رۆچ	-10.57
▁کوپگاں	-10.5701
ive	-10.5701
▁گشی	-10.5703
▁عبدالحمید	-10.5708
▁گورنر	-10.5712
کانی	-10.5715
▁سیستان	-10.5719
▁الیکشن	-10.5721
رجانک	-10.5727
▁مختلف	-10.5728
▁کشمیر	-10.574
▁پلیں	-10.5742
▁واہ	-10.5744
▁لگتمالی	-10.5746
▁کان	-10.5752
▁پو	-10.5755
▁یکین	-10.5755
▁کارکن	-10.5757
▁وراک	-10.5759
▁حملہ	-10.5764
ایش	-10.5769
▁ڈیل	-10.5769
▁منتگ	-10.5771
▁9	-10.5772
▁ہیل	-10.5772
▁ارساں	-10.5773
▁پلگار	-10.5774
▁گرنچ	-10.5774
▁ہستی	-10.578
▁شهر	-10.5785
▁f	-10.5786
▁مانیت	-10.579
▁Re	-10.5795
▁سٹی	-10.5796
▁طاہرہ	-10.5797
▁بیھار	-10.5797
▁کنٹ	-10.5805
ماہ	-10.5806
یو	-10.5811
▁مقابلہ	-10.5815
کتاب	-10.5816
۔۔۔۔۔۔۔۔۔۔۔۔۔۔۔۔	-10.5817
▁رشید	-10.5818
age	-10.582
▁8	-10.5822
ھان	-10.5824
▁محنت	-10.5825
ڈر	-10.5829
▁سهیگ	-10.5829
▁زلورت	-10.5831
▁شیپ	-10.5833
▁گرمی	-10.584
▁تخلیق	-10.5844
▁ایمن	-10.5848
▁شرط	-10.585
▁مانداشتگ	-10.5852
▁قیمتانی	-10.5853
▁use	-10.5854
▁اواں	-10.5854
▁شوک	-10.5858
▁اخراجات	-10.5862
▁رگام	-10.5865
▁اھمد	-10.5866
نٹ	-10.5868
▁ماھل	-10.5871
لک	-10.5872
▁امیری	-10.5872
▁بوجیگ	-10.5877
راں	-10.5884
اق	-10.5885
▁ٹل	-10.5888
▁یاگی	-10.5897
▁گشندہ	-10.5898
▁لئیب	-10.5905
روان	-10.5907
ازم	-10.5908
▁دستانی	-10.591
ry	-10.5913
▁اندازہ	-10.5914
▁گئے	-10.5918
▁کمان	-10.5919
▁جیڑہانی	-10.5919
▁خلیل	-10.5922
گان	-10.5925
▁کابل	-10.5926
▁فلم	-10.593
▁پانی	-10.5934
▁دربار	-10.5936
▁نیمگاں	-10.5945
▁نوبت	-10.5947
▁ٹارگٹ	-10.5948
▁گواچنی	-10.5957
▁بوج	-10.5959
▁لرز	-10.5959
▁روم	-10.5961
▁مھتل	-10.5965
▁ہندو	-10.5965
منا	-10.5966
▁شورو	-10.5969
▁ذہن	-10.597
▁احوال	-10.5972
▁دردے	-10.5973
▁نماسگ	-10.5974
اتگ	-10.5977
▁لوگی	-10.5979
▁فتح	-10.598
▁اسٹیشن	-10.5984
دات	-10.5984
▁مندی	-10.5985
▁ہاں	-10.5988
▁century	-10.5991
راج	-10.5993
▁De	-10.5993
تنت	-10.5998
▁میرے	-10.5999
▁حمایت	-10.5999
▁سج	-10.6
▁دلی	-10.6002
▁اصف	-10.6005
▁ناشرکاری	-10.6005
▁تیوگ	-10.6008
▁حل	-10.6011
▁شاکر	-10.6015
▁After	-10.6017
است	-10.6017
▁دوران	-10.6025
▁سودا	-10.6026
▁پئیم	-10.6027
▁پرچیکہ	-10.603
▁بھار	-10.603
▁جرمن	-10.6032
▁روا	-10.6032
▁داتہ	-10.6032
▁شیطان	-10.6037
▁دیت	-10.6042
▁روز	-10.6044
▁پتو	-10.6044
z	-10.6044
▁جمال	-10.6046
▁بوچ	-10.6048
▁ہونے	-10.6049
▁کترینا	-10.6051
ناں	-10.6052
▁رپ	-10.6059
▁جمیل	-10.6063
▁رستگیں	-10.6065
▁کواس	-10.6069
▁پیگمبر	-10.607
▁تاگت	-10.6076
▁امارات	-10.6081
جت	-10.6081
▁دانشور	-10.6082
▁میز	-10.6086
مند	-10.6091
▁four	-10.6094
▁سالونک	-10.6095
▁خضدار	-10.6099
▁16	-10.6102
▁She	-10.6109
▁کنے	-10.611
▁نکنت	-10.611
▁وردن	-10.6113
▁چت	-10.6114
▁کروڑ	-10.6116
▁کربانی	-10.6117
▁ہدا	-10.6124
▁چڑھاؤ	-10.613
▁شخصیت	-10.6144
▁سستگ	-10.6146
کرت	-10.6152
▁St	-10.6156
▁گراہک	-10.6156
مت	-10.6156
▁دگراں	-10.6159
▁قائم	-10.616
▁ڈولدار	-10.6161
▁گنجیں	-10.6162
▁اسد	-10.6164
بنت	-10.6168
▁مجھے	-10.6169
▁ڈیہی	-10.6179
▁پہلے	-10.6181
▁سروزیر	-10.6184
▁شرکت	-10.6185
▁شخص	-10.6185
▁نوکتریں	-10.6186
پٹ	-10.6186
▁یہاں	-10.619
▁رمگ	-10.6191
▁بباں	-10.6203
▁درامدیں	-10.6204
▁کڈن	-10.6206
▁شاعریءِ	-10.6218
▁ھمد	-10.6225
▁توکلی	-10.6225
▁sever	-10.6226
id	-10.6229
▁American	-10.6229
▁لالا	-10.6233
کھ	-10.6234
▁جرمنی	-10.6235
▁طالبان	-10.624
بیت۔	-10.6247
▁ماث	-10.6248
▁چیف	-10.6249
▁کٹم	-10.6249
▁میران	-10.6251
▁اپسر	-10.6256
▁شکاری	-10.6257
پرچا	-10.6261
ھار	-10.6265
▁پرایمن	-10.628
▁وپتگ	-10.628
وڑ	-10.6282
................	-10.6286
▁جہ	-10.6287
▁غالب	-10.6289
▁پان	-10.629
ها	-10.6293
▁کائے	-10.6294
▁یے۔	-10.6301
▁مید	-10.6301
ue	-10.6302
▁کمکیں	-10.6308
▁زراں	-10.6315
▁کوہن	-10.6319
▁دئینت	-10.6323
▁عبادت	-10.6327
▁final	-10.6331
▁رود	-10.6332
▁بهر	-10.6335
▁کاینت۔	-10.6336
▁h	-10.6336
▁دوئمی	-10.6339
▁کوچ	-10.6339
▁شانزدہ	-10.6341
▁فکری	-10.6347
رک	-10.6348
▁دلا	-10.6349
▁درخواست	-10.6352
▁ایکشن	-10.6354
▁سبا	-10.6361
▁زبر	-10.6362
▁پترگ	-10.6367
▁الما	-10.6368
▁دید	-10.6369
شاعر	-10.637
▁مرگے	-10.6371
▁اشتاپی	-10.6374
وف	-10.6382
▁مندیں	-10.6387
▁ڈنءَ	-10.6387
▁اولاک	-10.6388
▁ازاتیں	-10.6393
▁ملکءِ	-10.6397
▁حاتم	-10.6398
▁صحت	-10.6414
▁بیلٹ	-10.6415
▁لسبیلہ	-10.6416
▁نبشته	-10.6419
▁پیرا	-10.6422
▁ھیالانی	-10.6428
▁دلگوشی	-10.6429
▁لچ	-10.6432
▁دیوانجاه	-10.6435
▁گوشیں	-10.6436
ok	-10.6443
▁بیتہ	-10.6448
مب	-10.645
▁گہ	-10.645
▁نازرکیں	-10.6452
▁ریکارڈ	-10.6454
مرچی	-10.6454
پس	-10.6456
▁تحت	-10.6461
▁سئی	-10.6461
▁کن۔	-10.6462
▁ماھے	-10.6462
مہر	-10.6464
▁g	-10.6468
▁ارزانی	-10.6469
▁چکر	-10.6472
▁team	-10.6477
اہانی	-10.648
▁سچ	-10.6483
▁17	-10.6485
▁پیسری	-10.6487
▁غ	-10.6487
▁جاڑیگ	-10.6493
▁کارستانی	-10.6493
▁ون	-10.6502
▁near	-10.6504
▁کائنات	-10.6507
▁ڈگارانی	-10.6514
▁جهان	-10.6516
▁مروارد	-10.6528
▁درائی	-10.6533
▁لوزانک	-10.6533
▁دلانی	-10.6541
▁کاردار	-10.6547
▁شریک	-10.6551
cause	-10.6553
▁گمانی	-10.6563
▁لیکھ	-10.6565
▁ہواریں	-10.6565
▁تش	-10.6565
▁فرانسیسی	-10.6566
▁اڑے	-10.6567
▁پلامرزی	-10.6568
▁محفوظ	-10.6568
▁گواز	-10.6571
▁پھم	-10.6572
▁زوان	-10.6573
واب	-10.6577
▁گہتر	-10.6579
▁۔ا	-10.658
▁برطانیہ	-10.658
▁جنازہ	-10.658
۔۔۔۔۔۔	-10.6582
رس	-10.6584
ian	-10.6584
▁دوت	-10.6587
▁ترینت	-10.6591
▁شامل	-10.6594
▁back	-10.6596
▁مرو	-10.6596
▁زھگے	-10.6603
▁پڑءَ	-10.6603
▁مصر	-10.6603
▁براتاں	-10.6611
▁نگیگ	-10.6615
ڈو	-10.6617
رگ	-10.6617
ائن	-10.6622
▁سرءُ	-10.6625
▁بچکندگ	-10.6628
رز	-10.6633
▁سماجی	-10.6644
کوہ	-10.6644
▁مہکم	-10.6645
▁نوجوان	-10.6647
▁عجب	-10.6651
▁پنجابی	-10.6651
▁جسٹس	-10.6651
▁تراکے	-10.6655
▁جبر	-10.6663
ده	-10.6668
▁گلی	-10.6672
▁مردءَ	-10.6673
ty	-10.6673
▁remain	-10.6678
کان	-10.6679
▁یونان	-10.668
▁زوربیگواہ	-10.6682
▁تیزی	-10.6682
▁زھگاں	-10.6684
▁may	-10.6688
▁کلمتی	-10.6689
▁اظہار	-10.669
▁مپت	-10.6693
▁بلبل	-10.6693
▁کارمستر	-10.6694
▁رمب	-10.6696
▁محکم	-10.6701
▁سیہ	-10.6702
▁دابیں	-10.6704
▁ریکی	-10.6705
▁کامریڈ	-10.671
▁دلپدردی	-10.6711
▁گروپ	-10.6722
زان	-10.6724
ہا	-10.6728
مرگ	-10.6737
▁سمائی	-10.674
▁امد	-10.6741
▁پاشک	-10.6749
▁بندیگیں	-10.675
▁تالبان	-10.675
▁پیل	-10.6756
▁قربانی	-10.6757
▁قدرتی	-10.6759
▁جوڑشت	-10.6767
▁شیشگ	-10.6768
▁ہوتے	-10.677
▁حلاپ	-10.6773
▁ست	-10.6773
▁پلے	-10.6774
پان	-10.6777
حال	-10.678
▁روئے	-10.6781
▁پدائی	-10.6786
▁شوق	-10.6787
▁di	-10.6787
ٹا	-10.6788
▁ورنایاں	-10.679
▁چھبار	-10.6791
▁جنگے	-10.6792
رانی	-10.6793
اردو	-10.6798
▁دردانی	-10.6807
▁راجءِ	-10.6809
if	-10.6812
▁شانگ	-10.6812
▁اپنا	-10.6813
▁جلال	-10.6817
▁ھژدری	-10.682
▁اگ	-10.6822
▁جاتی	-10.6824
▁early	-10.6827
جر	-10.6829
▁پربند	-10.6831
شما	-10.6831
▁مردگ	-10.6837
▁could	-10.6837
▁At	-10.6837
▁زمانہ	-10.6839
▁ساچان	-10.6839
▁حافظ	-10.6843
▁جامگ	-10.6851
▁ذہنی	-10.6855
▁سریاب	-10.6859
▁کلم	-10.6863
▁دودا	-10.6866
اوں	-10.6866
▁did	-10.6868
▁شعرے	-10.6872
▁شب	-10.6875
▁لنٹانی	-10.6875
▁ھؤر	-10.6883
اتنت	-10.6887
▁کرتہ	-10.6887
▁گیٹ	-10.6889
▁نقش	-10.6891
تب	-10.6895
▁سیزدہ	-10.6895
▁انڈیا	-10.69
▁سرگ	-10.6902
▁باغ	-10.6902
▁میٹر	-10.6906
▁زوتاں	-10.6908
▁گرند	-10.6912
شیر	-10.6913
▁کئیت۔	-10.6914
▁درایگ	-10.6915
▁یکجا	-10.6917
شا	-10.6918
▁امباز	-10.692
▁ھژدہ	-10.6923
▁منٹ	-10.6924
▁انسانیت	-10.6925
▁ماتیں	-10.6929
▁سمل	-10.693
▁اخلاق	-10.693
▁مڑد	-10.6933
▁نبوتگ	-10.6935
▁پکیر	-10.6935
▁درکنگ	-10.694
ملک	-10.6941
▁براھوئی	-10.6943
▁سپاھی	-10.6947
نبشتہ	-10.6952
▁جہگیر	-10.6954
▁میت	-10.6957
▁جور	-10.6958
▁ورد	-10.6963
▁شودگ	-10.6965
▁توانائی	-10.6967
▁کتنت	-10.6968
''	-10.697
▁درجگ	-10.697
▁ارد	-10.6971
▁شتیں	-10.6971
▁کماندار	-10.6979
ئت	-10.6981
▁دھ	-10.6981
دوست	-10.6993
▁پہم	-10.6994
as	-10.7
▁place	-10.7001
▁ڈرون	-10.7002
▁شدت	-10.7005
▁تکانسر	-10.7006
▁کارڈ	-10.7013
▁بزرگ	-10.7015
▁صادق	-10.7016
▁ڈبلیو	-10.7017
▁ہل	-10.7019
▁گیرت	-10.702
▁کارندھاں	-10.702
▁براتانی	-10.702
ad	-10.7024
▁سیکرٹری	-10.7025
▁جڑ	-10.7028
▁پیداگ	-10.7036
▁دبئی	-10.7037
گشت	-10.7042
""	-10.7044
▁زاہ	-10.7051
▁ڪ	-10.7057
یکے	-10.7059
▁11	-10.7059
ance	-10.7063
▁رنداں	-10.7066
▁توبہ	-10.7069
▁ھیالاں	-10.7074
▁ڈرامہ	-10.7092
▁کمیونسٹ	-10.7095
▁بکار	-10.7097
▁قیمت	-10.7101
▁رھبندانی	-10.7101
▁along	-10.7103
▁ہب	-10.7104
▁پنجاپ	-10.7104
▁دوریں	-10.7107
▁شنز	-10.7114
▁گیں	-10.7116
▁بلا	-10.7117
▁اهانی	-10.7122
▁ذریعہ	-10.7124
▁خلافا	-10.7128
▁زہری	-10.7129
ھن	-10.7132
نگی	-10.7139
▁دیمرئی	-10.7142
وخ	-10.7149
ئن	-10.7157
▁کتابجاہ	-10.7159
▁حیدر	-10.7161
▁بیانیہ	-10.7162
▁لانک	-10.7163
▁چمن	-10.7169
▁شبیر	-10.7173
زہ	-10.7177
▁زبانی	-10.7179
▁سببا	-10.718
▁سلاھاں	-10.7192
▁جنگانی	-10.7193
▁sai	-10.7199
▁دلمراد	-10.72
▁ٹوھیں	-10.7201
ایانی	-10.7201
▁کارندھانی	-10.7203
am	-10.7206
▁ایگءَ	-10.7206
▁سوشلزم	-10.7211
▁جنینانی	-10.7212
▁تتکگ	-10.7213
▁عاجز	-10.7214
▁دوئینانی	-10.7219
▁جہلی	-10.7221
▁ہون	-10.7227
▁نائب	-10.7231
▁شاه	-10.7233
▁دستے	-10.7235
▁زانیں	-10.7241
▁بشکھندگ	-10.7242
▁May	-10.7243
▁لچھ	-10.7246
▁قابل	-10.7256
▁ہواری	-10.7257
▁بول	-10.7258
▁پرنٹ	-10.7258
▁گوریچانی	-10.726
▁صبور	-10.7264
▁گوازین	-10.7265
▁جمالی	-10.727
▁ہیر	-10.7273
▁احتگ	-10.7274
▁پات	-10.7275
▁دابے	-10.7277
▁مریت	-10.7281
▁ھمل	-10.7283
round	-10.7287
▁سنگتی	-10.7287
▁ارتگ	-10.7287
▁حفیظ	-10.7288
▁است۔	-10.7292
▁پرز	-10.7292
لگ	-10.7294
▁زن	-10.7295
▁بلال	-10.7297
ادا	-10.7297
لیں	-10.7301
▁واد	-10.7303
▁گورم	-10.7303
▁تاکے	-10.7304
▁ھلاسی	-10.7307
▁مشکول	-10.7313
ve	-10.7318
▁سازگ	-10.732
▁ونڈ	-10.7321
li	-10.7329
▁سہریں	-10.7335
▁ھا	-10.734
▁شلوار	-10.7343
ri	-10.7345
پیر	-10.7349
▁گت	-10.7352
یار	-10.7355
▁حاکمی	-10.7357
▁جھمنندیں	-10.7361
چون	-10.7363
▁زحم	-10.7364
▁ائیئ	-10.7368
▁تھانہ	-10.7368
▁گیجگ	-10.737
▁گوانکو	-10.7371
▁جسمانی	-10.7377
▁شئیرانی	-10.738
▁رہادگ	-10.738
▁گھ	-10.7385
▁ننداں	-10.7386
▁بحرین	-10.7386
▁حیثیت	-10.7387
▁انت۔۔۔۔	-10.7391
ئین	-10.7392
▁زنڈیں	-10.7393
▁رکھینگ	-10.7396
مو	-10.7416
▁سرپ	-10.742
▁داشتگیں	-10.7422
▁ایمنیں	-10.7431
پور	-10.7435
بیل	-10.7441
▁رہی	-10.7444
گرد	-10.7445
▁زمینی	-10.7446
▁رج	-10.7448
▁منانک	-10.7451
▁رنگی	-10.7452
▁How	-10.7452
▁عوامی	-10.7458
▁مبیت	-10.746
▁ببنت	-10.7467
ائل	-10.7468
▁پہمگ	-10.7469
▁بیغ	-10.747
▁حنیف	-10.7472
▁کپتہ	-10.7472
▁نزینکی	-10.7479
مال	-10.7479
لچہ	-10.748
▁unti	-10.7481
▁زرے	-10.7482
ایا	-10.7483
ڑا	-10.7483
▁اصلی	-10.7485
▁کشاں	-10.7489
ادی	-10.7491
▁بزیں	-10.7491
▁نیتکگ	-10.7492
▁خوش	-10.7496
▁لینگویج	-10.7497
▁عالمی	-10.7499
▁زانت۔	-10.75
▁ھست۔	-10.7502
یئ	-10.7506
▁نپس	-10.7514
▁کاگدے	-10.7518
▁صلاح	-10.752
▁War	-10.752
▁ship	-10.7521
▁درج	-10.7524
▁وسائل	-10.7528
▁ناشرکار	-10.7528
ten	-10.7534
▁نہاد	-10.7536
▁روت۔	-10.7538
▁جنسی	-10.7544
▁بارگ	-10.7547
▁ہمنچو	-10.7551
▁اسکانی	-10.7551
▁بین	-10.7551
▁مدان	-10.7552
na	-10.7553
▁لولی	-10.7559
▁گیت	-10.756
کٹ	-10.7561
▁انٹر	-10.7561
▁کمزور	-10.7564
۔ہمے	-10.7567
▁کارگشاد	-10.7567
▁دروہ	-10.7568
▁داخل	-10.7568
▁ریڈ	-10.757
▁مسعود	-10.7573
▁15	-10.7577
▁افلاطون	-10.7583
▁تچکی	-10.7584
▁واباں	-10.7585
▁گوستانک	-10.7589
▁بروکیں	-10.7596
▁ندیم	-10.7598
▁درستانی	-10.7598
▁صدیق	-10.7599
▁بیتءُ	-10.7603
▁جمع	-10.7606
▁جیونی	-10.761
▁پکرانی	-10.7614
سل	-10.7619
▁مرگانی	-10.7623
▁تاکاں	-10.7632
▁بلوچءِ	-10.7633
▁نعمت	-10.7636
▁لیکگ	-10.7641
▁سواد	-10.7644
▁پگار	-10.7647
یری	-10.7653
▁سواری	-10.7653
▁بہتام	-10.7654
▁مزدور	-10.766
▁حکمت	-10.7665
▁تعالیٰ	-10.7669
▁قربان	-10.7673
▁day	-10.7673
▁ڈوک	-10.7674
▁جنس	-10.7679
شرگداری	-10.7681
▁ذ	-10.7683
▁یونٹ	-10.7684
▁بنگیجی	-10.7688
▁مرزا	-10.7688
▁سبر	-10.7693
اگ	-10.7694
▁عرض	-10.7696
▁لنٹاں	-10.7699
▁لوار	-10.7699
▁مزل	-10.7699
▁تاہیر	-10.7703
▁داشتگ۔	-10.7704
▁کتءُ	-10.7711
▁اہت	-10.7711
▁city	-10.7712
▁براہوئی	-10.7715
شعر	-10.7716
▁قرن	-10.7717
▁ازباب	-10.772
▁بانزل	-10.7727
▁شہم	-10.7728
توار	-10.7729
▁چئیرمین	-10.773
▁فورسز	-10.7734
▁راجاں	-10.7739
▁same	-10.7741
▁شیرین	-10.7743
▁طلب	-10.7743
▁off	-10.7746
▁original	-10.775
▁گرانی	-10.7754
▁موسیٰ	-10.7755
▁مڑدم	-10.7759
▁اسکی	-10.776
▁راھشون	-10.7761
▁ستکگ	-10.7761
▁دئیں	-10.7765
▁زگریں	-10.7769
▁انگیر	-10.7771
▁million	-10.7772
▁مدینہ	-10.7772
▁باھوٹ	-10.7772
▁یعقوب	-10.7776
2	-10.7777
▁نکان	-10.7779
▁بستارے	-10.7781
درد	-10.7784
▁سنگین	-10.7787
ٹو	-10.779
ine	-10.7793
ll	-10.7797
▁گے	-10.7799
▁South	-10.7803
▁کاپٹر	-10.7803
▁کیف	-10.781
▁دس	-10.7811
گش	-10.7825
▁کتابی	-10.7829
▁کسه	-10.783
ٹری	-10.7831
▁پہریز	-10.7832
▁وسیلگ	-10.7834
▁دام	-10.7837
▁سرباز	-10.784
▁ناگت	-10.7841
▁نئیکہ	-10.7847
وب	-10.7847
▁پوک	-10.7853
▁بغیر	-10.7855
▁پادا	-10.7858
▁نندیت	-10.786
▁گاہ	-10.7872
▁زاتی	-10.7876
▁حشک	-10.7877
ھال	-10.7878
▁John	-10.7879
وکین	-10.7881
▁people	-10.7886
ٹس	-10.7886
▁down	-10.789
▁ڈاہ	-10.7891
▁ازت	-10.7892
▁اینکس	-10.7892
▁برائی	-10.7897
▁فرض	-10.7899
▁اوگام	-10.7901
▁زاہد	-10.7901
▁بیماری	-10.7903
▁گپتار	-10.7904
▁دیار	-10.7905
▁return	-10.7907
ایک	-10.7907
▁سئیل	-10.7908
▁راہءَ	-10.7908
▁any	-10.792
▁انت۔بلے	-10.7921
دم	-10.7921
▁شکست	-10.7922
▁فر	-10.7925
▁بگندے	-10.7934
▁راستے	-10.7937
▁فیصل	-10.7937
زمین	-10.7941
▁دارو	-10.7941
▁جہہ	-10.7942
▁توکل	-10.7943
گندگ	-10.7945
▁دہک	-10.7953
▁لاچاری	-10.7956
▁پجارگ	-10.7957
▁ارشکار	-10.7957
▁North	-10.7959
بندی	-10.7964
▁ھاموش	-10.7965
▁عثمان	-10.7967
گند	-10.7969
▁ٹرک	-10.7972
▁جمہوریت	-10.7972
▁رے	-10.7974
وپ	-10.7975
▁محدود	-10.798
▁km	-10.798
▁؂۔	-10.7982
▁کربان	-10.7983
▁نوکر	-10.7989
▁مکتب	-10.7989
بان	-10.799
▁بچکے	-10.7996
▁سراں	-10.7997
وھد	-10.8
▁force	-10.8001
▁20	-10.8004
▁مادی	-10.8007
▁نفسیات	-10.8009
▁اہی	-10.8011
▁وڈا	-10.8019
▁main	-10.8023
▁کڑی	-10.8023
▁ھزارانی	-10.8025
▁ہک	-10.8028
▁پلیٹ	-10.8028
ern	-10.8034
▁بلند	-10.8036
▁They	-10.8045
▁بانل	-10.8045
▁اک	-10.8047
▁خطرہ	-10.8048
▁شرت	-10.8049
▁ڈالچار	-10.8054
▁اؤ	-10.8056
▁نپاد	-10.8057
وچ	-10.8057
▁زانتکاریں	-10.8058
▁اخری	-10.806
▁شھیدانی	-10.8061
▁جلد	-10.8062
▁Be	-10.8063
▁یاتانی	-10.8063
▁ٹیبل	-10.8066
▁وارت۔	-10.8066
▁لینڈ	-10.8069
▁بنپد	-10.8071
▁سینگار	-10.8072
▁پٹی	-10.8074
▁طبقہ	-10.8082
▁رپتگ	-10.8088
▁دلمانگ	-10.8088
▁بوٹ	-10.8091
▁گیابان	-10.8092
▁پجہ	-10.8096
▁کستر	-10.8097
▁ظاھر	-10.8099
جاه	-10.8099
اتک	-10.81
▁player	-10.8106
ie	-10.8106
▁name	-10.8109
▁الف	-10.8111
▁ٹیسٹ	-10.8115
▁دھکان	-10.8117
▁پریشانی	-10.8118
▁قیامت	-10.8121
▁کلچر	-10.8122
▁ھوت	-10.8123
▁هدا	-10.8126
▁نزان	-10.8127
▁عہدی	-10.8128
▁اکرم	-10.8134
▁پولنگ	-10.8134
▁نبیسی	-10.8135
گین	-10.814
▁کارءِ	-10.8146
ھور	-10.8151
▁پشتو	-10.8153
▁وانندگ	-10.8156
▁how	-10.816
▁پانک	-10.816
▁August	-10.8161
▁زاری	-10.8163
▁پلک	-10.8179
▁میانی	-10.8181
▁ہنکین	-10.8182
تگ۔	-10.8186
▁کنٹگ	-10.8187
ازات	-10.8188
▁تھاری	-10.8189
▁سربازی	-10.819
▁واز	-10.819
▁کاریں	-10.819
▁سوز	-10.8193
▁مگرب	-10.8195
▁مدار	-10.8196
▁برورد	-10.8198
▁شہداد	-10.8199
sh	-10.8202
دیگ	-10.8203
▁پارلیمنٹ	-10.8204
▁داگ	-10.8205
▁سگار	-10.8205
▁چاریگ	-10.8207
▁لزت	-10.8209
▁ثبوت	-10.8215
▁نازینک	-10.8218
▁ہزاراں	-10.8218
▁life	-10.8218
▁بیسہ	-10.8219
▁ماہیگ	-10.8225
▁میتگاں	-10.8236
▁لحاظ	-10.8238
▁انچوشکہ	-10.8243
▁ریپبلکن	-10.8249
▁جنجالاں	-10.825
▁سقراط	-10.825
▁ھاں	-10.825
▁زوراکیں	-10.8254
▁میم	-10.826
x	-10.8261
▁الرحمن	-10.8262
▁بلی	-10.8263
▁سبزل	-10.8264
▁شوانگ	-10.8264
▁ششمی	-10.8269
▁اییا	-10.8273
▁جنگءِ	-10.8276
▁دیگی	-10.8282
▁ویب	-10.8284
▁مثل	-10.8287
▁ایسا	-10.8287
▁کارا	-10.8288
▁سادگیں	-10.8289
ێا	-10.8294
ant	-10.83
شاعری	-10.83
▁دعویٰ	-10.8301
▁ھشتاد	-10.8307
▁پابند	-10.8307
▁راہے	-10.8308
▁پسگ	-10.8312
▁کوم	-10.8314
▁An	-10.8322
▁لیبی	-10.8333
▁دوستدار	-10.8334
کرتگ	-10.8335
▁مہری	-10.8346
▁محکمہ	-10.8349
▁ڈیم	-10.835
ئر	-10.8353
▁ردءُ	-10.8354
▁دوسرے	-10.8356
▁لانگ	-10.8358
گیش	-10.8362
▁رپت	-10.8364
▁دمانءَ	-10.8365
▁start	-10.8365
▁مغربی	-10.8366
▁ھمرائی	-10.8366
?"	-10.8369
▁توکءَ	-10.8373
دری	-10.8375
▁کرءَ	-10.8375
▁فرد	-10.8375
انسان	-10.8376
▁دلپروش	-10.8376
▁گاڑیاں	-10.8376
▁اثرات	-10.8381
▁زوران	-10.8382
▁پٹءُ	-10.8382
▁اہمیت	-10.8384
▁دروشمءَ	-10.8388
▁ابدال	-10.8393
▁ائیء	-10.84
▁کوه	-10.8401
▁دراجی	-10.8404
▁برف	-10.8405
▁کپنت	-10.8413
▁انہیں	-10.8413
▁do	-10.8416
▁support	-10.8416
▁قومانی	-10.8417
اھانی	-10.8419
▁جتیں	-10.842
▁ودان	-10.842
▁پرست	-10.8421
▁هو	-10.8423
▁دوئیناں	-10.8425
▁سراج	-10.8429
▁رش	-10.843
▁شپءِ	-10.8431
▁نگن	-10.8431
▁راھی	-10.8443
▁ترگ	-10.8451
لوٹ	-10.8452
ical	-10.8452
ol	-10.8454
بچار	-10.8454
▁لوگوں	-10.8459
▁بیچ	-10.846
▁بوتاں۔	-10.846
ne	-10.8462
▁ماڈل	-10.8463
سٹر	-10.8465
▁وداریگ	-10.8466
▁ٹیکی	-10.8467
▁ساہت	-10.8468
▁اشتگ	-10.847
▁اگوں	-10.8472
▁شناسی	-10.8473
▁لگتمال	-10.8474
▁ژ	-10.8477
▁شائرے	-10.8478
▁شپانک	-10.8478
▁پریشر	-10.8479
ھچ	-10.8479
▁رؤکیں	-10.8481
▁گڑاں	-10.8482
▁کپتاں	-10.8483
اریں	-10.8488
▁زانتکارانی	-10.8489
?’’	-10.8489
ندہ	-10.8489
▁ھاس	-10.8491
▁ساه	-10.8493
▁کھولاں	-10.8494
▁معنی	-10.8496
▁ایشیا	-10.8501
▁درکیت	-10.8503
▁برباد	-10.851
▁releas	-10.8517
▁رادگ	-10.8517
▁گوشے	-10.8517
▁ترسینگ	-10.8519
▁لوٹوک	-10.852
▁ارزی	-10.8521
▁گوارگ	-10.8522
▁انٹرنیٹ	-10.8532
▁جھدکار	-10.8533
▁وھدا	-10.8536
▁شانی	-10.8538
▁کالونی	-10.8538
▁بلاہیں	-10.8541
▁سالیں	-10.8542
▁یکرندے	-10.8544
▁توم	-10.8546
▁ھائی	-10.8551
▁امبر	-10.8552
▁عراق	-10.8555
▁٭٭	-10.8559
nother	-10.8566
▁گومازی	-10.8569
▁متحدہ	-10.8569
▁انہوں	-10.857
ir	-10.8572
سری	-10.8573
▁ملی	-10.8575
▁پکرءُ	-10.8576
▁شعراں	-10.858
▁کشتگ۔	-10.8583
▁دمکاں	-10.8588
▁میا	-10.8592
▁دہکان	-10.8597
دین	-10.8598
▁سیالی	-10.8599
▁سگگ	-10.8599
▁جنزگ	-10.86
▁ہفت	-10.8601
واہ	-10.8601
زار	-10.861
▁مڈیانی	-10.861
▁وه	-10.8615
▁رضی	-10.8619
وانی	-10.8619
▁گالے	-10.8619
▁جہدے	-10.8622
تن	-10.8632
▁نگار	-10.8635
▁سوراب	-10.8637
ro	-10.8638
▁ازمانکاں	-10.8642
▁وھدءِ	-10.8648
▁بارگیں	-10.8649
▁دارایت	-10.8655
▁receiv	-10.8655
▁رکین	-10.8662
▁دھک	-10.8662
▁تمامیں	-10.8665
▁زیکیں	-10.8666
▁small	-10.8667
▁ہاتھ	-10.8669
▁مارشتے	-10.8671
▁بلائیں	-10.8675
▁انتظامیہ	-10.8675
▁بوؤکیں	-10.8675
▁زوراکیاں	-10.8683
▁بلوچستانءَ	-10.8683
▁شف	-10.8686
▁مردمءَ	-10.8687
نیں	-10.8688
▁واریں	-10.8691
▁اوداں	-10.8692
▁شنک	-10.8694
▁ڈب	-10.8694
▁رژنا	-10.8695
یان	-10.8696
▁فٹ	-10.8697
▁مگسی	-10.8698
▁پگری	-10.8699
▁فری	-10.8701
▁مستی	-10.8701
▁پھریز	-10.8703
▁شاگرد	-10.8703
یوں	-10.8706
▁پارک	-10.8706
▁درگتا	-10.8707
▁سانمند	-10.8711
ہند	-10.8712
▁ساحرءِ	-10.8713
▁واہش	-10.8716
ایوک	-10.872
▁مزاحمتی	-10.8722
▁ترو	-10.8731
▁ڈاک	-10.8732
▁فل	-10.8734
کسہ	-10.8736
▁مھروان	-10.8737
▁زو	-10.8738
▁اوت	-10.8743
▁کنتءُ	-10.8745
▁اہد	-10.8745
▁لائبریری	-10.8748
▁قسمت	-10.8755
▁درنگ	-10.8757
▁دئور	-10.8757
▁کونڈ	-10.8764
▁روگن	-10.8765
▁یکدم	-10.8769
▁قلعہ	-10.877
ھمیش	-10.8771
▁نمب	-10.8772
▁بندے	-10.8774
▁کرز	-10.8776
اتاں	-10.8778
▁گشنت۔	-10.878
▁بلۆچی	-10.8785
انچو	-10.8788
▁ریفرنس	-10.8791
▁مولاداد	-10.8792
▁اناگت	-10.8797
▁زانئے	-10.8798
▁انگو	-10.88
▁group	-10.8803
▁بورڈ	-10.8804
▁پترتگ	-10.8805
▁همراه	-10.8806
▁بیں	-10.8809
▁عبدال	-10.8813
▁شاپ	-10.8818
▁اوتاگ	-10.882
▁head	-10.8821
▁تکاں	-10.8822
▁سبزی	-10.8828
▁ڈا	-10.8831
▁سالءَ	-10.8835
▁Septe	-10.8837
▁Ap	-10.8841
▁point	-10.8842
da	-10.8843
▁کرنل	-10.8853
▁قانود	-10.8854
▁بلڈ	-10.8857
▁پلان	-10.8861
نج	-10.8862
▁ڈان	-10.8866
▁each	-10.8872
▁یدار	-10.8874
▁اینچک	-10.8874
مزنیں	-10.8876
▁Man	-10.8882
زانگ	-10.8882
▁لبزے	-10.8884
فل	-10.8884
▁ارٹ	-10.8885
▁گیشین	-10.8888
▁نگدی	-10.8888
▁دزگٹ	-10.889
la	-10.8893
▁درگتءَ	-10.8894
▁کتابءِ	-10.8898
باں	-10.89
▁باقی	-10.8902
▁دستان	-10.8907
▁war	-10.8907
▁باھو	-10.8914
▁علامت	-10.8914
▁German	-10.8918
▁احسان	-10.8918
▁صفحہ	-10.8919
▁کلک	-10.892
▁ھردوکیں	-10.892
▁تیرانی	-10.8921
▁line	-10.8935
▁ہد	-10.8936
▁شرم	-10.8939
▁مریم	-10.894
▁نوٹ	-10.8944
یج	-10.8944
▁توری	-10.8946
واری	-10.8947
▁کلکشان	-10.8947
▁پریشی	-10.8951
▁جبین	-10.8951
کنت۔	-10.8951
▁معنائی	-10.8951
▁سیمسری	-10.8954
▁افغان	-10.8954
گام	-10.8955
▁سوبی	-10.8961
▁تھی۔	-10.8965
▁نبوت	-10.8968
▁وراں	-10.8969
▁امبار	-10.897
▁بامرد	-10.8971
▁پیروک	-10.8972
▁قحطانی	-10.8976
▁ویڈیو	-10.8976
▁مگ	-10.8979
▁اییئے	-10.8982
شتگ	-10.8986
▁ملیر	-10.8987
▁World	-10.8988
▁مہتل	-10.8996
▁بیزار	-10.8997
▁پہلوان	-10.9
▁بشک	-10.9002
▁حدیث	-10.9003
▁سرکارءِ	-10.9004
▁شھ	-10.9006
وھدے	-10.9008
▁روانکے	-10.901
▁ناک	-10.9011
▁وبا	-10.9015
▁البتہ	-10.9017
▁رھشونی	-10.9017
nd	-10.9019
▁مزنی	-10.9021
▁افیسر	-10.9024
▁دێما	-10.9026
▁جسد	-10.9031
▁دروریں	-10.9036
▁بڑ	-10.9038
▁بوتگاں	-10.9044
وگ	-10.9046
اھی	-10.9046
▁طارق	-10.9049
▁بحر	-10.9055
جل	-10.9055
ter	-10.9056
▁جوہر	-10.9066
uch	-10.9066
ھل	-10.907
▁برتگ۔	-10.9073
▁هزار	-10.9073
▁توئے	-10.9078
ren	-10.908
گءِ	-10.9081
▁مقامی	-10.9083
▁ڈگری	-10.9083
▁سروس	-10.9083
▁لنک	-10.9087
چل	-10.9089
▁گسر	-10.9089
▁شہباز	-10.9091
▁ناگ	-10.9092
▁لاھور	-10.9094
▁توارءَ	-10.9095
▁شموش	-10.9099
▁امبازاں	-10.91
گڈا	-10.9106
▁واجکار	-10.9109
زا	-10.911
گپت	-10.9111
▁ہسپتال	-10.9111
مے	-10.9122
▁ھنچشیں	-10.9127
▁کوسٹ	-10.913
▁سینٹر	-10.9136
▁خراب	-10.9136
▁سکا	-10.9139
▁بڑی	-10.9139
▁five	-10.9141
▁order	-10.9141
▁اداں	-10.9144
▁پلنگ	-10.9144
▁زا	-10.9148
راست	-10.9149
▁ھکومت	-10.9152
▁حداءِ	-10.9153
▁ھزمت	-10.9155
▁single	-10.9156
▁اسک	-10.9156
▁کبھی	-10.9157
▁سارتر	-10.9162
▁وئیلے	-10.9163
▁واھشت	-10.9163
▁گوانزگ	-10.9165
لس	-10.9169
▁بوتہ۔	-10.9169
کین	-10.9171
▁attack	-10.9176
▁سنگے	-10.9176
▁دیکھ	-10.9178
▁پورٹ	-10.9179
▁No	-10.9185
▁نشنل	-10.9188
▁سدکی	-10.9189
▁کبرستان	-10.9189
برو	-10.9191
▁محراب	-10.9191
▁لوپ	-10.9192
شم	-10.9199
▁کرو	-10.92
▁ڈر	-10.9202
▁قدم	-10.9209
▁result	-10.9211
▁جاگھے	-10.9214
▁پیداوار	-10.9221
▁کانٹ	-10.9221
▁will	-10.9224
▁اسکور	-10.9225
▁وتئی	-10.923
بال	-10.9237
▁نبشت	-10.9237
▁describ	-10.9238
▁سربوت	-10.9239
▁ہن	-10.9241
▁کڈ	-10.9242
اکی	-10.9242
▁پیغام	-10.9249
▁اژ	-10.925
لوگ	-10.925
▁وارس	-10.925
▁جنوزام	-10.9251
رین	-10.9256
▁جزم	-10.9258
▁appear	-10.9259
▁چیلنج	-10.9263
▁سھیل	-10.9263
▁ود	-10.9267
▁زندمانی	-10.9272
▁لاشانی	-10.9277
▁دمے	-10.928
▁lead	-10.9281
▁کافی	-10.9282
▁یت	-10.9282
▁جے	-10.9283
▁ساچی	-10.9285
▁حیالاں	-10.9289
چن	-10.9289
▁سبارگ	-10.9296
▁دیگءَ	-10.9297
▁اہان	-10.9299
▁تھام	-10.93
▁لاشاری	-10.9305
▁گردش	-10.9309
om	-10.931
▁رات	-10.9312
▁نل	-10.9318
وڈ	-10.9319
ts	-10.9325
اراں	-10.9325
▁ابدل	-10.9327
▁کمرہ	-10.9328
▁کافر	-10.9329
▁زانشتی	-10.9333
▁طرز	-10.9334
▁چریشاں	-10.9338
▁ایجنسی	-10.9343
▁تکنیکی	-10.9346
▁کون	-10.9346
▁ٹوپ	-10.9347
▁ریاض	-10.935
ینی	-10.9352
▁ترسے	-10.9352
▁اسن	-10.9359
▁داتنت	-10.9363
▁کندیل	-10.9366
▁یقین	-10.9366
▁سھت	-10.9367
▁تنکیں	-10.9367
▁منارا	-10.9368
▁مکنت	-10.9373
▁پرو	-10.9375
▁کیلئے	-10.9375
جست	-10.9375
▁پجی	-10.9377
?“	-10.938
غا	-10.938
▁تشدد	-10.9384
▁ڈال	-10.9386
ھت	-10.9387
▁سوچگ	-10.9389
▁درنیام	-10.9393
▁کلاسیکل	-10.9394
ate	-10.9396
▁شادہ	-10.94
▁ترینگ	-10.9402
▁اند	-10.9402
▁زون	-10.9407
▁اصول	-10.9408
im	-10.9408
▁ائ	-10.9409
▁اگاہ	-10.9409
▁عقلی	-10.9412
▁بنگپانی	-10.9414
▁نیاتکگ	-10.9415
مک	-10.9416
▁پیپلزپارٹی	-10.9416
▁گلائیش	-10.9416
▁مونجا	-10.9417
▁یکشمبے	-10.9418
▁گپتگ۔	-10.9422
▁فٹبال	-10.9423
▁ٹیک	-10.9423
▁نازل	-10.9428
▁نکل	-10.943
▁فا	-10.943
▁گارڈ	-10.9432
▁ماھی	-10.9432
▁ہدایت	-10.9433
▁وکٹ	-10.9433
ڈن	-10.9436
▁music	-10.9438
▁ورک	-10.9439
▁زندگیءِ	-10.9444
▁جننت	-10.9445
▁نگور	-10.9446
نند	-10.9447
▁شائریءِ	-10.9448
▁ده	-10.9449
▁جلوہ	-10.9451
▁بسمل	-10.9452
▁اپوزیشن	-10.9452
▁ساریءَ	-10.9453
▁جتک	-10.9461
▁مردمءِ	-10.9462
▁ھورت	-10.9466
▁پیغمبر	-10.9467
▁ظہور	-10.9468
▁انجمن	-10.9469
▁نگر	-10.9471
▁دیمونی	-10.9473
▁کشاری	-10.9476
▁سوری	-10.9477
▁سائیکل	-10.9478
▁گدارے	-10.9479
▁گوہار	-10.948
▁بھشت	-10.948
▁زہ	-10.9484
▁کنائینتگ	-10.9485
▁باں۔	-10.9487
▁تعلقداری	-10.9487
▁con	-10.9489
▁چھر	-10.9491
▁دوشمبے	-10.9493
▁سردارانی	-10.9501
▁ھی	-10.9502
▁ایلیٹ	-10.9504
▁مردک	-10.9505
▁ھوری	-10.951
▁consider	-10.9514
چوش	-10.9516
ایے	-10.952
▁کردی	-10.9521
▁زہگاں	-10.9524
▁اشان	-10.9526
▁ھرنائی	-10.9526
احمد	-10.9528
▁ایردستیں	-10.9529
▁گالرد	-10.9532
▁Dur	-10.9532
▁زمینءِ	-10.9538
▁great	-10.9538
▁پگ	-10.9542
▁مشن	-10.9546
▁ملین	-10.955
▁رکھ	-10.9551
▁ایجنٹ	-10.9551
▁لالچ	-10.9551
▁اشرف	-10.9551
▁زباد	-10.9556
▁لہڑ	-10.9563
▁June	-10.9563
▁ابیتک	-10.9565
وئیں	-10.9566
▁پیس	-10.9566
▁سالروچ	-10.9569
▁فرمان	-10.957
▁تحقیق	-10.9571
▁تخت	-10.9579
▁لاشار	-10.9583
▁گن	-10.9591
mp	-10.9591
▁کیفیت	-10.9591
۔اگاں	-10.9594
ous	-10.9598
▁گوشتی	-10.96
سنگ	-10.9601
▁نفس	-10.9602
op	-10.9604
▁رئیسی	-10.9613
▁شوکت	-10.9614
▁جہدءَ	-10.9616
▁وانیت	-10.9616
▁پولکار	-10.9619
▁کروس	-10.9621
▁گپءِ	-10.9622
▁گونگیں	-10.9626
▁کوہانی	-10.9627
▁بولی	-10.9635
▁شتہ	-10.9637
کارے	-10.9638
▁پشدر	-10.9639
▁ماتے	-10.9639
▁رزاق	-10.9645
▁ٹپیگ	-10.9646
▁بنڈ	-10.9646
▁کرکے	-10.9648
▁کسہانی	-10.9656
▁اسلوب	-10.9658
▁زاھد	-10.9662
▁اولاد	-10.9668
▁شوھازگ	-10.9668
▁مردی	-10.9668
▁میرو	-10.967
▁یکروچے	-10.9679
▁رؤ	-10.968
▁سین	-10.9683
▁میک	-10.9687
▁کیلو	-10.969
دپ	-10.9691
دیر	-10.9693
▁انگ	-10.9697
▁since	-10.97
▁own	-10.9702
▁تکانسری	-10.9704
▁حبیب	-10.9705
▁اتیں۔	-10.9708
▁صالح	-10.9708
▁گاماں	-10.9711
▁ھج	-10.9722
▁دوسری	-10.9735
▁ژند	-10.9736
!’’	-10.9736
▁کمکے	-10.9737
▁کابینہ	-10.9737
ناک	-10.9738
▁بکنیں	-10.974
▁چۆ	-10.9743
▁دنیگہ	-10.9743
iz	-10.9744
مز	-10.9745
▁وپسگ	-10.9746
▁داروک	-10.9747
▁ارسطو	-10.9749
▁مھتر	-10.9749
▁دالبندین	-10.9751
▁اشیءَ	-10.9758
▁دلبر	-10.9759
ۆک	-10.9762
▁بھٹو	-10.9765
▁شعبہ	-10.9769
کراچی	-10.9776
عت	-10.9788
ڑہ	-10.9789
ork	-10.9792
▁پارٹیءِ	-10.9798
▁هون	-10.9802
▁ڈڈ	-10.9802
▁لوگبانک	-10.9803
▁جیسے	-10.9804
▁what	-10.9805
▁گرماگ	-10.981
▁زردیں	-10.981
▁سیکیورٹی	-10.9813
ٹل	-10.9817
▁کوشت	-10.9819
▁حدائی	-10.982
▁شئیرے	-10.9823
▁سدانی	-10.9824
▁زانشی	-10.9827
▁سردی	-10.9831
▁مش	-10.9832
▁ات۔من	-10.9832
دنیا	-10.9838
▁مرگءِ	-10.9839
غی	-10.9841
▁States	-10.9842
▁نفسیاتی	-10.9843
▁J	-10.9844
▁برابری	-10.9844
▁پردگ	-10.9846
▁ط	-10.9848
▁دنیائے	-10.9849
▁ھیک	-10.985
▁رابطہ	-10.9851
▁نعیم	-10.9856
گدار	-10.9859
▁جامی	-10.9862
species	-10.9863
▁بنیاتی	-10.9869
▁زندہ	-10.9871
▁ریسرچ	-10.9876
▁حیالءَ	-10.9878
▁ھسین	-10.9879
▁لونجان	-10.9883
▁مرکزی	-10.9891
▁گوشدار	-10.9893
کسے	-10.9895
صل	-10.9901
ائین	-10.9903
▁هور	-10.9906
▁نئی	-10.9906
▁چرس	-10.9907
ئیت	-10.9907
rote	-10.9908
▁پریدہ	-10.9909
▁بھارت	-10.991
▁تیرے	-10.9913
▁دارگی	-10.9914
▁نبشتکار	-10.9915
▁مسکرا	-10.9917
▁محسوس	-10.9917
فت	-10.9917
▁بیمار	-10.992
▁انسانانی	-10.9924
▁استت	-10.9925
▁خاطر	-10.9928
▁تنظیم	-10.9928
▁تراکناک	-10.9929
▁ارزشتے	-10.993
▁ٹکرے	-10.9933
▁زوراور	-10.9935
اباد	-10.9935
▁جنگا	-10.9938
▁طالب	-10.9942
ارے	-10.9946
▁تہرے	-10.9951
▁درکپگ	-10.9961
▁کیں	-10.9961
▁مسلمانانی	-10.9965
▁گردگ	-10.9965
▁ھوشاپ	-10.9969
ver	-10.9972
ونی	-10.9976
▁زالم	-10.9976
ءَرا	-10.9977
ou	-10.9982
▁وزم	-10.9984
سد	-10.9989
ese	-10.999
▁مولد	-10.9992
بیر	-10.9996
▁سنگانی	-10.9996
▁بودلئیر	-11.0001
▁reach	-11.0005
▁زاکر	-11.0005
ill	-11.0007
کجام	-11.0008
تین	-11.0008
▁انت۔ائی	-11.0009
▁شوم	-11.001
▁گجر	-11.0011
▁سنگینیں	-11.0014
▁باتن	-11.0015
▁اندگہ	-11.0015
ag	-11.0016
▁انٹرنیشنل	-11.0017
▁ادریس	-11.0018
▁ناولٹ	-11.0021
▁گین	-11.0022
▁ملنگ	-11.0023
▁............	-11.0024
▁گلباگ	-11.0032
▁بنءَ	-11.0033
ٹن	-11.0036
os	-11.0041
▁13	-11.0042
▁ازاب	-11.0044
▁ہزدار	-11.0044
▁ماحول	-11.0048
v	-11.005
▁شگر	-11.0052
▁لیا	-11.0053
▁گہتری	-11.0054
▁ئت	-11.0055
▁famil	-11.0056
▁نزام	-11.0058
▁روایتی	-11.006
▁واقع	-11.0063
▁روشن	-11.0067
▁اماں	-11.0069
▁دگری	-11.0077
ہہ	-11.0078
▁اتوں	-11.0081
▁system	-11.0082
▁انفارمیشن	-11.0082
ha	-11.0085
▁state	-11.0085
▁late	-11.0095
▁مکر	-11.01
▁پیسریگیں	-11.0102
▁سوچن	-11.0103
ril	-11.0103
▁سرءِ	-11.0106
وال	-11.0108
te	-11.0112
▁دونوں	-11.0112
▁راضی	-11.0112
▁رشتگ	-11.0115
▁بیت۔اے	-11.0116
▁مھ	-11.0117
پک	-11.0118
▁اقتصادی	-11.0119
▁شمس	-11.0121
▁پارلیمانی	-11.0122
ھک	-11.0133
▁کسب	-11.0134
▁تپاسگ	-11.0135
","","","","","	-11.0136
بری	-11.0141
▁دارے	-11.0142
▁دوستاں	-11.0145
▁انت۔من	-11.015
▁انتظام	-11.015
شگ	-11.0152
▁گوئشان	-11.0153
▁کنڈے	-11.0158
▁ڈبہ	-11.0158
▁مردءِ	-11.0164
▁نعرہ	-11.0166
▁ظالم	-11.0166
▁موسمانی	-11.0167
▁تربیت	-11.0168
لٹ	-11.0168
▁بخت	-11.0169
▁مندر	-11.0169
سار	-11.0172
▁علاوہ	-11.0173
تم	-11.0176
▁معیار	-11.0177
▁دیں	-11.0178
▁اہل	-11.0178
چوکہ	-11.0185
▁نسیب	-11.0187
▁سگی۔	-11.0188
اسر	-11.0189
▁دربر	-11.0194
▁جمبراں	-11.0195
▁تہنائی	-11.0199
▁پجاہ	-11.0201
▁....	-11.0201
▁ساھتے	-11.0203
▁چوناہا	-11.0204
▁ایسے	-11.0206
▁جنکاں	-11.0213
▁short	-11.0213
▁بندن	-11.0213
▁لہتین	-11.0218
▁سہیل	-11.022
▁کانال	-11.0222
▁due	-11.0225
▁last	-11.0227
که	-11.0227
▁طوفان	-11.0229
▁اشکر	-11.0229
▁علت	-11.0232
▁کپاں	-11.0235
▁Octo	-11.0239
▁کوھلو	-11.0239
▁شیک	-11.0243
پاکستانی	-11.0244
▁ادمے	-11.0248
تل	-11.0252
▁تسلا	-11.0253
▁ٹھ	-11.0257
▁گپتہ	-11.0261
▁فلسفہءِ	-11.0263
▁گپان	-11.0265
▁گندءُ	-11.0269
▁ابیتکی	-11.0269
▁منصور	-11.0271
▁water	-11.0271
▁لگیت	-11.0278
▁کیل	-11.0282
▁مہرءُ	-11.0282
▁co	-11.0282
▁اصغر	-11.0283
▁داشت۔	-11.0287
▁بیہار	-11.0289
▁دلاں	-11.0289
▁مضبوط	-11.0292
▁بلوٹ	-11.0292
▁ریز	-11.0295
▁بوھگءَ	-11.0296
▁قید	-11.0297
▁کوھاں	-11.0299
▁لڈگ	-11.0302
▁بوتن	-11.0306
▁سروز	-11.0306
▁ہو۔	-11.0309
مین	-11.0312
▁حالے	-11.0317
▁یکجاھی	-11.0318
▁week	-11.0319
▁جعفر	-11.032
▁جانے	-11.0321
▁دیواناں	-11.0324
ين	-11.0327
▁عابدہ	-11.033
▁کیا۔	-11.0336
▁تمنی	-11.034
▁جیڑھے	-11.0343
▁won	-11.0347
▁دودانی	-11.035
▁اپہ	-11.0353
▁دنیایے	-11.0354
▁رہبندانی	-11.0354
▁حج	-11.0355
▁چراگے	-11.0355
▁شناس	-11.0357
▁ات۔ائی	-11.0357
▁چشین	-11.0357
مگ	-11.0357
▁ملافاضل	-11.0358
▁پورسز	-11.036
▁تازی	-11.0366
▁وشیانی	-11.0366
▁کماشیں	-11.0368
▁ہنداں	-11.0371
▁غلامی	-11.0375
بات	-11.0375
▁تاس	-11.0376
▁بلاہ	-11.0377
▁صوفی	-11.0379
▁بچاں	-11.0379
▁روژنا	-11.038
منءَ	-11.038
▁زیک	-11.0382
▁set	-11.0384
پشت	-11.0386
▁ڈولا	-11.0389
مروچی	-11.0392
▁ھمنکس	-11.0394
▁ہمت	-11.0395
▁شپانی	-11.0395
▁مراگشے	-11.0398
خت	-11.0398
▁پیشرد	-11.0405
▁چراغ	-11.0407
ازی	-11.0409
▁قریش	-11.0413
▁پیادگ	-11.0413
▁جگ	-11.0418
▁خمار	-11.0422
▁بلہ	-11.0423
I	-11.0425
▁کلومیٹر	-11.0426
▁اسرءَ	-11.0426
▁رویہ	-11.0427
نوک	-11.0428
▁ھورانی	-11.0431
مزن	-11.0431
▁ایرانشھر	-11.0431
▁حالتاک	-11.0439
▁معنہ	-11.0443
▁سپاہ	-11.0444
▁باھند	-11.0447
▁پسندیں	-11.0449
▁لیکہانی	-11.0449
▁جنیناں	-11.0449
▁بوتنت۔	-11.045
▁کارروائی	-11.0453
▁عبد	-11.0455
▁کلاگ	-11.0456
▁سرگرمی	-11.0456
▁راجدوستی	-11.0459
▁شاھ	-11.046
▁ماھکان	-11.0461
▁پوریاگر	-11.0462
very	-11.0465
▁اسپتال	-11.0466
▁موضوع	-11.0467
▁ریکانی	-11.0468
▁کری	-11.0469
▁بنگالی	-11.047
کپ	-11.0471
ig	-11.0471
▁کسانکیں	-11.0473
سور	-11.0476
▁دوزہ	-11.0477
ئنت	-11.0477
▁دھلی	-11.0479
▁کوریں	-11.048
▁گندیم	-11.0487
▁ونگ	-11.0488
▁مانش	-11.049
▁شه	-11.0493
▁ہمینچو	-11.0494
▁باث	-11.0494
▁دارانی	-11.0495
▁حیا	-11.0496
▁رنگءُ	-11.0496
▁رفیق	-11.0496
ولی	-11.0496
▁نبشتانکاں	-11.0497
▁رستگ۔	-11.0509
▁ائر	-11.0511
▁دماگ	-11.0518
▁world	-11.0522
گوات	-11.0525
▁اوں۔	-11.053
▁دژمنی	-11.0531
▁کدرت	-11.0532
▁غیرت	-11.0534
▁ساچگ	-11.0537
▁ماہناز	-11.0538
یدہ	-11.054
▁زندءُ	-11.054
▁شلی	-11.0554
▁جیڑاں	-11.0555
▁تاکانی	-11.0562
▁ازل	-11.0562
▁افسوس	-11.0562
▁کانودی	-11.0562
▁شناخت	-11.0563
گوادر	-11.0565
▁شیہک	-11.0565
▁ترتیب	-11.0565
▁سازیں	-11.0567
▁Le	-11.0567
▁درکپ	-11.0574
▁now	-11.0577
▁عبدالواحد	-11.0578
▁زانوگر	-11.0578
▁کبل	-11.0582
درا	-11.0586
▁اھم	-11.0587
▁role	-11.0589
▁کپتگاں	-11.059
▁ششت	-11.059
▁بدلءَ	-11.059
▁بیث	-11.0592
▁ادارہاں	-11.0592
▁کیپ	-11.0595
▁واھگاں	-11.0595
▁زہگانی	-11.0597
▁فطرت	-11.0598
▁تیابدپ	-11.0603
ی۔	-11.0607
▁چپیں	-11.0609
D	-11.0612
▁کارستے	-11.0614
ابی	-11.0616
▁ھید	-11.0617
▁رنگاں	-11.0619
▁مقبول	-11.062
کریم	-11.0621
▁نزیکءَ	-11.0622
گاہ	-11.0627
▁پچار	-11.0629
▁گڈاں	-11.0629
▁پبلی	-11.063
▁طریقہ	-11.0634
▁ھمبل	-11.0635
ائرا	-11.0636
▁take	-11.0637
▁تنکہ	-11.0638
▁گشتن	-11.0639
وشی	-11.0641
▁لوزانی	-11.0647
▁خرچ	-11.065
▁سامنے	-11.0657
▁بالگرد	-11.0659
لبز	-11.0661
▁زرءَ	-11.0661
▁ترینتگ	-11.0663
▁پلگ	-11.0665
▁بوگءِ	-11.0666
▁بیگءِ	-11.0668
▁جہانءِ	-11.0669
علم	-11.0669
▁تند	-11.067
▁ڈولداری	-11.0671
▁رونت	-11.0672
▁ھنی	-11.0673
▁بیورغ	-11.0674
▁پیرزال	-11.0674
▁مہار	-11.0678
گون	-11.0679
▁پہلی	-11.0681
▁ردانکی	-11.0681
▁پے	-11.0684
▁ارشاد	-11.0684
▁لبزانکءَ	-11.0687
۔ھمے	-11.0688
▁وعدہ	-11.0689
▁وہدا	-11.0693
قی	-11.0694
▁میتگءِ	-11.0698
▁پنج	-11.0698
▁خدمت	-11.07
▁دورے	-11.0701
▁جذبہ	-11.0707
▁جاگہاں	-11.0708
▁ناکیں	-11.0708
▁بادشاه	-11.071
▁راشن	-11.0713
▁سبق	-11.0714
▁گرپتار	-11.072
▁لم	-11.0724
▁افریقہ	-11.0728
▁لائق	-11.0729
▁چمشانکے	-11.0731
▁پرش	-11.0731
▁کرمان	-11.0738
▁child	-11.074
▁الہان	-11.0749
▁درورے	-11.0749
▁نشتہ	-11.0753
hose	-11.0753
وکی	-11.0758
▁قتل	-11.0759
▁جبران	-11.0762
▁مٹیں	-11.0762
▁میتگءَ	-11.0763
to	-11.0764
▁جدا	-11.0765
▁شالا	-11.0769
▁وہاں	-11.0769
▁ھوناں	-11.0771
▁گندان	-11.0773
▁بہادری	-11.0774
▁home	-11.0774
▁عوام	-11.0774
▁تال	-11.0777
ہیں	-11.0777
▁مشرقی	-11.078
▁نیاتک	-11.0782
▁مرگاں	-11.0782
▁چلیم	-11.0797
نیم	-11.08
▁اوشتیت	-11.0802
▁کسھے	-11.0804
▁ستار	-11.0808
▁گھتر	-11.0809
▁وہدءِ	-11.0809
▁عجبیں	-11.0809
داتگ	-11.0815
▁ابراہیم	-11.0815
▁یہی	-11.0819
▁سپاھیگ	-11.0822
▁گسانی	-11.0822
▁شومیں	-11.0823
▁پروجیکٹ	-11.0824
▁بیگواه	-11.0825
▁کنائینت	-11.0829
▁دینا	-11.0833
▁پرا	-11.0833
▁گوری	-11.0839
▁دێم	-11.0839
▁شهید	-11.0841
ab	-11.0842
▁صنف	-11.0844
▁منتگیں	-11.0844
▁ملازم	-11.0845
▁بلوچیءَ	-11.0846
w	-11.0848
▁ساحل	-11.0848
▁direct	-11.0849
▁اسودگی	-11.0851
▁ماسی	-11.0852
▁جائیکہ	-11.0852
▁جتہ	-11.0852
▁کالم	-11.0854
▁سکندر	-11.0858
▁دیوکیں	-11.0859
▁نپر	-11.086
مست	-11.0863
▁allow	-11.0866
▁نوشکے	-11.0867
▁الگ	-11.087
▁کیو	-11.087
▁پیماز	-11.0871
▁اتحاد	-11.0872
▁لد	-11.0873
ہانی	-11.0873
▁اتکہ	-11.0874
▁مستقبل	-11.088
▁شونکار	-11.0883
▁پورہ	-11.0883
▁دیمترءَ	-11.0883
▁بچے	-11.0884
▁همک	-11.0886
▁تنت	-11.0888
▁درملک	-11.0893
▁شادی	-11.0894
ac	-11.0894
▁اسکے	-11.0895
▁تبد	-11.0896
اسی	-11.0899
▁روچا	-11.0899
▁چونائیا	-11.0901
▁بازارءَ	-11.0901
▁اتکاں	-11.0902
▁یاتاں	-11.0902
▁?‘‘	-11.0905
▁سادگ	-11.0907
▁کمکی	-11.0908
▁دوہمی	-11.0909
▁ہاران	-11.0911
▁ائین	-11.0914
▁شہار	-11.0916
▁نما	-11.0917
▁ھمینچو	-11.0922
▁کتار	-11.0924
▁قومے	-11.0925
▁14	-11.0926
▁واقعات	-11.0928
▁To	-11.0929
▁محل	-11.093
▁ملکءَ	-11.093
▁بودشت	-11.0932
▁ایسی	-11.0933
▁گاری	-11.0935
▁معیشت	-11.0936
▁تحفظ	-11.0936
▁پیشگال	-11.0938
▁man	-11.0941
▁جال	-11.0943
جنین	-11.0943
ێت	-11.0943
▁ڈولداریں	-11.0944
بدل	-11.0947
▁لکیر	-11.0949
▁death	-11.0951
▁ھروھد	-11.0951
▁پہنچ	-11.0951
کوئٹہ	-11.0956
▁مدد	-11.0958
▁علمءِ	-11.0959
جوڑ	-11.096
ted	-11.0961
.“	-11.0962
▁جاتے	-11.0963
▁شاہی	-11.0967
ہچ	-11.098
زو	-11.098
▁سیشن	-11.0985
▁بیرگ	-11.0986
▁نھاد	-11.0987
▁مولم	-11.0988
▁ساھتاں	-11.099
▁مچکدگ	-11.0996
▁صائمہ	-11.0996
▁ریچگ	-11.0997
▁وهدا	-11.1001
▁جوزگ	-11.1002
▁اھی	-11.1003
▁مالوم	-11.1004
یف	-11.1008
▁انچۆ	-11.1008
▁پانکجن	-11.1011
▁زوراں	-11.1014
un	-11.1015
کیت	-11.1016
کجا	-11.1017
▁جاپان	-11.1017
▁کنڈگ	-11.1018
▁مزاج	-11.1023
▁نگاری	-11.1023
▁مرکز	-11.1027
▁ناگیگ	-11.1028
▁حس	-11.1029
▁درساں	-11.103
▁وابی	-11.1031
▁سوگہ	-11.1032
▁ہژدری	-11.1036
▁ورلڈ	-11.1036
▁هیال	-11.1038
▁بیاریت	-11.1045
▁تھار	-11.1045
اخ	-11.1048
▁پاداتک	-11.1049
▁چارءُ	-11.1051
▁داخلہ	-11.1053
▁ماتءِ	-11.1053
▁ڈائریکٹر	-11.1057
▁bas	-11.1058
co	-11.106
کدی	-11.1063
▁دودءُ	-11.1064
▁بیگواھیانی	-11.1066
▁تاپ	-11.1067
▁جنکو	-11.1068
▁پجا	-11.1069
▁مضمون	-11.107
▁La	-11.1075
▁Janu	-11.1079
ھدا	-11.108
▁سویڈن	-11.1081
▁اجتماعی	-11.1082
▁لیلو	-11.1084
ness	-11.1092
▁six	-11.1092
▁ھاش	-11.1093
▁کبول	-11.1095
▁included	-11.1096
سرا	-11.1098
▁پرچی	-11.11
▁ملار	-11.11
▁سینیٹ	-11.1102
▁30	-11.1102
▁زرت۔	-11.1103
▁ھیلی	-11.1107
▁بوگا	-11.1108
▁درو	-11.1108
▁پائپ	-11.1109
▁نگیگیں	-11.1111
▁وپس	-11.1114
▁سدل	-11.1114
▁اما	-11.1117
▁ھمساھگ	-11.1119
▁میاریگ	-11.1121
▁خر	-11.1121
▁انشپی	-11.1122
▁قریب	-11.1122
اڑ	-11.1123
▁storm	-11.1123
▁بادشاہی	-11.1124
▁دیوانءَ	-11.1125
▁پرما	-11.1134
مپ	-11.1136
▁روتگ	-11.1137
▁غماں	-11.1138
▁ختم	-11.1138
▁جہمنند	-11.1141
▁خلیج	-11.1141
اڈ	-11.1145
▁دئیگا	-11.1146
▁تولگ	-11.1147
▁نرمیں	-11.1147
▁سپریم	-11.1155
▁بیگہ	-11.1156
يں	-11.1157
▁دینت۔	-11.1159
▁جادو	-11.1159
C	-11.1163
▁left	-11.1165
ti	-11.1165
▁میزائل	-11.1166
▁اندوہ	-11.1166
▁ٹیکس	-11.1168
▁چتگ	-11.1168
▁زرءِ	-11.117
▁امب	-11.1173
▁اهاں	-11.1176
▁بنگ	-11.1183
▁کاران	-11.119
▁ھپتگے	-11.119
▁England	-11.1194
▁video	-11.1194
▁government	-11.1195
گوشگ	-11.1199
▁کسےءَ	-11.1201
بوگ	-11.1202
▁شوہازگ	-11.1203
▁پانگ	-11.1205
ally	-11.1206
▁افسانہ	-11.1206
▁شھم	-11.1207
▁Nove	-11.1209
▁بائی	-11.1212
▁درے	-11.1213
▁per	-11.1216
ta	-11.1219
▁ایوان	-11.1222
▁عیسوی	-11.1223
▁ڈیپارٹمنٹ	-11.1223
▁بالگتر	-11.1223
▁مرا	-11.1225
▁سیف	-11.1227
▁شیرکنیں	-11.123
▁اؤٹ	-11.123
▁زامات	-11.1233
▁نقل	-11.1233
▁کوپ	-11.1233
▁۔ھمیش	-11.1234
▁تتک	-11.1235
▁تعریف	-11.1241
▁نوروز	-11.1241
▁نوری	-11.1244
▁نار	-11.1247
ut	-11.1249
▁هک	-11.1252
▁ہساب	-11.1255
▁بیتگین	-11.1256
▁شموشگ	-11.1258
▁پجارینگ	-11.1258
سیمی	-11.126
▁کڈک	-11.1264
ودی	-11.1265
▁Jul	-11.1266
▁position	-11.1267
▁نبشتانکانی	-11.1269
▁درہیں	-11.127
▁جود	-11.127
▁زانتکاراں	-11.1271
نور	-11.1272
▁وغیرہ	-11.1273
اه	-11.1273
▁ملگ	-11.1275
▁گورکی	-11.1276
دیوان	-11.1278
▁Me	-11.128
▁ترمپے	-11.1285
▁عن	-11.1286
▁زرداری	-11.1289
▁منیت	-11.1293
▁For	-11.1295
▁جئیند	-11.1296
ائز	-11.1297
▁نیاز	-11.1299
▁الفاظ	-11.13
▁کسہاں	-11.13
انکہ	-11.1301
▁کشتگیں	-11.1304
نیست	-11.1311
▁ھیالے	-11.1312
سوب	-11.1322
▁اسانی	-11.1323
کنان	-11.1323
▁درپ	-11.1323
پاکستان	-11.1324
▁کاسگ	-11.1326
▁March	-11.1327
▁جمہوری	-11.1327
▁فیس	-11.1329
▁ماریت	-11.133
▁Ma	-11.133
اہی	-11.1332
▁سربوتگ	-11.1332
ماہتاک	-11.1334
▁پھازگ	-11.1336
▁سسی	-11.1337
▁راجدپترءِ	-11.1338
▁خاموش	-11.134
▁attempt	-11.1341
▁رچگ	-11.1344
▁لگا	-11.1344
▁بھائی	-11.1345
▁پیسرءَ	-11.1348
▁بڑا	-11.1349
▁سمیر	-11.1351
▁تجربگ	-11.1351
▁کڑ	-11.1351
▁بڑے	-11.1351
▁ھرابی	-11.1352
▁موقع	-11.1353
ونک	-11.1358
▁نین	-11.1361
▁کران	-11.1361
▁گندگا	-11.1364
▁ڈولءَ	-11.1365
▁sp	-11.1368
▁top	-11.1368
▁موش	-11.1369
▁رشتہ	-11.137
وہدے	-11.1374
زگ	-11.1374
ship	-11.1376
▁ھکل	-11.1379
▁باہوٹ	-11.1381
▁پروری	-11.1382
▁ملتان	-11.1383
▁character	-11.1385
▁اجب	-11.1387
▁یوک	-11.1389
▁شونگال	-11.139
▁انسانءَ	-11.1391
سان	-11.1396
▁ملٹ	-11.1396
▁نمونگ	-11.1398
▁ھمراھاں	-11.1398
▁perform	-11.1399
▁general	-11.14
me	-11.1411
▁قال	-11.1411
▁عکسے	-11.1413
▁کاریت۔	-11.1415
▁شیوار	-11.1416
▁قانونی	-11.1419
▁کارندھے	-11.1421
▁ھمیشانی	-11.1422
▁بڑھ	-11.1422
▁جاورھال	-11.1424
▁حرام	-11.1426
▁رون	-11.1426
▁بچاریں	-11.1427
شنگ	-11.1427
▁دریگتیں	-11.1427
▁بابو	-11.1427
▁ارداد	-11.143
▁مکمل	-11.1431
▁رول	-11.1433
سنگت	-11.1434
▁ہمود	-11.1434
ئگا	-11.1435
▁include	-11.1435
▁پجاروکی	-11.1436
تاریخ	-11.1436
▁پہلو	-11.1441
▁حرف	-11.1442
▁third	-11.1444
▁ملاقات	-11.1444
▁سلاح	-11.1446
▁just	-11.1446
▁ارسانی	-11.1452
▁اش۔	-11.1453
▁بیس	-11.146
امی	-11.1461
▁open	-11.1467
▁گراناز	-11.1473
▁یگ	-11.1475
▁نیستی	-11.1478
▁اوارجنی	-11.1481
▁نزیر	-11.1483
▁Ra	-11.1485
دیں	-11.1486
▁دھا	-11.1487
▁men	-11.149
▁پھازگی	-11.1491
▁لوڈ	-11.1492
3	-11.1494
باریں	-11.1496
▁سرچمگ	-11.1498
▁جمب	-11.1501
ای	-11.1504
▁زهگ	-11.1504
▁کیمرہ	-11.1506
لاں	-11.1509
▁release	-11.151
▁فورس	-11.1511
▁راسک	-11.1511
▁سالءِ	-11.1512
اٹ	-11.1515
▁چاروک	-11.1515
▁زنڈ	-11.1515
▁لاف	-11.1519
کنوکیں	-11.1521
سم	-11.1522
▁His	-11.1526
▁گاڈی	-11.1528
▁ماتءَ	-11.1528
▁زمیندار	-11.1533
ting	-11.1534
▁go	-11.1535
▁سروکاں	-11.154
▁جانب	-11.154
▁نابود	-11.1543
چگ	-11.1543
▁کشءَ	-11.1546
▁گداں	-11.1547
▁ایڈوکیٹ	-11.1549
▁تکلیف	-11.155
▁دشتار	-11.1553
▁سستگیں	-11.1555
▁کب	-11.1558
▁games	-11.156
▁II	-11.1561
▁اہمیں	-11.1561
▁جاگہءَ	-11.1563
▁school	-11.1564
▁سرداری	-11.1565
▁چدءُ	-11.1571
▁روانی	-11.1571
▁دھر	-11.1573
▁ھمگرنچیں	-11.1574
ow	-11.1575
▁اسرار	-11.1578
▁design	-11.1578
▁ستکگیں	-11.1578
▁previous	-11.1579
▁become	-11.1579
یلہ	-11.158
▁سحر	-11.158
▁سکھت	-11.1585
گران	-11.1585
یلی	-11.1587
ڈا	-11.1589
▁شاھین	-11.1591
▁سرپدیں	-11.1591
no	-11.1594
عمر	-11.1596
▁شعوری	-11.1598
▁ھرچیز	-11.1602
▁مهلوک	-11.1602
▁پلی	-11.1602
▁ازیز	-11.1603
▁الکاپیں	-11.1604
▁درہ	-11.1604
ہار	-11.1609
▁south	-11.1609
▁سکتا	-11.1609
▁ثواب	-11.161
▁north	-11.161
▁شہرے	-11.1615
▁pre	-11.1616
▁چکا	-11.1618
گن	-11.1618
بگ	-11.1618
ge	-11.1618
کسی	-11.1622
▁ہردو	-11.1625
▁بیڑبرتگ	-11.1625
▁پیسرگیں	-11.1628
ذا	-11.163
▁best	-11.163
▁انگریزانی	-11.1631
▁کہتے	-11.1632
▁موسمی	-11.1634
▁period	-11.164
▁ناسر	-11.164
جگ	-11.1642
▁گواتے	-11.1642
▁تھاریں	-11.1642
▁ایریں	-11.1642
▁بروبر	-11.1644
▁جگہ	-11.1645
▁برنج	-11.165
▁گزار	-11.1652
▁ہڈ	-11.1653
▁لگور	-11.1654
▁عنقا	-11.1655
▁اڑاند	-11.1658
ang	-11.1659
نان	-11.1661
ism	-11.1662
▁تحصیلدار	-11.1663
▁یاسر	-11.1663
پچ	-11.1665
▁میانجی	-11.167
▁یڪ	-11.1673
▁مخ	-11.1673
▁تنا	-11.1675
be	-11.1675
▁اژدری	-11.1675
▁تگرد	-11.1676
▁مھراب	-11.1677
▁بستہ	-11.1678
▁بوتءُ	-11.1678
▁ھاموشی	-11.1678
▁اێر	-11.1686
▁نتیجہ	-11.1689
▁ہمارے	-11.1691
▁فاضلءِ	-11.1692
▁ملام	-11.1696
▁چارگا	-11.1699
▁چیخوف	-11.17
▁چدا	-11.17
چیزے	-11.1701
▁اقوام	-11.1702
▁تحریر	-11.1703
▁برواں	-11.1706
▁جمپ	-11.1713
▁ھول	-11.1723
▁رومن	-11.1727
▁گہہ	-11.1727
ence	-11.1729
وسی	-11.173
▁سلطنت	-11.1734
▁مڑاہ	-11.1734
▁برس	-11.1737
▁کورونا	-11.1738
شریں	-11.1739
▁گڈگ	-11.1739
▁االله	-11.1741
▁دویں	-11.1741
▁سوبءَ	-11.1742
▁وانشت	-11.1742
حسن	-11.1745
▁شاھر	-11.1745
▁دلجمیں	-11.1745
▁الکاپ	-11.1746
▁local	-11.1747
▁شیرکنی	-11.1751
▁کیشنز	-11.1752
گاه	-11.1755
▁پھناتاں	-11.1757
ھیال	-11.1758
▁زمانگءِ	-11.1761
▁ماندارگ	-11.1761
چین	-11.1762
▁مستاگ	-11.1765
اسک	-11.1768
▁پریاتاں	-11.1769
▁لشکرکشی	-11.1771
اصل	-11.1777
جنک	-11.1781
▁پہریزگ	-11.1782
[	-11.1788
▁ہاک	-11.1792
▁مانگ	-11.1792
▁وزارت	-11.1793
▁فراہم	-11.1793
▁Dece	-11.1794
▁درویش	-11.1794
▁جنوکیں	-11.1796
▁ٹاپ	-11.1796
▁ترسناکیں	-11.1797
▁یونس	-11.18
▁major	-11.1802
▁حاضر	-11.1803
▁کرتیں	-11.1804
▁قمبرانی	-11.1807
▁اسٹیج	-11.1813
▁مطالعہ	-11.1814
▁اپءِ	-11.1823
▁اغا	-11.1825
▁کزا	-11.1827
▁ہاتر	-11.1829
▁اخبار	-11.1829
▁بارت۔	-11.1836
▁se	-11.184
▁شانتل	-11.1842
▁زندانی	-11.1843
▁حاص	-11.1845
▁رسینت	-11.1846
▁ارزانیں	-11.1847
▁ڈولے	-11.1847
▁ایدگرانی	-11.1853
کئے	-11.1854
▁سرہال	-11.1855
▁کورس	-11.1857
الم	-11.186
▁بحت	-11.1866
اگر	-11.1869
▁اوشتاتگیں	-11.1875
▁develop	-11.1876
▁ساوڑ	-11.1879
ئے۔	-11.1881
5	-11.1881
▁book	-11.1883
▁زیند	-11.1884
▁سلاھانی	-11.1886
▁افراد	-11.1886
وج	-11.1888
by	-11.1889
▁مخلوق	-11.189
▁کرے	-11.1892
▁کؤر	-11.1893
▁title	-11.1893
▁جندءَ	-11.1893
مری	-11.1894
▁سروکانی	-11.1894
نیمگ	-11.1896
▁گریشگ	-11.1902
▁لطیف	-11.1908
▁بێ	-11.1908
▁پبلک	-11.1909
▁سوک	-11.1913
▁چری	-11.1914
▁بندیک	-11.1918
ایی	-11.1919
▁واجہی	-11.1921
▁وتاک	-11.1924
▁River	-11.1933
mo	-11.1936
▁Ha	-11.1937
▁وابءَ	-11.1939
چشکہ	-11.1941
مد	-11.1942
میان	-11.1945
فارسی	-11.195
▁By	-11.1952
▁list	-11.1954
▁چاری	-11.1955
▁پژدرءَ	-11.1955
کیچ	-11.1956
▁سرور	-11.1959
۔ائی	-11.196
▁سجدہ	-11.1965
▁پتءَ	-11.1966
▁دہمی	-11.1968
▁لوچ	-11.1971
▁ي	-11.1974
▁گلا	-11.1974
▁اث	-11.1976
▁بیغ۔	-11.1981
منٹ	-11.1982
▁جوریں	-11.1982
ot	-11.1983
▁باسکے	-11.1986
▁buil	-11.1989
گیری	-11.199
مانی	-11.1992
▁اھوالکارانی	-11.1993
▁ناجوڑی	-11.1995
▁پیلوی	-11.1996
▁کدہ	-11.1997
em	-11.2003
▁Co	-11.2004
▁ملامتی	-11.2005
▁شئیرءِ	-11.2009
▁جتاھیں	-11.2011
▁پیداور	-11.2012
▁City	-11.2013
▁ڪت	-11.2013
▁مانگیش	-11.2016
▁گمیگ	-11.2018
▁مغل	-11.2026
▁شیدا	-11.2026
▁ضرور	-11.2028
▁continu	-11.2028
▁لوغ	-11.2028
▁انو	-11.203
▁turn	-11.2031
▁power	-11.2032
▁حاجت	-11.2033
▁امکان	-11.2035
▁نفر	-11.2039
▁پنڈوک	-11.204
دز	-11.204
▁داس	-11.2041
▁ھیالداری	-11.2042
▁روبرکتی	-11.2042
▁دامگ	-11.2042
P	-11.2043
▁رحمان	-11.2043
▁مٹی	-11.2044
▁تؤ	-11.2045
sa	-11.2048
▁تھنائی	-11.2049
پمیشا	-11.2055
▁سخت	-11.2056
▁جۆڑ	-11.2058
▁تھیوری	-11.206
▁pass	-11.206
حق	-11.2067
▁بدواہ	-11.2068
▁صنعتی	-11.2068
ak	-11.2069
▁شہیدانی	-11.2072
▁مرگءَ	-11.2074
▁فدائی	-11.2077
▁وھدئے	-11.2079
▁وسیم	-11.2079
▁سواس	-11.2082
▁حیالے	-11.2082
▁لٹک	-11.2083
▁رھم	-11.2089
▁All	-11.2091
▁باوری	-11.2095
▁ادمانی	-11.2097
هے	-11.21
▁رپتار	-11.2104
▁شاتکامی	-11.2106
▁کلان	-11.211
شیا	-11.2111
▁دکاندار	-11.2111
▁نشتگاں	-11.2112
‘‘,’’	-11.2112
▁واکیات	-11.2115
▁گیا۔	-11.2116
▁شریدار	-11.2116
▁کمزوری	-11.2121
۔پدا	-11.2122
▁شن	-11.2122
▁علاقے	-11.2125
ساحر	-11.2131
▁Mo	-11.2131
▁کنر	-11.2135
▁حدے	-11.2136
▁کراچیءَ	-11.2136
▁کندگے	-11.2138
vi	-11.2138
▁publish	-11.2141
▁دربرتگ	-11.2142
▁زم	-11.2143
▁تباہی	-11.2144
▁بکن۔	-11.2145
▁پث	-11.2146
▁حشکیں	-11.2146
▁ٹیچر	-11.2149
▁شوکیں	-11.215
▁month	-11.2154
▁باقاعدہ	-11.2154
▁When	-11.2154
▁ترسگ	-11.2155
▁میتگانی	-11.2155
▁بچکندے	-11.2157
▁رھبندے	-11.2157
▁بیگل	-11.2158
▁راھبندانی	-11.2158
دوئیں	-11.216
▁کلیت	-11.2161
اتے	-11.2162
▁اوور	-11.2166
▁گڈسرءَ	-11.2166
▁عیسائی	-11.2167
▁زمانگاں	-11.2167
▁سلکاری	-11.217
▁version	-11.217
▁دومیگ	-11.2173
ندگ	-11.2175
ارت	-11.2176
▁رودراتک	-11.2179
▁سوداگر	-11.2179
▁make	-11.2181
▁کنین	-11.2182
▁There	-11.2187
▁رچ	-11.219
▁شیرانی	-11.2191
▁یکمی	-11.2201
▁سیکریٹری	-11.2202
▁اعتبار	-11.2202
▁گوشتن	-11.2204
▁شاعرءِ	-11.2204
▁حالکار	-11.2205
▁اٹھ	-11.2205
▁سیائیں	-11.2206
▁fire	-11.2207
▁بلین	-11.2208
▁دکی	-11.2212
▁موٹل	-11.2212
▁پرنگی	-11.2215
چاگردی	-11.2216
وانگ	-11.2221
▁اومر	-11.2224
زیر	-11.2224
▁مارے	-11.2231
▁بابل	-11.2231
▁ات۔اے	-11.2232
▁اودءِ	-11.2234
▁دراھگ	-11.2235
شل	-11.2236
▁چانگ	-11.2238
▁ٹا	-11.2239
زاں	-11.2239
▁!!	-11.2241
ارش	-11.2241
▁بلوچوں	-11.2243
▁نیو	-11.2244
▁اختلاف	-11.2244
غ۔	-11.2246
▁گولہ	-11.2247
▁ممبر	-11.2248
یث	-11.2251
▁National	-11.2251
بیگ	-11.2257
▁شہرءَ	-11.2259
▁بستارءَ	-11.226
▁وڈھ	-11.226
شتہ	-11.2261
▁بندان	-11.2263
▁برت۔	-11.2265
▁باوجود	-11.2267
▁اوستا	-11.2268
▁گالریچ	-11.2269
▁سندی	-11.2271
▁ٹور	-11.2276
▁پیتی	-11.2277
▁پرسی	-11.2279
▁اگہی	-11.2284
▁گولی	-11.2284
▁جاورال	-11.2284
▁public	-11.2285
رات	-11.2286
کارانی	-11.2287
▁راہی	-11.2289
▁دمگے	-11.229
▁ورگءَ	-11.229
▁کچل	-11.229
▁مردمانءِ	-11.2292
نڈی	-11.2292
▁بوتیں۔	-11.2292
▁ٹیل	-11.2295
▁نزءَ	-11.2296
▁شکایت	-11.2303
▁ہواں	-11.2304
▁منطق	-11.2308
▁گا۔	-11.2312
▁ترونگل	-11.2314
▁کمانڈر	-11.2315
▁2009	-11.2315
▁ابی	-11.2316
▁ھبکہ	-11.232
▁دربرجاہ	-11.2322
▁پرتو	-11.2324
جھ	-11.2325
▁ڈنگ	-11.233
تہ۔	-11.233
▁گالی	-11.2331
▁2010	-11.2331
▁بہہ	-11.2332
▁کدیر	-11.2335
اط	-11.2335
▁شرک	-11.2336
▁۔چہ	-11.2338
اتکگ	-11.2338
▁مرچیگ	-11.2341
چھ	-11.2341
▁Do	-11.2342
▁مڑا	-11.2343
▁پگرءِ	-11.2344
▁گوادرءَ	-11.2344
▁مہم	-11.2346
▁گلاس	-11.2347
▁کشا	-11.2349
▁دکانے	-11.2349
▁پھنات	-11.235
ud	-11.2352
▁رستر	-11.2354
▁اھدی	-11.2354
▁25	-11.2356
ci	-11.2356
▁ناکام	-11.2358
▁side	-11.2358
▁بیلہ	-11.2363
▁تجارت	-11.2363
▁رویں	-11.2367
A	-11.237
▁۔بلئے	-11.2375
▁شنگکار	-11.2379
▁ہمراہیءَ	-11.2379
▁شھراں	-11.2379
▁2008	-11.238
▁ھاوند	-11.238
▁pro	-11.2381
▁مرغ	-11.2383
رم	-11.2385
ھند	-11.2386
▁پنجگ	-11.2387
▁تاوانے	-11.2388
چیا	-11.2391
▁دیست۔	-11.2391
▁بارکھان	-11.2397
▁واکاں	-11.2398
▁اپسوز	-11.24
▁جلسہ	-11.24
▁رنگانی	-11.2402
▁ہرچیز	-11.2403
زن	-11.2404
▁جما	-11.2405
▁درصد	-11.2406
▁موسی	-11.2407
▁کاریز	-11.2409
اول	-11.241
▁کلمکار	-11.241
▁گشیں	-11.2411
▁زیم	-11.2411
▁بوھان	-11.2414
▁کلہ	-11.2415
ions	-11.2416
▁داؤد	-11.2416
▁دیکھا	-11.2417
روگ	-11.2417
▁Ka	-11.2423
▁شتگ۔	-11.2425
▁تنگی	-11.2426
▁way	-11.2426
شے	-11.2427
▁بم	-11.2428
▁جانا	-11.2428
▁جرنیل	-11.243
▁چنڈے	-11.2437
▁even	-11.2437
▁ڈیہ	-11.2438
رام	-11.2441
▁صحب	-11.2443
▁انار	-11.2448
▁واشک	-11.2448
▁کانون	-11.2449
▁مدرسہ	-11.2449
▁نیکراہ	-11.2453
گیشتر	-11.2456
▁جہلانکی	-11.2457
▁ٹٹ	-11.2458
▁جاھمنند	-11.2459
▁بدر	-11.2464
▁لیاقت	-11.2465
▁گامے	-11.2466
▁مرداں	-11.2466
▁چیزءِ	-11.2467
▁زراب	-11.2468
نچ	-11.2471
راستی	-11.2472
بکن	-11.2476
▁میرا	-11.2476
ابید	-11.2476
▁دستور	-11.2476
▁مشکلیں	-11.2477
▁تجزیہ	-11.2479
▁جہاندپتر	-11.2479
▁شاھد	-11.248
▁دژمناں	-11.2484
▁دوسد	-11.2488
▁کنغ۔	-11.249
▁ادمءِ	-11.2493
▁اگرچہ	-11.2493
▁کال	-11.2495
▁منظر	-11.2497
پار	-11.2497
▁ئنت	-11.2499
▁کدر	-11.25
▁رازی	-11.2502
▁اسرے	-11.2504
یٰ	-11.2504
▁مزاری	-11.2504
▁لالہ	-11.2509
ینتہ	-11.2512
▁بادگیر	-11.2514
▁نقطہ	-11.2515
▁چارگی	-11.2516
▁دفتر	-11.2517
فن	-11.252
▁پنڈ	-11.252
رءَ	-11.2522
N	-11.2523
▁پیکر	-11.2531
▁زرکاری	-11.2532
▁دف	-11.2536
▁سیاستدان	-11.2538
▁برادری	-11.2539
▁کورءَ	-11.2541
tra	-11.2546
▁واپس	-11.2546
▁ماری	-11.2552
▁چاگی	-11.2553
▁پشین	-11.2554
گس	-11.2554
▁v	-11.2555
▁وانان	-11.2557
▁رخ	-11.2558
▁ارجان	-11.2558
▁club	-11.2562
▁طاہر	-11.2563
▁کھڈ	-11.2563
▁مانزمان	-11.2566
▁سباہ	-11.2567
▁مہکمیں	-11.2568
▁رفتار	-11.2571
▁ابدمان	-11.2572
▁پدردی	-11.2574
▁ٹوہیں	-11.2575
▁اسٹال	-11.2579
▁پیرمرد	-11.2579
▁ھبراں	-11.258
▁اسودگ	-11.2582
ایشانی	-11.2583
ینان	-11.2585
▁رام	-11.2586
▁سادہ	-11.2587
▁ماتانی	-11.259
▁محتاج	-11.2595
▁came	-11.26
▁وڑی	-11.2601
مدام	-11.2602
تاب	-11.2606
▁ٹپانی	-11.2609
▁ڈگاراں	-11.2617
▁دینار	-11.2617
▁ہمدردی	-11.2619
▁حالات	-11.2623
▁لچه	-11.2626
▁اسپر	-11.2627
رت	-11.2627
▁انتظامی	-11.2629
▁بریگیڈ	-11.2629
▁معتبر	-11.2629
▁برتانیہ	-11.2629
va	-11.2634
▁کورءِ	-11.2636
▁روگا	-11.2638
ell	-11.2642
رچ	-11.2643
▁ھن	-11.2645
▁تیراں	-11.2645
ناز	-11.2647
▁کیونکہ	-11.2649
▁ندی	-11.265
▁ساھدار	-11.2651
▁تصویر	-11.2651
▁۔۔۔۔۔۔	-11.2653
▁تاچ	-11.2653
▁اجبیں	-11.2653
▁ھمت	-11.2654
pe	-11.2655
▁چکار	-11.2656
کپتگ	-11.266
ہوار	-11.2661
ley	-11.2662
▁جملہ	-11.2662
خیر	-11.2662
▁اکسیجن	-11.2662
▁لیکہی	-11.2663
▁داوا	-11.267
نگا	-11.2671
▁present	-11.2672
▁ملائی	-11.2675
▁روپ	-11.2676
▁زہم	-11.2676
▁بێگواه	-11.2679
▁کمب	-11.2681
شانی	-11.2681
پو	-11.2681
▁ارپ	-11.2682
▁باران	-11.2682
▁یمن	-11.2684
▁وشیاں	-11.2685
▁وتکش	-11.2687
▁کرتی	-11.2688
▁شھیدی	-11.2688
▁ھانل	-11.2689
▁establish	-11.2694
▁دیش	-11.2695
▁الرحمان	-11.2696
گنج	-11.2697
▁بداریت	-11.2699
میتگ	-11.27
نامہ	-11.2702
▁بئے۔	-11.2707
▁ہاؤس	-11.2713
▁لهتے	-11.2713
▁باطن	-11.2716
▁حقیقی	-11.2718
▁اساپ	-11.2718
▁اولسر	-11.2719
▁شرین	-11.2722
▁still	-11.273
▁کپودر	-11.273
▁واھگے	-11.273
▁ترسناک	-11.2737
▁زانا	-11.2737
▁dis	-11.2738
▁r	-11.2738
▁بیت۔۔۔	-11.2741
▁بوئگا	-11.2741
▁اشکار	-11.2747
▁ھرابیں	-11.2748
▁عاقل	-11.2748
نر	-11.2749
▁گمراہ	-11.275
▁اچار	-11.2752
▁برزءَ	-11.2754
▁اپے	-11.2755
uent	-11.2766
▁لیکہے	-11.2767
▁feature	-11.2768
▁ناما	-11.2768
▁اپءَ	-11.277
▁کافکا	-11.2773
▁درائینت۔	-11.2775
▁ھورک	-11.2777
▁سیا	-11.2777
▁نیب	-11.2779
▁قاصد	-11.2781
▁پیرو	-11.2782
▁نفرت	-11.2783
▁خو	-11.2784
▁کردانی	-11.2784
▁کنائین	-11.2785
▁شاباش	-11.2786
▁کامل	-11.2794
▁ترءُ	-11.2796
▁حبراں	-11.2798
▁نازرک	-11.28
▁ھالے	-11.2801
▁career	-11.2802
▁ایات	-11.2804
▁صورتءَ	-11.2804
ینک	-11.2806
▁گڈسرا	-11.2806
▁اتکگاں	-11.2806
▁nam	-11.2808
نیت	-11.2809
F	-11.2811
▁کہتا	-11.2812
▁we	-11.2812
▁تنیگ	-11.2813
▁پھلی	-11.2813
▁history	-11.2815
▁منگچر	-11.2817
وے	-11.2819
▁دیوالانی	-11.2824
▁led	-11.2825
▁نثر	-11.2826
ؤں	-11.2828
▁old	-11.283
▁common	-11.2832
▁کالب	-11.2832
▁کسو	-11.2835
ca	-11.2836
▁دیوتا	-11.2843
▁رژنائیں	-11.2845
▁لرزگ	-11.2845
▁جنگلے	-11.2848
▁حالاں	-11.2848
▁پھریزگ	-11.2849
▁تضاد	-11.2849
▁کتہ۔	-11.2852
▁روئگ	-11.2853
▁دانش	-11.2855
▁استانی	-11.2855
▁کساں	-11.2856
▁وانندگیں	-11.2856
▁کریں	-11.2859
بھ	-11.2859
سب	-11.2859
▁نئیں	-11.2861
ن۔	-11.2863
▁نفسی	-11.2865
▁اسپیکر	-11.2866
▁گوئر	-11.2868
ثہ	-11.2872
▁گساں	-11.2874
▁مشکت	-11.2874
▁شرگداریءِ	-11.2877
اخر	-11.2882
▁وانین	-11.2882
▁پانچ	-11.2885
▁ایسوسی	-11.2886
▁وانوکانی	-11.2888
▁بکرتیں	-11.2888
▁بلیک	-11.2891
▁ھردوک	-11.2893
▁رمس	-11.2894
▁مستری	-11.2894
▁رمزان	-11.2895
▁چھو	-11.2896
▁وانگا	-11.2897
▁جاگه	-11.29
شال	-11.2901
▁ادراک	-11.2901
▁جنے	-11.2901
▁غصہ	-11.2902
▁قیمتی	-11.2908
هی	-11.2908
ریچ	-11.2915
▁رزان	-11.2916
▁گوشتہ	-11.2917
▁گشیت۔	-11.2919
▁برد	-11.2923
▁فہم	-11.2926
▁شاہد	-11.2928
▁لہڑگ	-11.2929
▁گنجائش	-11.2934
▁گدارءِ	-11.2934
▁عاصم	-11.2935
ated	-11.2938
▁چیدگی	-11.294
▁حکومتی	-11.2941
▁ایدگراں	-11.2943
▁مہلہ	-11.2944
▁اوکیں	-11.2944
M	-11.2944
دروشم	-11.2949
عی	-11.295
عطا	-11.2954
▁کھر	-11.2955
▁often	-11.2956
ure	-11.2957
حیال	-11.2958
بنی	-11.296
▁رکگ	-11.2963
چا	-11.2963
▁گسءَ	-11.2963
▁پهک	-11.2964
▁ہانی	-11.2964
▁ایٹم	-11.2967
▁تاجر	-11.2967
▁100	-11.2969
گم	-11.2971
▁ڈھاڈر	-11.2975
یچ	-11.2976
▁ھردیں	-11.2978
▁سھیگ	-11.2978
▁اریپیں	-11.2979
▁حسنی	-11.2981
▁جیڑھ	-11.2981
▁سرینت	-11.2982
▁ھجبر	-11.2989
▁دیستگیں	-11.299
▁جین	-11.299
۔منی	-11.2993
▁دلیری	-11.2994
ڈول	-11.2999
مبارک	-11.2999
نم	-11.2999
▁site	-11.2999
▁شپی	-11.3002
▁اسم	-11.3002
▁کارکرد	-11.3004
▁تہران	-11.3005
جار	-11.3011
▁تگرانی	-11.3013
▁امیتے	-11.3015
▁نکن	-11.3017
▁بلۆچانی	-11.3018
▁ویکسین	-11.3022
ماھتاک	-11.3023
▁سپا	-11.3024
▁سلسلہ	-11.3025
▁بیک	-11.3025
ندی	-11.3026
▁زمینءَ	-11.3027
▁اسٹیٹس	-11.3027
▁ھبدہ	-11.3028
▁صلاحیت	-11.3028
ساز	-11.3028
▁وسیں	-11.3029
▁وشتر	-11.3029
▁ایردست	-11.3033
انگ	-11.3038
▁دوبارہ	-11.3039
▁اسسٹنٹ	-11.3041
▁اگے	-11.3042
▁گرا	-11.3043
▁ضد	-11.3044
▁لوڑ	-11.3045
▁مح	-11.3051
▁انچ	-11.3052
▁شائرانی	-11.3053
کپت	-11.3057
▁انتظار	-11.3057
▁ٹاک	-11.3061
▁جھدے	-11.3061
▁واکی	-11.3061
▁ایراں	-11.3064
برگ	-11.3064
▁شمال	-11.3067
جم	-11.3068
▁چتو	-11.3075
▁درگ	-11.3078
▁ورزی	-11.3079
ial	-11.3081
▁کھل	-11.3084
▁تریاک	-11.3088
▁اکسے	-11.3089
▁ردیت	-11.309
▁help	-11.3092
▁few	-11.3092
▁قبرستان	-11.3094
▁دارنت	-11.3094
▁کمپان	-11.3094
▁ببر	-11.3097
▁سدک	-11.3099
▁بکننت	-11.3101
ائینت	-11.3105
▁رتکگ	-11.3108
company	-11.3109
ling	-11.3111
▁منشیات	-11.3113
...............	-11.3114
▁سیوی	-11.3115
▁مارکسی	-11.3115
▁سریگ	-11.3115
▁چندن	-11.3118
▁هرکس	-11.3119
▁سجہیں	-11.3122
▁سھرا	-11.3126
▁درنگاز	-11.3126
▁suggest	-11.3127
▁One	-11.3127
▁ہاسٹل	-11.3127
▁هلاس	-11.3129
▁ایئر	-11.313
وکانی	-11.3132
▁تبیں	-11.3132
▁مردیں	-11.3135
▁اثار	-11.3136
▁وڑےءَ	-11.3138
??	-11.3138
▁دمبرتگ	-11.3142
▁ایشن	-11.3143
▁درین	-11.3143
▁next	-11.3145
▁2007	-11.3145
▁حبرءَ	-11.3146
▁مادر	-11.3146
▁گردان	-11.3147
▁کندان	-11.3151
▁نوشتانک	-11.3152
دک	-11.3153
▁سرکنگ	-11.3153
دن	-11.316
▁سنگھ	-11.3162
▁ائولی	-11.3163
▁جنیانی	-11.3164
▁ڈور	-11.3165
▁جلیل	-11.3167
▁لائک	-11.3168
حر	-11.3169
▁arm	-11.3172
هر	-11.3173
▁دزاپ	-11.3177
▁توشگ	-11.3177
▁اگل	-11.3179
▁واناں	-11.318
ورگ	-11.318
▁ھدایت	-11.3183
line	-11.3183
▁صوت	-11.3189
▁چنال	-11.319
▁دیئگ	-11.3193
▁بتی	-11.3195
▁دیوانگ	-11.3205
▁ایڈ	-11.3206
▁ندار	-11.3206
▁جهل	-11.3207
▁طاقتور	-11.3209
▁چکی	-11.3211
سیاسی	-11.3212
▁تواراں	-11.3215
▁English	-11.3215
▁ٹوئٹر	-11.3217
▁شاعریئ	-11.3217
▁سماج	-11.3217
▁بگندات	-11.3218
▁building	-11.3221
سرجمیں	-11.3221
▁چڑ	-11.3222
▁رکینت	-11.3227
▁لینن	-11.3227
de	-11.3228
▁دپا	-11.3229
▁زندگاں	-11.3231
▁حفاظت	-11.3236
▁کوھنگیں	-11.3236
پگ	-11.3237
▁روی	-11.3239
▁دوستیگیں	-11.3239
▁جرگہ	-11.3239
▁نوشت	-11.324
▁مچھ	-11.3241
دانی	-11.3241
les	-11.3245
▁نیار	-11.3245
▁نباں	-11.3248
▁سلیں	-11.325
▁پمے	-11.3251
▁French	-11.3251
▁ھاسٹل	-11.3252
▁حالی	-11.3257
▁پنچیں	-11.3259
▁پرمات	-11.3259
▁رئیسانی	-11.3262
ندر	-11.3265
▁ھسابءَ	-11.3265
▁کرکٹ	-11.3267
▁اسپین	-11.3268
▁contain	-11.3269
▁similar	-11.3269
▁زهر	-11.327
▁شئیری	-11.3271
▁زنداناں	-11.3273
الله	-11.3275
▁گشتے	-11.3277
▁بادشاھی	-11.3277
▁اجکہ	-11.3278
ائینگ	-11.3281
▁رائے	-11.3282
▁سامراج	-11.3285
▁پیوست	-11.3288
▁باپار	-11.329
اپی	-11.3291
ایران	-11.3292
▁زاهدان	-11.3292
یڈ	-11.3297
▁خانءِ	-11.3298
ld	-11.3298
ether	-11.33
خدا	-11.33
▁نگرانی	-11.3301
▁ھاکمی	-11.3301
▁نگدکار	-11.3302
▁رتک	-11.3304
▁داکٹر	-11.3305
▁نصیحت	-11.3308
▁دریائی	-11.3311
▁متعلق	-11.3311
▁گندے	-11.3311
▁ٹن	-11.3312
▁واتری	-11.3313
▁گونگ	-11.3314
شہر	-11.3315
▁اسرمند	-11.3316
▁فکرءُ	-11.3317
▁right	-11.3317
اسلام	-11.3318
▁دورءُ	-11.3318
▁درتکگ	-11.3321
▁وومن	-11.3324
▁کینگی	-11.3329
▁کہیر	-11.3329
▁ورگی	-11.3329
بیتگ	-11.333
▁درھیں	-11.3331
▁نئیت۔	-11.3333
▁مھرنگ	-11.3334
▁دومیءَ	-11.334
▁انہ	-11.3341
▁بعض	-11.3341
▁دیرءَ	-11.3342
▁دیستگ۔	-11.3347
▁خاک	-11.3348
باد	-11.3349
4	-11.3349
▁ریا	-11.3352
▁خط	-11.3358
مس	-11.3361
مع	-11.3366
▁سوزیں	-11.3366
شام	-11.3368
▁وفات	-11.3369
▁ھؤ	-11.3369
▁چرت	-11.3371
▁رکھا	-11.3372
بتل	-11.3374
▁شدکش	-11.3374
▁بروبری	-11.3375
▁دودمانی	-11.3375
چیاکہ	-11.3376
▁رھبنداں	-11.3378
▁سنگینی	-11.3378
▁ھاجی	-11.3379
▁عبدالصمد	-11.3379
▁کنئگی	-11.3382
▁لوٹائینت	-11.3383
▁گفتار	-11.339
▁تئیی	-11.3392
▁Ca	-11.3395
▁استین	-11.3397
▁ولد	-11.3398
▁بنداتءَ	-11.3398
▁ساحلی	-11.34
▁باپ	-11.3402
▁دیگا	-11.3403
▁بیمناکیں	-11.3407
▁پج	-11.341
▁برزگ	-11.341
▁writ	-11.3413
▁حامد	-11.3416
▁کارئے	-11.3416
▁بارڈر	-11.3417
▁دوستانی	-11.3417
▁موج	-11.3419
زانی	-11.342
▁درنیامءَ	-11.3422
der	-11.3426
▁یاسین	-11.3429
▁نامینگ	-11.3431
▁claim	-11.3431
▁زهیر	-11.3431
▁دباؤ	-11.3432
▁درشت	-11.3432
▁اکثر	-11.3433
▁produc	-11.3435
وند	-11.3435
ایں	-11.3436
▁چولانی	-11.3436
ھمک	-11.3437
▁عاقبت	-11.3439
▁پرکار	-11.3442
▁تماہ	-11.3445
▁رہشوناں	-11.3445
▁خانءَ	-11.3445
▁سائٹ	-11.3445
▁انچین	-11.3446
▁لوٹیں	-11.3446
▁تما	-11.3447
▁تلب	-11.345
▁cover	-11.345
▁پشمبے	-11.345
▁چلگ	-11.3455
دھ	-11.3459
▁محبوبہ	-11.346
▁کلاہ	-11.3464
▁جول	-11.3466
سرپد	-11.3467
▁ازر	-11.3468
▁سدی	-11.3468
۔۔۔۔۔۔۔	-11.3468
جب	-11.3468
▁سوشلسٹ	-11.347
ئس	-11.3471
held	-11.3471
▁اجوئیں	-11.3479
▁گنت	-11.3479
▁دئیان	-11.3484
▁نزدیک	-11.3487
▁مالدار	-11.3487
▁انس	-11.3489
▁اپاں	-11.349
ٹھ	-11.3494
▁قا	-11.3494
▁وانگءِ	-11.3499
▁With	-11.3505
▁شوهاز	-11.3507
▁دروغ	-11.3509
▁عنہ	-11.351
ھد	-11.3512
▁حیرانی	-11.3512
▁لانگو	-11.3512
برز	-11.3512
▁مم	-11.3514
▁همیش	-11.3515
▁ایرانءَ	-11.3515
▁ہوشام	-11.3517
▁عامر	-11.3521
▁کٹگ	-11.3522
▁نرمی	-11.3523
▁موم	-11.3523
▁Con	-11.3523
▁نێست	-11.3525
▁قہر	-11.3525
مش	-11.3526
min	-11.3527
ke	-11.3529
▁ایی	-11.353
▁بالکل	-11.3531
حی	-11.3531
▁چیزءَ	-11.3532
▁دیغ	-11.3534
▁بها	-11.3534
▁برزا	-11.3534
▁air	-11.3538
گہ	-11.3538
▁سیال	-11.3538
av	-11.3539
▁seven	-11.3541
▁توپ	-11.3543
▁خیبر	-11.3544
▁پکری	-11.3544
▁دریاورد	-11.3545
▁کبزہ	-11.3546
▁پتءِ	-11.3547
pa	-11.3547
▁بیستمی	-11.3548
▁ھالاں	-11.3552
▁گرام	-11.3552
▁رحمن	-11.3553
▁مسام	-11.3556
▁قصہانی	-11.3557
▁پہناتانی	-11.3557
کاراں	-11.3561
▁جنگول	-11.3564
▁church	-11.3565
چیز	-11.3572
▁you	-11.3575
وکے	-11.3577
▁level	-11.3578
▁جاہمنند	-11.3579
ره	-11.3582
▁تہرانی	-11.3582
▁لنجیں	-11.3588
lu	-11.3592
▁مئیگ	-11.3598
▁یلیں	-11.3598
▁لیس	-11.3599
▁درستی	-11.36
▁جارج	-11.3601
▁ھاٹیگ	-11.3604
▁دوستے	-11.3608
▁کارجاہ	-11.3608
▁مجن	-11.3609
▁ایردستی	-11.3611
▁بارہءَ	-11.3613
جین	-11.3615
▁یہودی	-11.3616
▁ترز	-11.3617
▁ارزش	-11.3618
▁half	-11.3618
▁بھیسہ	-11.3619
▁زلف	-11.3621
راجی	-11.3628
▁ماپ	-11.363
جاگہ	-11.3632
▁بساک	-11.3634
▁عادل	-11.3635
▁پسءِ	-11.3635
▁لیو	-11.3636
▁نانکہ	-11.3639
▁جلدی	-11.3639
ap	-11.3642
▁کاکڑ	-11.3643
ٹہ	-11.3647
ain	-11.3649
بک	-11.3652
▁ث	-11.3652
▁سدلی	-11.3653
▁ٹکے	-11.3653
▁قلمکار	-11.3655
▁زانتءُ	-11.3658
ear	-11.3662
▁songs	-11.3664
مور	-11.3665
▁دانا	-11.3665
▁پین	-11.3668
▁نشار	-11.3668
▁گوشی	-11.367
▁Division	-11.367
▁مسجد	-11.3671
▁سوڑگ	-11.3672
ard	-11.3675
▁former	-11.3676
▁اه	-11.3677
side	-11.3677
▁بلوچیءِ	-11.3679
▁چارئے	-11.368
▁نیلیں	-11.3684
▁کشوک	-11.3685
لبزانکی	-11.3688
▁add	-11.3689
▁لاگر	-11.3691
لین	-11.3693
▁نسیر	-11.3693
▁بوتگءُ	-11.3697
▁گیران	-11.3698
سین	-11.3702
▁El	-11.3704
اڑی	-11.3704
▁جانور	-11.3705
▁جوزہ	-11.3705
▁سرکارءَ	-11.3706
▁یکےءَ	-11.3706
▁رجینتگیں	-11.3706
▁دیووند	-11.3707
▁متھدہ	-11.3708
spite	-11.3709
▁گزران	-11.3709
▁ڈو	-11.3712
▁ٹرانسپورٹ	-11.3716
▁مناسب	-11.3717
ھیر	-11.3719
▁State	-11.3722
▁though	-11.3723
▁مذھب	-11.3724
▁among	-11.3726
▁طائر	-11.3726
▁total	-11.3726
▁وانگجاھاں	-11.3728
▁واهگ	-11.3729
▁ڈیوا	-11.3732
▁زمانے	-11.3737
▁مرادانی	-11.3739
▁ات۔بلے	-11.3742
▁بچارئے	-11.3742
▁لہ	-11.3743
▁دئینت۔	-11.3743
▁اسلءَ	-11.3744
▁گج	-11.3746
▁ڈھل	-11.3746
▁نگیگی	-11.3748
▁قبائل	-11.375
ئل	-11.3753
▁full	-11.3753
ینانی	-11.3754
▁رجینتگ	-11.3756
▁للہ	-11.3757
▁کسہے	-11.376
▁بجنت	-11.3761
▁تحصیل	-11.3761
▁باند	-11.3762
بکش	-11.3763
▁میوزک	-11.3764
▁لوگواجہ	-11.3764
▁Her	-11.3768
پمشکہ	-11.3769
▁یکوئی	-11.377
▁مسکیں	-11.3774
▁گروہ	-11.3776
▁گرنت	-11.3776
▁تشے	-11.3778
▁حاطرا	-11.3781
▁پدرد	-11.3781
▁اورماڑہ	-11.3782
▁لوک	-11.3785
▁قبل	-11.3788
ئیر	-11.3789
▁گالوارے	-11.379
▁ten	-11.3791
▁نیزگار	-11.3792
▁ولے	-11.3793
▁اتراپ	-11.3793
▁اوتھل	-11.3802
▁ھمراھداری	-11.3802
▁امانت	-11.3802
▁برطانوی	-11.3804
▁ہمیشانی	-11.3804
▁sub	-11.3806
▁ابدی	-11.3807
▁want	-11.3807
▁سہبءَ	-11.3808
ni	-11.3811
▁ٹہک	-11.3814
▁گوشتانک	-11.3815
▁نادان	-11.3816
▁ٹر	-11.3817
▁ودارءَ	-11.3817
hi	-11.3818
▁گیشینت	-11.3819
▁تھسیل	-11.382
▁field	-11.3821
▁فرید	-11.3822
▁چارشمبے	-11.3823
لڈ	-11.3824
▁خیرات	-11.3825
▁ھاندان	-11.3826
▁کاش	-11.3828
▁ببیت۔	-11.3832
▁زالے	-11.3833
aw	-11.3833
▁بندہ	-11.3834
▁سرفراز	-11.3837
▁جبکہ	-11.3838
▁مسیح	-11.3839
الو	-11.3846
▁پراھگ	-11.3847
▁scor	-11.3849
▁میانءَ	-11.3852
▁دستءِ	-11.3855
ہ۔	-11.3856
هم	-11.3857
▁مھروانیں	-11.3863
▁جنجالے	-11.3865
تار	-11.3867
▁کورے	-11.387
▁دروشماں	-11.3875
▁Arm	-11.3875
انچیں	-11.3876
▁close	-11.3876
▁شعیب	-11.3877
▁مادہ	-11.3877
▁زتک	-11.3878
▁production	-11.3878
کشی	-11.3878
▁سم	-11.3879
▁المیہ	-11.388
یٹر	-11.3881
▁دژمنانی	-11.3881
▁ناجوڑ	-11.3882
▁نشت۔	-11.3882
▁مریض	-11.3882
▁مہربان	-11.3885
کند	-11.3886
▁بدیاں	-11.3887
وہد	-11.389
▁بکشاتگ	-11.389
▁مراں	-11.3894
بیگواہ	-11.3897
▁review	-11.3898
▁every	-11.39
▁پرویز	-11.39
▁تپر	-11.39
▁دیدگانی	-11.3901
▁روحانی	-11.3903
▁امداد	-11.3904
▁گلءِ	-11.3905
▁لیکو	-11.3905
▁کوکو	-11.3911
▁گوشانی	-11.3912
ward	-11.3913
▁اربی	-11.3914
▁ارگنائزیشن	-11.3915
▁ساچشتانی	-11.3916
▁برج	-11.3918
▁ادارانی	-11.3922
▁محبوب	-11.3922
▁پاکستانءَ	-11.3924
▁بوتگانت	-11.3925
▁نکت	-11.3926
▁land	-11.3927
▁ھالو	-11.3929
▁رنگےءَ	-11.393
▁population	-11.3934
کوٹ	-11.3934
ہور	-11.3936
▁میس	-11.3939
عربی	-11.3939
▁شہہ	-11.3942
▁l	-11.3942
شور	-11.3942
▁شتگیں	-11.3943
▁اندام	-11.3943
▁سرئے	-11.3945
▁ھئور	-11.3946
▁ماحولیاتی	-11.3946
▁ازمءِ	-11.3948
▁گنبد	-11.3955
▁جج	-11.3957
▁چندر	-11.3958
دیما	-11.3963
▁change	-11.3964
▁چارئگ	-11.3965
▁وفاقی	-11.3968
▁واناک	-11.3969
▁بمبے	-11.3971
▁کوہءِ	-11.3971
▁قاتل	-11.3973
▁گندی	-11.3974
▁مصیبت	-11.3975
رب	-11.3978
▁اثرمند	-11.3978
قر	-11.399
▁مسائل	-11.3992
▁یلو	-11.3992
ترس	-11.3994
▁سرو	-11.3995
▁۔یک	-11.3995
▁انجام	-11.3996
▁نوخیں	-11.3998
▁تبے	-11.3998
▁دینے	-11.4
▁شاھو	-11.4001
▁دروگے	-11.4004
▁ڈنگر	-11.4005
▁پتاتگ	-11.4006
▁further	-11.4011
▁چیزئے	-11.4011
▁چونکہ	-11.4012
▁ادماں	-11.4012
▁سدو	-11.4016
▁ثناء	-11.4018
▁امیتانی	-11.4019
▁ہمد	-11.4019
▁east	-11.4022
▁اسرا	-11.4022
ھوں	-11.4023
زاناں	-11.4026
▁2011	-11.403
▁پراموش	-11.4031
▁پشاور	-11.4032
▁گنتر	-11.4033
▁شاہوانی	-11.4035
▁کوریا	-11.4038
▁چھوڑ	-11.4042
▁ہپتگ	-11.4044
▁دانی	-11.4044
▁شتر	-11.4046
one	-11.4051
▁الحق	-11.4052
▁رھشوناں	-11.4052
▁جناح	-11.4052
▁ہچی	-11.4053
▁دلوتانی	-11.4056
▁جبری	-11.4059
گوستگیں	-11.406
▁گیشوار	-11.4063
▁روچان	-11.4067
▁different	-11.4068
▁ڈیوٹی	-11.407
▁وارتگیں	-11.4075
▁نیلگ	-11.4077
▁سرئ	-11.4082
▁ریکوڈک	-11.4088
▁هند	-11.4089
▁کاٹ	-11.4089
▁نوید	-11.4093
▁کرام	-11.4094
▁چھٹی	-11.4094
بہر	-11.4098
▁ازمانکاری	-11.4102
ینے	-11.4103
▁زہرگ	-11.4106
▁According	-11.4107
▁2006	-11.4108
ئیل	-11.4109
▁بمبگواری	-11.4109
▁گواہی	-11.4109
▁الہ	-11.4112
▁پتا	-11.4116
▁تج	-11.4119
▁ششتگ	-11.412
▁track	-11.4122
▁پرزند	-11.4123
ناکیں	-11.4123
▁درگیج	-11.4125
▁Church	-11.4127
▁strong	-11.4127
▁چکاسگ	-11.4129
▁پوری	-11.4129
▁زیل	-11.4133
▁مستیں	-11.4133
▁اسرائیلی	-11.4135
▁ھرکسی	-11.4136
▁run	-11.414
کرد	-11.414
▁پادان	-11.414
▁تراکانی	-11.4141
اع	-11.4142
▁creat	-11.4142
ریک	-11.4142
▁وحید	-11.4143
▁سلاہاں	-11.4144
▁کہدہ	-11.4146
زل	-11.4147
▁زانگی	-11.4147
▁رشت	-11.4148
▁اوشتوکیں	-11.415
▁نادراہجاہ	-11.4153
▁مجیب	-11.4153
وخیں	-11.4153
▁کارپد	-11.4154
▁کپتیں	-11.4157
▁ینگ	-11.4157
▁ببا	-11.4158
جام	-11.4158
▁کشتہ	-11.4159
▁بزیر	-11.4162
▁چۆن	-11.4162
▁اکل	-11.4164
tic	-11.4165
▁دیستہ	-11.4165
اح	-11.4165
▁نرس	-11.4169
▁واراں	-11.4169
po	-11.4172
▁نکس	-11.4173
ach	-11.4174
▁ٹہ	-11.4175
▁مشینری	-11.4176
▁ڈیھاں	-11.4177
▁ٹوٹ	-11.4177
▁سینیٹر	-11.4177
▁کشگا	-11.4179
▁kill	-11.4179
ick	-11.4182
▁لانچر	-11.4183
▁مغرب	-11.4185
▁ڈسٹرکٹ	-11.4185
▁مارت	-11.4186
▁شگل	-11.4186
گشگ	-11.4189
▁طبی	-11.4189
▁جیڑیت	-11.4191
▁دؤ	-11.4193
▁نوداں	-11.4195
یکہ	-11.4196
T	-11.4198
▁اسٹریلیا	-11.4207
▁سماہ	-11.4209
▁پرشگ	-11.4211
▁شہراں	-11.4212
▁days	-11.4212
▁پیٹ	-11.4216
▁زرتگیں	-11.4216
▁گلگدار	-11.4218
▁بلۆچستان	-11.422
گرگ	-11.422
▁اوژناگ	-11.4223
رن	-11.4224
▁militar	-11.4225
▁سائنسدان	-11.4226
▁story	-11.4228
▁لسانی	-11.4228
▁زروان	-11.423
▁حکمران	-11.4231
ors	-11.4232
الہ	-11.4234
gu	-11.4236
▁کشادگ	-11.4236
زندگ	-11.4237
▁دیتے	-11.4238
دود	-11.4238
▁بیگءَ	-11.4243
▁غازی	-11.4245
▁پٹگ	-11.4246
▁تریت	-11.4251
▁زانتے	-11.4253
▁۔ما	-11.4255
▁ھورکیں	-11.4255
▁لھم	-11.4255
▁مدگ	-11.4262
▁رومان	-11.4262
▁روشنی	-11.4264
خو	-11.4264
▁official	-11.4264
▁particular	-11.4264
▁ابوبکر	-11.4264
▁بحران	-11.4268
▁کراس	-11.4268
▁سرون	-11.4269
▁اشارگ	-11.4271
▁اجز	-11.4275
▁پارست	-11.4278
▁مھم	-11.428
گز	-11.4282
▁کارکنوکیں	-11.4284
▁بنگلزئی	-11.4284
▁مجاہد	-11.4284
▁ٹکٹ	-11.4285
▁کسہی	-11.4296
▁ھندے	-11.4298
ٹے	-11.4299
▁نجیب	-11.4303
ebru	-11.4304
▁):	-11.4305
▁اناگاہ	-11.4305
....!	-11.4306
▁کرشی	-11.4306
▁کارگال	-11.4306
▁تہل	-11.4307
▁قمبر	-11.4307
do	-11.4307
▁win	-11.4308
کنئگ	-11.431
غلام	-11.4314
▁دیگءِ	-11.4314
O	-11.4314
▁پیرس	-11.4315
▁فارس	-11.4317
▁خانگ	-11.4318
▁me	-11.4318
▁real	-11.4319
▁ینت	-11.432
▁وہم	-11.4321
▁ھوشام	-11.4321
▁مہرءِ	-11.4322
▁پڑھ	-11.4322
▁بوتگ۔اے	-11.4325
▁پاہو	-11.4326
▁چلی	-11.4327
▁جہلیں	-11.433
▁گوریچ	-11.433
▁وٹ	-11.433
▁بناربس	-11.433
ful	-11.433
▁مارات	-11.433
▁واہشت	-11.4331
▁بگو	-11.4332
▁تامدار	-11.4332
▁پلانٹ	-11.4337
▁پجیگ	-11.434
▁دستبندی	-11.4343
▁جبزگ	-11.4345
استاد	-11.4346
▁تعداد	-11.4348
▁شفیع	-11.4349
▁بیٹھ	-11.435
▁گبار	-11.4352
less	-11.4355
پری	-11.4363
▁ہمیں	-11.4363
▁human	-11.4363
▁دیوار	-11.4365
بز	-11.4366
▁کلاسیک	-11.4368
▁باشد	-11.4377
▁ھیرو	-11.4379
▁مولا	-11.4379
شار	-11.438
▁اصلاح	-11.4387
▁یاداشت	-11.4388
▁ترہ	-11.4388
▁کرتاں	-11.439
▁21	-11.4392
▁ہوت	-11.4392
ations	-11.4394
▁عملے	-11.4394
▁زربار	-11.4394
▁فورم	-11.4396
▁روچتاک	-11.4397
▁الب	-11.44
▁ھرجاہ	-11.4401
▁جدل	-11.4404
▁شئرانی	-11.4404
▁ٹھک	-11.4405
▁لیوس	-11.4408
▁جنکیں	-11.441
▁بروان	-11.441
▁الکاپی	-11.4412
پنچ	-11.4412
▁بشام	-11.4413
چوشکہ	-11.4414
▁راجکاری	-11.4415
▁ورنائے	-11.4416
ائیت	-11.4416
▁درستان	-11.4422
▁گوئی	-11.4423
▁عمان	-11.4425
▁ٹولیانی	-11.4425
ھست	-11.4434
▁میرین	-11.4437
▁جاو	-11.4437
▁هئیال	-11.4438
▁رسائی	-11.4439
▁اگبالانی	-11.444
▁کارایت	-11.4443
▁League	-11.4443
▁ٹریفک	-11.4443
▁انگلش	-11.4445
▁چھوٹ	-11.4445
▁کیشن	-11.4446
مون	-11.445
▁Se	-11.445
▁ورناھانی	-11.4452
▁دیبا	-11.4454
▁سرگوز	-11.4455
▁ابر	-11.4455
▁ہورت	-11.4456
▁control	-11.4457
▁شادان	-11.4458
▁ندارگاں	-11.4458
▁رہشونی	-11.4459
▁بودناکی	-11.4461
اگہ	-11.4463
▁increase	-11.4464
▁ورزش	-11.4464
▁ریگستان	-11.4464
▁پشومان	-11.4464
▁ناسرپد	-11.4465
▁رجانکی	-11.4465
▁انڈین	-11.4467
,,,	-11.4468
▁ترپ	-11.447
▁اپانی	-11.447
▁کوڈ	-11.4473
▁سخی	-11.4476
سیت	-11.4479
▁پہناتاں	-11.4481
:’’	-11.4483
▁منزلے	-11.4483
▁جھلی	-11.4484
▁عبدالمالک	-11.4484
▁کمیونزم	-11.4484
کٹر	-11.4484
▁کاپی	-11.4485
▁سوتکگ	-11.4487
▁unit	-11.4487
▁وارڈ	-11.4488
▁گب	-11.4495
▁دنیائی	-11.4497
▁کماشاں	-11.45
ویل	-11.45
▁ہزارانی	-11.4502
مٹ	-11.4503
▁بہتر	-11.4504
▁نزانتگ	-11.4504
▁دزبمب	-11.4506
▁ملنڈ	-11.4507
▁سدھ	-11.4507
▁Sa	-11.4509
▁عیش	-11.4511
▁السلام	-11.4512
▁ایمانداری	-11.4514
اوتی	-11.4514
▁.....	-11.4514
▁وتیگ	-11.4516
صد	-11.4517
▁چشمک	-11.4518
▁پیشدار	-11.4519
▁ساچشتکار	-11.4521
▁band	-11.4524
mi	-11.4525
▁گلو	-11.4527
way	-11.4528
▁مخالف	-11.4531
▁واہگانی	-11.4536
▁وادی	-11.4537
▁وتکاریں	-11.4537
▁بالاں	-11.4539
▁لۆٹ	-11.454
▁سچگ	-11.4545
▁Song	-11.4545
▁ھزانگ	-11.4545
▁گێشتر	-11.4546
▁گرو	-11.4547
بانک	-11.4548
▁ملوک	-11.4548
ns	-11.4551
اشانی	-11.4552
▁توانا	-11.4556
▁br	-11.4556
▁خشک	-11.4562
▁نامگال	-11.4564
لان	-11.4565
چارگ	-11.4568
ير	-11.4569
com	-11.4571
▁گیریں	-11.4572
رنگیں	-11.4572
▁راھ	-11.4573
▁ٹہل	-11.4576
▁گریبی	-11.4578
ler	-11.4579
▁سنا	-11.4581
اغ	-11.4583
▁کرنچ	-11.4583
▁ہلاسی	-11.4585
▁service	-11.4585
▁finish	-11.4585
▁کێنگ	-11.4586
▁جمڑی	-11.4589
▁جنگءُ	-11.459
▁میراس	-11.4591
▁مجاں	-11.4599
ities	-11.4604
▁شہدگ	-11.4606
▁کامیو	-11.461
▁دلکش	-11.4612
▁دوراں	-11.4613
▁Li	-11.4615
▁ہمیشہ	-11.462
ade	-11.4621
▁شاخ	-11.4622
▁پچے	-11.4622
ویں	-11.4624
▁عیسی	-11.4626
▁اتھارٹی	-11.4626
gave	-11.4626
▁نخ	-11.4627
▁منیرءِ	-11.4628
▁درمانی	-11.4629
تران	-11.4633
▁برانت	-11.4636
▁ہردیں	-11.4637
▁پاکستانء	-11.4637
▁امیدوار	-11.4638
▁نشتاں	-11.4639
▁عطاء	-11.4639
▁operation	-11.4643
▁استالاں	-11.4645
▁defeat	-11.4646
▁project	-11.4646
▁کمیونٹی	-11.4647
▁سیاستءِ	-11.4652
▁body	-11.4658
▁match	-11.4658
لال	-11.466
▁لیپ	-11.4661
▁پہنچا	-11.4662
▁شوندات	-11.4665
ka	-11.4665
▁محکمیں	-11.4667
▁times	-11.4669
ؤک	-11.4669
▁ساہدار	-11.4675
▁بندگی	-11.4677
▁ٹکی	-11.4677
▁لوٹتگ	-11.4677
▁مختار	-11.4677
moved	-11.4678
▁چرچ	-11.4678
▁تواریں	-11.4678
▁‘‘(	-11.4679
▁معنایے	-11.468
▁less	-11.468
▁کلا	-11.4681
▁ماحل	-11.4684
cr	-11.4685
stead	-11.4686
▁Dylan	-11.4688
▁رائٹس	-11.4688
▁لبرل	-11.4689
▁بلیدی	-11.469
▁نئیل	-11.4691
▁جاورحال	-11.4692
▁مسترین	-11.4692
▁پاچ	-11.4693
▁اید	-11.4695
▁caus	-11.4698
▁کنت۔۔۔	-11.4698
▁reported	-11.47
▁بنگال	-11.4703
▁مڈیاں	-11.4703
سیاہ	-11.4704
کائی	-11.4707
▁دارئے	-11.4707
▁لیکہاں	-11.4707
▁ڑ	-11.4707
▁گدانی	-11.4707
▁دورانی	-11.4708
ہان	-11.4708
▁فلسطین	-11.4711
▁نیز	-11.4713
▁تشبیہ	-11.4714
▁غفور	-11.4716
▁پرینتگ	-11.4717
▁رھشونانی	-11.4717
▁اسٹیٹ	-11.4721
▁انجینئر	-11.4724
▁جذبگ	-11.4728
▁کرچک	-11.473
بانی	-11.4731
▁نذر	-11.4732
▁مون	-11.4733
▁مہے	-11.4733
▁چرگ	-11.4736
▁دستونکئ	-11.4736
▁چنانچہ	-11.4739
▁مہرک	-11.4743
▁Park	-11.4743
▁کوچگی	-11.4745
▁بوتگنت۔	-11.4746
▁اگه	-11.4746
▁وابیں	-11.4748
▁چرا	-11.475
سپر	-11.475
▁ڈاؤن	-11.475
▁ویروس	-11.4751
▁وتواجھی	-11.4754
▁راستیءِ	-11.4755
▁کامران	-11.4761
▁چریشیءَ	-11.4762
▁تیری	-11.4765
▁ٹائم	-11.4765
▁دئیگی	-11.4765
▁پگرے	-11.4765
باری	-11.4767
▁لاشے	-11.4767
▁میڑہ	-11.477
▁علاقوں	-11.4771
▁سندگ	-11.4771
▁سھریں	-11.4771
▁سرداراں	-11.4771
▁منظم	-11.4772
▁برءَ	-11.4775
▁ات۔۔	-11.4776
بنت۔	-11.4778
▁ردان	-11.478
ته	-11.4782
▁بیثہ	-11.4782
▁دردناکیں	-11.4786
▁رسینتگ	-11.4787
▁اسٹور	-11.4789
▁گریو	-11.479
▁بیئگ	-11.479
▁پجاروک	-11.479
▁پێسر	-11.4791
▁see	-11.4792
▁ھلو	-11.4792
▁تکہ	-11.4793
▁پاری	-11.4794
▁امریکائی	-11.4795
▁بکشیت	-11.4799
اؤں	-11.4799
ینا	-11.48
ستہ	-11.4801
▁عہدءِ	-11.4803
▁ض	-11.4803
▁شکلیں	-11.4804
▁رسینگ	-11.4804
▁برنت	-11.4806
▁جیڑھاں	-11.4806
▁لۆگ	-11.4807
▁گوشگءَ	-11.481
▁صباء	-11.4811
▁2012	-11.4812
▁۔منی	-11.4813
جد	-11.4814
▁کچھی	-11.4814
▁پیگام	-11.4814
▁دارانت	-11.4815
▁سهر	-11.4816
▁دمگدار	-11.4816
▁واڑ	-11.4818
▁تہت	-11.482
▁گنوکیں	-11.4824
ham	-11.4827
چاگرد	-11.4827
▁ریپ	-11.4829
▁23	-11.4832
▁بنام	-11.4834
▁جمھوری	-11.4835
▁باپشت	-11.4837
▁ماوتی	-11.4837
▁پژم	-11.4838
▁پنوں	-11.484
▁دیمے	-11.484
▁دلجان	-11.484
▁کمپ	-11.4844
▁ہوری	-11.4844
▁بیائے	-11.4849
▁اصطلاح	-11.485
▁ترانگاں	-11.485
▁ماشین	-11.4851
▁دارگءِ	-11.4855
▁تعمیر	-11.4855
our	-11.4858
▁برگیڈ	-11.4858
▁سئید	-11.4859
▁گيئشتر	-11.4859
▁اوانءِ	-11.4861
▁الو	-11.4861
og	-11.4864
▁پیڑ	-11.4864
▁چوگان	-11.4865
▁تنیگہ	-11.4869
▁جسے	-11.487
▁سلی	-11.4871
پرچے	-11.4872
تاہے	-11.4872
▁بوک	-11.4873
بیان	-11.4873
▁مرتگ۔	-11.4875
▁مقرر	-11.4875
حمل	-11.4876
▁سامی	-11.4877
▁پاگواجہ	-11.4878
▁ماہور	-11.4878
▁فراز	-11.488
▁بچاریت	-11.4882
مھر	-11.4884
▁نازءِ	-11.4884
▁بلوچان	-11.4884
▁اتحادی	-11.4886
▁ٹپاں	-11.4887
▁منندیں	-11.4889
▁ازیت	-11.489
▁سوبا	-11.4892
ھوار	-11.4894
▁low	-11.4894
▁popular	-11.4896
▁مائی	-11.4897
▁بوته	-11.4897
▁مہلنج	-11.4898
▁Po	-11.4899
▁۔اگاں	-11.4902
ماتی	-11.4902
▁تچوکیں	-11.4903
▁ترکگ	-11.4904
▁بکناں۔	-11.4907
▁شرح	-11.4913
▁سپ	-11.4915
▁دیوانءِ	-11.4915
▁تخلیقی	-11.4916
▁چاراتگ	-11.4917
شاں	-11.4917
▁پہکیں	-11.4917
▁کچہ	-11.4917
▁ہست۔	-11.4919
▁یونائیٹڈ	-11.4919
▁مرگی	-11.4922
▁گؤں	-11.4924
ترین	-11.4927
▁فعل	-11.4927
▁کدو	-11.4934
▁خوب	-11.4936
▁کلیر	-11.4938
▁اداراں	-11.4944
▁ھمروچیگیں	-11.4944
▁کنا	-11.4945
▁سعدی	-11.4945
▁tropic	-11.4949
▁سیاه	-11.4949
▁راھاں	-11.4951
▁پدرائی	-11.4952
▁انچوکہ	-11.4952
اماں	-11.4952
▁نسب	-11.4952
▁جاورے	-11.4957
▁ملکا	-11.4957
▁درچکاں	-11.4958
▁بیتگاں	-11.4962
▁ذرائع	-11.4964
▁ادارے	-11.4964
▁کھو	-11.4966
▁درنجگ	-11.4967
▁چٹی	-11.4969
▁کنوکے	-11.497
L	-11.4971
▁زورگری	-11.4971
▁پنڈگ	-11.4972
ائر	-11.4972
ite	-11.4973
▁حوالے	-11.4973
▁انگریزاں	-11.4975
▁بلوچانءِ	-11.4976
▁General	-11.498
▁تامربند	-11.4982
زاد	-11.4983
واریں	-11.4985
▁Na	-11.4985
▁واریاں	-11.4985
▁جذبات	-11.4986
▁پتار	-11.4988
▁گوربام	-11.4988
▁رنجاں	-11.499
▁لوٹائینتگ	-11.499
کناں	-11.4992
▁برگی	-11.4993
▁ملکیت	-11.4997
▁ننک	-11.4999
▁کلانچ	-11.4999
▁لاگریں	-11.5001
▁قریشی	-11.5001
▁بازارءِ	-11.5002
تءُ	-11.5003
ster	-11.5005
▁دکتر	-11.5006
▁ترکیب	-11.5006
▁بزانتیں	-11.5008
▁چور	-11.5008
▁شکی	-11.5013
▁سوبمندیں	-11.5018
▁درءَ	-11.502
ought	-11.502
▁house	-11.5021
▁ابرو	-11.5023
uarter	-11.5025
▁ٹرمپ	-11.5027
▁ببو	-11.503
▁پڑی	-11.5033
ڑے	-11.5033
▁بخاری	-11.5033
▁شاعرءُ	-11.5037
▁کردہ	-11.5037
▁تہلیں	-11.5037
▁مہراں	-11.5041
▁پہوال	-11.5041
▁لوٹنت	-11.5043
▁سهب	-11.5044
▁بروک	-11.5045
▁انساناں	-11.5047
▁()	-11.5049
شھلچہ	-11.5049
▁hav	-11.505
▁ایگی	-11.5051
▁ندارگے	-11.5052
▁منتوار	-11.5052
▁fee	-11.5054
▁بلوچستانء	-11.5056
▁کوت	-11.5057
نڑ	-11.5061
▁پہمئن	-11.5061
▁گراک	-11.5062
▁critic	-11.5062
انگت	-11.5063
▁ڈویژن	-11.5065
▁star	-11.5066
تھا	-11.5066
ئو	-11.5067
▁region	-11.5068
▁حداءَ	-11.5074
▁ابکہ	-11.5078
R	-11.5079
B	-11.5083
▁novel	-11.5087
▁Japan	-11.5087
ادب	-11.5088
▁پیژگاہ	-11.509
given	-11.5091
▁مکان	-11.5092
▁حالگش	-11.5093
▁ھیالءَ	-11.5096
تری	-11.5098
اھیں	-11.5099
▁جیڑہاں	-11.5102
▁مفت	-11.5102
▁فیکٹری	-11.5102
▁light	-11.5103
▁base	-11.5104
مول	-11.5105
▁برائے	-11.5107
▁پورم	-11.5107
▁سمندری	-11.5107
▁سکول	-11.5111
▁پیمے	-11.5111
▁چداں	-11.5111
▁چاریگی	-11.5113
▁ھچی	-11.5113
▁writing	-11.5116
▁چنڈگ	-11.5117
▁بدنءِ	-11.5118
▁شیری	-11.5119
▁گواھی	-11.512
▁کانچ	-11.5121
▁ازگار	-11.5121
▁کرناں	-11.5122
▁پہلوی	-11.5122
▁گهار	-11.5126
▁شاعریءَ	-11.5127
▁اشکرانی	-11.513
▁گندایت	-11.5131
▁انتخاب	-11.5131
▁رہوت	-11.5132
▁استادے	-11.5134
▁زرانی	-11.5135
▁جدگال	-11.5144
ide	-11.5147
ورنا	-11.5148
▁اٹلی	-11.5149
▁گورے	-11.515
▁ترانت	-11.5151
▁گیشواری	-11.5153
▁ہشک	-11.5154
▁نبیسوک	-11.5154
سپ	-11.5154
▁دروشمیں	-11.516
یکیں	-11.5162
▁ندوی	-11.5162
ba	-11.5167
▁members	-11.5167
▁range	-11.5168
▁Ar	-11.517
▁بیبو	-11.517
▁گنی	-11.517
الدین	-11.5171
▁ڈیموکریٹ	-11.5173
▁کوہاں	-11.5173
▁گولے	-11.5175
▁جنئک	-11.5176
سردار	-11.5177
▁بھرام	-11.5178
▁حیوان	-11.5179
▁ڈلگ	-11.5179
▁ھترہ	-11.5179
یگاں	-11.5179
ves	-11.518
ابا	-11.518
▁مکی	-11.5182
▁سہن	-11.5182
▁وند	-11.5183
▁چمپل	-11.5183
▁fl	-11.5183
▁We	-11.5185
▁پیلہ	-11.5186
طر	-11.5187
▁ھمدپ	-11.5188
▁view	-11.5191
▁west	-11.5191
▁plan	-11.5195
▁محرم	-11.5195
▁تلک	-11.5195
▁کارکردگی	-11.5196
▁کنگء	-11.52
▁چال	-11.5201
▁رہبنداں	-11.5203
پڑ	-11.5203
▁نادرا	-11.5205
▁عومر	-11.5206
▁?”	-11.5206
lost	-11.5209
دستونک	-11.521
پروش	-11.5211
▁مئیت	-11.5213
▁بوس	-11.5213
پھ	-11.5214
▁انلاین	-11.5216
▁بئیگا	-11.5217
غنی	-11.5217
▁نازاں	-11.5217
▁جوانسال	-11.5219
▁بوتوں	-11.5219
▁لاطینی	-11.5222
▁پڑاں	-11.5224
▁term	-11.5226
فو	-11.5226
▁گرانڈ	-11.523
▁ایڈیشن	-11.5236
▁دیری	-11.5238
▁ذریعے	-11.5238
▁نکتہ	-11.5242
▁ولید	-11.5245
▁کته	-11.5246
▁نوٹس	-11.5248
▁جناور	-11.525
▁نوان	-11.525
مردماں	-11.5251
بخش	-11.5252
▁مچار	-11.5253
▁بیلاں	-11.5253
▁کھیر	-11.5254
▁شمشتگ	-11.5257
▁مزور	-11.5257
قوم	-11.5258
▁ھتم	-11.5259
▁زلپ	-11.5261
▁انچائیں	-11.5261
▁country	-11.5262
فکر	-11.5263
▁America	-11.5274
گھ	-11.5275
▁بلکنہ	-11.5276
▁لوزاں	-11.5276
▁تقریبا	-11.5276
پاس	-11.5277
▁سیاھی	-11.528
▁امیج	-11.5281
▁young	-11.5282
دریا	-11.5282
▁متلبے	-11.5282
▁سرکپت	-11.5283
▁انعام	-11.5284
▁موسمے	-11.5287
▁تچیت	-11.5287
▁مزید	-11.5287
▁ساپیں	-11.5288
▁ہوکر	-11.529
▁زہگے	-11.5292
▁اہتگ	-11.5296
ium	-11.5299
▁Whil	-11.5304
▁راہءُ	-11.5304
▁کاڑ	-11.5305
▁شتنت	-11.5305
چیر	-11.5305
ious	-11.5306
▁۔بلوچی	-11.5306
▁انجیر	-11.5308
دھی	-11.5311
▁چکان	-11.5313
▁کشکاں	-11.5316
▁کسا	-11.5317
▁ھمدردی	-11.532
قہ	-11.5324
▁ھمسیادی	-11.5325
▁عبدالکریم	-11.5326
▁چنگیز	-11.5327
نزیک	-11.5328
▁محسن	-11.5328
▁جنگوجانی	-11.533
▁دیوانا	-11.533
▁جوانتریں	-11.533
▁بربادی	-11.533
▁ربیتی	-11.5331
▁سہتے	-11.5331
▁تامور	-11.5332
▁گیشنگ	-11.5334
▁۔پدا	-11.5335
▁گی۔	-11.5335
▁دک	-11.5337
▁انگریزوں	-11.5337
▁شہرءِ	-11.5343
seen	-11.5344
ub	-11.5347
▁خواتین	-11.5347
▁گشتہ	-11.535
▁شاید	-11.5351
...!‘‘	-11.5352
▁ھش	-11.5352
▁گرے	-11.5353
▁ذیل	-11.5353
▁متاہ	-11.5353
▁thought	-11.5355
کنڈ	-11.5358
▁درابیت	-11.5362
▁بیمناک	-11.5367
احت	-11.5368
عمل	-11.5369
▁اپیل	-11.5369
▁ژانگول	-11.537
▁دزمانجنی	-11.537
▁کرپشن	-11.5375
زمانگ	-11.5375
ایگ	-11.5375
▁tour	-11.5376
▁کک	-11.5381
▁چارایت	-11.5383
به	-11.5384
▁جوک	-11.5388
▁تھیں	-11.539
▁کیوں	-11.5391
▁اسمائیل	-11.5392
▁کماندان	-11.5394
▁تماشا	-11.5394
▁رنگا	-11.5395
▁West	-11.5396
▁عالی	-11.5397
پن	-11.5398
▁گارڈز	-11.5399
▁town	-11.5399
دئیگ	-11.54
ینیت۔	-11.5402
▁جندے	-11.5403
غنت	-11.5406
▁چونا	-11.5407
▁چلا	-11.5411
گ۔	-11.5411
▁تباھی	-11.5411
▁نم	-11.5412
▁اقتدار	-11.5414
▁2013	-11.5414
▁داکتر	-11.5414
▁اوزار	-11.5414
▁مشرف	-11.5415
▁بیھال	-11.5415
▁شہد	-11.5416
▁دلار	-11.5416
▁عدم	-11.5418
▁سیاہگ	-11.5419
▁تلاہ	-11.542
▁غور	-11.5421
▁دۆست	-11.5423
▁سفرنامہ	-11.5426
...‘‘	-11.5427
▁نزار	-11.5433
▁ریگی	-11.5434
▁complete	-11.5436
▁ناامیتی	-11.5438
▁ادیرہ	-11.5438
io	-11.5441
▁ماہے	-11.5441
کاریں	-11.5441
ning	-11.5442
▁دیاں۔	-11.5442
▁روٹکی	-11.5444
▁پڈ	-11.5444
جک	-11.5444
▁دیمء	-11.5445
▁انیگیں	-11.5445
▁پٹھان	-11.5447
▁post	-11.5447
حل	-11.5448
فا	-11.5449
▁کنانءَ	-11.5449
▁برطانیا	-11.5449
اسپ	-11.545
▁پکراں	-11.5451
سفرخان	-11.5451
▁ھدائی	-11.5452
▁صحیح	-11.5457
▁ضمانت	-11.5458
▁گیگان	-11.5461
چاپ	-11.5462
▁کامیابی	-11.5463
▁جرمکار	-11.5464
▁mak	-11.5467
▁نادراهی	-11.547
▁نسر	-11.5471
▁بیگی	-11.5473
واد	-11.5474
▁کتب	-11.5476
سیر	-11.5476
▁تالہ	-11.5477
ونڈ	-11.5478
▁جلی	-11.5479
▁ایمنسٹی	-11.548
▁ہنچش	-11.5481
▁جنیادم	-11.5481
▁بیوس	-11.5482
▁King	-11.5485
▁ہنی	-11.5488
▁ہنری	-11.5488
▁چما	-11.5491
▁ھسن	-11.5494
▁wh	-11.5496
▁پاچن	-11.5497
▁دراھی	-11.5502
▁سرتاک	-11.5502
▁اشعار	-11.5503
▁اذیت	-11.5503
▁سینئر	-11.5503
ther	-11.5504
▁24	-11.5505
▁پرشیت	-11.5506
▁گسے	-11.5506
▁ھمایاں	-11.5508
▁ماسکو	-11.5508
tion	-11.551
went	-11.551
▁ناسرجم	-11.5514
▁دانائی	-11.5515
▁شدیگ	-11.5516
▁ھالیگ	-11.5517
▁گشگا	-11.5518
کمے	-11.552
▁زادگ	-11.5524
ساچشت	-11.5524
ny	-11.5525
niversit	-11.5525
▁ٹائپ	-11.5525
▁پربستگ	-11.5525
▁بارکزئی	-11.5525
▁never	-11.5525
▁پاسپورٹ	-11.5526
▁development	-11.5528
▁گوشداروک	-11.5533
au	-11.5537
▁سرکارا	-11.5539
▁لبزءُ	-11.5541
▁ره	-11.5544
▁پشتا	-11.5547
▁سینزدہ	-11.5548
▁ایرجیگ	-11.5549
lin	-11.5552
▁باتیں	-11.5553
▁رحمدل	-11.5556
▁stated	-11.5558
▁کسھاں	-11.5558
,’’	-11.5559
▁پیسہ	-11.5562
▁زاننت	-11.5563
▁بلاک	-11.5564
▁بچاراں	-11.5565
▁اجزاء	-11.557
▁مراگاہ	-11.557
▁سفیر	-11.5571
▁اشکن	-11.5572
▁style	-11.5573
▁زالکار	-11.5573
▁مشورہ	-11.5574
رود	-11.5575
▁پاساں	-11.5575
گاڑی	-11.5576
▁too	-11.5576
▁ہلاپ	-11.5577
▁گرئگ	-11.5577
▁ایدیم	-11.5578
▁راجہ	-11.5578
▁گواتانی	-11.5578
▁award	-11.558
▁کین	-11.5585
▁کدیم	-11.5586
▁وشحالی	-11.5586
▁گشادی	-11.5593
▁واکب	-11.5593
▁فصل	-11.5594
▁رچان	-11.5594
▁روزی	-11.5596
نشتگ	-11.5598
▁action	-11.5602
▁ناروے	-11.5604
▁سجاد	-11.5605
یئر	-11.5606
▁تگران	-11.5609
bo	-11.5611
▁ہوا۔	-11.5615
ct	-11.5616
▁سانتیاگونصر	-11.5617
▁ہوارانت۔	-11.5618
▁نیوگ	-11.5618
▁پٹان	-11.562
▁ھرتال	-11.5621
▁لگگ	-11.5627
سما	-11.5631
▁لپ	-11.5636
▁قطار	-11.5638
زین	-11.5639
▁بوشت	-11.564
▁مب	-11.5643
بین	-11.5643
▁ادارکی	-11.5644
▁جاڑی	-11.5645
▁ہمساہگ	-11.5647
▁بیٹ	-11.5653
▁رسین	-11.5655
زک	-11.5657
▁راھانی	-11.566
▁22	-11.5661
▁نکاح	-11.5661
▁گریں	-11.5661
▁کشنت	-11.5662
▁کینسر	-11.5663
▁مسلہ	-11.5664
▁toward	-11.5671
▁ورناھاں	-11.5673
▁بہرام	-11.5673
▁زاد	-11.5674
نیک	-11.5674
▁نہیں۔	-11.5677
مود	-11.5678
▁success	-11.5678
ستگ	-11.5679
▁اھان	-11.568
▁k	-11.5683
▁دیوالاں	-11.5683
▁کرامات	-11.5684
▁سسائی	-11.5684
▁دریافت	-11.5685
▁روایات	-11.5685
▁میگ	-11.5686
▁دپار	-11.5686
▁ذی	-11.5688
E	-11.5688
▁درنز	-11.5689
انکی	-11.569
▁بیاراں	-11.5691
تانی	-11.5691
▁ہپتاد	-11.5693
▁ھندءُ	-11.5693
▁زیروک	-11.5694
▁نادریں	-11.5696
بید	-11.5698
دلی	-11.5699
▁جمر	-11.5701
▁مھلب	-11.5701
رج	-11.5704
زات	-11.5705
▁شائراں	-11.5706
▁بگاوت	-11.5707
ass	-11.5711
coming	-11.5714
▁گوادرءِ	-11.5714
▁Australian	-11.5715
▁پلیت	-11.5719
ھین	-11.5719
▁ڈاکٹرے	-11.5722
▁توام	-11.5723
▁ماراں	-11.5725
چشیں	-11.5726
den	-11.5726
نڈر	-11.5728
▁پلاسٹک	-11.5729
▁راھا	-11.5731
▁کسھانی	-11.5731
چاکر	-11.5731
▁نگرہ	-11.5734
حت	-11.5735
▁لیکہءِ	-11.5736
▁ثنا	-11.5738
▁بحری	-11.5739
▁ادت	-11.574
▁دلسیاہ	-11.5743
بود	-11.5743
عبدال	-11.5745
▁بوت۔۔۔	-11.5746
self	-11.5746
▁وصف	-11.5748
بست	-11.5749
▁لشکرے	-11.5749
▁پدانک	-11.575
▁Pro	-11.5752
▁لوڑی	-11.5754
▁زانتکارے	-11.5756
▁کسمت	-11.5757
▁جنگلی	-11.576
▁پرین	-11.576
▁چاک	-11.5761
▁بندرءَ	-11.5762
▁اروک	-11.5764
▁sign	-11.5765
▁کفن	-11.5766
▁ترسیت	-11.5766
▁رز	-11.5768
▁اہو	-11.577
▁بہرانی	-11.5771
▁راھبندے	-11.5771
▁کوشانی	-11.5771
▁حیالداری	-11.5772
▁بژنیگ	-11.5773
▁کوہءَ	-11.5773
▁گرگءَ	-11.5774
▁ft	-11.5775
▁توازن	-11.5775
▁تف	-11.5775
▁تمبو	-11.5776
▁سبکیں	-11.5778
▁چونین	-11.578
▁وهدی	-11.578
▁کردارانی	-11.5781
▁گوج	-11.5781
▁بیگانگ	-11.5783
▁کفر	-11.5784
▁ثمر	-11.5789
▁mi	-11.5791
روکپتی	-11.5792
▁ازمون	-11.5793
▁سوا	-11.5794
▁منہ	-11.5794
▁کچکے	-11.5794
سریں	-11.5794
▁du	-11.5795
▁نمائندگی	-11.5797
▁سربر	-11.5797
▁گورنمنٹ	-11.5797
تھی	-11.5798
▁سورس	-11.5799
▁ازمانگ	-11.5799
▁تیغ	-11.58
▁فوٹو	-11.5801
▁ساعتے	-11.5801
▁28	-11.5802
قد	-11.5804
▁یکشلی	-11.5807
▁پاھار	-11.5807
▁پسانی	-11.5809
▁دشمنی	-11.5809
▁کشیت۔	-11.5811
▁بوتک	-11.5811
▁اصلیں	-11.5811
▁سون	-11.5814
▁50	-11.5819
▁جیڑہے	-11.582
▁scene	-11.582
▁حضور	-11.582
▁عبید	-11.5821
▁ملکموت	-11.5822
▁مبارکیءَ	-11.5822
▁پشل	-11.5823
▁جاھانی	-11.5824
▁بیانے	-11.5824
▁Ire	-11.5825
▁اندازگ	-11.5827
حدا	-11.5827
بول	-11.5829
▁مصری	-11.5829
ither	-11.583
▁island	-11.5831
▁شپاد	-11.5833
ائینتگ	-11.5834
▁کاسد	-11.5834
▁گوا	-11.5836
▁ڈوبر	-11.5836
▁مسلماناں	-11.5837
▁ریاستے	-11.584
▁پھول	-11.5841
▁توصیف	-11.5844
▁کھڑکی	-11.5844
▁enter	-11.5844
▁کسٹم	-11.5845
▁ٹھینگ	-11.5848
▁زانتیں	-11.5849
سبز	-11.5849
ایس	-11.585
▁انگار	-11.5853
▁بتلانی	-11.5854
جنت	-11.5858
▁گهتر	-11.5858
▁بڑز	-11.586
ائٹ	-11.5862
▁پشومانی	-11.5863
▁زگر	-11.5864
▁اینٹی	-11.5865
▁تروتاب	-11.5867
▁chart	-11.5868
▁پیشکان	-11.5868
▁issue	-11.5869
▁فلاں	-11.587
▁۔ایشی	-11.587
▁نمونہ	-11.5873
▁وتاس	-11.5874
▁گیشینتگ	-11.5875
پرس	-11.5879
▁اسری	-11.588
▁پردہ	-11.588
pi	-11.5885
▁زمینانی	-11.5886
▁بیچار	-11.5887
▁پسیل	-11.5889
▁رودینتگ	-11.5889
کساس	-11.5889
▁براتی	-11.589
▁hour	-11.589
▁سیٹھ	-11.5891
▁عربانی	-11.5892
▁کائی	-11.5897
اث	-11.5897
▁بشارت	-11.5897
▁بستگ۔	-11.5902
▁هوار	-11.5902
."	-11.5902
▁نێمگا	-11.5903
اہے	-11.5905
▁سکھ	-11.5905
▁بڈا	-11.5906
▁Bo	-11.5907
▁رائی	-11.5911
▁رستہ	-11.5911
▁پرسیگ	-11.5912
▁ground	-11.5912
▁بندری	-11.5913
ven	-11.5915
▁تسلسل	-11.5916
▁ڈیجیٹل	-11.5917
کت۔	-11.5918
گٹ	-11.5919
▁بالو	-11.592
▁کارستاں	-11.5926
▁بہرءَ	-11.5927
▁نامداری	-11.5928
▁زیراں	-11.5929
▁join	-11.593
K	-11.593
▁ہاسیں	-11.5933
▁میچ	-11.5934
▁تانا	-11.5936
▁earlie	-11.5936
▁دوداں	-11.5937
▁کتگین	-11.594
تربت	-11.5942
▁ڈؤل	-11.5943
▁برزتر	-11.5944
ger	-11.5946
مئی	-11.5947
▁مہتر	-11.5948
▁مفتی	-11.5948
▁white	-11.5951
▁دارگءَ	-11.5953
▁سرمچارے	-11.5953
▁گیپت۔	-11.5954
لانی	-11.5955
▁مہلوکءِ	-11.5956
▁تئوار	-11.5956
▁نیادی	-11.5956
▁پاور	-11.5958
▁حذمت	-11.5959
▁پروردگار	-11.596
▁تعالی	-11.596
وھدیکہ	-11.596
▁کمانچر	-11.5961
▁سلہ	-11.5965
▁مولابخش	-11.5967
▁سخن	-11.5968
▁بندیگی	-11.597
▁ھیرات	-11.597
▁حوال	-11.5971
لیکہ	-11.5972
▁وفاق	-11.5973
خی	-11.5977
▁ذگریں	-11.5978
▁دوز	-11.598
راز	-11.598
ile	-11.5983
▁Black	-11.5983
▁case	-11.5983
▁ھانزا	-11.5988
▁پجارے	-11.5988
دنت	-11.5991
▁لنج	-11.5991
▁مومنٹ	-11.5994
▁گوگل	-11.5994
▁صغیر	-11.5995
▁بب	-11.5996
▁حرچ	-11.5999
▁سلاه	-11.6
ice	-11.6
▁نگدکاری	-11.6002
ual	-11.6002
▁ہرکسی	-11.6002
▁کرتءُ	-11.6003
▁پمێشکا	-11.6007
▁سات	-11.6008
ویے	-11.6009
▁دوھیں	-11.601
▁سربیت	-11.6012
▁مرکب	-11.6013
▁سیاہی	-11.6014
بچ	-11.6015
▁کسارت	-11.6017
▁سینہ	-11.6017
سئے	-11.6018
▁Pa	-11.602
▁حوری	-11.602
▁ترسءَ	-11.602
▁۔ہمے	-11.6023
▁بنند	-11.6024
دگی	-11.6026
▁وہی	-11.6027
▁ولا	-11.6029
across	-11.603
▁Ro	-11.6031
▁ارادگ	-11.6036
1	-11.6036
جس	-11.604
▁درپش	-11.604
▁ھپتمی	-11.6043
کماش	-11.6043
▁کندیت	-11.6046
▁پولگ	-11.6047
ture	-11.6051
▁لگام	-11.6052
▁رہبندے	-11.6053
▁یله	-11.6053
▁وانوکیں	-11.6053
▁element	-11.6054
لہتیں	-11.6055
▁عصا	-11.6055
▁پکنک	-11.6055
پدءَ	-11.6057
▁نائک	-11.6057
▁ناھدا	-11.6059
▁دانکاں	-11.6064
▁نشانے	-11.6065
▁منظوری	-11.6069
▁کیامت	-11.6069
▁کونج	-11.6071
▁ورناہانی	-11.6072
▁بیتاں۔	-11.6073
▁شزار	-11.6073
▁سرام	-11.6075
▁پرینگ	-11.6076
▁لیکیت	-11.6077
95	-11.6077
▁ننگر	-11.6079
ڈے	-11.6079
▁موسیقی	-11.6081
▁ھیات	-11.6081
▁ایرموش	-11.6082
▁ساهگ	-11.6082
▁دیئے	-11.6084
▁Lo	-11.6084
▁مجھ	-11.6089
▁writer	-11.6091
▁ساربان	-11.6093
▁ہول	-11.6094
▁کشمیری	-11.6096
▁زیبدار	-11.6096
▁بوئگءَ	-11.6097
▁دانگے	-11.61
felt	-11.6101
▁route	-11.6101
▁غمانی	-11.6102
▁ٹریکٹر	-11.6103
.......	-11.6103
▁نارشت	-11.6104
درست	-11.6104
▁درپشوکیں	-11.6105
پمیشکا	-11.6106
▁ھیروپ	-11.6106
▁وسوسگ	-11.6107
▁بوپ	-11.6108
گڈی	-11.611
▁ضمیر	-11.611
▁noted	-11.6111
▁دراہگ	-11.6116
▁الت	-11.6116
▁نجات	-11.6117
▁26	-11.6124
▁London	-11.6125
▁مراقبہ	-11.6125
ai	-11.6125
▁برئے	-11.6128
▁لبزی	-11.6128
▁چتکان	-11.613
▁الیاس	-11.6131
▁عبدالحکیم	-11.6131
▁انگه	-11.6133
▁ھمگام	-11.6136
شئیر	-11.6137
▁ات۔ا	-11.614
▁شعرءَ	-11.6142
▁مردانی	-11.6145
▁شرو	-11.6145
▁دائما	-11.6146
▁son	-11.6148
che	-11.6149
▁مسل	-11.615
▁ائوکیں	-11.6151
▁بلاول	-11.6153
▁مردان	-11.6153
▁پئیمیں	-11.6154
وکاں	-11.6155
ner	-11.6156
▁شانت	-11.6158
▁سرحد	-11.6158
cy	-11.6159
▁موڑ	-11.6161
▁مھکمی	-11.6161
▁ریشگ	-11.6161
پول	-11.6163
▁رتکگیں	-11.6163
▁جگا	-11.6163
▁انوگ	-11.6163
▁عدل	-11.6168
▁ابات	-11.6171
▁اہر	-11.6171
▁ازلی	-11.6172
رحم	-11.6173
▁کڑک	-11.6174
▁خواہش	-11.6175
▁مانی	-11.6177
▁غار	-11.6178
▁نوہ	-11.6179
▁ٹپاسگ	-11.618
▁مذھبی	-11.6181
▁ناتپاکی	-11.6183
▁سوچیت	-11.6184
▁ناس	-11.6187
▁منشی	-11.6189
شری	-11.619
▁نگران	-11.6191
▁ریگزار	-11.6197
▁بندرگاہ	-11.6197
▁ra	-11.6197
▁مہربانی	-11.62
▁غرض	-11.6201
▁ورناہاں	-11.6202
▁سفارت	-11.6203
ونگ	-11.6203
▁میاریں	-11.6203
▁خدائی	-11.6203
▁ماش	-11.6204
▁بنگپے	-11.6205
▁گسءِ	-11.6205
▁گیشگیواری	-11.6205
▁دلگران	-11.6206
▁get	-11.6206
▁گوئش	-11.6207
▁ھوراں	-11.621
▁ھردوئیں	-11.6211
نبشتگ	-11.6213
▁ڈگارءَ	-11.6213
▁تع	-11.6213
کمک	-11.6214
▁گواتءِ	-11.6215
▁موسماں	-11.6216
▁good	-11.6221
▁himself	-11.6221
▁ایجوکیشن	-11.6221
▁رؤف	-11.6223
▁پیپلز	-11.6224
▁کپٹن	-11.6226
▁نالگ	-11.623
▁حلقہ	-11.623
▁دانکے	-11.6231
ga	-11.6232
▁گذر	-11.6233
▁مھرانی	-11.6234
▁ایپلی	-11.6235
▁رست۔	-11.6237
برجاہ	-11.6238
▁اہدی	-11.6238
oc	-11.6238
▁art	-11.6239
▁پروشی	-11.624
▁live	-11.6241
▁فنا	-11.6243
▁ائیگ	-11.6245
▁دوزواہ	-11.6245
▁جارے	-11.6246
▁درتگیں	-11.6251
▁en	-11.6255
امین	-11.6257
این	-11.6257
low	-11.6258
▁جوھر	-11.6259
▁کرشن	-11.6261
▁براتے	-11.6263
▁black	-11.6269
▁ریسکیو	-11.6269
▁گواتءَ	-11.6269
▁مہروان	-11.627
▁ھونانی	-11.627
▁ائن	-11.6271
▁ھمداں	-11.6272
▁مڈل	-11.6273
▁تاثر	-11.6273
▁ایرانء	-11.6275
▁ارمانی	-11.6277
▁گرز	-11.6279
▁سرک	-11.628
▁گارءُ	-11.6281
▁بقول	-11.6281
▁امت	-11.6284
▁ناگتیں	-11.6285
▁دردءُ	-11.6285
▁کیوبا	-11.6286
خر	-11.6289
res	-11.6291
▁مزد	-11.6292
▁ازمانکی	-11.6292
▁سپاہیگ	-11.6293
▁ایکسپریس	-11.6293
▁گندک	-11.6293
▁رازاں	-11.6294
▁باس	-11.6294
شیت	-11.6296
▁وردی	-11.6296
▁ماھاں	-11.6297
▁عین	-11.6299
مچ	-11.63
go	-11.6301
▁چیدگے	-11.6302
▁گلامیں	-11.6305
▁دمانی	-11.6305
نیا	-11.6306
▁ڪنت	-11.631
▁!!!	-11.6316
نانی	-11.6317
▁ابادیں	-11.6317
‘,’	-11.6317
▁عبدالغفار	-11.6317
▁stage	-11.6318
▁داز	-11.6318
and	-11.632
▁ڈیلہ	-11.6321
▁معناءُ	-11.6321
▁بوؤگ	-11.6323
▁ہمراہاں	-11.6324
▁۔تو	-11.6325
اوار	-11.6328
▁ھمگرنچی	-11.633
داشت	-11.6332
▁حبرانی	-11.6333
ورت	-11.6334
▁شیرے	-11.6335
▁بنتءُ	-11.6336
اگن	-11.6336
6	-11.6339
▁یکسد	-11.634
▁لوزانت	-11.6341
▁گئیں	-11.6346
▁درکئیت	-11.6346
▁کھور	-11.6347
▁جاؤ	-11.6349
▁وشھالی	-11.6352
▁گوشداران	-11.6354
▁چمدار	-11.6354
▁چادرے	-11.6356
▁Australia	-11.6356
▁نامانی	-11.6356
▁دزرس	-11.6359
فاضل	-11.6359
▁مبات	-11.636
▁پادگ	-11.6363
زہرشانی	-11.6363
▁significant	-11.6366
▁exist	-11.6366
▁دزگہار	-11.6367
▁راستیءَ	-11.6367
▁ناگتی	-11.6367
▁پیمانہ	-11.6368
▁پمپ	-11.6375
▁act	-11.6377
▁شموشتگ	-11.6379
کوش	-11.6382
▁li	-11.6383
▁درہائ	-11.6383
▁featur	-11.6384
dy	-11.6386
▁داتءُ	-11.6388
کلی	-11.6389
▁تیوک	-11.6389
▁بندوبست	-11.639
▁انگلینڈ	-11.639
▁سلاحبند	-11.6391
▁رکھتے	-11.6391
▁ندیستگ	-11.6393
▁کچکانی	-11.6393
▁برمشے	-11.6394
▁تلو	-11.6395
▁تاگ	-11.6396
▁ارڈر	-11.6397
▁شاہین	-11.6398
▁سوبیں	-11.64
ذی	-11.6401
کنوک	-11.6401
▁دردی	-11.6404
▁پلگاریں	-11.6405
▁باکس	-11.6408
▁زھیروک	-11.641
▁سیدءِ	-11.6412
▁بابتء	-11.6415
▁خواہ	-11.6415
▁ابیتکیں	-11.6419
▁کباب	-11.642
▁مرضی	-11.6421
▁تڑ	-11.6422
▁زورگیر	-11.6423
جہان	-11.6424
زندگی	-11.6424
▁کمبل	-11.6425
▁ایاز	-11.6425
▁اتش	-11.6425
▁استونک	-11.6428
▁پروا	-11.6432
▁لاشعور	-11.6433
away	-11.6434
▁واس	-11.6437
▁بالشت	-11.6437
▁تجابان	-11.6439
▁عبدالرحمن	-11.6439
▁important	-11.6439
▁لازمی	-11.644
▁وپتگیں	-11.6443
▁miles	-11.6445
▁لہر	-11.6446
▁ھمودءَ	-11.6449
▁برق	-11.645
فری	-11.6452
بلکنا	-11.6453
▁سادگی	-11.6454
▁damage	-11.6454
▁روگءِ	-11.6455
▁جاپانی	-11.6458
▁چرپ	-11.6458
▁داشتہ	-11.646
▁coast	-11.6461
▁مشکلات	-11.6461
▁باہر	-11.6462
بالاچ	-11.6463
▁initial	-11.6464
▁تؤکا	-11.6465
▁اوبادگ	-11.6468
▁تس	-11.6469
▁Di	-11.647
گراں	-11.6473
▁قر	-11.6474
▁گناه	-11.6475
▁مثالے	-11.6476
uir	-11.6481
▁ہستیں	-11.6482
▁کرزیت	-11.6485
▁تعاون	-11.6488
▁یکپارگی	-11.6488
▁comment	-11.6488
▁ٹاؤن	-11.6488
▁father	-11.6488
▁فیلڈ	-11.6489
▁نورل	-11.649
▁پائیدار	-11.649
جہل	-11.649
▁کئور	-11.649
▁منڈ	-11.6491
nder	-11.6493
▁نج	-11.6494
▁دہلی	-11.6494
!!!	-11.6494
کاف	-11.6495
▁شاتو	-11.6497
▁mid	-11.65
▁وج	-11.6501
برا	-11.6503
▁class	-11.6503
▁ها	-11.6507
▁کارانت	-11.6509
▁دریکگ	-11.651
▁گناھیں	-11.6514
▁الزام	-11.6515
▁جمعی	-11.6516
▁سرکش	-11.6517
▁اٹھا	-11.6517
▁سنسکرت	-11.6519
▁تبدیلی	-11.652
▁پچی	-11.6521
▁ساگر	-11.6521
▁ساہتے	-11.6524
rs	-11.6524
بے۔	-11.6524
▁تانہ	-11.6524
▁ورنت	-11.6525
▁ھشتمی	-11.6529
hind	-11.6529
▁ازگ	-11.6532
▁پروشیت	-11.6532
▁ہیرو	-11.6533
یپ	-11.6535
▁female	-11.6538
▁modern	-11.6538
▁television	-11.6538
▁شیعہ	-11.6538
▁جائز	-11.654
یشی	-11.6541
▁تنگو	-11.6542
چوشیں	-11.6542
▁ناامیت	-11.6543
▁گرگی	-11.6543
▁سیارہ	-11.6544
▁age	-11.6544
▁جامعہ	-11.6548
▁ھندو	-11.6548
ھبر	-11.6552
▁یکتنا	-11.6554
▁سانکل	-11.656
▁ہورک	-11.656
یئے	-11.6561
▁eight	-11.6562
▁کردگالی	-11.6563
▁استا	-11.6563
▁پکرے	-11.6563
▁پیدائش	-11.6563
▁گمسار	-11.6564
▁ریاضی	-11.6564
▁وریں	-11.6568
▁شیریں	-11.6568
ادءَ	-11.6572
▁بوٹگ	-11.6575
▁بھاگ	-11.6576
▁گندوک	-11.6576
ڈک	-11.6577
▁پچگرگ	-11.6578
گڑ	-11.6578
شین	-11.6579
دوستی	-11.658
جوان	-11.658
▁ھمیشاں	-11.6582
ارس	-11.6585
▁دردءِ	-11.6586
▁various	-11.6587
▁ھاؤس	-11.6587
▁interest	-11.6588
▁انلائن	-11.6589
▁وارے	-11.659
field	-11.6593
▁ازمکاری	-11.6593
▁چربی	-11.6595
▁ناہک	-11.6595
▁عورت	-11.6596
▁رستری	-11.6597
▁انچشیں	-11.6597
▁لل	-11.6602
▁شنبہ	-11.6604
▁لوٹے	-11.6607
▁ہماری	-11.6609
▁ملگزار	-11.661
▁minute	-11.6612
▁عبدالمجید	-11.6612
▁ژوب	-11.6613
▁اخرت	-11.6616
ho	-11.6617
▁پیٹر	-11.6618
▁جوہان	-11.662
▁road	-11.662
▁جھلانکی	-11.662
▁کمر	-11.6623
▁مٹھا	-11.6623
▁ماہءَ	-11.6623
▁ملوری	-11.6628
▁واسطہ	-11.6629
▁حمیدہ	-11.6632
▁Su	-11.6634
▁گنگدام	-11.6638
ڑیں	-11.6642
▁لکھا	-11.6643
▁ریزمانک	-11.6645
▁کرگ	-11.6651
▁میریں	-11.6653
han	-11.6653
▁شعرءُ	-11.6654
▁بیدے	-11.6655
▁اوہد	-11.6657
فہ	-11.6658
له	-11.6659
▁امروہی	-11.6663
▁James	-11.6663
دراہ	-11.6664
▁گوئشگ	-11.6666
▁ناظم	-11.6668
▁روزگاری	-11.6671
▁ہفتگ	-11.6673
▁قصہی	-11.6674
▁مثلا	-11.6676
▁کثہ	-11.6676
▁طبیب	-11.6681
ارک	-11.6685
▁حسابءَ	-11.6685
▁جوڑی	-11.6686
▁کٹی	-11.6687
▁باعث	-11.6687
▁look	-11.6687
▁احترام	-11.6688
▁ھدے	-11.6688
▁تسلہ	-11.6689
راجدپتر	-11.669
▁نیلیت	-11.669
▁بدنءَ	-11.6692
▁چکیں	-11.6694
▁تسلیم	-11.6694
▁اهد	-11.6695
▁داتیں	-11.6696
▁دکھ	-11.6698
پش	-11.67
زدہ	-11.67
▁کنڈی	-11.6701
▁جنێن	-11.6701
▁شفیق	-11.6701
باید	-11.6702
▁ریشاں	-11.6703
▁ٹیوٹ	-11.6703
▁شیراں	-11.6706
زد	-11.6708
▁انت۔۔۔۔۔	-11.6709
▁چیزان	-11.6709
mer	-11.671
▁گشتگ۔	-11.6711
▁تز	-11.6711
▁ساچشتے	-11.6713
▁پنتءُ	-11.6713
▁چاھ	-11.6714
he	-11.6715
pp	-11.6716
▁فنڈ	-11.6721
ودار	-11.6721
▁رھ	-11.6722
▁بیلی	-11.6724
▁روکپت	-11.6726
▁اسٹ	-11.6726
ارہ	-11.6726
▁منگی	-11.6727
▁تھریک	-11.6727
۔بلئے	-11.6728
▁غلط	-11.6731
جتا	-11.6734
▁Robert	-11.6738
▁اینگو	-11.6738
▁مراگہ	-11.6739
▁جنینی	-11.674
▁اسمی	-11.674
لیٹ	-11.6742
میل	-11.6743
▁لیل	-11.6748
▁need	-11.675
▁انسٹی	-11.6755
▁گیتکگ	-11.6756
▁Ju	-11.6757
▁نب	-11.676
گڈ	-11.6762
▁تعلیمی	-11.6762
▁بدھ	-11.6763
▁successful	-11.6763
▁کیسے	-11.6764
▁اروہی	-11.6765
▁does	-11.6766
▁رخصت	-11.6766
▁پژ	-11.677
▁زگری	-11.677
▁ربیدگانی	-11.677
▁لیگار	-11.6775
▁منڈی	-11.6778
▁پرانی	-11.6779
▁events	-11.6781
▁برکش	-11.6781
▁موداں	-11.6782
▁دامنءَ	-11.6785
▁Ta	-11.6788
▁ردء	-11.6788
▁عبدالرحیم	-11.6789
▁Road	-11.6789
▁sent	-11.6789
▁حور	-11.679
▁مسکرہ	-11.679
▁چکءَ	-11.6791
▁سرینگ	-11.6792
▁گپتیں	-11.6792
▁بیچارگ	-11.6793
شو	-11.6793
▁دوم	-11.6794
▁اہیءَ	-11.6794
▁وتئ	-11.6797
نویس	-11.6799
▁دراه	-11.6802
▁گلستان	-11.6803
بلو	-11.6807
▁جائیں	-11.6811
▁درتگ	-11.6813
▁peak	-11.6814
▁نادراھیانی	-11.6815
▁دیتا	-11.6817
▁ردیاں	-11.6818
▁زابل	-11.6819
▁روپگ	-11.6821
▁نوبل	-11.6822
سس	-11.6825
rd	-11.6826
عر	-11.6827
▁زینت	-11.6832
▁ٹہینگ	-11.6832
ڈل	-11.6832
▁منصب	-11.6832
▁یکدار	-11.6832
▁person	-11.6833
زه	-11.6837
عل	-11.6837
لوک	-11.6839
▁پوائنٹ	-11.684
▁discover	-11.684
▁بلوٹیت	-11.6841
▁الماری	-11.6842
▁گزرانی	-11.6843
ائیڈ	-11.6843
▁شاھگان	-11.6844
▁political	-11.6845
ونٹ	-11.6846
▁ھز	-11.6851
▁نبیل	-11.6853
▁Tw	-11.6853
▁کید	-11.6854
▁زبانوں	-11.6855
▁راجدپترءَ	-11.6857
▁گنوکے	-11.6862
▁بہرگاں	-11.6863
ack	-11.6864
▁تقسیم	-11.6865
▁تفسیر	-11.6865
▁جھاؤ	-11.6866
چونیں	-11.6868
▁امیتان	-11.6868
▁دزکش	-11.6869
▁نوشیروانی	-11.6874
▁hand	-11.6876
▁مشگ	-11.6877
▁ائیر	-11.6878
▁car	-11.6878
▁ائیڈیل	-11.6889
▁یکجائی	-11.689
▁announc	-11.6891
▁fight	-11.6891
▁کسےءِ	-11.6891
▁ذال	-11.6891
▁جواز	-11.6894
▁فائنل	-11.6895
▁سرمگ	-11.6896
▁گنجی	-11.6898
▁ھمایانی	-11.6898
▁باتاں	-11.6898
▁زمزیل	-11.6899
▁مہرگ	-11.69
▁national	-11.6902
▁کٹیت	-11.6903
▁چمی	-11.6904
▁سازش	-11.6904
▁کشگءَ	-11.6906
وائی	-11.6908
▁دوسال	-11.691
▁زیور	-11.6911
▁چرک	-11.6911
▁ھیالی	-11.6915
▁الحاق	-11.6917
▁زورایت	-11.6918
تغیں	-11.692
▁نکناں	-11.6923
▁انجن	-11.6923
▁mm	-11.6925
▁جیڑگانی	-11.6927
۔بزاں	-11.6927
جاھے	-11.6927
▁دلیر	-11.6928
▁صف	-11.693
▁میکسم	-11.6932
▁روشنائی	-11.6932
▁ایٹمی	-11.6934
ford	-11.6935
بستگ	-11.6936
▁جنزے	-11.6938
▁دیستیں	-11.6942
▁بهار	-11.6943
▁ابداللہ	-11.6945
▁مجرم	-11.6946
▁شھریاں	-11.6946
عن	-11.6947
▁ایرکنگ	-11.6947
▁ہز	-11.6947
▁مادگ	-11.6948
▁Cr	-11.6948
▁پاہار	-11.6948
▁رھوت	-11.6948
▁سنٹر	-11.695
▁راہءِ	-11.6951
▁وردنی	-11.6951
▁نواں	-11.6952
▁اتمان	-11.6953
▁کوارٹر	-11.6954
▁اکہ	-11.6955
▁ازمانکءِ	-11.6965
▁poem	-11.6968
▁ریم	-11.6969
مج	-11.6969
▁یوں	-11.697
▁نازءَ	-11.6972
▁صدا	-11.6973
▁پگرءُ	-11.6975
▁روئیں	-11.6976
جز	-11.6979
ess	-11.6984
▁گندگی	-11.6989
بھی	-11.6989
▁واجھ	-11.6989
سرجم	-11.699
▁مادنیں	-11.699
▁بچہ	-11.699
▁بابر	-11.699
▁ساچشتاں	-11.6992
▁منزلءَ	-11.6993
انسانی	-11.6993
▁میوزیم	-11.6994
داراں	-11.6994
▁بکرتین	-11.6994
شش	-11.6994
▁میزاں	-11.6995
تال	-11.6995
▁پائیدگ	-11.6995
▁performance	-11.6996
نار	-11.6996
▁عاروس	-11.6996
▁انت۔چہ	-11.6997
▁بوہگءَ	-11.6997
▁اھر	-11.6999
▁نمائندہ	-11.6999
▁سیکنڈ	-11.7
▁تفصیل	-11.7003
▁دیو	-11.7004
▁تلوار	-11.7009
▁ھبرءَ	-11.701
شیں	-11.7013
▁اصلءَ	-11.7014
▁تنگیں	-11.7016
▁ٹائی	-11.7017
▁دزکشی	-11.7017
ایان	-11.7017
▁مکسک	-11.7018
▁بدلا	-11.7019
▁گوادری	-11.702
▁example	-11.702
▁ھڑتال	-11.702
▁County	-11.7021
▁زریں	-11.7021
ٹیو	-11.7022
▁کوار	-11.7024
▁دنیگت	-11.7024
▁پادے	-11.7026
▁دج	-11.7027
▁چکءِ	-11.7027
مردمانی	-11.703
▁زیملی	-11.7033
▁امنی	-11.7035
▁ھندانی	-11.7035
▁بات۔	-11.7039
▁And	-11.7044
▁برٹش	-11.7046
▁پولیٹیکل	-11.7046
▁ثقافت	-11.7046
اھگ	-11.7046
▁پسے	-11.7047
▁پنگ	-11.7048
nt	-11.7051
▁سوغات	-11.7052
▁Or	-11.7053
▁رین	-11.7055
▁تھل	-11.7055
▁بتلے	-11.706
۔بلوچی	-11.706
میار	-11.7062
▁لمبر	-11.7064
▁put	-11.7071
▁اکبت	-11.7073
▁الخط	-11.7074
▁رنجانی	-11.7074
▁محض	-11.7075
ڈیو	-11.7076
وءَ	-11.7078
ولا	-11.7078
▁اوشتات۔	-11.7078
▁وھم	-11.708
▁چیری	-11.708
▁چگ	-11.7081
▁بجائے	-11.7082
▁زورءُ	-11.7083
▁نازرکی	-11.7083
▁گونڈل	-11.7084
گمان	-11.7085
▁پراں	-11.7088
▁سیکس	-11.7089
▁جرات	-11.7091
▁دیا۔	-11.7091
▁دراجکش	-11.7091
تان	-11.7093
▁عرفان	-11.7094
▁شماری	-11.7096
قاضی	-11.7097
▁met	-11.7097
▁should	-11.7098
▁دوچگ	-11.7098
▁influence	-11.7099
▁مخصوص	-11.7099
▁مرادساحر	-11.7099
▁بوتگاں۔	-11.7104
▁سوٹ	-11.7105
▁دابءَ	-11.7106
▁برئگ	-11.7109
▁ازمانءَ	-11.7112
▁شرتگ	-11.7112
سہر	-11.7113
▁wide	-11.7113
▁ٹالسٹائی	-11.7116
▁درشتگ	-11.7119
نود	-11.7123
▁چارمکنڈ	-11.7125
▁victor	-11.7125
▁خوبصورت	-11.7126
▁گرءُ	-11.7126
▁ھالتاک	-11.7126
▁شتاں۔	-11.7127
▁locat	-11.7134
▁بھادر	-11.7134
▁نابودی	-11.7135
▁معلومات	-11.7137
▁بنجلے	-11.7138
▁الھان	-11.7139
▁دہر	-11.7141
di	-11.7143
bi	-11.7143
▁کلانی	-11.7145
▁انت۔ھمے	-11.7146
▁effect	-11.7151
▁بہارگاہ	-11.7152
ee	-11.7153
▁مشاہدہ	-11.7154
▁حطرہ	-11.7154
▁جنتر	-11.7154
▁گڑی	-11.7155
▁ازمانءِ	-11.7161
▁کردستان	-11.7162
▁سرمگیں	-11.7162
▁شررنگی	-11.7163
▁Go	-11.7165
▁سنگاں	-11.7173
واه	-11.7173
▁مبارکیں	-11.7173
▁litt	-11.7174
▁منٹو	-11.7174
▁پرکے	-11.7175
▁بئیت۔	-11.7175
▁سمب	-11.7175
▁ویکاریو	-11.7177
ائش	-11.7178
▁کلوھے	-11.7179
▁سالا	-11.7179
فقیر	-11.718
▁پادری	-11.718
▁structure	-11.7181
▁استادانی	-11.7181
▁رئوت	-11.7182
▁خوف	-11.7184
▁فیروز	-11.7184
▁نویساں	-11.7186
▁دیوالے	-11.7187
▁بدرنگ	-11.7187
▁مقدمہ	-11.7188
▁بھتی	-11.7188
انچش	-11.7193
ps	-11.7194
▁Per	-11.7198
▁فعال	-11.7198
▁شدید	-11.7198
▁تت	-11.72
▁شپک	-11.7201
▁لوٹئے	-11.7201
▁نکال	-11.7202
▁ماہر	-11.7202
الوجی	-11.7203
▁جیڑه	-11.7203
▁eventual	-11.7204
اجوئی	-11.7204
▁ائیگا	-11.7207
▁منئ	-11.7208
▁حساس	-11.7208
▁ننگار	-11.7211
▁ٹائمز	-11.7211
ٹنگ	-11.7212
▁ماضی	-11.7214
▁پم	-11.7215
▁واھش	-11.7217
▁کنت۔اے	-11.7217
▁اغاز	-11.7219
▁گزی	-11.7222
▁ابھی	-11.7223
▁سوتے	-11.7223
▁کاگدانی	-11.7223
▁سانکلاں	-11.7224
▁27	-11.7225
▁ٹول	-11.7227
نون	-11.7227
▁شیرگ	-11.7228
▁چوہدری	-11.723
▁درکرت	-11.723
▁بختاور	-11.7231
▁Wi	-11.7232
▁منء	-11.7232
ورا	-11.7232
▁پیالہ	-11.7236
▁bar	-11.7238
▁سکتے	-11.7239
▁لوٹاں۔	-11.7239
▁کوکر	-11.7241
men	-11.7241
کول	-11.7244
▁تھران	-11.7244
▁حرابی	-11.7244
.........	-11.7245
▁جاهے	-11.7245
▁استاداں	-11.7245
und	-11.7251
شد	-11.7253
▁نوار	-11.7253
7	-11.7255
▁گولڈ	-11.7256
▁لانس	-11.7256
▁حوصلہ	-11.7257
▁ھاجت	-11.7258
▁جاگاہ	-11.726
▁زانتاں	-11.7262
▁٭۔	-11.7263
▁پندلے	-11.7264
▁عبدالقادر	-11.7264
۔۔۔بلے	-11.7265
▁مہلوکءَ	-11.7266
▁تے	-11.7267
▁پندے	-11.7273
▁زانگءَ	-11.7278
▁اسنائپر	-11.7283
▁مالاں	-11.7284
▁معاہدہ	-11.7287
▁نیکراہی	-11.7287
▁اجازہ	-11.7288
▁کشءُ	-11.7289
▁چابک	-11.7289
▁شینک	-11.7293
افی	-11.7294
▁کھا	-11.7295
▁report	-11.7295
▁ہژدہ	-11.7296
ردی	-11.7296
▁سراپ	-11.7297
▁اھوالکاراں	-11.7297
▁ویرانیں	-11.7297
▁Ne	-11.7298
▁عل	-11.73
مانا	-11.7302
انگریزی	-11.7304
▁وشال	-11.7306
▁گواش	-11.7306
نمدی	-11.7307
▁شانیں	-11.7309
▁ناروائی	-11.7309
▁مشق	-11.731
▁2004	-11.731
ئک	-11.7311
▁خلق	-11.7312
▁وشنود	-11.7313
بادشاہ	-11.7313
بشکن	-11.7315
▁حرماگ	-11.7317
▁رازے	-11.7317
▁معمولی	-11.7317
▁ٹیکسی	-11.7318
▁اطلاعات	-11.732
▁پکائیں	-11.732
▁سپرے	-11.732
▁بٹاک	-11.7322
▁ھیلکاری	-11.7323
▁ٹگل	-11.7323
▁جائزہ	-11.7323
▁پڑے	-11.7325
▁شاریءِ	-11.7326
▁لبنان	-11.7326
▁characters	-11.7327
▁ذاتے	-11.7328
▁leas	-11.7329
per	-11.733
mon	-11.7336
▁entire	-11.7337
▁اعضا	-11.7337
▁پرائمری	-11.7337
▁2005	-11.7337
▁Music	-11.7337
▁پروٹین	-11.7337
▁پدمنتگیں	-11.7337
چکہ	-11.7338
▁مێتگ	-11.7338
▁construction	-11.7338
▁درانی	-11.7338
▁جبل	-11.7339
▁برادر	-11.7339
کشن	-11.734
▁انٹیلی	-11.734
▁درانڈیھ	-11.7341
▁دوزحہ	-11.7342
▁Roman	-11.7347
▁وحدت	-11.7347
▁شربت	-11.7352
▁ادارگاں	-11.7352
منیر	-11.7355
کچک	-11.7356
▁میاری	-11.7358
بندات	-11.7359
▁لڑے	-11.7359
جوانیں	-11.7359
۔بلکیں	-11.736
▁وختے	-11.736
▁بہائیں	-11.736
▁سیمسرانی	-11.7362
▁اوٹ	-11.7362
▁بدنام	-11.7365
▁کماشے	-11.7367
تیر	-11.7367
▁گوٹھ	-11.7369
▁ہیک	-11.737
▁جپت	-11.737
gen	-11.7374
▁نزارگ	-11.7374
▁نمک	-11.7375
زرت	-11.7376
▁شکیل	-11.7376
od	-11.7379
▁پاند	-11.738
▁دریاءِ	-11.7382
red	-11.7383
▁اي	-11.7383
▁ھجالت	-11.7383
زام	-11.7383
اتیں	-11.7384
▁گشوک	-11.7385
روپ	-11.7385
▁زمینے	-11.7391
▁مہلب	-11.7392
▁ناکۆ	-11.7392
▁Some	-11.7396
▁اورتگ۔	-11.7396
▁ساخت	-11.7396
کلات	-11.7397
▁کودکیں	-11.7399
▁ظ	-11.7399
▁باتیل	-11.7399
▁بچکاں	-11.7402
▁بستر	-11.7405
▁قطر	-11.7405
▁افس	-11.7405
▁واکان	-11.7405
▁گریڈ	-11.7407
▁رستیں	-11.7408
▁بیاں	-11.7408
▁مانیت۔	-11.7409
غم	-11.7409
▁گزشت	-11.741
▁represent	-11.7411
▁شاہگان	-11.7412
▁ناموس	-11.7413
ساں	-11.7413
▁یکشلہ	-11.7413
▁انان	-11.7413
▁گچک	-11.7415
▁میو	-11.7418
▁قندیل	-11.7418
▁لسٹ	-11.7422
▁تیزیں	-11.7422
▁ملگور	-11.7422
▁تراش	-11.7427
▁تراول	-11.7429
▁نف	-11.7429
▁فاروقی	-11.743
یتگیں	-11.7432
سندھی	-11.7432
کمیں	-11.7441
▁کی۔	-11.7443
▁court	-11.7445
▁بغداد	-11.7445
▁انکلاب	-11.7446
روک	-11.7446
لزم	-11.7449
▁نادینت	-11.7451
▁انونیں	-11.7454
▁شیشہ	-11.7455
▁اتکیں	-11.7457
روسی	-11.746
انوں	-11.746
▁ھدیس	-11.7462
▁پوت	-11.7462
▁کوڑی	-11.7463
▁ہوس	-11.7463
▁حسد	-11.7463
شرف	-11.7463
▁لوٹائینگ	-11.7468
▁چارتگ	-11.7468
▁شالءِ	-11.747
▁ھرچے	-11.7472
▁انٹرویو	-11.7472
▁شھادت	-11.7472
▁مھربان	-11.7473
▁دیمرہی	-11.7473
▁دروازگءَ	-11.7475
ھڑ	-11.7475
▁قسمے	-11.7476
▁اگان	-11.7477
▁واگ	-11.7477
tro	-11.7478
▁ساھگءَ	-11.7479
▁ہشتاد	-11.7481
▁چریک	-11.7481
▁works	-11.7481
▁دفاع	-11.7482
▁توس	-11.7485
end	-11.7486
▁ندات	-11.7489
▁زیریت	-11.7491
▁نزیکا	-11.7493
▁انتہائی	-11.7494
▁برئو	-11.7494
▁کدیں	-11.7499
▁لیں	-11.75
پاک	-11.7501
▁راھبنداں	-11.7502
▁ٹیکسٹ	-11.7503
▁ادءِ	-11.7506
ریز	-11.7506
illa	-11.7507
▁زبانزانت	-11.7509
مھ	-11.7509
▁ناراض	-11.7511
▁جیڑو	-11.7512
▁پئیما	-11.7513
▁بوتت	-11.7514
▁گرکی	-11.7515
▁راہاں	-11.7516
▁اکسانی	-11.7518
▁کھندان	-11.7518
▁پسوءَ	-11.7521
▁come	-11.7525
▁ترانے	-11.7526
▁مملکت	-11.7527
▁نظریاتی	-11.7535
▁زانے	-11.7535
▁ھنگت	-11.7536
▁بانزلاں	-11.7536
▁ہیڈ	-11.7538
▁کشش	-11.7539
لشکر	-11.7543
درچک	-11.7543
▁رت	-11.7543
▁گرانت	-11.7547
▁حالا	-11.755
▁جنوبی	-11.7551
▁date	-11.7554
▁ھدامرزی	-11.7554
▁بوجگ	-11.7559
نا۔	-11.7559
uck	-11.756
▁اکتر	-11.756
برات	-11.7561
گنوک	-11.7562
ایشاں	-11.7562
نین	-11.7562
▁مق	-11.7564
▁مدئے	-11.7565
▁Ho	-11.757
▁بھرتی	-11.7571
▁..	-11.7574
▁کوٹیءَ	-11.7575
مڑ	-11.7575
▁کشتی	-11.758
▁۔کہ	-11.758
txt	-11.7582
▁others	-11.7583
▁وہاب	-11.7584
▁رکشہ	-11.7584
▁شائ	-11.7587
▁دوارگ	-11.7588
▁گہتریں	-11.759
▁رازیگ	-11.7592
ہست	-11.7593
▁سبزگ	-11.7596
▁قصہے	-11.7596
کنیں	-11.7597
▁چھرگ	-11.7597
▁وڑءُ	-11.7598
۔گڈا	-11.7599
▁Si	-11.7599
▁گشتگیں	-11.76
H	-11.7601
▁خواب	-11.7606
▁ہمگرنچیں	-11.761
▁ڈاکٹردیدگ	-11.761
▁چارلس	-11.7612
▁وین	-11.7613
▁دلکشیں	-11.7613
گریں	-11.7615
▁شاگ	-11.7616
▁زینب	-11.7617
▁کمبرانی	-11.7619
اسل	-11.7621
▁پتن	-11.7627
▁کردگار	-11.7629
▁کارل	-11.7632
▁نوح	-11.7633
▁ورگا	-11.7635
▁لیڑو	-11.7636
▁صبیحہ	-11.7637
▁عبدالعزیز	-11.7637
▁گناھے	-11.7637
▁شالءَ	-11.7638
▁ہجبر	-11.7638
▁ڈیھانی	-11.7638
▁زبریں	-11.7639
▁چالاک	-11.764
▁Ga	-11.7641
▁میاربار	-11.7642
لر	-11.7642
▁ادبیات	-11.7643
▁برجاه	-11.7644
▁سداں	-11.7645
بکنت	-11.7647
▁ساهت	-11.765
▁زردار	-11.7651
سراں	-11.7652
cent	-11.7654
▁non	-11.7654
▁بندءُ	-11.7657
▁شہدیں	-11.7659
زال	-11.7662
▁ھمدءَ	-11.7663
▁battle	-11.7664
▁شادمانی	-11.7666
▁کاؤنٹر	-11.7669
مثال	-11.767
▁ابے	-11.7671
j	-11.7672
▁کپئگ	-11.7673
▁چیئر	-11.7675
▁ex	-11.7677
▁نادراھانی	-11.7681
بیست	-11.7685
ہمیش	-11.7686
▁وانیں	-11.7689
▁سیری	-11.769
▁اسکا	-11.7692
▁hurricane	-11.7692
▁پێش	-11.7693
گرمیں	-11.7693
دارگ	-11.7694
▁command	-11.7695
▁ہندوستانی	-11.7695
دیست	-11.7696
گچین	-11.7696
▁front	-11.7697
▁کاملیں	-11.7697
▁رخشانی	-11.7699
▁کوتاہ	-11.77
▁ساھ	-11.7701
▁یادگار	-11.7701
▁سلا	-11.7702
▁انت۔یک	-11.7703
▁ہلاک	-11.7703
ric	-11.7704
........	-11.7704
▁یورپءِ	-11.7704
▁سوداگری	-11.7704
▁قومءِ	-11.7705
▁ترات	-11.7707
میز	-11.7708
▁بانی	-11.771
▁provid	-11.771
▁read	-11.771
فع	-11.7711
▁کما	-11.7712
▁ائینی	-11.7712
نگو	-11.7713
▁کشگءِ	-11.7714
▁ہیران	-11.7715
بھر	-11.7717
▁حالرسانی	-11.7719
▁شیرزال	-11.7722
▁بازارے	-11.7723
▁مختصر	-11.7723
▁بلکین	-11.7725
▁نگاہاں	-11.7726
▁دمکے	-11.7726
▁جہدکار	-11.7727
▁بندیگجاہ	-11.7728
▁سگریٹے	-11.7729
▁کمپین	-11.7731
▁یانی	-11.7731
▁ھدیسے	-11.7732
بگر	-11.7734
▁مردینانی	-11.7735
کہول	-11.7735
صبا	-11.7739
ریشن	-11.7741
جند	-11.7743
▁ڈیمز	-11.7743
روت	-11.7747
▁منطقی	-11.7748
▁debut	-11.7748
▁اصحاب	-11.7748
▁خراسان	-11.7749
▁پتریت	-11.7749
▁ڈگارے	-11.7749
▁نوعیت	-11.7749
▁rest	-11.7751
ماس	-11.7752
▁سروکے	-11.7755
ینٹ	-11.7761
▁گرین	-11.7761
جتگ	-11.7764
▁روشے	-11.7766
امیت	-11.777
▁پھمگ	-11.7771
رست	-11.7772
▁difficult	-11.7776
▁Kingdom	-11.7776
▁rock	-11.7776
▁حقوق	-11.7777
▁Du	-11.778
▁تنقیدی	-11.778
▁داغ	-11.7784
▁خیل	-11.7785
▁بانداتے	-11.7786
▁نصر	-11.7787
▁منو	-11.779
▁جاپر	-11.7791
▁کلاسیکی	-11.7792
▁ہمدپ	-11.7792
▁night	-11.7793
▁مہروانیں	-11.7794
▁سیدھاشمی	-11.7795
▁فردوسی	-11.7795
▁لاک	-11.7796
▁زل	-11.7796
▁tri	-11.7801
شھ	-11.7801
▁گمے	-11.7802
چه	-11.7803
▁انون	-11.7803
▁پائے	-11.7804
▁campaign	-11.7804
▁Island	-11.7804
▁جات	-11.7805
▁Mar	-11.7805
▁ھرام	-11.7806
▁حاندان	-11.7806
▁گورگیج	-11.7807
▁رویش	-11.7809
پرچاکہ	-11.7811
▁چولاں	-11.7811
▁guns	-11.7812
▁Am	-11.7812
▁نداتگ	-11.7812
0	-11.7813
▁ھاکاں	-11.7814
▁ندارگانی	-11.7818
▁پاگاس	-11.7819
▁عصر	-11.782
▁۔۔۔۔۔۔۔	-11.782
▁سرجمءَ	-11.782
▁بژنی	-11.7822
▁دوسرا	-11.7824
▁اسکولءِ	-11.7826
چش	-11.7828
▁پیشہ	-11.7829
▁جاگھاں	-11.7832
▁گرنیڈ	-11.7832
▁Grand	-11.7832
▁Cup	-11.7833
▁ریلوے	-11.7833
▁رودپتر	-11.7834
▁گوہرام	-11.7836
پیسر	-11.7837
▁الک	-11.7838
غوث	-11.7839
▁مرمر	-11.7839
ایم	-11.784
▁ھجالتی	-11.784
▁خیالات	-11.7841
▁لنککاں	-11.7842
▁ہندے	-11.7843
▁داث	-11.7843
▁میارباری	-11.7844
▁کیمت	-11.7844
▁بچی	-11.7845
▁دشمنیں	-11.7847
یاتی	-11.7848
▁director	-11.7848
▁بھنگ	-11.7848
▁انیس	-11.7851
▁براھدار	-11.7852
▁غفار	-11.7852
▁سچکان	-11.7855
▁سرریچ	-11.7856
▁دوہ	-11.7858
▁کتبی	-11.7858
▁کنات	-11.7859
▁والد	-11.786
▁ماڈرن	-11.786
بور	-11.786
▁ہوگا	-11.7861
▁لن	-11.7862
▁چاغی	-11.7862
▁استاراں	-11.7862
▁چیروکائی	-11.7863
▁جہلانکیں	-11.7863
▁درابوت	-11.7863
سیل	-11.7863
▁give	-11.7864
دژمن	-11.7866
▁فلیٹ	-11.7867
▁سرپر	-11.7868
▁goal	-11.7868
▁کبگ	-11.7872
لم	-11.7872
▁ماھو	-11.7872
▁ٹکرءَ	-11.7873
▁پارٹیانی	-11.7876
▁بازاراں	-11.7877
▁حقاں	-11.7879
▁قصو	-11.7881
▁رژناہ	-11.7881
نب	-11.7888
▁امجد	-11.789
▁ھندوستانی	-11.789
▁وابجاہ	-11.7891
▁درنج	-11.7891
▁addition	-11.7892
▁عنبر	-11.7899
ساہ	-11.79
???	-11.7902
▁نمائندگ	-11.7904
▁دزگ	-11.7906
▁یاتگیری	-11.7908
▁نقشہ	-11.7908
▁کویت	-11.7908
▁ازماں	-11.7909
▁ملکان	-11.7911
▁جمبرانی	-11.7911
▁بیگاه	-11.7913
▁تپل	-11.7913
▁San	-11.7913
▁نیمونے	-11.7914
نظر	-11.7917
▁Pol	-11.7918
▁ڈبی	-11.7918
▁law	-11.7919
▁پپ	-11.7921
غر	-11.7921
▁کتابءَ	-11.7922
اشک	-11.7922
▁اشیا	-11.7924
▁میڑے	-11.7925
▁گلائش	-11.7925
▁ویسٹ	-11.7927
▁my	-11.7928
▁سفرءَ	-11.7928
ft	-11.7928
اچہ	-11.7931
▁ھمراھانی	-11.7933
▁بیبرگ	-11.7934
▁جہگیری	-11.7935
غیر	-11.7935
▁پرمائیت	-11.7938
▁اوش	-11.7944
▁زہن	-11.7944
▁پداں	-11.7945
▁گوٹ	-11.7945
▁پٹرول	-11.7945
▁Company	-11.7946
▁سکریٹری	-11.7946
▁ریموٹ	-11.7946
▁منتءَ	-11.7946
▁سینٹ	-11.7948
▁سمالانی	-11.7949
▁ترمیم	-11.7949
▁مکھیں	-11.795
▁عیبے	-11.795
▁بوارت	-11.795
▁سائنسداناں	-11.7952
تاج	-11.7953
▁ماتاں	-11.7954
▁موز	-11.7956
لیکن	-11.7956
▁بیزن	-11.7961
▁تیگ	-11.7963
▁کاپرءِ	-11.7965
▁اغ	-11.7967
▁ترانگ۔۔۔	-11.7967
▁ریں	-11.7968
▁مهمان	-11.7969
▁ستون	-11.7969
چپ	-11.797
▁پتھر	-11.7972
▁process	-11.7974
▁کولیسٹرول	-11.7974
▁سوویت	-11.7974
▁پنجاپی	-11.7974
▁France	-11.7975
▁سرمچاری	-11.7975
▁عملءِ	-11.7976
▁مرکءِ	-11.7976
▁عمرءَ	-11.7977
▁خوار	-11.7977
▁شریعت	-11.7978
▁جکس	-11.7978
ریش	-11.7978
▁ڈیوڈ	-11.7981
▁موں	-11.7982
ارو	-11.7982
▁کنئگا	-11.7983
دلگوش	-11.7984
▁جہانگیر	-11.7985
▁شیراز	-11.7985
▁کیگد	-11.7985
ator	-11.7988
▁مازگ	-11.7989
▁گیل	-11.799
▁کمکءَ	-11.799
▁گرفتار	-11.7991
▁میٹ	-11.7996
▁زبانءُ	-11.7996
▁هاک	-11.7996
۔چہ	-11.7997
▁believ	-11.7998
▁سردیں	-11.8
▁عبدالنبی	-11.8003
▁la	-11.8004
▁male	-11.8004
▁ساسانی	-11.8004
▁اںت	-11.8006
▁liv	-11.8007
روس	-11.8009
▁نیاریت	-11.8011
▁ودینگ	-11.8012
▁شھمیر	-11.8012
سانی	-11.8013
▁کچی	-11.8014
▁گدارانی	-11.8016
▁نوشتگ	-11.8016
▁واجھیں	-11.8017
▁رہتا	-11.8018
▁کپن	-11.8019
▁highway	-11.8019
▁ھلی	-11.8022
▁جوابی	-11.8023
▁کف	-11.8024
▁تئیگ	-11.8027
▁زرتہ	-11.8031
▁واشنگٹن	-11.8032
▁کوهن	-11.8033
▁شھداد	-11.8035
▁بٹن	-11.8035
▁پدریں	-11.8035
▁گندات	-11.8036
▁منج	-11.8036
day	-11.8037
▁گپتءُ	-11.8039
بازار	-11.8045
▁ہونا۔	-11.8045
▁شانتگ	-11.8045
▁gun	-11.8047
الے	-11.8048
▁پدمنتگی	-11.8049
▁دوئین	-11.8049
▁کندن	-11.8051
▁نندیں	-11.8053
▁فوجءِ	-11.8054
▁دلوش	-11.8055
▁دزاں	-11.8055
▁visit	-11.8056
▁الطاف	-11.8061
▁کوالٹی	-11.8061
▁عنصر	-11.8061
▁نمی	-11.8061
▁فرزند	-11.8062
all	-11.8062
▁والہ	-11.8063
▁stars	-11.8064
سازی	-11.8065
▁کنزگ	-11.8065
▁offer	-11.8067
read	-11.8068
ریل	-11.8069
▁پتی	-11.8069
▁کشکءَ	-11.8071
▁دلوں	-11.8071
▁جنزاں	-11.8072
▁چیٹ	-11.8073
▁کارامد	-11.8073
▁برزءِ	-11.8074
▁گوشیت۔	-11.8074
▁اباں	-11.8077
▁کوہلو	-11.8078
?!	-11.8082
▁کنڈاں	-11.8082
▁وز	-11.8082
▁روباہ	-11.8082
▁تبی	-11.8083
▁امپ	-11.8087
▁رودینگ	-11.8087
اوان	-11.809
▁وھدان	-11.809
▁سرپراز	-11.809
▁ڈاچی	-11.8091
▁مڑگ	-11.8092
▁وشتریں	-11.8093
▁limit	-11.8093
سند	-11.8096
▁لہجہ	-11.8096
برت	-11.8099
یکل	-11.81
▁کلاکاں	-11.8104
▁چارین	-11.8105
▁نہایت	-11.8105
▁انگیں	-11.8107
▁رپتگیں	-11.8107
▁اژناگ	-11.8107
یسی	-11.8107
▁ہمبل	-11.8113
▁Love	-11.8114
▁ماڈی	-11.8114
▁کردارے	-11.8116
▁Hu	-11.8116
▁کوہی	-11.8116
ارین	-11.8117
▁گوزگءَ	-11.8117
▁زمستانی	-11.8117
▁figure	-11.8118
▁ڪن	-11.8119
▁اشوبے	-11.8122
▁جلشک	-11.8123
▁ئین	-11.8123
▁براث	-11.8126
mph	-11.8127
اولس	-11.8127
ناکو	-11.8128
ney	-11.8129
روم	-11.813
▁ناتوان	-11.8131
▁وک	-11.8132
اود	-11.8135
▁تاریک	-11.8139
▁سیلاب	-11.8142
▁حسی	-11.8142
▁مودانی	-11.8142
▁خالی	-11.8146
▁زورگءَ	-11.8146
وٹی	-11.8146
▁تیا	-11.8147
▁river	-11.8148
▁رحمٰن	-11.8148
▁لقب	-11.8148
عد	-11.8148
زرد	-11.8149
▁ڈوھدار	-11.8149
▁اشکنگءَ	-11.8149
چیءَ	-11.815
▁بانگواہ	-11.815
▁کارکنانی	-11.8152
اسٹ	-11.8153
▁زندء	-11.8154
▁چیرمین	-11.8156
▁برتگیں	-11.8158
▁لۆگئے	-11.8159
▁بھیر	-11.8159
▁مران	-11.8159
اوانی	-11.8161
▁str	-11.8161
نل	-11.8164
ways	-11.8166
▁Ri	-11.8169
▁میچل	-11.8171
▁جمعیت	-11.8171
▁ڈگارءِ	-11.8175
▁تیں	-11.8175
اہیں	-11.8176
▁لہڑی	-11.8176
▁انکاری	-11.8176
▁Battalion	-11.8177
▁ملان	-11.8177
▁چاڑے	-11.8178
▁تھئی	-11.8179
▁بشکندگ	-11.8181
▁نظیر	-11.8181
▁special	-11.8183
▁کنئے۔	-11.8184
▁الع	-11.8184
▁کانونی	-11.8187
▁چڑو	-11.8187
▁بنیں	-11.819
▁born	-11.8192
▁دراتکگیں	-11.8193
▁گردی	-11.8197
▁انت۔منی	-11.8198
▁متھ	-11.82
نکر	-11.82
▁کھں	-11.8201
▁inter	-11.8202
▁تچکءَ	-11.8203
▁بچانی	-11.8205
▁اندرا	-11.8205
▁David	-11.8206
▁wife	-11.8206
▁southern	-11.8206
▁ذاکر	-11.8206
▁بکال	-11.8207
▁گرئے	-11.8209
▁جزباتی	-11.8211
▁سنگیں	-11.8211
▁بناء	-11.8213
▁افسانے	-11.8213
▁پاسداری	-11.8214
▁provide	-11.8217
ونا	-11.8218
▁ھام	-11.8219
▁جماز	-11.8222
دام	-11.8222
▁بچکانی	-11.8223
▁شکے	-11.8224
▁سرجمیءَ	-11.8227
▁تلاش	-11.8228
▁جاڑیں	-11.8229
▁complet	-11.8231
▁کوچگاں	-11.8231
▁جہلگ	-11.8231
▁کپوک	-11.8232
▁مروشی	-11.8233
▁ball	-11.8234
▁دریاب	-11.8235
▁سئوب	-11.8235
▁فوک	-11.8236
▁شموشت	-11.8237
▁کلیم	-11.8237
▁نیش	-11.824
▁گریتگ	-11.8241
▁ردومءِ	-11.8242
▁کنک	-11.8243
▁بیراں	-11.8243
ong	-11.8243
▁صبح	-11.8244
▁بلور	-11.8245
▁گھنٹہ	-11.8245
▁Bar	-11.8245
لب	-11.8247
▁پھرہ	-11.8248
▁سہل	-11.825
▁دازن	-11.8251
▁حدود	-11.8252
▁بوسگ	-11.8253
▁گورتگ	-11.8254
▁ھرچنت	-11.8255
▁زندگیءَ	-11.8258
▁anti	-11.826
▁اٹ	-11.8262
▁نمای	-11.8263
وریں	-11.8263
▁پرگ	-11.8264
▁اروچ	-11.8264
▁mother	-11.8265
▁women	-11.8265
▁اچکزئی	-11.8265
▁وٹامن	-11.8265
▁سیما	-11.8267
▁مشترکہ	-11.8269
▁بابتا	-11.8269
▁پیگور	-11.8272
▁کپتنت	-11.8272
▁جٹ	-11.8272
▁مارٹر	-11.8274
جتائیں	-11.8274
▁تالاں	-11.8275
▁بولک	-11.8276
زے	-11.8276
اڑے	-11.8278
▁گڈسری	-11.828
▁چورہ	-11.828
▁دیمروہی	-11.8281
▁اشکی	-11.8282
▁تورگ	-11.8283
▁ساحرءَ	-11.8285
▁love	-11.8285
▁چھک	-11.8286
ہیر	-11.8287
سز	-11.8287
▁ٹکانی	-11.8288
▁پٹک	-11.8289
▁قل	-11.8289
▁رچیت	-11.829
▁سکتی	-11.8291
▁سرھالانی	-11.8292
▁بنگپی	-11.8293
▁شھزاد	-11.8294
▁Brigade	-11.8294
▁study	-11.8294
ساد	-11.8294
▁ٹھاٹھ	-11.8294
▁ہڑتال	-11.8294
▁بھڑ	-11.8295
▁دھوت	-11.8296
▁پہاز	-11.8296
▁ستارہ	-11.8296
▁نیشنلزم	-11.8298
▁جنزءِ	-11.8298
▁دب	-11.8298
ov	-11.8298
▁زھیراں	-11.8299
۔ایشی	-11.8299
▁اشکنوک	-11.8301
▁کائینت	-11.8301
▁گلوبل	-11.8303
مہلوک	-11.8303
▁اثرے	-11.8304
▁پاکی	-11.8305
▁loss	-11.8308
▁سالار	-11.8309
▁هں	-11.8309
▁شورہاں	-11.831
▁پیز	-11.8311
▁کتگءُ	-11.8314
ana	-11.8318
۔دومی	-11.8318
بوج	-11.8319
▁طبق	-11.8321
▁داوت	-11.8323
▁مھرنھاد	-11.8324
▁چوھدری	-11.8324
▁دزگھار	-11.8324
▁بغاوت	-11.8324
▁مراداں	-11.8326
لن	-11.8327
▁رولہ	-11.8327
▁خواجہ	-11.8329
▁ریھان	-11.8329
▁اداره	-11.8331
▁سلوات	-11.8332
99	-11.8335
امان	-11.8336
▁بچارات	-11.8337
▁سچیت	-11.8337
▁نزوریاں	-11.8339
▁ابانی	-11.8339
▁مقابل	-11.8341
▁تخیل	-11.8342
▁چوری	-11.8343
اسحاق	-11.8346
ble	-11.8347
▁رودین	-11.8348
▁زھن	-11.835
▁وانوکے	-11.8352
▁مارکیز	-11.8352
اثر	-11.8353
▁سفارش	-11.8354
▁وصیت	-11.8354
▁کلاتے	-11.8354
▁ناکوزتک	-11.8354
باب	-11.8355
▁رھیم	-11.8356
لاک	-11.8356
▁منافق	-11.8358
اینت	-11.8358
▁چہرءُ	-11.8359
۔تو	-11.8359
▁نورخان	-11.8359
▁بوتل	-11.8359
▁ھسا	-11.836
▁East	-11.8361
▁فرشتہ	-11.8361
▁cell	-11.8362
▁بداں	-11.8362
رانت	-11.8363
▁کوٹگ	-11.8364
▁جاھ	-11.8365
▁سائیٹ	-11.8366
مکران	-11.8374
▁چاھے	-11.8374
واک	-11.8375
انچوش	-11.8377
▁So	-11.8381
▁جامع	-11.8382
▁village	-11.8383
▁اعلیٰ	-11.8383
▁اکوام	-11.8383
▁eastern	-11.8383
▁ازمے	-11.8384
▁ببارت	-11.8384
▁زورے	-11.8385
▁میلانک	-11.8385
▁مارشل	-11.8386
▁ماھانی	-11.8388
▁رہیم	-11.839
▁کادر	-11.8391
▁رستم	-11.8392
▁تامرے	-11.8399
▁کلگی	-11.8399
▁حالانکہ	-11.84
wa	-11.84
▁گلءَ	-11.8401
پے	-11.8401
▁کمیت	-11.8401
▁ھے	-11.8402
▁مادری	-11.8403
▁نس	-11.8406
▁سوجکار	-11.8407
▁دورہ	-11.8407
▁اگا	-11.8409
ورد	-11.841
▁کوھے	-11.8411
▁مانشانتگ	-11.8411
▁ھزاریں	-11.8412
▁relationship	-11.8413
▁جیڑت	-11.8417
▁راجءَ	-11.8419
▁ناسرپدی	-11.842
▁تلوس	-11.842
▁جانءِ	-11.842
▁پھیل	-11.8421
▁الودگی	-11.8421
▁تپد	-11.8423
▁کاروائیاں	-11.8424
▁دارئگ	-11.8429
▁جرمے	-11.8431
▁دیتگ	-11.8432
مکن	-11.844
▁continue	-11.8441
▁2015	-11.8443
▁2003	-11.8443
▁داروگہ	-11.8443
▁پبلشرز	-11.8444
▁گڑد	-11.8446
▁بگشاں	-11.8446
▁بینت	-11.8447
ircraft	-11.8447
▁ازمکارے	-11.8448
▁Christian	-11.8449
پیت	-11.8449
▁race	-11.8449
gi	-11.8451
▁بیزاری	-11.8452
▁دروازگءِ	-11.8454
▁ھلوت	-11.8454
▁رکست	-11.8455
▁وٹس	-11.8456
▁انہاں	-11.8457
▁المءَ	-11.8461
▁ھلکءِ	-11.8461
یرہ	-11.8462
▁گوئستگیں	-11.8463
▁گرداں	-11.8464
ck	-11.8465
▁نکسان	-11.8468
ep	-11.8468
▁جندئے	-11.847
▁بگوشاں	-11.847
▁قالب	-11.8471
▁ارواھ	-11.8471
▁واج	-11.8472
▁introduc	-11.8473
▁بزھگ	-11.8473
▁image	-11.8473
▁ٹینک	-11.8474
▁علاقائی	-11.8474
▁اہن	-11.8474
▁ٹھوس	-11.8475
ریا	-11.8476
▁گیڑھ	-11.8476
وئے	-11.8477
ازمان	-11.8477
ki	-11.8479
ڑگ	-11.8481
▁دال	-11.8482
▁گے۔	-11.8484
ٹین	-11.8485
▁ہمہ	-11.8486
ٹون	-11.8488
▁ہم۔	-11.849
▁بندئے	-11.8492
▁گھس	-11.8492
▁ڪار	-11.8493
دید	-11.8493
▁تھرو	-11.8497
▁ھدابند	-11.8497
▁ہپتگے	-11.85
▁بلگ	-11.8503
▁ماہکان	-11.8503
▁افزائش	-11.8503
▁لورالائی	-11.8503
▁گرامر	-11.8503
رنگی	-11.8505
▁گولا	-11.8506
▁ھاکمانی	-11.8506
▁ڈیھی	-11.8507
منت	-11.8507
▁یاسمین	-11.851
▁زامر	-11.851
▁اعجاز	-11.851
▁بیت۔بلے	-11.8511
▁جوانین	-11.8511
▁کائیں	-11.8512
▁حو	-11.8512
98	-11.8513
▁گپی	-11.8514
▁نپت	-11.8517
▁دادے	-11.8517
▁کاھان	-11.8518
▁گوپگ	-11.8518
”?	-11.8519
لاپ	-11.8522
نازک	-11.8523
▁جھدا	-11.8523
▁درامدانی	-11.8525
▁اؤرت۔	-11.8525
پیم	-11.8525
▁ھیرانی	-11.8526
▁move	-11.8529
▁اکاؤنٹ	-11.8533
▁احتجاج	-11.8533
▁نیر	-11.8533
▁Other	-11.8534
▁وامدار	-11.8534
▁40	-11.8534
▁تندجاہ	-11.8535
راه	-11.8535
▁ھئیال	-11.8536
▁God	-11.8537
لیس	-11.8537
▁ساٹ	-11.8538
بزگ	-11.854
▁ہسین	-11.854
وران	-11.8541
ارسطو	-11.8543
▁ارباب	-11.8543
دئے	-11.8543
ذر	-11.8544
▁انقلابی	-11.8546
▁کوشکار	-11.8547
رض	-11.8547
ments	-11.8548
▁پیلویں	-11.8549
▁المین	-11.8554
▁گالبندانی	-11.8554
▁زوتیں	-11.8555
..........	-11.8558
▁رۆچے	-11.856
▁کلاکے	-11.856
mar	-11.856
▁رندانی	-11.8562
▁کوٹیءِ	-11.8563
▁لیٹر	-11.8564
▁چدو	-11.8564
▁سحب	-11.8565
▁تراں	-11.8565
▁عاشقی	-11.8565
۔ما	-11.8566
▁پزور	-11.8568
▁مانپوش	-11.8568
▁پرشان	-11.8569
▁ئیت	-11.857
▁داستانانی	-11.8572
▁فائدگ	-11.8573
▁سوالی	-11.8574
▁ماھ	-11.8575
▁سرائیکی	-11.8575
▁کودک	-11.8576
▁ماتو	-11.8577
sion	-11.8577
▁ھونی	-11.8577
▁کلمت	-11.8578
▁تورات	-11.8579
▁اصطلاحات	-11.858
رجانکار	-11.858
▁اون	-11.8581
▁نجی	-11.8583
▁چراگاں	-11.8584
قل	-11.8586
▁نگاھاں	-11.8588
▁cap	-11.859
▁امبری	-11.8593
▁ساھگے	-11.8594
▁ایمرجنسی	-11.8594
▁اۆدا	-11.8594
▁مسقط	-11.8594
▁ارگنائزر	-11.8595
▁صفائی	-11.8596
▁taken	-11.8597
▁الن	-11.8598
▁fourth	-11.8598
sis	-11.8599
▁روانبد	-11.8602
▁پدرا	-11.8603
▁مرشی	-11.8603
▁شخصی	-11.8603
▁الق	-11.8604
▁جہانے	-11.8606
وشک	-11.8607
ھگ	-11.8609
▁مہرنگ	-11.8609
▁اسکولءَ	-11.861
▁Au	-11.8612
کسانیں	-11.8613
▁ازادیءِ	-11.8614
▁مچانی	-11.8615
▁دلپروشی	-11.8617
▁پرسن	-11.862
▁گوست۔	-11.862
▁انفرادی	-11.862
▁زوراوریں	-11.8622
▁دبستان	-11.8625
▁زریت	-11.8625
▁Tri	-11.8626
▁بنھشت	-11.8628
▁ولایت	-11.8634
غت	-11.8635
▁نهات	-11.8636
ah	-11.8639
▁جمبور	-11.864
▁کدین	-11.8641
▁سرداروں	-11.8643
▁تناظر	-11.8643
led	-11.8645
زیب	-11.8646
▁بانوری	-11.8647
ons	-11.8649
گیا	-11.865
معنا	-11.8653
▁سازگر	-11.8653
▁Europe	-11.8654
سکیں	-11.8654
▁sea	-11.8655
▁فخر	-11.8656
▁اسکرین	-11.8656
▁European	-11.8657
▁وائے	-11.8657
▁نوبتاں	-11.8657
ایت۔	-11.8658
▁اتکءُ	-11.8658
پجار	-11.8659
▁سوزمان	-11.8661
▁نشانیاں	-11.8661
▁شومک	-11.8662
▁ائیوکیں	-11.8664
ناصر	-11.8665
▁ثقافتی	-11.8665
▁شاہدی	-11.8666
چوں	-11.8666
▁بلڈنگ	-11.867
رون	-11.8672
▁بوھگی	-11.8676
▁بگلءَ	-11.8677
▁Car	-11.8678
▁le	-11.8681
▁سنگتان	-11.8682
▁فال	-11.8683
شون	-11.8685
▁واجہیں	-11.8686
▁لٹریچر	-11.8686
▁بگرد	-11.8687
▁سلاماں	-11.8688
▁شہیدی	-11.869
▁نوکنڈی	-11.869
▁ابدمانیں	-11.8692
▁لبزءِ	-11.8699
بچک	-11.8702
دلیں	-11.8702
▁مہرانکی	-11.8703
▁گوئز	-11.8703
▁قدح	-11.8704
ze	-11.8706
▁چیھال	-11.8707
▁ہش	-11.8711
▁لہم	-11.8712
▁لینا	-11.8712
توں	-11.8713
▁consist	-11.8716
▁ازمءُگوازی	-11.8717
▁break	-11.8717
▁نصراللہ	-11.8717
▁خدائیداد	-11.8717
▁کورچات	-11.8718
▁ہرجاہ	-11.8718
▁پرام	-11.872
▁پریشتگ	-11.872
▁اسءَ	-11.8721
▁کپی	-11.8721
▁واھگدار	-11.8723
▁Ru	-11.8723
▁free	-11.8723
کتہ	-11.8725
▁رومی	-11.8726
اکہ	-11.8727
▁روہ	-11.8728
▁ساعتاں	-11.873
▁leg	-11.8733
▁تلوسگ	-11.8733
▁کسم	-11.8733
▁توپانی	-11.8733
▁پائی	-11.8733
رائی	-11.8734
▁شاہگانی	-11.8734
▁پیرکی	-11.8735
▁رنگءِ	-11.8736
▁نیزگاری	-11.8741
▁واقعی	-11.8742
ding	-11.8745
▁تالانی	-11.8745
▁پشکپتگ	-11.8748
▁Port	-11.8748
▁lack	-11.8748
▁ذاتءِ	-11.8748
▁جاندراھی	-11.875
▁decided	-11.875
۔۔۔۔۔۔۔۔۔۔۔۔۔	-11.8751
▁جلگ	-11.8753
▁پھزدار	-11.8753
▁وڈے	-11.8753
▁ناحق	-11.8753
▁ڪس	-11.8754
کشگ	-11.8756
▁پتات	-11.8757
▁ناشریں	-11.8758
ذات	-11.8762
▁سرپوش	-11.8763
▁کسھی	-11.8763
▁اوپن	-11.8765
▁idea	-11.8765
▁نیامی	-11.8769
۔یک	-11.8772
▁کندگانی	-11.8773
▁ویلے	-11.8777
▁ککڑ	-11.8777
▁گنڈ	-11.8778
نش	-11.8778
▁heavy	-11.8778
▁عوض	-11.8778
▁mix	-11.8779
▁رکھتا	-11.8779
▁دزکپتگ۔	-11.878
ۆر	-11.8782
▁باہند	-11.8782
▁کؤل	-11.8787
▁جارچین	-11.879
بلی	-11.879
▁رہبر	-11.8792
▁گپا	-11.8793
▁غریبی	-11.8795
▁بتایا	-11.8798
▁کماشانی	-11.8798
▁پہناد	-11.8799
▁ماہل	-11.8799
▁سربیتگیں	-11.8801
▁ساجو	-11.8801
▁جزماں	-11.8803
▁مانتر	-11.8804
نشت	-11.8806
لنگ	-11.8806
▁ویر	-11.8807
▁شررنگ	-11.8809
عہ	-11.881
▁کسانین	-11.8811
▁ھالی	-11.8813
بع	-11.8815
▁ارٹس	-11.8818
لیک	-11.8818
▁face	-11.8818
▁بیتہ۔	-11.8822
▁جه	-11.8824
▁program	-11.8825
نگر	-11.8828
▁افسرے	-11.8828
واھگ	-11.8829
▁درخت	-11.8831
gg	-11.8833
▁چگین	-11.8833
▁جاتو	-11.8833
▁ناں۔	-11.8834
وه	-11.8834
سکی	-11.8834
▁زوریت۔	-11.8835
جہد	-11.8835
▁هل	-11.8836
▁ابیل	-11.8837
▁کنزان	-11.884
▁problem	-11.8841
▁امشپی	-11.8841
▁condom	-11.8841
▁انگلستان	-11.8841
▁شیڈول	-11.8841
▁Royal	-11.8841
▁سپائی	-11.8842
▁ایکٹ	-11.8842
▁sold	-11.8843
▁White	-11.8843
▁زندئے	-11.8843
▁گوستگال	-11.8845
گءُ	-11.8845
ھائی	-11.885
▁کورانی	-11.8854
▁جیک	-11.8854
▁سرگوستے	-11.8854
ائم	-11.8854
▁نش	-11.8856
▁مجتی	-11.8856
▁نورمحمد	-11.8856
▁روانت	-11.8857
▁ات۔۔۔۔	-11.8859
▁ھمراھے	-11.8863
▁ہاترءَ	-11.8863
▁Star	-11.8869
قصہ	-11.8871
▁دزانی	-11.8871
▁زکر	-11.8871
▁اکیڈیمی	-11.8872
▁چس	-11.8872
▁بانز	-11.8873
▁وسواس	-11.8873
▁red	-11.8874
▁شین	-11.8876
▁مافیا	-11.8876
رڈ	-11.8877
▁نوائے	-11.8877
ik	-11.8877
کارست	-11.888
وڑا	-11.8882
▁شیرکن	-11.8882
G	-11.8882
عطاشاد	-11.8884
▁دلچسپی	-11.8884
اہگ	-11.8884
▁far	-11.8884
▁دھن	-11.8884
▁لچہانی	-11.8885
▁ٹاپار	-11.8887
▁وترا	-11.8887
▁سنگار	-11.8887
ازاد	-11.889
▁چتر	-11.889
▁وشاتک	-11.889
▁جاورھالانی	-11.8891
بڑ	-11.8892
انہی	-11.8892
▁دودے	-11.8893
جاھ	-11.8893
▁وتء	-11.8893
▁چاکری	-11.8894
▁گورگ	-11.8894
▁توانمند	-11.8895
▁اسراتیاں	-11.8895
▁باگیں	-11.8896
▁بیدء	-11.8899
▁دھکاں	-11.89
▁توجہ	-11.8901
درو	-11.8903
▁individual	-11.8903
▁پتلون	-11.8903
▁تاثیر	-11.8904
▁ویتنام	-11.8904
هال	-11.8905
▁مچاچ	-11.891
▁بؤکیں	-11.8911
▁فو	-11.8912
▁اھوگ	-11.8914
▁اسکولے	-11.8919
▁گزل	-11.8921
▁بہراں	-11.8923
ina	-11.8924
▁فرقہ	-11.8925
▁ڈنک	-11.8925
▁عم	-11.8926
▁نبا	-11.8928
▁پیت	-11.8929
▁ترجمان	-11.8932
▁shot	-11.8935
▁پائ	-11.8935
▁البرٹ	-11.8936
▁سویت	-11.8937
روز	-11.8939
▁دردءَ	-11.8939
▁Gra	-11.8943
▁دیدانک	-11.8944
▁ببات	-11.8945
▁رزق	-11.8946
▁هوش	-11.8947
▁هی	-11.8952
اہد	-11.8952
▁ترن	-11.8952
▁هار	-11.8952
▁ھرجان	-11.8953
▁پرشتہ	-11.8953
▁سئوت	-11.8954
▁سڑ	-11.8956
▁سینما	-11.8956
▁پارس	-11.8957
فکشن	-11.8958
▁فش	-11.8959
پاں	-11.896
▁پشپد	-11.8961
▁دئی	-11.8962
▁رسانکجاھ	-11.8963
▁فرا	-11.8963
کسان	-11.8963
▁زاھدہ	-11.8964
▁tog	-11.8964
ib	-11.8965
▁clear	-11.8966
▁فقط	-11.8967
▁موٹ	-11.8968
▁بشکھندگی	-11.8968
▁کمٹمنٹ	-11.897
▁باھوٹی	-11.897
▁ملٹری	-11.8971
▁پشکپتگیں	-11.8972
▁جزیرہ	-11.8973
▁پرینت	-11.8974
▁احوالکار	-11.8974
▁وب	-11.8976
▁سرگوات	-11.8976
▁بکشگ	-11.8978
عبداللہ	-11.8979
▁شوہازءَ	-11.898
▁لوہ	-11.898
▁am	-11.8981
▁ضیا	-11.8981
▁پولیو	-11.8983
ھب	-11.8983
▁ایشیئ	-11.8983
▁میٹرک	-11.8984
▁ٹرین	-11.8985
▁سمبل	-11.8986
▁ضلعی	-11.8986
▁درامدے	-11.8988
▁rule	-11.8988
▁منزور	-11.8989
▁بسم	-11.8989
har	-11.8993
▁مدیر	-11.8993
▁دیمءِ	-11.8993
▁بیکار	-11.8995
▁Carey	-11.8998
▁سیندک	-11.8998
▁درخانی	-11.8999
▁Earl	-11.8999
▁گھڑیال	-11.9001
ابو	-11.9001
▁29	-11.9002
▁کسانسال	-11.9004
▁لوکل	-11.9006
ھیل	-11.9006
▁چیار	-11.9006
▁گوریچان	-11.9007
▁عا	-11.9008
▁ساڑ	-11.9008
رحیم	-11.9008
▁شاھگانی	-11.9009
▁کاٹار	-11.9009
▁ہوں۔	-11.901
▁راگے	-11.9011
▁جواں	-11.9012
▁یم	-11.9013
▁عمری	-11.9013
بلک	-11.9019
▁شورہ	-11.9019
انو	-11.902
▁هرچ	-11.9022
▁بدلہ	-11.9023
▁گردیں	-11.9024
▁نیبگ	-11.9024
▁غذائی	-11.9025
ولے	-11.9026
▁Part	-11.9029
▁اروسی	-11.9029
▁قندھار	-11.903
▁center	-11.903
▁تصدیق	-11.9031
▁ناگتءَ	-11.9032
شکر	-11.9032
▁سیریں	-11.9033
سوج	-11.9033
▁اچھا	-11.9033
▁دراز	-11.9034
▁ٹھیکہ	-11.9035
بوئیں	-11.9036
▁ڈرا	-11.9037
▁انکی	-11.9037
▁درشک	-11.9038
▁Th	-11.9039
▁زہیرانی	-11.9042
▁Air	-11.9044
▁مالانی	-11.9046
▁burn	-11.9046
پرو	-11.9047
▁موڈ	-11.9049
▁مڑائی	-11.9053
▁شیتان	-11.9057
▁accept	-11.9061
▁مدافعت	-11.9061
▁وتساچیں	-11.9061
▁بیپاری	-11.9062
▁برقرار	-11.9063
▁بیشک	-11.9063
▁ثانی	-11.9065
▁گشگءَ	-11.9066
▁سببے	-11.9066
▁شدہ	-11.9066
▁ٹویٹ	-11.9068
▁تبءَ	-11.9069
▁گوزوکیں	-11.9069
▁Red	-11.9069
یگی	-11.907
چست	-11.9071
جون	-11.9076
▁گژنگ	-11.9077
رژن	-11.9077
▁روژنائیں	-11.9078
▁شھار	-11.9079
کندگ	-11.908
▁سیپ	-11.908
▁بانکیں	-11.9081
▁پسءَ	-11.9081
اند	-11.9082
نڈا	-11.9082
▁گوستگین	-11.9083
▁گھڑی	-11.9084
▁پرنچ	-11.9084
▁شئیراں	-11.9084
ہشت	-11.9086
▁عد	-11.9086
▁گزیر	-11.9088
▁مزھب	-11.9088
▁شوش	-11.909
▁نویستگ	-11.909
▁ارامی	-11.9092
▁حمد	-11.9092
▁چھاپءُ	-11.9093
▁begin	-11.9093
▁دزگوھار	-11.9094
▁انٹیلیجنس	-11.9094
▁افسوز	-11.9095
▁درباری	-11.9097
بندیں	-11.9097
▁مارک	-11.9097
▁ہید	-11.9098
▁اغہ	-11.9099
▁لاپءَ	-11.9103
▁هساب	-11.9108
▁My	-11.9109
▁اوستانی	-11.9109
91	-11.9112
▁Sp	-11.9112
▁کارہندہ	-11.9114
▁گيئش	-11.9117
▁بالیچہ	-11.912
▁درگاہ	-11.912
▁ھمید	-11.912
کئی	-11.9121
ron	-11.9121
▁گڑھ	-11.9123
پال	-11.9123
▁رہیں	-11.9125
▁عبدالرحمان	-11.9125
▁سافٹ	-11.9126
▁بلیت	-11.9127
▁نانے	-11.9128
▁ہمید	-11.9129
▁اقا	-11.9132
▁نندان	-11.9132
▁اردوءَ	-11.9132
▁پیوند	-11.9132
ادم	-11.9133
▁ne	-11.9135
ساچ	-11.9136
▁گئے۔	-11.9137
▁ہڑ	-11.9139
ہال	-11.914
▁ہین	-11.9144
▁رکھین	-11.9145
کءَ	-11.9147
ادر	-11.9147
▁تاپگ	-11.9149
چراگ	-11.9149
حد	-11.9149
وق	-11.9149
▁کپے	-11.915
هان	-11.915
▁گامگیجے	-11.915
ight	-11.9151
▁خور	-11.9151
▁ti	-11.9151
▁گندئگ	-11.9156
▁ھمش	-11.9156
▁چکگ	-11.9157
▁عبدالصبور	-11.9157
ائزیشن	-11.9158
▁تہمبل	-11.9158
▁کنڈیرا	-11.9159
▁بینجو	-11.9159
▁انکھوں	-11.916
▁عزاب	-11.916
▁ٹریننگ	-11.9162
▁گٹی	-11.9162
▁میڑاں	-11.9165
▁کتکار	-11.9165
▁ارز	-11.9166
▁اوھد	-11.9167
▁بگنداں	-11.9172
ett	-11.9173
▁چلشت	-11.9173
▁جستاں	-11.9174
▁چینکس	-11.9175
▁دیوی	-11.9175
▁طا	-11.9175
▁شیرازی	-11.9175
61	-11.9177
lan	-11.9177
▁وارتگ۔	-11.9177
▁communit	-11.9177
▁اجر	-11.9178
کاہ	-11.9178
▁ستاہ	-11.9179
▁پلگاری	-11.918
▁بئیں۔	-11.9183
▁سورج	-11.9183
وہدیکہ	-11.9186
▁gr	-11.9188
▁تعلقات	-11.9188
▁Federer	-11.919
▁protein	-11.919
▁اکانومی	-11.919
▁لان	-11.919
▁جھینگا	-11.919
▁احمدان	-11.9191
▁معراج	-11.9191
▁قوتانی	-11.9192
▁رئو	-11.9194
▁دہل	-11.9196
▁کوھیں	-11.92
▁king	-11.92
ڈال	-11.9203
▁بشی	-11.9209
▁ask	-11.9209
vo	-11.9209
▁ٹریک	-11.921
▁دارگا	-11.9211
▁کہنا	-11.9212
▁جنگلات	-11.9212
▁پمیش	-11.9212
▁o	-11.9215
▁وشین	-11.9216
▁یورو	-11.9217
ٰی	-11.9218
▁ناوشیں	-11.9218
tor	-11.9219
▁شہمات	-11.9221
▁لاری	-11.9222
▁نویسے	-11.9222
▁سؤب	-11.9226
▁رپورٹس	-11.9226
▁دربرت	-11.9227
▁دلوتاں	-11.9227
▁روزرد	-11.9228
▁fre	-11.9228
▁گۆش	-11.9228
▁بستی	-11.9229
▁پارٹیز	-11.923
▁دراہی	-11.923
▁دیھ	-11.923
پین	-11.9231
▁گشینگ	-11.9232
▁سروسز	-11.9232
▁ایماندار	-11.9232
▁fall	-11.9236
▁نزانتکاری	-11.9239
▁پھلوان	-11.924
▁بارش	-11.9243
۔۔۔۔۔۔۔۔	-11.9244
▁ٹیلگ	-11.9246
▁ڈولی	-11.9246
تیار	-11.9248
▁تبلیغ	-11.9249
▁کیک	-11.925
▁شریان	-11.925
▁جدیدیت	-11.9251
▁زامرانی	-11.9252
▁پوره	-11.9255
▁source	-11.9255
▁ڈیزائن	-11.9255
▁امتحان	-11.9255
▁saw	-11.9255
۔مئے	-11.9255
▁رکھنے	-11.9258
▁ھوس	-11.9259
ساری	-11.926
▁بینر	-11.926
▁گراد	-11.9261
▁بنچ	-11.9262
▁round	-11.9262
▁جاہی	-11.9264
خانہ	-11.9264
جال	-11.9265
▁ایشر	-11.9265
▁فیل	-11.9266
▁طالع	-11.9266
▁کربلا	-11.9266
فق	-11.9266
▁سندءَ	-11.9267
▁زھ	-11.9268
▁ہردوئیں	-11.9271
▁رواجی	-11.9273
▁کلر	-11.9273
▁تحقیقی	-11.9274
▁پتینکاں	-11.9275
▁ادینکے	-11.9276
▁انے	-11.9278
▁سرکتگ	-11.928
▁انام	-11.928
▁باطنی	-11.9281
▁لاشاں	-11.9282
▁چھل	-11.9284
▁عرش	-11.9286
▁روشنا	-11.9286
▁مشہوریں	-11.9286
۔۔۔من	-11.9286
الف	-11.9287
▁George	-11.9287
▁International	-11.9287
▁گرمائشت	-11.9287
▁قیاس	-11.9287
▁manager	-11.9288
▁چانسلر	-11.9288
▁ابتدائی	-11.9288
▁سلیمانی	-11.9289
▁ساھیل	-11.9289
▁رهبند	-11.9289
▁سیمینار	-11.9289
▁جاھی	-11.9291
الس	-11.9291
▁ہاجی	-11.9291
الاں	-11.9292
▁دوئم	-11.9292
زیت	-11.9293
▁شنزگ	-11.9293
▁بحالی	-11.9293
هار	-11.9294
▁ایرگیجگ	-11.9297
▁جیسا	-11.93
▁امیتی	-11.93
▁بدنت۔	-11.9301
▁درشانتگ	-11.9301
▁ٹیگور	-11.9301
زانتکار	-11.9301
▁ہاشم	-11.9306
▁هاتر	-11.9306
نسل	-11.9306
ifi	-11.9308
▁زنگی	-11.9309
▁ریٹ	-11.9309
▁William	-11.9309
▁پروشان	-11.931
▁port	-11.9317
▁چلو	-11.9319
▁activit	-11.932
▁مہنگائی	-11.932
▁اسٹاپ	-11.9321
▁جیسی	-11.9324
▁کاروانے	-11.9324
▁گودی	-11.9324
▁زورگپت	-11.9325
▁مہروانی	-11.9326
▁شموشکار	-11.9328
▁ناوشی	-11.9328
▁شناست	-11.9329
fa	-11.9329
ینوک	-11.9329
▁ہکل	-11.933
ازگ	-11.9331
ng	-11.9336
▁گرپتاری	-11.9336
▁"","	-11.9338
▁حاکمانی	-11.9339
پورٹ	-11.9339
▁استعارہ	-11.9343
▁ارسی	-11.9345
old	-11.9345
▁کاریاں	-11.9346
▁زوم	-11.9347
▁بٹے	-11.9351
▁چیلک	-11.9352
▁واپار	-11.9353
▁language	-11.9353
▁پرنسپل	-11.9353
▁واهند	-11.9354
▁Wales	-11.9354
▁ویک	-11.9355
▁subse	-11.9355
▁گاں	-11.9356
▁سائی	-11.9356
۔وہدے	-11.9357
▁Hero	-11.9357
▁تهار	-11.9359
▁تنیگت	-11.936
▁رخشان	-11.936
▁کدم	-11.936
▁گونی	-11.9361
▁لعنت	-11.9361
▁ترانگانی	-11.9362
پرست	-11.9362
▁member	-11.9362
▁سالیگیں	-11.9362
▁ڈوبار	-11.9363
▁دنیاء	-11.9364
▁گورانی	-11.9365
▁مڑدے	-11.9367
▁گورکوپ	-11.9367
گد	-11.9367
rac	-11.9369
داب	-11.9372
وڑیں	-11.9376
▁بمبتراک	-11.9376
▁چیپ	-11.9378
rop	-11.9378
▁جنوب	-11.9378
ather	-11.938
▁چیدگانی	-11.9384
لینڈ	-11.9385
▁ڈھانچہ	-11.9386
▁launch	-11.9386
▁چریشانی	-11.9386
▁ہالو	-11.9386
▁مشرک	-11.9387
▁جیڑگءَ	-11.9387
▁نابلد	-11.9388
بوتگ۔	-11.9388
▁کائیگر	-11.9391
▁نبیستگ	-11.9391
مح	-11.9392
▁طاھر	-11.9393
▁deal	-11.9397
▁نشتگ۔	-11.94
▁نادانی	-11.94
▁ااے	-11.94
▁opening	-11.9401
▁جدلیات	-11.9401
▁destroy	-11.9402
▁Pi	-11.9402
▁مصرعہ	-11.9402
▁شاھگانیں	-11.9403
▁کسانیءَ	-11.9403
▁ریتکگ	-11.9403
▁طب	-11.9403
wood	-11.9404
▁hit	-11.9404
▁شریءَ	-11.9407
▁موک	-11.9407
▁یتکگ	-11.9408
▁نبشتہی	-11.9409
▁زیردستیں	-11.9411
۔ائیءَ	-11.9413
▁میخ	-11.9413
▁بکتیں	-11.9413
▁پیپر	-11.9415
▁خوبی	-11.9418
▁central	-11.9419
▁current	-11.9419
▁regular	-11.9419
▁host	-11.9419
▁involv	-11.942
▁لائی	-11.9421
▁ارٹیکل	-11.9421
▁قلندر	-11.9422
▁واضح	-11.9423
▁Day	-11.9424
▁مندریک	-11.9425
▁قاری	-11.9426
اوت	-11.9427
و۔	-11.9427
▁wall	-11.9429
ہمک	-11.943
▁ھوالگ	-11.943
▁سرسبز	-11.9431
we	-11.9431
صورت	-11.9431
▁برتر	-11.9434
▁زاهر	-11.9438
میری	-11.9438
▁میرانی	-11.9439
پرچہ	-11.944
▁تھو	-11.9441
اہم	-11.9441
تکگ	-11.9442
▁Mor	-11.9443
▁رۆ	-11.9444
▁بنگل	-11.9446
▁اپسرے	-11.9451
▁ڈپارٹمنٹ	-11.9452
▁کانپرنس	-11.9452
▁voice	-11.9452
▁House	-11.9452
▁مشھد	-11.9452
▁پرنگ	-11.9454
▁لپرزگ	-11.9458
▁بھارتی	-11.9459
▁تصوف	-11.946
▁بوهگ	-11.9461
▁نازی	-11.9464
▁کردیا	-11.9465
دہی	-11.9466
▁راسبند	-11.9466
▁گہیں	-11.9467
ۆکێں	-11.9467
جارکش	-11.9468
▁ھس	-11.9471
▁ارزشتی	-11.9471
جے	-11.9472
بشیر	-11.9475
▁عکسانی	-11.9475
▁اڑان	-11.9478
▁Cha	-11.9478
ru	-11.948
▁زیاد	-11.948
▁رژنے	-11.9482
▁Game	-11.9482
▁اسراتیانی	-11.9484
▁لئی	-11.9484
▁مقدس	-11.9485
▁درکپان	-11.9485
▁دہقان	-11.9485
▁ازاتیءِ	-11.9486
سف	-11.9487
▁سومری	-11.9487
▁بداتیں	-11.9488
▁ترست	-11.9489
ins	-11.9489
▁دھمی	-11.9491
▁نمیرانی	-11.9492
▁براه	-11.9492
▁شدیک	-11.9493
فضل	-11.9494
▁ever	-11.9498
▁مودی	-11.9498
▁mov	-11.9499
▁score	-11.95
واجه	-11.95
▁سرپرہ	-11.9501
نومبر	-11.9501
▁ڈنڈ	-11.9501
▁نچ	-11.9502
▁لبزیات	-11.9503
▁واجہاں	-11.9504
▁گفت	-11.9504
▁لوت	-11.9504
▁ربیتے	-11.9505
قدر	-11.9506
▁جوھان	-11.9506
▁بھائیں	-11.9508
▁جدائی	-11.9509
▁ڈنگی	-11.9516
▁استنت	-11.9518
▁راولپنڈی	-11.9518
▁بائیکاٹ	-11.9518
▁گیتک	-11.9519
▁لکھن	-11.9522
▁مرہ	-11.9522
▁جانشو	-11.9523
▁ماہءِ	-11.9524
▁جاں	-11.9525
کوئی	-11.9525
▁پکن	-11.9525
▁grow	-11.9526
▁تازہ	-11.9527
▁زخم	-11.9528
▁فلا	-11.9531
▁امنہ	-11.9531
گوز	-11.9532
▁31	-11.9533
▁دروشمانی	-11.9535
▁زریات	-11.9535
وتا	-11.9537
گپتگ	-11.9537
کری	-11.9539
▁کبرانی	-11.954
یه	-11.9542
▁متن	-11.9542
▁درامدی	-11.9543
▁وانگءُ	-11.9547
▁مکرانی	-11.9549
▁شاپی	-11.9549
▁شمسی	-11.955
▁زیرک	-11.955
▁دلیں	-11.9551
▁approach	-11.9552
▁contract	-11.9552
▁Tech	-11.9552
▁size	-11.9552
▁خلیات	-11.9552
▁طویل	-11.9552
▁اسٹار	-11.9552
▁مارکسزم	-11.9553
▁نیزگاریں	-11.9554
▁جذباتی	-11.9555
▁کرگین	-11.9557
▁میلان	-11.9557
▁نبشتگ۔	-11.9557
▁موکہ	-11.9559
زانتی	-11.956
نه	-11.9561
▁لگے	-11.9561
▁سیاستءَ	-11.9562
▁گردہ	-11.9562
▁اعلان	-11.9565
امر	-11.9565
دگیں	-11.9566
▁ڈائی	-11.9567
▁ٹاس	-11.9568
▁شرانت	-11.9569
▁بانڈم	-11.9569
▁سمار	-11.9569
▁ایو	-11.9571
.”	-11.9572
ay	-11.9572
▁رؤت۔	-11.9574
اکر	-11.9576
▁اوگار	-11.958
▁ماد	-11.9582
▁مارشتی	-11.9582
بزانت	-11.9583
▁جہانءَ	-11.9585
▁Street	-11.9585
▁یوٹیوب	-11.9585
خیال	-11.9585
▁واژہ	-11.9586
▁نیکشھر	-11.9586
▁پرماتگ	-11.9586
▁مبو	-11.9587
▁تنگہ	-11.959
▁هنچو	-11.959
▁زرورت	-11.959
▁گریوان	-11.9591
روکیں	-11.9591
▁کرنءِ	-11.9594
▁اچھی	-11.9595
ڈز	-11.9596
▁شرپی	-11.9597
ئم	-11.96
▁دلپدرد	-11.9602
▁چستءُ	-11.9603
ea	-11.9604
دھا	-11.9605
▁اکساں	-11.9606
▁دلئ	-11.9609
▁لنککانی	-11.961
ربیت	-11.9611
▁بوم	-11.9613
▁ارسے	-11.9615
▁ماھان	-11.9615
▁prais	-11.9618
▁recording	-11.9619
▁Championship	-11.9619
▁براھندگ	-11.9619
▁تفتان	-11.9619
▁کوھ	-11.9621
کیا	-11.9622
▁کرداں	-11.9624
▁عشقی	-11.9624
▁دوہزار	-11.9628
▁cut	-11.9628
▁Pe	-11.9628
دیمرھی	-11.9629
۔پمیشکہ	-11.9629
▁اشکانی	-11.963
ولر	-11.9631
▁اھو	-11.9634
▁فکرے	-11.9634
▁مشیر	-11.9637
▁اریائی	-11.9638
▁Nav	-11.9643
غزل	-11.9646
ڈھ	-11.9647
▁چھت	-11.9648
▁مادنی	-11.9648
▁هد	-11.965
▁بہتامے	-11.9651
▁artist	-11.9652
▁n	-11.9652
▁Follow	-11.9653
▁مانچسٹر	-11.9653
▁عبدالقیوم	-11.9653
▁flood	-11.9653
▁گجرات	-11.9655
▁مشکلے	-11.9656
▁دئیگءَ	-11.9657
▁مھلہ	-11.9657
uest	-11.9658
▁کانی	-11.9659
▁پوچ	-11.9661
▁earn	-11.9661
▁کارنت	-11.9662
▁find	-11.9662
▁فاطمہ	-11.9662
▁بڑگ	-11.9663
▁وانینت	-11.9665
قت	-11.9665
جنگل	-11.9666
▁موجودگی	-11.9667
▁درونتاں	-11.9669
رھبند	-11.967
▁چہرگ	-11.9671
▁کھند	-11.9672
▁شادءَ	-11.9673
سٹل	-11.9674
یٹی	-11.9675
▁شول	-11.9676
▁تلگ	-11.9679
▁انیگ	-11.968
▁سریچک	-11.968
▁draw	-11.968
▁میدانی	-11.9681
▁پترت۔	-11.9682
▁کھار	-11.9684
نئے	-11.9686
▁Jordan	-11.9687
▁رکاوٹ	-11.9687
▁کانگریس	-11.9687
▁سحار	-11.9687
▁اسٹاف	-11.9687
▁کردءَ	-11.9688
▁کپگءَ	-11.9689
ہرکس	-11.969
▁ماشکیل	-11.9691
▁نیما	-11.9692
▁برین	-11.9695
▁ھردوکانی	-11.9697
▁مارتگ	-11.9697
▁appearance	-11.9697
۔پرچاکہ	-11.9697
سندھ	-11.9699
ڈگ	-11.9703
▁رودینی	-11.9704
بیں	-11.9706
▁تغ	-11.9707
جاھاں	-11.9708
▁کسهے	-11.9708
ڑاں	-11.971
یلا	-11.9712
▁تمردی	-11.9712
شات	-11.9712
سیم	-11.9714
▁سوبے	-11.9717
▁مرکءَ	-11.9718
▁دوائی	-11.9718
▁بریت	-11.9719
▁regard	-11.9721
▁evidence	-11.9721
▁عبدالقدوس	-11.9721
▁commercial	-11.9721
▁From	-11.9721
▁دفعہ	-11.9721
▁مبوتین	-11.9721
جاں	-11.9722
▁ٹائر	-11.9722
ک۔	-11.9722
▁مورے	-11.9722
)"	-11.9723
cu	-11.9727
▁وسیع	-11.9727
▁چھپ	-11.9727
▁توجیلے	-11.9727
▁مظہر	-11.9728
2014	-11.9729
▁نوشگ	-11.973
▁cast	-11.973
شنبه	-11.9734
▁کپات	-11.9735
▁لیبیاں	-11.9735
▁شکور	-11.9738
های	-11.9741
▁نیمءَ	-11.9745
▁سیمک	-11.9745
بوان	-11.9748
ition	-11.9748
▁دروازگے	-11.975
▁دمکانی	-11.975
▁کامی	-11.9751
▁ھالتران	-11.9752
▁Michael	-11.9755
▁attend	-11.9755
▁معشیت	-11.9755
▁gain	-11.9755
رھ	-11.9756
ائد	-11.9758
▁لہڑئگ	-11.9758
▁گوپ	-11.9759
▁space	-11.976
نصیر	-11.976
▁بنو	-11.976
▁زورءَ	-11.976
سہب	-11.9761
▁گرائمر	-11.9762
▁براں۔	-11.9763
جائیں	-11.9765
▁travel	-11.9767
fore	-11.9767
▁سچان	-11.9768
▁ایدا	-11.9769
▁تہلی	-11.9771
▁بیچارگیں	-11.9771
هیں	-11.9771
▁کارکنگ	-11.9771
▁ہاتھوں	-11.9772
▁پنیر	-11.9773
▁کوپگانی	-11.9773
▁yard	-11.9774
▁گداری	-11.9774
زمان	-11.9776
▁دیرو	-11.9776
▁کائنت	-11.9776
▁چمک	-11.9777
دریں	-11.9777
▁واش	-11.9779
ction	-11.9779
▁بوھگءِ	-11.9779
▁ٹرالر	-11.978
▁شمالی	-11.978
▁کارمرزگ	-11.9782
▁پسگاں	-11.9782
▁مجبوری	-11.9782
▁جھدءَ	-11.9783
▁ناٹک	-11.9784
▁گشین	-11.9784
▁کئیل	-11.9785
دارانی	-11.9786
▁جمالیاتی	-11.9786
▁برسیت	-11.9788
▁سہولت	-11.9789
▁Rock	-11.9789
▁نودی	-11.979
▁همش	-11.9794
درستیں	-11.9795
▁گھٹ	-11.9795
▁نزوریانی	-11.9796
▁سوزش	-11.9798
▁فطری	-11.9798
▁چینچک	-11.9799
▁ڈونڈ	-11.9801
سٹن	-11.9803
▁پیرین	-11.9805
▁دیتی	-11.9806
▁کہور	-11.9809
▁باجی	-11.981
▁مرتبہ	-11.981
▁کاسم	-11.9813
▁ناشری	-11.9814
پگر	-11.9814
▁نوخ	-11.9815
▁کدام	-11.9815
▁الماس	-11.9817
▁agree	-11.9819
▁داناں	-11.9819
▁سلم	-11.982
ہت	-11.982
▁بندپتر	-11.9821
upon	-11.9823
kin	-11.9823
▁average	-11.9823
▁افیشل	-11.9823
▁ھیبتان	-11.9824
▁sound	-11.9824
▁کوھستگ	-11.9824
قران	-11.9824
▁ہسن	-11.9825
▁مشتمل	-11.9825
قول	-11.9825
ory	-11.9826
نٹی	-11.9826
▁دانے	-11.9827
▁سامراجی	-11.9827
ہرچی	-11.9827
▁تمردیں	-11.9828
▁دوکان	-11.983
▁سربوگ	-11.983
▁مالا	-11.9831
▁لکھوڑ	-11.9832
▁بیرگیری	-11.9832
▁اوشتاتگ۔	-11.9833
▁صورتے	-11.9836
▁پیام	-11.9837
ردانک	-11.9838
ولو	-11.9841
دکان	-11.9842
▁لائکی	-11.9842
▁نوشی	-11.9843
▁200	-11.9843
▁ڈاکٹرانی	-11.9843
▁کھنت	-11.9845
زوریں	-11.9846
▁اشتراک	-11.9849
▁چاتے	-11.985
▁سرکچ	-11.9851
▁نویسانی	-11.9852
▁گیشکور	-11.9853
▁شکلے	-11.9853
▁اومیت	-11.9855
▁Sc	-11.9855
انکیں	-11.9856
ؤر	-11.9857
▁compar	-11.9858
▁Peter	-11.9858
امن	-11.9858
▁یورش	-11.9859
▁مکہیں	-11.9859
اوی	-11.9859
▁نامرد	-11.986
ake	-11.986
▁کنوں	-11.9861
▁ارواه	-11.9861
▁مہماناں	-11.9861
▁بندنت	-11.9862
▁وانگیانی	-11.9862
▁بچوں	-11.9863
جاور	-11.9864
▁بانڑی	-11.9864
▁experience	-11.9864
▁یش	-11.9866
▁Indian	-11.9867
▁لاڑ	-11.9867
▁زلمانی	-11.9872
▁Mu	-11.9874
▁ھفت	-11.9874
val	-11.9874
86	-11.9875
","","","	-11.9879
▁زانگول	-11.9879
▁تاچین	-11.9882
▁هرچی	-11.9885
▁حقدار	-11.9886
رندءَ	-11.9886
▁سپارت	-11.9887
▁شمشت	-11.9888
▁مردیناں	-11.9888
▁ملیں	-11.9889
▁مرادجان	-11.9891
▁سوگاتے	-11.9893
▁ac	-11.9893
▁واہگاں	-11.9894
▁ہجرت	-11.9896
▁چیہال	-11.9897
▁تاہم	-11.9898
▁اردوءِ	-11.9899
▁بیاات	-11.99
..."	-11.9904
▁Mary	-11.9904
واھی	-11.9905
▁خل	-11.9906
▁کپتان	-11.9908
▁معاف	-11.991
▁جوڑینگ	-11.9912
اتون	-11.9912
▁تازگ	-11.9912
▁زانندگ	-11.9915
بام	-11.9916
▁پہلا	-11.9916
▁زرتءُ	-11.9917
▁سمیت	-11.9918
▁کراں	-11.9918
اکس	-11.9918
▁گؤر	-11.9919
ota	-11.992
۔نوں	-11.992
▁بہرءُ	-11.992
▁ہتم	-11.9923
▁اجل	-11.9923
▁زانگءِ	-11.9925
▁کٹوکیں	-11.9926
▁reveal	-11.9927
▁براھوی	-11.9928
▁پادمال	-11.9928
▁بکشات	-11.9929
▁ازمائش	-11.993
▁تیس	-11.9936
▁فرعون	-11.9936
▁سجهێن	-11.9937
▁بوه	-11.9938
ستا	-11.994
▁سلو	-11.9942
رسول	-11.9942
▁سہراب	-11.9942
▁سربراہ	-11.9943
▁برگا	-11.9944
▁وحی	-11.9944
▁تامل	-11.9945
▁ٹام	-11.9946
▁سفرے	-11.9947
▁دتک	-11.9948
خط	-11.9949
▁نیچے	-11.9951
▁ہٹ	-11.9951
▁ات۔ائیءَ	-11.9951
▁صحابی	-11.9953
▁خاصیت	-11.9954
رواں	-11.9956
▁پھزداری	-11.9956
▁لاڈ	-11.9957
▁٭٭٭٭	-11.9959
▁مھنت	-11.9959
▁الاقوامی	-11.9962
▁تقدیر	-11.9962
▁نیویارک	-11.9962
▁گواڑگ	-11.9962
▁outside	-11.9963
▁troops	-11.9964
▁چاچے	-11.9965
▁عقیدہ	-11.9967
▁حی	-11.9968
▁ایجاد	-11.9968
▁ریت	-11.9969
▁یکمشت	-11.997
ونس	-11.9971
▁فریاد	-11.9971
▁ھوالہ	-11.9972
وشیں	-11.9972
▁شمش	-11.9974
▁کرنا۔	-11.9974
▁شتوں	-11.9976
▁پوریا	-11.9976
▁پینل	-11.9977
قص	-11.9978
▁دمبر	-11.9978
▁جوانتر	-11.998
▁ٹیپ	-11.9984
▁سھی	-11.9984
▁درشانگ	-11.9984
▁شورش	-11.9987
▁ہروہد	-11.9987
لغ	-11.9987
▁یاری	-11.9988
▁ایرجنگ	-11.999
▁ات۔کہ	-11.9994
▁معاشرتی	-11.9994
▁معصوم	-11.9994
▁فائر	-11.9994
▁بیتگینانی	-11.9996
▁پہمئنءِ	-11.9997
شتر	-11.9997
▁northern	-11.9997
▁پوزیشن	-11.9997
▁مالداری	-11.9998
▁کماتگ	-11.9998
▁ٹیچنگ	-11.9998
▁پوشاکاں	-11.9998
▁فلسطینی	-12
ect	-12.0003
▁بادام	-12.0004
▁پورے	-12.0004
بیار	-12.0004
▁ھدوناک	-12.0005
▁لکانی	-12.0007
▁event	-12.0011
▁کدرتی	-12.0012
▁اخلاقیات	-12.0013
▁هاترا	-12.0014
▁کراچیءِ	-12.0015
شمس	-12.0016
▁سرنگ	-12.0019
▁ٹری	-12.002
▁cit	-12.0025
▁پئی	-12.0025
▁نداریت	-12.0026
▁استالانی	-12.0026
▁انک	-12.0026
▁شائریءَ	-12.0027
▁کبیر	-12.0027
▁rank	-12.0027
▁رفت	-12.0027
▁ہشکیں	-12.003
▁اسٹر	-12.0032
▁دیمااہتگ	-12.0032
▁قضا	-12.0033
▁عنایت	-12.0033
▁ٹہشت	-12.0034
▁ھرمردم	-12.0034
▁سکت	-12.0034
▁۔۔۔۔۔۔۔۔	-12.0036
▁replac	-12.0036
▁نکہ	-12.0039
چاہ	-12.0041
▁چنک	-12.0041
▁چمروک	-12.0044
gr	-12.0048
▁چارینگ	-12.0048
▁تنیگا	-12.0049
▁کچکول	-12.0052
▁شیش	-12.0053
▁mean	-12.0053
▁گوران	-12.0053
▁جش	-12.0055
▁درجنگ	-12.0058
▁سالہ	-12.006
▁وروک	-12.0061
▁بیٹا	-12.0064
▁کرنانی	-12.0064
▁ماجد	-12.0064
lorida	-12.0067
ماسٹر	-12.0067
▁ھکیکت	-12.0067
▁کمکین	-12.0068
▁شاھوانی	-12.0068
▁yards	-12.0069
▁اشترانی	-12.0069
con	-12.0072
▁جیڑگاں	-12.0073
▁برک	-12.0076
▁نیادے	-12.0078
▁تہراں	-12.008
▁دران	-12.008
served	-12.0082
▁Bay	-12.0082
▁پنو	-12.0083
▁عمومدار	-12.0085
▁مگسک	-12.0086
▁ناشر	-12.0086
head	-12.0087
yn	-12.0087
▁بوہگا	-12.0088
▁“”	-12.0088
▁ورناھے	-12.0088
▁نادرائی	-12.0089
▁اھتک	-12.0089
پیں	-12.009
مستریں	-12.0091
▁کیتو	-12.0091
▁fact	-12.0091
نگد	-12.0093
▁Ja	-12.0093
رسی	-12.0094
کپوت	-12.0095
▁پسگانی	-12.0097
▁شہرانی	-12.0098
▁پھکیں	-12.0099
▁reason	-12.0103
▁length	-12.0103
▁conduct	-12.0103
▁section	-12.0103
▁وزبت	-12.0103
▁ابابگر	-12.0103
▁تمرد	-12.0105
▁سانیٹ	-12.0106
یئن	-12.0107
▁بایدیں	-12.0108
▁دائرہ	-12.0109
▁مزھبی	-12.0109
▁ہیت	-12.011
▁درشاندابے	-12.011
نکس	-12.011
▁زرناز	-12.011
▁زمه	-12.0112
▁ستم	-12.0116
▁نوا	-12.0117
▁بهداشتی	-12.0119
▁جوانیءَ	-12.0121
▁سکون	-12.0121
▁ڪش	-12.0124
up	-12.0127
▁قدیمی	-12.0128
▁پلگارگ	-12.0129
▁سہمی	-12.0131
الا	-12.0131
چارمی	-12.0131
▁جفا	-12.0131
fi	-12.0132
▁ییں	-12.0132
هو	-12.0136
▁ہتھیار	-12.0138
▁موثر	-12.0138
▁چاپءُ	-12.014
▁possible	-12.014
▁لڈءُ	-12.0142
▁براہندگ	-12.0143
▁ردوبند	-12.0145
▁اسانیں	-12.0146
نگار	-12.0146
▁پچاں	-12.0151
▁لوٹیتگ	-12.0152
▁جنئے	-12.0152
ایل	-12.0153
▁واہد	-12.0154
▁500	-12.0156
▁ہیگل	-12.0158
پدر	-12.0161
▁location	-12.0161
▁ھاشم	-12.0163
▁گردینت	-12.0163
▁برجمیں	-12.0163
▁Dr	-12.0163
وام	-12.0165
▁کوری	-12.0166
▁دربہ	-12.0167
پولیس	-12.0169
▁حاموش	-12.0169
▁league	-12.0174
▁ولگوج	-12.0174
▁جائیداد	-12.0174
▁crew	-12.0174
▁مھناز	-12.0175
▁Ex	-12.0176
▁کساسءَ	-12.0177
▁جانءَ	-12.0178
▁ہائیکو	-12.0179
▁saying	-12.018
▁نتھا	-12.0181
دمان	-12.0182
▁توکہ	-12.0183
دانکہ	-12.0185
وانوک	-12.0186
خا	-12.0186
▁Paul	-12.0186
کام	-12.0187
▁محشر	-12.0187
▁پکی	-12.0187
▁بازانت	-12.019
▁نپرت	-12.0192
▁ھزارہ	-12.0194
▁dr	-12.0194
▁بروس	-12.0194
▁سرجمین	-12.0195
▁لینگ	-12.0195
▁پست	-12.0199
▁اولا	-12.02
▁بشکن	-12.0202
▁ورئے	-12.0205
▁لنکا	-12.0205
▁بوانیت	-12.0205
تام	-12.0206
مالی	-12.0206
▁کیمتی	-12.0207
▁نویسوک	-12.0207
▁ھالت	-12.0209
▁account	-12.0209
▁تشریح	-12.0209
▁competition	-12.0209
▁material	-12.0209
▁فصیح	-12.021
▁غزہ	-12.021
▁Most	-12.0213
▁سؤت	-12.0213
▁past	-12.0214
▁دروراں	-12.0216
▁واقف	-12.0216
▁بشر	-12.0217
▁پگرانی	-12.0221
زمانہ	-12.0223
▁عطر	-12.0224
▁شفیقہ	-12.0226
جھد	-12.0226
▁وجودی	-12.0227
بط	-12.0227
▁کوس	-12.0228
▁پکنت	-12.0233
▁ازمانی	-12.0234
▁برھنگ	-12.0234
نیل	-12.0235
▁چائی	-12.0236
▁گلگل	-12.0237
یغ	-12.0237
اتا	-12.0237
▁دنگ	-12.0237
▁اباتی	-12.0239
عام	-12.0239
▁حت	-12.024
▁پھاز	-12.024
▁دوستناک	-12.0241
▁بکر	-12.0243
▁working	-12.0244
بریں	-12.0244
▁ساماناں	-12.0244
▁effort	-12.0245
▁international	-12.0245
▁ایڈووکیٹ	-12.0245
▁لؤٹ	-12.0245
▁نذیر	-12.0245
▁Richard	-12.0245
▁عبدالرزاق	-12.0245
▁اسپیشل	-12.0245
▁قائد	-12.0246
▁سرنامگ	-12.0246
uick	-12.0246
▁ھرروچ	-12.0249
▁ہیومن	-12.0249
▁whom	-12.025
...........	-12.025
▁شریپ	-12.0251
▁مزائیں	-12.0253
▁مرتب	-12.0254
II	-12.0255
دربر	-12.0258
▁گیشتری	-12.0259
▁جنید	-12.0264
▁راس	-12.0266
▁وڑین	-12.0267
▁تراس	-12.0268
▁مرتگاں	-12.027
▁دربی	-12.027
▁درتہ	-12.0271
▁دلسیاھی	-12.0274
غے	-12.0274
▁ھوا	-12.0276
▁سیرءُ	-12.0277
حسین	-12.0278
▁نتا	-12.0278
▁سربار	-12.028
▁انج	-12.0281
▁رنگین	-12.0281
▁سنڈیمن	-12.0281
▁کدھ	-12.0281
▁ولیعہد	-12.0282
▁شؤر	-12.0282
▁ملیشیا	-12.0282
▁تۆکا	-12.0282
▁جابر	-12.0282
▁میڑھ	-12.0283
▁سیادانی	-12.0286
▁سئیمی	-12.0287
اژ	-12.0287
▁بئیان	-12.0287
▁زوربیگواہی	-12.0287
▁مبنی	-12.0288
▁دیگری	-12.029
▁عمرے	-12.029
ھون	-12.0291
▁گویا	-12.0292
پانی	-12.0292
شمے	-12.0294
چنڈ	-12.0297
کاگد	-12.0297
▁پاسپان	-12.0298
▁Mark	-12.0299
▁رپکاں	-12.03
▁بالغ	-12.03
▁پچگ	-12.0301
▁ناد	-12.0301
▁اران	-12.0302
حاجی	-12.0302
▁کپیں	-12.0302
▁سدگ	-12.0303
سربوتگیں	-12.0303
▁بندین	-12.0303
▁مشرق	-12.0303
▁سوجے	-12.0304
ایرانی	-12.0306
▁مونجائی	-12.0306
▁زدگیں	-12.0307
▁جتءُ	-12.0307
▁Ad	-12.0309
تگنت	-12.0309
▁دیتہ	-12.0309
▁بووگ	-12.031
▁Wal	-12.031
بدی	-12.0312
گوشیت	-12.0312
▁گڑتی	-12.0314
شھید	-12.0315
سوچ	-12.0316
▁باراں	-12.0317
اپہ	-12.0317
▁Hurricane	-12.0317
▁Missouri	-12.0317
▁poor	-12.0317
▁focus	-12.0317
▁پریمئیر	-12.0317
▁دلدار	-12.0319
▁خداوند	-12.0319
▁بامسار	-12.032
▁extend	-12.032
.(	-12.0321
▁رسمءُ	-12.0321
▁اسپتیں	-12.0322
ئتگ	-12.0323
دیمتر	-12.0324
مندیں	-12.0324
▁بندروشم	-12.0326
▁Har	-12.0328
▁بچکندگے	-12.033
حب	-12.033
▁کارکناں	-12.033
▁وانت	-12.0331
ئنت۔	-12.0332
▁کیچی	-12.0335
▁وھش	-12.0337
▁جستءَ	-12.0337
▁درزن	-12.0339
گت	-12.0339
▁گنو	-12.0341
▁ہجری	-12.0341
▁امرے	-12.0341
▁گوستگ۔	-12.0341
▁گیچن	-12.0342
واتر	-12.0343
▁ناسرجمیں	-12.0346
▁لیکچر	-12.0347
▁appoint	-12.0349
▁Sh	-12.0349
▁رانا	-12.035
▁سواراں	-12.035
▁...............	-12.0353
▁ھذمت	-12.0354
▁2001	-12.0354
▁گالوارانی	-12.0355
▁گلشن	-12.0356
▁معروضی	-12.0356
▁باروء	-12.0356
▁سوتانی	-12.0356
▁گؤن	-12.0356
▁جھاز	-12.0357
▁تح	-12.0358
▁نیمگء	-12.0358
▁گانی	-12.0358
▁ٹرانس	-12.0359
▁شمشکار	-12.0359
▁شالکوٹ	-12.0361
سائنس	-12.0363
کون	-12.0363
gar	-12.0364
ھنگ	-12.0365
لیب	-12.0365
بازی	-12.0366
▁سمر	-12.0367
▁بوہیر	-12.0369
▁دنزاں	-12.0369
▁فضا	-12.037
▁اسرات	-12.037
▁درتک	-12.0371
▁گرادگ	-12.0371
واحد	-12.0377
▁وندر	-12.0378
▁جہاد	-12.0382
▁مصنف	-12.0384
▁محکمی	-12.0384
▁اتنتءُ	-12.0384
▁ریتک	-12.0385
اومان	-12.0385
▁territor	-12.039
▁داعش	-12.039
▁درمانے	-12.0391
▁لبزتکنیک	-12.0391
▁test	-12.0393
▁مہراب	-12.0394
▁باڑ	-12.0397
▁اری	-12.0398
▁نظریات	-12.0399
▁بیوی	-12.04
▁منکر	-12.0402
▁حا	-12.0402
▁یقینی	-12.0402
▁کشیتگ	-12.0402
▁۔مئے	-12.0404
▁مکتبہ	-12.0405
▁خی	-12.0408
▁Ber	-12.041
▁بانداتءِ	-12.0412
جمال	-12.0412
▁گوشتے	-12.0415
▁سلک	-12.0416
more	-12.0416
قومی	-12.0416
▁پٹاں	-12.0417
▁کودکی	-12.0417
▁بوہگءِ	-12.0418
▁پتاں	-12.0419
▁همود	-12.0419
▁نسلی	-12.042
▁راہشون	-12.042
▁تبءِ	-12.0422
92	-12.0422
▁پہازگ	-12.0424
[...]
