<pad>	0
<unk>	0
<s>	0
</s>	0
[CLS]	0
[SEP]	0
[MASK]	0
<0x00>	0
<0x01>	0
<0x02>	0
<0x03>	0
<0x04>	0
<0x05>	0
<0x06>	0
<0x07>	0
<0x08>	0
<0x09>	0
<0x0A>	0
<0x0B>	0
<0x0C>	0
<0x0D>	0
<0x0E>	0
<0x0F>	0
<0x10>	0
<0x11>	0
<0x12>	0
<0x13>	0
<0x14>	0
<0x15>	0
<0x16>	0
<0x17>	0
<0x18>	0
<0x19>	0
<0x1A>	0
<0x1B>	0
<0x1C>	0
<0x1D>	0
<0x1E>	0
<0x1F>	0
<0x20>	0
<0x21>	0
<0x22>	0
<0x23>	0
<0x24>	0
<0x25>	0
<0x26>	0
<0x27>	0
<0x28>	0
<0x29>	0
<0x2A>	0
<0x2B>	0
<0x2C>	0
<0x2D>	0
<0x2E>	0
<0x2F>	0
<0x30>	0
<0x31>	0
<0x32>	0
<0x33>	0
<0x34>	0
<0x35>	0
<0x36>	0
<0x37>	0
<0x38>	0
<0x39>	0
<0x3A>	0
<0x3B>	0
<0x3C>	0
<0x3D>	0
<0x3E>	0
<0x3F>	0
<0x40>	0
<0x41>	0
<0x42>	0
<0x43>	0
<0x44>	0
<0x45>	0
<0x46>	0
<0x47>	0
<0x48>	0
<0x49>	0
<0x4A>	0
<0x4B>	0
<0x4C>	0
<0x4D>	0
<0x4E>	0
<0x4F>	0
<0x50>	0
<0x51>	0
<0x52>	0
<0x53>	0
<0x54>	0
<0x55>	0
<0x56>	0
<0x57>	0
<0x58>	0
<0x59>	0
<0x5A>	0
<0x5B>	0
<0x5C>	0
<0x5D>	0
<0x5E>	0
<0x5F>	0
<0x60>	0
<0x61>	0
<0x62>	0
<0x63>	0
<0x64>	0
<0x65>	0
<0x66>	0
<0x67>	0
<0x68>	0
<0x69>	0
<0x6A>	0
<0x6B>	0
<0x6C>	0
<0x6D>	0
<0x6E>	0
<0x6F>	0
<0x70>	0
<0x71>	0
<0x72>	0
<0x73>	0
<0x74>	0
<0x75>	0
<0x76>	0
<0x77>	0
<0x78>	0
<0x79>	0
<0x7A>	0
<0x7B>	0
<0x7C>	0
<0x7D>	0
<0x7E>	0
<0x7F>	0
<0x80>	0
<0x81>	0
<0x82>	0
<0x83>	0
<0x84>	0
<0x85>	0
<0x86>	0
<0x87>	0
<0x88>	0
<0x89>	0
<0x8A>	0
<0x8B>	0
<0x8C>	0
<0x8D>	0
<0x8E>	0
<0x8F>	0
<0x90>	0
<0x91>	0
<0x92>	0
<0x93>	0
<0x94>	0
<0x95>	0
<0x96>	0
<0x97>	0
<0x98>	0
<0x99>	0
<0x9A>	0
<0x9B>	0
<0x9C>	0
<0x9D>	0
<0x9E>	0
<0x9F>	0
<0xA0>	0
<0xA1>	0
<0xA2>	0
<0xA3>	0
<0xA4>	0
<0xA5>	0
<0xA6>	0
<0xA7>	0
<0xA8>	0
<0xA9>	0
<0xAA>	0
<0xAB>	0
<0xAC>	0
<0xAD>	0
<0xAE>	0
<0xAF>	0
<0xB0>	0
<0xB1>	0
<0xB2>	0
<0xB3>	0
<0xB4>	0
<0xB5>	0
<0xB6>	0
<0xB7>	0
<0xB8>	0
<0xB9>	0
<0xBA>	0
<0xBB>	0
<0xBC>	0
<0xBD>	0
<0xBE>	0
<0xBF>	0
<0xC0>	0
<0xC1>	0
<0xC2>	0
<0xC3>	0
<0xC4>	0
<0xC5>	0
<0xC6>	0
<0xC7>	0
<0xC8>	0
<0xC9>	0
<0xCA>	0
<0xCB>	0
<0xCC>	0
<0xCD>	0
<0xCE>	0
<0xCF>	0
<0xD0>	0
<0xD1>	0
<0xD2>	0
<0xD3>	0
<0xD4>	0
<0xD5>	0
<0xD6>	0
<0xD7>	0
<0xD8>	0
<0xD9>	0
<0xDA>	0
<0xDB>	0
<0xDC>	0
<0xDD>	0
<0xDE>	0
<0xDF>	0
<0xE0>	0
<0xE1>	0
<0xE2>	0
<0xE3>	0
<0xE4>	0
<0xE5>	0
<0xE6>	0
<0xE7>	0
<0xE8>	0
<0xE9>	0
<0xEA>	0
<0xEB>	0
<0xEC>	0
<0xED>	0
<0xEE>	0
<0xEF>	0
<0xF0>	0
<0xF1>	0
<0xF2>	0
<0xF3>	0
<0xF4>	0
<0xF5>	0
<0xF6>	0
<0xF7>	0
<0xF8>	0
<0xF9>	0
<0xFA>	0
<0xFB>	0
<0xFC>	0
<0xFD>	0
<0xFE>	0
<0xFF>	0
▁ء	-2.114
▁کہ	-4.05271
▁انت	-4.14524
,	-4.30387
▁اے	-4.77635
▁ات	-4.87572
▁,	-4.92452
ء	-4.94163
▁نہ	-4.95883
▁وتی	-5.00286
▁چہ	-5.10843
▁۔	-5.21715
▁من	-5.23173
▁یک	-5.28777
▁ائی	-5.29085
▁	-5.31997
▁ا	-5.38885
▁انت۔	-5.40202
▁بیت	-5.42418
▁گوں	-5.48492
▁کنگ	-5.48714
▁بہ	-5.52896
▁پہ	-5.53164
▁و	-5.54746
▁(	-5.60508
▁:	-5.62172
انی	-5.77803
▁سر	-5.79199
▁بلوچ	-5.80562
▁بوتگ	-5.81077
▁)	-5.896
یں	-5.90247
▁.	-5.91274
▁the	-5.94426
اں	-5.96173
▁بلے	-5.97317
▁منی	-6.00787
▁ئے	-6.01329
s	-6.0328
۔	-6.04365
▁کنت	-6.07083
▁ھم	-6.10226
▁تو	-6.11584
▁کتگ	-6.11682
▁بوت	-6.14017
ی	-6.16795
ے	-6.16798
▁بیتگ	-6.19892
▁بے	-6.22955
)	-6.23332
▁مردم	-6.24483
▁کن	-6.24745
:	-6.25783
.	-6.25927
▁ئ	-6.26107
▁بلوچستان	-6.26384
▁ما	-6.29984
▁تہ	-6.3646
▁تہا	-6.37376
▁ھمے	-6.37816
▁دیم	-6.38354
▁یا	-6.41216
ed	-6.43453
▁"	-6.4451
▁پد	-6.44618
▁کار	-6.44879
▁کت	-6.45039
▁بلوچی	-6.45083
▁مئے	-6.47042
▁دگہ	-6.47124
▁گپ	-6.51645
ا	-6.53039
▁ہم	-6.53638
▁’’	-6.54418
▁ات۔	-6.54509
▁وت	-6.57519
▁گڑا	-6.60126
▁روچ	-6.60771
▁تئی	-6.60927
▁سرا	-6.65729
▁دو	-6.66405
▁of	-6.67
▁دل	-6.67884
▁کے	-6.73421
▁رد	-6.73897
▁نام	-6.7391
▁ایت	-6.75635
▁بنت	-6.78029
▁کرتگ	-6.78177
▁جنگ	-6.7832
▁and	-6.7871
▁پدا	-6.79544
▁زبان	-6.80787
▁بیت۔	-6.81337
▁ھما	-6.82762
?	-6.82877
▁باز	-6.84466
▁اگاں	-6.84734
▁گوشتگ	-6.85406
▁را	-6.86458
▁بازیں	-6.86615
‘‘	-6.88902
▁بی	-6.89843
▁ہمے	-6.89867
▁ہما	-6.90144
▁چو	-6.90475
▁ایشی	-6.90968
▁پر	-6.93371
▁سے	-6.93434
▁دست	-6.93975
▁اں	-6.9459
▁لوٹ	-6.94965
▁یے	-6.96147
▁ماں	-6.96166
▁تہء	-6.98232
▁کی	-6.98858
▁ائیء	-6.99146
▁in	-6.99845
▁to	-7.00655
▁مردمانی	-7.01481
▁نیمگ	-7.04539
▁مہ	-7.04825
▁میں	-7.05873
▁پاکستانی	-7.07539
▁ایں	-7.0798
▁a	-7.08495
▁چے	-7.09019
▁در	-7.10475
▁ھال	-7.10949
▁زند	-7.11818
▁جوڑ	-7.12223
▁کرت	-7.1305
▁دومی	-7.13251
(	-7.1352
▁نبشتہ	-7.13838
▁زانت	-7.15673
▁وھد	-7.15913
▁مزنیں	-7.16431
▁پوج	-7.16843
▁دیگ	-7.169
▁ترا	-7.17104
▁اور	-7.17246
▁‘‘	-7.17739
▁سک	-7.18242
▁واجہ	-7.1843
▁نوں	-7.19042
▁که	-7.1979
...	-7.20262
▁دور	-7.20463
▁اس	-7.21453
▁داتگ	-7.22518
▁گل	-7.22835
▁دات	-7.23762
▁پیش	-7.23962
!	-7.2398
▁چار	-7.24425
▁بند	-7.25228
▁رند	-7.25781
▁خان	-7.264
▁ہر	-7.28568
ہ	-7.28873
▁مردماں	-7.29358
ing	-7.29459
▁ھچ	-7.29997
▁گیش	-7.30101
▁کنت۔	-7.30247
▁رنگ	-7.305
ن	-7.30841
▁دمگ	-7.31063
▁￴	-7.31629
▁نوکیں	-7.31874
▁=	-7.32048
▁زانگ	-7.32245
▁شنگ	-7.32624
▁ایر	-7.32957
▁شپ	-7.33725
▁ارش	-7.34053
▁داں	-7.34262
▁سال	-7.34413
▁ھر	-7.35399
▁جان	-7.36048
▁سرء	-7.3625
▁گوشت	-7.36364
▁مارا	-7.37306
▁کنان	-7.37455
ئے	-7.3758
▁اللہ	-7.37686
▁کتاب	-7.38663
▁کس	-7.39311
▁جست	-7.39741
ان	-7.40097
▁اپ	-7.41684
▁کا	-7.41713
▁نیست	-7.42316
▁راج	-7.42607
▁جاہ	-7.44191
▁بوتگ۔	-7.442
▁اوار	-7.45326
▁ہے	-7.46089
▁راہ	-7.46405
▁اش	-7.47063
▁گوش	-7.47341
▁ایش	-7.47371
”	-7.47426
▁وش	-7.48112
▁میر	-7.48324
▁ھوار	-7.48652
▁ایانی	-7.49475
▁گوشگ	-7.49595
▁گیشتر	-7.49606
’’	-7.49614
y	-7.50722
▁دنیا	-7.51351
▁لشکر	-7.51373
▁لوگ	-7.51424
▁”	-7.52103
▁کم	-7.53047
▁اتگ	-7.53556
▁توار	-7.54788
▁اوں	-7.55593
▁اولی	-7.56092
▁'	-7.57398
▁او	-7.57421
▁سی	-7.57596
▁وھدے	-7.57702
▁کو	-7.57975
"	-7.5899
▁مان	-7.59584
▁گندگ	-7.59822
▁وڑ	-7.59915
▁گوستگیں	-7.6014
▁بیگواہ	-7.60256
▁“	-7.6108
▁جتگ	-7.61214
▁یکے	-7.61403
▁بزاں	-7.64691
▁چک	-7.64769
▁بوگ	-7.65231
▁کش	-7.66241
▁was	-7.66376
▁گشت	-7.66499
▁وڑیں	-7.66687
▁دوست	-7.66994
▁گشتگ	-7.67346
▁بس	-7.67903
▁پاکستان	-7.68062
▁دار	-7.68232
▁بلئے	-7.68753
▁لبزانک	-7.68966
▁بلکیں	-7.6899
ئ	-7.69031
▁برجاہ	-7.70039
@	-7.70581
▁چیزے	-7.70648
▁@	-7.71553
▁چم	-7.71561
▁ماہ	-7.71757
▁گون	-7.72138
▁درشان	-7.72215
▁ھست	-7.72284
▁مردمے	-7.72697
▁دیما	-7.72949
▁ابید	-7.73713
▁اچ	-7.73784
▁اتکگ	-7.7426
▁مروچی	-7.74849
▁چیز	-7.75799
▁گ	-7.75842
▁وانگ	-7.75982
▁محمد	-7.76179
▁زور	-7.76277
▁پشت	-7.77573
▁کسے	-7.7773
وں	-7.78137
▁شاعری	-7.78409
▁زمین	-7.79128
▁بیتگیں	-7.79279
▁شال	-7.79296
▁چشکہ	-7.80066
▁The	-7.80356
▁ائرا	-7.80442
▁￵	-7.80734
▁بن	-7.80894
▁سرجمیں	-7.81108
▁بیران	-7.81129
▁منا	-7.81186
ت	-7.8133
▁بندات	-7.81541
▁زھرشانی	-7.81771
▁سرپد	-7.82083
▁ازمانک	-7.82308
▁اتک	-7.82782
▁بدل	-7.82928
▁راجی	-7.82979
▁دنت	-7.83063
▁سوب	-7.83617
▁اتنت	-7.83678
▁مزن	-7.83912
▁مدام	-7.8394
▁ملک	-7.83972
▁مات	-7.84818
▁انگت	-7.84958
▁مرچی	-7.85316
▁مراد	-7.85433
-	-7.85542
▁چست	-7.8569
▁[...]	-7.86461
▁دارگ	-7.86769
▁ڈاکٹر	-7.87102
▁کناں	-7.8711
▁ھیال	-7.87318
▁کر	-7.87395
▁ان	-7.8757
▁سیاسی	-7.87843
▁برے	-7.87885
▁بنت۔	-7.88178
▁انچیں	-7.88199
▁میان	-7.88667
▁دی	-7.89547
▁انسان	-7.89863
▁پچ	-7.90084
▁ن	-7.90512
▁نے	-7.90558
▁تر	-7.90701
▁دیوان	-7.90859
▁شر	-7.90917
▁کپتگ	-7.90917
▁پاد	-7.91332
▁واب	-7.91545
▁ہچ	-7.91602
▁تاں	-7.91649
▁کشگ	-7.91728
▁کدی	-7.91925
▁بوت۔	-7.92566
اے	-7.92807
▁بوتگیں	-7.92939
▁حیال	-7.93116
▁انچو	-7.93257
▁این	-7.9332
ly	-7.93357
▁ئیں	-7.93714
▁پی	-7.94123
▁است	-7.95476
ین	-7.95753
▁کسہ	-7.9614
▁ادا	-7.96168
▁کجام	-7.96579
▁سلاہ	-7.96701
من	-7.9686
▁مرد	-7.97037
▁رجانک	-7.97728
▁شما	-7.97829
▁ایاں	-7.9822
▁پٹ	-7.9882
▁بہر	-7.99664
نگ	-7.99899
▁شت	-8.00169
▁سبب	-8.00214
▁دروشم	-8.00897
▁پرچا	-8.01198
▁پت	-8.01364
▁کمک	-8.01637
▁کراچی	-8.02152
▁جتائیں	-8.02231
▁زر	-8.02264
▁جتا	-8.02601
▁جارکش	-8.03706
▁چی	-8.03849
‘	-8.03959
گ	-8.04292
▁سرجم	-8.05374
▁جند	-8.05475
▁گڈا	-8.05708
▁پولیس	-8.05719
▁ملا	-8.06101
▁ایشانی	-8.06113
▁that	-8.06258
▁گور	-8.06304
ں	-8.06734
▁چه	-8.07001
▁as	-8.07012
▁اباد	-8.07186
▁یل	-8.07268
▁دپ	-8.07434
▁ایوک	-8.07633
▁with	-8.07848
▁on	-8.0815
▁گار	-8.08755
▁تران	-8.09276
▁پنچ	-8.09461
▁گاڑی	-8.10046
▁زندء	-8.10337
▁مرگ	-8.10377
▁for	-8.10431
▁کجا	-8.10614
▁چاگرد	-8.10923
▁اجوئی	-8.10984
▁?	-8.11124
▁حال	-8.11413
▁بابت	-8.11421
▁برتگ	-8.1231
و	-8.12652
▁کتگ۔	-8.13586
کہ	-8.13607
▁کیچ	-8.14169
▁واستا	-8.14532
▁ایل	-8.14814
▁شھر	-8.14924
▁بر	-8.15193
▁انسانی	-8.15271
▁پیسر	-8.15326
▁نزیک	-8.15417
▁کرتگ۔	-8.15586
▁بیان	-8.15743
▁بھر	-8.16418
▁دراھیں	-8.16932
▁کت۔	-8.17602
▁بیگ	-8.18145
▁اسر	-8.18149
▁پوسٹ	-8.18402
▁ایک	-8.18929
▁اتاں	-8.19454
▁زندگ	-8.19523
▁راست	-8.19749
▁شاہ	-8.19959
ک	-8.20086
▁چیر	-8.20486
▁کپ	-8.20871
▁جھد	-8.20961
▁by	-8.21256
▁الم	-8.21329
▁جت	-8.21369
ائی	-8.21695
▁وہد	-8.22055
▁لیکہ	-8.22227
▁جنین	-8.22437
▁میتگ	-8.22536
▁!	-8.22816
▁کارمرز	-8.22882
▁بیست	-8.23173
▁چریشی	-8.23313
▁ترس	-8.23333
▁گشگ	-8.23403
▁سید	-8.2341
▁زندگی	-8.23708
▁ودی	-8.23835
▁بکن	-8.23867
▁سنگت	-8.23993
▁زورانسری	-8.24301
▁جن	-8.24433
▁روگ	-8.24772
▁ھاتر	-8.24874
▁پجار	-8.24893
▁کیت	-8.25094
▁بیا	-8.25102
▁is	-8.2516
▁چون	-8.25215
▁بندیں	-8.25707
▁پیم	-8.26132
▁راستی	-8.2622
▁اہانی	-8.26235
▁یات	-8.26407
▁اود	-8.26443
▁گوادر	-8.27439
▁دوئیں	-8.28007
▁جہد	-8.28424
▁تیرگواری	-8.28587
▁برز	-8.28661
▁کسانیں	-8.28957
▁واری	-8.29012
▁اشی	-8.29014
▁چارگ	-8.29225
▁گپت	-8.29259
▁￶	-8.29332
▁نشانگ	-8.29387
▁نا	-8.29514
▁کپت	-8.29815
▁منء	-8.30108
▁ھالانی	-8.30355
▁مہر	-8.30569
▁وڑا	-8.30751
▁ایم	-8.30772
▁شہ	-8.30908
▁درد	-8.31101
▁وئیل	-8.31271
▁تربت	-8.31311
▁be	-8.31658
▁مستریں	-8.31905
▁ٹی	-8.32224
▁ادم	-8.32276
▁درگت	-8.32338
▁نشتگ	-8.32554
▁شریں	-8.3311
▁وھدیکہ	-8.3316
▁برات	-8.33177
▁چوش	-8.33189
▁دیست	-8.33788
▁ڈی	-8.33849
▁گر	-8.34394
▁تاوان	-8.34671
▁ے	-8.3532
▁’	-8.35668
▁گرگ	-8.36038
▁برگ	-8.36367
▁کساس	-8.36794
▁ہیں	-8.368
▁جوانیں	-8.36852
▁په	-8.37064
▁بیتگ۔	-8.37386
▁زمانگ	-8.37846
’	-8.3785
“	-8.37898
▁شاعر	-8.38046
▁پدر	-8.38076
▁ساری	-8.38217
▁ھند	-8.38517
▁زمہ	-8.38531
▁کنگء	-8.38696
▁داریت	-8.39174
▁ارگ	-8.39672
▁ملکی	-8.40053
▁تب	-8.40508
▁سرکار	-8.40561
▁ورنا	-8.40788
▁علی	-8.40899
▁بلکنا	-8.41005
▁کوہ	-8.41382
▁کاری	-8.41589
▁کنوکیں	-8.41695
▁وہدے	-8.41738
▁نی	-8.41751
▁ہے۔	-8.41802
▁؂	-8.42207
▁سد	-8.42264
▁روان	-8.42503
▁داد	-8.43173
▁کئے	-8.43453
▁سما	-8.43699
▁یلہ	-8.43792
▁شعر	-8.44324
▁یہ	-8.44361
▁چشیں	-8.44498
▁نبشتانک	-8.44544
▁بنی	-8.4455
▁ار	-8.44609
▁اسلام	-8.45072
نت	-8.45209
▁شتگ	-8.45222
▁زاناں	-8.45285
▁کارے	-8.453
▁گپتگ	-8.4539
▁چاگردی	-8.45439
▁زرتگ	-8.45472
▁کتگیں	-8.45985
▁زان	-8.46147
▁جنت	-8.46267
▁دیر	-8.46486
▁ناں	-8.4662
▁دلء	-8.46754
▁اھانی	-8.4705
▁روچے	-8.47222
▁نیم	-8.47285
▁جنک	-8.47401
▁اد	-8.47437
▁بازار	-8.47449
▁چاپ	-8.47528
▁سیادی	-8.47593
▁دلگوش	-8.47659
▁وزیر	-8.47763
▁لچہ	-8.47789
▁سرمچاراں	-8.48014
▁تک	-8.48219
▁ورگ	-8.48339
▁نوک	-8.48443
▁گڈی	-8.48895
▁داشت	-8.4933
▁بھی	-8.49786
▁شش	-8.49932
▁پول	-8.5006
▁ایس	-8.50067
▁جی	-8.50082
▁کرتگیں	-8.50194
▁سردار	-8.50355
▁ھبر	-8.5039
▁ھمک	-8.50397
▁جیڑہ	-8.50493
▁تھا	-8.50587
▁ٹپی	-8.50632
▁اردو	-8.50773
▁گران	-8.51096
▁ایت۔	-8.51098
▁کاروان	-8.51281
▁جاگہ	-8.51422
▁پل	-8.51839
▁from	-8.5207
▁کھول	-8.52419
▁هم	-8.52497
▁ھمیش	-8.52541
ر	-8.52626
▁لس	-8.52696
▁نیمگا	-8.52708
▁ھلاپ	-8.52711
▁دگ	-8.52869
▁زہرشانی	-8.5289
▁بوھگ	-8.53194
e	-8.53406
▁دیمء	-8.53502
▁جو	-8.53914
▁ایران	-8.53969
▁ایرانی	-8.54031
d	-8.54038
۔۔۔	-8.54359
▁چماں	-8.54918
▁ھاترا	-8.54928
▁مارشت	-8.55025
▁اہاں	-8.55285
▁گمان	-8.55354
م	-8.55785
▁شیر	-8.56248
▁ردء	-8.56438
▁راجدپتر	-8.56506
▁اماچ	-8.56653
▁ازم	-8.56721
▁وہ	-8.56819
▁سروک	-8.56855
▁کنیں	-8.56906
▁گس	-8.57018
▁بچار	-8.57108
▁لہتیں	-8.57154
▁باریں	-8.5719
▁دیستگ	-8.57762
انت	-8.57884
▁مھلوک	-8.58096
▁his	-8.58162
▁گش	-8.58173
▁رس	-8.58184
▁ھلاس	-8.58268
▁لوٹیت	-8.58648
▁لبز	-8.58725
▁بنجاھی	-8.58864
▁دژمن	-8.59137
بلے	-8.5993
▁کرد	-8.59984
▁گورا	-8.60013
▁at	-8.60352
▁تا	-8.60399
▁گال	-8.60482
▁کور	-8.61081
▁وار	-8.61422
▁درست	-8.61518
ات	-8.61658
▁دزگیر	-8.61864
▁دئیگ	-8.61982
▁کل	-8.62131
▁بوان	-8.62275
▁پس	-8.62354
چہ	-8.62394
وتی	-8.62822
▁تاک	-8.62912
▁جاور	-8.63113
▁بیگواھیں	-8.63633
▁ڈن	-8.63824
▁پنجگور	-8.63927
نہ	-8.64102
▁گوات	-8.64303
▁لبزانکی	-8.64403
▁ہوار	-8.64464
▁ایشیء	-8.64623
▁درا	-8.64626
▁زدگ	-8.64702
▁نیام	-8.64793
▁ایشاں	-8.65298
▁دہ	-8.65398
▁بگیری	-8.65433
▁احمد	-8.65814
▁بار	-8.65829
▁رسول	-8.65909
▁کشتگ	-8.65925
▁رو	-8.65989
▁الله	-8.66341
▁زوت	-8.66598
▁گند	-8.67039
▁کلات	-8.67219
▁یکیں	-8.67294
▁واستہ	-8.67583
......	-8.67588
▁پسو	-8.67621
▁کمیٹی	-8.67686
▁وھدی	-8.67984
▁باں	-8.68205
▁مال	-8.68206
▁بد	-8.68453
▁لبریش	-8.68794
▁وتا	-8.68984
▁کوش	-8.69388
▁لٹ	-8.69634
ل	-8.70046
▁بلوچانی	-8.70402
▁نہیں	-8.70402
▁مہلوک	-8.70538
▁گپے	-8.7097
▁چوں	-8.71297
▁لگ	-8.71404
▁بو	-8.71786
▁جون	-8.71844
▁were	-8.71856
▁شہر	-8.72019
;	-8.72094
▁جہل	-8.7214
▁کوئٹہ	-8.72294
▁روچاں	-8.72621
▁بندی	-8.73133
▁ایدگہ	-8.73184
▁بکنت	-8.73232
..	-8.7329
▁ریاست	-8.73726
▁کنگی	-8.73849
▁بخش	-8.74199
▁کٹ	-8.74203
▁ساہ	-8.74574
▁بنجل	-8.74636
▁المی	-8.74912
▁رنگیں	-8.74928
▁وتء	-8.75034
▁علم	-8.75069
▁توک	-8.75475
▁دمگاں	-8.7568
▁نودربر	-8.75873
▁it	-8.7612
▁پمیشا	-8.76267
▁‘	-8.76608
▁ساحر	-8.76681
▁شھید	-8.76683
▁داشتگ	-8.76838
▁عمل	-8.77057
سگ	-8.7709
▁کشی	-8.77184
▁زوراکی	-8.77446
▁دمگی	-8.77688
یک	-8.77744
▁ایف	-8.77749
▁زالبول	-8.77937
▁تچک	-8.77999
زورگریں	-8.78115
▁ناشناسیں	-8.78194
▁تاکدیم	-8.78404
▁کچ	-8.78484
▁حکومت	-8.78512
▁سرکاری	-8.7852
▁لاش	-8.78581
▁دے	-8.78609
▁رسانکدر	-8.7886
▁کاراں	-8.78987
▁اھاں	-8.79292
ه	-8.79481
▁سیاہ	-8.7951
▁زرت	-8.79586
▁وشی	-8.79681
▁پیداک	-8.7972
تو	-8.80227
▁سئے	-8.80374
▁نه	-8.80428
▁ت	-8.8066
▁گچین	-8.80707
▁کارانی	-8.80801
▁ک	-8.80802
▁روکپتی	-8.8098
▁پمیشکا	-8.81019
▁عمر	-8.81089
▁درستیں	-8.81201
▁انی	-8.81229
▁چمانی	-8.81315
▁اودا	-8.81789
▁قوم	-8.81826
▁سیاست	-8.81903
▁بات	-8.81908
▁اشانی	-8.81949
▁استاد	-8.82043
▁نیمگء	-8.82437
▁جار	-8.82492
▁ازات	-8.82523
▁دنیاء	-8.83092
▁چیا	-8.83255
▁روت	-8.83311
▁کئیت	-8.83419
▁وسلم	-8.83465
▁ئی	-8.83661
▁مکران	-8.83693
▁باسک	-8.8381
▁""	-8.83904
▁درائیں	-8.84073
▁دانکہ	-8.84082
▁بال	-8.84286
▁ھزار	-8.84711
ش	-8.84913
▁شمئے	-8.85237
▁ٹک	-8.85538
▁گیر	-8.85613
▁فلسفہ	-8.85655
منی	-8.85666
▁کیا	-8.85709
▁سرپدی	-8.85772
▁ڈول	-8.85774
▁مھر	-8.85778
یا	-8.85927
▁زھگ	-8.86171
▁گدار	-8.86255
▁پریس	-8.86406
▁شائری	-8.8675
▁بچ	-8.86913
▁درور	-8.87008
▁کہول	-8.87223
▁بستگ	-8.87359
▁زورگ	-8.87662
▁پیلو	-8.87887
▁ھدا	-8.8789
▁صاحب	-8.879
▁پیر	-8.88128
▁چیریں	-8.88141
▁تاریخ	-8.88165
▁دوستی	-8.88212
▁امیت	-8.88372
▁کسی	-8.8838
▁تہنا	-8.88496
▁ہو	-8.88538
▁تیر	-8.88587
▁سفر	-8.88781
▁چش	-8.89077
▁گیشیں	-8.8943
▁ادء	-8.89451
▁وشیں	-8.89537
▁ئے۔	-8.89597
▁In	-8.89693
▁اکیڈمی	-8.89702
انء	-8.89802
▁بل	-8.89807
▁he	-8.90151
▁گشیت	-8.90256
▁شری	-8.90446
▁واتر	-8.90639
▁کننت	-8.91129
▁ہست	-8.91483
▁مند	-8.9154
▁نند	-8.91679
▁سنگ	-8.91821
▁شوھاز	-8.91951
▁an	-8.9203
پہ	-8.92081
▁نسبت	-8.92159
بلوچی	-8.92164
▁ہند	-8.92171
▁ھور	-8.92177
▁کسان	-8.92189
▁بزانت	-8.92223
▁ھساب	-8.92433
....	-8.92635
▁ارمی	-8.92662
▁پروش	-8.92703
▁تانکہ	-8.92716
▁دود	-8.92777
▁حق	-8.9287
▁ایگ	-8.93014
▁نبشتگ	-8.93299
▁۔۔۔	-8.93636
▁بوئگ	-8.93758
ز	-8.93944
▁کنوک	-8.93959
▁واھگ	-8.93978
▁وارت	-8.94041
▁اتنت۔	-8.94103
▁استمانی	-8.94418
▁دین	-8.9465
▁بنا	-8.94791
▁بندوک	-8.94814
▁چپ	-8.95041
▁حدا	-8.95075
▁جنان	-8.95328
▁بانک	-8.9557
▁گوازی	-8.95626
▁نشان	-8.96239
▁چونیں	-8.96323
▁معنا	-8.96353
▁مری	-8.96553
▁مچی	-8.96624
▁حساب	-8.96935
▁به	-8.9696
▁چوشیں	-8.97005
▁had	-8.97015
▁پگر	-8.97076
▁دیمروئی	-8.9737
▁بیڑ	-8.97701
▁سیمی	-8.97806
س	-8.97905
▁کنئگ	-8.97954
▁کنگا	-8.98524
▁لاپ	-8.98613
▁ہمک	-8.9868
▁ہمیش	-8.98701
▁مانا	-8.98722
▁;	-8.98851
▁باروا	-8.98945
▁درستاں	-8.99119
▁مار	-8.99248
▁انچش	-8.99272
▁ادارہ	-8.99386
▁برجم	-8.99486
گوں	-8.99494
▁ارزشت	-8.99652
▁گم	-8.99657
▁ٹولی	-8.99747
▁مٹ	-8.99763
▁which	-8.99842
▁گپاں	-8.99985
▁ادب	-9.00009
▁سپر	-9.00087
▁مرتگ	-9.0011
▁بگٹی	-9.00299
▁کارمند	-9.00305
▁چل	-9.00487
▁ردا	-9.00553
▁م	-9.0088
▁هما	-9.00892
▁قصہ	-9.00937
▁فاضل	-9.00961
▁پارٹی	-9.00998
▁چاران	-9.01189
▁ھشت	-9.01267
▁نان	-9.01416
▁نندانک	-9.01525
▁مچ	-9.01588
▁دم	-9.01638
▁سنگتاں	-9.02268
▁پکر	-9.02425
▁کماش	-9.0248
▁دیان	-9.02563
▁حبر	-9.02602
▁بگر	-9.02768
▁گوست	-9.02773
▁کشت	-9.034
▁نامیں	-9.03755
▁ہی	-9.0389
▁بیگواہیں	-9.04193
▁ازمان	-9.04265
▁دنت۔	-9.04281
▁بوتیں	-9.04327
▁ایں۔	-9.04383
▁بنیاد	-9.04684
▁ساڑی	-9.04719
▁جنی	-9.0499
▁اف	-9.05192
▁دراج	-9.05235
▁کارء	-9.05305
▁تراک	-9.05499
▁قاضی	-9.05504
▁بمب	-9.05631
▁یکجاہ	-9.05635
t	-9.05856
بہ	-9.06121
▁برت	-9.06157
▁گٹ	-9.06294
▁دستونک	-9.06375
▁فارسی	-9.0643
▁روک	-9.06684
▁همے	-9.06817
▁میجر	-9.06859
▁رنگے	-9.07329
▁اھت	-9.07407
▁شرگداری	-9.07528
▁اودء	-9.07942
▁بئے	-9.07973
▁ہیں۔	-9.08012
▁ر	-9.08061
▁وسیلہ	-9.08071
▁کمے	-9.0809
▁هر	-9.08129
▁کپیت	-9.08207
▁جھمنند	-9.08299
▁منت	-9.08413
ێں	-9.0854
▁لھتے	-9.0857
▁دمان	-9.08647
▁د	-9.08782
▁دروازگ	-9.0896
▁نظام	-9.09039
▁جنگی	-9.09041
▁گپء	-9.09165
▁باید	-9.09576
al	-9.09617
▁عليه	-9.09669
▁جندء	-9.097
▁ی	-9.09855
▁دری	-9.09869
▁چینل	-9.09906
▁رستگ	-9.10058
▁صل	-9.10127
▁سلامتی	-9.1015
▁میار	-9.10159
▁غلام	-9.10163
▁پیدا	-9.10826
▁وانوک	-9.10884
▁ناز	-9.11019
▁حمل	-9.11065
ما	-9.11158
▁وڑے	-9.11257
▁حسین	-9.11324
▁باور	-9.11388
▁نندوک	-9.11548
▁بستار	-9.1203
▁ال	-9.12099
▁کرا	-9.12374
▁حسن	-9.12479
▁دراجیں	-9.12499
▁بادشاہ	-9.12534
▁نشت	-9.12542
▁مکن	-9.12962
▁دراہ	-9.12994
▁ازاتی	-9.13141
▁دات۔	-9.13278
▁داری	-9.13713
▁ایان	-9.13755
▁سیر	-9.13817
▁وھدء	-9.1416
▁مں	-9.14329
▁نادراہ	-9.14343
▁وتارا	-9.14897
▁بیرم	-9.15128
▁شئیر	-9.15151
▁ھمراہ	-9.15201
▁جاھے	-9.15491
▁رامین	-9.15609
▁ترندیں	-9.15669
▁تریں	-9.15709
▁ہزار	-9.15735
▁بنداتی	-9.15764
▁موسم	-9.15784
بے	-9.15871
▁لوٹاں	-9.15905
▁ناکو	-9.16103
▁سکیں	-9.16396
▁نیکہ	-9.16434
▁زبانء	-9.16471
▁دریا	-9.16624
▁س	-9.16663
▁ھپت	-9.16688
▁داتگ۔	-9.1669
▁ڈیھ	-9.1678
▁are	-9.16805
▁کارست	-9.1691
▁چاکر	-9.17056
▁درچک	-9.17059
▁انگریزی	-9.17126
▁تیاب	-9.17155
...!	-9.17159
▁منیر	-9.17206
▁پوجی	-9.17243
▁گوشیت	-9.17414
▁بونگ	-9.17638
▁امریکہ	-9.17693
▁عکس	-9.17713
▁کوٹی	-9.17775
▁اثر	-9.17777
▁اکس	-9.17885
▁٭	-9.18285
▁A	-9.18317
▁19	-9.18591
▁کتہ	-9.18666
▁ہ	-9.1867
▁پیما	-9.18792
▁لھتیں	-9.18907
▁پرچے	-9.18911
▁سوار	-9.18957
▁یونیورسٹی	-9.19051
نی	-9.19237
▁اجو	-9.19314
▁یار	-9.19398
▁پسہ	-9.19409
▁اپنے	-9.1963
▁ساز	-9.19782
▁بیگاہ	-9.20003
▁مھمد	-9.20028
▁منزل	-9.20114
▁ریاستی	-9.20217
▁بندگ	-9.20318
▁شک	-9.20697
▁سندھ	-9.2085
▁شمبے	-9.20995
▁بنکی	-9.21056
▁کرت۔	-9.21061
▁اندر	-9.21157
▁داتگیں	-9.21193
▁ندارگ	-9.21547
▁اسکول	-9.21561
▁چین	-9.21624
er	-9.21655
یت	-9.21729
▁بارو	-9.21815
▁جاھاں	-9.21929
▁نادراھی	-9.22071
▁مبارک	-9.22193
▁تھنا	-9.2222
▁ایشرا	-9.22231
▁مالی	-9.22287
▁دز	-9.22396
▁دیمروی	-9.22568
▁اں۔	-9.2271
▁تاب	-9.22769
▁دستء	-9.22937
▁کچے	-9.23009
▁ناول	-9.23051
▁جہان	-9.23078
▁منگ	-9.2332
▁بدلی	-9.2349
▁رنگء	-9.23559
▁مردے	-9.2356
▁گوشاں	-9.23595
▁ڈگار	-9.23612
▁اوشتاتگ	-9.23696
▁بندیگ	-9.23723
▁دستاں	-9.23762
▁اول	-9.238
▁ودار	-9.23802
▁گام	-9.23855
سر	-9.23943
▁راستیں	-9.23979
▁فیصلہ	-9.24078
▁بنگپ	-9.24082
▁شائر	-9.24097
▁ای	-9.24556
▁پیمیں	-9.24581
▁درچ	-9.24587
▁جنز	-9.24618
?‘‘	-9.24632
▁تکنیک	-9.24769
▁بدن	-9.24805
▁نور	-9.24912
▁مراگش	-9.24916
▁گیشتریں	-9.24944
▁کاینت	-9.25073
▁شاد	-9.25091
▁اڈ	-9.25108
د	-9.25296
▁نیشنل	-9.25438
▁قومی	-9.25864
▁ھو	-9.25878
▁کلیں	-9.25977
▁بلوچستانء	-9.26011
▁اکبر	-9.26254
▁تیار	-9.26275
▁کاروبار	-9.26466
n	-9.26607
▁گامگیج	-9.26739
▁پاک	-9.2674
▁بکش	-9.26746
▁انچوش	-9.26896
▁درشانی	-9.27003
▁نصیر	-9.27028
▁جوان	-9.27059
▁فکر	-9.27079
▁البت	-9.27202
▁جواب	-9.27425
▁اگر	-9.27636
▁رھبند	-9.28117
▁گشئے	-9.28138
▁ببیت	-9.28145
▁داب	-9.28148
▁نمدی	-9.28234
▁وجود	-9.2831
▁ارس	-9.28391
▁سوج	-9.28572
▁بابتء	-9.28626
▁شمارا	-9.28763
▁بالی	-9.28769
▁خدا	-9.28855
▁their	-9.29316
▁ھون	-9.29563
▁لہتے	-9.29765
th	-9.29776
▁زرد	-9.29804
▁بوہگ	-9.29994
▁دئے	-9.30086
▁سائنس	-9.30114
▁پدء	-9.30136
▁برو	-9.30399
▁شاری	-9.30627
▁مئی	-9.30771
▁بست	-9.30807
▁but	-9.30836
▁وائس	-9.30853
▁اصل	-9.30854
▁روچء	-9.30992
▁خیال	-9.31057
▁صورت	-9.31147
▁نو	-9.31269
▁کشک	-9.31442
▁وس	-9.31582
▁not	-9.31595
‘‘(	-9.31605
▁اب	-9.31647
بلوچ	-9.31686
▁عزت	-9.31831
▁کلب	-9.31865
▁گنگ	-9.31888
▁مول	-9.31962
▁کوھنیں	-9.31979
▁تنے	-9.32069
▁مستونگ	-9.32137
▁مولانا	-9.32449
▁بہا	-9.32473
▁......	-9.32503
▁لوگء	-9.32524
▁چیزانی	-9.32556
▁first	-9.32674
▁ئیگ	-9.32679
▁درشانے	-9.32757
▁کریم	-9.32915
▁شہید	-9.32928
▁رسیت	-9.3322
▁تالان	-9.33261
▁نماز	-9.33453
▁ھکانی	-9.33553
▁اشاں	-9.33558
▁پڑ	-9.3361
▁دپتر	-9.33701
▁نیست۔	-9.33871
▁پرچاکہ	-9.34268
▁پرس	-9.34641
▁سہب	-9.34899
▁نامداریں	-9.34975
a	-9.35051
▁پاس	-9.35378
▁ماس	-9.3542
▁عطا	-9.35469
ies	-9.3547
▁مارچ	-9.35483
▁ارواہ	-9.35508
▁باندا	-9.35582
▁بامن	-9.35763
▁ویل	-9.35918
▁ایپ	-9.3607
▁زانتکار	-9.36232
▁گوستگ	-9.36261
▁جانی	-9.36263
▁دورء	-9.36282
▁بوتاں	-9.3653
▁چوکہ	-9.36638
ئیں	-9.36658
ب	-9.36685
▁بگیر	-9.36906
▁نبیسگ	-9.36925
▁امان	-9.36959
▁وی	-9.37029
▁شے	-9.37096
▁امیدگس	-9.37234
▁ھمراھی	-9.374
▁سرمایہ	-9.37558
▁وان	-9.3774
▁کئی	-9.37794
▁پیسلہ	-9.37877
▁کیس	-9.38139
▁کمیں	-9.38161
▁ارام	-9.3825
▁ستک	-9.38263
▁چٹ	-9.38356
▁ازاد	-9.38381
▁ماہی	-9.3839
▁چھاپ	-9.38531
▁جھان	-9.38733
▁سزا	-9.38785
▁لیب	-9.38839
▁ادبی	-9.39112
▁باندات	-9.39124
▁...	-9.39329
▁چاریں	-9.39418
▁ساچشت	-9.39478
▁بوتنت	-9.39493
▁رپورٹ	-9.39495
▁وہدء	-9.39507
▁انکہ	-9.3951
▁ھب	-9.39545
▁or	-9.39598
also	-9.39602
▁اھوالانی	-9.39672
▁ونتگ	-9.39814
▁سھب	-9.39884
▁ترقی	-9.40041
▁تها	-9.40243
تہ	-9.40278
▁تمپ	-9.4028
▁عربی	-9.40462
▁روزگار	-9.40511
▁ھرچ	-9.40544
▁نامی	-9.40656
▁مالیات	-9.40681
▁انکس	-9.40687
▁کارندہ	-9.4077
▁گلام	-9.40799
▁اھتگ	-9.40849
▁its	-9.4086
▁یاد	-9.41167
▁ردوم	-9.41468
▁ہلاس	-9.41521
▁ائے	-9.41531
▁دروگ	-9.41643
▁مدت	-9.41755
▁ربیدگ	-9.41845
▁her	-9.41985
▁بارت	-9.42051
▁تنی	-9.421
▁دراہیں	-9.42329
▁بچک	-9.4245
▁جس	-9.4272
▁سالی	-9.42866
▁از	-9.4301
▁کپگ	-9.43037
▁وارتگ	-9.43221
▁زیر	-9.43437
▁جوانی	-9.43536
▁اپنی	-9.43601
▁پرچہ	-9.43622
یء	-9.4369
▁دیمتر	-9.43712
▁وھداں	-9.43799
▁کمو	-9.44038
▁بیگواہی	-9.44192
▁جاورانی	-9.44218
▁زانتگ	-9.4431
▁درمان	-9.44411
▁گیشی	-9.44437
بلوچستان	-9.44546
▁ندر	-9.4465
▁ذات	-9.44681
▁ھک	-9.44686
▁پھر	-9.4476
▁بنگیج	-9.44824
▁رھشون	-9.44845
▁کردار	-9.44957
▁میل	-9.44967
▁جاوراں	-9.44986
▁با	-9.45022
▁غم	-9.45111
▁نسل	-9.4536
▁رست	-9.45638
▁گراں	-9.4571
▁بولان	-9.46027
▁چیزاں	-9.46445
▁اواران	-9.46493
▁دشت	-9.46625
▁زبانانی	-9.46648
es	-9.46792
▁رواں	-9.4705
▁have	-9.47191
▁ساھت	-9.47203
غ	-9.4744
▁طرح	-9.47934
▁مسنگ	-9.4806
▁شعری	-9.48163
▁سازی	-9.4825
▁ماما	-9.48299
▁مثال	-9.483
▁نودربرانی	-9.4831
▁لیکن	-9.4837
▁زلم	-9.48393
▁دیاں	-9.485
▁فار	-9.48523
▁زہگ	-9.48787
▁ہور	-9.48816
▁نمبر	-9.4889
▁زاھدان	-9.48906
ےء	-9.49009
▁ورنایے	-9.49011
▁رندا	-9.49098
▁گرم	-9.49141
▁اسراتی	-9.49258
نا	-9.49259
▁نزور	-9.49507
ھمے	-9.49563
▁بنشون	-9.49755
▁اگں	-9.49757
▁بالاد	-9.49823
▁اگست	-9.49839
▁one	-9.49886
▁چراگ	-9.49982
▁ہمراہ	-9.50027
▁has	-9.50043
▁کچک	-9.50158
▁سلام	-9.50219
▁He	-9.50461
▁شکار	-9.50483
▁سند	-9.50545
▁کمی	-9.5059
▁گیس	-9.50609
▁ارشانی	-9.50833
▁تلگرام	-9.50842
▁جوڈ	-9.50907
▁نئے	-9.51115
▁بہرے	-9.5117
▁مڈی	-9.51294
▁ایندگہ	-9.51296
▁مشکل	-9.51368
▁نواب	-9.5137
st	-9.5148
▁گپانی	-9.51668
▁چوکی	-9.51689
▁ڈیرہ	-9.51768
▁نز	-9.51796
▁نھ	-9.51827
▁یکشل	-9.51894
▁باروء	-9.5191
▁۔اے	-9.51943
▁پمشکا	-9.52041
کی	-9.52048
▁ور	-9.52102
▁دیمی	-9.52203
۔۔۔۔	-9.52254
▁کلدار	-9.52415
▁جنجال	-9.52741
نے	-9.52871
▁زندمان	-9.52882
▁عبداللہ	-9.52909
ار	-9.53019
▁been	-9.53085
▁روانک	-9.53132
▁اھوالکار	-9.53142
▁تباہ	-9.53161
▁ھرکس	-9.53249
▁ھواریں	-9.53322
▁تامر	-9.53403
▁اسے	-9.53558
▁two	-9.53568
▁چنچو	-9.53712
واجہ	-9.53781
▁زوریں	-9.53828
▁بلوچاں	-9.54111
▁گڈ	-9.54124
▁ارا	-9.54196
ێن	-9.54287
▁رندء	-9.54316
▁who	-9.54417
▁سیل	-9.54426
▁جنگل	-9.54633
▁جنرل	-9.54636
▁کنئے	-9.54692
▁ساھگ	-9.54703
▁اوتی	-9.54717
▁نظر	-9.54758
▁پرائی	-9.54816
▁امر	-9.54879
▁گورء	-9.55007
▁رسانک	-9.55089
▁بلکہ	-9.55101
▁چنت	-9.55115
▁وڑء	-9.5512
▁جیڑگ	-9.55232
▁بزان	-9.55263
▁سرجمی	-9.55309
▁گشنت	-9.55431
بی	-9.5555
▁لئے	-9.55678
▁درسیں	-9.55711
▁جھانی	-9.55764
▁ارمان	-9.55926
▁ترند	-9.56
▁منوک	-9.5621
▁عشق	-9.56322
▁دوشی	-9.56531
▁چاگردء	-9.56714
▁گد	-9.56821
▁رندے	-9.56907
▁لاچار	-9.56919
▁کسانی	-9.57
▁پاھو	-9.5711
▁دگه	-9.57347
▁گنداں	-9.57552
▁مر	-9.57746
▁برزی	-9.57772
▁گنوک	-9.57918
▁عرب	-9.57942
▁نصیب	-9.57989
▁سالاں	-9.58007
▁سری	-9.58042
▁پرسنز	-9.58052
▁تی	-9.58275
▁شور	-9.58378
را	-9.58409
▁پری	-9.58412
▁دزبندی	-9.58419
▁واک	-9.58495
تئی	-9.58537
▁مجید	-9.58631
▁this	-9.58632
▁نویس	-9.58672
▁هچ	-9.5868
▁I	-9.58705
▁جیڑ	-9.58729
▁رواج	-9.58749
▁لک	-9.5875
▁ب	-9.58754
▁چوشکہ	-9.58776
▁اڑ	-9.58854
▁گوھرام	-9.58984
▁بیار	-9.59011
▁منصوبہ	-9.59295
▁پنجاہ	-9.5934
▁چیء	-9.59399
▁رہبند	-9.59433
کے	-9.59606
▁زال	-9.59743
▁پریشان	-9.59752
▁وطن	-9.59771
▁دکان	-9.59787
▁پتر	-9.59855
▁عقل	-9.59954
▁چرے	-9.59987
▁بوگء	-9.60181
▁چگل	-9.60183
▁بالاچ	-9.60325
▁بئیت	-9.60373
▁مرک	-9.60411
▁ابادی	-9.60448
▁سگ	-9.60504
▁تنگ	-9.6055
▁گو	-9.60565
▁جنگء	-9.60597
▁سور	-9.60606
▁مرید	-9.60627
▁مینگل	-9.60763
▁دشتی	-9.60793
▁زہر	-9.60932
▁سامان	-9.60981
▁پمن	-9.61096
▁نامء	-9.61146
▁سکین	-9.61219
▁ھنچش	-9.61245
▁مہمد	-9.61318
▁تہر	-9.61322
▁نندگ	-9.6137
▁بارہ	-9.6143
▁سرمچار	-9.61547
▁دوھزار	-9.61807
اگاں	-9.61842
▁اپریشن	-9.61966
▁زرمبشت	-9.61985
▁ذمہ	-9.62039
▁مزار	-9.62046
▁کمشنر	-9.62069
▁مہمان	-9.62338
▁شرتر	-9.6244
▁کارمنداں	-9.62444
▁نومبر	-9.62554
▁کوئی	-9.62649
▁مست	-9.62652
▁زی	-9.62739
▁بشیر	-9.62819
▁ساتھ	-9.62971
▁روس	-9.63174
▁اوشتوک	-9.63282
▁year	-9.63318
▁رب	-9.63435
▁نشہ	-9.63585
▁دان	-9.63696
▁سہ	-9.63771
▁جم	-9.63876
▁رژن	-9.63905
▁سندھی	-9.63933
▁اخر	-9.64094
▁رحیم	-9.64147
▁ؤ	-9.64153
▁سنگتانی	-9.64186
▁چیدگ	-9.64233
..!	-9.64391
▁گوزگ	-9.64477
▁پاداں	-9.64529
▁گرانیں	-9.64558
▁نیمگے	-9.64703
▁ایمان	-9.64718
▁پوہ	-9.64875
▁دعا	-9.64925
▁امام	-9.64982
▁حاصل	-9.64982
▁تیوگیں	-9.65189
▁جا	-9.65254
▁براں	-9.65293
▁اوانی	-9.65361
▁لبزانی	-9.65445
یے	-9.65473
▁سوت	-9.65519
نت۔	-9.65655
▁شرپ	-9.65678
▁شکل	-9.65715
▁کرونا	-9.65762
▁کاروائی	-9.65843
▁زبانے	-9.65958
▁ہوا	-9.65992
▁ٹکر	-9.66025
▁قدیر	-9.66149
▁پمیشکہ	-9.66151
▁کتابانی	-9.66194
▁ھاشمی	-9.66199
▁کتابے	-9.6626
▁کاگد	-9.66381
▁منند	-9.66393
▁ایمنی	-9.66573
▁اجازت	-9.66576
▁غیر	-9.66598
▁چاہ	-9.66644
▁مدامی	-9.66665
▁کوہنیں	-9.6676
▁روچی	-9.66845
▁ازمی	-9.6685
▁شام	-9.66925
▁معاشی	-9.66995
▁روڈ	-9.67078
▁ھزدار	-9.67138
▁زھر	-9.6716
▁کالج	-9.67254
▁توکا	-9.67469
▁داستان	-9.67491
▁نوشکی	-9.67757
▁ماڑی	-9.67833
▁گیدی	-9.67857
▁مستر	-9.67885
▁یاکہ	-9.67926
▁انگور	-9.67947
▁نیاد	-9.67981
▁شان	-9.68007
ری	-9.68018
▁پیمء	-9.68238
▁ڈنی	-9.68253
▁ترک	-9.6831
▁خبر	-9.68416
گی	-9.68481
▁گوازینگ	-9.68495
ئی	-9.68611
ج	-9.68665
▁گوناپ	-9.68789
▁بت	-9.68815
▁کنڈ	-9.68842
▁تن	-9.68888
▁اوشتات	-9.6893
▁شمے	-9.68941
▁تیز	-9.69055
▁صدر	-9.69071
▁پسند	-9.6916
گیں	-9.69254
▁موجود	-9.69314
▁اشوب	-9.69714
▁دوا	-9.6973
▁چکاس	-9.69787
▁کنوکاں	-9.698
▁دسمبر	-9.69805
▁شکر	-9.69825
▁دیمپان	-9.69833
▁بزگ	-9.6998
▁دیوال	-9.69988
▁تل	-9.7001
o	-9.70145
▁مزنین	-9.70194
اناں	-9.70195
▁انوں	-9.70251
▁والا	-9.70337
▁درائینت	-9.70438
▁کنائینگ	-9.70458
▁امید	-9.7046
▁حد	-9.70498
▁لیویز	-9.70558
وکیں	-9.70568
▁ترانگ	-9.70613
▁جنوری	-9.70626
▁ممکن	-9.70751
دو	-9.7082
▁نشتگیں	-9.70835
▁دزگیری	-9.70978
▁نود	-9.71023
▁ورنائیں	-9.71025
▁زبانا	-9.71078
▁کوکار	-9.71123
▁شراب	-9.71336
▁سلیم	-9.7145
▁واہگ	-9.71516
▁شپء	-9.71826
▁@,@	-9.71876
▁لال	-9.71977
کار	-9.72052
▁فرنٹ	-9.72093
تی	-9.72103
▁اگن	-9.72145
▁کمال	-9.72164
▁جام	-9.72175
ھم	-9.7219
▁ربیت	-9.72287
▁after	-9.72316
▁بیگواھی	-9.72333
▁ادگہ	-9.72353
▁ایچ	-9.72354
▁نودربراں	-9.72359
▁طاقت	-9.7238
▁بید	-9.72444
▁گوشان	-9.72453
▁کنٹرول	-9.726
▁پسنی	-9.72716
▁قلات	-9.72717
▁بتل	-9.72726
▁2	-9.7276
▁شریف	-9.72806
▁ماتی	-9.72853
▁ازمانکانی	-9.729
▁شوہاز	-9.73069
▁دروگیں	-9.73191
▁جب	-9.73243
▁دروت	-9.73376
▁گلزمین	-9.73422
تگ	-9.73473
▁امیر	-9.73473
▁مذہب	-9.73486
▁1	-9.7349
▁یکجھتی	-9.7359
▁گرد	-9.73822
l	-9.73864
▁بنجاہی	-9.73911
▁فوج	-9.73975
▁بان	-9.74116
▁دیمپانی	-9.74186
▁اشیء	-9.74199
▁کپتگیں	-9.74283
▁دؤر	-9.74347
▁ھلک	-9.74441
▁گیری	-9.74462
▁گناہ	-9.74491
▁اوگانستان	-9.74495
▁ادارھانی	-9.74507
▁عمران	-9.74565
▁اورتگ	-9.74858
▁ٹپ	-9.74998
▁تپاک	-9.75022
▁سیت	-9.75057
▁قران	-9.75265
▁پمشکہ	-9.75287
▁میڈیا	-9.75338
▁تھی	-9.7542
▁بھا	-9.75576
▁اواز	-9.75768
▁وائی	-9.75787
▁رکینگ	-9.75855
▁اینچو	-9.75954
▁برکت	-9.7601
▁زیبائی	-9.7612
▁سبز	-9.76124
▁سروکی	-9.76283
▁تیل	-9.76308
▁کرنے	-9.76321
▁ھاسیں	-9.7633
▁ونت	-9.7657
▁ل	-9.76572
▁بنداں	-9.76649
▁چکانی	-9.76738
▁شد	-9.76787
▁اھوال	-9.76789
▁شعرء	-9.76837
▁ردی	-9.76854
▁It	-9.76913
▁ڈولیں	-9.77081
▁نشانی	-9.77229
▁اسلم	-9.77235
ال	-9.7734
▁اکتوبر	-9.77417
▁داریں	-9.77572
▁الس	-9.77585
▁چکاں	-9.77616
▁جھل	-9.77726
▁زوراکیانی	-9.7778
▁('	-9.77816
▁نپ	-9.78069
▁ترندی	-9.78152
▁ہال	-9.78197
▁جتاجتائیں	-9.78237
▁ہوئے	-9.78335
▁بعد	-9.78506
▁تاج	-9.78645
▁۔۔	-9.788
▁ایوکء	-9.78865
ماں	-9.78899
▁حاجی	-9.78945
▁شون	-9.79025
▁تام	-9.79046
انت۔	-9.79102
▁عہد	-9.79202
▁تئو	-9.79233
▁گری	-9.79275
ھ	-9.79407
مئے	-9.79437
▁other	-9.79531
▁متلب	-9.7954
▁time	-9.79572
▁رگ	-9.79833
▁حضرت	-9.79847
ہمے	-9.79898
▁چنکس	-9.79925
▁وا	-9.7993
▁بہت	-9.79984
▁واقعہ	-9.80005
▁چوناھا	-9.80146
▁جنیں	-9.8024
▁بڈ	-9.80257
▁اگہ	-9.80278
▁دزکپتگ	-9.80328
▁برجاھیں	-9.80348
▁گچکی	-9.805
▁گول	-9.80528
▁ھنکین	-9.8056
▁بود	-9.80586
▁انت۔۔۔	-9.80659
▁انگریز	-9.80753
▁بیم	-9.80768
▁ش	-9.80786
▁هست	-9.80894
▁پنام	-9.80898
▁چیاکہ	-9.80925
▁مناں	-9.80937
▁کرار	-9.80948
▁لشکری	-9.81042
▁into	-9.8137
▁ہرکس	-9.81381
▁راجے	-9.81463
▁نوشتہ	-9.8158
▁کننت۔	-9.81591
▁ویبجاہ	-9.81635
▁چاراں	-9.81669
▁کج	-9.8174
▁ایرانء	-9.81796
▁اندرء	-9.81829
▁مرچاں	-9.8189
▁بدیں	-9.81907
▁اتکگیں	-9.82117
پ	-9.82342
▁سرڈگار	-9.82416
▁زندان	-9.82421
ٹ	-9.8247
▁لوز	-9.82516
▁دشتیاری	-9.82601
۔۔	-9.82631
▁رسم	-9.82716
▁کارمرد	-9.82729
▁ایوکیں	-9.82745
▁بله	-9.82793
▁کشیت	-9.82821
▁پانزدہ	-9.82967
▁مارگ	-9.8305
▁کناں۔	-9.83063
▁زیارت	-9.831
▁نزوری	-9.83103
بزاں	-9.83151
▁دپء	-9.83156
▁عالم	-9.83164
▁شھدگ	-9.83168
▁روچانی	-9.83231
▁کنوکانی	-9.83365
▁نزیکی	-9.83388
▁دامن	-9.83431
▁واجه	-9.8345
▁گندیت	-9.8347
▁اسمبلی	-9.83494
▁بیرانی	-9.83557
▁چد	-9.83571
▁ہوں	-9.83616
اس	-9.83619
▁انہی	-9.83664
▁نیک	-9.83726
▁کازی	-9.8375
▁کمپنی	-9.83812
▁داروکیں	-9.84043
'	-9.84176
▁واکدار	-9.84468
▁کشار	-9.84533
ون	-9.84533
▁مردمان	-9.8457
▁ج	-9.84616
▁زندے	-9.84671
▁فروری	-9.8474
▁بوتہ	-9.84755
۔اے	-9.84974
▁حقیقت	-9.8498
▁اتاں۔	-9.8511
▁صد	-9.85137
▁استان	-9.8517
▁مھکم	-9.85203
▁جولائی	-9.85226
▁راجانی	-9.85251
▁سول	-9.85264
دل	-9.85274
▁کد	-9.854
▁ہرچی	-9.85518
دی	-9.85538
▁پرے	-9.85599
▁انگر	-9.85609
▁گہار	-9.85614
▁سنگر	-9.85669
▁مک	-9.85687
▁وانگء	-9.85692
▁سائنسی	-9.85693
▁ہشت	-9.85697
ائیء	-9.85714
▁وہدیکہ	-9.85725
▁تہاری	-9.85737
▁18	-9.85739
▁اوپار	-9.85744
▁F	-9.8585
▁نرم	-9.85871
▁S	-9.85901
▁ٹیم	-9.85928
▁واحد	-9.85931
▁صنعت	-9.85934
▁سہر	-9.85989
▁ھیل	-9.86021
▁پانگس	-9.86034
▁would	-9.86061
▁اوست	-9.86095
▁بھتام	-9.86127
▁پروفیسر	-9.86128
▁انساپ	-9.86181
▁براس	-9.86204
چو	-9.86241
▁بلاھیں	-9.86249
▁دشمن	-9.86287
▁پاکستانء	-9.86409
▁کرنا	-9.86414
▁بانگ	-9.86561
چے	-9.86593
▁اپریل	-9.86633
▁لگت	-9.86736
▁مسیت	-9.86774
▁دمانے	-9.8688
▁یوسف	-9.86944
▁لوٹوکیں	-9.86962
▁جل	-9.8704
▁more	-9.871
▁کرن	-9.87186
▁گدان	-9.87194
▁شبین	-9.87235
▁ستمبر	-9.87318
▁تھے	-9.87355
▁دستی	-9.8747
▁پ	-9.87474
▁over	-9.87569
▁ہاترا	-9.87627
▁چنڈ	-9.87729
▁حکم	-9.87758
▁کیت۔	-9.8776
▁ردانک	-9.87775
▁علاقہ	-9.87798
▁پالیسیانی	-9.87809
▁رسگ	-9.87851
▁کلوہ	-9.87964
▁برجا	-9.88075
▁ملکاں	-9.88093
▁گچینی	-9.88231
▁پیک	-9.88246
▁سبک	-9.88295
▁مرچیگیں	-9.88315
▁مرزی	-9.8832
▁شمار	-9.88356
▁یکبرے	-9.88449
▁نیٹورک	-9.88485
دومی	-9.88486
▁لڈ	-9.88532
▁قبیلہ	-9.88554
وت	-9.88633
▁جنکے	-9.88707
▁گیوار	-9.88788
▁گیا	-9.88884
▁انت۔اے	-9.8889
▁حب	-9.88905
▁لبزانکء	-9.88947
تاکدیم	-9.89031
می	-9.89075
▁تحریک	-9.89105
▁دوازدہ	-9.89196
▁کمیشن	-9.89351
▁افغانستان	-9.89424
▁ڈک	-9.89481
▁اسمان	-9.89492
▁کندگ	-9.89748
▁مجلس	-9.89795
▁دینت	-9.89828
▁ھاترء	-9.89839
▁بندش	-9.89847
▁انسانء	-9.89933
mber	-9.90025
▁بدئے	-9.90069
▁وانگی	-9.9016
▁خاصیں	-9.90179
▁بستگیں	-9.90235
▁سکی	-9.90279
▁نگد	-9.90309
ہم	-9.90361
گڑا	-9.9062
▁ھنچیں	-9.90627
▁گلانی	-9.90879
▁لکھ	-9.90931
▁مردء	-9.9099
▁لڑ	-9.90994
▁اشتر	-9.91025
!‘‘	-9.91054
▁سالے	-9.91057
▁3	-9.91115
▁کاریت	-9.91159
▁فوجی	-9.91195
▁ادینک	-9.91278
▁شعرانی	-9.91296
▁ہونا	-9.91362
▁چیئرمین	-9.91472
▁سیمسر	-9.91473
in	-9.91521
▁دوستیں	-9.91584
▁ادار	-9.91595
▁رنج	-9.91648
▁شاعرے	-9.91672
r	-9.91721
▁B	-9.91741
▁طور	-9.9175
on	-9.91808
▁سسا	-9.91842
▁اسلامی	-9.91873
ڈ	-9.91961
▁نئیت	-9.91961
▁موہ	-9.91964
▁زالبولانی	-9.91982
▁ز	-9.92113
▁دائم	-9.92142
▁مومن	-9.92197
▁بک	-9.92225
▁سرکماش	-9.92261
یہ	-9.92301
▁نزینک	-9.92313
▁تاریخی	-9.9242
▁چکے	-9.9244
▁نیوز	-9.92441
▁دگر	-9.92483
▁ماھتاک	-9.92499
▁تواری	-9.9254
▁کارگس	-9.92584
▁سمی	-9.92609
▁برزیں	-9.9273
▁گونڈیں	-9.92745
▁all	-9.93026
▁پیریں	-9.93062
▁مرز	-9.93084
▁نگ	-9.93094
▁انصاف	-9.93147
▁پادانی	-9.93386
▁خیر	-9.93441
▁گستا	-9.9354
▁استیں	-9.93623
▁سنگتے	-9.93623
▁ہرچ	-9.93717
▁دچار	-9.93721
▁نویسگ	-9.93818
▁ساچشتی	-9.93906
▁مئیں	-9.9391
▁خاص	-9.93944
▁ھمود	-9.94019
نوکیں	-9.94038
▁پژدر	-9.9404
نوں	-9.94181
▁گندگء	-9.94326
▁نادراہی	-9.94425
▁بگ	-9.94452
▁ہکانی	-9.94461
▁ریل	-9.94476
▁رؤگ	-9.94481
▁قدر	-9.94494
▁گالوار	-9.94528
▁ساجد	-9.94546
▁کنیں۔	-9.94606
▁یورپ	-9.94739
▁جیئند	-9.94852
▁اسپ	-9.94883
▁خود	-9.94994
▁لیے	-9.95113
▁ملکء	-9.95118
▁ساپ	-9.9514
▁اشکنگ	-9.95206
▁تھا۔	-9.95219
▁وتن	-9.95252
▁پارسی	-9.95306
▁بینک	-9.95351
▁جمالدینی	-9.95368
▁گیپت	-9.9545
▁بچکند	-9.95525
▁پہک	-9.9559
▁جاہے	-9.95708
▁اسکواڈ	-9.95718
▁حیران	-9.95871
▁فائدہ	-9.95937
▁۔۔۔۔	-9.95947
▁ماسٹر	-9.95963
▁چہر	-9.95968
▁راز	-9.96015
▁چارت	-9.96105
▁مل	-9.9626
▁بدی	-9.96396
▁بلک	-9.96406
▁ایا	-9.9643
ion	-9.96471
بیت	-9.96507
▁یو	-9.96515
▁گشاں	-9.96634
▁سان	-9.96686
▁توامیں	-9.96901
▁کچھ	-9.96976
▁براہ	-9.97011
▁بلیدہ	-9.97038
▁مطلب	-9.97087
▁اناں	-9.97112
▁بروت	-9.97134
▁واست	-9.97193
▁ھیر	-9.97247
▁ھمگرنچ	-9.97262
▁ماہتاک	-9.97304
▁یازدہ	-9.9737
▁چارمی	-9.974
▁پکار	-9.97482
▁معلوم	-9.97498
▁نزاناں	-9.97517
▁٭٭٭	-9.97603
▁زئی	-9.97623
▁دیوانے	-9.97656
▁سا	-9.9767
▁اسپیت	-9.97675
▁سپت	-9.97715
▁پاکیں	-9.97806
▁اتیں	-9.9783
▁زمانگء	-9.97844
▁اؤرتگ	-9.97919
▁نزانت	-9.97974
تر	-9.97988
▁واھند	-9.98008
▁پلہ	-9.98046
▁T	-9.98094
▁امن	-9.98203
▁نادراھجاہ	-9.9822
▁she	-9.98254
▁شئے	-9.983
▁ڈپٹی	-9.98322
▁اروس	-9.98345
▁ملکانی	-9.98355
▁رسانکدراں	-9.98378
▁سب	-9.98396
▁مردین	-9.98416
▁دوبر	-9.98629
▁کمالان	-9.98692
▁اسرائیل	-9.98697
▁مہناز	-9.98718
▁بگش	-9.98732
▁نقصان	-9.98769
▁اتگ۔	-9.98811
یناں	-9.98828
▁ناماں	-9.98906
▁کرتے	-9.98959
▁کوشست	-9.98995
▁زیان	-9.99016
▁بگوش	-9.99023
▁ھوش	-9.99056
▁گنج	-9.9908
▁when	-9.99089
▁اورت	-9.99192
▁گا	-9.99454
▁غزل	-9.99484
▁موبائل	-9.99503
▁ھراب	-9.9955
▁گندئے	-9.9958
se	-9.99583
▁چینی	-9.99698
یاں	-9.99757
▁مسلم	-9.99847
ع	-9.99852
▁جاہاں	-9.99862
▁پراہ	-9.99874
داں	-9.99925
▁بیر	-9.99929
▁بام	-9.99995
▁کانود	-10.0005
▁چارات	-10.0025
▁دگنیا	-10.0028
▁شیخ	-10.0049
▁بوگی	-10.005
▁گریوگ	-10.005
وک	-10.0052
▁لا	-10.0056
▁پیسرا	-10.0069
دیم	-10.0075
اپ	-10.0086
▁وقت	-10.009
▁راہء	-10.0104
▁سیاھیں	-10.0105
▁یکجہتی	-10.011
▁دروشمے	-10.0113
▁دستیگ	-10.0114
▁چادر	-10.0119
▁ہوٹل	-10.0119
▁ناصر	-10.0119
▁بور	-10.0122
▁مذہبی	-10.0123
▁حصہ	-10.0131
▁مردمء	-10.0139
▁ارب	-10.014
▁پھل	-10.0142
▁us	-10.0149
▁up	-10.0157
▁دراتک	-10.016
▁کند	-10.0166
▁لوٹت	-10.0169
▁ئا	-10.0173
▁وانینگ	-10.0178
▁گوما	-10.0188
▁الی	-10.019
▁ورناہ	-10.0197
▁گلاں	-10.0199
▁ہبر	-10.0205
▁ہپت	-10.021
ف	-10.0213
▁نمیران	-10.0219
▁سوبین	-10.0222
▁زرتگ۔	-10.0234
▁دلجم	-10.0237
▁وڈ	-10.0241
ائیں	-10.0241
▁سوچ	-10.0254
▁انتزامیہ	-10.0256
▁most	-10.0265
▁راه	-10.0265
ھو	-10.0266
▁ایراد	-10.0266
ary	-10.0275
▁لوگانی	-10.028
▁کورٹ	-10.0283
▁صوبہ	-10.0292
▁عزیز	-10.03
▁زیادہ	-10.0311
▁جتگ۔	-10.0323
▁پنجاب	-10.0325
▁ھشک	-10.0328
▁سربوتگیں	-10.0329
during	-10.0331
▁جناں	-10.0338
▁وفا	-10.0338
▁سارتیں	-10.0342
▁چن	-10.0344
▁تچکیں	-10.0349
▁لوٹیت۔	-10.0357
▁دلجمی	-10.036
▁اتگیں	-10.036
در	-10.0364
▁گوم	-10.0369
▁بج	-10.0375
تا	-10.0377
▁سوشل	-10.0389
▁ریش	-10.04
▁وهد	-10.0405
▁سانگ	-10.0408
▁پوست	-10.0408
▁برابر	-10.0411
▁نیکراھی	-10.0438
▁ھچبر	-10.0442
▁نامہ	-10.0448
▁game	-10.0453
▁جندئیگ	-10.0461
▁دیگر	-10.0462
ce	-10.0462
▁ھواری	-10.0465
▁احت	-10.0465
▁بیگا	-10.0467
▁میری	-10.0471
▁سبزیں	-10.0472
▁only	-10.0474
▁ہنچو	-10.0483
▁زانتی	-10.0484
▁سگریٹ	-10.0487
▁زیرگ	-10.0488
▁سارت	-10.0492
▁مقصد	-10.0504
▁جتائی	-10.0505
▁ہاشمی	-10.0512
▁ٹیکنالوجی	-10.0512
▁گوشت۔	-10.0516
▁ہوتا	-10.052
▁اؤرت	-10.0524
▁کسمانک	-10.053
▁زندگیں	-10.0532
▁C	-10.0532
▁میڑ	-10.0536
▁شست	-10.0539
▁زباناں	-10.054
▁شرتریں	-10.0542
▁ندکار	-10.0565
▁بوہان	-10.0571
▁اسل	-10.0574
▁رہشون	-10.0579
▁پوشاک	-10.058
▁نیں	-10.0584
▁گشے	-10.0585
▁گالبند	-10.059
▁درک	-10.0611
▁امریکی	-10.0616
▁درس	-10.0619
▁روایت	-10.062
▁چ	-10.0637
▁کول	-10.0646
▁مسلمان	-10.0648
▁زیبا	-10.065
▁تنک	-10.0651
▁راھے	-10.0652
▁گاڑیانی	-10.0667
▁تاکت	-10.0675
▁اہوالکار	-10.0678
▁شرف	-10.0684
تگیں	-10.0684
پر	-10.0684
▁شتاں	-10.0689
▁وهدے	-10.0708
▁]	-10.0708
مہ	-10.0708
▁بنیادم	-10.0712
▁بلکن	-10.0716
▁زاھر	-10.0717
▁کام	-10.0726
▁ھاک	-10.0726
▁نکش	-10.073
▁کونسل	-10.0733
▁کاف	-10.0737
▁ڪہ	-10.0744
▁نیامء	-10.0745
▁داراں	-10.0752
▁جز	-10.076
▁پرک	-10.076
جی	-10.0765
▁ارت	-10.0768
▁نزیکیں	-10.0782
▁لین	-10.0792
▁جاه	-10.0792
▁پا	-10.0801
▁روگء	-10.0801
▁باری	-10.0803
▁لیگ	-10.0815
▁تمام	-10.0822
▁ھندی	-10.0833
▁ارشاں	-10.0834
▁بدار	-10.0837
▁صبا	-10.0838
▁جاہء	-10.0839
▁out	-10.0841
tween	-10.0841
▁گوئشت	-10.0845
▁نامے	-10.0849
▁وانگجاہ	-10.0854
▁دزی	-10.0865
▁دگے	-10.0865
▁ھمدا	-10.0875
▁سئیں	-10.0876
▁ھرچی	-10.0877
▁علمی	-10.088
▁نبیس	-10.0882
▁کتاباں	-10.0888
▁علیہ	-10.0892
▁گواہ	-10.0892
▁کلی	-10.0894
▁رضا	-10.0894
▁اسی	-10.0895
▁اوشت	-10.0899
▁حون	-10.0911
▁سوال	-10.0917
ے۔	-10.0917
about	-10.0918
▁مگر	-10.0921
▁ستا	-10.0938
▁کینگ	-10.0947
▁سالانی	-10.0948
▁ظاہر	-10.095
▁لیک	-10.0954
▁حاترا	-10.0955
▁نیت	-10.0958
▁دیدگ	-10.0959
▁علاج	-10.0965
▁نامدار	-10.0972
▁ھانی	-10.0977
▁سرمچارانی	-10.0985
▁him	-10.0987
▁ظلم	-10.099
▁سالء	-10.0996
▁سلامت	-10.1
▁باج	-10.1002
▁چند	-10.1002
▁حلک	-10.1014
▁پیشی	-10.1018
▁راجء	-10.102
▁ڈیک	-10.1024
▁کامیاب	-10.1027
▁یاں	-10.103
▁می	-10.1044
▁ایوب	-10.1045
▁پند	-10.1046
یانی	-10.1046
▁بلوچء	-10.1047
▁بکنت۔	-10.1047
کن	-10.1049
▁پرواز	-10.1049
▁نیکی	-10.105
▁بوھیر	-10.1059
!......	-10.106
▁کوپگ	-10.1061
▁نون	-10.1064
▁گوشئے	-10.1066
▁ساعت	-10.1076
▁چارگء	-10.1077
▁ذاتی	-10.1078
▁کلام	-10.1081
▁اھگ	-10.1097
▁ثابت	-10.1101
▁","	-10.1106
▁play	-10.1109
▁کپان	-10.1113
▁شپے	-10.1115
▁چاردہ	-10.1118
▁کشندہ	-10.1125
▁ادارہانی	-10.113
▁انگتہ	-10.1131
▁رؤت	-10.1136
▁محبت	-10.1142
پد	-10.1142
▁again	-10.1145
▁ھمائی	-10.1147
▁وکیل	-10.115
▁مشکے	-10.1152
▁ولی	-10.1154
▁بیوکیں	-10.1157
▁داریت۔	-10.1164
▁استمان	-10.1165
▁سلمان	-10.1171
▁پشتء	-10.1178
▁ادارھاں	-10.1179
▁پورا	-10.1187
▁دماغ	-10.119
▁رھادگ	-10.119
دار	-10.119
▁باگ	-10.1193
باز	-10.1193
▁three	-10.1195
▁پروشگ	-10.1207
▁نبی	-10.1207
▁ورنایانی	-10.1215
▁کبر	-10.1216
▁تچان	-10.1219
ish	-10.122
▁ضرورت	-10.1233
▁لبزانت	-10.1236
▁پالیسی	-10.1238
▁چیک	-10.1247
▁بران	-10.1256
▁باپاری	-10.1259
▁season	-10.1261
کا	-10.1268
▁گوز	-10.1269
▁زامران	-10.1271
▁عام	-10.1272
▁فضل	-10.1272
▁''	-10.1272
▁بکناں	-10.1273
سی	-10.1281
▁ادمین	-10.1287
▁فکشن	-10.1296
▁۔ائی	-10.1298
▁بلوچے	-10.13
▁گڈسر	-10.13
▁قول	-10.1306
▁سعید	-10.1307
او	-10.1312
▁کوٹ	-10.1319
▁دمک	-10.1322
▁m	-10.1332
▁اسپیتیں	-10.134
▁گشت۔	-10.1342
▁بگل	-10.1348
▁اؤکیں	-10.1353
▁پترت	-10.1359
▁انور	-10.1362
ق	-10.1376
▁وائرس	-10.1379
▁روش	-10.1388
▁ہوش	-10.1392
▁تجربہ	-10.1392
▁گیشینگ	-10.1392
▁تگ	-10.1395
▁5	-10.1396
▁سست	-10.1398
▁On	-10.14
▁دلبڈی	-10.1408
▁موکل	-10.1425
▁ڈیہہ	-10.1425
▁گوک	-10.1427
▁پونز	-10.143
▁بئیں	-10.143
▁بجٹ	-10.1431
▁المیں	-10.1432
...?	-10.1435
▁ہائی	-10.1438
▁قاسم	-10.1439
ھما	-10.1443
▁کردے	-10.1446
▁پیچ	-10.1455
▁تعلیم	-10.1458
▁سمجھ	-10.146
▁than	-10.1465
▁زرء	-10.1472
▁زار	-10.1477
▁قرار	-10.1483
i	-10.1484
▁امین	-10.1486
▁شاعریء	-10.1495
▁لانچ	-10.1501
کنگ	-10.1504
چی	-10.1504
▁سنچ	-10.1526
▁دوستین	-10.1526
▁انگہ	-10.1529
▁سیاد	-10.153
▁کھ	-10.1531
▁سسٹم	-10.1533
▁ادینگ	-10.1534
▁شاعرانی	-10.154
▁زوریت	-10.1544
▁کارمرزی	-10.1545
▁بنجاہ	-10.1546
▁زرباری	-10.1549
▁باسکاں	-10.1553
پدا	-10.1554
▁ردیں	-10.1567
▁')	-10.157
▁السی	-10.1572
▁تئ	-10.1576
▁زیمر	-10.1577
▁سوبمند	-10.1589
▁اندیم	-10.159
▁زیب	-10.1592
▁دودمان	-10.1592
▁رحم	-10.1594
▁صاف	-10.1596
▁نظم	-10.1596
▁فون	-10.1596
▁جاتا	-10.1603
کو	-10.1607
▁تہار	-10.1608
▁گی	-10.1613
▁راجمان	-10.1622
▁گالاں	-10.1625
▁بلد	-10.1629
▁صفت	-10.1632
▁بئیگ	-10.1633
▁قبر	-10.1645
▁اومان	-10.165
▁4	-10.1651
▁دولت	-10.1653
▁کشیں	-10.1658
▁راشد	-10.1662
▁ابرم	-10.1664
▁through	-10.1671
▁چر	-10.1672
▁میدان	-10.1673
▁بازینے	-10.1676
▁گلہ	-10.1677
▁غنی	-10.1677
▁بہار	-10.1681
▁جگر	-10.1687
▁پش	-10.1693
▁ترکی	-10.1701
▁نبشتگیں	-10.171
▁فرق	-10.1724
▁وڈیں	-10.1731
▁قانون	-10.174
▁حانی	-10.1742
▁رک	-10.1744
▁دلیل	-10.1745
▁متاثر	-10.1747
▁جاگہے	-10.1751
اش	-10.1753
▁پلانی	-10.1755
ھر	-10.1756
▁لوگاں	-10.1759
اد	-10.1761
▁پیرک	-10.1766
▁ھندوستان	-10.1767
▁لبزاں	-10.1767
گوشتگ	-10.1774
▁مرت	-10.1777
▁انا	-10.1786
▁ھردو	-10.1786
▁later	-10.1788
▁جنئگ	-10.1804
یگ	-10.1807
▁ھیران	-10.1811
▁بزگی	-10.1811
▁چوک	-10.1813
▁دیا	-10.1815
▁عملی	-10.1817
▁لائن	-10.1818
▁[	-10.1841
▁چمشانک	-10.1848
▁نظریہ	-10.1851
▁چندے	-10.1855
▁سینگ	-10.1861
▁ریچ	-10.1874
▁سرے	-10.1877
▁سرکارء	-10.1879
▁پہنات	-10.1888
▁تاکہ	-10.189
le	-10.1897
▁while	-10.1903
▁ہندوستان	-10.191
▁لوگے	-10.192
▁چھ	-10.1921
▁سار	-10.1921
▁یعنی	-10.1922
▁ائیا	-10.1923
▁حاکم	-10.1924
▁مے	-10.193
▁زالبولے	-10.1931
▁لازم	-10.1942
▁جنوک	-10.1949
▁منظور	-10.1952
▁کمبر	-10.1952
▁درداں	-10.1952
ص	-10.1959
▁زوال	-10.1963
▁دینی	-10.1964
▁ماتء	-10.1979
▁کیمپ	-10.1987
دگہ	-10.1992
▁گڑ	-10.1992
▁بگندئے	-10.1998
▁روسی	-10.1999
▁کپت۔	-10.2002
۔۔۔۔۔	-10.2004
▁مرگء	-10.2005
▁ارزان	-10.2008
▁چتور	-10.2008
▁زیات	-10.2013
▁باریگ	-10.2015
▁گوھار	-10.2018
▁پرپٹ	-10.2018
▁ارواح	-10.202
▁نیکیں	-10.2024
able	-10.2029
▁some	-10.2032
▁ہندی	-10.2035
▁ائید	-10.204
▁پرواہ	-10.204
▁ربیدگی	-10.2044
▁سوگند	-10.2045
?”	-10.2052
▁اچہ	-10.2056
▁ھار	-10.2062
▁راجمانی	-10.2071
▁وانندہ	-10.2073
▁لعل	-10.2078
▁تپاس	-10.2082
▁گردن	-10.2085
made	-10.2102
▁وزن	-10.211
▁M	-10.2118
▁رندی	-10.2128
▁کلاں	-10.2135
▁رجینگ	-10.2137
▁حاصیں	-10.2139
▁زیبائیں	-10.2142
▁درامد	-10.2144
ترا	-10.2148
▁نندوکیں	-10.2151
▁گراب	-10.216
▁شیئر	-10.2162
▁ٹاہ	-10.2167
▁بوتین	-10.2168
▁پرشت	-10.2169
▁گلگ	-10.2172
▁اگدہ	-10.2177
خ	-10.2195
▁ھمنچو	-10.2196
▁مز	-10.2197
▁ڈس	-10.2203
▁تم	-10.2203
▁مروچیگیں	-10.2206
▁خاران	-10.2209
▁گوشنت	-10.2212
▁گلامی	-10.2219
▁گوشدارگ	-10.2227
▁گہگیری	-10.2237
▁۔من	-10.2247
▁زرمبش	-10.2251
▁استال	-10.2251
▁شت۔	-10.2252
▁ام	-10.2257
▁سبی	-10.2261
”.	-10.2263
▁لوٹگ	-10.2265
us	-10.2267
▁دژمنیں	-10.2268
▁دگرے	-10.2269
▁ظفر	-10.227
▁لج	-10.2279
▁پندل	-10.2287
▁حرکت	-10.2287
▁خاندان	-10.2292
▁تہی	-10.2297
انہ	-10.2299
▁رجانکار	-10.2299
▁زھیر	-10.2306
▁ایوکا	-10.2308
▁گلے	-10.2309
▁گواچن	-10.2312
▁گہرام	-10.2313
▁اتک۔	-10.2314
▁بز	-10.2315
▁زہیر	-10.2318
▁رن	-10.2318
ity	-10.2319
▁جماعت	-10.2323
▁طرف	-10.2326
▁صرف	-10.2332
▁توارے	-10.2334
▁پور	-10.2336
▁ھستی	-10.2336
▁دستا	-10.2341
▁دیگء	-10.2355
▁کمپیوٹر	-10.2356
▁مئیل	-10.2356
▁ورنائی	-10.2363
▁گوزان	-10.2363
▁میڈیکل	-10.2369
▁بوئیگ	-10.2371
میں	-10.2371
▁بری	-10.2373
▁نوزدہ	-10.2374
▁پنت	-10.2375
▁ھنچوش	-10.2379
تاکدیم۔	-10.2389
▁پروگرام	-10.2391
▁سو	-10.2395
▁زانشت	-10.2403
▁گلیں	-10.2404
▁نواز	-10.2406
▁تاکبند	-10.2409
▁ہمرائی	-10.2418
▁پاٹی	-10.2429
▁چنگ	-10.2432
▁شاعراں	-10.2433
▁اسان	-10.2433
▁ھنچو	-10.2435
▁کانفرنس	-10.2443
▁ساچ	-10.2463
▁جوش	-10.2464
▁کہنیں	-10.2466
▁درچکانی	-10.2467
▁یونین	-10.2468
تے	-10.2469
▁دریگ	-10.247
▁تہاریں	-10.2477
▁ھان	-10.2478
▁تچگ	-10.2486
▁ضلع	-10.2487
▁پرمان	-10.2488
▁ساد	-10.2489
▁مردمی	-10.2496
▁ڈیٹا	-10.2497
▁چاریت	-10.2508
▁دریں	-10.2509
▁اختر	-10.2514
▁پدریچ	-10.2514
▁کولواہ	-10.2525
▁زات	-10.2525
▁خانہ	-10.2527
میر	-10.2534
▁اسحاق	-10.2535
▁چمے	-10.2537
▁امریکا	-10.2538
▁دلوت	-10.2542
▁قبول	-10.255
▁لے	-10.2551
ever	-10.2557
▁حقانی	-10.256
شپ	-10.2578
▁زمینء	-10.2581
▁ڈیتھ	-10.2598
▁پریات	-10.2605
▁دیمترا	-10.2614
▁درشانداب	-10.2617
▁تہہ	-10.2619
▁کایاں	-10.2621
▁دپی	-10.2627
کنت	-10.2628
▁بجلی	-10.2629
▁زانتکاری	-10.2638
▁واکداراں	-10.2639
▁پرشتگ	-10.2647
▁بنزہ	-10.2648
an	-10.2649
▁شپاں	-10.2651
▁درملکی	-10.2657
▁ات۔۔۔	-10.266
▁رہ	-10.266
▁ارشے	-10.2661
▁بائد	-10.2667
بر	-10.267
▁قدیم	-10.2673
▁اتار	-10.2674
▁کاروباری	-10.2676
▁وران	-10.2681
▁جہاں	-10.2681
▁شھدربرجاہ	-10.2684
نبشتانک	-10.2684
▁ریڈیو	-10.2684
▁کوچگ	-10.2686
▁ھستیں	-10.2689
▁صلی	-10.27
▁پاگ	-10.2703
▁میتگء	-10.2703
▁ازادی	-10.2709
▁مدتے	-10.271
▁لوٹانی	-10.2714
▁کارمندانی	-10.2723
▁بزگیں	-10.2725
▁کنغ	-10.2731
▁دانک	-10.2734
▁ہوئی	-10.2734
▁عابد	-10.2737
ت۔	-10.2738
▁گرمیں	-10.2739
▁ساہگ	-10.274
▁یوکرین	-10.2746
کت	-10.2746
▁پناہ	-10.2746
▁زبہر	-10.2747
▁مین	-10.2747
▁گونڈو	-10.276
▁کمتر	-10.2763
▁مالک	-10.2767
▁امروز	-10.277
▁تجربت	-10.2772
▁جیل	-10.2773
▁شرگدار	-10.2777
ایاں	-10.2779
▁راجدپتری	-10.2779
▁ترین	-10.2782
▁جاری	-10.2782
▁روح	-10.2785
▁new	-10.2787
▁شروع	-10.2798
▁میاں	-10.281
▁شازادگ	-10.2811
▁جنینے	-10.2813
▁غوث	-10.2817
▁اندری	-10.282
▁اپء	-10.2824
▁where	-10.2827
▁حداء	-10.2834
▁محمود	-10.2837
such	-10.2838
▁ستر	-10.2843
▁ہمودا	-10.2844
▁مکسد	-10.2844
▁نمیرانیں	-10.2844
▁بندر	-10.2848
▁چوپ	-10.2863
▁پائدگ	-10.2863
▁زھری	-10.2864
▁سرین	-10.2865
▁درگیجگ	-10.2866
▁اہم	-10.287
ایشی	-10.2878
▁نت	-10.2882
▁اشنا	-10.2886
▁دیراں	-10.2892
▁دانگ	-10.2896
▁ھپتاد	-10.2897
▁ادارگ	-10.2898
▁سود	-10.2905
▁them	-10.2911
▁دوری	-10.2914
▁سنی	-10.2914
▁کوھانی	-10.2932
▁چیرء	-10.2935
▁جمبر	-10.2939
▁نویسی	-10.2947
▁وجہ	-10.2948
▁انوگیں	-10.2953
▁مولوی	-10.2969
▁مہرء	-10.2975
▁number	-10.2983
▁سرھال	-10.2987
▁ھاران	-10.2992
▁چرائی	-10.2996
▁ذکر	-10.3002
▁پلاں	-10.3003
............	-10.3006
۔بلے	-10.3009
▁برمش	-10.3015
▁بدنت	-10.302
▁e	-10.3021
▁جد	-10.3023
رد	-10.303
▁چا	-10.3032
▁گوانک	-10.3051
▁ھنر	-10.3054
▁گھار	-10.3067
▁خالد	-10.3068
ہر	-10.3071
▁بازین	-10.3076
▁ناچ	-10.3079
▁وتکشی	-10.3081
","	-10.3089
▁ادیم	-10.3096
▁مرتگیں	-10.3108
▁چیرا	-10.3113
▁follow	-10.3114
▁جہدء	-10.3131
اب	-10.3131
▁اشوبی	-10.3132
▁نیاما	-10.3133
▁ہمدا	-10.3134
▁فقیر	-10.3141
▁درسد	-10.3147
▁بژن	-10.3149
▁بندوکیں	-10.3149
مراد	-10.3149
▁استار	-10.3157
▁This	-10.3157
▁سرحال	-10.3159
▁اشک	-10.3162
▁وابانی	-10.3163
▁ہچبر	-10.3166
▁مساپر	-10.3178
▁دستگیر	-10.3187
▁ھسپتال	-10.3192
▁قلم	-10.3194
▁سوسائٹی	-10.3199
▁ھمیشی	-10.3202
▁ماه	-10.321
▁رندگیری	-10.3235
▁پازل	-10.3235
▁دمب	-10.3245
▁نیل	-10.3245
ح	-10.3247
▁پنچمی	-10.3248
▁تری	-10.3251
▁بنیادی	-10.3268
▁film	-10.3269
▁ھکم	-10.327
ور	-10.3271
▁re	-10.3279
▁جنکانی	-10.3297
▁سرزمین	-10.3299
▁گژن	-10.3302
▁درکپت	-10.3316
▁نسیم	-10.3322
▁being	-10.3323
ھی	-10.3325
▁ھشکیں	-10.3325
▁چینچو	-10.3333
▁ری	-10.3334
▁نوکی	-10.3336
▁ژا	-10.3341
▁کشان	-10.3342
▁سیٹ	-10.3344
جاہ	-10.3348
▁واکدارانی	-10.3352
▁پتء	-10.3355
▁زندگانی	-10.3355
ڈاکٹر	-10.3355
▁بنیات	-10.3356
▁تاکدیم۔	-10.3362
▁part	-10.338
▁ڈرائیور	-10.3382
▁000	-10.3383
▁یعنے	-10.3385
▁بالا	-10.3386
▁record	-10.3388
▁گیگ	-10.3396
▁بینگ	-10.3396
▁New	-10.3397
▁song	-10.3398
▁لیاری	-10.3403
▁رم	-10.3404
▁چکچینی	-10.341
▁ابا	-10.3426
▁سیاھگ	-10.3427
▁رہے	-10.3427
▁زیت	-10.3429
▁before	-10.343
▁بلوچیء	-10.3433
▁برپ	-10.3436
▁وہداں	-10.3446
▁ترجمہ	-10.3451
▁وام	-10.3456
▁کورء	-10.3459
▁پدی	-10.3461
▁وانوکاں	-10.3473
▁سیم	-10.3473
▁تپاوت	-10.3479
ٹی	-10.3484
▁گالانی	-10.3485
▁ھبرے	-10.3487
▁ھوٹل	-10.3502
▁ابن	-10.3504
▁شعور	-10.3507
▁مروچاں	-10.3507
▁باوست	-10.3507
▁مارشتانی	-10.3508
▁کپیت۔	-10.3508
▁پہر	-10.3509
▁ننگ	-10.3511
▁ملکے	-10.3513
▁کلگ	-10.3516
▁سن	-10.3527
▁de	-10.3535
▁گونڈ	-10.3535
▁کسء	-10.354
▁قوت	-10.3544
▁تپنگ	-10.3544
▁ہان	-10.3545
▁ازار	-10.355
▁راھبند	-10.3556
▁موتک	-10.3557
▁دائمی	-10.3562
▁استعمال	-10.3576
▁عباس	-10.3577
▁ہوتی	-10.3584
▁بزدار	-10.3586
▁مواد	-10.3588
gan	-10.3589
ي	-10.3611
▁کاہ	-10.3613
▁اہگ	-10.3622
گل	-10.3629
▁جاگہہ	-10.363
▁سیکورٹی	-10.3632
▁درکانودی	-10.3633
▁یونانی	-10.3634
▁second	-10.3636
ائے	-10.3642
▁بیگء	-10.3644
▁دراں	-10.366
▁ف	-10.3664
▁اخلاقی	-10.3668
▁ازمانکے	-10.3673
▁معاملہ	-10.3676
▁ایشان	-10.3679
تریں	-10.3682
▁دلے	-10.3698
▁سھر	-10.3698
▁نبیت	-10.3704
▁دنیگا	-10.3711
چ	-10.3716
▁پرشتگیں	-10.3717
▁نزوریں	-10.3719
▁al	-10.3729
▁گوازینتگ	-10.373
▁شاعرء	-10.3736
▁جنزان	-10.3739
▁under	-10.3746
▁بزور	-10.3751
▁الدین	-10.3752
▁جنجالانی	-10.3763
▁توان	-10.3766
▁جہانی	-10.3775
▁چول	-10.3783
▁گپتگیں	-10.3787
▁وئیلاں	-10.3791
▁رہا	-10.3796
▁خلاف	-10.3799
▁مجبور	-10.38
▁work	-10.3809
▁وپت	-10.3809
سک	-10.381
▁گنوکی	-10.3812
▁وہدی	-10.3814
▁دیوانء	-10.3819
▁اقبال	-10.383
▁اشکتگ	-10.3836
▁تاھیر	-10.3838
▁پوش	-10.3839
land	-10.3861
▁اختیار	-10.3861
▁end	-10.3866
▁کرتا	-10.387
▁حکیم	-10.3874
▁ادمی	-10.3877
ٰ	-10.3881
▁موت	-10.3885
▁هبر	-10.3889
▁روچگ	-10.3893
▁تبک	-10.3894
▁حمید	-10.3895
▁نیاں	-10.3907
▁ڈکال	-10.3913
▁چپی	-10.3916
▁مود	-10.3919
▁پما	-10.3925
▁لندن	-10.393
▁can	-10.3936
▁ایگء	-10.3936
ic	-10.3937
▁مہرانی	-10.3941
▁گۆں	-10.3941
▁الاج	-10.3941
بن	-10.3943
▁سعودی	-10.3944
▁call	-10.3947
▁اھد	-10.395
▁نوکین	-10.3952
▁سیاہیں	-10.3955
▁صدی	-10.3961
▁جستے	-10.3967
▁نگاہ	-10.3969
▁شئر	-10.3971
▁زد	-10.3971
▁کتابء	-10.3975
▁بھرے	-10.3977
▁گشان	-10.3978
▁لمب	-10.4003
▁تنقید	-10.4008
▁انسانے	-10.4009
▁رسیت۔	-10.4011
▁بابا	-10.4011
▁انکار	-10.4011
گا	-10.4013
▁عدالت	-10.4017
▁فیض	-10.4017
▁چونائی	-10.4019
▁کریمہ	-10.4019
▁دیدگاں	-10.402
▁اہمد	-10.4025
▁دگرانی	-10.4026
▁چاچ	-10.4029
بلئے	-10.4036
▁ہمگرنچ	-10.404
▁روگی	-10.4046
ام	-10.4048
▁لنٹ	-10.4048
▁سرشون	-10.405
▁سواریں	-10.4057
▁سریں	-10.4069
▁واہند	-10.4071
▁صوبائی	-10.4074
▁وثی	-10.4075
لی	-10.4077
▁مارشتاں	-10.408
en	-10.4082
▁سراوان	-10.4086
▁جانسلامتی	-10.4086
▁ڈالر	-10.4098
▁دن	-10.4101
▁گماں	-10.4105
▁افسر	-10.4107
▁جنت۔	-10.4115
▁گپت۔	-10.4122
▁اسماعیل	-10.4135
▁منافع	-10.4139
کس	-10.4153
▁سببء	-10.4157
▁دگانی	-10.4159
▁هال	-10.416
▁نهانت	-10.4166
▁وابے	-10.4171
▁نال	-10.4171
▁شھری	-10.4171
▁جرم	-10.4173
▁توسیپ	-10.4176
▁high	-10.418
▁وتگڑیں	-10.418
S	-10.4181
▁نثار	-10.4186
دہ	-10.4186
▁large	-10.4187
▁بوتگنت	-10.4193
▁پولی	-10.4211
▁زھگانی	-10.4211
▁area	-10.4217
▁گھر	-10.4219
▁حالت	-10.4222
▁حبرے	-10.4226
▁there	-10.4231
▁روژنائی	-10.4232
▁پار	-10.4233
▁شاھی	-10.4235
▁album	-10.4242
▁کلاس	-10.4248
▁زمستان	-10.4251
▁شوربندی	-10.4253
▁پشک	-10.4255
▁درانگازی	-10.4273
▁series	-10.4274
گر	-10.4274
▁خانء	-10.4276
▁تعلق	-10.4277
▁کارمندے	-10.4278
▁رودراتکی	-10.4284
ملا	-10.4284
▁ھزاراں	-10.4285
▁جستانی	-10.4287
▁تمن	-10.4292
▁خالق	-10.4294
▁وسی	-10.4294
▁دا	-10.4295
سید	-10.4304
دست	-10.4307
▁توپک	-10.431
▁سلیمان	-10.4316
نگیں	-10.4319
▁قبائلی	-10.4321
▁کلاک	-10.4325
▁گزر	-10.4325
▁no	-10.4326
▁دراتکگ	-10.4331
▁ابرمی	-10.4331
▁حمزہ	-10.4334
▁جتگیں	-10.4335
▁اشارہ	-10.4339
مان	-10.4355
▁مسافر	-10.4356
▁نودربرے	-10.4358
بیا	-10.4359
اور	-10.436
▁کوشش	-10.4369
▁کنے	-10.4369
▁رمضان	-10.4375
▁لاہور	-10.4378
▁حیات	-10.4381
▁کتیں	-10.4388
▁اسٹوڈنٹس	-10.4388
▁عیب	-10.4398
▁کرتنت	-10.4398
▁درکار	-10.4403
▁زاہر	-10.4405
▁6	-10.4416
ھاں	-10.4422
بلکیں	-10.4427
▁گندیں	-10.4435
▁کستریں	-10.4436
▁ایوکی	-10.4438
▁ھمودا	-10.4438
▁قادر	-10.4445
▁احساس	-10.445
▁پشتی	-10.4451
▁زیمل	-10.4453
▁جیہند	-10.4457
▁برانز	-10.4458
▁چاگردے	-10.4469
▁ہمراہی	-10.4473
▁ملامت	-10.4477
▁D	-10.4482
▁نیٹ	-10.4485
▁نیمون	-10.4487
▁بازارء	-10.4491
▁چمان	-10.4498
▁چات	-10.4499
▁عظیم	-10.4501
▁راگ	-10.4503
▁عیسیٰ	-10.4504
جان	-10.4504
▁قبضہ	-10.4505
▁both	-10.451
▁ھپتگ	-10.4511
▁جت۔	-10.4512
▁ممتاز	-10.4514
..?	-10.4515
شت	-10.4532
وش	-10.4532
▁حیالانی	-10.4535
▁مارکیٹ	-10.4535
کیں	-10.4537
▁چوٹ	-10.4537
▁روکیں	-10.4539
▁زوراک	-10.454
▁اتکگ۔	-10.4544
▁کھولانی	-10.4545
▁جائے	-10.4548
▁کشء	-10.4551
▁دنز	-10.4552
out	-10.4554
▁راکٹ	-10.4556
▁کپوت	-10.4556
▁سوبمندی	-10.4558
▁میزان	-10.4562
▁والے	-10.4562
▁برداشت	-10.4571
▁کوھی	-10.4574
▁ڈنء	-10.4575
▁ھ	-10.4576
▁بازی	-10.458
▁گئی	-10.4581
▁دوچار	-10.4591
▁عطاشاد	-10.4592
▁مزاحمت	-10.4602
نام	-10.4603
▁کساسے	-10.4604
.....	-10.4606
▁includ	-10.4608
▁ترمپ	-10.461
▁بیل	-10.4612
▁جاوید	-10.4613
▁شانک	-10.4628
▁سہی	-10.4629
▁دلی	-10.4629
▁خون	-10.463
▁گوراں	-10.4633
▁پڑء	-10.4633
▁اوگان	-10.4636
مردم	-10.464
بازیں	-10.4643
▁درانگاز	-10.4645
▁لفظ	-10.4648
▁عید	-10.4648
▁نوکری	-10.4651
▁بندیت	-10.4654
▁سرد	-10.4657
بس	-10.4665
▁N	-10.4668
▁گلزار	-10.467
بند	-10.4671
▁پولکاری	-10.4673
▁ڈکھ	-10.4679
est	-10.468
▁استحکام	-10.4681
▁کوھن	-10.4682
▁دیریں	-10.4685
▁درچکے	-10.4685
▁گلاب	-10.4685
▁چیزء	-10.4685
?......	-10.4686
▁گریب	-10.4692
▁صابر	-10.4697
▁ہنچیں	-10.47
▁زنگ	-10.4704
▁ساحرء	-10.4705
▁دوچ	-10.4707
▁سارتی	-10.4708
▁گھگیری	-10.4712
▁show	-10.4714
▁فرانس	-10.4714
ات۔	-10.4715
▁برزء	-10.4715
▁ازمکار	-10.4718
▁form	-10.4719
▁ضروری	-10.4721
▁بیرک	-10.4728
▁پریں	-10.4736
▁ہلک	-10.474
▁ھنداں	-10.4744
▁ناکہ	-10.4745
came	-10.4749
▁اعظم	-10.4758
▁بندانی	-10.4762
▁زمان	-10.477
▁زالبولاں	-10.4772
▁تور	-10.478
▁سمندر	-10.478
▁حراب	-10.4783
▁درجہ	-10.4783
▁then	-10.4785
▁بدے	-10.4785
▁اولس	-10.4787
▁پچیں	-10.4796
▁ہار	-10.4797
▁تهنا	-10.4797
’’(	-10.48
▁ووٹ	-10.4808
▁پن	-10.4809
▁تچ	-10.481
▁ھوں	-10.4811
▁بریں	-10.4813
▁اینڈ	-10.4824
▁بزانکہ	-10.4824
▁کوہء	-10.4824
▁چیردستی	-10.4826
▁well	-10.483
▁نازک	-10.4832
▁تصور	-10.4834
ھے	-10.4838
▁مکہ	-10.4843
▁ڈل	-10.4846
▁اوان	-10.4866
▁ھاکم	-10.4868
▁دمگانی	-10.4868
▁جیڑھانی	-10.487
▁ٹال	-10.4872
▁اماچیں	-10.4875
▁پشی	-10.4882
!!	-10.4884
▁فدا	-10.4887
▁موومنٹ	-10.4887
▁known	-10.4887
▁وشبو	-10.4887
▁باسکانی	-10.489
▁episode	-10.4895
▁سمو	-10.4895
▁فارم	-10.4896
▁نیمگاں	-10.49
▁گواری	-10.4901
▁گۆن	-10.4902
▁بارے	-10.4904
▁گاریں	-10.4906
▁زری	-10.4907
▁کپتگ۔	-10.4908
▁پلاٹ	-10.4911
▁قرض	-10.4912
▁داران	-10.4912
▁۔بلے	-10.4913
▁واھگانی	-10.4914
▁حوالہ	-10.4915
▁راجدپترء	-10.4917
▁As	-10.4925
▁شہرء	-10.4928
ڑ	-10.493
▁مشہور	-10.4934
▁توارء	-10.4939
▁like	-10.4944
▁بحث	-10.4945
▁R	-10.4949
▁گچینکاری	-10.4949
▁اپی	-10.4949
▁زورگیریں	-10.4952
▁ناہ	-10.4964
▁اناگہ	-10.4965
▁رزا	-10.4965
▁قسم	-10.4967
▁ہیال	-10.4967
▁بنگلہ	-10.497
▁پگرء	-10.4971
روچ	-10.4972
▁ابراھیم	-10.4978
▁انقلاب	-10.4991
▁کشکے	-10.4992
▁جهد	-10.4998
▁مسئلہ	-10.5001
▁بدلیاں	-10.5008
▁پیری	-10.501
um	-10.5013
▁سہرا	-10.5014
▁یکوارے	-10.5021
پیش	-10.5023
▁اواں	-10.5029
▁بادینی	-10.5034
▁جزبگ	-10.504
▁مھکمیں	-10.5045
▁سمین	-10.5047
▁نیا	-10.5049
▁پروم	-10.5055
▁نبشتانکے	-10.5061
▁چندیں	-10.5062
▁اھمد	-10.5063
▁زبیر	-10.507
▁سراں	-10.5071
▁ملور	-10.508
▁رژنائی	-10.5083
▁گشتانک	-10.5083
▁پون	-10.5087
▁والی	-10.5099
▁تان	-10.51
▁دربرگ	-10.51
▁بیبگر	-10.5103
▁تھے۔	-10.5104
▁کست	-10.5106
▁کرء	-10.511
▁سیمسراں	-10.5111
▁پیشانی	-10.512
▁پشتون	-10.5121
▁شہری	-10.5131
▁گیج	-10.5131
▁بہادر	-10.5135
خان	-10.5136
▁دردء	-10.5142
سے	-10.5146
▁دستانی	-10.515
ہما	-10.5158
▁رپک	-10.5167
▁زین	-10.5172
▁مور	-10.518
▁10	-10.5184
زبان	-10.5186
▁نک	-10.519
▁سلطان	-10.5193
▁زندگیء	-10.5201
▁شائریء	-10.5207
▁زورگر	-10.5214
کر	-10.5215
▁میرے	-10.5218
▁ناگمان	-10.5222
▁many	-10.5223
▁گوازینت	-10.5227
▁ندارہ	-10.5233
▁کوپگاں	-10.5235
▁عبدالحمید	-10.5239
▁مقام	-10.524
▁میتگے	-10.5248
▁شات	-10.5251
▁پلیں	-10.5252
وی	-10.5252
▁لگتمالی	-10.5256
▁ٹاور	-10.5263
▁رجانکاری	-10.5266
▁بیتہ	-10.5271
▁زانش	-10.5275
ھانی	-10.528
▁ند	-10.528
though	-10.5283
▁پک	-10.5283
▁رئیس	-10.5287
▁تیاری	-10.5287
کگ	-10.5288
▁جمعہ	-10.5292
▁پہل	-10.5298
▁ریک	-10.5299
▁جسم	-10.5303
▁حملہ	-10.5304
▁راجدوست	-10.5311
▁found	-10.5313
▁فاروق	-10.5324
▁گوزیت	-10.5325
▁اشکت	-10.5329
▁ارساں	-10.533
▁گلء	-10.5332
▁چاڑ	-10.5338
▁ابد	-10.534
nited	-10.5346
▁الیکشن	-10.5348
▁جاک	-10.5352
▁مانیت	-10.5354
▁دردے	-10.5362
بل	-10.5362
بوت	-10.5368
▁یورپی	-10.5368
▁رشید	-10.5369
▁۔۔۔۔۔	-10.5371
▁مختلف	-10.5372
▁ہمائی	-10.5377
▁جدید	-10.538
▁دروشمء	-10.5381
▁ارادہ	-10.5391
؂	-10.5393
▁طاہرہ	-10.5395
▁دیدار	-10.5397
▁long	-10.5397
وا	-10.5409
▁مس	-10.5409
▁بگند	-10.5414
▁انداز	-10.5415
▁گورنر	-10.5418
ھا	-10.5422
▁شار	-10.5425
▁ناشرکاری	-10.5431
▁بانور	-10.5433
▁ٹارگٹ	-10.5439
▁یکین	-10.5448
▁ایمن	-10.5454
▁زمانگے	-10.5458
▁خلیل	-10.5463
▁سهیگ	-10.5464
▁شورو	-10.5465
▁مانداشتگ	-10.5466
▁محنت	-10.5475
▁عارف	-10.5478
▁صبر	-10.5485
۔۔۔۔۔۔۔۔۔۔۔۔۔۔۔۔	-10.5485
▁ہاں	-10.5488
▁قیمتانی	-10.5497
▁ھد	-10.5498
▁تژن	-10.5499
▁گئے	-10.5503
▁پلو	-10.5505
▁جیڑہانی	-10.5506
گپ	-10.5511
▁اخراجات	-10.5514
▁بزنجو	-10.5521
▁اندازہ	-10.5521
▁تپاکی	-10.5524
▁سوگات	-10.5526
▁ٹپاس	-10.5527
▁سوئی	-10.5527
▁درونت	-10.5529
▁لوگی	-10.5533
ریں	-10.5538
▁سطح	-10.5543
کم	-10.5544
▁چکء	-10.5544
▁موٹر	-10.5547
▁so	-10.5552
▁داتہ	-10.5554
▁فتح	-10.5554
▁بیھار	-10.5559
▁منتگ	-10.5559
▁لالا	-10.556
▁پتو	-10.5561
▁t	-10.5569
▁گشاد	-10.5579
▁درمیان	-10.558
▁فلسفی	-10.5581
▁نزر	-10.5594
▁جیگ	-10.5597
▁ازمانکار	-10.5598
▁ماھل	-10.5602
▁زبانی	-10.5602
▁پرچیکہ	-10.5604
یر	-10.5607
▁تار	-10.5608
▁دنتان	-10.5612
▁زراں	-10.5634
▁پھک	-10.5637
▁بلاش	-10.5641
▁century	-10.5643
▁اشتاپ	-10.5644
▁بلو	-10.5644
man	-10.5645
▁۔ا	-10.5653
▁ہونے	-10.5655
▁گریت	-10.5658
▁رستگیں	-10.5663
گء	-10.5663
▁پرستی	-10.5671
▁کرم	-10.5671
▁جمیل	-10.5673
ازمانک	-10.5675
▁یہاں	-10.5678
۔من	-10.5679
▁پکرء	-10.5679
▁حیالء	-10.5696
شر	-10.5701
▁پانی	-10.5703
▁کروڑ	-10.5704
▁کترینا	-10.5705
▁دگراں	-10.5705
▁نکنت	-10.5707
▁دلانی	-10.5711
▁پابندی	-10.5719
گے	-10.572
▁بیدار	-10.5722
▁use	-10.5733
▁نوکتریں	-10.5735
................	-10.5737
▁مشین	-10.5744
▁four	-10.5746
▁سورت	-10.5748
رے	-10.5755
▁گنجیں	-10.5757
▁پھ	-10.5757
▁مندی	-10.5757
▁ٹیلی	-10.5759
گاں	-10.5762
▁درامدیں	-10.5764
چار	-10.5765
▁پروشتگ	-10.5774
▁قائم	-10.5775
▁گمانی	-10.5779
▁گوادرء	-10.578
▁مطابق	-10.578
▁چڑھاؤ	-10.5782
▁پہلے	-10.5783
رو	-10.5785
▁مجھے	-10.5787
▁کمکیں	-10.5792
▁کڈن	-10.5793
▁جنگے	-10.5796
▁After	-10.5799
▁ایکس	-10.5801
▁پال	-10.5809
▁گراہک	-10.5809
▁اج	-10.5814
▁بباں	-10.5815
▁پکا	-10.5817
▁مجگ	-10.5818
▁اشت	-10.5819
▁کسےء	-10.5824
▁پروشت	-10.5824
▁دلگوشی	-10.5825
▁سروزیر	-10.5828
▁کمکار	-10.5831
▁ھیالانی	-10.5836
▁پڑا	-10.5836
▁طالبان	-10.5838
▁تہذیب	-10.584
▁کشمیر	-10.5842
▁دوئمی	-10.5843
▁اسد	-10.5843
▁عادت	-10.585
▁تھت	-10.5852
▁گواچنی	-10.5854
▁توپان	-10.5857
▁کن۔	-10.5858
▁فکری	-10.5861
▁شانزدہ	-10.5862
▁یے۔	-10.5864
▁ماث	-10.5871
▁گرمی	-10.5871
▁sever	-10.5879
▁American	-10.588
▁کمار	-10.5882
▁ماھے	-10.5885
▁زبھر	-10.5888
▁کواس	-10.5893
▁ماھیگ	-10.5893
▁0	-10.5894
▁ایکشن	-10.5902
▁Brit	-10.5905
▁جہت	-10.591
▁دلا	-10.5912
▁مندیں	-10.5913
▁بوھگء	-10.5915
▁دئینت	-10.5923
▁واہ	-10.593
اولی	-10.5931
▁ازاتیں	-10.5936
▁لو	-10.5946
▁وخت	-10.5951
▁میران	-10.5952
▁تپ	-10.5953
▁پلامرزی	-10.5964
▁لسبیلہ	-10.597
▁فلسفہء	-10.597
▁سڑک	-10.5971
▁چمگ	-10.5974
▁دعوت	-10.5975
▁غریب	-10.5977
▁پسندی	-10.598
▁تخلیق	-10.5982
رجانک	-10.5983
دے	-10.5997
▁درخواست	-10.6005
▁شاکر	-10.6009
▁چیف	-10.6011
▁کاینت۔	-10.6013
▁جمال	-10.6014
▁بیلٹ	-10.6018
▁شل	-10.6019
▁ھمد	-10.602
▁گوہر	-10.6031
▁راستیء	-10.6033
▁براتاں	-10.6039
▁اڑے	-10.6039
▁ادیب	-10.6041
▁ڈولدار	-10.6044
▁نبشته	-10.6049
▁7	-10.6049
▁زھگے	-10.605
▁کارستانی	-10.6055
▁دیوک	-10.6064
▁دیوانجاه	-10.6067
▁ہستی	-10.6073
ers	-10.6074
▁باد	-10.6084
▁کائے	-10.6087
▁لیٹ	-10.6088
▁گروک	-10.6088
▁مقابلہ	-10.6089
▁لی	-10.609
▁نازرکیں	-10.6093
▁سیستان	-10.6095
▁ڈگارانی	-10.61
▁برطانیہ	-10.6105
▁الما	-10.6107
▁رنداں	-10.6108
▁دوار	-10.6123
▁ویران	-10.6125
▁team	-10.6129
▁مھتل	-10.613
▁پلے	-10.613
▁تیلانک	-10.6133
▁8	-10.6135
▁سپاہی	-10.6136
▁لب	-10.614
▁احوال	-10.6141
▁پرایمن	-10.6143
▁درائی	-10.6145
▁زھگاں	-10.615
▁ہواریں	-10.615
▁اپس	-10.6152
▁دلبند	-10.6154
▁near	-10.6156
▁تراکے	-10.6158
▁تین	-10.6158
▁میراث	-10.6159
▁جنازہ	-10.6159
▁مادن	-10.6164
▁شم	-10.6168
▁پیسری	-10.6169
داد	-10.617
▁نگیگ	-10.6174
کل	-10.6176
▁سنج	-10.6177
انا	-10.6192
▁علمء	-10.6195
▁حاک	-10.6197
▁حمایت	-10.6203
▁ہندو	-10.6203
▁مرگے	-10.6204
cause	-10.6208
▁فرانسیسی	-10.6209
▁بندیگیں	-10.6211
▁خضدار	-10.6217
▁صحت	-10.6218
▁اصف	-10.6218
▁محفوظ	-10.622
▁عبادت	-10.622
▁جہانء	-10.6222
▁زید	-10.623
▁ریکی	-10.6232
▁کربانی	-10.6234
▁E	-10.6236
▁شرکت	-10.6236
▁دابیں	-10.6243
▁گسء	-10.6258
▁کرسی	-10.6261
▁مهر	-10.6263
▁سماجی	-10.6264
▁فن	-10.6265
▁جسٹس	-10.6268
▁جنگانی	-10.6269
▁دربار	-10.6275
▁بوہ	-10.6276
▁شعرے	-10.6287
▁امل	-10.6287
▁گز	-10.6287
▁زوتاں	-10.6292
▁توکلی	-10.6297
▁کارچ	-10.6297
▁ھیالاں	-10.6298
▁تلار	-10.6303
▁عجب	-10.6307
▁ورنایاں	-10.6308
▁قدرتی	-10.6309
▁ماتیں	-10.6316
▁دردانی	-10.6319
▁وپتگ	-10.632
▁اہ	-10.6321
▁remain	-10.6331
▁وارث	-10.6332
▁ہیل	-10.6333
▁کلمتی	-10.6334
▁مہکم	-10.6334
▁دستے	-10.6336
▁کیسگ	-10.6342
▁امیری	-10.6344
▁کابل	-10.6345
▁سودا	-10.6345
▁دوریں	-10.6347
▁دلپدردی	-10.6351
▁ع	-10.6357
▁سرگوست	-10.636
▁یاگی	-10.636
▁پاشک	-10.6362
▁بوتگاں	-10.6363
▁زلورت	-10.6368
▁چھبار	-10.637
اللہ	-10.6375
▁جاڑیگ	-10.6376
▁برا	-10.6378
▁کرتہ	-10.638
▁9	-10.6381
▁final	-10.6392
▁زمینی	-10.6392
▁گرک	-10.6394
▁محکم	-10.6396
▁ھژدہ	-10.6397
ہی	-10.6401
▁سریاب	-10.6401
▁P	-10.6401
▁بجار	-10.6402
▁ذہن	-10.6402
▁گوشیں	-10.6404
▁عذاب	-10.6408
▁پارٹیء	-10.6412
▁مه	-10.6417
▁رحمت	-10.6422
▁ھژدری	-10.6426
مارا	-10.6427
▁براتانی	-10.6428
▁مت	-10.643
▁کتنت	-10.6433
▁16	-10.6433
▁شتیں	-10.6433
▁تھ	-10.6434
▁براھوئی	-10.6445
▁گلی	-10.6446
▁مڑ	-10.6461
▁کارندھاں	-10.6462
▁سیزدہ	-10.6466
▁حاتم	-10.6466
▁دارگء	-10.6467
▁لنٹانی	-10.6468
ند	-10.647
▁دوران	-10.6477
▁early	-10.648
▁پنجاپ	-10.6482
▁ریکارڈ	-10.6482
▁زمانہ	-10.6483
▁could	-10.6489
▁زوربیگواہ	-10.6492
▁انڈیا	-10.6493
اہاں	-10.6496
▁لوزانک	-10.6497
▁رھبندانی	-10.6499
▁جاتی	-10.6507
▁ائیئ	-10.651
▁امارات	-10.6516
▁پنجابی	-10.6523
▁پلگار	-10.6523
▁زھم	-10.6531
▁درایگ	-10.6539
▁مسال	-10.654
▁ذہنی	-10.6542
▁کئیت۔	-10.6546
▁سیکرٹری	-10.6556
▁did	-10.6566
▁سمل	-10.6569
▁مھمان	-10.6572
▁سیہ	-10.6585
▁کاپر	-10.659
▁سئی	-10.6594
▁تکانسر	-10.6596
▁گہتر	-10.6598
▁صادق	-10.6599
▁جرمنی	-10.6599
▁غالب	-10.6608
▁گشی	-10.6612
▁توانائی	-10.6616
▁بجن	-10.6617
تاں	-10.6619
▁ٹنگ	-10.6626
▁شامل	-10.6629
▁جہلی	-10.663
▁گیں	-10.6631
▁ہمیشی	-10.664
▁یونان	-10.664
▁توبہ	-10.6642
▁کارندھانی	-10.6643
▁ابو	-10.6644
▁ترینت	-10.6647
▁ڈبلیو	-10.6652
▁پیداگ	-10.6653
▁سببا	-10.6662
▁اظہار	-10.6668
▁تالبان	-10.6672
▁سلاھاں	-10.6673
▁کارکن	-10.6679
▁ول	-10.6687
▁ہوتے	-10.6694
▁اوشتگ	-10.6695
▁زانیں	-10.6701
▁ہنر	-10.6706
▁پیشدارگ	-10.6709
▁لذت	-10.6716
▁گوریچانی	-10.6719
▁ڈرامہ	-10.6722
▁معناء	-10.6725
▁اهانی	-10.6725
▁زرے	-10.6727
▁ٹوھیں	-10.6737
▁وپا	-10.6739
▁وال	-10.6741
▁اپنا	-10.6742
▁شخصیت	-10.6752
▁خلافا	-10.6753
▁along	-10.6756
▁ذریعہ	-10.6757
▁عاشق	-10.6759
چم	-10.676
▁اسٹیشن	-10.6761
u	-10.6761
▁جمالی	-10.6763
▁لبزء	-10.6764
جو	-10.6764
▁جنینانی	-10.6767
▁شوک	-10.6769
▁راجاں	-10.6774
▁بیانیہ	-10.6778
ارا	-10.6782
▁توجیل	-10.6784
جنگ	-10.6784
▁ھڈ	-10.6785
▁جرمن	-10.6787
▁سستگ	-10.6787
چک	-10.6792
▁دودا	-10.6799
▁کتابی	-10.68
▁بوج	-10.6804
▁کتابجاہ	-10.6809
▁مبارکی	-10.6825
ایر	-10.6828
▁may	-10.6831
▁تیوگ	-10.6833
▁نائب	-10.6835
ھیں	-10.684
▁ہواری	-10.6841
▁نیمروچ	-10.6845
▁یکجا	-10.6848
▁دوئینانی	-10.6849
▁زہری	-10.6851
▁حفیظ	-10.6852
▁روئے	-10.6854
▁تچکی	-10.6857
▁12	-10.686
▁دبئی	-10.6864
▁پسء	-10.6871
▁ساریء	-10.6871
▁place	-10.6874
▁است۔	-10.6878
▁بلال	-10.6878
▁شکاری	-10.6879
▁وردن	-10.688
▁sai	-10.6881
▁کراچیء	-10.6881
▁گے	-10.6883
▁سٹی	-10.6887
▁تھانہ	-10.689
▁رنگی	-10.6892
▁دیگی	-10.6893
▁جھمنندیں	-10.6894
نبشتہ	-10.6897
▁صبور	-10.6906
▁داشتگیں	-10.6907
▁اشتاپی	-10.691
▁کشاں	-10.6912
▁بهر	-10.6916
▁مریت	-10.6919
▁پدائی	-10.692
▁مردمانء	-10.6921
▁واباں	-10.6923
▁بشکھندگ	-10.6925
▁un	-10.6931
▁w	-10.6933
▁حافظ	-10.6933
▁زانت۔	-10.6934
▁مارکس	-10.6935
اری	-10.6936
▁پٹء	-10.6937
▁ھمل	-10.6938
▁سہریں	-10.6939
▁جسمانی	-10.6949
▁نزینکی	-10.6952
▁سنگتی	-10.6956
▁نوبت	-10.6959
▁پئیم	-10.6961
ایانی	-10.6962
برے	-10.6963
▁شا	-10.6965
▁منوگر	-10.6969
▁زنڈیں	-10.6971
▁اصلی	-10.6977
▁تیزی	-10.6978
▁شئیرانی	-10.6978
▁جہگیر	-10.6983
▁شخص	-10.6984
▁درء	-10.6986
▁دیت	-10.6986
▁شبیر	-10.6988
▁وابء	-10.6989
اتی	-10.6998
▁رہادگ	-10.7002
▁ایمنیں	-10.7003
▁کاردار	-10.7006
۔ہمے	-10.7007
▁سنت	-10.7009
▁ته	-10.7012
▁ارزانی	-10.7012
▁پہم	-10.7015
▁اخلاق	-10.7021
▁بحرین	-10.7023
▁رکھینگ	-10.7025
▁عوامی	-10.7028
▁گیرت	-10.7042
▁کپتہ	-10.7043
▁تاکاں	-10.7044
▁بزیں	-10.7046
▁جک	-10.7048
▁کاگدے	-10.7052
▁ھست۔	-10.7061
▁عالمی	-10.7063
▁راہبند	-10.7066
▁بنپد	-10.7068
▁جنسی	-10.7071
▁چمن	-10.7071
▁گرانی	-10.7073
▁سالونک	-10.7076
▁She	-10.7084
▁لئیب	-10.7089
▁گرنچ	-10.709
▁سمائی	-10.7099
▁وراک	-10.7104
▁لنکک	-10.7105
▁پرنٹ	-10.7107
▁درستانی	-10.7107
▁سپاھی	-10.711
▁اسکانی	-10.7117
▁ننداں	-10.7118
▁بروکیں	-10.7121
▁جیونی	-10.7123
▁روتاک	-10.7126
▁ببنت	-10.7129
▁مرگانی	-10.7132
▁شگان	-10.7133
▁سوشلزم	-10.7137
▁وسائل	-10.714
▁بوجیگ	-10.714
▁تحت	-10.7142
▁میانی	-10.7146
▁گیٹ	-10.7153
▁روز	-10.7162
کاں	-10.7163
▁جلال	-10.7167
▁توکء	-10.7176
▁ندیم	-10.7176
▁قدرت	-10.7187
بوتگ	-10.7188
▁روت۔	-10.7189
▁حلاپ	-10.7189
▁دوت	-10.7195
▁پکرانی	-10.72
▁لیکگ	-10.7202
▁ہمنچو	-10.7203
▁درکپتگ	-10.7206
▁نماسگ	-10.7208
▁چیل	-10.7208
""	-10.7214
▁بندء	-10.7215
▁بنگیجی	-10.7216
▁ص	-10.7218
▁داشتگ۔	-10.722
▁حیر	-10.7221
▁باب	-10.7223
▁زانتء	-10.7225
▁شیطان	-10.7225
▁شلوار	-10.7232
▁کمزور	-10.7233
▁افلاطون	-10.7235
▁شدت	-10.7235
▁ھلاسی	-10.7236
▁کامریڈ	-10.7236
▁کٹم	-10.7238
▁17	-10.7238
▁صدیق	-10.7239
▁کارا	-10.7248
▁کوہن	-10.7251
▁بکار	-10.7252
▁انسانیت	-10.7253
▁بستارے	-10.7253
▁تاکے	-10.7257
▁مصر	-10.7261
▁بھ	-10.7263
محمد	-10.7265
▁ستکگ	-10.7267
زور	-10.727
▁مرو	-10.7273
▁حاکمی	-10.7273
ناں	-10.7274
▁تعالیٰ	-10.7281
▁ھزارانی	-10.7281
▁مید	-10.7282
▁لنٹاں	-10.7285
▁راستے	-10.7285
ینگ	-10.7286
▁فکرء	-10.7293
▁حکمت	-10.7293
▁زگریں	-10.7295
دور	-10.7296
▁کاریں	-10.7301
▁back	-10.731
▁کارمستر	-10.7312
▁لیڈر	-10.7322
▁زاتی	-10.7322
▁فورسز	-10.7323
▁جوڑشت	-10.7325
▁unti	-10.7328
اوں	-10.733
▁نیتکگ	-10.733
▁ازت	-10.7335
▁یعقوب	-10.7335
▁شھیدانی	-10.7339
▁زبر	-10.7345
▁لینگویج	-10.735
round	-10.7354
▁ڈرون	-10.7355
▁دمانء	-10.7361
▁درکنگ	-10.7362
▁city	-10.7366
▁انت۔۔۔۔	-10.7367
▁براہوئی	-10.7367
▁کھن	-10.7371
▁دئیں	-10.7372
▁چئیرمین	-10.7373
▁سرباز	-10.7378
▁شود	-10.7381
▁گروپ	-10.7383
▁مشکول	-10.7385
▁same	-10.7393
▁original	-10.7395
▁ڈیل	-10.7398
▁پیرا	-10.7404
اہانی	-10.7407
▁کائنات	-10.7407
▁ناشرکار	-10.7413
▁نئیکہ	-10.7416
ہاں	-10.742
▁کارڈ	-10.7421
▁جنس	-10.7426
▁قیمت	-10.7429
▁زوان	-10.7434
زانت	-10.7435
▁انگیر	-10.7435
▁منٹ	-10.7438
▁اوگام	-10.7449
▁گوھر	-10.745
▁یاتانی	-10.7452
▁سنگین	-10.7455
▁کھولاں	-10.7461
▁بغیر	-10.7465
▁گوار	-10.7465
▁قابل	-10.7466
▁فلم	-10.7466
▁کمان	-10.7473
▁داخل	-10.7478
یں۔	-10.748
▁رۆچ	-10.7482
▁اینکس	-10.7487
▁جہاز	-10.7489
▁زانگء	-10.7489
▁ارشکار	-10.7496
▁عاجز	-10.7497
▁انت۔بلے	-10.7509
▁زاہد	-10.7519
▁بگندے	-10.7519
▁بچکے	-10.7521
▁پجارگ	-10.7523
کاری	-10.7525
▁day	-10.7527
▁million	-10.7528
ڑی	-10.7528
▁بدنء	-10.7533
▁people	-10.7538
▁مرزا	-10.7544
▁بستارء	-10.7546
▁شیشگ	-10.7546
▁ساڑا	-10.7549
▁return	-10.7559
▁اسکی	-10.7559
▁گوازین	-10.756
▁ریس	-10.7564
▁میتگاں	-10.7565
▁any	-10.7567
▁نازء	-10.757
یکے	-10.7575
▁شئیرء	-10.7575
▁؂۔	-10.7576
▁میز	-10.7577
▁مسعود	-10.7584
▁مردگ	-10.7585
''	-10.7585
▁میٹر	-10.7588
▁جہہ	-10.7589
▁مشک	-10.7591
▁محدود	-10.7591
▁حنیف	-10.7591
▁چاریگ	-10.7598
▁برائی	-10.7599
▁گوانکو	-10.76
▁وارت۔	-10.7602
▁عثمان	-10.7609
▁پٹی	-10.761
▁At	-10.7612
▁یونٹ	-10.7613
▁بش	-10.7615
▁گاڑیاں	-10.7616
▁زاہ	-10.7618
▁الا	-10.7619
▁سربازی	-10.7619
▁ڈ	-10.7619
▁گوشے	-10.762
▁بندے	-10.762
▁اخری	-10.762
▁ٹوک	-10.7623
▁کنٹ	-10.7623
▁زانتکاریں	-10.763
▁km	-10.7632
▁راہے	-10.7634
▁سواری	-10.7638
ber	-10.7639
▁رگام	-10.7644
▁اوتاک	-10.7648
▁player	-10.765
▁سالیں	-10.7652
▁کارگشاد	-10.7652
شہ	-10.7653
▁کاپٹر	-10.766
▁ماہء	-10.7662
روان	-10.7665
▁قربان	-10.7665
▁دابے	-10.7665
▁ھشتاد	-10.7671
▁ڈیہی	-10.7671
▁تھاری	-10.7674
▁main	-10.7675
▁اکرم	-10.7676
▁سرگ	-10.7678
علی	-10.7682
▁وھدا	-10.7685
▁نپس	-10.769
▁They	-10.7696
از	-10.7698
▁خطرہ	-10.7698
▁جنجالاں	-10.7699
نو	-10.7699
▁ورگء	-10.7701
▁ھاں	-10.7705
▁پادا	-10.7707
▁ٹرک	-10.7708
▁May	-10.7711
▁رمگ	-10.7713
▁عہدی	-10.7715
▁ہب	-10.7717
زند	-10.7718
▁گوستانک	-10.7719
▁K	-10.7724
داری	-10.7725
▁جلد	-10.7737
▁روم	-10.7737
▁تبء	-10.7737
▁باھوٹ	-10.7737
▁کمیونسٹ	-10.7743
▁پجہ	-10.7745
▁ریپبلکن	-10.775
▁کپتاں	-10.776
▁ہزاراں	-10.776
▁اسرء	-10.7765
▁بلند	-10.7768
▁How	-10.7769
ہے	-10.7769
▁زوراکیں	-10.7771
▁گشندہ	-10.7774
▁درگتء	-10.778
▁بلۆچ	-10.7781
▁حیثیت	-10.7785
▁بھت	-10.7794
▁سل	-10.7796
▁نادر	-10.7796
▁force	-10.7796
گو	-10.7796
▁کشگء	-10.7797
وار	-10.7808
▁مشت	-10.7808
▁موسیٰ	-10.781
شما	-10.781
▁August	-10.7813
▁how	-10.7815
▁ششمی	-10.782
▁جتیں	-10.7822
▁ہدا	-10.7823
▁ھؤر	-10.7829
▁بہشت	-10.7833
▁نقش	-10.7837
▁پو	-10.7837
▁کربان	-10.7839
▁گواتء	-10.7848
▁پیگمبر	-10.785
▁انچوشکہ	-10.7852
ایت	-10.7853
▁بیسہ	-10.7855
▁ایسا	-10.7856
▁John	-10.7869
▁تاگت	-10.7875
▁شیپ	-10.7877
▁گدارء	-10.7877
▁الرحمن	-10.788
▁چت	-10.7888
▁لحاظ	-10.7889
▁شانگ	-10.7891
▁ship	-10.7892
▁وڈا	-10.7897
▁اییا	-10.7898
▁سنٹ	-10.7899
▁راھشون	-10.7903
▁ازمانکاں	-10.7906
▁امباز	-10.7908
▁North	-10.791
▁بلا	-10.7912
▁اپسر	-10.7913
▁releas	-10.7914
▁جمہوریت	-10.7915
▁روا	-10.7918
▁ارتگ	-10.7922
▁دعویٰ	-10.7922
▁سہت	-10.7924
▁شرط	-10.7928
▁محکمہ	-10.7933
▁احتگ	-10.7935
▁اولاک	-10.7936
▁سادگیں	-10.7937
▁قومانی	-10.794
▁دلمراد	-10.794
▁20	-10.7942
▁دلپروش	-10.7952
▁تکاں	-10.7952
▁انٹرنیٹ	-10.7955
▁رہی	-10.796
▁میش	-10.7965
▁South	-10.7973
▁سراج	-10.7975
▁مغربی	-10.798
▁شعراں	-10.7981
▁کپنت	-10.7987
▁ہا	-10.7988
▁صلاح	-10.7988
▁down	-10.7988
▁گڑاں	-10.7989
▁رؤکیں	-10.7989
▁تھر	-10.799
ation	-10.7992
▁پلیٹ	-10.7996
ول	-10.7997
▁ٹیسٹ	-10.7997
▁سازگ	-10.7999
پرچا	-10.7999
▁بیغ	-10.8005
▁زوراکیاں	-10.8005
▁مسک	-10.8007
▁اوداں	-10.8009
شاہ	-10.8014
▁دوسرے	-10.8014
▁گالے	-10.8014
▁زانتکارانی	-10.8024
▁دوئیناں	-10.8034
▁دیمرئی	-10.8037
▁اہیء	-10.8045
زر	-10.8047
اں۔	-10.8048
زی	-10.8051
▁مارشتے	-10.806
▁انہیں	-10.8061
▁جامگ	-10.8062
▁لاچاری	-10.8064
▁مڈیانی	-10.8065
▁اکر	-10.8067
▁لوگوں	-10.8068
اچ	-10.8071
▁ارزی	-10.8074
▁پترگ	-10.8074
▁درکیت	-10.8076
▁ترسینگ	-10.8077
▁بہتام	-10.8081
▁اگوں	-10.8084
▁ایشیا	-10.8087
▁بہرء	-10.8088
▁بین	-10.809
▁جمع	-10.8094
▁ڈالچار	-10.8095
▁ون	-10.8098
▁نفسیات	-10.8099
▁مبیت	-10.8107
▁پریشر	-10.8108
▁یکرندے	-10.8109
▁پابند	-10.8109
▁معنی	-10.8112
▁name	-10.8113
▁ڈگارء	-10.8116
▁ادمء	-10.8116
▁ھمرائی	-10.812
▁لانگ	-10.8122
▁رادگ	-10.8124
▁بارگ	-10.8126
▁مادی	-10.8127
▁شو	-10.8138
▁بلاہیں	-10.814
▁رے	-10.8142
▁پگری	-10.8147
لا	-10.8153
▁درگتا	-10.8154
▁امد	-10.8155
▁support	-10.8159
▁توکل	-10.816
▁پانک	-10.8161
اشی	-10.8166
▁جھدکار	-10.817
▁کشتگ۔	-10.8175
▁زاری	-10.8177
▁ٹو	-10.8182
▁زیکیں	-10.8183
▁ازباب	-10.8183
▁برباد	-10.8186
▁لولی	-10.8188
▁قربانی	-10.819
▁دمکاں	-10.8194
▁گیجگ	-10.8194
▁Al	-10.8198
▁قلعہ	-10.8198
▁سوراب	-10.8198
▁وئیلے	-10.82
▁٭٭	-10.82
▁جہدے	-10.8202
▁کماندار	-10.8202
▁انہوں	-10.8203
▁تتکگ	-10.8206
▁War	-10.8207
▁فاضلء	-10.8207
▁ساچان	-10.8208
nother	-10.8216
▁ثبوت	-10.8216
▁بانل	-10.8217
▁گومازی	-10.8221
لچہ	-10.8225
کتگ	-10.8227
▁دہک	-10.8228
▁بوتاں۔	-10.823
۔۔۔۔۔۔	-10.8231
▁لینڈ	-10.8235
▁لیبی	-10.8236
▁بارگیں	-10.8243
▁بلائیں	-10.8244
▁سبا	-10.8244
▁گوشتی	-10.8254
▁ڈاہ	-10.8266
▁شودگ	-10.8269
▁پشتو	-10.827
▁حبرء	-10.8275
▁تمامیں	-10.8278
▁ھاموش	-10.8282
▁دارایت	-10.8288
▁انتظامیہ	-10.829
مات	-10.8291
▁کلچر	-10.8291
▁ہفت	-10.8301
▁لبزے	-10.8302
ڈی	-10.8302
▁مزاحمتی	-10.8304
▁شانی	-10.8307
▁شہم	-10.8309
▁مستی	-10.8309
▁مہری	-10.8309
▁بوچ	-10.831
▁یکدم	-10.8312
▁بیں	-10.8313
▁small	-10.8319
▁مدان	-10.8324
▁بوؤکیں	-10.8326
▁ودان	-10.8329
▁life	-10.8333
▁ظاھر	-10.8349
▁سوبی	-10.835
▁پرز	-10.8352
ok	-10.8356
ئیگ	-10.8358
▁نکان	-10.8358
▁پگار	-10.8358
▁گشنت۔	-10.8361
▁مپت	-10.8362
▁منانک	-10.8362
▁lead	-10.8364
▁off	-10.8366
▁ھاس	-10.8366
▁پترتگ	-10.8373
▁نگدی	-10.8373
یل	-10.8376
ue	-10.8377
▁لائبریری	-10.8378
▁نوجوان	-10.8381
h	-10.8381
▁لوٹوک	-10.839
▁تیرانی	-10.8392
▁اہمیت	-10.8396
▁زانئے	-10.8399
▁پان	-10.8403
▁ویب	-10.8404
▁سبزل	-10.8405
▁ھردوکیں	-10.8405
اک	-10.8406
▁15	-10.8406
▁درجگ	-10.8411
▁رپتگ	-10.8414
▁دانشور	-10.8418
▁اسکور	-10.8419
▁سیمسری	-10.8421
بو	-10.8422
وس	-10.8426
▁جستء	-10.8433
▁شہداد	-10.8437
▁مولاداد	-10.8444
▁ریفرنس	-10.8446
▁عہدء	-10.8454
▁group	-10.8455
▁رھشونی	-10.8458
▁مہلوکء	-10.846
?"	-10.8464
▁کرنل	-10.8465
گور	-10.8466
▁نبیسی	-10.8466
▁واریں	-10.8467
▁پھم	-10.8471
▁دلاں	-10.8473
▁حل	-10.8474
▁لچھ	-10.8475
▁نعمت	-10.8475
▁شائرے	-10.8477
لبزانک	-10.8478
▁ھکومت	-10.8481
▁start	-10.8482
ہو	-10.8483
▁Septe	-10.8489
وھدے	-10.8491
▁شریک	-10.8495
▁دارو	-10.8496
▁روانکے	-10.8496
▁مریم	-10.8497
▁سیالی	-10.8502
▁دزگٹ	-10.8517
غیں	-10.8518
▁اداں	-10.8519
▁پریشانی	-10.8519
داریں	-10.8519
▁receiv	-10.852
▁each	-10.8524
▁مدینہ	-10.8525
▁حشک	-10.8531
▁دروریں	-10.8541
▁ھائی	-10.8544
▁بچکندگ	-10.8544
منا	-10.8562
▁فی	-10.8565
▁حیالاں	-10.8567
▁صفحہ	-10.857
▁وه	-10.857
▁German	-10.857
▁طارق	-10.8573
▁وتئی	-10.8578
▁بزگر	-10.8584
▁البتہ	-10.8586
▁شناسی	-10.859
▁سیاستء	-10.8592
?’’	-10.8594
ry	-10.8595
▁امبازاں	-10.8597
▁ترسے	-10.8598
▁مثل	-10.8606
▁ترء	-10.8606
ازم	-10.861
ایک	-10.8612
▁قحطانی	-10.8614
▁برتگ۔	-10.8622
▁زوران	-10.8624
▁طبقہ	-10.8626
▁سدکی	-10.8629
▁اییئے	-10.8632
▁عطاء	-10.8633
▁World	-10.864
▁دومیء	-10.8644
▁برورد	-10.8647
▁حیدر	-10.8649
▁بنء	-10.8652
▁بلبل	-10.8654
▁11	-10.8659
▁دێما	-10.8668
▁مقامی	-10.8669
▁گپتار	-10.8671
▁شیرین	-10.8673
▁نہاد	-10.8686
▁ناک	-10.8687
▁ھزمت	-10.8693
▁سٹ	-10.8696
▁گیت	-10.8702
▁دریاء	-10.8706
▁باھو	-10.8709
▁لاشانی	-10.8713
▁وسیلگ	-10.872
▁فٹ	-10.8722
▁شکست	-10.8724
▁مزنی	-10.8732
▁O	-10.8743
▁ھنچشیں	-10.8747
▁دمے	-10.8755
▁توئے	-10.8758
▁زانشتی	-10.8758
▁عرض	-10.8759
▁بھار	-10.8762
▁نوش	-10.8766
▁خوش	-10.8766
▁بوٹ	-10.8772
▁محراب	-10.8772
▁نندیت	-10.8774
▁واد	-10.8777
راہ	-10.8778
▁سقراط	-10.8784
▁کبھی	-10.8784
son	-10.8786
▁میم	-10.8786
▁اشتگ	-10.8787
ست	-10.8787
▁ہون	-10.8787
▁بوتہ۔	-10.8787
▁گسر	-10.879
▁five	-10.8792
▁رپ	-10.8794
▁ٹیکی	-10.8794
▁سبر	-10.88
▁single	-10.8806
بچار	-10.8808
▁چریشاں	-10.881
▁کلو	-10.8812
▁سروس	-10.8814
▁زحم	-10.8817
▁سھیل	-10.8821
▁دستان	-10.8828
▁متحدہ	-10.8831
▁مزدور	-10.8832
▁کنز	-10.8837
وز	-10.8844
▁تھی۔	-10.8851
▁تکنیکی	-10.8855
▁مڑدم	-10.8855
▁اہان	-10.8857
▁کافی	-10.8857
▁رضی	-10.8861
▁result	-10.8864
وہ	-10.8865
▁لانک	-10.8866
ؤ	-10.8875
▁دراجی	-10.8881
▁سہبء	-10.8885
▁اپوزیشن	-10.8889
▁ڈگری	-10.8899
▁appear	-10.8911
▁جنگا	-10.8911
▁داتنت	-10.8919
▁یکشمبے	-10.892
▁بیزار	-10.892
▁یت	-10.8921
▁دارگی	-10.8923
انچو	-10.8924
▁تنکیں	-10.8929
▁افغان	-10.8931
▁معنائی	-10.8933
▁فٹبال	-10.8933
▁بلڈ	-10.8938
▁جبر	-10.8939
▁بڑی	-10.8948
▁انگو	-10.8953
▁جے	-10.8954
ڪ	-10.8956
▁واہش	-10.896
▁ق	-10.8961
▁کمکے	-10.8962
▁describ	-10.8964
▁عقلی	-10.8965
▁بنگپانی	-10.8965
▁کستر	-10.8975
▁نر	-10.8976
▁کیلئے	-10.8976
ماہ	-10.8977
▁اشرف	-10.8977
m	-10.898
▁کنائینتگ	-10.8981
▁علامت	-10.8983
▁منارا	-10.8984
▁ازمانء	-10.8985
▁رات	-10.8986
▁سردارانی	-10.8991
ایش	-10.8999
▁وداریگ	-10.9003
▁گپتگ۔	-10.9005
▁سواد	-10.9008
▁شہباز	-10.9013
▁پہمگ	-10.9015
▁مزل	-10.9016
▁باقی	-10.9017
▁ساچی	-10.9021
▁سکا	-10.9026
ton	-10.9032
مرچی	-10.9033
▁گلائیش	-10.9033
▁لگتمال	-10.9033
▁گت	-10.9033
▁ناگت	-10.9035
▁جننت	-10.9035
▁اتوں	-10.9035
▁دوشمبے	-10.9035
▁کلم	-10.9037
▁یقین	-10.904
▁دیمونی	-10.904
▁پیپلزپارٹی	-10.9044
▁ہدایت	-10.9046
▁کلاسیکل	-10.9048
▁گاماں	-10.9048
▁own	-10.9049
▁attack	-10.9051
▁زہگاں	-10.9054
▁اگاہ	-10.9057
▁لاھور	-10.9065
▁ماھی	-10.9067
▁کالونی	-10.9068
▁مگرب	-10.9069
▁احسان	-10.9074
▁جلوہ	-10.9075
▁سبزی	-10.9078
▁سئیل	-10.9083
▁پہریز	-10.9087
▁نازل	-10.9088
▁کوچ	-10.9088
▁ایردستیں	-10.9091
▁تعلقداری	-10.9092
▁music	-10.9096
▁نبوتگ	-10.9098
▁شاه	-10.9099
▁مگسی	-10.91
▁کسہانی	-10.91
▁وراں	-10.9109
▁پھریز	-10.9113
▁پلان	-10.9114
▁پسگ	-10.9114
▁گرند	-10.9115
▁ماڈل	-10.9115
▁ھوت	-10.9117
زئی	-10.9118
▁ھرنائی	-10.9118
▁ظہور	-10.9119
▁گورم	-10.9121
▁راھی	-10.9125
▁لنگ	-10.9126
▁اینچک	-10.9128
▁نگن	-10.9129
▁تکانسری	-10.9129
▁شوق	-10.9131
▁گاہ	-10.9131
▁کوہانی	-10.9132
▁دارے	-10.9135
پی	-10.9136
▁ویڈیو	-10.9138
▁دالبندین	-10.9143
▁خ	-10.9144
▁باں۔	-10.9144
▁وانیت	-10.9147
▁بورڈ	-10.9147
▁مردی	-10.9148
▁ٹپیگ	-10.915
▁سینٹر	-10.9152
▁سنگے	-10.9153
▁حالے	-10.9154
▁ماتے	-10.9154
▁ورک	-10.9158
▁جانے	-10.9159
▁دوستاں	-10.9168
▁بکنیں	-10.9172
▁تحقیق	-10.9175
▁اثرات	-10.9175
▁سالروچ	-10.9176
▁مکتب	-10.9178
▁یکےء	-10.918
▁لرز	-10.9181
▁باغ	-10.9181
▁Dur	-10.9183
▁ونڈ	-10.9188
▁سدانی	-10.9188
▁گونگیں	-10.919
▁great	-10.9192
▁درج	-10.9194
ten	-10.9202
▁شالء	-10.9206
▁یکروچے	-10.9207
▁جزم	-10.9211
▁ٹیبل	-10.9214
▁June	-10.9215
▁نشنل	-10.9216
▁دورے	-10.9219
▁وکٹ	-10.922
▁ٹ	-10.9222
▁ہک	-10.9224
▁رئیسی	-10.9226
▁کابینہ	-10.9227
▁انت۔ائی	-10.9231
▁جور	-10.9238
▁تاہیر	-10.9241
▁مدار	-10.9246
▁ملین	-10.9246
کسہ	-10.9248
ط	-10.925
▁ادریس	-10.9255
▁رکین	-10.9256
ث	-10.9258
▁consider	-10.9258
▁پژدرء	-10.9259
▁پریشی	-10.9262
▁ڈیم	-10.9262
▁زندمانی	-10.9264
پت	-10.9268
▁ہنکین	-10.9271
▁کرکے	-10.9272
▁نوکر	-10.9275
▁بلۆچی	-10.9278
ادا	-10.928
▁نزیکء	-10.9282
▁بانزل	-10.9284
▁زاھد	-10.9287
?“	-10.9287
▁زندہ	-10.9288
▁ورد	-10.9288
▁هدا	-10.9298
▁اتیں۔	-10.9301
▁جہ	-10.9302
▁توری	-10.9305
▁حبیب	-10.9306
اردو	-10.9307
▁تیرے	-10.9312
▁مھروان	-10.9317
▁پارلیمنٹ	-10.9319
▁ترینگ	-10.932
▁شموش	-10.9321
▁مبارکیء	-10.9324
▁شئیرے	-10.9324
▁ازمء	-10.9324
▁ھوشاپ	-10.9329
▁دیار	-10.9331
▁قسمت	-10.9332
▁دنیگہ	-10.9332
▁کڑی	-10.9347
دان	-10.935
▁point	-10.9351
▁since	-10.9352
▁تھام	-10.9354
▁انسانانی	-10.9356
▁میرو	-10.9358
▁گپان	-10.9358
رند	-10.9361
وئی	-10.9361
▁کبرستان	-10.9363
▁شوانگ	-10.9367
▁ئت	-10.937
▁زانشی	-10.9374
کش	-10.9376
▁مروارد	-10.9378
▁زاکر	-10.9379
▁چکر	-10.938
▁پوک	-10.9381
▁رنگاں	-10.9384
▁زردیں	-10.9384
▁مہتل	-10.9386
▁ارزشتے	-10.9389
▁دنیائے	-10.9392
▁برابری	-10.9394
▁بٹ	-10.9394
▁کشاری	-10.9394
▁قد	-10.9399
▁دوسری	-10.9401
▁ات۔من	-10.9403
▁نفسیاتی	-10.9404
▁ترگ	-10.9406
▁جاگھے	-10.9413
▁بدلء	-10.9414
▁لیکھ	-10.9421
▁زورء	-10.9427
▁سیکیورٹی	-10.9428
گندگ	-10.943
▁ملیر	-10.9431
▁برف	-10.9431
▁سانمند	-10.9433
▁قیامت	-10.9433
▁جامی	-10.9434
مزنیں	-10.9435
▁پجی	-10.9438
▁ٹکرے	-10.9441
▁گندء	-10.9443
▁order	-10.9446
▁گارڈ	-10.9449
▁بنیاتی	-10.9451
▁انٹرنیشنل	-10.9454
▁what	-10.9457
▁لوگبانک	-10.9457
▁میت	-10.9459
▁جیسے	-10.9459
▁شوکت	-10.9459
▁L	-10.9465
▁نعیم	-10.9469
▁لیکہء	-10.9472
بار	-10.9474
جن	-10.9474
▁دیواناں	-10.9476
گڈا	-10.9479
▁بزرگ	-10.9483
▁تراکناک	-10.9489
▁واھشت	-10.949
▁رابطہ	-10.9491
کتاب	-10.9492
▁W	-10.9494
▁States	-10.9494
انے	-10.9498
▁اندگہ	-10.9501
یگیں	-10.9505
▁سنگانی	-10.9513
species	-10.9516
▁دیمترء	-10.9517
▁ھیالء	-10.9518
▁اماں	-10.9518
▁ساہت	-10.952
▁لونجان	-10.9528
is	-10.9533
▁گیشین	-10.954
▁جسد	-10.9541
▁سنگینیں	-10.9541
▁مسلمانانی	-10.9545
▁گیابان	-10.9546
▁رژنا	-10.9547
▁مرکء	-10.9548
▁نوٹ	-10.9549
▁پریدہ	-10.9551
▁ٹل	-10.9551
اھاں	-10.9553
▁انت۔من	-10.9553
▁بھارت	-10.9555
▁ایلیٹ	-10.9558
گوش	-10.9561
▁سگگ	-10.9565
سا	-10.9565
▁کوسٹ	-10.9568
▁ہاتھ	-10.9576
▁سرپ	-10.9576
▁لوپ	-10.9578
▁لچ	-10.9579
▁دگری	-10.958
▁نفس	-10.9581
▁اسلوب	-10.9583
▁قانود	-10.9584
مرگ	-10.9584
منء	-10.9594
ئگ	-10.9607
▁شپانی	-10.9607
▁دودء	-10.9608
▁جنکاں	-10.961
▁هزار	-10.9611
▁واجکار	-10.9616
▁ابیتک	-10.9623
▁روچا	-10.9625
▁روایتی	-10.9628
کجام	-10.9628
▁شی	-10.9632
▁ایسے	-10.9634
▁پارلیمانی	-10.9651
▁بودلئیر	-10.9653
▁میانء	-10.9655
▁ھسین	-10.9658
▁ترسء	-10.9667
▁راجدوستی	-10.9668
uch	-10.9668
▁ماحول	-10.9672
▁مونجا	-10.9673
▁ساھتے	-10.9676
▁توم	-10.9678
▁جهان	-10.9681
▁بھٹو	-10.9688
▁بسمل	-10.9695
▁بیت۔اے	-10.9695
▁ہزدار	-10.9696
▁انفارمیشن	-10.9696
▁پورٹ	-10.9698
▁ریاض	-10.9699
▁پیسریگیں	-10.9702
▁بلی	-10.9703
▁روگن	-10.9703
if	-10.9709
▁کماشیں	-10.9709
▁کوھلو	-10.971
▁سینگار	-10.9711
▁دارانی	-10.9714
▁وزم	-10.9719
▁ڈبہ	-10.972
▁جبین	-10.9728
▁طرز	-10.973
▁رزاق	-10.9733
▁بچاں	-10.9735
▁درنیام	-10.9735
▁جمبراں	-10.9736
▁شرم	-10.9737
▁جنیناں	-10.9737
!’’	-10.9741
▁state	-10.9746
▁ہیر	-10.9746
▁سگی۔	-10.9747
▁late	-10.9748
▁پربند	-10.975
▁شعبہ	-10.9753
▁مکنت	-10.9756
▁موسمانی	-10.9756
▁تپاسگ	-10.9759
▁فیصل	-10.976
▁دونوں	-10.9761
▁جوہر	-10.9766
▁شپانک	-10.9768
▁استت	-10.9773
▁کمکی	-10.9777
▁وشیانی	-10.9777
▁پجاہ	-10.9781
▁گوئشان	-10.9783
▁جانء	-10.9787
▁ڈولا	-10.9797
▁بیماری	-10.9799
▁ائین	-10.9802
▁ھورت	-10.9802
▁یکجاھی	-10.9803
▁بخت	-10.9805
▁گوری	-10.981
▁ست	-10.9812
▁شاپ	-10.9812
▁کوھاں	-10.9815
▁ایجنسی	-10.9815
▁نعرہ	-10.9816
▁مرکزی	-10.9819
▁باتن	-10.9821
▁تربیت	-10.9822
▁بیچ	-10.9825
▁علاوہ	-10.9826
▁بحر	-10.9829
▁چوناہا	-10.983
▁انتظام	-10.9831
▁دژمنی	-10.9834
▁دوستدار	-10.9835
▁دودانی	-10.9837
▁line	-10.9837
▁طلب	-10.984
▁زون	-10.9841
▁کانال	-10.9843
▁داشت۔	-10.9844
▁ھورانی	-10.9847
▁گاری	-10.985
▁تشدد	-10.9852
▁اہت	-10.9855
▁ہنداں	-10.9855
▁شمس	-10.9857
پاکستانی	-10.9858
ھچ	-10.9858
▁will	-10.9859
▁شوھازگ	-10.986
▁لاشاری	-10.9864
وکین	-10.9865
▁مراگشے	-10.9867
▁لیکہانی	-10.9868
▁فرض	-10.9869
▁جیڑھے	-10.9871
▁درے	-10.9872
تیں	-10.9877
▁last	-10.9878
▁پورسز	-10.9879
▁famil	-10.9882
▁خراب	-10.9884
▁نبشتانکاں	-10.9886
▁حدائی	-10.9887
▁چۆ	-10.9891
▁Octo	-10.9891
2	-10.9891
▁دلمانگ	-10.9892
▁معنہ	-10.9894
▁ھوری	-10.9894
▁اتکاں	-10.9903
▁کسه	-10.991
▁رہبندانی	-10.991
▁ارٹ	-10.9919
▁دروہ	-10.9919
▁کوریں	-10.992
▁کانودی	-10.9929
▁system	-10.9931
▁منیت	-10.9932
▁ھل	-10.9932
▁ژند	-10.9933
▁تمنی	-10.9934
▁اردوء	-10.9937
▁ات۔ائی	-10.9948
▁ہسپتال	-10.9948
▁بلہ	-10.9949
▁نزء	-10.995
▁سوبء	-10.9953
▁روشن	-10.9959
▁نزام	-10.9961
▁جعفر	-10.9961
▁....	-10.9961
▁یاتاں	-10.9962
اھانی	-10.9969
▁دھلی	-10.9969
▁لہتین	-10.9971
▁week	-10.9971
▁کرز	-10.9972
▁عابدہ	-10.9973
▁راضی	-10.9977
▁ڈوک	-10.9978
▁Ap	-10.9979
▁لاشار	-10.9985
▁دنیایے	-10.9987
▁گوارگ	-10.9987
▁کیا۔	-10.9988
▁نازینک	-10.9988
▁رویہ	-10.9988
▁گرگء	-10.9992
rote	-10.9993
▁اقتصادی	-11
▁بوتنت۔	-11.0003
▁شرت	-11.0006
▁اوتاگ	-11.0012
▁کوشت	-11.0012
رنگ	-11.0013
▁ہو۔	-11.0014
پل	-11.0014
▁دھکان	-11.0016
▁اسء	-11.0016
▁گدارے	-11.0026
▁صوفی	-11.0027
▁سپاہ	-11.0028
▁تہرے	-11.0028
▁ھمنکس	-11.003
▁دہکان	-11.0035
▁پسندیں	-11.0036
▁ارسطو	-11.0036
▁تاکانی	-11.0037
▁جیڑاں	-11.0045
▁واھگاں	-11.0051
▁اسپتال	-11.0053
گوشت	-11.0055
▁کسانکیں	-11.0056
▁مردک	-11.0057
▁رستگ۔	-11.0058
ment	-11.0061
▁مرگاں	-11.0061
▁کمرہ	-11.0062
ril	-11.0063
▁ریکانی	-11.0064
▁شاہی	-11.0064
▁قریش	-11.0067
▁ایرانشھر	-11.007
▁برء	-11.0075
▁رپت	-11.0076
▁رفیق	-11.0081
▁جاگہاں	-11.0092
▁ادارہاں	-11.0095
▁چپیں	-11.0097
▁محسوس	-11.0099
▁فرد	-11.0119
▁جنزگ	-11.0119
▁بولی	-11.0125
▁قید	-11.0128
▁تنکہ	-11.0131
▁شالا	-11.0132
▁سازیں	-11.0133
▁ریسرچ	-11.0136
▁وہدا	-11.0138
▁گڈاں	-11.0144
▁کپاں	-11.0145
▁اپہ	-11.0146
▁وہاں	-11.0146
▁اوں۔	-11.0152
▁ھوناں	-11.0153
▁یہی	-11.0159
ا۔	-11.0164
▁کیں	-11.0166
▁بیمار	-11.0166
▁نیاتکگ	-11.0172
▁world	-11.0174
▁reach	-11.0175
▁واجہی	-11.0178
▁پیداوار	-11.0179
▁شتہ	-11.018
▁پولنگ	-11.0185
▁ماہیگ	-11.0188
▁ھندء	-11.019
▁ماہناز	-11.0193
▁زہگانی	-11.0199
▁راشن	-11.0199
▁ادمے	-11.0202
▁کسب	-11.0203
▁عبدالواحد	-11.0203
▁پے	-11.0204
▁ردانکی	-11.0206
▁ایسی	-11.0217
▁فطرت	-11.0219
▁واقع	-11.0223
▁لوار	-11.0227
▁now	-11.0229
▁پیسرء	-11.0233
▁کتء	-11.0235
▁role	-11.0241
▁مٹیں	-11.0243
ork	-11.0246
▁گسانی	-11.0249
▁اولاد	-11.025
▁رونت	-11.025
▁کاران	-11.0251
▁حر	-11.0255
▁لوزانی	-11.0257
▁فرمان	-11.0257
▁دروازگء	-11.0257
▁set	-11.0261
▁خاطر	-11.0264
شی	-11.027
▁داروک	-11.0273
▁فری	-11.0273
▁کپتگاں	-11.0275
▁تنت	-11.0277
▁مضبوط	-11.0278
▁طریقہ	-11.0284
▁ناکیں	-11.0286
یت۔	-11.0286
▁بچے	-11.0291
▁ڈولء	-11.0296
▁کوٹیء	-11.0297
▁وعدہ	-11.0299
▁ھیالے	-11.0301
▁پیادگ	-11.0302
▁ارشاد	-11.031
▁............	-11.031
▁سامنے	-11.031
▁won	-11.031
▁take	-11.0311
ھمیش	-11.0312
▁کلومیٹر	-11.0314
▁صالح	-11.0315
▁جاگہء	-11.0322
▁بیورغ	-11.0325
▁due	-11.0328
▁میا	-11.0328
▁اؤ	-11.0331
▁گردش	-11.0331
▁مسکرا	-11.0333
▁کسھے	-11.0334
▁ہمت	-11.0334
▁گین	-11.0336
▁چمشانکے	-11.0337
▁سیشن	-11.0346
▁منتگیں	-11.0347
▁ٹوپ	-11.0348
▁چراگے	-11.035
۔اگاں	-11.0351
▁بہادری	-11.0351
▁لائق	-11.0353
▁کردء	-11.0357
▁واز	-11.0358
▁اسکولء	-11.0361
▁گہتری	-11.0373
▁چلیم	-11.0376
▁بوہگء	-11.038
یم	-11.0388
▁پہلی	-11.039
▁child	-11.0393
▁عجبیں	-11.0395
▁وابی	-11.0397
▁ڈان	-11.04
▁ترو	-11.0401
▁head	-11.0402
▁صورتء	-11.0404
▁سوری	-11.0409
▁قتل	-11.0409
▁مشرقی	-11.041
▁لیا	-11.041
▁دویں	-11.041
▁ونگ	-11.0413
▁ایجنٹ	-11.0416
▁همک	-11.042
very	-11.0422
▁گواز	-11.0425
▁home	-11.043
▁شومیں	-11.0433
اتنت	-11.0435
▁اہل	-11.0437
▁ابراہیم	-11.0438
وان	-11.0438
▁چونائیا	-11.0447
hose	-11.0447
▁دیوکیں	-11.0448
بنت	-11.0452
▁اتحاد	-11.0457
▁بوتن	-11.046
▁ساھتاں	-11.046
▁شرگداریء	-11.0462
یات	-11.0462
▁پیغام	-11.0463
▁بیگواھیانی	-11.0466
▁کسہاں	-11.0467
▁پورہ	-11.0472
▁معیار	-11.0475
▁امبار	-11.0475
▁افسوس	-11.0478
ese	-11.048
▁ہمینچو	-11.0484
▁بادشاہی	-11.0485
▁علت	-11.0487
▁نل	-11.0491
▁منصور	-11.0492
▁پرست	-11.0494
▁تازی	-11.0504
▁جائیکہ	-11.0504
▁اسکے	-11.0506
▁ورلڈ	-11.0507
▁زوراں	-11.0511
▁قرن	-11.0513
▁direct	-11.0513
▁ساحل	-11.0514
▁اوت	-11.0514
▁کنائینت	-11.0517
▁نوشکے	-11.0521
▁allow	-11.0526
▁عراق	-11.0529
▁خرچ	-11.0532
▁کیفیت	-11.0533
▁مستقبل	-11.0534
▁دوہمی	-11.0535
▁بامرد	-11.0535
▁دیں	-11.0537
▁ڈولداریں	-11.054
▁?‘‘	-11.0545
▁ترتیب	-11.0546
▁دید	-11.0551
▁چشین	-11.0555
▁افیسر	-11.0557
▁گرپتار	-11.0558
▁هور	-11.0559
▁سفرء	-11.0566
▁لالچ	-11.0569
▁نیستی	-11.0572
▁درساں	-11.0574
▁سادگ	-11.0574
▁تحفظ	-11.0574
▁کیف	-11.0576
▁نوری	-11.0576
▁St	-11.0577
شاعری	-11.0579
▁بیث	-11.0581
▁معیشت	-11.0589
▁روانی	-11.0598
ملک	-11.0598
▁سردی	-11.0599
ینتگ	-11.0599
▁death	-11.0603
▁جاتے	-11.0604
▁بالگرد	-11.0606
▁روتگ	-11.0608
▁وهدا	-11.0608
▁جبران	-11.0609
.“	-11.0609
▁کارستے	-11.0611
▁پبلی	-11.062
▁بیاریت	-11.0621
سال	-11.0623
▁همراه	-11.0623
نک	-11.0625
▁سبارگ	-11.0625
▁اؤٹ	-11.0629
▁تئیی	-11.0632
▁تسلا	-11.0632
▁شونگال	-11.0634
▁مقبول	-11.0635
▁اصغر	-11.0635
▁دام	-11.0637
▁ماسی	-11.0639
▁وانندگ	-11.0642
▁اناگت	-11.0644
▁گپتہ	-11.0644
▁درورے	-11.0646
▁جتک	-11.0648
▁صائمہ	-11.0649
▁بیتگین	-11.0649
▁ناگیگ	-11.065
▁نگور	-11.065
▁ناولٹ	-11.0651
ینت	-11.0653
x	-11.0655
▁الہان	-11.0657
▁پیشرد	-11.0658
▁تیابدپ	-11.0659
▁غماں	-11.0659
▁انچۆ	-11.0661
اف	-11.0662
▁بالگتر	-11.0662
▁ھپتگے	-11.0664
▁گھتر	-11.0669
یئ	-11.0672
اؤ	-11.0672
▁نگاری	-11.0673
▁پائپ	-11.0674
▁رؤ	-11.0676
▁تخت	-11.0677
▁war	-11.0681
▁داخلہ	-11.0683
▁سوچگ	-11.0686
ren	-11.0688
▁کبول	-11.0689
▁نگیگیں	-11.0691
age	-11.0693
▁بہہ	-11.0693
▁شنک	-11.0695
▁ہژدری	-11.0695
▁چیلنج	-11.0698
چون	-11.0699
▁بھشت	-11.07
▁رشتگ	-11.0703
▁رمب	-11.0704
▁No	-11.0706
▁ساچگ	-11.0708
▁نرمیں	-11.0712
▁نبشتانکانی	-11.0713
▁کوم	-11.0716
▁ڈیپارٹمنٹ	-11.0717
▁سائیکل	-11.0717
▁عیسوی	-11.0717
▁زانتکاراں	-11.0719
▁کلک	-11.0725
▁ابیتکی	-11.0726
▁تش	-11.0729
▁دئور	-11.0733
▁ح	-11.0733
▁ختم	-11.0734
▁سدل	-11.0734
▁سینیٹ	-11.0736
▁ششت	-11.0736
▁ایریں	-11.0741
▁six	-11.0744
▁Janu	-11.0746
▁included	-11.0748
▁ائ	-11.0751
ive	-11.0754
▁اهاں	-11.0758
▁دینت۔	-11.0759
▁مرکز	-11.076
▁سہیل	-11.0761
▁بچاریں	-11.0761
▁انشپی	-11.0762
▁سرداری	-11.0763
▁اگ	-11.0764
▁کان	-11.0764
واب	-11.0767
▁اھم	-11.0769
سن	-11.0769
▁پجارینگ	-11.0772
▁چاری	-11.0775
▁storm	-11.0775
▁گندان	-11.0778
et	-11.0779
وہدے	-11.0782
▁انٹر	-11.0783
▁کلاگ	-11.079
▁اہد	-11.0792
▁سپریم	-11.0793
سٹ	-11.0802
▁short	-11.0803
▁بیہار	-11.0803
▁مدد	-11.0807
▁بوگا	-11.0817
▁left	-11.0817
▁کرمان	-11.0818
▁کہتے	-11.0819
c	-11.0819
▁زرت۔	-11.082
▁شیرکنیں	-11.0822
▁عمرء	-11.0822
▁دئیگا	-11.0823
▁کشتگیں	-11.0823
▁ہاران	-11.083
▁اشان	-11.0832
▁نشتہ	-11.0834
▁شلی	-11.0835
▁پھازگی	-11.0836
▁کرے	-11.0836
▁گورکی	-11.0839
▁مو	-11.0842
▁نھاد	-11.0844
▁ڈائریکٹر	-11.0845
▁England	-11.0846
▁government	-11.0847
▁غلامی	-11.0849
▁سروکاں	-11.0849
▁مھلوکء	-11.0851
▁عکسے	-11.0852
▁راہی	-11.0853
▁صباء	-11.0855
▁ھمینچو	-11.0856
▁افسانہ	-11.0858
▁اسانی	-11.086
گار	-11.0862
▁ترمپے	-11.0864
▁درنگ	-11.0865
▁زرداری	-11.0866
▁اش۔	-11.0867
▁چکا	-11.087
▁تعریف	-11.0878
▁۔ھمیش	-11.0878
▁سوگہ	-11.088
▁ٹیکس	-11.0882
▁شادی	-11.0886
▁پلک	-11.0888
▁ارد	-11.089
▁درہیں	-11.089
▁پیروک	-11.0893
▁ھنی	-11.0894
▁شموشگ	-11.0895
▁لگیت	-11.0896
▁do	-11.0898
▁سرپدیں	-11.0903
▁video	-11.0905
▁ڈولداری	-11.0906
▁خاموش	-11.0906
▁نقل	-11.0911
▁جئیند	-11.0919
▁position	-11.0921
▁شونکار	-11.0929
▁14	-11.0932
▁وغیرہ	-11.0933
▁ازل	-11.0935
▁پارک	-11.0937
▁ماریت	-11.0938
▁داگ	-11.0939
▁اسودگی	-11.0942
▁گرماگ	-11.0944
▁تنظیم	-11.0944
▁include	-11.095
▁بھائی	-11.0951
▁کارندھے	-11.0952
▁الفاظ	-11.0952
▁تھاریں	-11.0953
▁ھمراھاں	-11.0954
▁ھمیشانی	-11.0959
▁اوارجنی	-11.096
▁30	-11.0961
▁سوز	-11.0963
▁لزت	-11.0966
▁کورونا	-11.0967
▁گواتے	-11.0967
▁بڑے	-11.0972
▁قدم	-11.0973
▁قانونی	-11.0973
▁ملافاضل	-11.0978
▁جنکو	-11.0979
▁March	-11.098
▁فیس	-11.0981
▁فورس	-11.0982
▁دینا	-11.0984
▁بڑا	-11.0986
ماہتاک	-11.0988
▁رشتہ	-11.0989
▁قومے	-11.0992
▁attempt	-11.0993
▁عملء	-11.0994
▁سسی	-11.0999
▁ارسانی	-11.0999
▁13	-11.1006
▁شیوار	-11.1007
▁ماھکان	-11.101
▁موقع	-11.1011
▁جذبہ	-11.1017
▁گداں	-11.1021
▁اسک	-11.1023
▁کیمرہ	-11.1024
▁سیدء	-11.1025
▁اژدری	-11.1025
▁انجمن	-11.1025
▁چدء	-11.1028
▁وبا	-11.1029
▁کاریت۔	-11.1031
▁نسیب	-11.1031
▁خدمت	-11.1032
ذ	-11.1038
کور	-11.1039
▁کنڈے	-11.1042
▁کشکء	-11.1042
▁لیلو	-11.1052
▁کردی	-11.1052
▁نمونگ	-11.1055
▁general	-11.1056
▁جتہ	-11.1058
ty	-11.106
▁پروری	-11.107
▁حرام	-11.1074
▁ارداد	-11.1075
","","","","","	-11.1079
▁بنگالی	-11.108
▁دریگتیں	-11.108
▁موسمی	-11.1081
▁مکمل	-11.1084
▁اسن	-11.1086
▁میزائل	-11.1088
▁third	-11.1096
▁ملاقات	-11.1098
▁سکندر	-11.1099
▁ملی	-11.1102
▁شیہک	-11.1103
▁گراناز	-11.1104
▁پکیر	-11.1105
▁پانکجن	-11.1106
ستان	-11.1107
▁سستگیں	-11.1109
▁مشن	-11.111
▁بیڑبرتگ	-11.1112
▁ایڈوکیٹ	-11.1112
▁پجاروکی	-11.1112
▁دوزہ	-11.1114
کوہ	-11.1117
دوست	-11.1121
▁ھیلی	-11.1121
▁bas	-11.1129
▁سرچمگ	-11.1134
▁منیرء	-11.1135
▁گندگا	-11.1138
▁یدار	-11.1138
▁ھمگرنچیں	-11.1138
مہر	-11.1141
▁بیگواه	-11.1141
▁کارروائی	-11.1146
▁حیالے	-11.1151
▁اقوام	-11.1153
▁شعوری	-11.1154
▁ھاش	-11.1155
▁نمب	-11.1156
▁بابو	-11.1157
▁الکاپیں	-11.1167
▁تکلیف	-11.1173
پٹ	-11.1181
▁نیاز	-11.1183
▁پلگ	-11.1186
▁شگر	-11.1189
▁مھراب	-11.1189
▁کیو	-11.1192
▁اہمیں	-11.1194
▁پرچی	-11.1195
▁اھان	-11.1197
▁پیسرگیں	-11.1199
▁انگریزانی	-11.1199
▁نزان	-11.12
▁ستکگیں	-11.1203
▁سارتر	-11.1206
▁ٹکرء	-11.1206
▁قمبرانی	-11.1208
▁کیلو	-11.1209
▁عوام	-11.121
▁بلاہ	-11.1211
▁games	-11.1212
▁school	-11.1216
▁یاسر	-11.1222
▁اجب	-11.1228
▁become	-11.1231
▁previous	-11.1231
▁پھناتاں	-11.1235
▁نگار	-11.1237
▁کتار	-11.1238
▁دمگے	-11.1241
ئت	-11.1243
▁ھرچیز	-11.1243
▁Nove	-11.1243
▁ھبرء	-11.1248
▁کنٹگ	-11.1253
نیں	-11.1258
▁پولکار	-11.1258
▁چارء	-11.1259
▁چیخوف	-11.126
▁north	-11.1263
ائرا	-11.1263
▁اجتماعی	-11.1265
کراچی	-11.1276
▁ھمبل	-11.1277
▁سروکانی	-11.1277
▁men	-11.1278
▁پھازگ	-11.1278
▁پچار	-11.1281
باریں	-11.1285
▁ساه	-11.1292
▁جاورھال	-11.1293
▁جگہ	-11.1294
▁رود	-11.1294
▁جہمنند	-11.1295
▁di	-11.1298
▁ہساب	-11.1299
▁پیلوی	-11.1302
▁وڑےء	-11.1306
▁ملتان	-11.1312
▁جنوکیں	-11.1313
▁نزیر	-11.1314
▁بارت۔	-11.1318
▁ماندارگ	-11.1318
▁ہمارے	-11.1321
▁ھالے	-11.1321
▁وزارت	-11.1323
▁سلطنت	-11.1325
▁design	-11.1326
▁زامات	-11.1326
▁کافر	-11.1334
▁مج	-11.1336
▁شھراں	-11.1336
▁گڈسرء	-11.1337
▁کونڈ	-11.1338
▁دلجمیں	-11.1338
▁نتیجہ	-11.1341
▁باسکے	-11.1343
▁لشکرکشی	-11.1343
▁سربوتگ	-11.1345
▁موضوع	-11.1345
▁اوشتاتگیں	-11.1353
▁کرتی	-11.1354
▁اھوالکارانی	-11.1354
▁پریاتاں	-11.1354
▁ترسناکیں	-11.1362
▁دھک	-11.1364
▁شپی	-11.1365
▁گہہ	-11.1366
▁شاریء	-11.1367
▁اڑاند	-11.1372
▁اپے	-11.1372
▁رومن	-11.1375
▁کندیل	-11.138
▁open	-11.1383
▁نوروز	-11.1392
▁سلاھانی	-11.1393
▁Man	-11.1393
▁چدا	-11.1397
▁گندیم	-11.1397
▁چرس	-11.1404
▁چھر	-11.1405
▁تھار	-11.1405
▁جاپان	-11.1411
ہچ	-11.1413
▁پیماز	-11.1414
▁بودشت	-11.1424
▁لاف	-11.1426
▁ارزانیں	-11.1427
انسان	-11.1429
▁دکی	-11.1429
▁فراہم	-11.143
▁کالم	-11.1432
▁وتاک	-11.1434
▁ناجوڑی	-11.1435
▁اتکہ	-11.1438
▁روژنا	-11.1439
[	-11.1442
▁االله	-11.1443
▁Dece	-11.1446
▁go	-11.1447
▁تبد	-11.1448
▁غیرت	-11.1453
▁تہنائی	-11.1458
▁باوری	-11.1461
▁گردگ	-11.1462
▁حاص	-11.1463
▁مطالعہ	-11.1466
ێ	-11.1468
▁ناما	-11.147
کسے	-11.1473
▁چارگی	-11.1474
▁زمانگاں	-11.1478
▁مھتر	-11.148
۔ھمے	-11.1483
▁پبلک	-11.1484
▁ایدگرانی	-11.1486
▁ہاتر	-11.1497
▁رھبندے	-11.1498
▁ہمراہیء	-11.15
▁جگ	-11.1503
▁چراغ	-11.1504
جا	-11.1506
چشکہ	-11.1507
▁سبق	-11.1509
دا	-11.1511
▁پجا	-11.1516
▁release	-11.1516
▁ادمانی	-11.152
▁یکمی	-11.152
▁لہڑ	-11.152
▁حدیث	-11.1523
▁book	-11.1524
▁پشدر	-11.1532
▁major	-11.1534
یو	-11.1535
يں	-11.1539
▁بلوچوں	-11.1539
▁نبشتکار	-11.1545
▁title	-11.1546
▁south	-11.1553
▁character	-11.1556
یتگ	-11.1559
▁زنڈ	-11.156
▁وارس	-11.1561
▁مارے	-11.1565
▁دێم	-11.1566
▁پیشگال	-11.1567
▁شیرانی	-11.1569
▁اصول	-11.1571
▁بروبر	-11.1573
▁جانب	-11.1574
▁مڑد	-11.1574
▁نبشت	-11.1577
پس	-11.1581
ٹک	-11.1582
▁وھدئے	-11.1583
▁زندانی	-11.1584
▁پہریزگ	-11.1585
▁سجدہ	-11.1587
▁ملامتی	-11.1587
g	-11.1589
▁His	-11.1594
▁develop	-11.1595
▁جوریں	-11.1595
▁just	-11.1596
▁جادو	-11.1597
▁طالب	-11.1598
▁میتگانی	-11.1602
▁perform	-11.1602
▁انت۔۔	-11.1602
▁افراد	-11.1602
▁دہمی	-11.1606
▁ودارء	-11.1607
▁کلکشان	-11.1607
▁مرداں	-11.1608
▁جدا	-11.1609
▁پرسی	-11.1612
▁Jul	-11.1612
▁جتاھیں	-11.1612
▁وسیم	-11.1616
▁شاتکامی	-11.1616
بیت۔	-11.1616
▁ایراں	-11.1617
▁صنعتی	-11.1618
▁وپسگ	-11.1621
▁کرتیں	-11.1625
▁بیغ۔	-11.1625
▁قریب	-11.1629
▁سپاھیگ	-11.1631
شرگداری	-11.1631
▁کساں	-11.1633
▁اسرے	-11.1635
▁روبرکتی	-11.1637
▁کوه	-11.1639
▁فدائی	-11.1646
▁گلباگ	-11.1647
▁تباہی	-11.1648
▁یونس	-11.1653
▁کندگے	-11.1653
▁چارگا	-11.1654
▁رنگانی	-11.1655
لو	-11.1656
▁شہیدانی	-11.1656
▁شهر	-11.1656
▁مضمون	-11.166
▁شناخت	-11.1662
▁شیدا	-11.1663
▁City	-11.1665
▁By	-11.1668
▁بچکندے	-11.1669
▁ھیالداری	-11.1669
▁میاریگ	-11.167
▁افریقہ	-11.1673
ێا	-11.1675
که	-11.1676
▁مالوم	-11.1676
▁ضرور	-11.1677
انکہ	-11.1683
▁بوئگء	-11.1689
زمین	-11.1689
▁سمیر	-11.1693
▁ئنت	-11.1694
▁گولہ	-11.1697
▁شوکیں	-11.1697
▁بیتگاں	-11.1702
▁An	-11.1703
▁پرنگی	-11.171
▁ہواں	-11.1711
تاریخ	-11.1714
▁چاگی	-11.1714
▁لیکہی	-11.1718
▁اوشتیت	-11.1722
▁buil	-11.1722
▁نبوت	-11.1731
با	-11.1732
▁II	-11.1736
▁water	-11.1737
▁ڈال	-11.1743
▁سھت	-11.1747
▁سخت	-11.175
▁راھبندانی	-11.175
▁حشکیں	-11.1751
▁دژمناں	-11.1751
▁گن	-11.1753
▁دربرتگ	-11.1754
▁ریڈ	-11.1757
▁باقاعدہ	-11.1759
▁برتانیہ	-11.176
▁پلنگ	-11.176
▁make	-11.1761
▁مستاگ	-11.1761
▁ات۔اے	-11.1772
▁علاقے	-11.1776
▁ھا	-11.1777
▁اێر	-11.1779
▁کورس	-11.1779
▁گیا۔	-11.1784
▁دراھگ	-11.1784
▁سرور	-11.1785
▁اتکگاں	-11.1785
▁باہوٹ	-11.1787
▁ھمت	-11.1787
▁De	-11.179
▁چکی	-11.1791
▁سیائیں	-11.1793
▁ابدال	-11.1793
▁واجہء	-11.1794
▁پث	-11.1796
▁۔چہ	-11.1796
▁best	-11.1803
▁بشک	-11.1806
▁When	-11.1806
▁month	-11.1806
▁انگ	-11.1808
▁لیاقت	-11.1809
چاگردی	-11.1809
▁سندی	-11.181
▁گوانزگ	-11.1815
▁بادشاه	-11.1815
▁استانی	-11.1815
▁گامے	-11.1819
▁H	-11.1822
▁version	-11.1824
▁ھاموشی	-11.1826
▁publish	-11.1827
▁All	-11.1828
▁وڈھ	-11.183
▁گوشگء	-11.1832
▁پیرزال	-11.1833
▁مزاج	-11.1833
▁سویڈن	-11.1834
▁سلکاری	-11.1834
مر	-11.184
▁اوستا	-11.1842
▁عنقا	-11.1845
▁ماتانی	-11.1846
▁شاھد	-11.1848
▁دکانے	-11.1848
▁اختلاف	-11.185
▁ڪت	-11.1853
▁نشتگاں	-11.1855
▁بوتیں۔	-11.1856
▁بستہ	-11.1857
▁کہتا	-11.186
دگ	-11.1861
▁شوم	-11.1863
▁غ	-11.1864
▁بڑ	-11.1865
▁!!	-11.1865
▁نابود	-11.187
▁کدیر	-11.1871
▁ھروھد	-11.1872
▁شھیدی	-11.1878
▁بلوچانء	-11.1881
کرت	-11.1886
گیر	-11.1888
▁continu	-11.1889
▁ھبراں	-11.1889
▁چنڈے	-11.1891
▁ملٹ	-11.1896
▁local	-11.1896
▁برادری	-11.1898
ایا	-11.19
▁Be	-11.1901
▁مزاری	-11.1901
▁جنزء	-11.1902
▁National	-11.1903
▁باوجود	-11.1904
▁ترینتگ	-11.1908
▁nam	-11.1911
شریں	-11.1911
▁جانا	-11.1915
ness	-11.1917
▁ناسر	-11.1917
▁واکاں	-11.1917
راست	-11.1918
تک	-11.1919
▁تاوانے	-11.1919
شان	-11.192
▁جاھمنند	-11.1924
▁زوراور	-11.193
▁کبل	-11.1931
▁گالرد	-11.1933
▁period	-11.1934
▁بارکھان	-11.1936
▁پدردی	-11.194
▁اتا	-11.194
▁پرش	-11.1943
▁زرکاری	-11.1945
▁بیلہ	-11.1946
▁اغا	-11.1948
▁وپس	-11.1948
▁ایوان	-11.195
▁There	-11.1955
▁دربرجاہ	-11.1958
پمیشا	-11.196
▁ھالاں	-11.1964
▁2009	-11.1967
▁بیتاں	-11.1968
گشت	-11.1974
▁گہ	-11.1979
▁بکن۔	-11.1979
▁رازی	-11.198
▁دوسد	-11.1981
▁2010	-11.1984
▁پشین	-11.1984
▁گا۔	-11.1987
▁کانٹ	-11.1995
▁تحصیلدار	-11.1996
▁گشتن	-11.1998
▁تیراں	-11.1998
▁way	-11.1998
▁گوشتن	-11.2
▁مشکلیں	-11.2001
▁ھکل	-11.2002
تاک	-11.2002
▁حالاں	-11.2003
▁درصد	-11.2011
▁تجارت	-11.2013
▁۔بلئے	-11.2014
شاعر	-11.2014
▁شہرے	-11.2024
▁وشیاں	-11.2024
▁کشا	-11.2032
▁2008	-11.2033
▁جلسہ	-11.2035
▁نین	-11.2038
▁گڈگ	-11.204
▁دیست۔	-11.2041
▁واشک	-11.2041
▁بابل	-11.2041
▁ناکام	-11.2042
▁کریں	-11.2043
دنیا	-11.2044
▁گلاس	-11.2046
پاکستان	-11.2048
▁تواراں	-11.2063
▁ملنگ	-11.2063
▁جہاندپتر	-11.2065
▁حکومتی	-11.2069
▁ٹپانی	-11.2069
بد	-11.2069
▁جنے	-11.2069
▁جمہوری	-11.2072
▁25	-11.2076
▁اھدی	-11.2077
▁اپاں	-11.2077
b	-11.208
▁دیمے	-11.2085
▁شتگ۔	-11.2085
▁بول	-11.2085
▁even	-11.209
▁کردانی	-11.2093
▁گساں	-11.2093
▁ڈگاراں	-11.2101
▁رحمان	-11.2101
▁جوزگ	-11.2108
▁میانجی	-11.211
▁جمپ	-11.2113
▁وانان	-11.2119
▁کنغ۔	-11.2119
▁رستر	-11.2121
▁ارجان	-11.2121
تب	-11.2122
▁اگہی	-11.2124
▁River	-11.2125
▁سرہال	-11.2127
▁نیکراہ	-11.2128
▁حیا	-11.2131
▁شرین	-11.2131
▁مستری	-11.2131
رہ	-11.2133
▁کیشنز	-11.2133
▁کاسگ	-11.2133
▁تجزیہ	-11.2134
▁پیل	-11.2139
▁سیکریٹری	-11.2148
▁ملازم	-11.2148
▁اگرچہ	-11.2148
▁جھدے	-11.2151
▁نیاتک	-11.2154
▁ثواب	-11.2157
▁واھگے	-11.2157
▁شب	-11.2159
▁زہ	-11.2159
▁روگا	-11.2159
▁واپس	-11.216
▁سیاستدان	-11.2161
▁ائر	-11.2161
▁دیگا	-11.2165
▁محل	-11.2166
▁نقطہ	-11.2167
▁public	-11.2177
▁ساوڑ	-11.2183
▁برواں	-11.2186
کوئٹہ	-11.2187
اہ	-11.2187
▁گوشی	-11.2191
▁گجر	-11.2191
▁سادہ	-11.2192
▁کاریز	-11.2194
رز	-11.2195
کنوکیں	-11.2197
▁ہمدردی	-11.2199
▁مچکدگ	-11.2201
▁شوہازگ	-11.2201
▁مہکمیں	-11.2203
▁برت۔	-11.2205
▁ڈولے	-11.2206
▁ٹوہیں	-11.2206
▁شیرکنی	-11.2207
▁حالات	-11.2213
▁club	-11.2214
or	-11.2216
▁دارء	-11.2218
▁تند	-11.2222
▁اندوہ	-11.2224
▁زانگی	-11.2224
▁سج	-11.2224
▁مڑاہ	-11.2225
▁زانا	-11.2227
▁دینار	-11.223
▁سیف	-11.2231
▁ریچگ	-11.2233
▁ود	-11.2234
▁اند	-11.224
▁حبراں	-11.2244
▁درکپگ	-11.2244
▁b	-11.2245
▁باران	-11.225
▁اوکیں	-11.2251
▁انتظامی	-11.2252
▁لوٹیں	-11.2255
▁مد	-11.2262
▁اجبیں	-11.2263
▁الرحمان	-11.2265
▁ھسابء	-11.2267
▁راسک	-11.2273
▁زورگء	-11.2273
▁شنگکار	-11.2276
▁سگار	-11.2279
ابید	-11.2279
ها	-11.2279
ایشانی	-11.2279
▁ہل	-11.2282
کجا	-11.2284
▁اھی	-11.2284
▁اسودگ	-11.2297
▁بندان	-11.2298
▁کیونکہ	-11.23
▁دئیگء	-11.2302
▁اشکر	-11.2303
▁چری	-11.2309
▁اکسیجن	-11.2315
▁تنگی	-11.2319
▁لطیف	-11.2327
‘‘,’’	-11.2329
▁ذاتء	-11.2331
▁امکان	-11.2331
▁top	-11.2332
▁لهتے	-11.2333
▁کلان	-11.2334
▁ابدمان	-11.2341
▁بوئگا	-11.2344
▁شهید	-11.2345
▁ھرابیں	-11.2345
▁گڈسرا	-11.2346
▁establish	-11.2347
▁نپاد	-11.235
توار	-11.235
تنت	-11.2353
▁اساپ	-11.2354
▁رژنائیں	-11.2358
نز	-11.2359
▁سرگرمی	-11.2359
▁حاضر	-11.2359
لے	-11.236
▁اما	-11.2362
▁جنیانی	-11.2362
▁بوھان	-11.2364
▁ہانی	-11.2368
▁بداریت	-11.237
▁الف	-11.2375
▁وانوکانی	-11.2377
▁دیوالانی	-11.2377
▁وانگا	-11.2379
▁درویش	-11.238
▁روئگ	-11.238
▁still	-11.2383
▁مردیں	-11.2383
▁ایسوسی	-11.2384
▁شاھین	-11.2388
▁یڪ	-11.2391
▁گالی	-11.2396
▁درائینت۔	-11.2396
▁کنئگی	-11.2397
▁وانندگیں	-11.24
فارسی	-11.24
▁منگچر	-11.2401
p	-11.2401
دات	-11.2404
▁h	-11.2404
▁کمزوری	-11.2405
▁دس	-11.2406
▁پہلو	-11.2407
▁امیتے	-11.2408
▁نفسی	-11.2408
▁چیدگی	-11.2409
▁تبیں	-11.241
▁الگ	-11.2412
▁ھید	-11.2414
▁شکایت	-11.2414
▁۔۔۔۔۔۔	-11.2418
▁ورگی	-11.2418
▁بئے۔	-11.2422
▁نگر	-11.2429
▁امبر	-11.243
▁وڑی	-11.2431
▁طوفان	-11.2431
▁لیکہے	-11.2433
▁گمیگ	-11.2433
▁حقیقی	-11.2435
▁رش	-11.244
▁ھبدہ	-11.2442
▁تھنائی	-11.2444
▁ماسء	-11.2446
▁پروجیکٹ	-11.2446
▁ازیز	-11.2447
▁led	-11.2447
▁رچ	-11.2449
▁تجربگ	-11.245
▁career	-11.2451
▁کون	-11.2452
واں	-11.2453
▁دپا	-11.2455
▁گولی	-11.2456
▁جۆڑ	-11.2457
▁بلین	-11.2457
▁کانون	-11.2461
▁وسیں	-11.2461
▁بلیک	-11.2464
▁دلیری	-11.2465
▁شھم	-11.2466
▁دیستگیں	-11.2467
▁کتہ۔	-11.2467
▁history	-11.2467
▁رکھ	-11.2467
▁رمس	-11.2467
▁قیمتی	-11.2474
▁سروز	-11.2474
▁ھردیں	-11.2477
▁گشیت۔	-11.2478
▁زندگاں	-11.248
▁وتیگ	-11.248
▁مٹی	-11.2481
▁common	-11.2484
▁اسپیکر	-11.2487
▁چتگ	-11.2489
▁بندن	-11.2496
ie	-11.2496
▁لڈگ	-11.2497
▁ڈنگ	-11.2497
▁اسرار	-11.2497
▁قومء	-11.2498
▁اکسے	-11.2501
▁کنڈگ	-11.2507
لوگ	-11.2507
▁ایشن	-11.2513
کئے	-11.2514
چوش	-11.2514
شنگ	-11.2515
▁رمزان	-11.2515
▁دیکھا	-11.2518
▁feature	-11.252
مروچی	-11.2521
▁ڈب	-11.2521
▁مہلہ	-11.2528
▁یوک	-11.253
▁خمار	-11.2532
▁اعتبار	-11.2539
گانی	-11.254
▁ایدگراں	-11.2541
...............	-11.2542
▁زنداناں	-11.2543
▁اگے	-11.2548
▁زمیندار	-11.255
▁طاہر	-11.255
▁دوستیگیں	-11.2551
▁نازرک	-11.2552
▁شاگرد	-11.2552
▁ھج	-11.2553
▁غصہ	-11.2555
▁ملام	-11.2555
▁رودراتک	-11.2558
▁اریپیں	-11.2558
▁چکار	-11.256
▁old	-11.256
▁لہڑگ	-11.2562
ای	-11.2566
▁بیت۔۔۔	-11.2566
▁ادراک	-11.2567
▁گنجائش	-11.257
▁مدرسہ	-11.257
▁پوریاگر	-11.2571
▁اسٹیٹس	-11.2574
▁وتکش	-11.2578
▁ہمود	-11.2578
▁شائرانی	-11.2579
▁برگء	-11.2583
uent	-11.2584
▁سرینت	-11.2584
▁گوہار	-11.2585
ٹر	-11.2585
▁شناس	-11.2588
▁زباد	-11.2589
▁ھجبر	-11.259
▁یگ	-11.259
▁ایردست	-11.2594
▁زانتے	-11.2595
▁پرتو	-11.2596
▁مندر	-11.26
▁present	-11.26
▁بنداتء	-11.2602
▁often	-11.2605
▁سکھت	-11.2606
▁منشیات	-11.2606
راج	-11.2607
ارگ	-11.2609
▁تگرانی	-11.2611
▁100	-11.2611
▁سھیگ	-11.2611
▁سھرا	-11.2613
▁ہمیں	-11.2613
▁جود	-11.2617
▁دارنت	-11.2619
کریم	-11.2619
▁ه	-11.2621
▁بلۆچانی	-11.2622
▁گشیں	-11.2627
▁لاپء	-11.2633
▁واناں	-11.2634
▁کنگے	-11.2635
▁جر	-11.2637
▁site	-11.2637
▁مغل	-11.2638
▁گشتے	-11.264
▁رسینت	-11.2647
ern	-11.2649
▁پرکار	-11.2651
▁درہ	-11.2655
▁پنچیں	-11.2656
▁کسہے	-11.266
▁سلسلہ	-11.266
▁اسسٹنٹ	-11.266
▁ویکسین	-11.2661
▁کڈک	-11.2661
▁سجہیں	-11.2664
▁کیل	-11.2664
▁شادء	-11.2665
▁پلی	-11.2666
▁دزاپ	-11.2666
▁وشتر	-11.2669
▁تھیوری	-11.2669
▁کران	-11.2669
▁بکننت	-11.2675
▁side	-11.2676
▁رویں	-11.2677
ماھتاک	-11.2677
▁ھدایت	-11.2685
k	-11.2688
▁سکتا	-11.2688
▁دشتار	-11.2688
▁منظر	-11.2693
سرا	-11.2694
▁چتو	-11.2694
▁دوبارہ	-11.2695
▁دوستانی	-11.2701
▁ھلکء	-11.2702
▁شہار	-11.2703
▁تہران	-11.2705
▁میرا	-11.2707
لس	-11.2709
زانگ	-11.2713
مرد	-11.2713
▁گشگء	-11.2716
▁دیرء	-11.2722
▁سین	-11.2724
▁مارکسی	-11.2725
▁لکیر	-11.2731
▁اسٹیج	-11.2735
▁کنین	-11.2735
▁نثر	-11.2736
▁بتی	-11.2737
▁رئیسانی	-11.2739
▁کارئے	-11.2741
▁کنائین	-11.2743
▁عن	-11.2743
▁رائے	-11.2743
▁help	-11.2744
▁few	-11.2744
▁ایات	-11.2746
▁شاہد	-11.2751
▁گوشدار	-11.2751
▁کرکٹ	-11.2753
▁درنیامء	-11.2754
▁ابدل	-11.2758
company	-11.2762
کدی	-11.2763
▁شئیری	-11.2763
▁دلبر	-11.2768
▁ھردوک	-11.2768
▁J	-11.2769
▁سلیں	-11.2773
▁One	-11.2773
▁list	-11.2775
▁تاس	-11.2777
▁ہاؤس	-11.2778
▁جرنیل	-11.2778
ou	-11.2779
▁ٹوئٹر	-11.278
▁لوغ	-11.2781
▁انہ	-11.2781
▁تتک	-11.2783
▁جرگہ	-11.2785
▁شادہ	-11.2788
▁جلیل	-11.2788
▁شریء	-11.2789
▁نفرت	-11.279
▁شاعریئ	-11.279
▁دومیگ	-11.2792
▁طاقتور	-11.2794
▁next	-11.2797
▁2007	-11.2797
▁داکٹر	-11.2797
▁رھبنداں	-11.2799
▁کینگی	-11.2802
▁پنجگ	-11.2807
▁فوجء	-11.2809
▁دماگ	-11.2812
▁ائولی	-11.2816
▁دامگ	-11.2819
▁نما	-11.2824
▁پمے	-11.2829
بدل	-11.2834
▁کدرت	-11.2836
▁دودمانی	-11.2839
▁G	-11.2841
▁لائک	-11.2842
▁زن	-11.2844
▁اجوئیں	-11.2846
▁لگور	-11.2846
▁arm	-11.2847
▁جھدء	-11.2849
▁وومن	-11.285
زم	-11.285
▁ھرابی	-11.2852
▁ھاجی	-11.2853
نان	-11.2853
▁ٹکے	-11.2854
▁دوراں	-11.2856
▁کافکا	-11.286
است	-11.2861
▁حالتاک	-11.2861
کنت۔	-11.2861
▁بریگیڈ	-11.2868
▁English	-11.2868
▁پکری	-11.2868
▁بگندات	-11.2868
▁درستی	-11.2869
گیش	-11.2871
▁building	-11.2872
▁مخلوق	-11.2872
▁تہرء	-11.2874
▁مھرنگ	-11.2876
▁بیرگ	-11.2877
▁اسرمند	-11.288
▁کرتاں	-11.2881
▁دیستگ۔	-11.2882
▁نگرانی	-11.2884
▁جنگلے	-11.2884
▁بیمناکیں	-11.2885
▁اجکہ	-11.2886
▁ھاوند	-11.2887
جست	-11.2888
▁کوھنگیں	-11.289
وئیں	-11.289
▁لٹک	-11.2898
▁یاسین	-11.2898
▁سدک	-11.29
برو	-11.2901
▁جڑ	-11.2903
▁French	-11.2904
▁ھبکہ	-11.2905
▁ہچی	-11.2909
▁بیس	-11.2912
▁رنگےء	-11.2914
▁بیگل	-11.2916
▁مہے	-11.2916
▁درھیں	-11.292
▁بروبری	-11.292
▁similar	-11.2921
▁یلیں	-11.2923
▁کلیت	-11.2924
▁عیسائی	-11.2924
▁بارہء	-11.2932
ism	-11.2939
▁مرچیگ	-11.2941
▁کزا	-11.2946
▁قال	-11.2947
▁پھلی	-11.2947
▁پیس	-11.295
▁دروشماں	-11.2951
▁بساک	-11.2953
▁سربوت	-11.2958
یشن	-11.296
▁وفات	-11.296
??	-11.2962
▁برزا	-11.2962
▁ھانل	-11.2963
▁متعلق	-11.2968
▁ده	-11.2968
▁حدے	-11.2969
▁هو	-11.298
▁عبد	-11.2981
▁گوشتہ	-11.2982
▁ڈڈ	-11.2983
دیگ	-11.2984
▁سرئے	-11.2984
▁نئیت۔	-11.2985
سرجمیں	-11.2985
▁لالہ	-11.2987
کنان	-11.2987
▁درکپ	-11.2988
▁سوزیں	-11.2991
▁For	-11.2994
▁بعض	-11.2996
▁مہار	-11.2999
▁روچان	-11.3
ھیال	-11.3001
▁حالی	-11.3003
▁دیکھ	-11.3004
گوشگ	-11.3006
▁گوشانی	-11.3007
▁pass	-11.3007
▁بادشاھی	-11.3007
نوک	-11.301
نس	-11.3011
▁ہردو	-11.3012
▁کبزہ	-11.3013
▁ھچی	-11.3018
▁ساحلی	-11.3019
▁ردیت	-11.302
▁ارگء	-11.3021
▁کڈ	-11.3021
▁لوڑ	-11.3023
▁رہشوناں	-11.3027
▁اژ	-11.3027
▁پات	-11.3029
▁ھاکمی	-11.303
▁کسہء	-11.3032
▁ٹاپ	-11.3034
▁بم	-11.3035
▁سیوی	-11.3038
▁پانگ	-11.3038
▁چولانی	-11.304
▁تلب	-11.3041
پچ	-11.3042
▁دریائی	-11.3042
▁انو	-11.3042
▁مرادانی	-11.3043
علم	-11.3044
▁پاداتک	-11.3048
▁زیک	-11.3049
▁حالء	-11.305
گال	-11.3053
غاں	-11.3054
وٹ	-11.3058
▁درملک	-11.3059
▁To	-11.3066
▁کسہی	-11.3067
▁right	-11.3068
▁عاقل	-11.3069
▁عاقبت	-11.3072
▁گلا	-11.3074
▁اثار	-11.3074
▁سلاح	-11.3076
held	-11.3077
▁ملگ	-11.3079
▁power	-11.3082
▁دئیان	-11.3083
▁قصہانی	-11.3083
▁دباؤ	-11.3084
▁عامر	-11.3085
▁سواس	-11.3087
▁اکثر	-11.3088
▁انچین	-11.3097
▁ظالم	-11.3099
▁اسلء	-11.3099
▁مولد	-11.31
▁produc	-11.3102
▁رفتار	-11.3106
▁تہرانی	-11.3107
شن	-11.3109
▁محبوبہ	-11.311
▁دوستے	-11.3114
▁جاگه	-11.3116
▁ھالو	-11.3117
3	-11.3122
▁شریدار	-11.3125
▁ھاٹیگ	-11.3127
▁سریگ	-11.313
▁ورزی	-11.3132
▁came	-11.3133
▁جیڑھ	-11.3133
▁مادر	-11.3134
▁باث	-11.3136
▁لنجیں	-11.3136
▁بێگواه	-11.3137
▁مئیگ	-11.3138
▁ایردستی	-11.3141
▁یورپء	-11.3142
▁وانین	-11.3142
چوکہ	-11.3145
▁ھیک	-11.3146
▁ادماں	-11.3146
گون	-11.3149
▁جما	-11.3154
▁گزار	-11.3155
▁جال	-11.3157
▁ستار	-11.3157
▁With	-11.3157
▁دانش	-11.3158
▁گریشگ	-11.3159
▁پہناتانی	-11.316
▁ڈھاڈر	-11.3161
▁تبے	-11.3161
ia	-11.3167
▁سندء	-11.3167
▁جلدی	-11.3167
▁پھریزگ	-11.3168
▁کاکڑ	-11.3169
▁دیوتا	-11.317
▁حاجت	-11.317
▁بیستمی	-11.3172
▁ارگنائزیشن	-11.3175
▁تھسیل	-11.3175
▁برطانیا	-11.3175
دپ	-11.3176
▁نرمی	-11.3176
▁گالریچ	-11.3178
▁چارشمبے	-11.3178
▁سماج	-11.3179
▁نێست	-11.3179
▁کٹگ	-11.318
▁بالکل	-11.3182
▁پرو	-11.3183
▁رحمن	-11.3185
بنی	-11.3187
▁نانکہ	-11.3191
▁کوریا	-11.3193
▁مہم	-11.3193
▁seven	-11.3193
▁بکرتیں	-11.3193
▁چارئے	-11.3193
▁اوتھل	-11.3193
▁زاهدان	-11.3203
لوٹ	-11.3203
▁گوئر	-11.3204
▁کدر	-11.3207
▁دژمنانی	-11.3207
▁سرئ	-11.3209
▁دھا	-11.321
▁مانگ	-11.3212
▁شنز	-11.3213
▁writ	-11.3214
▁ڈیھاں	-11.3214
▁نسیر	-11.3215
▁سدلی	-11.3215
▁مزارء	-11.3216
▁لوڈ	-11.3219
▁پردگ	-11.3221
▁سرکنگ	-11.3221
▁you	-11.3228
▁level	-11.323
▁جاہمنند	-11.323
▁نپر	-11.3233
▁تصویر	-11.3234
▁نیلیں	-11.3235
▁چمء	-11.3236
▁کنر	-11.3238
▁لم	-11.324
▁ماری	-11.3246
by	-11.3246
▁رچگ	-11.3247
▁اشکار	-11.3247
▁رکگ	-11.3247
▁ینگ	-11.3248
▁متھدہ	-11.325
▁کہدہ	-11.3252
▁fire	-11.3256
▁چاروک	-11.3261
چیزے	-11.3263
▁زالے	-11.3263
▁برنج	-11.3265
▁رھشوناں	-11.3266
بت	-11.3269
▁بوتگانت	-11.3269
▁وانگجاھاں	-11.327
▁half	-11.327
▁ھاسٹل	-11.327
▁عبدالصمد	-11.3271
▁سلاہاں	-11.3273
ist	-11.3275
▁کپگء	-11.3275
▁تشے	-11.3278
▁ٹٹ	-11.3284
کیچ	-11.3286
▁مھروانیں	-11.329
▁زراب	-11.329
▁پیداور	-11.3292
▁دانا	-11.3294
▁ھورک	-11.3296
▁ات۔بلے	-11.33
▁claim	-11.3301
▁جوزہ	-11.3302
▁گرء	-11.3304
▁واکی	-11.3306
▁میوزک	-11.3307
▁ھمراھداری	-11.3309
▁ہمیشانی	-11.331
▁فل	-11.331
▁درتکگ	-11.3311
دین	-11.3313
▁گرنت	-11.3314
▁تریاک	-11.3314
سیاسی	-11.3314
▁songs	-11.3314
▁ولے	-11.3317
▁turn	-11.3318
▁ببیت۔	-11.3321
▁پہلوان	-11.3322
▁Division	-11.3322
▁چرت	-11.3323
▁واراں	-11.3323
▁رجانکی	-11.3326
▁یکوئی	-11.3327
▁former	-11.3327
▁گردان	-11.3327
سیمی	-11.3328
▁نیب	-11.3332
▁زمانے	-11.3334
▁جنجالے	-11.3335
▁لوگواجہ	-11.3337
▁گاڈی	-11.3346
▁contain	-11.3347
▁وفاقی	-11.3348
▁رجینتگیں	-11.3349
▁دئینت۔	-11.3349
▁شتگیں	-11.335
▁نئیں	-11.3353
▁تاپ	-11.3355
▁اخبار	-11.3355
▁ادارانی	-11.3355
▁ایٹم	-11.3357
spite	-11.336
▁تحصیل	-11.336
▁حاطرا	-11.3361
▁درین	-11.3365
▁کچل	-11.3367
▁زتک	-11.3367
▁مگ	-11.3371
▁حسنی	-11.3371
▁للہ	-11.3372
▁جنوزام	-11.3373
▁though	-11.3373
▁State	-11.3374
▁رجینتگ	-11.3376
نیمگ	-11.3376
▁صنف	-11.3378
▁among	-11.3378
بندی	-11.3382
▁بچارئے	-11.3382
گوات	-11.3384
▁زالم	-11.3384
▁ھؤ	-11.339
▁ٹیچر	-11.3392
▁مسکیں	-11.3392
ایوک	-11.3393
▁کروس	-11.3396
▁مناسب	-11.3399
▁برطانوی	-11.3399
▁سرفراز	-11.3402
گوادر	-11.3403
▁دینے	-11.3403
▁مذھب	-11.3403
▁full	-11.3404
▁قبائل	-11.3413
▁ترسگ	-11.3414
پیر	-11.3415
گیشتر	-11.3415
▁پادء	-11.3416
▁الکاپ	-11.3416
▁منطق	-11.3418
▁مسجد	-11.342
▁c	-11.3422
پمشکہ	-11.3423
▁شہہ	-11.3426
▁ٹرانسپورٹ	-11.3428
▁دپترء	-11.3429
▁شہراں	-11.3433
▁اسرا	-11.3434
▁گندی	-11.3438
▁واتری	-11.3441
▁امداد	-11.3442
▁گندے	-11.3448
پشت	-11.3449
▁عاصم	-11.345
مال	-11.3451
ینیت	-11.3453
▁دلوتانی	-11.3453
▁هلاس	-11.3454
▁want	-11.3455
▁قبل	-11.3458
▁المیہ	-11.3462
جنین	-11.3462
▁ھئور	-11.3462
▁church	-11.3463
▁ساچشتانی	-11.3463
▁هون	-11.3465
▁مادہ	-11.3468
▁جبکہ	-11.3471
▁کشگا	-11.3471
▁total	-11.3472
▁اربی	-11.3472
▁کھڈ	-11.3473
▁شعیب	-11.3474
▁پرویز	-11.3477
نیم	-11.348
▁دیدگانی	-11.349
▁جملہ	-11.3491
▁خلیج	-11.3494
▁ارپ	-11.3495
▁وارتگیں	-11.3499
▁بلوچان	-11.3502
▁ھرکسی	-11.3511
▁تحریر	-11.3513
▁امیتانی	-11.3513
ether	-11.3513
▁حامد	-11.3515
▁حسابء	-11.3516
▁ٹور	-11.3516
▁شف	-11.3518
▁اپانی	-11.3523
▁روحانی	-11.3524
▁پهک	-11.3528
▁دربر	-11.3528
▁production	-11.353
▁چیزئے	-11.353
▁مجن	-11.3538
▁ازاب	-11.3542
▁سوچن	-11.3544
رء	-11.3545
▁زرتگیں	-11.3545
▁ثناء	-11.3546
▁الحق	-11.3549
جوڑ	-11.3551
اتاں	-11.3558
▁محبوب	-11.3562
▁کنانء	-11.3563
▁جمب	-11.3563
▁بالاں	-11.3565
▁جبری	-11.3568
▁دیئگ	-11.3568
▁پراموش	-11.357
▁لانگو	-11.3577
▁واقعات	-11.3578
▁suggest	-11.3581
▁ملائی	-11.3583
▁پگ	-11.3585
▁population	-11.3587
نٹ	-11.3587
▁ریکوڈک	-11.3588
▁جھ	-11.3588
چیاکہ	-11.3588
▁زردء	-11.359
▁بندہ	-11.359
▁پچے	-11.3591
▁سیرء	-11.3592
▁ماحولیاتی	-11.3594
▁اسرائیلی	-11.3601
▁پادان	-11.3603
مبارک	-11.3603
▁یلو	-11.3605
▁مچھ	-11.3606
▁حس	-11.3607
▁تریت	-11.3611
▁review	-11.3615
▁پانچ	-11.3619
▁جہلانکی	-11.362
▁شاہوانی	-11.3622
▁گیران	-11.3624
▁نوید	-11.3626
▁اوانء	-11.3627
یلہ	-11.3629
▁سدو	-11.363
▁پوری	-11.3632
▁موٹل	-11.3636
▁نوخیں	-11.3642
▁ڈیوٹی	-11.3644
▁مسائل	-11.3646
▁اوشتوکیں	-11.3648
▁انتظار	-11.3648
▁کلاتء	-11.3648
▁انجام	-11.365
▁نیلگ	-11.3651
▁درنگاز	-11.3652
▁تراکانی	-11.3655
▁نشت۔	-11.3656
انچیں	-11.3657
▁سپا	-11.3658
▁چونکہ	-11.3659
▁سینیٹر	-11.3659
▁موش	-11.3662
▁ابدی	-11.3662
▁حج	-11.3662
▁further	-11.3663
▁ازمانکاری	-11.3667
▁تماہ	-11.367
▁پشمبے	-11.3671
▁پیتی	-11.3671
▁مستیں	-11.3675
▁کورے	-11.3675
▁پدرد	-11.3677
▁مارات	-11.3677
▁2011	-11.3682
▁پیرمرد	-11.3682
▁بارڈر	-11.3684
▁جناح	-11.3684
▁اچار	-11.3684
z	-11.3685
درد	-11.3687
▁لسانی	-11.369
▁ہاسٹل	-11.3691
▁field	-11.3691
▁سباہ	-11.3693
▁بندرء	-11.3695
▁جنکیں	-11.3696
شک	-11.3703
▁نوداں	-11.3704
کرتگ	-11.3705
▁جاورال	-11.3707
▁درپ	-11.3713
▁نباں	-11.3713
▁گواہی	-11.3714
▁نوشتانک	-11.3717
▁کمانڈر	-11.3717
▁منزلء	-11.3717
▁اولسر	-11.372
▁different	-11.3721
▁ڈسٹرکٹ	-11.3722
▁add	-11.3722
▁سوڑگ	-11.3722
▁تواریں	-11.3725
▁جنینء	-11.3728
▁دیش	-11.3729
▁حرف	-11.3735
▁وحید	-11.3735
▁اپسوز	-11.3738
وء	-11.3741
▁کامل	-11.3743
▁ڈاکٹرء	-11.3743
▁man	-11.3743
▁مشینری	-11.3745
▁ششتگ	-11.3746
ھوں	-11.375
▁لیکہاں	-11.3753
▁داوا	-11.3755
▁According	-11.376
▁2006	-11.376
ید	-11.3762
▁رتکگ	-11.3762
▁نجیب	-11.3762
پا	-11.3763
راستی	-11.3771
مزن	-11.3772
ھال	-11.3772
▁روء	-11.3773
▁خانگ	-11.3774
▁سدی	-11.3775
▁راجکاری	-11.3776
▁Church	-11.3779
▁گرا	-11.3784
▁دھ	-11.3784
کانی	-11.3785
▁نئی	-11.3785
▁ہورء	-11.3785
▁نادراہجاہ	-11.3786
▁ازمانکء	-11.3787
▁close	-11.3788
▁داؤد	-11.3789
▁کارکنوکیں	-11.3791
▁مرگی	-11.3792
▁بها	-11.3792
▁run	-11.3792
▁گونگ	-11.3797
▁ایئر	-11.3798
▁پیغمبر	-11.3798
اتک	-11.3799
زاناں	-11.3799
گشگ	-11.3801
▁دانی	-11.3801
▁منہ	-11.3801
▁مجیب	-11.3804
وری	-11.3806
▁چھو	-11.3808
▁۔یک	-11.3811
▁اگبالانی	-11.3811
▁تنا	-11.3813
▁دیوانگ	-11.3815
▁کندان	-11.3815
بتل	-11.3815
▁باند	-11.3816
ارش	-11.3816
▁بدواہ	-11.3817
▁ٹولیانی	-11.3821
▁جہلیں	-11.3822
▁دیتے	-11.3824
راں	-11.3828
▁ئیء	-11.383
▁طبی	-11.3833
▁سماء	-11.3835
▁اث	-11.3836
▁بگٹیء	-11.3838
رگ	-11.3838
▁ات۔۔	-11.3839
▁بلوٹ	-11.384
nd	-11.3841
شیر	-11.3845
▁زیم	-11.3846
▁زا	-11.3848
▁چارئگ	-11.3851
▁دمبرتگ	-11.3853
▁روشنی	-11.3856
▁میرین	-11.3857
▁کماشاں	-11.3858
▁باپار	-11.386
▁ہڈ	-11.3863
▁days	-11.3863
گوستگیں	-11.3869
▁زہم	-11.3871
▁وابیں	-11.3873
▁بنگلزئی	-11.3877
▁militar	-11.3878
▁نفر	-11.3885
دیوان	-11.3886
▁ھورکیں	-11.3894
▁نگیگی	-11.3894
▁ویروس	-11.3897
▁هیال	-11.3897
▁شئرانی	-11.3901
▁ندارگاں	-11.3903
▁جھلی	-11.3909
▁بوتگ۔اے	-11.3912
▁شاباش	-11.3915
▁مانزمان	-11.3916
▁official	-11.3916
▁particular	-11.3916
▁سوشلسٹ	-11.3917
یار	-11.3921
▁اناگاہ	-11.3921
▁بامنء	-11.3926
لبزانکی	-11.3926
▁برگی	-11.3927
▁گزران	-11.3931
▁نامینگ	-11.3931
▁کال	-11.3934
▁رھشونانی	-11.3935
▁بمبے	-11.3939
▁شفیع	-11.3941
▁بودناکی	-11.3941
شعر	-11.3945
▁کرنء	-11.3945
▁دستبندی	-11.3946
▁باپ	-11.3948
▁ولد	-11.395
▁سنگینی	-11.3954
▁دستور	-11.3956
▁strong	-11.3958
▁تعداد	-11.3959
کان	-11.396
۔منی	-11.396
▁رکھا	-11.3962
ہا	-11.3963
پنچ	-11.3963
▁پگرے	-11.3963
▁تہل	-11.3972
▁نصیحت	-11.3972
▁سوتکگ	-11.3973
▁ھرجاہ	-11.3979
▁اندام	-11.398
▁کنگ۔	-11.3981
▁بناربس	-11.3982
▁بنڈ	-11.3984
▁دئیگی	-11.3984
▁ساھدار	-11.3984
▁ورنائے	-11.3985
▁اوور	-11.3985
▁درمانی	-11.3986
▁بندگی	-11.3992
▁رخ	-11.3995
f	-11.3996
ران	-11.3996
▁ٹیک	-11.3998
▁تیری	-11.4
▁اسم	-11.4
▁انساناں	-11.4
▁بھیسہ	-11.4005
▁اورماڑہ	-11.4006
▁سرداراں	-11.4007
▁ماپ	-11.4007
گری	-11.4009
ئین	-11.4013
▁لنک	-11.4014
▁بحت	-11.4015
▁ٹریفک	-11.4016
▁human	-11.4017
▁change	-11.402
▁رکینت	-11.402
▁سنگھ	-11.4021
▁باشد	-11.4021
▁ہندء	-11.4024
▁درستان	-11.4024
▁حیرانی	-11.4026
▁رپتار	-11.4026
رانی	-11.4027
▁نشتاں	-11.403
▁گیریں	-11.403
▁scor	-11.4031
▁ترونگل	-11.4034
کیت	-11.4034
▁روچتاک	-11.4039
▁پہناتاں	-11.4041
▁کدہ	-11.4045
▁تگرد	-11.4049
▁دامنء	-11.405
▁مسیح	-11.4054
▁بیک	-11.4055
▁درو	-11.4057
▁عبدالمالک	-11.4057
▁لاشے	-11.4058
▁ابی	-11.4059
▁نزانتگ	-11.4061
▁ورناھانی	-11.4061
▁رسائی	-11.4063
▁گدانی	-11.4064
▁واہگانی	-11.4065
▁تنیگ	-11.4066
▁کارگال	-11.4067
▁سحر	-11.4068
▁ہزارانی	-11.407
▁چریشیء	-11.407
▁زورگری	-11.4071
▁مهلوک	-11.4072
▁دورانی	-11.4073
▁گورے	-11.4074
▁دزبمب	-11.4075
▁وادی	-11.4076
▁گنتر	-11.4078
▁انگلش	-11.4079
▁گریبی	-11.4081
▁گیشینت	-11.4084
▁بمبگواری	-11.4087
▁فارس	-11.4088
▁ہمیشہ	-11.4092
▁جانور	-11.4093
▁League	-11.4096
▁ابوبکر	-11.4098
▁every	-11.4099
▁گوشتانک	-11.41
▁عیش	-11.4103
▁مکر	-11.4105
▁پشاور	-11.4106
▁قبرستان	-11.4109
▁جنکء	-11.4111
▁بجنت	-11.4112
دوئیں	-11.4113
▁increase	-11.4116
▁جج	-11.4116
▁ورزش	-11.4116
▁فورم	-11.4116
▁کیشن	-11.4118
▁ریگستان	-11.4119
▁ملار	-11.4119
▁مہربان	-11.4123
▁وٹ	-11.4123
▁دکاندار	-11.4124
سنگ	-11.4125
▁مجاں	-11.413
▁وتکاریں	-11.413
▁):	-11.4131
▁ڈور	-11.4133
▁ضد	-11.4133
▁دنیائی	-11.4134
▁پیکر	-11.4135
▁واریاں	-11.4137
▁رائٹس	-11.4138
چر	-11.414
چل	-11.4141
جت	-11.4141
▁مکرانء	-11.4144
▁control	-11.4146
ھان	-11.4146
▁محتاج	-11.4146
▁گروہ	-11.4147
▁گپی	-11.4148
گش	-11.4148
▁حالکار	-11.4152
▁تضاد	-11.4152
▁مراں	-11.4153
▁ماہے	-11.4154
▁اتھارٹی	-11.4156
:’’	-11.4157
استاد	-11.4157
▁اسٹریلیا	-11.4158
▁عملے	-11.4159
▁کچھی	-11.4161
▁السلام	-11.4162
حال	-11.4163
▁مانی	-11.4164
▁بوته	-11.4164
▁شمال	-11.4165
مدام	-11.4165
▁ہورت	-11.4169
▁ترسناک	-11.4169
▁ہردیں	-11.4171
▁سچ	-11.4171
▁عادل	-11.4173
▁عنہ	-11.4175
▁سھریں	-11.4176
▁per	-11.4177
▁فہم	-11.418
▁مہراں	-11.4185
▁مڈیاں	-11.4186
▁شدکش	-11.4189
▁دروگے	-11.4192
▁لوک	-11.4195
▁یمن	-11.4196
▁استالاں	-11.4202
▁گێشتر	-11.4202
وانگ	-11.4205
▁صلاحیت	-11.421
▁کؤر	-11.421
ebru	-11.4216
شتگ	-11.4219
▁خط	-11.4224
▁ملکا	-11.4228
▁شیری	-11.4234
▁گنت	-11.4235
▁service	-11.4237
ازات	-11.4239
▁finish	-11.4239
▁جمڑی	-11.424
▁ایگی	-11.424
▁بیگی	-11.4241
مست	-11.4241
▁یاداشت	-11.4244
▁caus	-11.4245
▁گولے	-11.4251
▁شہدگ	-11.4253
▁real	-11.4253
▁we	-11.4256
▁اک	-11.4257
▁۔منی	-11.4258
▁کامیو	-11.4259
▁ماناء	-11.426
▁کوچگی	-11.4261
▁سامراج	-11.4262
▁زرانی	-11.4262
▁لرزگ	-11.4264
▁دمگدار	-11.4264
▁کنوکے	-11.4264
الم	-11.4264
▁kill	-11.4267
▁ٹن	-11.4267
گان	-11.4267
▁track	-11.4269
▁پھنات	-11.4276
▁چلی	-11.4278
gave	-11.4279
ھمک	-11.4281
▁انار	-11.4283
▁ترانگاں	-11.4288
▁جیڑھاں	-11.4288
▁بوتگنت۔	-11.4294
میان	-11.4294
▁defeat	-11.4299
▁ڈاؤن	-11.4301
▁محکمیں	-11.4301
اسلام	-11.4304
▁لشکرے	-11.4305
▁گنوکیں	-11.4306
▁بوتوں	-11.4306
▁تکہ	-11.4306
▁چلگ	-11.4308
▁بائی	-11.4308
▁پرمات	-11.4309
▁کیپ	-11.4311
▁مہرک	-11.4312
وڑ	-11.4316
▁ردان	-11.4316
▁دارانت	-11.4317
▁ٹپاں	-11.432
▁دلکش	-11.4322
اج	-11.4322
▁کراس	-11.4323
▁بلیدی	-11.4323
▁گرے	-11.4324
ھدا	-11.4324
▁معتبر	-11.4325
▁‘‘(	-11.4325
ودی	-11.4325
▁معنایے	-11.4328
▁ناجوڑ	-11.4331
▁جندے	-11.4331
▁لوٹے	-11.4333
▁شرک	-11.4334
▁تاکء	-11.4335
لٹ	-11.4337
▁استادے	-11.4337
stead	-11.4338
▁کارجاہ	-11.4338
▁Song	-11.4339
▁Dylan	-11.434
▁پراں	-11.434
▁بیانے	-11.4341
▁ایی	-11.4342
▁مولم	-11.4345
▁دردناکیں	-11.4351
▁reported	-11.4351
▁رنگا	-11.4353
▁کوہاں	-11.4357
▁cover	-11.4357
سہ	-11.4359
▁شکلیں	-11.436
▁ٹائم	-11.4361
▁ٹکٹ	-11.4362
▁مولا	-11.4362
▁درچکاں	-11.4363
▁دروغ	-11.4366
▁چندن	-11.4369
▁دستونکئ	-11.437
▁موم	-11.4372
▁جسے	-11.4374
▁رج	-11.4374
▁اداراں	-11.4375
▁ٹیل	-11.4376
▁سائٹ	-11.4378
▁ائیگ	-11.4378
▁ھندے	-11.4378
▁.....	-11.4382
▁نزدیک	-11.4384
▁گالوارے	-11.4386
▁جیڑہاں	-11.4387
▁موسمء	-11.4389
▁چنانچہ	-11.439
▁عبدال	-11.4392
▁پیرس	-11.4393
▁کامران	-11.4393
▁ازیت	-11.4395
▁بنگال	-11.4397
el	-11.4398
▁منزلے	-11.4401
▁علاقوں	-11.4402
▁حفاظت	-11.4405
▁لوٹنت	-11.4406
▁منظم	-11.4406
▁سوبا	-11.4406
▁land	-11.4409
▁جمھوری	-11.4409
▁unit	-11.441
▁مرتگ۔	-11.441
▁بیائے	-11.4412
ڈن	-11.442
▁ببا	-11.4422
▁بیثہ	-11.4424
▁اومر	-11.4425
▁وارڈ	-11.4425
▁دلجان	-11.443
شاد	-11.443
▁کسو	-11.443
ical	-11.443
▁ندارگے	-11.4434
▁دیبا	-11.4434
▁east	-11.4435
▁کسا	-11.4435
▁دروشمیں	-11.4438
▁کنت۔۔۔	-11.444
▁لھم	-11.444
▁قاصد	-11.4444
▁ممبر	-11.4445
▁story	-11.4445
▁گمء	-11.4448
▁پہکیں	-11.4449
▁کشتہ	-11.4451
▁بزانتیں	-11.4452
رس	-11.4452
▁سماہ	-11.4454
▁ژ	-11.4455
▁رام	-11.4456
▁اسپین	-11.4457
▁ماوتی	-11.4458
▁سخی	-11.4458
▁اتمانء	-11.4459
▁گمراہ	-11.446
▁ڈاکٹرے	-11.4464
▁2012	-11.4464
▁air	-11.4465
▁جنگول	-11.4468
▁انچوکہ	-11.4468
▁انگریزاں	-11.447
▁گيئشتر	-11.4471
ؤں	-11.4471
▁منندیں	-11.4471
▁راھاں	-11.4472
▁21	-11.4472
ایران	-11.4473
▁چاراتگ	-11.4476
▁رنجاں	-11.4477
▁ھاندان	-11.4478
▁تخلیقی	-11.4478
moved	-11.4478
▁۔اگاں	-11.4482
▁ترانت	-11.4482
▁پنوں	-11.4483
▁لانچر	-11.4484
▁اشارگ	-11.4486
ous	-11.4487
▁برگیڈ	-11.4487
مند	-11.4489
▁تچوکیں	-11.4492
▁قمبر	-11.4493
▁پداں	-11.4495
▁لاگریں	-11.4495
▁چندر	-11.4497
▁ادارے	-11.45
شھلچہ	-11.4502
۔۔۔۔۔۔۔	-11.4503
▁قریشی	-11.4504
▁کرناں	-11.4507
▁بکناں۔	-11.4508
▁ہست۔	-11.451
▁توشگ	-11.4514
▁body	-11.4515
▁تنیگہ	-11.4515
▁چکاسگ	-11.4522
ئنت	-11.4523
▁پشتا	-11.4524
▁پدرائی	-11.4527
▁یونائیٹڈ	-11.4529
لگ	-11.453
▁ملکیت	-11.4532
پاد	-11.4533
ڑو	-11.4536
▁کرنچ	-11.4538
▁درنجگ	-11.4539
▁دیوانا	-11.4539
گین	-11.4541
▁شرح	-11.4541
مار	-11.4543
▁همیش	-11.4544
▁تؤ	-11.4546
▁مجاہد	-11.4547
▁کردہ	-11.4548
▁سئید	-11.4549
▁ات۔ائیء	-11.455
لیں	-11.4551
▁مہلنج	-11.4552
▁چہرء	-11.4552
▁لاگر	-11.4555
▁match	-11.456
اتکگ	-11.4561
▁ڈر	-11.4564
▁پارست	-11.4566
▁ٹکی	-11.457
لہ	-11.4572
▁گؤں	-11.4574
▁فلسطین	-11.4575
▁تہلیں	-11.4575
▁چنڈگ	-11.4576
▁دمگء	-11.458
زان	-11.459
▁وتواجھی	-11.4592
▁ھمروچیگیں	-11.4596
▁دیستہ	-11.4596
▁حوالے	-11.4598
▁گوریچ	-11.4601
▁پڑاں	-11.4602
▁جیڑیت	-11.4606
▁ذرائع	-11.4614
▁سوبمندیں	-11.4615
▁بیبو	-11.4618
▁چاریگی	-11.4621
▁سامی	-11.4623
▁ہرچیز	-11.4623
▁Arm	-11.4624
▁نازاں	-11.4624
▁tropic	-11.4628
▁رہبنداں	-11.4628
▁General	-11.4632
▁بشام	-11.4634
▁لوچ	-11.4634
▁پیرو	-11.4635
راجی	-11.4638
▁ڈیہ	-11.464
▁چداں	-11.4641
▁تولگ	-11.4642
▁پاہو	-11.4645
▁سنگتء	-11.4645
سو	-11.4648
▁اشکرانی	-11.4652
▁بخاری	-11.4652
ٹو	-11.4654
▁بروک	-11.4655
▁گنی	-11.4657
▁ٹرمپ	-11.4659
▁دکتر	-11.466
▁بالادء	-11.4663
▁ردومء	-11.4664
▁زانتیں	-11.4666
▁کری	-11.4668
▁دیری	-11.4668
ئگا	-11.467
▁ریاستء	-11.467
▁کلہ	-11.4675
الی	-11.4678
▁بکشاتگ	-11.468
▁بدیاں	-11.4682
▁نبیسوک	-11.4689
اوتی	-11.4689
▁ابرو	-11.4689
▁سمندری	-11.4689
▁پہلوی	-11.4692
▁ڈویژن	-11.4696
▁جذبات	-11.4696
▁انتخاب	-11.4698
▁کچہ	-11.4699
▁ھترہ	-11.4699
▁حالگش	-11.4701
وخ	-11.4702
وھد	-11.4706
▁بندیک	-11.4707
▁رہشونی	-11.4707
▁نامانی	-11.4709
ئن	-11.4709
▁تباھی	-11.471
▁بچاراں	-11.471
▁ڈلگ	-11.471
▁ھمدردی	-11.4711
▁موسی	-11.4712
▁اسری	-11.4713
▁توانا	-11.4714
▁hav	-11.4719
▁ڈیموکریٹ	-11.472
▁house	-11.4722
▁لوٹائینت	-11.4724
▁مردمےء	-11.4725
▁region	-11.4725
▁گشتہ	-11.4728
▁فیکٹری	-11.473
▁کتگین	-11.4731
▁critic	-11.4731
▁ھتم	-11.4735
▁Japan	-11.4739
▁گسے	-11.4741
ہند	-11.4741
▁برائے	-11.4743
▁کسانیء	-11.4746
▁براتی	-11.475
▁خیرات	-11.475
▁بیلاں	-11.4753
▁میڑہ	-11.4753
▁متلبے	-11.4754
▁پکراں	-11.4754
▁کشکاں	-11.4755
ۆ	-11.4756
▁نشار	-11.4757
▁باطن	-11.4759
▁مانش	-11.4759
▁زہگے	-11.476
▁گیشواری	-11.4761
▁times	-11.4761
▁ندوی	-11.4764
عربی	-11.4765
▁غازی	-11.4766
▁writing	-11.4768
یان	-11.4768
اشانی	-11.477
چوشکہ	-11.4771
▁سائنسدان	-11.4771
▁سینزدہ	-11.4775
▁بلکنہ	-11.4777
▁پورم	-11.479
▁کارپد	-11.479
▁بیگہ	-11.4794
▁بیاں	-11.4797
▁ربیتی	-11.4799
▁گیشنگ	-11.4799
▁term	-11.4801
▁جوانتریں	-11.4802
▁مدگ	-11.4803
▁کمیونٹی	-11.4804
▁creat	-11.4804
▁بئیگا	-11.4805
▁کمکء	-11.4806
▁بہتر	-11.4806
▁گنبد	-11.4806
▁سرو	-11.4808
▁?”	-11.4808
▁برد	-11.4809
▁لاطینی	-11.4809
▁لوزاں	-11.4809
▁اتراپ	-11.481
▁ناسرپد	-11.4812
seen	-11.4812
▁لیکو	-11.4814
▁کاپی	-11.4818
▁members	-11.4819
▁گشگا	-11.4822
▁fee	-11.4826
▁بیئگ	-11.4826
▁دزمانجنی	-11.4827
▁چرا	-11.4828
▁low	-11.4829
▁جدگال	-11.4829
▁مارت	-11.4829
▁بیگاہء	-11.4832
▁گواھی	-11.4832
▁تاچ	-11.4832
▁ٹہک	-11.4834
▁انڈین	-11.4835
▁نئیل	-11.4836
▁ایڈیشن	-11.4836
▁پہنچ	-11.4837
▁گوئی	-11.4837
▁قاتل	-11.4838
▁west	-11.4839
▁انچ	-11.4841
▁ازمانکی	-11.4844
▁ساپیں	-11.4846
▁کارکردگی	-11.4847
▁مغرب	-11.4849
▁پتا	-11.4849
▁بنام	-11.4851
▁محسن	-11.4856
▁پرشگ	-11.4857
▁اٹلی	-11.4859
▁star	-11.486
▁انیگیں	-11.486
▁project	-11.4861
▁عمان	-11.4861
▁اسٹال	-11.4861
جنک	-11.4862
▁فرید	-11.4863
▁باھند	-11.4864
▁عیسی	-11.4864
▁انچائیں	-11.4869
▁ژانگول	-11.4871
اگر	-11.4872
▁ملنڈ	-11.4873
▁لبرل	-11.4873
▁خیبر	-11.4875
▁نوٹس	-11.4875
▁جوانسال	-11.4876
▁الہ	-11.4879
▁جاورے	-11.488
▁ٹاک	-11.488
غلام	-11.4882
▁کیوں	-11.4882
▁شه	-11.4883
▁قلمکار	-11.4884
▁سرگوز	-11.4887
▁ہنری	-11.4888
▁ذریعے	-11.4891
▁ہوکر	-11.4894
▁کپتیں	-11.4894
▁کته	-11.4898
▁سہتے	-11.4902
▁تقریبا	-11.4903
lost	-11.4903
▁نیو	-11.4904
▁()	-11.4906
کارے	-11.4907
▁شکی	-11.4909
▁پسوء	-11.4912
▁اسمائیل	-11.4914
▁country	-11.4914
▁عبدالکریم	-11.4915
▁گی۔	-11.4916
▁شاید	-11.4918
▁کوشانی	-11.4919
▁سرکارا	-11.492
▁گفتار	-11.4921
▁ماراں	-11.4922
▁بانداتء	-11.4923
▁America	-11.493
ہانی	-11.4931
▁شیک	-11.4933
▁young	-11.4934
▁میراس	-11.4935
▁چانگ	-11.4937
▁کرپشن	-11.4939
▁متاہ	-11.4939
▁۔بلوچی	-11.494
▁پرینتگ	-11.494
▁کارایت	-11.4942
بیگواہ	-11.4945
▁مزید	-11.495
▁اسٹیٹ	-11.4955
....!	-11.4955
▁دارئے	-11.4957
▁قہر	-11.4957
▁نذر	-11.496
گدار	-11.4963
دری	-11.4966
▁تھیں	-11.4966
▁مھم	-11.4966
▁برنت	-11.4967
ley	-11.4967
▁نامگال	-11.4968
▁پاری	-11.497
▁سچگ	-11.4972
▁راجہ	-11.4972
▁کامیابی	-11.4974
▁نانء	-11.4976
▁پاساں	-11.4977
▁انگریزوں	-11.4978
▁ھمایاں	-11.4979
▁base	-11.4981
▁ھمسیادی	-11.4981
▁جنگوجانی	-11.4982
▁23	-11.4983
▁بیھال	-11.4984
▁صوت	-11.4985
▁روپ	-11.4986
▁درشت	-11.4991
▁پرزند	-11.4992
given	-11.4995
کٹ	-11.4995
لک	-11.4997
ساحر	-11.4997
دم	-11.4997
▁چٹی	-11.4999
uarter	-11.5001
▁خواتین	-11.5001
▁شادان	-11.5002
▁thought	-11.5003
▁پجارے	-11.5004
▁استین	-11.5004
▁باتیں	-11.5005
▁دف	-11.5006
▁tour	-11.5008
▁گواتانی	-11.5008
▁زانوگر	-11.5011
احمد	-11.5012
▁ھالیگ	-11.5018
▁جارج	-11.502
▁لگگ	-11.5022
▁گوزگء	-11.5022
▁اقتدار	-11.5023
▁ھرتال	-11.5024
▁گارڈز	-11.5025
▁کارکرد	-11.5025
▁عدم	-11.5028
▁چما	-11.5028
▁ذیل	-11.503
▁بہرانی	-11.5036
▁West	-11.5037
▁برانت	-11.5037
▁بادگیر	-11.5038
▁کسھاں	-11.5039
▁ریگی	-11.5043
▁اذیت	-11.5047
▁Whil	-11.5053
went	-11.5054
▁کماندان	-11.5054
▁ریاستے	-11.5054
▁پشومان	-11.5057
کمے	-11.5059
▁دانائی	-11.5061
تن	-11.5062
▁مسام	-11.5062
▁اتش	-11.5062
▁ازاتیء	-11.5064
▁2013	-11.5066
▁سینئر	-11.5066
▁زمینانی	-11.5068
▁گرئگ	-11.5069
▁تپر	-11.507
▁سوا	-11.5071
▁پیمے	-11.5074
سفرخان	-11.5074
▁ہنچش	-11.5079
▁چھٹی	-11.508
▁رسینتگ	-11.5086
▁ھزانگ	-11.5089
▁ایمنسٹی	-11.5089
▁روی	-11.5091
▁روٹکی	-11.5092
▁یکشلی	-11.5094
▁غفور	-11.5095
▁گاڑیء	-11.5095
▁چرگ	-11.5103
▁less	-11.5106
▁گندگی	-11.5107
▁صحیح	-11.5107
▁light	-11.5107
نڈ	-11.5108
سرپد	-11.511
▁ضمانت	-11.511
▁بارکزئی	-11.511
▁پیوست	-11.5112
▁لیپ	-11.5113
▁اشعار	-11.5113
▁دراھی	-11.5115
▁تربتء	-11.5115
▁توپ	-11.5115
▁گیشوار	-11.5119
▁mak	-11.512
▁زانتکارے	-11.5121
▁کلاسیک	-11.5127
▁جنگلی	-11.5127
▁مردانی	-11.5128
▁۔پدا	-11.5129
▁دیاں۔	-11.5129
▁دیوالاں	-11.5132
▁دردی	-11.5132
▁شائراں	-11.5133
▁بچاریت	-11.5134
▁پاسپورٹ	-11.5134
▁operation	-11.5135
غی	-11.5136
▁واکیات	-11.514
▁حدء	-11.514
▁روزی	-11.5141
▁زهر	-11.5141
▁راھانی	-11.5142
ہیں	-11.5142
▁ترکیب	-11.5143
▁ساہدار	-11.5144
▁جاورء	-11.5144
▁سرتاک	-11.5145
▁ناروے	-11.5148
▁ھمساھگ	-11.5148
▁اپیل	-11.5148
▁مریض	-11.5152
▁فصل	-11.5157
▁کینسر	-11.5159
▁پتاتگ	-11.516
▁ي	-11.5161
▁ورناھاں	-11.5161
نیست	-11.5165
ally	-11.517
▁پیسہ	-11.517
▁زانتاں	-11.5172
▁پٹگ	-11.5173
▁ماسکو	-11.5173
▁کوکو	-11.5174
▁جیڑگء	-11.5176
niversit	-11.5177
▁never	-11.5177
▁development	-11.5178
▁ٹائپ	-11.5179
▁منو	-11.518
▁رچان	-11.5181
▁جذبگ	-11.5184
▁هک	-11.5184
▁ادارکی	-11.5188
▁جاورحال	-11.5189
▁جاڑی	-11.5194
▁range	-11.5199
▁style	-11.5202
▁مشورہ	-11.5203
▁لیس	-11.5204
▁plan	-11.5207
▁بلاک	-11.5209
▁stated	-11.521
▁چھوڑ	-11.5212
▁تاجر	-11.5212
مین	-11.5212
▁بھرام	-11.5214
▁نہیں۔	-11.5218
ther	-11.5219
▁کیچء	-11.5219
▁کرو	-11.5219
غا	-11.5219
▁دشمنی	-11.5222
▁novel	-11.5222
▁سفیر	-11.5222
▁دوداں	-11.5223
▁پرا	-11.5223
▁award	-11.5225
▁popular	-11.5228
▁ایدیم	-11.5228
▁اجزاء	-11.5228
▁ببو	-11.5229
▁action	-11.523
▁وند	-11.5231
▁سجاد	-11.5234
▁چمی	-11.5234
▁ننک	-11.5234
دیما	-11.5235
▁دلسیاہ	-11.5235
▁زالکار	-11.5236
▁پیٹ	-11.5236
▁شگل	-11.5237
یس	-11.5237
▁پسانی	-11.5245
▁کردارانی	-11.5245
▁بہرام	-11.5247
▁سفرنامہ	-11.5247
▁ھیرو	-11.5248
▁کچکے	-11.5248
▁ھیروپ	-11.525
▁وشحالی	-11.5254
▁لوٹائینتگ	-11.5256
▁راھبندے	-11.5258
▁ہلاسی	-11.526
▁شاھو	-11.5261
▁کارستاں	-11.5267
▁سانتیاگونصر	-11.5269
▁لبزی	-11.5271
▁کدیم	-11.5271
▁نسب	-11.5273
▁کنا	-11.5273
▁ولید	-11.5275
▁براتے	-11.5276
▁پرسیگ	-11.5276
پور	-11.5277
▁سسائی	-11.5278
▁امانت	-11.5278
▁لینن	-11.528
▁ینت	-11.5281
▁کشوک	-11.5284
▁طائر	-11.5287
▁ھداء	-11.529
▁روایات	-11.5293
▁چنگیز	-11.5295
▁زیراں	-11.5296
▁پروشی	-11.5299
▁بحران	-11.5301
▁نادریں	-11.5303
▁ھیالی	-11.5303
▁ہوا۔	-11.5304
سری	-11.5306
▁موسمے	-11.5307
▁حکمران	-11.5308
▁ھیات	-11.5308
▁نشانے	-11.5308
▁داس	-11.5309
▁کمپان	-11.5311
▁toward	-11.5316
▁نکاح	-11.5317
▁کسٹم	-11.5317
▁ترسیت	-11.5319
▁اصلیں	-11.532
▁گرام	-11.532
▁گلگدار	-11.5323
▁اینٹی	-11.5325
da	-11.5327
▁کشادگ	-11.5328
▁کسھانی	-11.5329
▁سرمچارے	-11.5331
▁سیا	-11.5331
▁بدر	-11.5333
▁دپار	-11.5337
▁ایمانداری	-11.5337
▁جاھانی	-11.5338
▁دریافت	-11.5339
▁بحری	-11.534
▁گوربام	-11.534
N	-11.534
▁Park	-11.534
▁سبکیں	-11.5342
▁جارے	-11.5344
▁کاپرء	-11.5346
▁کپودر	-11.5346
▁بندری	-11.5351
▁ساعتے	-11.5352
▁پجیگ	-11.5355
▁ہپتاد	-11.5357
▁اصطلاح	-11.5359
▁بگاوت	-11.536
▁Australian	-11.5363
▁ھلو	-11.5365
▁ٹکء	-11.5368
ہوار	-11.537
▁امب	-11.5374
مل	-11.5376
▁اوژناگ	-11.5378
▁نکل	-11.5381
▁مختار	-11.5381
▁پلاسٹک	-11.5383
▁مسلماناں	-11.5383
▁ماحل	-11.5384
▁مومنٹ	-11.5385
پرچے	-11.5386
▁ft	-11.5386
▁نمائندگی	-11.5388
▁50	-11.539
▁گشادی	-11.5391
▁پردہ	-11.5392
▁ساھگء	-11.5396
▁مصری	-11.5397
self	-11.54
فر	-11.5401
▁سیاہی	-11.5401
▁گریں	-11.5405
▁حضور	-11.5405
وف	-11.5407
▁فراز	-11.5407
▁کسارت	-11.5408
ایں	-11.5408
▁۔ما	-11.5411
▁complete	-11.5411
▁حیالداری	-11.5411
▁برج	-11.5413
▁پنج	-11.5414
▁دابء	-11.5415
▁پڑی	-11.5416
▁فلاں	-11.5418
▁دمانی	-11.542
▁رزان	-11.542
▁مخالف	-11.5423
▁پراھگ	-11.5423
▁تہت	-11.5423
▁منتوار	-11.5425
▁بوت۔۔۔	-11.5425
▁پێسر	-11.5426
▁توازن	-11.5428
▁رھم	-11.5432
▁انگار	-11.5435
▁وجودء	-11.5438
▁سعدی	-11.5438
▁بتلانی	-11.5439
▁پشومانی	-11.5442
▁سورس	-11.5443
▁عربانی	-11.5445
▁داتیں	-11.5448
روکپتی	-11.5448
▁تروتاب	-11.545
▁مشکت	-11.5451
▁گورنمنٹ	-11.5452
coming	-11.5452
▁مھکمی	-11.5455
▁تانا	-11.5456
▁۔ہمے	-11.5462
▁نگدء	-11.5464
▁پشل	-11.5466
▁رہبندے	-11.5468
▁زهگ	-11.547
▁وانوکیں	-11.5473
▁شیرے	-11.5475
▁بستگ۔	-11.5476
▁Ire	-11.5476
▁شانتل	-11.5477
ژ	-11.5478
▁scene	-11.5479
▁island	-11.5481
▁کلا	-11.5484
▁ہرکسی	-11.5484
▁شتنت	-11.5484
مردماں	-11.5486
ين	-11.5486
▁بوتک	-11.5488
▁چکیں	-11.5489
▁دانکاں	-11.5496
▁enter	-11.5496
▁وانشت	-11.5497
▁توصیف	-11.5498
▁گیپت۔	-11.5503
▁گندایت	-11.5504
▁جیڑہے	-11.5506
▁کشیت۔	-11.551
بیل	-11.5511
ither	-11.5513
انگت	-11.5515
▁مزور	-11.5516
▁ھمدپ	-11.5517
▁مڑا	-11.5517
شال	-11.5518
▁دانگے	-11.5518
▁نمونہ	-11.552
▁جنینی	-11.5521
▁ایرموش	-11.5521
▁دریاورد	-11.5522
▁زربار	-11.5523
re	-11.5525
▁28	-11.5526
▁band	-11.5526
ی۔	-11.5527
▁مفتی	-11.5527
▁سیٹھ	-11.5528
▁جوڑی	-11.5532
▁chart	-11.5533
▁گارء	-11.5535
▁گیگان	-11.5538
دستونک	-11.5539
5	-11.554
شے	-11.554
▁نکس	-11.5542
▁hour	-11.5542
▁انگلینڈ	-11.5543
▁لوٹتگ	-11.5546
...!‘‘	-11.5546
▁ھوراں	-11.5547
▁پاور	-11.5548
▁سوبیں	-11.5548
وھدیکہ	-11.5548
▁ھمودء	-11.5548
▁نیزگار	-11.5549
▁پنڈوک	-11.5549
▁انلاین	-11.5551
▁مکان	-11.5552
▁رون	-11.5553
بانک	-11.5554
▁دوھیں	-11.5554
▁پنڈگ	-11.5555
▁ریا	-11.5556
▁وہی	-11.5557
▁ہاسیں	-11.5559
▁ریز	-11.5559
▁میک	-11.5562
▁میریں	-11.5562
▁میاریں	-11.5564
یش	-11.5564
▁اصلء	-11.5564
▁پروردگار	-11.5567
▁گبار	-11.5568
ma	-11.5568
▁تسلسل	-11.5568
▁چنال	-11.5573
▁کلاہ	-11.5574
▁رستہ	-11.5577
▁کیامت	-11.5579
▁ڈیوا	-11.558
▁join	-11.5586
▁earlie	-11.5589
تربت	-11.5593
▁شھرء	-11.5593
▁مولابخش	-11.5595
less	-11.5596
▁تج	-11.5596
▁ورناہانی	-11.5599
▁پرینگ	-11.5601
."	-11.5601
▁شاھر	-11.5602
▁نگدکاری	-11.5602
▁کرشی	-11.5604
▁white	-11.5604
,’’	-11.5608
▁ھیرات	-11.5608
▁منظوری	-11.5609
▁مھرانی	-11.5618
▁town	-11.5618
▁مسترین	-11.5619
▁جنئک	-11.562
▁ابادیں	-11.562
▁گوگل	-11.5621
▁ھپتمی	-11.5621
▁رتک	-11.5624
▁ذگریں	-11.5626
▁جنگلء	-11.5629
▁ھانزا	-11.563
▁ڈاک	-11.5631
▁سینہ	-11.5633
...‘‘	-11.5633
▁22	-11.5633
▁وفاق	-11.5636
▁الکاپی	-11.5636
▁غمانی	-11.5636
▁یہودی	-11.5637
▁منشی	-11.5639
▁جدل	-11.5639
▁نارشت	-11.564
▁کشمیری	-11.5643
لبز	-11.5644
▁چارایت	-11.5645
▁جلی	-11.5646
▁یله	-11.5646
▁زروان	-11.5652
▁برئے	-11.5653
▁ھونانی	-11.5655
▁چوگان	-11.5656
▁موسماں	-11.5658
▁پمێشکا	-11.5659
▁اگه	-11.566
▁شاخ	-11.5661
▁ناامیتی	-11.5661
▁صغیر	-11.5665
▁writer	-11.5667
▁مچار	-11.5668
▁رحمدل	-11.5669
▁کشنت	-11.5671
▁ھمگرنچی	-11.5672
▁اشانء	-11.5672
▁سرون	-11.5674
▁کتب	-11.5676
▁پئیمیں	-11.5677
▁ارمانی	-11.568
▁ناگتی	-11.5683
▁اتحادی	-11.5686
▁چتکان	-11.5686
▁لگام	-11.5689
غنی	-11.5689
▁چونا	-11.5689
▁نجات	-11.5696
▁ھمیشاں	-11.5698
▁گلامیں	-11.5699
▁ترز	-11.5699
باں	-11.5701
ائع	-11.5706
لہتیں	-11.5706
▁element	-11.5706
▁هرکس	-11.5706
▁نائک	-11.5708
▁دوستء	-11.5709
▁ٹپاسگ	-11.5713
▁ضمیر	-11.5713
▁Re	-11.5717
جر	-11.5718
▁son	-11.5723
▁جین	-11.5723
▁درپشوکیں	-11.5732
▁قطار	-11.5733
▁دائما	-11.5734
▁عبدالحکیم	-11.5735
گڈی	-11.5738
▁ورناہاں	-11.5739
▁مہربانی	-11.5739
▁وارے	-11.5739
▁وسوسگ	-11.5741
▁ہشک	-11.5742
▁sign	-11.5746
▁رتکگیں	-11.5749
▁درہائ	-11.5752
میتگ	-11.5753
▁ماھاں	-11.5753
▁منئ	-11.5753
felt	-11.5753
▁مجھ	-11.5755
ادء	-11.5755
away	-11.5755
▁issue	-11.5759
▁الیاس	-11.5761
▁ناگ	-11.5761
▁واناک	-11.5761
▁تماشا	-11.5762
ar	-11.5763
▁امیدوار	-11.5764
▁24	-11.5764
▁noted	-11.5766
▁چیدگے	-11.5766
اراں	-11.5766
ورگ	-11.5769
▁ابرمء	-11.577
▁برمشے	-11.5773
▁مذھبی	-11.5774
▁زاننت	-11.5775
▁پادے	-11.5776
تین	-11.5777
▁London	-11.5777
▁مراقبہ	-11.5777
▁عبید	-11.5778
▁پیپلز	-11.578
▁انگه	-11.578
▁کێنگء	-11.5781
▁بلاول	-11.5782
▁نندگء	-11.5783
سور	-11.5787
▁کلمکار	-11.5789
▁ہمراہاں	-11.5789
▁ابات	-11.5793
▁چادرے	-11.5793
▁کیوبا	-11.5793
▁نکت	-11.5793
▁پٹان	-11.5794
across	-11.5795
▁گیشگیواری	-11.5796
▁دیغ	-11.5797
▁دانکے	-11.5797
▁ائوکیں	-11.5804
▁پیژگاہ	-11.5805
▁ہوری	-11.5805
▁مردان	-11.5806
▁سنگء	-11.5807
▁تلک	-11.5808
▁پکرے	-11.581
▁عدل	-11.5811
▁کائی	-11.5812
▁ایرجیگ	-11.5813
▁اہدی	-11.5813
▁رازاں	-11.5817
▁route	-11.5818
▁حبرانی	-11.5825
▁ژوب	-11.5826
▁اصلاح	-11.5827
▁ھمداں	-11.5827
ڈو	-11.5828
▁سندگ	-11.5829
▁پہمئن	-11.5831
▁خدائی	-11.5832
▁نگران	-11.5833
ایے	-11.5834
▁ناگتیں	-11.5834
▁ڈیجیٹل	-11.5838
ده	-11.5838
▁وہم	-11.5838
▁کلانچ	-11.5838
▁درتگیں	-11.584
▁خاک	-11.5843
▁نرس	-11.5843
▁ایجوکیشن	-11.5847
▁بندگء	-11.5847
▁ریسکیو	-11.5849
▁بندرگاہ	-11.5849
▁get	-11.585
ian	-11.5852
▁انعام	-11.5859
▁ھردوئیں	-11.586
▁خوب	-11.5862
▁درانی	-11.5863
▁تچکء	-11.5865
▁لشکرء	-11.5866
▁راہاں	-11.5867
▁اشترء	-11.5868
▁دگرء	-11.587
▁good	-11.5873
▁himself	-11.5873
▁بیاراں	-11.5875
▁چیری	-11.5876
▁ڈنگر	-11.5876
بگ	-11.5878
▁رؤف	-11.5879
▁دلگران	-11.5879
▁توام	-11.5879
▁حلقہ	-11.5883
▁بقول	-11.5884
▁مقرر	-11.5884
▁win	-11.5884
▁واکب	-11.5885
▁شیراں	-11.589
▁ایپلی	-11.5891
▁رست۔	-11.5892
▁گرو	-11.5894
▁featur	-11.5895
▁اروک	-11.5895
▁پلگاریں	-11.5898
▁چھوٹ	-11.5899
▁فنا	-11.5899
▁سرانی	-11.5899
▁لازمی	-11.59
تم	-11.5903
۔ائی	-11.5904
▁تکء	-11.5905
▁جناور	-11.5907
▁کچکانی	-11.5908
شیا	-11.5911
▁زیند	-11.5914
▁قصہی	-11.5914
▁ببر	-11.5914
▁امریکہء	-11.5916
▁کانچ	-11.5917
▁شموشتگ	-11.5917
▁تجابان	-11.5921
▁برس	-11.5921
▁ایکسپریس	-11.5923
▁جاپانی	-11.5925
ود	-11.5928
▁ابیتکیں	-11.5929
▁زمینے	-11.5929
▁ڈھل	-11.5929
▁دادء	-11.5933
▁نێمگا	-11.5935
▁ندیستگ	-11.594
▁پیلہ	-11.5944
▁وهدی	-11.5947
▁ڪنت	-11.5949
▁بکشیت	-11.5951
▁شیریں	-11.5956
▁جامعہ	-11.5957
▁ایاز	-11.5958
▁کوڈ	-11.5959
▁تیوک	-11.5959
▁لگا	-11.5959
▁دیوالء	-11.5964
▁کلیر	-11.5967
▁جاؤ	-11.5967
‘,’	-11.597
▁بربادی	-11.597
▁پرما	-11.5971
▁ہستیں	-11.5972
ایی	-11.5973
سوب	-11.5975
▁شاہین	-11.5976
▁گوشداران	-11.5978
▁درگ	-11.5982
▁سرجمء	-11.5984
▁بگو	-11.5984
▁روزگاری	-11.5985
▁see	-11.5989
▁کوپ	-11.599
ance	-11.5991
▁ھالی	-11.5991
▁گوئشگ	-11.5992
▁نوہ	-11.5993
▁ات۔ا	-11.5994
▁ارڈر	-11.5995
▁پلانٹ	-11.5999
▁پیمانہ	-11.6004
▁ازلی	-11.6004
▁وپتگیں	-11.6005
کارانی	-11.6005
▁اہی	-11.6009
▁تبدیلی	-11.6011
▁Australia	-11.6013
زہرشانی	-11.6018
▁بندوبست	-11.6018
▁رول	-11.6018
▁significant	-11.6019
▁زریں	-11.6019
▁تیابء	-11.6019
▁بیدے	-11.602
▁ہوت	-11.6024
▁الزام	-11.6027
▁تچیت	-11.6028
▁ہوشام	-11.6031
▁ہنی	-11.6036
▁درگیج	-11.6039
▁سیال	-11.6039
▁سلاحبند	-11.6039
گس	-11.6043
▁رکھتے	-11.6043
▁age	-11.6044
▁کمیونزم	-11.6045
▁چلا	-11.6046
بری	-11.6047
▁سنا	-11.6047
▁خواہ	-11.6048
▁انچشیں	-11.6048
▁ورنت	-11.6049
▁باپشت	-11.605
▁نادرا	-11.6051
▁ساچشتے	-11.6051
▁کرزیت	-11.6053
▁شمشتگ	-11.6054
ض	-11.6055
▁اگل	-11.6055
▁تانہ	-11.6057
▁مرضی	-11.6059
ینان	-11.6064
▁black	-11.6067
▁ھاؤس	-11.6069
▁عبدالرحمن	-11.607
ابا	-11.607
▁مرغ	-11.607
▁ساہتے	-11.6071
▁سنسکرت	-11.6072
▁سات	-11.6074
یکہ	-11.6074
▁ازمکاری	-11.6075
▁مع	-11.6077
ئر	-11.6077
▁یکسد	-11.6078
کسی	-11.6081
▁جہلء	-11.6081
▁عومر	-11.6082
▁بدلا	-11.6084
▁ملوری	-11.6085
چیء	-11.6085
▁تال	-11.6086
سئے	-11.6086
یکیں	-11.6087
▁مفت	-11.6088
▁رستری	-11.6089
▁ہماری	-11.6091
▁important	-11.6091
بالاچ	-11.6093
▁سوداگر	-11.6095
▁گناھیں	-11.6098
▁مسلہ	-11.6099
▁تے	-11.61
▁جمعی	-11.6103
▁وتئ	-11.6105
▁دفتر	-11.6106
▁جائز	-11.6106
▁عالی	-11.6107
▁کرچک	-11.611
جہ	-11.611
بان	-11.6113
وچ	-11.6113
▁لاشعور	-11.6114
▁ساگر	-11.6116
▁initial	-11.6116
▁تؤکا	-11.6116
▁خو	-11.6116
▁وردنی	-11.6117
▁حمیدہ	-11.6117
▁سالا	-11.6117
▁ٹاؤن	-11.6118
▁شیعہ	-11.6118
▁یکپارگی	-11.6119
اگ	-11.6122
▁باتاں	-11.6125
▁ھشتمی	-11.6129
▁ترکگ	-11.6134
▁گنوکے	-11.6135
▁شاتو	-11.6136
▁کیسے	-11.6138
▁ارزش	-11.6138
چیا	-11.6139
▁father	-11.6142
▁تعاون	-11.6142
▁ھدائی	-11.6151
▁بیلی	-11.6152
▁پچی	-11.6152
چاپ	-11.6152
▁عبدالغفار	-11.6156
▁!!!	-11.616
ماتی	-11.6164
▁پسے	-11.6166
▁ھسن	-11.6167
جگ	-11.6169
▁کمبل	-11.6174
▁act	-11.6178
▁بڈا	-11.6179
▁زو	-11.6182
▁کٹی	-11.6184
▁ھندانی	-11.6186
▁دیئے	-11.6186
▁King	-11.6186
▁جرمکار	-11.6187
▁female	-11.619
▁television	-11.619
▁ناامیت	-11.6194
▁مڈل	-11.6195
▁ربیدگانی	-11.6196
▁miles	-11.6197
▁سیارہ	-11.6199
▁تھریک	-11.62
▁واهگ	-11.6207
▁ملاء	-11.6212
▁ریشاں	-11.6214
▁eight	-11.6215
▁کردگالی	-11.6215
D	-11.6216
▁کفر	-11.6216
▁لیوس	-11.6217
▁عبدالمجید	-11.6218
▁ھدے	-11.6219
▁گشتگ۔	-11.6223
▁مھلب	-11.6226
▁جوھر	-11.6229
▁هوار	-11.6229
▁ہاک	-11.623
▁اخرت	-11.623
▁واسطہ	-11.6231
▁دیستیں	-11.6232
▁اشکنگء	-11.6235
▁پدانک	-11.6236
▁عورت	-11.6237
▁various	-11.624
▁interest	-11.624
▁انلائن	-11.6242
▁چربی	-11.6243
▁ائیر	-11.6244
▁لد	-11.6244
▁بنجلے	-11.6245
▁پیدائش	-11.6247
▁باہر	-11.6247
▁گلستان	-11.625
▁فنڈ	-11.6251
انک	-11.6252
▁سلہ	-11.6252
▁کسمت	-11.6256
▁یکتنا	-11.6259
▁زیروک	-11.626
▁minute	-11.6264
▁راھا	-11.6265
بے۔	-11.6269
▁ناظم	-11.627
▁ردیاں	-11.627
▁پرشیت	-11.6272
▁بیچار	-11.6276
▁ناھدا	-11.6277
▁انس	-11.6277
▁سرحد	-11.6278
▁ادت	-11.6279
▁الماری	-11.628
▁کلانی	-11.6281
▁نادراھیانی	-11.6282
▁اید	-11.6283
▁مئیت	-11.6284
▁تعالی	-11.6294
نگی	-11.6295
▁میرء	-11.6298
▁ازادیء	-11.6298
▁مثلا	-11.6299
▁ادیرہ	-11.6301
▁زبانوں	-11.6304
▁اندازگ	-11.6308
▁نواں	-11.6311
▁گپا	-11.6312
▁James	-11.6315
▁live	-11.6315
▁تسلہ	-11.6316
▁امروہی	-11.6316
▁شھریاں	-11.632
اگن	-11.6321
▁چمدار	-11.6321
▁کاش	-11.6321
بال	-11.6323
دیر	-11.6326
▁موداں	-11.6328
▁مصیبت	-11.6333
uir	-11.6334
▁اینگو	-11.6335
چیر	-11.6335
▁لیگار	-11.6339
بیان	-11.6339
برگ	-11.6339
ولی	-11.634
▁باعث	-11.634
▁احترام	-11.6341
▁look	-11.6341
▁بانء	-11.6341
▁گوادری	-11.6344
▁ترانے	-11.6346
▁نسر	-11.6346
▁تسلیم	-11.6347
▁کوئٹہء	-11.6347
▁بیتاں۔	-11.635
▁سیاھی	-11.6353
وخیں	-11.6354
▁بزیر	-11.6356
ch	-11.6358
▁شفیق	-11.6361
▁کرشن	-11.6364
▁بنگ	-11.6365
▁تعلیمی	-11.6365
▁عبدالرحیم	-11.6366
▁گزرانی	-11.6368
▁سربیت	-11.637
▁سنگاں	-11.6371
▁Black	-11.6371
▁منڈی	-11.6371
فی	-11.6372
▁گرگی	-11.6376
▁ارادگ	-11.6377
▁سخن	-11.6377
▁اثرمند	-11.6381
▁دزکش	-11.6381
▁stage	-11.6384
▁نکن	-11.6387
▁جھاؤ	-11.639
▁مراگہ	-11.6391
▁زمزیل	-11.6392
▁کھڑکی	-11.6393
▁بڑھ	-11.6394
▁امریکائی	-11.6394
▁need	-11.6395
▁۔تو	-11.6395
سد	-11.6397
▁رسینگ	-11.6397
▁سیاه	-11.6399
▁پنتء	-11.64
▁26	-11.6403
▁پہوال	-11.6404
▁زیملی	-11.6405
▁یکجائی	-11.6406
اسر	-11.6407
ve	-11.6407
اوار	-11.6407
▁پژم	-11.6407
▁پولیسء	-11.641
▁گشتگیں	-11.6411
▁نبیل	-11.6411
▁بیوس	-11.6413
▁success	-11.6414
▁سکول	-11.6415
▁ھڑتال	-11.6415
▁successful	-11.6415
▁does	-11.6417
▁case	-11.6417
▁damage	-11.6418
▁ایٹمی	-11.6418
گپت	-11.642
▁اروہی	-11.6422
▁تگران	-11.6422
▁بندیگی	-11.6422
▁شوهاز	-11.6422
▁وردی	-11.6423
حسن	-11.6424
▁شاھگان	-11.6426
▁ساچشتاں	-11.6427
▁میکسم	-11.6429
▁وشھالی	-11.6432
▁ھمایانی	-11.6433
▁events	-11.6433
▁وصف	-11.6435
▁اسمی	-11.6435
▁بوتت	-11.6436
▁road	-11.6442
▁مسکرہ	-11.6442
▁برکش	-11.6445
▁زینت	-11.6446
▁شہد	-11.6448
▁یوں	-11.6456
▁پتار	-11.6462
▁کہنا	-11.6465
▁موسیقی	-11.6466
▁میاری	-11.6466
▁peak	-11.6466
▁کاڑ	-11.6467
▁حملء	-11.647
▁بلوٹیت	-11.6472
▁کھر	-11.6473
▁وشیء	-11.6476
▁نوبل	-11.6476
▁امنی	-11.6478
▁درورء	-11.648
▁ذ	-11.6481
▁پروشیت	-11.6482
▁پرانی	-11.6484
▁مالاں	-11.6489
▁جیڑگانی	-11.6489
▁برئگ	-11.649
▁فعل	-11.6492
کنئگ	-11.6492
▁پکنک	-11.6492
▁modern	-11.6492
▁بہرگاں	-11.6493
▁discover	-11.6493
▁بتلے	-11.6493
▁بکرتین	-11.6494
▁بروان	-11.6495
▁political	-11.6495
▁مجرم	-11.6496
چوشیں	-11.6499
▁زہرگ	-11.6501
▁ملکموت	-11.6502
▁مش	-11.6504
▁انجینئر	-11.6505
▁دزکشی	-11.6508
▁نگرہ	-11.6508
▁بات۔	-11.6508
▁سپرے	-11.651
▁نوشیروانی	-11.6511
▁ہلاپ	-11.6511
▁گیشینتگ	-11.6511
▁کٹیت	-11.6512
▁انت۔۔۔۔۔	-11.6513
▁نبشتہی	-11.6514
▁بچہ	-11.6516
▁تقسیم	-11.6519
▁سردارء	-11.6521
▁مادنیں	-11.6522
▁ماش	-11.6523
▁حرچ	-11.6524
▁کمانچر	-11.6525
▁شزار	-11.6526
▁لوڑی	-11.6526
▁تیغ	-11.6527
▁بیدء	-11.6527
▁استادانی	-11.6531
▁دہلی	-11.6532
▁چینء	-11.6532
▁کی۔	-11.6534
نند	-11.6534
▁پمپ	-11.6537
▁تنگیں	-11.6538
▁استاداں	-11.6538
▁گنجی	-11.6541
▁معاہدہ	-11.6547
▁جبزگ	-11.6547
▁فائنل	-11.655
▁mm	-11.6553
▁مراگاہ	-11.6554
سریں	-11.6557
وکی	-11.656
▁تامدار	-11.6562
▁سنٹر	-11.6562
▁art	-11.6566
▁ہوارانت۔	-11.6566
▁دیتا	-11.6567
▁شوندات	-11.6567
▁چیزان	-11.6569
▁پائیدگ	-11.657
▁الحاق	-11.6572
▁کفن	-11.6577
مے	-11.6577
▁میزاں	-11.658
▁سہن	-11.6581
▁شوہازء	-11.6581
▁روشنائی	-11.6584
▁اہتگ	-11.6584
▁پڑے	-11.6586
▁کماشے	-11.6589
▁پھول	-11.6589
▁لوٹئے	-11.659
▁سدھ	-11.659
مھر	-11.6592
▁رنجانی	-11.6592
▁ابداللہ	-11.6595
▁لیکیت	-11.6598
▁نمائندہ	-11.6598
▁وھم	-11.6599
▁ائیگا	-11.6602
▁کپٹن	-11.6609
▁نیار	-11.6613
چونیں	-11.6615
▁تلو	-11.6616
ھوار	-11.6616
▁پولگ	-11.6616
▁ایرکنگ	-11.6619
▁poem	-11.662
▁سوتے	-11.6622
▁برزتر	-11.6623
▁مشاہدہ	-11.6623
▁کلوھے	-11.6625
▁پاگواجہ	-11.6629
▁ابکہ	-11.6629
▁درشتگ	-11.663
▁بنگپے	-11.6631
▁mid	-11.6632
▁ثنا	-11.6632
▁ماتاں	-11.6633
▁پیشکان	-11.6633
▁انت۔ائیء	-11.6634
▁شررنگی	-11.6635
حیال	-11.6636
▁یکدار	-11.6636
▁چۆن	-11.6637
▁تالہ	-11.6638
▁We	-11.6639
▁ثمر	-11.6639
▁ناتپاکی	-11.664
اماں	-11.6642
▁ھیلکاری	-11.6645
▁نویساں	-11.6646
واری	-11.6647
▁میوزیم	-11.6647
▁performance	-11.6648
▁ائن	-11.6649
▁ten	-11.6649
▁پرکے	-11.6649
▁سداں	-11.665
▁برٹش	-11.6651
▁زگر	-11.6651
▁بجائے	-11.6652
▁اھوالکاراں	-11.6653
▁چونین	-11.6653
▁شوھازء	-11.6656
▁زانے	-11.6656
▁ڈیلہ	-11.6658
سنگت	-11.6658
▁کارانت	-11.666
▁گپتیں	-11.6662
پدء	-11.6665
▁جاو	-11.6665
▁لیو	-11.6669
ڑا	-11.6669
▁example	-11.6672
▁چارمکنڈ	-11.6672
▁too	-11.6672
▁ثقافت	-11.6673
▁کاگدانی	-11.6673
▁County	-11.6673
▁نگدکار	-11.6679
▁بوپ	-11.6679
بکش	-11.6682
▁لکھا	-11.6683
ادب	-11.6683
▁انت۔چہ	-11.6683
▁درتگ	-11.6684
باید	-11.6686
▁بچکاں	-11.6688
way	-11.6688
چشیں	-11.669
▁سلاه	-11.6691
▁پربستگ	-11.6692
▁ھورء	-11.6698
▁sent	-11.6698
▁بہائیں	-11.6699
4	-11.6699
▁پولیٹیکل	-11.6701
▁اکبت	-11.6701
▁کید	-11.6701
▁ٹائمز	-11.6702
▁پیالہ	-11.6703
▁منگی	-11.6703
▁کباب	-11.6704
▁مشکلات	-11.6704
▁مارگء	-11.6707
▁مبارکیں	-11.6707
one	-11.6707
▁دژمنء	-11.6708
▁جرات	-11.6711
▁یےء	-11.6711
▁بئیت۔	-11.6711
▁خوبصورت	-11.6716
پمیشکا	-11.6716
▁ارواہء	-11.6719
▁کنت۔اے	-11.672
▁گھ	-11.6722
▁جاهے	-11.6723
▁بژنیگ	-11.6723
▁پندے	-11.6726
▁محض	-11.6728
▁دیا۔	-11.6729
▁ذاتے	-11.6734
▁بوشت	-11.6734
▁لڑے	-11.6735
▁زهیر	-11.6737
▁۔ایشی	-11.6741
▁پٹھان	-11.6741
▁مثالے	-11.6742
▁غور	-11.6742
▁انت۔ھمے	-11.6746
▁بانی	-11.6746
▁ھوشام	-11.6748
▁Road	-11.6751
▁influence	-11.6751
▁عرفان	-11.6751
▁ناموس	-11.6751
▁ازگ	-11.6751
▁مخصوص	-11.6752
▁درابیت	-11.6753
▁نزیکا	-11.6754
▁وریں	-11.6756
▁رودینتگ	-11.6757
▁زورے	-11.6759
▁نامداری	-11.6761
▁ائیڈیل	-11.6765
▁ہد	-11.6767
▁سیکس	-11.6767
▁ٹالسٹائی	-11.6768
▁مکی	-11.6769
▁ڈیھانی	-11.677
▁سادگی	-11.6771
▁براتء	-11.6774
▁ازر	-11.6774
▁سانکلاں	-11.6776
▁should	-11.6779
▁واکان	-11.678
▁جنیادم	-11.6782
▁معلومات	-11.6782
▁شیرء	-11.6784
▁مقدمہ	-11.6786
▁چرچ	-11.6786
▁تھران	-11.6787
▁گهتر	-11.6787
▁پادری	-11.6787
فن	-11.6788
▁نکتہ	-11.6793
▁مالدار	-11.6795
▁داکتر	-11.6799
▁تعمیر	-11.68
▁سکھ	-11.6801
▁effect	-11.6803
▁چوہدری	-11.6804
▁حطرہ	-11.6804
▁تمبو	-11.6805
▁سرمگیں	-11.6805
▁پرائمری	-11.6806
▁رازے	-11.6806
▁زگری	-11.6807
▁دیمروئیء	-11.6807
▁عبدالقادر	-11.6808
▁رھوت	-11.6809
▁شانیں	-11.6817
▁حالا	-11.682
▁ساچشتکار	-11.6821
▁پچگرگ	-11.6822
▁ارسطوء	-11.6824
▁هئیال	-11.6827
بکن	-11.6827
▁ادارگاں	-11.6828
▁سانکل	-11.6829
▁لوٹاں۔	-11.683
▁ننگار	-11.683
▁شدید	-11.683
▁ویکاریو	-11.683
▁جاہی	-11.6831
▁structure	-11.6833
▁حساس	-11.6833
▁ساہء	-11.6833
▁بختاور	-11.6834
▁ازمون	-11.6834
▁ائینی	-11.6834
▁جیڑہء	-11.6837
ئے۔	-11.684
▁ماضی	-11.6843
▁کمب	-11.6843
▁نیکراہی	-11.6849
▁کرام	-11.6851
▁زیل	-11.6852
▁دوزواہ	-11.6855
▁اسنائپر	-11.6856
▁حوصلہ	-11.6858
▁نیز	-11.6858
▁سیمسرانی	-11.6858
انگریزی	-11.6863
▁بئیگء	-11.6863
عطا	-11.6864
▁دھر	-11.6864
▁یانی	-11.6867
ship	-11.6874
▁گچک	-11.6874
▁درکرت	-11.6874
▁برزگ	-11.6874
▁لچه	-11.6876
▁ماشین	-11.6878
▁ریاضی	-11.6878
▁eventual	-11.6878
▁پدمنتگیں	-11.688
▁سروکے	-11.6883
▁ویرانیں	-11.6887
▁یکشلہ	-11.6889
▁منتء	-11.6892
▁ھمگام	-11.6897
▁سرجمیء	-11.69
▁ھرچے	-11.69
▁ہورک	-11.6902
▁شرو	-11.6903
▁ناگتء	-11.6904
hind	-11.6905
چکہ	-11.6906
▁ھول	-11.6909
▁صحب	-11.691
▁ٹیکسی	-11.6911
▁گوٹھ	-11.6912
▁دوزحہ	-11.6912
▁بازاراں	-11.6913
▁جاگاہ	-11.6914
▁دوستیء	-11.6918
▁جائزہ	-11.6919
▁چھرگ	-11.6924
▁ھمدء	-11.6925
اجوئی	-11.6925
نشتگ	-11.6926
▁ایشانء	-11.6927
▁ہژدہ	-11.6927
▁بھرتی	-11.693
▁ground	-11.6933
ra	-11.6934
برجاہ	-11.6935
▁قصہے	-11.6936
▁کپوک	-11.6938
▁کاٹ	-11.6938
▁اجازہ	-11.694
▁اطلاعات	-11.6944
▁ورگا	-11.6945
▁لوٹائینگ	-11.6945
▁پکائیں	-11.6947
رنگیں	-11.6948
▁ابے	-11.6949
▁کھور	-11.6952
▁فر	-11.6956
▁وختے	-11.6956
۔۔۔بلے	-11.6956
واہ	-11.6959
▁مراداں	-11.6959
▁اگان	-11.6959
سار	-11.6959
▁تیزیں	-11.696
▁کنڈی	-11.6961
▁کدیں	-11.6962
▁2004	-11.6963
▁معمولی	-11.6966
▁ہم۔	-11.697
▁کہیر	-11.6972
▁پاچن	-11.6974
بشکن	-11.6974
▁کوہی	-11.6974
▁characters	-11.6977
▁ھنگت	-11.6979
▁مانیت۔	-11.6979
▁منصب	-11.698
▁بگلء	-11.6982
ناک	-11.6983
▁شتاں۔	-11.6983
▁گزشت	-11.6985
▁خر	-11.6988
▁entire	-11.6989
▁پروٹین	-11.6989
▁2005	-11.6989
▁construction	-11.699
▁جنوبی	-11.6991
▁نمک	-11.6993
▁announc	-11.6994
▁کمبرانی	-11.6994
▁کالب	-11.6995
▁اغاز	-11.7001
▁پتی	-11.7002
▁پیشہ	-11.7004
ine	-11.7007
▁وشنود	-11.7008
▁چارتگ	-11.7008
▁مرا	-11.7009
گام	-11.701
▁co	-11.7011
▁ابھی	-11.7011
▁سربر	-11.7019
▁انکلاب	-11.7019
▁ہندے	-11.702
▁گرکی	-11.702
▁انٹیلی	-11.7021
▁اکسانی	-11.7023
بہر	-11.7023
عمر	-11.7025
▁جنزے	-11.7025
▁اوشتات۔	-11.7028
▁فوٹو	-11.7031
▁گمے	-11.7032
▁پاچ	-11.7033
▁راھبنداں	-11.7034
▁ولا	-11.7035
۔پدا	-11.7036
▁سوچیت	-11.7037
▁بیگانگ	-11.7038
▁قسمے	-11.7039
▁شماری	-11.7039
▁موڑ	-11.704
▁کودکیں	-11.7041
▁ازماں	-11.7042
▁چریک	-11.7043
▁مشگ	-11.7044
▁جوہان	-11.7048
▁تراں	-11.7048
روگ	-11.7049
پرچاکہ	-11.7051
▁گوج	-11.7051
▁نادراھانی	-11.7053
▁ڈگارے	-11.7054
▁ازاتء	-11.7057
▁کندیت	-11.706
ought	-11.706
▁سیاہگ	-11.7061
▁پازلء	-11.7063
▁بنیں	-11.7063
سندھی	-11.7065
▁تبی	-11.7067
▁ھجالت	-11.7068
▁represent	-11.7069
▁روکپت	-11.7072
▁قندیل	-11.7072
▁اورتگ۔	-11.7073
▁شیشہ	-11.7077
سردار	-11.7079
▁وھدان	-11.708
▁زیریت	-11.7082
ant	-11.7084
▁السء	-11.7087
▁دراہگ	-11.7089
▁سرمگ	-11.7092
▁انونیں	-11.7095
▁شاہگان	-11.71
حق	-11.7102
▁گئیں	-11.7103
مردمانی	-11.7104
▁المء	-11.7105
▁نورل	-11.7105
▁انجن	-11.7106
▁دفاع	-11.7106
▁دلیر	-11.7114
شرف	-11.7116
▁نظریاتی	-11.7117
▁حسد	-11.7117
اول	-11.7119
شہر	-11.712
▁ازمانگ	-11.7126
▁بانزلاں	-11.7126
▁دیمرہی	-11.7129
▁امیتان	-11.7131
▁ٹھک	-11.7132
تران	-11.7133
▁ھدیس	-11.7134
▁لمبر	-11.7137
▁تامور	-11.714
▁چکان	-11.7141
▁واہشت	-11.7141
اتگ	-11.7142
▁صبیحہ	-11.7152
▁ہشتاد	-11.7152
▁رویش	-11.7152
▁کنڈء	-11.7153
▁سمالانی	-11.7153
▁حقاں	-11.7153
▁میڑے	-11.7154
▁الخط	-11.7154
▁بانداتے	-11.7155
▁گونی	-11.7155
▁سگریٹے	-11.7156
▁حالرسانی	-11.7159
گٹ	-11.7159
▁ہمہ	-11.7161
▁انتہائی	-11.7164
ٹا	-11.7164
▁مٹھا	-11.7167
▁کھندان	-11.7168
▁دلکشیں	-11.7168
▁سبزگ	-11.7169
▁ئین	-11.717
▁رومان	-11.7173
▁کشش	-11.7176
▁تاریخء	-11.7178
▁سرام	-11.7178
▁گہتریں	-11.7183
▁مملکت	-11.7183
▁provid	-11.7183
▁اشکن	-11.7184
▁گمسار	-11.7185
▁لہر	-11.7185
▁خواہش	-11.7186
▁دزاں	-11.7187
ڈر	-11.7189
▁پرین	-11.719
▁ابر	-11.719
منٹ	-11.7192
▁برجاه	-11.7194
▁پئیما	-11.7194
▁national	-11.7199
▁ہندوستانی	-11.7203
ونی	-11.7204
▁رازیگ	-11.7204
▁سوداگری	-11.7204
اپی	-11.7205
▁ذی	-11.7208
ایان	-11.7209
▁ھدامرزی	-11.721
▁وہاب	-11.7213
▁ماھانی	-11.7214
▁انوگ	-11.7214
▁سورء	-11.7215
▁تفسیر	-11.7217
وشی	-11.7218
▁کاملیں	-11.7219
▁بداں	-11.7219
▁مرادساحرء	-11.7219
▁دشمنیں	-11.7219
▁ادبیات	-11.7219
▁عقلء	-11.7219
▁مارء	-11.722
▁زورگیر	-11.7221
▁بیچارگ	-11.7223
کمیں	-11.7223
زندگی	-11.7225
▁اںت	-11.7225
▁پدریں	-11.7226
▁ہمگرنچیں	-11.7228
▁چارلس	-11.7231
▁هند	-11.7233
txt	-11.7234
▁others	-11.7234
▁گج	-11.7236
▁دراجکش	-11.7236
▁خیل	-11.7237
▁گناھے	-11.7237
▁رکشہ	-11.7238
▁امت	-11.7239
گرمیں	-11.7239
▁راجمانء	-11.7241
▁پجارء	-11.7241
▁جستاں	-11.7242
▁come	-11.7243
▁ملوک	-11.7243
▁جنزاں	-11.7244
▁شامء	-11.7245
▁locat	-11.7247
▁دلیں	-11.7248
▁زبریں	-11.7252
▁leas	-11.7253
▁ماہر	-11.7253
▁se	-11.7255
▁ندارگانی	-11.7256
▁گونڈل	-11.7256
▁ھاکاں	-11.7256
▁اباں	-11.7257
▁گرانت	-11.7258
▁اکرء	-11.7258
▁بالشت	-11.7259
▁27	-11.7261
وگ	-11.7261
▁نمائندگ	-11.7262
▁تیں	-11.7263
▁گرنیڈ	-11.7263
▁ڈاکٹردیدگ	-11.7263
▁کاؤنٹر	-11.7265
▁بازارے	-11.7267
هم	-11.727
▁رشت	-11.7271
▁انے	-11.7272
▁ناسرجم	-11.7273
▁نالگ	-11.7274
جار	-11.7274
▁دنیگت	-11.7276
▁نگاہاں	-11.7276
▁چیئر	-11.7277
▁رہبندء	-11.7278
اصل	-11.7281
▁روشے	-11.7283
▁نازرکی	-11.7283
▁خشک	-11.7286
▁ریں	-11.7287
▁پوائنٹ	-11.7288
▁جوک	-11.7288
سرء	-11.7288
▁ہجبر	-11.7289
▁شہدیں	-11.7293
ایشاں	-11.7295
▁رخشانی	-11.7295
گند	-11.7299
▁۔کہ	-11.73
▁مردینانی	-11.7303
▁date	-11.7305
▁موج	-11.7307
▁واجہاں	-11.731
▁ھندوستانی	-11.731
▁مرادساحر	-11.7312
▁چولاں	-11.7312
▁کوارٹر	-11.7316
▁عصا	-11.7316
▁پھمگ	-11.7316
▁بارء	-11.7316
نور	-11.7319
▁جوابی	-11.7322
▁منطقی	-11.7322
▁برتگیں	-11.7323
▁کوڑی	-11.7323
کاراں	-11.7326
▁تنقیدی	-11.7327
▁والد	-11.7328
▁منڈ	-11.733
▁بژنی	-11.733
سیاہ	-11.7331
.......	-11.7331
▁جاگھاں	-11.7332
حمل	-11.7333
▁واجہیں	-11.7333
▁کئور	-11.7334
▁غلط	-11.7336
▁عبدالعزیز	-11.7338
▁سرمچاری	-11.7341
▁hurricane	-11.7344
▁ٹھینگ	-11.7349
▁پجاروک	-11.7351
▁دۆست	-11.7351
زہ	-11.7351
▁بھتی	-11.7352
▁کپئگ	-11.7352
▁..	-11.7352
ne	-11.7354
▁فردوسی	-11.7359
▁بیبرگ	-11.736
▁ڈیھی	-11.7361
مو	-11.7364
▁ھدیسے	-11.7366
▁چاک	-11.7366
▁اشیا	-11.7367
▁چڑ	-11.7367
▁گلو	-11.7368
▁پارٹیانی	-11.737
▁جمبرانی	-11.7371
▁لسٹ	-11.7373
▁ڈبی	-11.7373
▁کمپین	-11.7373
▁اکتر	-11.7375
غ۔	-11.7377
▁رندانی	-11.7377
▁مکھیں	-11.7378
▁کویت	-11.7384
▁پائے	-11.7386
▁داشتہ	-11.7386
▁یاتگیری	-11.7386
▁دیووند	-11.7387
▁چاپء	-11.7388
▁گاں	-11.7397
▁کتبی	-11.7397
▁پنجاپی	-11.7398
▁میس	-11.74
▁debut	-11.74
▁ریموٹ	-11.74
▁نوعیت	-11.7402
▁سیری	-11.7402
▁میارباری	-11.7405
▁پائیدار	-11.7406
▁خیالات	-11.7407
▁بدھ	-11.7408
▁بوتگاں۔	-11.7409
▁نیادی	-11.7412
▁سازء	-11.7413
▁کردارے	-11.7414
▁ھمراھانی	-11.7414
▁liv	-11.7415
▁لنککاں	-11.7416
▁گیتکگ	-11.7417
▁ھرام	-11.7417
▁ٹیکسٹ	-11.7417
▁گدارانی	-11.7419
▁افس	-11.7419
▁دادے	-11.7421
te	-11.7422
▁استاراں	-11.7426
▁difficult	-11.7428
▁Kingdom	-11.7428
▁حقوق	-11.7429
▁ڑ	-11.7429
▁مہروانیں	-11.7429
▁گورگیج	-11.7429
▁پٹرول	-11.7431
▁نقشہ	-11.7432
A	-11.7434
▁جاپر	-11.7438
▁رخصت	-11.7439
▁زاد	-11.744
▁نابودی	-11.7441
▁سرریچ	-11.7443
▁تما	-11.7443
▁دلوں	-11.7445
▁سیدھاشمی	-11.7446
▁کانونی	-11.7447
چاکر	-11.7448
▁دوسرا	-11.7448
▁صدا	-11.7449
▁سوک	-11.7449
▁شکے	-11.745
▁دورہ	-11.7451
▁لانس	-11.7453
▁تشبیہ	-11.7453
مچ	-11.7456
▁campaign	-11.7456
▁Island	-11.7457
▁واشنگٹن	-11.7457
▁چیروکائی	-11.7457
▁نیمونے	-11.7458
▁ھجالتی	-11.7458
▁اسپر	-11.7458
رک	-11.7459
▁رہوت	-11.7459
▁چاغی	-11.746
▁wide	-11.7461
▁گردی	-11.7462
▁نوشت	-11.747
▁حذمت	-11.747
▁غرض	-11.7471
▁complet	-11.7474
نبشتگ	-11.7475
▁کدء	-11.7476
▁پادگ	-11.7477
▁دھکانء	-11.748
▁اثرے	-11.7482
▁گریڈ	-11.7483
▁ہوگا	-11.7484
▁انٹرویو	-11.7485
▁Cup	-11.7486
▁ریلوے	-11.7487
▁سوٹ	-11.7487
▁کنڈاں	-11.7487
▁ندار	-11.7489
▁گولڈ	-11.7489
▁works	-11.7489
▁سائنسداناں	-11.749
زندء	-11.7492
▁p	-11.7494
▁ندی	-11.7494
▁سم	-11.7495
▁ہمدپ	-11.7496
غوث	-11.7496
▁کنئگا	-11.7497
▁کنات	-11.7502
▁شیراز	-11.7502
ہان	-11.7502
▁بابتا	-11.7504
▁جہلانکیں	-11.7508
▁کلاتے	-11.7509
شعرء	-11.7511
▁person	-11.7512
▁victor	-11.7513
ٹن	-11.7513
▁سوویت	-11.7515
▁امجد	-11.7516
▁ھے	-11.7516
چارگ	-11.7517
▁سچکان	-11.7519
▁تلاہ	-11.752
▁بینت	-11.7523
▁کلاکاں	-11.7523
▁بابر	-11.7524
▁اشوبے	-11.7524
داتگ	-11.7525
▁سساء	-11.7525
▁انیس	-11.7527
▁بچکانی	-11.7528
▁بچانی	-11.7529
▁رژناہ	-11.7529
▁ستون	-11.7531
▁ودینگ	-11.7532
▁سردیں	-11.7534
▁ازگار	-11.7534
تء	-11.7538
▁واجھیں	-11.7542
▁believ	-11.7544
▁بہراں	-11.7545
▁دوسال	-11.7549
▁وابجاہ	-11.755
▁انت۔یک	-11.755
اریں	-11.755
▁addition	-11.7553
▁کنک	-11.7554
▁زورایت	-11.7554
▁موں	-11.7556
▁اوٹ	-11.7557
ھور	-11.7557
▁شائرء	-11.7561
▁ڈیوڈ	-11.7561
▁انکاری	-11.7563
یوں	-11.7565
▁بوھگی	-11.7566
▁حقء	-11.7567
▁انت۔منی	-11.7567
▁سرپراز	-11.757
▁الطاف	-11.7572
▁گلائش	-11.7572
▁نادان	-11.7575
▁شھداد	-11.7577
▁شانتگ	-11.7577
▁give	-11.7578
▁night	-11.7579
ارے	-11.758
▁انان	-11.758
▁بشارت	-11.7582
▁سهر	-11.7582
▁وین	-11.7582
▁لہڑی	-11.7582
▁نہایت	-11.7583
▁بٹن	-11.7585
▁سنگیں	-11.7585
▁عنبر	-11.7586
▁نوشتگ	-11.7589
▁پندلے	-11.7589
▁guns	-11.759
دروشم	-11.7591
▁بستر	-11.7593
▁۔۔۔۔۔۔۔	-11.7593
▁مائی	-11.7594
▁ئیت	-11.7595
▁بنگپی	-11.7595
▁فیروز	-11.7598
▁Company	-11.7598
▁فیلڈ	-11.7598
▁بلۆچستان	-11.7599
▁بیزن	-11.7602
▁وانوکے	-11.7603
▁وحدت	-11.7603
▁مارٹر	-11.7604
▁fight	-11.7604
▁کنزگ	-11.7606
▁اتکیں	-11.7606
پان	-11.7608
▁کوهن	-11.7608
▁پرمائیت	-11.7608
▁کپن	-11.7608
▁شارء	-11.7609
▁بڈء	-11.7613
تھ	-11.7613
▁ترانگ۔۔۔	-11.7613
▁لیں	-11.7615
▁تاگ	-11.7618
▁کڑک	-11.762
یٹ	-11.762
ودار	-11.7624
▁offer	-11.7624
ساچشت	-11.7626
▁کولیسٹرول	-11.7627
▁عبدالنبی	-11.763
▁انگیں	-11.7632
▁دکھ	-11.7634
▁زمستانی	-11.7635
▁گوشیت۔	-11.7636
▁ساسانی	-11.7636
▁وشتریں	-11.7637
سان	-11.7638
▁حرابی	-11.7639
▁جگا	-11.764
▁لوزانت	-11.7643
▁گزی	-11.7647
▁گوازینگء	-11.7649
▁فعال	-11.7652
▁ٹکانی	-11.7653
▁ھونی	-11.7655
ورنا	-11.7657
▁حرماگ	-11.7658
▁اصحاب	-11.7659
▁سکتے	-11.766
▁چیرمین	-11.7661
▁سون	-11.7662
مری	-11.7663
▁تامرے	-11.7665
▁شھزاد	-11.7666
I	-11.7668
▁بوک	-11.7668
▁highway	-11.7669
▁پنڈ	-11.767
▁رپتگیں	-11.7672
▁پدمنتگی	-11.7672
▁انسٹی	-11.7673
▁گرفتار	-11.7673
▁مودانی	-11.7674
شا	-11.7677
▁بیراں	-11.7678
▁شتر	-11.7688
▁چاڑے	-11.7689
▁سوغات	-11.7694
▁نیلیت	-11.7695
▁ہونا۔	-11.7697
▁litt	-11.7698
▁تئیگ	-11.77
یز	-11.7701
▁بادشاہء	-11.7703
▁روئیں	-11.7706
▁جھدا	-11.7708
▁جوانیء	-11.771
▁کوچگاں	-11.7712
▁گواش	-11.7712
▁ڈوھدار	-11.7716
▁زھیراں	-11.7716
▁stars	-11.7716
▁نیامی	-11.7717
▁گندوک	-11.7718
▁شکیل	-11.7719
▁کوہلو	-11.772
▁دیوار	-11.7722
▁گپتء	-11.7723
▁گرداں	-11.7726
▁کارکنانی	-11.7727
▁ط	-11.773
ham	-11.7731
▁visit	-11.7731
▁خواب	-11.7738
▁دراتکگیں	-11.7739
دنت	-11.7741
▁زابل	-11.7741
▁Some	-11.7742
▁اچکزئی	-11.7742
▁درامدانی	-11.7744
▁فاروقی	-11.7745
▁لہجہ	-11.7748
▁نیمگی	-11.7749
▁بوء	-11.7753
▁سینٹ	-11.7754
▁جرمے	-11.7756
▁ریشگ	-11.7758
چاگرد	-11.776
▁ابانی	-11.7761
▁میچل	-11.7766
▁جھلانکی	-11.7766
▁ندات	-11.7767
▁Love	-11.7768
1	-11.7768
▁ساربان	-11.7768
اہی	-11.777
▁figure	-11.7771
▁پدرا	-11.7772
▁چمپل	-11.7772
▁چاکرء	-11.7774
▁نیشنلزم	-11.7775
▁سببے	-11.7777
▁کشتی	-11.7779
▁بندئے	-11.778
▁سرینگ	-11.7781
▁پاسداری	-11.7784
▁کنئے۔	-11.7789
▁کرگ	-11.7789
▁الو	-11.779
▁گڈسری	-11.7791
امان	-11.7791
▁سرھالانی	-11.7793
▁ٹہینگ	-11.7797
▁گیشتری	-11.78
▁تہاریء	-11.7801
▁male	-11.7801
▁رحمٰن	-11.7801
▁لقب	-11.7803
بندات	-11.7807
▁کاروائیاں	-11.7808
▁جزباتی	-11.7808
▁بوٹگ	-11.7811
▁نادراهی	-11.7812
▁جمعیت	-11.7812
▁ٹہل	-11.7814
▁تامربند	-11.7815
▁مدئے	-11.7816
▁برق	-11.7817
K	-11.7821
▁کلیم	-11.7824
▁ازمے	-11.7828
▁شپاد	-11.7829
▁Battalion	-11.7829
▁ناکوزتک	-11.7829
گاڑی	-11.783
انچش	-11.7831
▁کوالٹی	-11.7833
▁ذاکر	-11.7834
اگہ	-11.7836
▁ناہک	-11.7836
▁پھرہ	-11.7837
▁نزوریاں	-11.7837
▁ماہور	-11.7838
▁کین	-11.7838
▁born	-11.7838
▁class	-11.7839
سٹر	-11.7842
▁مبات	-11.7844
▁گندک	-11.7844
▁ناسرپدی	-11.7844
▁ھزاریں	-11.7846
▁جہانے	-11.7849
▁کھں	-11.7851
▁باتیل	-11.7852
▁ترانگء	-11.7854
▁me	-11.7857
▁David	-11.7858
▁wife	-11.7858
▁southern	-11.7858
▁ڈیھء	-11.7859
▁استونک	-11.7859
▁سهب	-11.7861
▁تالاں	-11.7862
▁ھیرانی	-11.7863
▁ماڈی	-11.7864
▁افسانے	-11.7865
▁کلگی	-11.7868
▁عکسء	-11.7872
▁coast	-11.7874
▁عین	-11.7875
▁جاڑیں	-11.7876
▁مروشی	-11.7877
▁ائیوکیں	-11.7877
▁گریتگ	-11.7879
▁میلانک	-11.7881
▁تالانی	-11.7882
گم	-11.7883
▁ہیران	-11.7884
▁ھرچنت	-11.7884
ur	-11.7885
▁France	-11.7885
▁comment	-11.7886
▁تئوار	-11.7886
▁ماڈرن	-11.7886
▁سیما	-11.7886
▁نوکنڈی	-11.7891
▁صبح	-11.7892
▁خواجہ	-11.7893
▁گھنٹہ	-11.7895
▁چال	-11.7895
▁ھندو	-11.7896
▁کاگدء	-11.7897
▁چاھے	-11.7899
▁اسٹور	-11.79
▁پاھار	-11.7903
▁ناکۆ	-11.7903
جتائیں	-11.7904
▁بیمناک	-11.7915
▁درکئیت	-11.7915
▁کپے	-11.7916
▁نندیں	-11.7916
▁women	-11.7917
▁وٹامن	-11.7917
▁مچانی	-11.7917
▁کوھے	-11.7918
روسی	-11.7919
یری	-11.792
▁مادری	-11.792
▁mother	-11.792
▁غار	-11.7921
▁حدود	-11.7921
▁داغ	-11.7923
▁مشترکہ	-11.7923
▁بوجگ	-11.7927
▁لڑء	-11.7929
▁ٹیوٹ	-11.7933
▁ستارہ	-11.7935
▁شادمانی	-11.7935
نیت	-11.7935
▁شہیدی	-11.7937
ائین	-11.7938
▁المین	-11.7939
وال	-11.794
▁love	-11.7942
▁شورہاں	-11.7943
▁استا	-11.7943
▁Brigade	-11.7946
▁ٹھاٹھ	-11.7946
▁study	-11.7947
▁نصراللہ	-11.7947
▁Le	-11.7949
▁وصیت	-11.7949
▁جندئے	-11.7949
▁رستم	-11.7949
▁زھن	-11.7949
▁ساھگے	-11.795
▁هں	-11.7952
▁تاثر	-11.7953
▁سچیت	-11.7955
▁loss	-11.7959
▁نمای	-11.796
▁بگوشاں	-11.7965
▁عمری	-11.7968
▁اشکنوک	-11.7968
انوں	-11.7969
▁اکل	-11.7973
▁زوتیں	-11.7974
▁مہروان	-11.7974
▁چوھدری	-11.7976
▁مھرنھاد	-11.7976
▁بغاوت	-11.7977
▁لورالائی	-11.7977
▁ہیڈ	-11.7979
جام	-11.798
شل	-11.7981
▁Grand	-11.7982
▁اوزار	-11.7982
▁بیزاری	-11.7984
▁بدنام	-11.7984
▁سیکنڈ	-11.7985
▁جواں	-11.7989
▁ماتو	-11.799
▁جائیں	-11.7991
▁بیٹ	-11.7991
▁مانشانتگ	-11.7992
▁بگشاں	-11.7993
۔بزاں	-11.7994
▁command	-11.7996
▁report	-11.7996
▁چراگاں	-11.7999
▁داستانانی	-11.7999
حدا	-11.7999
▁چرپ	-11.8
▁مقابل	-11.8
▁زینب	-11.8
▁ہپتگ	-11.8001
▁کیمت	-11.8003
”?	-11.8004
▁جواز	-11.8005
▁exist	-11.8007
▁تندجاہ	-11.8007
▁put	-11.8008
▁process	-11.8011
بلکنا	-11.8011
▁پیلویں	-11.8013
▁٭۔	-11.8014
▁نورخان	-11.8014
▁گرین	-11.8017
▁مادگ	-11.8022
▁واھگء	-11.8023
▁حالانکہ	-11.8023
▁Robert	-11.8024
▁نشانیاں	-11.8029
▁view	-11.803
▁کادر	-11.8031
▁رہیم	-11.8031
▁ازمءگوازی	-11.8035
▁eastern	-11.8036
▁Roman	-11.8036
▁ٹھوس	-11.8036
▁اکوام	-11.8038
اوانی	-11.8038
▁مارشل	-11.804
▁یاسمین	-11.804
▁ننگر	-11.8041
▁اعلیٰ	-11.8042
▁جوانین	-11.8045
▁وٹس	-11.8052
▁پرگ	-11.8053
▁قطر	-11.8055
line	-11.8056
▁وڈے	-11.8059
▁میچ	-11.806
وانی	-11.806
▁درپش	-11.8061
▁provide	-11.8061
▁ھاکمانی	-11.8062
▁ویلے	-11.8062
▁دودے	-11.8062
کہول	-11.8062
▁انقلابی	-11.8063
▁پرسن	-11.8066
▁relationship	-11.8066
ium	-11.8066
▁الودگی	-11.8068
▁انہاں	-11.807
▁East	-11.8073
اباد	-11.8076
▁عیبے	-11.8078
▁توپانی	-11.8079
اسی	-11.8079
▁روپگ	-11.8079
▁جنێن	-11.808
▁واڑ	-11.8081
▁اوبادگ	-11.8087
▁انفرادی	-11.8088
▁بیت۔بلے	-11.8092
▁گالبندانی	-11.8093
▁نمازء	-11.8095
95	-11.8095
▁2015	-11.8095
▁داروگہ	-11.8095
▁2003	-11.8095
▁ہپتگے	-11.8096
▁علاقائی	-11.8098
▁بانوری	-11.8099
▁نگاھاں	-11.81
▁چاکری	-11.8102
▁بلور	-11.8102
▁دارئگ	-11.8104
ld	-11.8105
▁امبری	-11.8106
▁عاشقی	-11.8107
▁کچی	-11.8108
▁دارگا	-11.811
▁بزھگ	-11.8111
▁کردگار	-11.8112
▁گوئستگیں	-11.8113
ford	-11.8115
▁پنگ	-11.8116
▁وانیں	-11.8117
▁دزانی	-11.8119
▁وائے	-11.812
ll	-11.8121
▁ناشریں	-11.8121
▁رائی	-11.8124
▁پہمئنء	-11.8124
▁نکسان	-11.8125
▁ایمرجنسی	-11.8126
▁غفار	-11.8128
▁ترپ	-11.8128
▁کندگانی	-11.8129
▁گیڑھ	-11.8129
▁سحب	-11.813
▁رۆچے	-11.8131
▁روانبد	-11.8132
ڈا	-11.8132
▁سویت	-11.8134
▁image	-11.8134
▁سرائیکی	-11.8136
▁حاندان	-11.8137
▁ماہل	-11.8138
▁دؤ	-11.8139
▁سلاماں	-11.8141
▁گے۔	-11.8142
▁ھاجت	-11.8142
▁نوبتاں	-11.8143
▁کورانی	-11.8146
▁دوم	-11.8147
▁پسیل	-11.8149
▁لنج	-11.8153
▁گرامر	-11.8155
▁افزائش	-11.8155
ter	-11.8155
▁سیندک	-11.8155
کسانیں	-11.8159
▁میرانی	-11.8164
▁جنگاں	-11.8166
▁دیوالے	-11.8167
▁نجی	-11.8168
▁اؤرت۔	-11.8169
▁زندئے	-11.8171
بک	-11.8172
▁ہاترء	-11.8173
لین	-11.8173
▁مانگیش	-11.8174
▁پیرکی	-11.8176
دود	-11.8177
▁گوست۔	-11.8177
▁موز	-11.8178
▁continue	-11.8179
▁سوبے	-11.8182
▁کراں	-11.8184
▁کالجء	-11.8185
▁Other	-11.8186
▁جاورھالانی	-11.8187
▁بنھشت	-11.8187
▁ھئیال	-11.819
▁سراپ	-11.8196
▁کثہ	-11.8202
▁اندرا	-11.8205
هر	-11.8205
▁اسراتیاں	-11.8206
▁زیبائیء	-11.8206
▁ساعتاں	-11.8206
▁post	-11.8209
.........	-11.821
▁لچہانی	-11.821
▁نبشتانکء	-11.8211
▁اشکی	-11.8211
▁ہسین	-11.8212
▁غریبی	-11.8213
▁جاندراھی	-11.8218
▁لہ	-11.8221
▁حوری	-11.8221
▁خالی	-11.8223
▁فائدگ	-11.8224
▁جات	-11.8224
▁پیگام	-11.8226
▁گوشتے	-11.8226
صل	-11.8227
▁جمبور	-11.8228
▁اصطلاحات	-11.8231
▁انون	-11.8231
▁شاہدی	-11.8233
▁شپک	-11.8234
▁دوارگ	-11.8235
▁مختصر	-11.8235
▁سرداروں	-11.824
▁زوراوریں	-11.8241
▁کپتنت	-11.8244
تہا	-11.8244
نازک	-11.8247
▁عاروس	-11.8248
▁ارگنائزر	-11.8248
▁کلمت	-11.8248
▁کماشانی	-11.8248
▁taken	-11.8248
▁fourth	-11.8249
▁مرشی	-11.825
▁اۆدا	-11.825
منیر	-11.825
▁مسقط	-11.825
▁ناس	-11.8251
▁ڈنک	-11.8252
▁سوزمان	-11.8252
▁زرتہ	-11.8253
▁امیتی	-11.8254
▁حور	-11.8255
▁رئوت	-11.8256
▁ریگزار	-11.8266
?!	-11.8267
▁کاریاں	-11.8267
▁چادرء	-11.8268
▁move	-11.8268
▁مران	-11.8268
▁کلاسیکی	-11.8271
▁لینا	-11.8273
▁اهد	-11.8274
▁ڈیمز	-11.8275
▁کسھی	-11.8277
▁Music	-11.8277
▁سدء	-11.8278
▁مہتر	-11.8279
▁لٹریچر	-11.828
▁سہل	-11.8281
▁جزماں	-11.8282
▁کاروانے	-11.8285
تان	-11.8285
▁ثقافتی	-11.8286
▁چور	-11.8286
بیتگ	-11.8287
ترین	-11.8288
▁non	-11.8289
▁کک	-11.829
▁ڈولی	-11.8291
▁درچکء	-11.8292
جوانیں	-11.8292
دز	-11.8292
▁ملکان	-11.8294
▁واقعی	-11.8296
▁پیز	-11.8296
▁جپت	-11.8297
▁تناظر	-11.8299
بوگ	-11.8302
▁کمر	-11.8302
▁جیڑت	-11.8302
▁ایشیئ	-11.8304
▁دوز	-11.8306
▁Europe	-11.8307
▁پبلشرز	-11.8307
▁European	-11.8308
▁وسء	-11.831
▁خوار	-11.831
چوں	-11.8312
▁چینکس	-11.8313
▁کسانین	-11.8317
▁ہلاک	-11.8317
اولس	-11.8319
مئی	-11.8322
▁ناراض	-11.8322
▁سربیتگیں	-11.8324
▁دھکاں	-11.8328
▁ھش	-11.833
▁ابدمانیں	-11.8332
▁مہرانکی	-11.8333
▁کاھان	-11.8333
▁نانے	-11.8334
▁کردستان	-11.8336
▁مالانی	-11.8336
▁دیدگء	-11.8342
▁شاہگانی	-11.8344
▁goal	-11.8347
▁وتاس	-11.8349
▁افسرے	-11.8349
▁تفصیل	-11.835
▁چشمک	-11.8353
کلات	-11.8354
▁لہم	-11.8355
▁دزکپتگ۔	-11.8365
یث	-11.8365
▁بندیگجاہ	-11.8367
▁race	-11.8368
▁consist	-11.8369
▁پتلون	-11.8369
▁ساهگ	-11.837
▁خدائیداد	-11.8372
▁بدلہ	-11.8378
▁بوؤگء	-11.838
▁ماھو	-11.8381
▁دریگء	-11.8382
........	-11.8382
▁زلف	-11.8383
▁بیتہ۔	-11.8384
▁دکانء	-11.8385
▁چرک	-11.8387
▁ہرجاہ	-11.8387
▁جماز	-11.8387
▁ساجو	-11.8395
▁زیور	-11.8397
▁میاربار	-11.8398
▁ہن	-11.8398
▁mi	-11.8399
▁God	-11.84
▁شئیراں	-11.8401
▁decided	-11.8402
▁بؤکیں	-11.8405
▁لاک	-11.8406
جنت	-11.8407
▁اروسی	-11.8407
این	-11.8409
▁مارشتء	-11.8409
▁پھزدار	-11.8411
▁لاشاں	-11.8411
▁سرگوستے	-11.8414
اخر	-11.8416
▁مجتی	-11.8417
▁مریء	-11.8418
▁ھی	-11.8418
!!!	-11.842
▁اجز	-11.842
▁سالار	-11.8421
▁بانکیں	-11.8422
▁Port	-11.8422
▁گولا	-11.8424
▁کنزان	-11.8426
▁نوان	-11.8426
▁نازی	-11.8429
▁نکناں	-11.843
▁heavy	-11.8431
▁ارامی	-11.8431
▁بچی	-11.8431
ندہ	-11.8432
cy	-11.8433
▁نداتگ	-11.8435
▁کؤل	-11.8435
▁باگیں	-11.8437
▁نمیرانی	-11.8437
▁زوریت۔	-11.8437
▁دوچگ	-11.8438
▁خلق	-11.8439
▁سنگتان	-11.844
▁ےء	-11.8441
▁ھمراھے	-11.8441
▁ملان	-11.8442
نزیک	-11.8443
▁idea	-11.8445
▁مومنء	-11.8449
اسحاق	-11.8451
▁ارٹس	-11.8453
▁face	-11.8453
▁بوتل	-11.8453
▁پٹک	-11.8454
▁بتایا	-11.8455
▁مارشتی	-11.8458
▁سیریں	-11.846
▁ناں۔	-11.846
▁سکریٹری	-11.8464
▁اکیڈیمی	-11.8464
▁rest	-11.8464
▁دلچسپی	-11.8465
▁گردیں	-11.8467
▁cell	-11.8468
▁اعجاز	-11.8468
▁ملٹری	-11.8472
▁گرئے	-11.8472
▁پولیو	-11.8472
▁رستیں	-11.8473
▁لبنان	-11.8475
▁شانت	-11.8475
▁کچء	-11.8475
▁نزارگ	-11.8475
▁باکس	-11.8478
▁دوہ	-11.8478
▁ابادء	-11.848
▁گوستگال	-11.848
▁درامدے	-11.8481
▁ساچشتء	-11.8481
▁چگین	-11.8481
▁زم	-11.8484
▁دمکے	-11.8485
وہدیکہ	-11.849
▁وانوکء	-11.849
▁condom	-11.8493
▁problem	-11.8493
▁Royal	-11.8493
▁فلیٹ	-11.8494
▁White	-11.8495
▁امشپی	-11.8495
▁ویسٹ	-11.8496
▁sold	-11.8496
▁سرگوات	-11.8497
▁ضلعی	-11.85
▁رسانکجاھ	-11.8501
▁تاریک	-11.8504
▁گورانی	-11.8505
▁شریعت	-11.8507
▁نظیر	-11.8508
▁دریکگ	-11.8513
▁توجہ	-11.8514
▁نوائے	-11.8515
▁program	-11.8518
الہ	-11.8518
▁پشکپتگیں	-11.8519
▁بشکھندگی	-11.852
▁باھوٹی	-11.8521
▁نیوگ	-11.8522
▁سائیٹ	-11.8527
▁رودینگ	-11.8533
▁بکال	-11.8534
▁دیتگ	-11.8535
▁۔ائیء	-11.8535
▁اوستانی	-11.854
▁شموشت	-11.854
▁پتھر	-11.8541
▁ٹریک	-11.8544
▁لوکل	-11.8545
▁جاھی	-11.8546
▁شورہ	-11.8547
▁گھڑی	-11.8547
▁فرقہ	-11.8548
▁ترہ	-11.855
▁پرشتہ	-11.855
▁امیتء	-11.855
▁میڑاں	-11.8552
ھار	-11.8554
▁گوہرام	-11.8555
▁individual	-11.8555
نمدی	-11.8556
لیکہ	-11.8558
▁ایشر	-11.8561
▁گندات	-11.8562
الوں	-11.8565
ثہ	-11.8566
▁ریھان	-11.8566
▁کسانسال	-11.8567
▁پاہار	-11.8568
▁40	-11.8569
▁ساخت	-11.857
▁شھ	-11.8571
اڑے	-11.8571
▁tog	-11.8573
▁تلوار	-11.8576
ير	-11.8577
اڑ	-11.8577
▁رسین	-11.8578
▁خوف	-11.8578
▁ترجمان	-11.858
کچک	-11.8581
▁ھرجان	-11.8583
▁رواجی	-11.8585
▁ٹرین	-11.8585
▁ra	-11.8586
بیگ	-11.8587
▁شیرکن	-11.8587
▁lack	-11.8587
▁بشی	-11.8589
▁shot	-11.859
▁جزیرہ	-11.859
▁وترا	-11.8592
▁ایڈ	-11.8593
▁مکرانی	-11.8593
▁درباری	-11.8596
▁نویسے	-11.8598
عبداللہ	-11.8601
▁زاھدہ	-11.8604
چش	-11.8607
▁ناوشیں	-11.8608
قاضی	-11.8614
▁بلیت	-11.8615
▁دریاب	-11.8616
▁ٹویٹ	-11.8617
▁ارسی	-11.8618
▁مڑگ	-11.8619
▁فقط	-11.8621
▁زہیرانی	-11.8622
▁داوت	-11.8624
▁ٹھیکہ	-11.8625
▁ہوٹلء	-11.8626
▁ارزشتی	-11.8626
it	-11.8626
▁پارٹیز	-11.8629
▁کما	-11.8631
▁منزور	-11.8634
▁وشین	-11.8637
▁کرداں	-11.8638
▁دلوش	-11.8638
▁زریت	-11.8638
ینے	-11.8639
▁my	-11.8639
▁شاھگانی	-11.864
جب	-11.8641
▁جہگیری	-11.8643
▁جهل	-11.8645
▁گوشتگیں	-11.8645
▁rule	-11.8645
▁پلیت	-11.8647
▁limit	-11.8647
▁ستاہ	-11.8647
▁دروشمانی	-11.8649
▁Earl	-11.865
▁Carey	-11.8651
▁واپار	-11.8651
▁جبل	-11.8651
▁پچاں	-11.8652
▁احوالکار	-11.8652
▁عبدالرحمان	-11.8652
▁کڑ	-11.8653
کء	-11.8653
▁درخانی	-11.8654
▁29	-11.8655
▁بناء	-11.8658
▁ات۔۔۔۔	-11.8662
▁سرک	-11.8662
▁ہیک	-11.8663
▁ہڑتال	-11.8664
▁گودی	-11.8664
▁مرکب	-11.8665
▁وشال	-11.8667
کائی	-11.8671
▁بسم	-11.8673
▁کاسد	-11.8675
▁ہوں۔	-11.8675
▁بیپاری	-11.8676
مٹ	-11.8676
چست	-11.8677
انسانی	-11.8678
ities	-11.8679
▁غذائی	-11.868
▁ازمکارے	-11.868
▁تصدیق	-11.8683
▁انت۔ا	-11.8684
▁افسوز	-11.8684
▁center	-11.8686
ھست	-11.8686
▁گوزوکیں	-11.8688
▁سلوات	-11.869
دریا	-11.8692
▁تخیل	-11.8693
گران	-11.8696
▁پہنچا	-11.8697
▁دازن	-11.87
▁کماشء	-11.87
▁گيئش	-11.8703
▁سیلاب	-11.8705
▁بٹاک	-11.8706
▁محرم	-11.8706
▁شدہ	-11.8708
▁گب	-11.8708
▁کیچی	-11.8708
▁چانسلر	-11.8714
▁دلوتاں	-11.8714
▁مدافعت	-11.8714
▁برقرار	-11.8714
▁accept	-11.8716
▁ادینکے	-11.8716
▁گوریچان	-11.8717
▁چریشانی	-11.8718
▁وتساچیں	-11.8718
▁معراج	-11.8718
▁انٹیلیجنس	-11.8718
▁کارہندہ	-11.872
▁زامرانی	-11.8721
▁گریو	-11.8723
کناں	-11.8724
▁روژنائیں	-11.8729
▁اہو	-11.873
▁سلیمانی	-11.8731
ظ	-11.8731
▁مافیا	-11.8732
فکشن	-11.8734
▁اغہ	-11.8735
▁بھاگ	-11.8736
▁رپورٹس	-11.8737
▁مہرنگ	-11.8739
▁ھمائیء	-11.874
▁gun	-11.8741
▁چکگ	-11.8745
▁پٹاں	-11.8747
▁کدو	-11.8747
▁begin	-11.8747
▁ساھیل	-11.8749
▁شیتان	-11.875
▁ھوالگ	-11.875
▁قاضیء	-11.8752
▁چیٹ	-11.8752
▁کوھیں	-11.8754
▁communit	-11.8758
▁ارسے	-11.8763
▁ٹھ	-11.8764
▁بئیں۔	-11.8768
▁درشانتگ	-11.8769
▁بوس	-11.877
▁نادینت	-11.877
▁مشرف	-11.8772
▁مزھب	-11.8774
▁واھش	-11.8775
▁زردار	-11.8776
▁شیرگ	-11.8778
▁لاری	-11.8779
▁سافٹ	-11.878
▁وارتگ۔	-11.8783
▁پێش	-11.8785
▁قوتانی	-11.8791
▁اچھا	-11.8791
▁village	-11.8793
▁بنند	-11.8793
شم	-11.8795
ہمک	-11.8795
▁اتکء	-11.8796
▁سرکش	-11.8796
▁اکساں	-11.8801
▁کارل	-11.8802
▁بدنت۔	-11.8803
▁جاں	-11.8804
II	-11.8807
تھا	-11.8808
▁کنڈیرا	-11.8812
▁نصر	-11.8813
▁گندئگ	-11.8813
▁طالع	-11.8814
▁انکھوں	-11.8814
▁گانی	-11.8815
▁سروسز	-11.8816
▁سینما	-11.8817
▁گشینگ	-11.8818
▁چلشت	-11.8818
▁سورج	-11.8821
▁گئے۔	-11.8824
▁ہمد	-11.8826
▁mov	-11.8826
▁پتاں	-11.8827
▁پپ	-11.8828
▁پوره	-11.8828
am	-11.8828
▁تعلقات	-11.8829
عر	-11.883
▁ھدابند	-11.883
▁بارش	-11.8831
▁تلاش	-11.8832
▁ڈاکٹرانی	-11.8833
▁رزق	-11.8835
ھک	-11.8836
▁جنگلات	-11.8837
▁ڈو	-11.8839
▁عوض	-11.8842
▁Federer	-11.8842
▁protein	-11.8842
▁اکانومی	-11.8842
▁رژنے	-11.8843
▁جھینگا	-11.8845
▁مزد	-11.8846
وے	-11.885
▁البرٹ	-11.885
▁رخشان	-11.885
▁اھر	-11.8851
▁ناوشی	-11.8852
ایشیء	-11.8852
▁احمدان	-11.8852
▁انیگ	-11.8856
▁تحقیقی	-11.8856
▁متھ	-11.8857
▁مودی	-11.8857
▁بینر	-11.8858
▁بھائیں	-11.8858
ناکیں	-11.8859
▁زیردستیں	-11.8863
▁شرتگ	-11.8863
▁سکتی	-11.8863
▁اپسرے	-11.8864
▁رودین	-11.8868
▁مالء	-11.8869
کشگ	-11.8875
▁حسی	-11.8875
▁سؤب	-11.8876
▁بٹے	-11.8876
▁مہروانی	-11.8879
▁رسمء	-11.8879
rd	-11.888
▁شدیگ	-11.8881
▁رودپتر	-11.8882
▁عبدالصبور	-11.8882
▁نادانی	-11.8883
▁ڈنگی	-11.8884
▁کانی	-11.8885
▁fall	-11.8885
▁سوالی	-11.8887
▁حاکمانی	-11.8888
▁لیبیاں	-11.8891
▁جیک	-11.8891
▁مشہوریں	-11.8892
▁جدیدیت	-11.8892
▁کب	-11.8892
▁کوشکار	-11.8892
▁چڑو	-11.8895
▁نار	-11.8895
▁روانت	-11.8897
▁چورہ	-11.8898
▁اسکا	-11.8898
▁رجانکارء	-11.8899
▁سالیگیں	-11.8901
▁شرپی	-11.8901
▁ربیتے	-11.8904
▁دھمی	-11.8907
▁source	-11.8907
▁رکھتا	-11.8908
▁رکھنے	-11.8908
▁ترانگانی	-11.891
▁اشکانی	-11.891
▁پرنسپل	-11.891
▁گرپتاری	-11.8912
▁مشھد	-11.8913
▁زورگپت	-11.8914
ائن	-11.8915
▁اچے	-11.8916
▁کربلا	-11.8916
▁پتینکاں	-11.8917
▁director	-11.8919
زندگ	-11.8919
▁لپرزگ	-11.8919
▁کمیت	-11.8921
▁مڑدے	-11.8921
▁گورکوپ	-11.8922
▁اسراتیانی	-11.8922
▁ask	-11.8923
▁بحالی	-11.8924
▁شناست	-11.8925
▁ہردوئیں	-11.8925
▁چھاپء	-11.8927
▁front	-11.8932
▁پروشان	-11.8933
▁جمر	-11.8933
▁نندان	-11.8933
▁ہالو	-11.8934
دئیگ	-11.8938
▁International	-11.8939
▁ڈپارٹمنٹ	-11.8939
▁چیدگانی	-11.894
▁George	-11.894
▁گڑی	-11.8941
▁ہاجی	-11.8941
▁گرمائشت	-11.8941
▁نیکشھر	-11.8941
▁بھارتی	-11.8942
▁Per	-11.8944
▁William	-11.8944
▁manager	-11.8944
▁ابتدائی	-11.8944
▁طاھر	-11.8945
▁جیسا	-11.8946
▁کرامات	-11.8946
▁سرپرہ	-11.8947
امیت	-11.8948
▁عکسانی	-11.895
▁باجی	-11.8951
▁دلار	-11.8951
▁کپی	-11.8952
▁پٹے	-11.8954
▁خوبی	-11.8955
▁نهات	-11.8956
▁دوئم	-11.8958
▁جیسی	-11.896
▁دوائی	-11.8962
▁far	-11.8962
اؤں	-11.8962
▁گوشداروک	-11.8966
▁میٹرک	-11.8968
▁involv	-11.8969
▁بگرد	-11.897
▁Her	-11.897
▁زبانےء	-11.8971
▁بستی	-11.8972
▁تفتان	-11.8972
▁واهند	-11.8974
▁مہنگائی	-11.8975
▁نشتگ۔	-11.8975
▁اسٹاپ	-11.8976
بیست	-11.8977
▁لنککانی	-11.8977
▁عشقی	-11.8978
▁ہکل	-11.8979
▁گالوارء	-11.898
گرگ	-11.898
وم	-11.8981
▁دروازگے	-11.8981
▁الھان	-11.8982
▁رہتا	-11.8984
ناصر	-11.8984
▁دیوی	-11.8985
▁نودی	-11.8985
گرد	-11.8985
▁مورے	-11.8986
▁ہاشم	-11.8986
▁شاپی	-11.8986
▁استعارہ	-11.8991
▁نیما	-11.8992
▁مشکلے	-11.8993
▁activit	-11.8993
ته	-11.8995
خدا	-11.8996
جہل	-11.8996
▁بهار	-11.8998
▁ااے	-11.8998
▁پشکپتگ	-11.9003
▁"","	-11.9004
▁language	-11.9005
▁Wales	-11.9005
▁گہیں	-11.9006
▁مھناز	-11.9008
▁شومک	-11.9009
▁شاھگانیں	-11.9011
▁ازمانی	-11.9013
▁member	-11.9014
▁مصرعہ	-11.9017
▁La	-11.9018
▁کردیا	-11.9022
▁جنوب	-11.9024
▁کندن	-11.9025
▁ایدا	-11.9029
▁رکست	-11.9029
▁هنچو	-11.9032
▁گامگیجے	-11.9032
▁بنیادمء	-11.9034
▁گوٹ	-11.9037
▁launch	-11.9038
▁ڈھانچہ	-11.9038
▁نیزگاری	-11.9039
▁مشق	-11.9039
جون	-11.9046
▁دلپروشی	-11.9047
کساس	-11.9047
جند	-11.9052
▁کائیگر	-11.9052
▁opening	-11.9052
▁سفرے	-11.9056
▁کبرانی	-11.9057
▁نزانتکاری	-11.906
▁anti	-11.9061
▁تمردی	-11.9062
▁نورمحمد	-11.9064
بات	-11.9066
▁رھبندء	-11.9067
▁بنچ	-11.9067
▁بیشک	-11.9068
▁دھوت	-11.9068
▁regular	-11.9071
▁current	-11.9072
▁کدین	-11.9072
▁صفائی	-11.9073
▁سومری	-11.9075
▁واضح	-11.9075
▁بشکندگ	-11.9075
▁اسکولے	-11.9076
▁کساسء	-11.9076
▁wall	-11.9076
▁شکلے	-11.908
وڈ	-11.908
▁میدانی	-11.9081
▁اہر	-11.9082
▁قاری	-11.9083
▁گورتگ	-11.9083
▁کاریء	-11.9084
▁مڑائی	-11.9084
▁کارنت	-11.9089
▁زیرک	-11.9091
▁wh	-11.9092
▁دمکانی	-11.9092
▁جدلیات	-11.9094
▁نیمء	-11.9094
فاضل	-11.9096
field	-11.9101
side	-11.9102
▁سپرء	-11.9102
▁بلکین	-11.9102
▁House	-11.9105
▁مشیر	-11.9108
▁زنگی	-11.9109
▁Red	-11.9109
▁تصوف	-11.911
▁مادنی	-11.911
▁حیوان	-11.9111
▁ارگی	-11.9111
▁ورناء	-11.9112
ینی	-11.9113
▁جذباتی	-11.9113
▁کوری	-11.9115
▁لعنت	-11.9116
▁گردہ	-11.9118
▁نیزگاریں	-11.9118
▁ریم	-11.9118
ھند	-11.9119
▁خداء	-11.912
▁Me	-11.9121
▁گوئش	-11.9121
.”	-11.9121
جارکش	-11.9122
تری	-11.9125
▁درکپان	-11.9125
▁برگا	-11.9128
▁امنہ	-11.9129
لال	-11.9129
▁تھئی	-11.9131
▁صورتے	-11.9133
▁زریات	-11.9134
ناکو	-11.9134
▁تهار	-11.9136
▁دلئ	-11.9137
▁ہمبل	-11.9137
▁عبدالقیوم	-11.9137
▁بائیکاٹ	-11.9137
▁راولپنڈی	-11.9138
▁subse	-11.9139
▁پتن	-11.9139
▁destroy	-11.9141
▁اسٹاف	-11.9142
▁شمسی	-11.9144
کمک	-11.9146
▁لبزیات	-11.9148
▁کھیر	-11.915
▁سرکتگ	-11.915
ircraft	-11.9151
▁پسگاں	-11.9152
▁پیشدار	-11.9154
نومبر	-11.9155
یگاں	-11.9161
▁San	-11.9163
لشکر	-11.9163
▁داناں	-11.9169
▁کسهے	-11.9169
▁نبشتگ۔	-11.9171
▁مانچسٹر	-11.9171
▁دانے	-11.9172
▁پرماتگ	-11.9173
ۆکێں	-11.9177
▁ہمائیء	-11.9179
▁درشانگ	-11.9179
▁زندمانء	-11.9179
▁pre	-11.9182
▁اریائی	-11.9183
▁میلان	-11.9185
▁زہن	-11.9186
▁موکہ	-11.9187
زن	-11.9188
▁Hero	-11.919
▁باراں	-11.9195
▁prais	-11.9196
▁واھگدار	-11.9201
▁درونتاں	-11.9203
▁clear	-11.9204
▁size	-11.9204
▁خلیات	-11.9204
▁طویل	-11.9206
▁مارکسزم	-11.9206
▁اچھی	-11.921
▁زرورت	-11.921
▁تورات	-11.9212
▁روباہ	-11.9213
▁هاک	-11.9219
▁دیدانک	-11.9219
مثال	-11.922
▁بلڈنگ	-11.9222
▁دستونکء	-11.9224
▁ڈوبر	-11.9225
▁central	-11.9231
▁اعلان	-11.9231
▁سرپر	-11.9231
▁کپات	-11.9232
▁پرشان	-11.9233
▁بہتامے	-11.9235
▁grow	-11.9236
▁گوستء	-11.9237
▁Street	-11.9237
▁افیشل	-11.9241
▁دزگ	-11.9242
▁لۆگئے	-11.9243
▁کارمرزگ	-11.9245
▁ھالتاک	-11.9247
▁توجیلے	-11.9249
▁ھزارہ	-11.925
▁صابرء	-11.925
▁تنگو	-11.9252
۔پمیشکہ	-11.9252
▁باطنی	-11.9254
▁رودینی	-11.9254
▁گورگ	-11.9255
▁پہلا	-11.9255
▁رؤت۔	-11.9256
▁عمرے	-11.9258
▁مارتگ	-11.9261
▁لکانی	-11.9261
▁ہول	-11.9263
▁ھردوکانی	-11.9264
▁زھیروک	-11.9264
▁ٹر	-11.9266
کپتگ	-11.9266
▁مجبوری	-11.9267
▁چلو	-11.9269
ways	-11.9271
▁recording	-11.9271
▁Championship	-11.9271
▁کتکار	-11.9272
▁مھلہ	-11.9274
▁اھوگ	-11.9278
▁فاطمہ	-11.9278
▁مہرگ	-11.928
▁پیڑ	-11.9282
▁اسٹار	-11.9283
▁دیتی	-11.9284
▁مرادے	-11.9287
▁hit	-11.9287
▁ever	-11.929
▁مہماناں	-11.929
▁نزوریانی	-11.9292
▁امیج	-11.9293
▁پترت۔	-11.9293
▁بڑگ	-11.9294
▁اھدء	-11.9295
▁نیادے	-11.9296
▁زلمانی	-11.9297
▁کوپگانی	-11.9298
▁hand	-11.9298
▁شمالی	-11.9303
▁ملیں	-11.9303
▁artist	-11.9305
▁Follow	-11.9305
▁رکاوٹ	-11.9305
▁زیبدار	-11.9306
▁ٹائر	-11.9309
▁find	-11.931
▁ماشکیل	-11.931
▁موجودگی	-11.9311
▁هساب	-11.9312
▁جیڑگاں	-11.9312
▁مظہر	-11.9312
▁برین	-11.9313
▁توکی	-11.9314
کاف	-11.9317
▁شاھوانی	-11.9318
▁باتنء	-11.932
کھ	-11.932
▁اوشتاتگ۔	-11.9321
▁کپتان	-11.9323
▁ها	-11.9325
▁پھزداری	-11.9328
▁براں۔	-11.9331
▁draw	-11.9332
چین	-11.9333
۔بلئے	-11.9335
ندر	-11.9335
▁واہگاں	-11.9335
▁سچان	-11.9337
▁تمردیں	-11.9338
▁Jordan	-11.9339
▁سحار	-11.9341
ling	-11.9341
▁دفعہ	-11.9342
▁کوشاں	-11.9343
▁مردیناں	-11.9343
▁بیاات	-11.9343
▁بانڑی	-11.9345
▁appearance	-11.9349
▁ہاتھوں	-11.935
▁عشقء	-11.9351
▁گڑھ	-11.9355
▁فلسطینی	-11.9357
▁سمیت	-11.936
▁مھنت	-11.936
کت۔	-11.9362
▁ترات	-11.9364
▁mix	-11.9366
▁ٹینک	-11.9368
▁درانڈیھ	-11.9368
▁free	-11.9368
▁Nav	-11.937
▁پڈ	-11.9372
▁evidence	-11.9373
▁regard	-11.9373
▁commercial	-11.9373
▁From	-11.9373
▁معشیت	-11.9373
▁عبدالقدوس	-11.9375
▁cast	-11.9376
▁وسیع	-11.9379
2014	-11.938
▁قبرء	-11.938
ایم	-11.9384
▁چینچک	-11.9385
برز	-11.9386
▁پورے	-11.9387
▁ٹاپار	-11.9388
▁ببارت	-11.939
▁yard	-11.939
▁انکی	-11.9391
▁بندین	-11.9392
▁سیمک	-11.9393
شمے	-11.9393
▁دیو	-11.9394
▁نویسانی	-11.9394
▁Part	-11.9395
شگ	-11.9395
▁کرتء	-11.9396
بادشاہ	-11.9396
خیر	-11.9397
▁سمبل	-11.9397
▁ھالتران	-11.94
▁چدو	-11.9401
▁کلاکے	-11.9402
▁یاری	-11.9403
▁gain	-11.9407
▁استی	-11.9407
ابی	-11.9407
▁داز	-11.9409
▁لہڑئگ	-11.9409
▁غزہ	-11.9411
▁ساہگء	-11.9412
▁بیچارگیں	-11.9412
ینانی	-11.9413
▁جونے	-11.9422
▁Christian	-11.9422
▁بیٹھ	-11.9422
▁river	-11.9423
▁تہراں	-11.9424
▁جمالیاتی	-11.9426
▁ناٹک	-11.9427
۔مئے	-11.9427
▁جوڑینگ	-11.943
▁هوش	-11.943
▁کھنت	-11.9433
▁رچیت	-11.9436
▁اوپن	-11.9436
▁وانگیانی	-11.9437
▁لائکی	-11.9439
▁تاپگ	-11.944
▁سدگ	-11.944
▁break	-11.9441
▁سہولت	-11.9441
▁Rock	-11.9441
▁بہارگاہ	-11.9444
ial	-11.9445
▁سوزش	-11.9445
▁دروراں	-11.9446
▁سیپ	-11.9448
▁فطری	-11.9449
▁rock	-11.9451
▁سپاہیگ	-11.9452
▁ڈاچی	-11.9453
▁دہر	-11.9456
▁مکہیں	-11.9456
▁مرتبہ	-11.9458
▁کٹوکیں	-11.946
▁گٹء	-11.9461
▁پوریا	-11.9462
▁دراز	-11.9464
▁اون	-11.9464
▁پسگانی	-11.9465
▁شہرانی	-11.9465
▁بوہگا	-11.9466
▁اولسرء	-11.9467
▁دگاں	-11.9467
سندھ	-11.9467
▁بچوں	-11.9468
▁گداری	-11.9468
▁ییں	-11.9468
▁شخصی	-11.947
▁پوشاکاں	-11.9471
▁بیتگینانی	-11.9473
▁گشوک	-11.9473
ساز	-11.9474
▁agree	-11.9474
▁جہتء	-11.9476
▁گریوان	-11.9476
▁نبیستگ	-11.9476
▁جٹ	-11.9478
▁ہجرت	-11.9479
▁گوستگین	-11.9479
▁مشتمل	-11.948
▁وجودی	-11.948
▁شکور	-11.9482
▁لکھوڑ	-11.9484
کئی	-11.9486
کپ	-11.949
▁دگء	-11.9491
▁کوتاہ	-11.9493
▁چاچے	-11.9494
اڈ	-11.9495
▁سرکچ	-11.95
▁200	-11.9501
▁مرتگاں	-11.9502
سل	-11.9508
▁بندنت	-11.9509
▁پج	-11.9511
▁تقدیر	-11.9514
▁ترست	-11.9514
▁ھوالہ	-11.9514
▁لچہی	-11.9515
▁saw	-11.9518
▁قدیمی	-11.9519
▁بکشات	-11.9519
چن	-11.952
▁راگے	-11.952
▁ورناھے	-11.952
▁ریت	-11.9523
▁سلا	-11.9523
بیر	-11.9523
جتا	-11.9524
▁بکشگ	-11.9525
)"	-11.9525
..."	-11.9526
▁راجداری	-11.9527
▁ھیبتان	-11.9528
▁کرنانی	-11.9529
▁ساماناں	-11.9532
▁کمکین	-11.9532
▁لۆگ	-11.9532
▁مرادجان	-11.9534
▁سواراں	-11.9535
▁دیگری	-11.9538
▁واگ	-11.9541
▁گراک	-11.9543
▁سھی	-11.9544
▁ٹیچنگ	-11.9546
▁وسیلہء	-11.9546
▁کدرتی	-11.9547
▁حقدار	-11.9547
▁براھوی	-11.9548
▁نیویارک	-11.9548
▁ات۔کہ	-11.955
▁لڈء	-11.9551
▁پیشء	-11.9551
شور	-11.9551
۔ائیء	-11.9551
▁ایماندار	-11.9556
▁ساهت	-11.9563
▁یکمشت	-11.9566
▁بایدیں	-11.9566
▁ہتم	-11.9567
▁ببات	-11.9567
▁تبلیغ	-11.957
دوستی	-11.957
▁پزور	-11.9571
مانا	-11.9572
▁مھربان	-11.9572
▁اژناگ	-11.9575
▁تاہم	-11.9576
▁مالداری	-11.9577
▁کرنا۔	-11.9578
▁reveal	-11.9579
▁توکہ	-11.958
▁رھیم	-11.9581
▁استالانی	-11.9582
▁replac	-11.9584
▁بیرگیری	-11.9587
▁جھاز	-11.9588
۔پرچاکہ	-11.9589
▁جوانتر	-11.9589
▁ھدوناک	-11.9591
▁معاف	-11.9591
▁برجمیں	-11.9591
▁گناه	-11.9592
▁کوت	-11.9594
▁رجانکء	-11.9595
▁نزار	-11.9595
▁نکہ	-11.9597
▁براث	-11.9599
▁پگرانی	-11.96
▁نیچے	-11.9601
▁پلگاری	-11.9602
▁Mary	-11.9604
▁چیار	-11.9605
▁cit	-11.9606
بنت۔	-11.9606
انہی	-11.9608
▁اران	-11.9609
▁زانگول	-11.9613
▁اگا	-11.9614
▁الاقوامی	-11.9614
▁outside	-11.9615
ٹے	-11.9615
▁troops	-11.9617
▁ھلیل	-11.9618
▁دزرس	-11.9619
▁ایرجنگ	-11.962
▁عقیدہ	-11.962
اتے	-11.9622
▁فریاد	-11.9622
▁منٹو	-11.9624
▁سرجمین	-11.9624
بوان	-11.9624
▁battle	-11.9625
▁ہجری	-11.9626
▁فا	-11.9626
▁کائیں	-11.9626
▁دہل	-11.9626
▁زدگیں	-11.9628
▁ہشکیں	-11.9628
▁پوسٹے	-11.963
▁لنکا	-11.9631
▁معاشرتی	-11.9631
▁کامی	-11.9632
▁ترمیم	-11.9633
▁event	-11.9633
▁مھری	-11.9635
▁ھرمردم	-11.9636
▁دزگہار	-11.9636
▁نسلی	-11.9637
be	-11.9637
▁مجاھد	-11.9638
▁سالہ	-11.9638
▁سوجے	-11.9639
▁دوئین	-11.964
wood	-11.9641
▁درمانے	-11.9642
▁هاترا	-11.9643
شئیر	-11.9643
▁اشترانی	-11.9646
▁هار	-11.9646
▁مکسک	-11.9648
▁چالاک	-11.9649
▁northern	-11.965
▁بوهگ	-11.9651
▁افتاب	-11.9653
ڑہ	-11.9653
▁عنایت	-11.9653
▁اجل	-11.9656
▁g	-11.9656
▁جنئے	-11.9657
▁نمی	-11.9658
▁دران	-11.9659
▁Game	-11.9661
▁لوگا	-11.9662
▁وشاتک	-11.9662
▁تھل	-11.9664
▁تلگ	-11.9664
▁ماجد	-11.9665
▁سیادانی	-11.9666
لاں	-11.9667
▁فوک	-11.9667
▁خراسان	-11.9669
▁تمرد	-11.967
ro	-11.9671
زا	-11.9675
▁تیگ	-11.9675
▁contract	-11.9678
▁بانگواہ	-11.9679
▁اھتک	-11.9679
▁چابک	-11.968
ناز	-11.968
جاه	-11.968
▁rank	-11.9681
▁عصر	-11.9681
▁کشے	-11.9682
▁ہیومن	-11.9683
▁نیر	-11.9684
▁روئٹرز	-11.9684
▁پریمئیر	-11.9684
▁ٹہشت	-11.9685
▁Tech	-11.9685
▁امتحان	-11.9685
▁نادرائی	-11.9685
▁دیمروہی	-11.9686
مستریں	-11.9686
▁زوم	-11.9688
▁زھنی	-11.9688
▁اسکرین	-11.9689
▁ٹریننگ	-11.9689
▁ملگور	-11.969
نیک	-11.9691
▁زانتانی	-11.9692
upon	-11.9693
▁دوہزار	-11.9693
دہی	-11.9693
▁ریزمانک	-11.9694
▁جاہو	-11.9694
▁گرانڈ	-11.9695
▁پھکیں	-11.9696
▁جامع	-11.9697
دیں	-11.9702
▁کچکول	-11.9702
▁نصیرء	-11.9702
▁ارباب	-11.9703
▁دوستناک	-11.9705
رم	-11.9708
▁کمپ	-11.9713
▁پائی	-11.9714
▁31	-11.9714
▁Ma	-11.9717
▁نپرت	-11.9717
▁جنئگء	-11.9721
▁درزن	-11.9722
▁ستم	-11.9722
▁ابابگر	-11.9723
▁ھکیکت	-11.9724
▁وحی	-11.9724
▁پہناد	-11.9727
▁دائرہ	-11.9728
ترس	-11.9728
▁مزھبی	-11.9729
▁ارز	-11.9729
کماش	-11.9731
کین	-11.9734
▁قیاس	-11.9734
اه	-11.9735
lorida	-11.9735
▁منکر	-11.9736
▁ایکٹ	-11.9736
▁درجنگ	-11.9737
▁بیٹا	-11.974
امین	-11.9742
▁پیراں	-11.9743
▁yards	-11.9744
▁لیٹر	-11.9745
▁اسانیں	-11.9745
پولیس	-11.9746
▁وشان	-11.9747
▁کیمتی	-11.9747
▁کنیت	-11.9752
اخ	-11.9754
▁تنیگا	-11.9754
▁تھرو	-11.9755
▁نیاریت	-11.9755
▁length	-11.9755
▁ولگوج	-11.9755
▁وزبت	-11.9755
▁section	-11.9755
▁experience	-11.9755
▁ملیشیا	-11.9757
▁عبدالرزاق	-11.9757
▁ہیرو	-11.9758
▁زرناز	-11.9758
▁گدے	-11.9758
▁درگاہ	-11.9759
▁سانیٹ	-11.9759
▁حیدراباد	-11.9759
دانکہ	-11.976
▁قلندر	-11.976
▁جدائی	-11.976
▁واہد	-11.976
کوش	-11.9762
▁بهداشتی	-11.9762
هی	-11.9762
▁مارکیز	-11.9762
▁بچکندگے	-11.9763
▁ٹا	-11.9765
▁پاگاس	-11.9766
▁رکینگء	-11.9768
▁پرکاری	-11.9772
▁وامدار	-11.9774
چارمی	-11.9779
▁رسگء	-11.978
▁لگے	-11.9782
▁پوزیشن	-11.9785
ہمیش	-11.9785
▁جفا	-11.979
اچہ	-11.979
▁دلدار	-11.979
▁عطاشادء	-11.9791
▁انگلستان	-11.9791
بچ	-11.9791
پش	-11.9791
▁شریپ	-11.9793
▁possible	-11.9793
▁رپکاں	-11.9794
▁location	-11.9797
ul	-11.9799
▁درتہ	-11.98
▁شفیقہ	-11.98
▁عطر	-11.9803
▁دیتہ	-11.9804
کاریں	-11.9805
▁ساتھی	-11.9806
سیر	-11.9806
▁جنید	-11.9806
▁اباتی	-11.9807
▁ورئے	-11.9807
نر	-11.9808
زمانہ	-11.9808
▁گرگا	-11.9808
▁سنداں	-11.9809
tic	-11.9809
▁کیک	-11.981
▁مکسدے	-11.9812
uest	-11.9814
▁کانپرنس	-11.9815
درا	-11.9816
▁دروشمی	-11.9816
▁ہیگل	-11.9817
▁گژنگ	-11.9819
▁نتھا	-11.9825
▁اڑء	-11.9825
▁league	-11.9826
▁crew	-11.9826
▁داعش	-11.9826
▁قدح	-11.9826
▁جائیداد	-11.9828
▁انام	-11.983
▁Paul	-11.983
▁ہائیکو	-11.9832
▁بامسار	-11.9832
▁saying	-11.9832
▁جنء	-11.9833
▁ملگزار	-11.9838
▁مسیتء	-11.9843
عمل	-11.9843
▁ھاشم	-11.9847
▁فکرے	-11.9849
جل	-11.9849
▁بوتگت	-11.985
▁دلسیاھی	-11.985
یب	-11.985
دلگوش	-11.9852
▁عکساں	-11.9853
▁دربہ	-11.9853
▁رژنء	-11.9854
▁شیرازی	-11.9855
▁داتء	-11.9856
قصہ	-11.9857
▁رہیں	-11.9858
ti	-11.9858
▁کارکناں	-11.986
▁competition	-11.9862
▁material	-11.9862
▁account	-11.9862
▁flood	-11.9862
▁درابوت	-11.9862
▁قائد	-11.9862
▁تشریح	-11.9863
▁زیشان	-11.9863
▁فصیح	-11.9864
▁نذیر	-11.9864
▁کودکی	-11.9865
▁ناسرجمیں	-11.9867
▁سئیمی	-11.9867
▁شپا	-11.9867
▁کساسیں	-11.9868
شری	-11.9869
▁مرتب	-11.987
▁دنزاں	-11.9872
▁گوستگ۔	-11.9874
▁منیگ	-11.9875
▁پکی	-11.9875
▁محکمی	-11.9875
▁حاموش	-11.9876
▁گلشن	-11.9876
ارس	-11.9877
▁شموشکار	-11.988
▁پاسپان	-11.9881
▁اماچی	-11.9881
▁بیگاه	-11.9882
▁گڑتی	-11.9882
▁500	-11.9882
▁لچہے	-11.9883
▁یوٹیوب	-11.9885
حاجی	-11.9885
▁مھکمہ	-11.9886
▁برھنگ	-11.9888
رحیم	-11.9891
▁شرگدارے	-11.9892
▁ہیت	-11.9892
▁بدبھتی	-11.9893
▁عمومدار	-11.9893
▁سوتانی	-11.9894
▁working	-11.9896
▁پارس	-11.9896
▁اسرات	-11.9897
▁ھمید	-11.9897
▁Richard	-11.9897
▁effort	-11.9897
▁international	-11.9897
▁ایڈووکیٹ	-11.9897
▁رگء	-11.9898
▁سنڈیمن	-11.9898
▁whom	-11.99
▁باہند	-11.9901
▁واپاری	-11.9902
▁ھرروچ	-11.9904
▁مشرق	-11.9904
▁سنگار	-11.9905
rought	-11.9907
uick	-11.9907
▁مزائیں	-11.9907
▁گلوبل	-11.9909
▁پتہ	-11.991
روک	-11.991
▁کانگریس	-11.9913
▁ناروائی	-11.9916
▁گالوارانی	-11.9921
▁بالیچہ	-11.9925
▁تاھیری	-11.9925
▁زرتء	-11.9926
▁استنت	-11.9926
▁introduc	-11.9927
▁شرانت	-11.9927
اسپ	-11.9927
هے	-11.9933
▁Most	-11.9933
▁تۆکا	-11.9934
▁ولیعہد	-11.9934
▁نندگی	-11.9934
▁مبنی	-11.9937
99	-11.9937
▁رومی	-11.9938
▁شؤر	-11.9938
▁مناک	-11.9942
▁گهار	-11.9943
▁دیھ	-11.9943
▁سستی	-11.9944
▁پژ	-11.9945
▁چگ	-11.9947
▁وندر	-11.9949
▁سادے	-11.995
تگ۔	-11.9951
▁ادبء	-11.9951
▁گنجے	-11.9952
mph	-11.9952
دن	-11.9952
تاب	-11.9954
▁قالب	-11.9955
6	-11.9956
▁زاهر	-11.9958
رندء	-11.9959
سربوتگیں	-11.9959
▁کشکانی	-11.996
ایرانی	-11.9962
▁چلہ	-11.9966
▁ماھان	-11.9968
▁یقینی	-11.9969
▁Hurricane	-11.997
▁Missouri	-11.997
▁ممبئی	-11.997
▁poor	-11.997
▁دپتری	-11.997
▁extend	-11.9971
▁گوران	-11.9971
▁شمشکار	-11.9974
served	-11.9978
▁اسپتیں	-11.9978
▁واجھ	-11.998
▁بیوی	-11.998
▁گٹے	-11.9981
▁پروشیں	-11.9982
iz	-11.9983
▁جھدکاراں	-11.9984
قومی	-11.9984
▁چیھال	-11.9984
▁بکتیں	-11.9995
▁ہیالء	-11.9998
▁روڑ	-11.9999
▁اہن	-12
▁پساں	-12.0001
▁average	-12.0002
▁mean	-12.0003
۔چہ	-12.0003
گچین	-12.0003
▁ککڑ	-12.0003
▁appoint	-12.0004
▁ظریف	-12.0006
▁2001	-12.0006
▁لیکچر	-12.0006
▁سیبی	-12.0006
▁فروغ	-12.0006
▁گویا	-12.0007
▁۔۔۔۔۔۔۔۔	-12.001
▁ڪن	-12.0011
▁مہلونک	-12.0011
▁کیگد	-12.0011
▁فائر	-12.0012
▁هاتر	-12.0014
▁reason	-12.0017
▁ھلوت	-12.0021
▁دہقان	-12.0022
▁شربت	-12.0022
▁پیرین	-12.0024
▁پرینت	-12.0025
▁مہراب	-12.0026
▁خیالی	-12.0027
▁گندیت۔	-12.0027
▁کدام	-12.0031
مہلوک	-12.0032
▁کیفے	-12.0033
اومان	-12.0034
▁راستیاں	-12.0034
▁گٹی	-12.0035
▁مکتبہ	-12.0037
▁زندئ	-12.0037
▁اہدء	-12.0038
▁ندکاراں	-12.0038
▁اداره	-12.0041
▁گوشدارگء	-12.0041
▁مصنف	-12.0043
▁مینجمنٹ	-12.0043
▁لبزتکنیک	-12.0043
▁ہرنائی	-12.0045
▁مصرء	-12.0046
▁۔مئے	-12.0046
سکیں	-12.0048
▁کاریزکار	-12.005
▁افضل	-12.005
▁بداتیں	-12.0051
▁زیمرء	-12.0053
▁اگاہی	-12.0054
▁قندھار	-12.0061
▁هرچی	-12.0062
جم	-12.0064
▁جنجالی	-12.0065
دیمرھی	-12.007
▁نظریات	-12.0073
▁ملایانی	-12.0074
▁ہائوس	-12.0079
▁چوری	-12.0079
more	-12.0081
read	-12.0081
▁راستین	-12.0082
▁یاں۔	-12.0088
▁خوشی	-12.0089
▁میوہ	-12.0089
▁شریان	-12.009
▁شدیک	-12.0091
شش	-12.0092
جس	-12.0094
▁راہشون	-12.0096
▁ردے	-12.0098
▁ٹویٹر	-12.0098
▁court	-12.0098
▁مردماناں	-12.0099
دژمن	-12.0099
▁سہرء	-12.0099
▁نامگ	-12.0102
▁نندء	-12.0102
مس	-12.0103
ایس	-12.0104
▁چیلک	-12.0111
قران	-12.0112
▁شیڈول	-12.0112
▁سہمی	-12.0113
▁روبرکت	-12.0114
▁کستء	-12.0114
▁جہدکار	-12.0115
▁زلوری	-12.0115
▁گؤن	-12.0116
▁سلحہ	-12.0116
▁ریتک	-12.0117
▁ہاکمی	-12.0118
▁پیچیدہ	-12.0118
▁کینیڈا	-12.0119
▁ابرار	-12.0119
▁والہ	-12.0121
گراں	-12.0121
▁ھمساھگیں	-12.0123
▁کدم	-12.0124
▁واقف	-12.0125
▁تسلی	-12.0125
۔بلوچی	-12.0126
▁امریکن	-12.0129
▁پاکی	-12.013
کسان	-12.0131
▁لاپتہ	-12.0132
▁بریت	-12.0133
▁تازہ	-12.0134
▁اقرار	-12.0136
مکران	-12.0137
▁بیت۔من	-12.014
▁سلامتیں	-12.014
▁نوار	-12.014
▁ماہیں	-12.0143
▁کہدا	-12.0143
▁اه	-12.0145
▁جنتر	-12.0146
▁مھران	-12.0147
▁فیل	-12.0148
▁سارے	-12.0149
برات	-12.015
▁بیٹے	-12.0153
▁met	-12.0153
▁Day	-12.0154
▁فرنٹیئر	-12.0154
▁برامدات	-12.0154
▁گراؤنڈ	-12.0155
▁زپت	-12.0156
▁یافتہ	-12.0157
▁مروک	-12.0159
▁تمثیل	-12.0159
▁قدرء	-12.016
▁Sun	-12.0162
▁معصوم	-12.0164
▁producer	-12.0164
▁متن	-12.0165
▁نتا	-12.0166
▁سوگاتے	-12.0166
▁بازیابی	-12.0169
▁کمٹمنٹ	-12.017
ھبر	-12.0172
▁گیجیت	-12.0173
▁تلوسگ	-12.0173
▁موسمیات	-12.0173
▁باسکی	-12.0174
ۆک	-12.0174
▁ہسابء	-12.0177
▁بگنداں	-12.018
▁پتات	-12.018
درستیں	-12.0181
▁مردینے	-12.0181
▁نندئے	-12.0183
ful	-12.0184
▁روتگاں	-12.0188
▁دارالعلوم	-12.0189
▁فرزند	-12.0191
▁زھیرانی	-12.0192
▁اردشیر	-12.0192
▁گریہان	-12.0192
▁پذا	-12.0192
زیر	-12.0192
▁یورش	-12.0192
▁بازانت	-12.0194
▁بینجو	-12.0198
▁سالانہ	-12.0198
▁نندے	-12.0198
▁تیس	-12.0199
بچک	-12.0201
▁ماہکان	-12.0204
den	-12.0204
اکہ	-12.0205
▁تھرے	-12.0209
▁بچگ	-12.0211
▁گذر	-12.0214
▁And	-12.0215
▁هلک	-12.0215
▁جاوران	-12.0216
▁گندہ	-12.0217
▁بست۔	-12.0219
▁کبلہ	-12.0219
▁چکاریں	-12.0219
بازار	-12.022
▁سرکپت	-12.0222
▁ہمگرنچی	-12.0224
▁Indian	-12.0224
▁stay	-12.0226
▁نگہداشت	-12.0226
▁magazine	-12.0226
▁وسعت	-12.0227
▁مرشد	-12.0227
▁بێ	-12.0227
▁تامرانی	-12.0228
▁زوراکانی	-12.023
▁زکر	-12.0232
▁رانا	-12.0232
▁زیتون	-12.0234
▁دبستان	-12.0236
▁دراتک۔	-12.0236
tlantic	-12.0237
▁باس	-12.0237
▁arriv	-12.0248
▁حیالی	-12.025
▁تپد	-12.0251
▁اروچ	-12.0251
▁مالا	-12.0252
▁اشترے	-12.0254
nder	-12.0254
▁پورس	-12.0255
▁حسابا	-12.0259
???	-12.0261
▁conduct	-12.0261
▁Great	-12.0263
▁learn	-12.0263
گنوک	-12.0264
▁درامدی	-12.0266
▁ولیم	-12.0268
▁امران	-12.0268
▁ہوشاپ	-12.0269
▁گرماگی	-12.0269
▁کوشء	-12.0271
▁ٹیپ	-12.0274
▁بسے	-12.0276
فقیر	-12.0276
▁station	-12.0277
▁منان	-12.0279
ائل	-12.0279
▁مردا	-12.0279
▁شاگ	-12.0281
▁دوستر	-12.0282
▁نمادار	-12.0284
▁ندکارے	-12.0285
▁پچگ	-12.0286
▁تیرء	-12.0286
▁بھنگ	-12.0288
▁leave	-12.0288
زانی	-12.0289
▁بھادر	-12.0292
▁ڈا	-12.0292
▁کلانیں	-12.0292
▁ھسا	-12.0294
▁بئیان	-12.0295
وکے	-12.0296
▁قصہاں	-12.0296
▁امرے	-12.0297
ھیر	-12.0297
▁نبا	-12.0298
▁چاتے	-12.0299
▁Sea	-12.03
▁بیوروکریسی	-12.03
▁سپلائی	-12.03
▁horse	-12.03
▁لامحدود	-12.03
▁First	-12.03
▁شہادت	-12.0301
▁availab	-12.0302
▁چہار	-12.0303
▁مبو	-12.0304
▁Best	-12.0305
▁نامرد	-12.0307
▁شیئری	-12.0308
▁اڑان	-12.0308
مک	-12.0308
▁عبدالغفور	-12.0308
▁نقاد	-12.031
▁پتے	-12.0312
▁ball	-12.0313
▁سامراجی	-12.0314
▁دیماارگ	-12.0314
▁کوٹیانی	-12.0316
▁محاورہ	-12.0316
▁اھوالکاری	-12.0316
▁شھزانتی	-12.0317
▁حقیں	-12.0318
کتہ	-12.0318
ach	-12.0319
▁ماھیں	-12.032
▁چاند	-12.0323
▁ریپ	-12.0323
▁دنگ	-12.0323
▁وروک	-12.0323
▁law	-12.0323
▁ذہنیت	-12.0324
▁بوارت	-12.0325
▁کارامد	-12.0325
فضل	-12.0326
امریکہ	-12.0327
▁ھدوناکی	-12.0327
▁شاہء	-12.0327
▁زورگی	-12.0328
▁پتریت	-12.0331
▁Michael	-12.0334
▁مہلب	-12.0334
▁لوٹیتگ	-12.0335
▁approach	-12.0336
▁دستاویز	-12.0337
▁decision	-12.0338
▁condition	-12.0338
▁1970	-12.0338
▁شیدائی	-12.0338
▁voice	-12.0338
▁."	-12.0339
▁cause	-12.0339
▁منفی	-12.034
▁سربتگ	-12.034
▁اولا	-12.0342
▁نشک	-12.0342
▁گرز	-12.0343
▁چڑکہ	-12.0345
▁Pol	-12.0346
▁رفت	-12.0346
۔نوں	-12.0347
▁استانے	-12.0347
▁گلگل	-12.0348
▁بورخیس	-12.0348
▁پیشتر	-12.035
illa	-12.0351
لاپ	-12.0351
ory	-12.0352
▁براہوی	-12.0353
▁winds	-12.0354
▁پونزء	-12.0355
▁اتکنت	-12.0357
▁red	-12.0358
▁شہمات	-12.036
▁پارٹیاں	-12.036
▁گرائمر	-12.0361
▁استادء	-12.0361
▁کائینت	-12.0362
▁چنکے	-12.0362
بلک	-12.0363
چه	-12.0365
▁جوھان	-12.0366
▁پینل	-12.0367
▁پادمال	-12.0369
▁شھرے	-12.037
▁گروکیں	-12.0372
▁چنکہ	-12.0373
▁travel	-12.0374
▁رسترانی	-12.0374
▁think	-12.0376
▁چودھری	-12.0377
▁محمدخان	-12.0378
▁مہرے	-12.0378
▁براھیم	-12.0378
ہہ	-12.038
▁f	-12.0384
▁پاروک	-12.0384
ves	-12.0385
▁صفتء	-12.0385
▁بائدیں	-12.0386
▁پھاز	-12.0388
▁زیمی	-12.039
ارت	-12.039
▁بکنئے	-12.0391
▁مھراں	-12.0392
▁دراصل	-12.0396
▁رسگا	-12.0396
▁چاراہ	-12.0397
▁زبانئ	-12.0398
▁تنء	-12.0399
▁اٹھ	-12.0401
زاں	-12.0402
▁بگوشیت	-12.0404
پرچیکہ	-12.0405
▁اومیت	-12.0405
uence	-12.0408
▁گاراں	-12.0409
▁El	-12.0409
▁construct	-12.0413
▁above	-12.0414
▁کسمانکی	-12.0415
▁رندان	-12.0416
▁اسپیشل	-12.0416
▁جغرافیہ	-12.0417
▁نادیہ	-12.0418
مب	-12.0419
تغیں	-12.0419
▁ھنکینی	-12.042
▁فرشتہ	-12.042
مت	-12.0421
ns	-12.0422
▁دلیریں	-12.0422
دارگ	-12.0423
▁ہمیشاں	-12.0424
▁زادگ	-12.0426
low	-12.0427
سم	-12.0428
▁امینی	-12.0429
▁رجانکانی	-12.043
▁پراھی	-12.0432
▁عنصر	-12.0435
▁گشتی	-12.0436
▁گیچن	-12.0441
▁گوازینگی	-12.0442
▁حلب	-12.0447
▁شوانگے	-12.0448
▁پروا	-12.0449
نڑ	-12.0451
▁نظرہیہ	-12.0451
▁کانپریس	-12.0451
▁کاریانی	-12.0451
▁لهتیں	-12.0452
co	-12.0453
▁نکشہ	-12.0453
▁نازانتی	-12.0456
▁درخت	-12.0456
▁روشنا	-12.046
▁بخشش	-12.0462
▁گوازینان	-12.0462
▁بیسہی	-12.0463
▁پؤج	-12.0463
▁ربیدگاں	-12.0463
▁مینگلء	-12.0464
▁مرادء	-12.0464
98	-12.0465
▁شتیں۔	-12.0465
▁سہیں	-12.0466
▁سنیانلاین	-12.0467
▁زادہ	-12.0471
▁کیے	-12.0472
▁ایرجتگ	-12.0476
بگیری	-12.0476
▁رۆچا	-12.0477
▁گزل	-12.0477
▁ھمش	-12.0479
▁پریب	-12.0479
▁نویستگ	-12.0482
▁دال	-12.0483
▁ویتنام	-12.0485
ادگہ	-12.0486
▁قلمی	-12.0488
▁positive	-12.0489
▁Jack	-12.049
▁٭٭٭٭	-12.049
▁اقدار	-12.049
▁اکبال	-12.049
▁soon	-12.0491
▁ریچی	-12.0493
▁بالو	-12.0493
▁پوچ	-12.0496
▁کاسم	-12.0497
▁گزین	-12.0497
▁جھدکارانی	-12.0498
▁ہورکیں	-12.0499
▁round	-12.0502
▁دژمنے	-12.0502
▁دریگاں	-12.0505
▁نیائے	-12.0506
▁چاہے	-12.0506
ھون	-12.0507
▁ھمکوپگ	-12.0508
▁بیرہ	-12.0508
▁ڈولین	-12.0508
▁دوہیں	-12.051
▁ماڑیانی	-12.0516
..........	-12.0518
w	-12.0522
غم	-12.0522
▁اشرپ	-12.0523
▁کندگاں	-12.0525
▁سائنسء	-12.0525
▁فخر	-12.0525
نتا	-12.0526
▁office	-12.0527
▁business	-12.0527
▁studio	-12.0527
▁نلی	-12.0528
▁پندلانی	-12.0528
▁اسٹریٹجک	-12.0529
▁لوہار	-12.0529
▁ہمراہداری	-12.053
ڑیں	-12.0531
▁استالے	-12.0531
پری	-12.0533
زرت	-12.0533
▁گرابانی	-12.0534
▁جیمز	-12.0535
▁هچبر	-12.0536
▁بارکان	-12.0537
▁سئوت	-12.0538
▁صف	-12.054
▁مریں	-12.054
▁اگاھی	-12.0541
جاھاں	-12.0541
▁estimat	-12.0543
ain	-12.0543
رحم	-12.0544
▁زیادتی	-12.0545
▁حرکتء	-12.0545
▁دگنیاء	-12.0547
▁واژہ	-12.0547
▁رسانکدری	-12.0548
▁نانی	-12.0549
▁خاصیت	-12.0551
▁گجرات	-12.0551
▁امدام	-12.0553
▁حمد	-12.0553
▁بغداد	-12.0554
▁اھت۔	-12.0555
۔تو	-12.0556
تاکبند	-12.0557
▁نویسوک	-12.0558
ts	-12.0559
▁نادراہانی	-12.0559
▁plann	-12.0559
▁چاڑی	-12.0559
▁درزی	-12.0559
day	-12.0564
▁deal	-12.0565
▁Africa	-12.0565
▁interview	-12.0566
▁maintain	-12.0566
▁ثبت	-12.0566
▁مظلوم	-12.0567
▁tree	-12.0567
▁ہماہانی	-12.0568
▁شمشت	-12.0568
▁شہریانی	-12.057
▁رنگین	-12.0571
▁گھشی	-12.0573
▁چنچک	-12.0573
▁دروتے	-12.0574
▁وڑوڑیں	-12.0575
▁سیاھگء	-12.0575
▁الگار	-12.0578
▁شن	-12.0579
▁نوشی	-12.058
▁ٹاہینگ	-12.0581
▁پراھیں	-12.0581
▁Bay	-12.0582
▁ڈؤل	-12.0583
ٹری	-12.0583
شانی	-12.0585
▁زالمیں	-12.0588
▁شھار	-12.0588
▁زوراوری	-12.059
اینت	-12.0591
▁وڑین	-12.0592
چراگ	-12.0592
گاہ	-12.0594
▁دئے۔	-12.0595
▁پنیر	-12.0596
▁say	-12.0597
▁گشین	-12.0598
▁سالگیں	-12.0599
▁چپء	-12.0601
▁car	-12.0602
▁چرائیء	-12.0602
▁ھذمت	-12.0603
▁Canada	-12.0604
▁Tw	-12.0604
▁انجیر	-12.0605
▁سروکیء	-12.0606
شتہ	-12.0606
▁رجحان	-12.0607
▁شہزاد	-12.0607
▁پلسپہ	-12.0607
سرجم	-12.0608
▁letter	-12.0608
شھید	-12.0609
▁مسلسل	-12.0609
▁ناشری	-12.061
▁ھسابے	-12.0611
▁شھمیر	-12.0612
▁عیسیٰء	-12.0612
اشاں	-12.0614
▁جیڑه	-12.0614
▁ہید	-12.0615
▁اڑزان	-12.0616
▁مرہ	-12.0619
▁نشتیں	-12.062
▁کندگء	-12.0621
▁ٹریکٹر	-12.0623
▁جھگیر	-12.0628
▁پکائی	-12.063
▁جہانگیر	-12.0631
▁زاھری	-12.0632
▁دراهیں	-12.0634
▁ہفتگ	-12.0634
▁stor	-12.0636
▁سھتے	-12.0637
▁President	-12.0643
▁زوربیگواہی	-12.0644
▁معاشرے	-12.0645
▁فزکس	-12.0646
▁ڈپریشن	-12.0646
▁طورپر	-12.0646
▁پندلاں	-12.0647
▁ھوریں	-12.0648
▁My	-12.0649
▁نھنگ	-12.0651
ھت	-12.0651
بز	-12.0652
▁ایرگیجگ	-12.0655
▁سران	-12.0656
▁واش	-12.0656
▁نیبگ	-12.0657
▁سجهێن	-12.0662
▁شانے	-12.0664
▁مشان	-12.0666
شام	-12.067
▁2000	-12.067
▁پلگارگ	-12.0671
▁ریسگ	-12.0672
▁بوانیت	-12.0672
▁...............	-12.0676
▁اچانک	-12.0676
▁سیادے	-12.0676
▁کوراں	-12.0677
▁سازش	-12.0678
پو	-12.0678
▁چارٹر	-12.068
▁درشاندابے	-12.0681
▁Henry	-12.0681
town	-12.0682
▁ساؤتھ	-12.0682
▁authorit	-12.0682
▁جھالاوان	-12.0684
۔۔۔۔۔۔۔۔	-12.0685
▁کوہے	-12.0686
▁نسخہ	-12.0687
▁score	-12.0687
▁پرائیوٹ	-12.0689
▁سربار	-12.0689
▁میرچاکر	-12.069
▁پیرجان	-12.0691
▁کودک	-12.0691
▁ہوس	-12.0692
▁referr	-12.0693
▁شیواری	-12.0697
ادی	-12.0697
دنیاء	-12.0697
▁لگوشت	-12.0698
▁میڈیاء	-12.0699
چاریں	-12.0699
▁پربندانی	-12.0701
▁ٹگل	-12.0702
▁۔ہمیش	-12.0702
کپت	-12.0702
91	-12.0703
▁ہمساہگ	-12.0703
▁king	-12.0705
▁وانینت	-12.0705
▁لاس	-12.0706
▁کنوکین	-12.0707
▁بحال	-12.0709
نئے	-12.071
▁کلیات	-12.0712
▁زوالی	-12.0712
▁گھس	-12.0713
▁وج	-12.0716
▁India	-12.0717
▁پوشیں	-12.0717
▁مہمانداری	-12.0719
▁لڑائی	-12.072
سما	-12.072
uadron	-12.072
▁transport	-12.072
▁machine	-12.072
▁سجهێں	-12.0721
▁جمیں	-12.0722
▁دپترے	-12.0725
▁وقار	-12.0725
▁خلیفہ	-12.0726
▁ھبرانی	-12.0726
▁کنوں	-12.0727
▁چھت	-12.0729
▁دیمااہتگ	-12.0729
▁تورگ	-12.073
های	-12.0732
▁تنیگت	-12.0732
ta	-12.0733
▁گراد	-12.0742
▁پیام	-12.0743
▁ضیاء	-12.0745
▁کوشی	-12.0746
▁نپت	-12.0746
▁لگوریں	-12.0746
▁اوپر	-12.0749
▁دریائے	-12.075
ک۔	-12.0752
▁ڪ	-12.0752
▁نادراھیں	-12.0752
▁ایسٹ	-12.0758
▁تراس	-12.0759
▁Oldham	-12.0759
▁عبدالغنی	-12.076
▁1990	-12.076
▁متہدہ	-12.076
▁پلانگری	-12.076
سرمچاراں	-12.076
حر	-12.0761
▁کیپٹن	-12.0763
▁طبیب	-12.0763
▁عروض	-12.0765
▁شاھرگ	-12.0765
▁غسل	-12.0765
▁گیتک	-12.0766
سلام	-12.0768
▁metre	-12.0772
▁ٹکراں	-12.0772
▁کارکنگ	-12.0773
امی	-12.0775
▁sea	-12.0776
▁پولیسا	-12.0777
▁سازاں	-12.0779
زمانگ	-12.0779
▁ھونڈ	-12.078
▁اسلی	-12.0781
▁بچکنداں	-12.0782
▁نریان	-12.0783
▁ورئگ	-12.0784
۔یک	-12.0785
گشئے	-12.0786
▁زیانی	-12.0786
▁۔۔۔۔۔۔۔۔۔	-12.0787
▁لوت	-12.079
▁قمر	-12.0793
▁سکت	-12.0794
▁گواریت	-12.0795
خیال	-12.0796
ting	-12.0796
▁مرے	-12.0797
once	-12.0798
▁Du	-12.0798
▁social	-12.0799
▁ہمینچک	-12.0799
▁sometime	-12.0799
▁وشھال	-12.08
▁ستاشانی	-12.0801
▁پیدائشت	-12.0801
یاکہ	-12.0801
▁اہستہ	-12.0801
▁برازیل	-12.0802
▁جندی	-12.0804
▁مونجائی	-12.0805
کند	-12.0805
▁test	-12.0805
▁حزب	-12.0806
▁سریچ	-12.0806
▁Chin	-12.0807
▁بالیگ	-12.0807
۔بلکیں	-12.0811
▁ریپینگ	-12.0812
▁مازگ	-12.0812
▁سباء	-12.0813
▁Times	-12.0814
')	-12.0816
▁سنگی	-12.0816
▁دھن	-12.0819
▁تائید	-12.0821
▁ایشنت	-12.0822
▁کائنت	-12.0823
▁اورت۔	-12.0826
▁اڈہ	-12.0826
▁بہرگ	-12.0828
▁شھباز	-12.083
▁جہلگ	-12.083
▁پشپد	-12.0831
▁وشدل	-12.0832
بھر	-12.0832
▁انت۔بلوچی	-12.0834
▁شھادت	-12.0836
▁ھوس	-12.0837
▁standard	-12.0838
▁ٹرالنگ	-12.0838
▁عبدالستار	-12.0838
▁Olivier	-12.0838
▁“”	-12.0839
▁ترامجا	-12.0839
▁احتنت	-12.0842
▁فراق	-12.0844
▁thing	-12.0845
▁سجئیں	-12.0845
▁وانگجاھانی	-12.0847
▁پیوند	-12.0847
▁ہروہد	-12.0847
▁قرنانی	-12.0848
ٹس	-12.0848
▁چاگرداں	-12.0848
▁focus	-12.0851
▁burn	-12.0851
▁ڈلگیں	-12.0852
▁گپتاراں	-12.0852
▁ھلار	-12.0854
▁سپائی	-12.0855
ate	-12.0858
▁دراھاں	-12.0858
▁سرنامگ	-12.0859
▁ہردک	-12.086
اسل	-12.0863
os	-12.0863
▁usual	-12.0863
▁برامد	-12.0864
▁چاء	-12.0865
ئیت	-12.0867
▁special	-12.0867
▁ضیا	-12.0868
▁کریک	-12.0868
درچک	-12.0869
▁goals	-12.0869
مسلم	-12.087
▁پکنت	-12.0873
دراھیں	-12.0876
▁capital	-12.0877
▁western	-12.0878
▁ترامجاھاں	-12.088
▁ارٹیکل	-12.088
▁تعبیر	-12.0881
▁lower	-12.0881
▁nine	-12.0882
▁ہوپ	-12.0882
▁ھگم	-12.0883
▁دلاور	-12.0883
▁علامہ	-12.0884
▁کلر	-12.0886
▁گلگدارے	-12.0886
▁نہنت	-12.0886
▁احتجاج	-12.0887
▁پتران	-12.0887
▁پھلوان	-12.0888
▁مچء	-12.0889
▁بدرنگ	-12.0892
▁واجھی	-12.0893
▁hard	-12.0894
▁سلوک	-12.0894
کلی	-12.0896
▁سوجکار	-12.0896
ir	-12.0896
بلوچانی	-12.0897
▁امرء	-12.0901
▁دیوانگی	-12.0901
▁گڈانی	-12.0902
▁نظامے	-12.0906
▁سرگوستاں	-12.0907
▁وانت	-12.0907
▁مردار	-12.0909
ساری	-12.0909
▁بنگل	-12.0911
▁سنجیدگی	-12.0914
▁زانان	-12.0916
▁بندانت	-12.0917
▁concert	-12.0917
▁response	-12.0917
قوم	-12.0917
▁پیرء	-12.0919
▁ذال	-12.0919
ell	-12.092
▁قابض	-12.092
▁توسیف	-12.092
▁اسباب	-12.0922
▁دیریگیں	-12.0925
▁کوٹگ	-12.0926
▁شیرزال	-12.0927
▁ڈنا	-12.0927
▁موجودہ	-12.0927
▁داتگین	-12.0928
ریش	-12.0929
▁ہارون	-12.0931
گمان	-12.0935
▁دیمیگ	-12.0937
▁ارتقاء	-12.0938
▁داستانے	-12.094
▁استارانی	-12.0943
▁میلے	-12.0943
▁قدرانی	-12.0943
▁اسلیں	-12.0943
▁نیادانی	-12.0944
▁ئرا	-12.0944
▁ہشتمی	-12.0945
یف	-12.0946
▁بوتیناں	-12.0946
▁وژن	-12.0947
جاگہ	-12.0947
▁ویئر	-12.0948
▁دیمتری	-12.0951
ینتہ	-12.0953
▁صدیقی	-12.0955
▁ایت۔۔۔	-12.0955
▁کجائے	-12.0956
▁مردےء	-12.0957
▁Regiment	-12.0957
▁ٹورنمنٹ	-12.0957
▁taking	-12.0957
▁recent	-12.0957
▁mention	-12.0957
▁تھری	-12.0958
▁پرچیا	-12.096
▁کپیں	-12.096
زوریں	-12.0966
▁اکادمی	-12.0966
▁قہریں	-12.0967
▁write	-12.0967
▁فش	-12.0968
▁گؤر	-12.0968
▁گوپگ	-12.097
▁ایسپ	-12.0971
▁ہیرت	-12.0971
▁پادیں	-12.0972
▁ٹاھینگ	-12.0973
▁گیمرتگیں	-12.0974
▁کپوتے	-12.0977
▁هیران	-12.0982
▁توپانے	-12.0982
......!	-12.0984
▁گوئشیت	-12.0984
▁برادر	-12.0984
▁وسواس	-12.0985
▁تھرا	-12.0987
▁امیدگسی	-12.099
▁توارانی	-12.0991
▁مہریں	-12.0991
نون	-12.0992
▁ئنت۔	-12.0993
▁ماد	-12.0994
ietnam	-12.0997
▁Mexico	-12.0997
▁School	-12.0997
▁religious	-12.0997
▁broke	-12.0997
▁انحصار	-12.0998
▁بنو	-12.0998
▁مروچگیں	-12.0998
▁Later	-12.0999
▁زانشتجاہ	-12.0999
▁بھارگاہ	-12.1001
▁اینگلز	-12.1002
▁ترسیں	-12.1006
▁هرچ	-12.1006
▁شاہو	-12.1006
روکیں	-12.1008
▁ہفتاد	-12.1009
▁کوکارء	-12.1011
▁یتکگ	-12.1011
▁ایلن	-12.1012
▁فرعون	-12.1012
روس	-12.1012
▁ئے۔۔۔	-12.1012
▁لاشعوری	-12.1013
وڑیں	-12.1014
▁دستگ	-12.1018
▁تکانی	-12.1019
▁اوگار	-12.1022
▁تکینک	-12.1022
▁کوار	-12.1025
▁کؤش	-12.1027
▁رسمی	-12.1027
▁گوئشتگ	-12.1028
بید	-12.1031
▁اہمے	-12.1031
▁میرگل	-12.1032
▁Irish	-12.1037
▁همدا	-12.1038
▁پراسیس	-12.1038
▁ناکی	-12.1038
▁پیمائش	-12.1039
▁تشکیل	-12.1041
▁زہیراں	-12.1041
بوئیگ	-12.1042
▁مبوتیں	-12.1042
▁خورشید	-12.1043
▁Mark	-12.1044
لیکن	-12.1045
▁راس	-12.1045
▁نکال	-12.1048
▁رانی	-12.1048
وشیں	-12.1049
ہار	-12.1049
اھی	-12.1051
مالی	-12.1051
▁ناگیگی	-12.1053
▁خداوند	-12.1053
▁براھندگ	-12.1055
▁پوت	-12.1055
nion	-12.1057
▁parts	-12.1061
۔ما	-12.1062
▁leg	-12.1062
▁شول	-12.1063
▁دراه	-12.1065
▁پدری	-12.1066
▁ھوٹلے	-12.1067
▁همش	-12.1067
▁پدمنتگ	-12.1068
▁سورو	-12.1071
▁ھمسپر	-12.1071
▁تہمبل	-12.1072
▁دیوانانی	-12.1073
▁سیٹلائٹ	-12.1073
▁ھمبلاں	-12.1074
▁Air	-12.1075
▁اخلاقیات	-12.1076
▁prevent	-12.1077
▁رازء	-12.1077
▁مداخلت	-12.1077
ney	-12.1078
▁لیبارٹری	-12.1078
▁عبدالحق	-12.1078
▁جاگهے	-12.1078
▁امروزء	-12.1079
▁پیچھے	-12.108
▁بادشاھے	-12.108
▁تلمیح	-12.108
▁ڈیزل	-12.1081
▁ہریک	-12.1081
▁شدء	-12.1083
▁الت	-12.1084
▁یتیم	-12.1084
▁کھل	-12.1084
▁جیکب	-12.1084
سرکاری	-12.1084
▁سنجیدگ	-12.1085
▁ایشاناں	-12.1086
ربیت	-12.1086
▁Co	-12.1086
منت	-12.1088
زال	-12.1088
▁مبوتین	-12.1088
▁همود	-12.1088
▁حکایت	-12.1088
▁درسی	-12.109
▁رہتے	-12.109
▁ائیڈل	-12.1091
▁سرپداں	-12.1092
▁اجوئیء	-12.1094
▁اولگا	-12.1095
▁ٹول	-12.1096
بور	-12.1099
▁املی	-12.1103
▁توانمند	-12.1104
▁باگی	-12.1104
▁Peter	-12.1104
▁پتانی	-12.1105
▁چتر	-12.1106
▁ازگر	-12.1109
▁ٹارچر	-12.1109
▁کرتنت۔	-12.1111
▁چہرے	-12.1112
▁مچیء	-12.1112
جاھے	-12.1113
ball	-12.1115
▁ردوبند	-12.1117
▁brother	-12.1118
▁هاشمی	-12.1118
▁یوسپ	-12.1118
▁رینجرز	-12.1118
▁past	-12.112
▁حکمرانی	-12.112
▁ریحان	-12.1121
▁سفارش	-12.1121
▁جنگلانی	-12.1124
▁ونتگ۔	-12.1125
▁بھیر	-12.1125
▁گراباں	-12.1125
▁ارسیگ	-12.1125
▁ڈکشن	-12.1126
▁ھمنچک	-12.1126
▁ورگاں	-12.1128
۔دومی	-12.1132
▁صحبت	-12.1134
ریاست	-12.1138
▁گلاسے	-12.1139
▁اھوالاں	-12.1139
▁کھند	-12.1142
▁ٹینکر	-12.1144
..!‘‘	-12.1144
▁عل	-12.1146
▁واٹر	-12.1146
▁دربرت	-12.1147
▁چس	-12.1149
▁گیاب	-12.115
جوان	-12.1152
▁وشھالیں	-12.1153
▁اي	-12.1153
▁نہادی	-12.1153
▁تز	-12.1153
▁خور	-12.1153
▁روہ	-12.1155
▁fre	-12.1155
▁تمباک	-12.1158
▁flight	-12.1159
▁Canadian	-12.1159
▁Thomas	-12.1159
▁سرگردان	-12.116
▁زمه	-12.116
▁نمائش	-12.1162
▁نیٹو	-12.1163
▁ایجاد	-12.1163
نصیر	-12.1164
ab	-12.1164
▁گلین	-12.1165
▁کھثہ	-12.1165
▁ڈائیلاگ	-12.1166
▁اتراپاں	-12.1166
▁مجموعہ	-12.1167
▁football	-12.1168
▁سرخ	-12.1168
▁ٹاس	-12.1172
▁دراہی	-12.1172
▁زخم	-12.1172
▁بندروشم	-12.1173
▁دراھ	-12.1175
▁زوراکاں	-12.1175
▁ذمواری	-12.1176
بام	-12.1178
▁نادلگوشی	-12.1178
▁شنبہ	-12.118
ازمان	-12.118
▁امدنی	-12.1181
▁stone	-12.1182
▁انتہا	-12.1184
▁لٹء	-12.1185
▁امیدگساں	-12.1186
اکی	-12.119
▁موڈ	-12.1192
▁تیوگی	-12.1193
▁must	-12.1193
شد	-12.1194
▁اکاؤنٹ	-12.1194
▁ض	-12.1195
▁فساد	-12.1195
جنگی	-12.1197
▁subject	-12.1199
▁مخاطب	-12.12
گڈ	-12.1201
▁ٹیلیفون	-12.1202
▁چونی	-12.1203
کوئی	-12.1205
▁انجینئرنگ	-12.1205
▁سلامے	-12.1205
▁پریم	-12.1205
▁خیالا	-12.1207
▁مفکر	-12.1207
ریل	-12.1209
ویل	-12.121
▁وانینتگ	-12.1213
▁چارینگ	-12.1213
men	-12.1215
▁زیمراں	-12.1217
▁روزرد	-12.1218
▁شھیداں	-12.1227
▁کارگرگ	-12.1228
▁جناب	-12.1231
▁ڪتگ	-12.1234
▁سریت	-12.1234
▁کسم	-12.1235
وہد	-12.1237
▁چاگر	-12.1238
جنگل	-12.1239
▁ے۔	-12.124
▁پروازء	-12.124
▁شررنگیں	-12.124
انکی	-12.124
▁Mount	-12.124
▁پکگ	-12.124
▁slow	-12.1241
تیر	-12.1241
▁ھالت	-12.1242
▁ہؤ	-12.1242
▁forward	-12.1243
▁لینے	-12.1246
مکن	-12.1247
▁بچارات	-12.1247
▁سرینان	-12.1249
▁تنت۔	-12.1249
▁زرک	-12.1249
▁سبوت	-12.125
▁پورو	-12.125
▁شاھدی	-12.1252
پول	-12.1252
▁مھ	-12.1253
▁ث	-12.1254
▁تجریدی	-12.1254
▁رپیک	-12.1255
▁زرینہ	-12.1257
▁ناپگ	-12.1257
▁سعد	-12.1258
▁رئوگ	-12.1258
▁بکر	-12.1259
▁سیاھک	-12.1261
کرد	-12.1261
▁مدے	-12.1262
▁پنجگوری	-12.1263
▁ملوریں	-12.1264
نامی	-12.1268
▁بواں	-12.1269
▁دئیوک	-12.1269
▁چہرگ	-12.1269
▁ہمئے	-12.1269
▁پہازگ	-12.127
▁شررنگ	-12.1271
▁کوھستگ	-12.1272
▁جیڑگی	-12.1272
▁ازمود	-12.1273
▁طاقتے	-12.1275
رژن	-12.1276
▁یادگار	-12.1276
▁چمروک	-12.1279
▁زران	-12.128
غیر	-12.128
▁explain	-12.1282
▁network	-12.1282
▁surface	-12.1282
▁pressure	-12.1282
▁بایدانت	-12.1283
▁foot	-12.1284
لیب	-12.1285
▁ناکامی	-12.1285
▁خاتون	-12.1285
▁پختہ	-12.1286
▁پلیری	-12.1286
▁شرپے	-12.1286
▁fly	-12.1288
سیل	-12.1289
▁میلادی	-12.129
▁شپانکے	-12.1291
▁Hall	-12.1291
▁وزیرستان	-12.1292
▁بالیگراب	-12.1292
▁درنگازی	-12.1297
واحد	-12.1298
▁في	-12.1298
▁تامل	-12.1299
▁مروچ	-12.1299
▁جنگلاں	-12.13
▁پادایگ	-12.1301
▁pitch	-12.1302
ent	-12.1302
▁درشک	-12.1302
▁hold	-12.1303
▁سہیگ	-12.1304
▁ساٹ	-12.1305
▁فائل	-12.1307
▁k	-12.1307
▁بیگار	-12.1307
▁دنزے	-12.1308
▁قیام	-12.1313
▁پولء	-12.1315
▁کاه	-12.1316
▁چلے	-12.1316
▁ملایاں	-12.1317
▁ترپگ	-12.1321
▁شنزگ	-12.1322
▁1960	-12.1323
▁نیند	-12.1325
▁intend	-12.1325
▁اٹھا	-12.1326
▁ہٹ	-12.1326
▁ٹولیاں	-12.1326
▁ازمائش	-12.1326
▁لائقی	-12.1328
▁وشبواں	-12.133
اسک	-12.1331
▁دراھت	-12.1331
▁سربراہ	-12.1331
▁مستاگے	-12.1333
▁لمہ	-12.1333
▁کاگداں	-12.1333
▁دانائیں	-12.1338
▁جتء	-12.1338
▁studie	-12.1339
زرد	-12.134
▁forc	-12.134
▁تازگ	-12.1344
▁اوگانی	-12.1345
▁Cr	-12.1346
راجدپتر	-12.1347
▁صلح	-12.1349
▁کردن	-12.135
▁نیشتگ	-12.1351
▁ناکامیں	-12.1353
▁بگندیت	-12.1356
پروفیسر	-12.1357
▁ات۔منی	-12.1357
▁بشکن	-12.1358
عزت	-12.1358
اود	-12.1358
▁کپتاں۔	-12.1359
▁سرجاہ	-12.136
گیری	-12.1361
▁تنہا	-12.1361
▁دربی	-12.1364
▁Guitar	-12.1364
▁approximate	-12.1364
▁increasing	-12.1364
▁ٹپے	-12.1366
▁جابر	-12.1367
▁مرحوم	-12.1368
▁وضاحت	-12.1368
▁سارا	-12.1368
▁کندی	-12.1368
▁کلاکانی	-12.1368
▁piece	-12.1368
▁ساڑ	-12.1368
▁شرابی	-12.1369
▁دلکشی	-12.137
زگ	-12.1374
▁گمبد	-12.1375
▁بوجی	-12.1377
.(	-12.1378
▁صلہ	-12.1383
▁پرستیں	-12.1383
▁چوشی	-12.1384
▁ردیانی	-12.1387
▁غزلے	-12.1387
▁۔وتی	-12.1387
▁زیاد	-12.1387
▁دردانہ	-12.1387
▁بروتاں	-12.139
▁پکن	-12.1391
▁بہشتء	-12.1391
▁بیرگیں	-12.1392
▁زحمت	-12.1392
پرچہ	-12.1392
▁نبنت	-12.1394
▁لیل	-12.1396
▁درکت	-12.1396
▁زاہدان	-12.1396
▁کیز	-12.1397
▁اسودگیں	-12.1399
پژدر	-12.1399
▁وفائی	-12.14
مز	-12.14
تل	-12.1401
▁ڈے	-12.1401
سین	-12.1401
▁نشگ	-12.1402
▁بچارے	-12.1404
▁چلتن	-12.1406
▁That	-12.1406
▁تعین	-12.1406
▁professional	-12.1407
▁ضامن	-12.1408
▁برازتک	-12.1408
▁پزل	-12.1408
▁تپنگء	-12.1409
▁عائشہ	-12.141
▁علیه	-12.1413
▁ٹونا	-12.1413
▁مهمان	-12.1414
▁ڈھال	-12.1415
▁گھتری	-12.1415
▁جنگجاہ	-12.1416
پدر	-12.1417
▁ڪار	-12.1417
▁بیٹنگ	-12.1417
▁کتکاری	-12.1418
▁دیمھونی	-12.1418
▁پراہی	-12.1418
▁مدرسه	-12.1421
▁جتائیء	-12.1422
▁مزنێن	-12.1422
▁کہور	-12.1422
▁مشکلانی	-12.1422
▁کشت۔	-12.1424
▁منج	-12.1424
▁کارچے	-12.1427
▁پارلیمان	-12.1427
سپر	-12.143
▁چاہیے	-12.1432
▁دیناں	-12.1432
▁قل	-12.1432
▁دمگا	-12.1432
▁ac	-12.1433
▁پھریزی	-12.1438
▁پرسء	-12.1439
▁specific	-12.144
▁رھبر	-12.144
▁رھبندی	-12.1441
▁حقیقتے	-12.1442
باندا	-12.1443
▁وھاب	-12.1443
▁قومیت	-12.1443
▁پمیش	-12.1443
گن	-12.1444
▁حجالتی	-12.1446
▁ھکاں	-12.1448
▁بیکار	-12.1448
▁زمزیلاں	-12.1448
▁بمبتراک	-12.145
▁گوزاں	-12.145
▁cost	-12.145
▁انگراں	-12.1451
▁مجموعی	-12.1452
▁سلتان	-12.1454
▁کلہے	-12.1456
▁تسپ	-12.1457
▁نیاؤرتگ	-12.1457
▁actor	-12.1459
▁جتاہیں	-12.146
▁بیت۔۔۔۔	-12.146
▁جارچین	-12.1461
▁دھل	-12.1462
▁یکجاھیں	-12.1463
▁گئی۔	-12.1465
▁زہیروک	-12.1466
▁بیتگنت۔	-12.1466
تار	-12.1467
▁گوازینتگ۔	-12.1467
نود	-12.147
▁تکمیل	-12.1472
▁almo	-12.1472
تہ۔	-12.1474
ka	-12.1477
▁گاٹ	-12.1478
▁نفی	-12.1478
▁پین	-12.1478
▁حیالان	-12.1479
درائیں	-12.1479
واریں	-12.1479
▁گزیر	-12.1479
▁زالء	-12.148
▁پوریاگرانی	-12.1481
▁عکاسی	-12.1482
بیورغ	-12.1483
▁مباں	-12.1484
▁درود	-12.1485
▁دلشاد	-12.1485
▁ہمکاری	-12.1486
جھد	-12.1486
▁تراتگ	-12.1487
▁سکون	-12.1488
▁دیرو	-12.1488
▁lines	-12.1489
▁fact	-12.1489
▁typical	-12.149
▁بوھوکیں	-12.149
▁بادی	-12.1491
▁ہیوم	-12.1492
▁relative	-12.1493
▁بندپتر	-12.1493
▁دنتاناں	-12.1493
latter	-12.1495
▁Jin	-12.1497
▁پلوا	-12.1497
▁ترجمے	-12.1498
▁پا۔	-12.1499
▁ہاکم	-12.1499
▁انت۔کہ	-12.1501
▁ھامین	-12.1504
▁جائے۔	-12.1505
▁مشکلاں	-12.1507
▁60	-12.1508
▁ٹکگ	-12.1508
▁نابلد	-12.151
▁گپے۔	-12.1514
▁لوٹگء	-12.1516
▁گۆش	-12.1516
کفایت	-12.1517
▁راستہ	-12.1517
▁لکھن	-12.152
▁قیدی	-12.1521
دانی	-12.1524
▁دیگ۔	-12.1524
▁ره	-12.1525
▁لینگ	-12.1527
▁جہلانک	-12.1531
▁بزاناں	-12.1531
▁مستحکم	-12.1533
[...]
