<pad>	0
<unk>	0
<s>	0
</s>	0
[CLS]	0
[SEP]	0
[MASK]	0
<0x00>	0
<0x01>	0
<0x02>	0
<0x03>	0
<0x04>	0
<0x05>	0
<0x06>	0
<0x07>	0
<0x08>	0
<0x09>	0
<0x0A>	0
<0x0B>	0
<0x0C>	0
<0x0D>	0
<0x0E>	0
<0x0F>	0
<0x10>	0
<0x11>	0
<0x12>	0
<0x13>	0
<0x14>	0
<0x15>	0
<0x16>	0
<0x17>	0
<0x18>	0
<0x19>	0
<0x1A>	0
<0x1B>	0
<0x1C>	0
<0x1D>	0
<0x1E>	0
<0x1F>	0
<0x20>	0
<0x21>	0
<0x22>	0
<0x23>	0
<0x24>	0
<0x25>	0
<0x26>	0
<0x27>	0
<0x28>	0
<0x29>	0
<0x2A>	0
<0x2B>	0
<0x2C>	0
<0x2D>	0
<0x2E>	0
<0x2F>	0
<0x30>	0
<0x31>	0
<0x32>	0
<0x33>	0
<0x34>	0
<0x35>	0
<0x36>	0
<0x37>	0
<0x38>	0
<0x39>	0
<0x3A>	0
<0x3B>	0
<0x3C>	0
<0x3D>	0
<0x3E>	0
<0x3F>	0
<0x40>	0
<0x41>	0
<0x42>	0
<0x43>	0
<0x44>	0
<0x45>	0
<0x46>	0
<0x47>	0
<0x48>	0
<0x49>	0
<0x4A>	0
<0x4B>	0
<0x4C>	0
<0x4D>	0
<0x4E>	0
<0x4F>	0
<0x50>	0
<0x51>	0
<0x52>	0
<0x53>	0
<0x54>	0
<0x55>	0
<0x56>	0
<0x57>	0
<0x58>	0
<0x59>	0
<0x5A>	0
<0x5B>	0
<0x5C>	0
<0x5D>	0
<0x5E>	0
<0x5F>	0
<0x60>	0
<0x61>	0
<0x62>	0
<0x63>	0
<0x64>	0
<0x65>	0
<0x66>	0
<0x67>	0
<0x68>	0
<0x69>	0
<0x6A>	0
<0x6B>	0
<0x6C>	0
<0x6D>	0
<0x6E>	0
<0x6F>	0
<0x70>	0
<0x71>	0
<0x72>	0
<0x73>	0
<0x74>	0
<0x75>	0
<0x76>	0
<0x77>	0
<0x78>	0
<0x79>	0
<0x7A>	0
<0x7B>	0
<0x7C>	0
<0x7D>	0
<0x7E>	0
<0x7F>	0
<0x80>	0
<0x81>	0
<0x82>	0
<0x83>	0
<0x84>	0
<0x85>	0
<0x86>	0
<0x87>	0
<0x88>	0
<0x89>	0
<0x8A>	0
<0x8B>	0
<0x8C>	0
<0x8D>	0
<0x8E>	0
<0x8F>	0
<0x90>	0
<0x91>	0
<0x92>	0
<0x93>	0
<0x94>	0
<0x95>	0
<0x96>	0
<0x97>	0
<0x98>	0
<0x99>	0
<0x9A>	0
<0x9B>	0
<0x9C>	0
<0x9D>	0
<0x9E>	0
<0x9F>	0
<0xA0>	0
<0xA1>	0
<0xA2>	0
<0xA3>	0
<0xA4>	0
<0xA5>	0
<0xA6>	0
<0xA7>	0
<0xA8>	0
<0xA9>	0
<0xAA>	0
<0xAB>	0
<0xAC>	0
<0xAD>	0
<0xAE>	0
<0xAF>	0
<0xB0>	0
<0xB1>	0
<0xB2>	0
<0xB3>	0
<0xB4>	0
<0xB5>	0
<0xB6>	0
<0xB7>	0
<0xB8>	0
<0xB9>	0
<0xBA>	0
<0xBB>	0
<0xBC>	0
<0xBD>	0
<0xBE>	0
<0xBF>	0
<0xC0>	0
<0xC1>	0
<0xC2>	0
<0xC3>	0
<0xC4>	0
<0xC5>	0
<0xC6>	0
<0xC7>	0
<0xC8>	0
<0xC9>	0
<0xCA>	0
<0xCB>	0
<0xCC>	0
<0xCD>	0
<0xCE>	0
<0xCF>	0
<0xD0>	0
<0xD1>	0
<0xD2>	0
<0xD3>	0
<0xD4>	0
<0xD5>	0
<0xD6>	0
<0xD7>	0
<0xD8>	0
<0xD9>	0
<0xDA>	0
<0xDB>	0
<0xDC>	0
<0xDD>	0
<0xDE>	0
<0xDF>	0
<0xE0>	0
<0xE1>	0
<0xE2>	0
<0xE3>	0
<0xE4>	0
<0xE5>	0
<0xE6>	0
<0xE7>	0
<0xE8>	0
<0xE9>	0
<0xEA>	0
<0xEB>	0
<0xEC>	0
<0xED>	0
<0xEE>	0
<0xEF>	0
<0xF0>	0
<0xF1>	0
<0xF2>	0
<0xF3>	0
<0xF4>	0
<0xF5>	0
<0xF6>	0
<0xF7>	0
<0xF8>	0
<0xF9>	0
<0xFA>	0
<0xFB>	0
<0xFC>	0
<0xFD>	0
<0xFE>	0
<0xFF>	0
▁ء	-2.15311
▁کہ	-4.09024
▁انت	-4.18266
,	-4.34189
ء	-4.61958
▁اے	-4.8165
▁ات	-4.90369
▁,	-4.96275
▁نہ	-4.99356
▁وتی	-5.04137
▁چہ	-5.14636
▁۔	-5.22571
▁من	-5.24733
▁	-5.29878
▁یک	-5.31548
▁ائی	-5.32321
▁ا	-5.36795
ی	-5.36913
▁انت۔	-5.42315
اں	-5.43422
▁بیت	-5.45384
▁کنگ	-5.50963
▁گوں	-5.52396
▁و	-5.52834
ے	-5.54265
▁بہ	-5.55729
انی	-5.55968
▁پہ	-5.56413
یں	-5.6182
▁(	-5.64397
▁:	-5.66066
▁سر	-5.76016
▁بلوچ	-5.83189
▁بوتگ	-5.8398
۔	-5.86374
▁)	-5.93429
▁.	-5.95069
ا	-5.96636
▁the	-5.9817
▁بلے	-6.01231
s	-6.03398
▁منی	-6.04857
▁ئے	-6.05245
▁کنت	-6.10801
▁ھم	-6.11587
▁تو	-6.12423
▁کتگ	-6.14663
▁بوت	-6.16725
▁بیتگ	-6.23121
▁کن	-6.2453
▁بے	-6.25573
▁مردم	-6.2686
)	-6.26881
.	-6.28525
▁ئ	-6.28624
▁ما	-6.28959
:	-6.29269
▁بلوچستان	-6.29923
▁تہ	-6.38881
▁دیم	-6.40632
▁تہا	-6.40949
▁ھمے	-6.4197
▁کار	-6.43453
▁یا	-6.44099
▁کت	-6.44796
▁پد	-6.46706
ed	-6.47208
▁"	-6.48051
▁بلوچی	-6.49158
▁مئے	-6.50944
▁دگہ	-6.51034
▁ہم	-6.52851
▁گپ	-6.53481
▁ات۔	-6.56617
▁’’	-6.58163
▁وت	-6.59584
▁روچ	-6.62992
▁دو	-6.63724
▁گڑا	-6.63862
▁تئی	-6.6426
▁دل	-6.67448
▁سرا	-6.68015
ان	-6.68483
▁of	-6.70892
▁رد	-6.73931
▁نام	-6.74911
ہ	-6.75733
▁کے	-6.77319
▁ایت	-6.79121
▁جنگ	-6.80319
▁کرتگ	-6.80822
▁بنت	-6.81687
▁بیت۔	-6.82378
▁and	-6.82613
▁زبان	-6.82858
▁پدا	-6.83184
▁پر	-6.84645
▁ھما	-6.84926
?	-6.84946
▁باز	-6.8564
▁را	-6.85722
▁بی	-6.86532
▁اگاں	-6.88654
▁گوشتگ	-6.88686
▁چو	-6.90213
▁بازیں	-6.90622
▁ہما	-6.91505
‘‘	-6.91644
▁دست	-6.93918
▁ہمے	-6.94059
▁ایشی	-6.94423
▁لوٹ	-6.9611
▁سے	-6.9737
▁کی	-6.97874
▁اں	-6.99019
▁یے	-6.99053
ن	-6.99834
▁ماں	-7.0012
▁in	-7.01231
▁تہء	-7.02669
▁to	-7.03686
▁مہ	-7.03803
▁ائیء	-7.04176
▁در	-7.04435
▁مردمانی	-7.05576
▁نیمگ	-7.0702
▁میں	-7.09817
▁a	-7.10675
▁پاکستانی	-7.11584
▁ایں	-7.12286
▁چے	-7.12939
▁ھال	-7.13238
▁زند	-7.13344
▁جوڑ	-7.13609
▁کرت	-7.14008
ئے	-7.14969
(	-7.1611
▁دومی	-7.16758
▁زانت	-7.17297
▁نبشتہ	-7.17343
▁دور	-7.18151
▁اس	-7.18327
▁وھد	-7.18501
▁سک	-7.18592
▁اور	-7.18596
▁ترا	-7.18843
▁دیگ	-7.1925
ت	-7.20291
▁مزنیں	-7.20381
▁پوج	-7.20474
▁واجہ	-7.206
▁گل	-7.20909
▁چار	-7.21279
▁‘‘	-7.21641
...	-7.22299
▁که	-7.2232
▁بند	-7.22922
▁نوں	-7.22961
▁پیش	-7.2308
▁دات	-7.23455
▁داتگ	-7.24388
!	-7.24561
▁ہر	-7.26105
▁رند	-7.26314
گ	-7.26918
و	-7.2773
ئ	-7.28197
▁ایر	-7.28207
▁خان	-7.28697
ing	-7.29132
▁گیش	-7.30464
▁کنت۔	-7.31935
▁رنگ	-7.32602
▁ھچ	-7.32913
▁دمگ	-7.33437
▁ھر	-7.33482
ین	-7.33544
▁شنگ	-7.33561
▁مردماں	-7.33799
▁کا	-7.34116
▁شپ	-7.34367
▁سال	-7.34894
▁￴	-7.35141
▁زانگ	-7.35157
▁نوکیں	-7.35815
▁=	-7.35948
▁جان	-7.36157
▁اپ	-7.37411
▁ارش	-7.37487
▁داں	-7.38224
▁کتاب	-7.38808
▁گوشت	-7.38912
▁کس	-7.40268
▁مارا	-7.40535
▁کنان	-7.40715
▁سرء	-7.41568
▁اللہ	-7.416
▁جست	-7.42489
▁راج	-7.42957
▁نیست	-7.43612
ک	-7.45512
▁جاہ	-7.45586
▁راہ	-7.46196
▁اش	-7.46705
▁بوتگ۔	-7.46852
▁میر	-7.46938
▁وش	-7.47679
▁اوار	-7.47779
▁گوش	-7.47969
وں	-7.48745
”	-7.49377
▁ایش	-7.49791
y	-7.49924
▁ہے	-7.50104
▁ھوار	-7.50792
▁او	-7.51121
▁کم	-7.5114
’’	-7.5131
▁گوشگ	-7.51819
▁سی	-7.51901
▁گیشتر	-7.52666
▁لوگ	-7.53046
▁دنیا	-7.53291
▁لشکر	-7.53317
▁ایانی	-7.53478
▁کو	-7.54466
▁توار	-7.54706
▁”	-7.56025
▁مان	-7.5655
▁اتگ	-7.5798
▁اولی	-7.58855
▁اوں	-7.59548
"	-7.60202
▁وڑ	-7.60668
▁'	-7.61305
▁گندگ	-7.6153
▁وھدے	-7.61716
▁کش	-7.6336
▁بیگواہ	-7.6373
▁گوستگیں	-7.64059
▁جتگ	-7.64425
▁چک	-7.64728
▁“	-7.65001
▁دار	-7.65986
▁یکے	-7.6624
▁بس	-7.66791
▁گ	-7.6694
▁دوست	-7.66963
▁گشت	-7.67679
▁چم	-7.6811
▁بوگ	-7.68127
▁بزاں	-7.68626
▁لبزانک	-7.69292
▁was	-7.69897
▁وڑیں	-7.70702
▁پاکستان	-7.70735
▁گشتگ	-7.71025
نگ	-7.71105
▁ماہ	-7.71366
▁بلئے	-7.72662
▁گون	-7.72807
▁بلکیں	-7.72902
▁ن	-7.73288
▁چیزے	-7.73649
▁بن	-7.73709
▁درشان	-7.73754
▁ھست	-7.73831
▁برجاہ	-7.73949
▁دیما	-7.74009
▁زور	-7.74439
@	-7.74469
▁اتکگ	-7.75252
▁چیز	-7.75339
▁@	-7.75463
▁اچ	-7.75545
▁مردمے	-7.76688
نت	-7.77004
▁ابید	-7.77136
▁مروچی	-7.77884
▁وانگ	-7.78295
▁محمد	-7.78295
ات	-7.78354
▁پشت	-7.78425
▁زمین	-7.79536
ائی	-7.79539
▁کر	-7.80415
▁تر	-7.80499
▁ان	-7.81018
▁کسے	-7.81668
▁شاعری	-7.82159
▁شال	-7.82188
▁اتک	-7.83058
من	-7.83312
▁سرپد	-7.83389
▁بیتگیں	-7.83698
▁The	-7.83855
▁چشکہ	-7.83968
▁بندات	-7.83975
▁بدل	-7.84172
▁ازمانک	-7.84249
▁دی	-7.84284
▁سوب	-7.84291
▁ائرا	-7.84299
▁￵	-7.84498
▁شر	-7.84656
▁مات	-7.84668
▁بیران	-7.84684
▁دنت	-7.84732
▁مراد	-7.84996
▁ملک	-7.8501
▁سرجمیں	-7.85082
▁منا	-7.85668
▁زھرشانی	-7.85669
ر	-7.85675
▁مزن	-7.86148
▁اتنت	-7.86316
▁پی	-7.86413
▁انگت	-7.86741
م	-7.8724
▁راجی	-7.8732
▁مدام	-7.8758
▁ڈاکٹر	-7.87791
▁چست	-7.88226
▁پچ	-7.88712
▁مرچی	-7.89141
-	-7.89367
▁پاد	-7.89393
▁ھیال	-7.89435
▁دارگ	-7.89441
▁[...]	-7.9036
▁بنت۔	-7.90468
▁کپتگ	-7.91063
▁کناں	-7.91078
▁میان	-7.91226
▁سیاسی	-7.91236
▁دیوان	-7.91498
▁انسان	-7.91537
▁برے	-7.91744
▁واب	-7.92063
▁انچیں	-7.92103
▁است	-7.93259
▁زر	-7.93881
▁ہچ	-7.94031
▁این	-7.94106
▁بوت۔	-7.9411
▁کدی	-7.94125
▁کشگ	-7.94326
▁پٹ	-7.94665
▁نے	-7.94791
▁حیال	-7.95054
▁شت	-7.95164
ly	-7.95471
▁تاں	-7.95691
▁انچو	-7.95763
▁بر	-7.96137
▁مرد	-7.96334
▁بوتگیں	-7.9761
▁ادا	-7.98146
▁ئیں	-7.98165
اے	-7.98549
▁کسہ	-7.98681
▁بہر	-7.98875
▁چی	-7.99495
▁پت	-7.99503
کہ	-7.99548
▁رجانک	-8.00019
▁کجام	-8.00108
▁سلاہ	-8.0022
ل	-8.00238
ه	-8.00483
▁شما	-8.01185
▁گور	-8.01321
▁ایاں	-8.02257
▁سبب	-8.02283
▁دروشم	-8.02457
▁کمک	-8.03543
▁ملا	-8.04277
▁کراچی	-8.0436
▁پرچا	-8.04577
▁دپ	-8.04726
▁جتا	-8.04855
▁گار	-8.05947
▁جتائیں	-8.06137
‘	-8.0629
▁جند	-8.06326
▁یل	-8.07314
▁جارکش	-8.07607
▁تران	-8.0797
▁گڈا	-8.08262
▁سرجم	-8.08422
▁ایوک	-8.09009
▁پولیس	-8.09227
▁as	-8.09313
▁چه	-8.09852
▁اباد	-8.09986
▁بھر	-8.10082
▁that	-8.10157
▁ایشانی	-8.10188
یت	-8.10358
▁چاگرد	-8.10556
▁پنچ	-8.10723
▁on	-8.1079
▁نا	-8.10926
▁حال	-8.11071
▁مرگ	-8.11269
انت	-8.11395
▁with	-8.11697
▁for	-8.12819
▁کجا	-8.12843
▁گاڑی	-8.12953
▁اجوئی	-8.13067
ں	-8.13435
▁?	-8.13562
e	-8.1401
▁شھر	-8.1438
ز	-8.14669
▁بابت	-8.14927
▁زندء	-8.15003
▁ایل	-8.15061
▁برتگ	-8.15662
▁کتگ۔	-8.15668
▁جت	-8.15728
▁چیر	-8.16274
▁بیان	-8.1642
▁اسر	-8.16918
▁کیچ	-8.17597
▁شاہ	-8.17629
▁پیسر	-8.17859
▁جن	-8.17889
▁واستا	-8.18161
▁نزیک	-8.18552
▁کت۔	-8.1871
▁کپ	-8.19296
▁الم	-8.19306
▁کرتگ۔	-8.19376
▁راست	-8.19425
▁انسانی	-8.19489
▁بیگ	-8.1966
▁ایک	-8.20607
▁دراھیں	-8.20837
▁ترس	-8.20855
▁پوسٹ	-8.21048
▁گر	-8.21253
▁زندگ	-8.21831
▁بیا	-8.22156
س	-8.22925
▁سید	-8.2297
▁جھد	-8.23934
▁بکن	-8.23957
▁وہد	-8.24042
▁پجار	-8.24177
▁چون	-8.24279
▁کارمرز	-8.24412
▁!	-8.24674
▁جنین	-8.24748
▁میتگ	-8.24764
▁بیست	-8.25061
▁لیکہ	-8.2508
▁by	-8.25164
▁سنگت	-8.2528
ش	-8.25691
▁ودی	-8.25783
▁گشگ	-8.25925
▁یات	-8.26278
▁روگ	-8.26527
▁زندگی	-8.26566
▁چریشی	-8.26935
۔۔۔	-8.27036
▁گپت	-8.27094
▁ڈی	-8.27156
▁اتاں	-8.27183
▁پیم	-8.2728
▁ھاتر	-8.27773
▁اود	-8.27781
▁کپت	-8.27948
▁ٹی	-8.28147
▁زورانسری	-8.28179
▁کیت	-8.28271
▁برز	-8.28384
▁درد	-8.28564
▁نشتگ	-8.28688
▁مہر	-8.28704
▁شہ	-8.28939
▁is	-8.29087
▁راستی	-8.29882
▁گوادر	-8.2993
▁بندیں	-8.29942
▁اہانی	-8.30198
▁جہد	-8.30384
▁اشی	-8.30774
▁be	-8.31088
▁چارگ	-8.31105
▁واری	-8.31535
▁ایم	-8.31729
▁دوئیں	-8.3193
▁ار	-8.32295
▁دیست	-8.32445
▁تیرگواری	-8.3248
d	-8.32563
▁کسانیں	-8.32913
▁￶	-8.33117
▁برات	-8.33196
▁نشانگ	-8.33311
▁نی	-8.3348
▁وڑا	-8.33862
▁ادم	-8.3416
▁ھالانی	-8.34529
▁پدر	-8.34632
▁وئیل	-8.3481
▁درگت	-8.34812
▁تربت	-8.34961
▁چوش	-8.35194
▁تب	-8.35236
▁زمانگ	-8.35601
▁مستریں	-8.35844
“	-8.3594
▁سد	-8.35988
▁تاوان	-8.36134
▁شاعر	-8.36866
▁وھدیکہ	-8.37063
▁شریں	-8.37221
▁داد	-8.37589
▁برگ	-8.37768
▁په	-8.37998
▁گرگ	-8.38323
▁ھند	-8.38634
▁’	-8.39009
▁کساس	-8.39174
▁کوہ	-8.39491
’	-8.39912
▁منء	-8.40193
▁اد	-8.40682
▁جوانیں	-8.40802
▁ہیں	-8.4082
▁جی	-8.40828
▁بیتگ۔	-8.41024
▁ساری	-8.41384
▁سرکار	-8.41705
▁سما	-8.41757
▁شعر	-8.41846
▁تک	-8.42208
▁علی	-8.42309
▁ے	-8.42374
▁زمہ	-8.42437
▁ارگ	-8.42635
▁ورنا	-8.4286
▁داریت	-8.43081
▁وزیر	-8.43367
▁زان	-8.43498
▁پل	-8.43714
▁ہے۔	-8.4381
▁روان	-8.44221
▁جنت	-8.4436
▁ملکی	-8.44397
▁کئے	-8.4485
▁جو	-8.44894
▁بلکنا	-8.44956
▁گپتگ	-8.45045
▁وہدے	-8.45107
▁اسلام	-8.45314
▁چاپ	-8.45472
▁کنوکیں	-8.45715
▁داشت	-8.45934
▁؂	-8.46061
▁بازار	-8.46277
▁کاری	-8.46328
▁دیر	-8.46354
▁شتگ	-8.46449
▁نبشتانک	-8.465
نہ	-8.46738
▁هم	-8.46886
▁لچہ	-8.47171
▁یہ	-8.47319
▁کنگء	-8.47412
▁پول	-8.47526
▁نیم	-8.4758
▁یلہ	-8.47777
▁بد	-8.48058
▁بنی	-8.4808
▁زرتگ	-8.48228
▁کل	-8.48236
▁جنک	-8.48464
▁چشیں	-8.48473
▁گران	-8.4855
▁سیادی	-8.48949
▁کارے	-8.49009
▁تا	-8.49149
▁دلگوش	-8.49338
▁زاناں	-8.4936
▁نوک	-8.49542
▁ورگ	-8.49664
▁سردار	-8.4967
▁چاگردی	-8.49728
▁رو	-8.50561
▁ھبر	-8.50721
▁کتگیں	-8.50912
▁اھانی	-8.51004
▁ناں	-8.51011
▁بھی	-8.51359
▁ایس	-8.51415
▁گڈی	-8.5163
▁شش	-8.51889
▁سرمچاراں	-8.51973
▁دلء	-8.52178
▁روچے	-8.52413
چہ	-8.52521
▁تھا	-8.52533
▁جاگہ	-8.52581
▁ایت۔	-8.52813
▁کاروان	-8.53076
▁ٹپی	-8.53268
▁جیڑہ	-8.53559
▁لس	-8.53691
▁رس	-8.54022
▁دگ	-8.54097
▁ھمک	-8.5421
یا	-8.54272
▁بوھگ	-8.54301
▁ھلاپ	-8.54445
▁اردو	-8.54445
▁وار	-8.54523
▁کور	-8.54523
▁کھول	-8.54597
▁کرتگیں	-8.54657
▁شیر	-8.54785
▁گس	-8.55156
▁گمان	-8.55424
▁ھمیش	-8.55443
د	-8.55617
یک	-8.55719
▁بچار	-8.55845
▁from	-8.5597
▁وہ	-8.56046
▁نیمگا	-8.56138
▁لبز	-8.56183
▁بو	-8.56449
▁ایران	-8.56596
▁گال	-8.56705
▁زہرشانی	-8.56791
▁ازم	-8.56909
▁سروک	-8.56997
▁کرد	-8.57232
▁پس	-8.57436
▁مارشت	-8.57467
ب	-8.57695
▁راجدپتر	-8.57759
▁ت	-8.57762
▁ایرانی	-8.57996
▁ھاترا	-8.58083
▁درا	-8.58531
▁گش	-8.58636
▁مھلوک	-8.58796
▁گند	-8.59137
▁اماچ	-8.59153
▁کٹ	-8.59259
▁اہاں	-8.59272
▁چماں	-8.59316
▁دیمء	-8.59623
ار	-8.60053
▁دہ	-8.60497
▁دژمن	-8.60716
▁تاک	-8.60919
▁گورا	-8.60992
▁لہتیں	-8.61056
▁ال	-8.61161
▁کنیں	-8.61166
▁دیستگ	-8.612
▁باریں	-8.61209
وتی	-8.61318
▁لوٹیت	-8.61398
▁بوان	-8.61432
▁ردء	-8.61755
▁ھلاس	-8.61792
▁his	-8.61883
▁بار	-8.62185
بلے	-8.62476
▁بنجاھی	-8.6276
▁احمد	-8.62771
▁گوات	-8.6284
▁ڈن	-8.63036
نا	-8.63525
▁at	-8.63681
▁جاور	-8.64525
▁پسو	-8.64539
▁دئیگ	-8.64584
▁دزگیر	-8.6461
▁درست	-8.64732
▁کوش	-8.65165
▁مال	-8.65317
▁پنجگور	-8.65523
▁م	-8.65747
▁لٹ	-8.65798
▁نیام	-8.65963
▁لگ	-8.66431
▁ہوار	-8.66852
تو	-8.67049
▁الله	-8.67213
▁رسول	-8.67295
......	-8.67471
▁بیگواھیں	-8.67533
▁زوت	-8.67605
▁جون	-8.6763
یء	-8.67678
▁شہر	-8.67905
▁زدگ	-8.67924
انء	-8.67989
غ	-8.68157
▁کلات	-8.68241
ما	-8.6833
▁کشتگ	-8.68772
▁لبزانکی	-8.69028
▁کمیٹی	-8.69141
▁بگیری	-8.69519
▁ایشیء	-8.6975
▁ایشاں	-8.69808
▁واستہ	-8.70065
سر	-8.70217
al	-8.704
er	-8.70654
▁بال	-8.70996
▁باں	-8.71369
پہ	-8.71405
نی	-8.71525
سگ	-8.71972
▁جہل	-8.72284
▁وھدی	-8.72435
▁علم	-8.72518
▁مہلوک	-8.72554
▁ساہ	-8.72715
▁ک	-8.72794
▁لبریش	-8.72823
▁کوئٹہ	-8.73106
▁بخش	-8.73402
;	-8.73496
▁بندی	-8.73552
▁وتا	-8.73594
▁عمل	-8.73951
..	-8.73966
▁یکیں	-8.74096
t	-8.74167
▁نودربر	-8.74306
▁عمر	-8.75071
▁ریاست	-8.75118
▁چوں	-8.75195
▁توک	-8.75276
▁گپے	-8.7532
▁بلوچانی	-8.75451
▁ٹک	-8.7562
▁were	-8.75755
ےء	-8.75894
▁کچ	-8.75904
▁بچ	-8.76444
▁بنجل	-8.76522
▁ایدگہ	-8.77085
▁بکنت	-8.77136
ال	-8.77262
▁کشی	-8.77411
▁بات	-8.77425
▁ہو	-8.77527
▁زالبول	-8.77532
▁پیداک	-8.77669
▁گیر	-8.77717
▁روچاں	-8.78095
منی	-8.78218
▁نہیں	-8.78351
▁حکومت	-8.78367
▁لاش	-8.78519
▁داشتگ	-8.78706
▁زوراکی	-8.79148
▁رنگیں	-8.7926
▁المی	-8.79261
▁تاکدیم	-8.79268
▁زرت	-8.79322
▁تچک	-8.79502
▁شھید	-8.79649
▁نه	-8.79704
▁it	-8.80002
▁ساحر	-8.80193
▁پمیشا	-8.80231
▁بل	-8.80268
▁جار	-8.80346
▁دمگاں	-8.8038
▁‘	-8.80493
▁رسانکدر	-8.80639
▁سیاہ	-8.80674
▁تیر	-8.8079
▁دے	-8.80853
▁قوم	-8.80909
▁نند	-8.80931
▁وتء	-8.81155
▁پیر	-8.81335
▁ایف	-8.81568
▁ناشناسیں	-8.82096
▁استاد	-8.82186
▁مھر	-8.82341
▁دمگی	-8.82747
▁گچین	-8.82778
▁سیاست	-8.82822
کی	-8.82889
▁سرکاری	-8.82911
ری	-8.83008
▁اھاں	-8.83304
▁روت	-8.83423
▁ازات	-8.83532
▁وشی	-8.83727
▁سئے	-8.84228
▁روکپتی	-8.84897
▁پمیشکا	-8.84914
▁کنگی	-8.84934
▁کاراں	-8.85
▁سنگ	-8.85011
▁باسک	-8.8502
▁ھدا	-8.85064
▁درستیں	-8.85217
▁کہول	-8.85286
▁چپ	-8.85417
▁ھزار	-8.8549
▁چمانی	-8.85585
▁اودا	-8.85594
▁کئیت	-8.85783
▁کارانی	-8.85824
▁انی	-8.85858
تگ	-8.86084
▁صاحب	-8.86148
▁بستگ	-8.86161
▁اشانی	-8.86271
▁مار	-8.86776
▁ئی	-8.86815
▁ڈول	-8.86819
▁""	-8.86845
▁سفر	-8.86959
▁مکران	-8.87044
▁چل	-8.87169
وک	-8.87355
▁وسلم	-8.87373
▁چش	-8.87428
▁ر	-8.87434
▁چیا	-8.87579
کار	-8.87584
▁گدار	-8.8769
▁In	-8.87758
▁نیمگء	-8.87777
بہ	-8.87885
▁دانکہ	-8.88
▁درائیں	-8.88006
▁دنیاء	-8.8805
▁کیا	-8.88099
▁پیلو	-8.88165
▁سرپدی	-8.88167
بلوچی	-8.88303
▁پروش	-8.88385
▁شری	-8.88442
es	-8.88543
ٹ	-8.88639
▁د	-8.88845
▁بزانت	-8.89064
گی	-8.89081
▁پریس	-8.89102
▁درور	-8.89141
▁شمئے	-8.89147
▁فلسفہ	-8.8928
▁زورگ	-8.89332
▁زھگ	-8.89632
▁تاریخ	-8.89638
▁حق	-8.89745
▁امیت	-8.89902
▁ہست	-8.90351
▁ہند	-8.90424
▁اکیڈمی	-8.90539
▁شائری	-8.90595
▁دود	-8.90807
▁ئے۔	-8.90982
زورگریں	-8.91035
▁واتر	-8.91043
....	-8.91108
▁he	-8.91147
▁بنا	-8.91179
▁تہنا	-8.91421
▁دوستی	-8.91611
▁دم	-8.91713
▁an	-8.91719
گوں	-8.9179
▁شوھاز	-8.91934
n	-8.92143
▁وارت	-8.92146
▁ھور	-8.9216
▁مچ	-8.92189
▁مٹ	-8.9221
▁مند	-8.92272
▁چیریں	-8.92287
▁بانک	-8.92379
▁۔۔۔	-8.92423
▁اف	-8.92613
▁کنوک	-8.92803
ێں	-8.92824
▁س	-8.92968
▁کسی	-8.93124
▁ھساب	-8.93216
▁گشیت	-8.93259
▁ایگ	-8.9329
▁حدا	-8.93406
▁کسان	-8.93468
▁واھگ	-8.93545
▁نشان	-8.93582
▁ہی	-8.93743
پ	-8.93837
▁گیشیں	-8.93842
▁وشیں	-8.93905
▁ادء	-8.9399
▁نسبت	-8.94118
▁دین	-8.94227
▁گم	-8.94323
▁کننت	-8.94376
▁اتنت۔	-8.94517
▁بگر	-8.94757
▁گوازی	-8.9498
ڈ	-8.95122
▁ارمی	-8.95362
▁پگر	-8.95369
▁نبشتگ	-8.95441
▁برت	-8.95518
▁به	-8.95552
▁بیڑ	-8.95563
▁لاپ	-8.95566
▁سپر	-8.9572
▁معنا	-8.95774
تہ	-8.96308
▁مچی	-8.96375
▁تانکہ	-8.9662
ھ	-8.96751
▁ارزشت	-8.96939
▁بوئگ	-8.97202
▁جنان	-8.97292
▁کشت	-8.97351
▁مری	-8.97391
▁حساب	-8.97428
▁گوست	-8.97974
▁بندوک	-8.98375
▁استمانی	-8.98424
▁ٹولی	-8.98866
▁کنئگ	-8.99067
▁ادارہ	-8.993
▁مانا	-8.99569
th	-9.00288
▁ہمیش	-9.00337
▁چونیں	-9.00453
▁had	-9.00461
▁دیمروئی	-9.00982
▁چوشیں	-9.01097
ج	-9.01338
▁ہمک	-9.01399
▁قصہ	-9.01517
ون	-9.01546
▁ہ	-9.01549
▁پکر	-9.01598
▁ادب	-9.01638
▁بنیاد	-9.01648
▁سیمی	-9.01787
▁گٹ	-9.01865
▁ازمان	-9.01917
▁نان	-9.02021
▁برجم	-9.02062
▁حبر	-9.02112
▁مرتگ	-9.02164
▁;	-9.02728
▁هما	-9.02739
▁باروا	-9.02936
▁انچش	-9.03008
▁نشت	-9.03174
▁درستاں	-9.03292
▁کنگا	-9.03368
▁اھت	-9.03687
▁which	-9.03741
▁کارمند	-9.03776
▁ھشت	-9.03866
▁بگٹی	-9.03924
بے	-9.04082
▁نندانک	-9.04083
▁چاران	-9.04154
▁دیان	-9.04171
▁پارٹی	-9.04257
▁کماش	-9.04274
دار	-9.04426
▁فاضل	-9.04592
▁ردا	-9.0477
▁دستونک	-9.05298
▁بمب	-9.05374
را	-9.05542
▁ی	-9.0555
▁دز	-9.05687
▁روک	-9.05711
▁ناز	-9.05782
▁تراک	-9.06083
▁گپاں	-9.0619
▁میار	-9.06298
▁سنگتاں	-9.06587
نت۔	-9.06665
▁باور	-9.06691
▁هر	-9.06773
▁فارسی	-9.06899
▁دنت۔	-9.06992
ئی	-9.07121
▁دمان	-9.07143
▁دراج	-9.07146
ێن	-9.07348
▁ساڑی	-9.07508
▁دری	-9.07643
▁غلام	-9.0776
▁قاضی	-9.07819
▁نظام	-9.07913
▁رستگ	-9.0812
▁حمل	-9.08217
می	-9.08359
▁ایں۔	-9.08372
▁یکجاہ	-9.08422
▁بیگواہیں	-9.08478
▁نامیں	-9.08688
▁منت	-9.08703
▁جنی	-9.08747
ف	-9.08805
▁ہیں۔	-9.08823
▁A	-9.08864
▁بادشاہ	-9.09083
▁پیدا	-9.09215
▁حسین	-9.09226
▁میجر	-9.09256
تی	-9.09263
وکیں	-9.09315
▁دروازگ	-9.09519
▁مکن	-9.09584
بی	-9.09696
▁صل	-9.09844
▁سیر	-9.09881
▁بوتیں	-9.09988
▁ب	-9.10572
▁نندوک	-9.10631
▁کرا	-9.10679
▁وسیلہ	-9.10867
▁شک	-9.10898
▁همے	-9.1093
▁جھمنند	-9.10952
▁شرگداری	-9.11271
▁بئے	-9.11273
ئیں	-9.1136
▁کپیت	-9.12174
▁رنگے	-9.12186
▁لھتے	-9.12472
▁اودء	-9.12518
▁دراہ	-9.12649
▁ساز	-9.12723
▁سلامتی	-9.12819
▁حسن	-9.1285
▁کارء	-9.12901
▁نو	-9.12922
▁ایان	-9.12942
▁کمے	-9.12951
▁نادراہ	-9.13002
▁اڈ	-9.13037
▁ھو	-9.13058
▁نور	-9.13062
تر	-9.13204
▁با	-9.13311
▁باید	-9.13377
▁چینل	-9.13421
▁تاب	-9.13459
▁عليه	-9.13568
▁سوار	-9.13748
▁بستار	-9.13798
▁وانوک	-9.1398
▁یار	-9.14107
▁اکس	-9.14204
▁گام	-9.1447
▁جندء	-9.14472
▁دات۔	-9.14808
st	-9.14917
▁برو	-9.15422
نے	-9.15492
▁جنگی	-9.15529
▁داری	-9.15642
▁وڑے	-9.15797
▁ہزار	-9.15881
▁منزل	-9.15898
▁گپء	-9.15986
▁شئیر	-9.16108
▁تیاب	-9.16125
▁جاھے	-9.16223
ع	-9.16357
▁ناکو	-9.16374
▁ھمراہ	-9.16375
▁ازاتی	-9.16459
▁دراجیں	-9.16506
▁بکش	-9.16586
▁اجو	-9.16625
▁درچک	-9.16671
▁19	-9.16714
▁ودار	-9.16758
▁چاکر	-9.16865
▁اثر	-9.17173
▁بندگ	-9.17229
▁شاد	-9.1781
ور	-9.17883
▁دریا	-9.18007
▁پڑ	-9.18009
▁مں	-9.18076
▁موسم	-9.18568
▁عکس	-9.186
▁وتارا	-9.18665
▁بونگ	-9.18733
▁بست	-9.18796
▁بیرم	-9.19045
▁اب	-9.19104
یگ	-9.1943
▁رامین	-9.19516
...!	-9.19566
▁are	-9.19576
▁وس	-9.19602
▁ترندیں	-9.19637
▁ڈیھ	-9.19675
l	-9.19735
▁یونیورسٹی	-9.19768
دو	-9.19776
▁پاک	-9.19882
بلوچ	-9.20002
▁کارست	-9.20084
▁وھدء	-9.20115
▁درچ	-9.20127
▁ھپت	-9.20192
▁تریں	-9.20196
▁اندر	-9.20217
▁بیگاہ	-9.20293
▁نادراھی	-9.2035
▁نیکہ	-9.20386
▁داتگ۔	-9.204
تا	-9.20496
▁بندیگ	-9.20615
▁بنداتی	-9.20701
▁مول	-9.20922
▁انگریزی	-9.20982
ق	-9.21053
▁کوٹی	-9.21113
▁سکیں	-9.21118
▁جنز	-9.21255
▁امریکہ	-9.21315
▁سندھ	-9.21385
▁گوشیت	-9.21399
▁لوٹاں	-9.21441
▁منیر	-9.21477
▁جواب	-9.21551
▁چین	-9.21638
▁٭	-9.21706
▁پرچے	-9.21719
▁اسکول	-9.21789
خ	-9.2182
ھم	-9.21873
اس	-9.21878
▁مبارک	-9.21975
▁پیما	-9.22017
▁پسہ	-9.224
ح	-9.2247
▁لھتیں	-9.22807
▁کرت۔	-9.22915
▁زبانء	-9.23064
▁پوجی	-9.23164
▁مھمد	-9.23213
▁جہان	-9.23283
▁کتہ	-9.23359
▁شمبے	-9.23499
▁دیمروی	-9.23519
▁ڈگار	-9.2355
▁اپنے	-9.23557
▁بارو	-9.23844
▁ناول	-9.23856
▁اول	-9.24088
▁منگ	-9.24181
▁سوج	-9.24232
▁چٹ	-9.24368
▁جوان	-9.24389
▁مراگش	-9.24551
▁ریاستی	-9.24554
▁فکر	-9.246
▁اں۔	-9.24703
▁ندارگ	-9.24721
▁بنکی	-9.25002
▁بدن	-9.25232
▁ارس	-9.25421
▁فیصلہ	-9.25486
▁نمدی	-9.2549
▁پرس	-9.25688
▁تھنا	-9.25835
▁جاھاں	-9.25857
▁داتگیں	-9.25862
▁شائر	-9.25948
▁ویل	-9.26001
▁گامگیج	-9.26009
▁ایشرا	-9.26195
▁کچے	-9.26298
▁بنگپ	-9.26334
▁زرد	-9.26351
▁مالی	-9.26433
▁کریم	-9.26551
▁تکنیک	-9.266
▁اوشتاتگ	-9.26647
▁ای	-9.26723
▁ھون	-9.26742
گیں	-9.26893
▁خیال	-9.27003
▁گوشاں	-9.27369
۔۔۔۔	-9.27408
▁پاس	-9.27431
▁بدلی	-9.2744
▁اگر	-9.27644
کے	-9.27645
▁رھبند	-9.27647
پر	-9.27689
▁مردے	-9.27934
▁تیار	-9.28016
▁اکبر	-9.28067
▁راستیں	-9.2818
اپ	-9.28411
?‘‘	-9.28417
▁کاینت	-9.28477
▁داب	-9.28547
▁وان	-9.28673
▁پیمیں	-9.28753
وت	-9.28772
▁ئیگ	-9.2886
▁مئی	-9.289
▁گنگ	-9.28944
▁کاروبار	-9.29053
▁رنگء	-9.29075
▁نصیر	-9.29141
▁نیشنل	-9.29341
a	-9.29368
▁گیشتریں	-9.294
▁انچوش	-9.29461
بر	-9.29537
▁نماز	-9.29541
▁دستاں	-9.29664
▁دستء	-9.29787
▁خدا	-9.29912
لی	-9.29932
در	-9.29949
▁ماس	-9.29982
▁قومی	-9.3014
▁کلیں	-9.30194
یہ	-9.30247
▁بالی	-9.30258
▁البت	-9.3057
▁از	-9.30614
▁مر	-9.30725
▁زیر	-9.3098
▁کشک	-9.31003
▁میل	-9.3109
▁کلب	-9.31287
▁ستک	-9.31428
▁وجود	-9.31444
▁درشانی	-9.31446
▁بہا	-9.31515
▁صورت	-9.31672
▁زانتکار	-9.31686
▁ببیت	-9.32033
▁گشئے	-9.32077
▁اصل	-9.32147
سی	-9.3217
دی	-9.32529
▁شمارا	-9.32724
▁یاد	-9.32785
▁نبیسگ	-9.33013
▁سائنس	-9.33073
کا	-9.33095
▁کیس	-9.33142
▁دپتر	-9.33222
▁their	-9.33256
▁بابتء	-9.33406
▁ھک	-9.33488
اب	-9.33495
▁اڑ	-9.33506
▁نز	-9.33521
▁تالان	-9.33549
▁شہید	-9.33551
▁ھب	-9.3356
▁بوہگ	-9.33579
▁لہتے	-9.33669
▁but	-9.33808
▁عزت	-9.33848
▁......	-9.33936
▁دئے	-9.33991
▁غم	-9.34011
o	-9.34056
▁شاری	-9.34278
اد	-9.34311
▁not	-9.34352
▁مدت	-9.34489
▁ور	-9.34492
▁ارام	-9.34714
▁وائس	-9.34795
▁تل	-9.35049
▁گلام	-9.35069
▁مارچ	-9.35157
‘‘(	-9.35384
▁ازاد	-9.35589
▁بلوچستانء	-9.35635
ائیں	-9.35654
▁گوستگ	-9.35687
ھی	-9.35725
▁ھمراھی	-9.35852
▁درمان	-9.35858
▁کوھنیں	-9.35922
▁مستونگ	-9.36037
▁ارواہ	-9.36056
▁سہب	-9.36096
▁بگیر	-9.36129
▁تنے	-9.36191
▁پھر	-9.36325
▁لیب	-9.36344
▁مولانا	-9.36356
▁first	-9.36573
▁دروگ	-9.36579
▁تی	-9.36653
▁سیل	-9.36672
▁نیست۔	-9.3679
▁چیزانی	-9.36932
▁ایپ	-9.36935
رو	-9.37003
▁رسیت	-9.37078
▁S	-9.3708
انت۔	-9.37198
چ	-9.37237
▁سند	-9.37326
▁سھب	-9.37541
▁ھکانی	-9.37578
▁عطا	-9.37622
▁درشانے	-9.37684
▁ل	-9.37928
▁امیدگس	-9.37993
▁لوگء	-9.38106
▁کردار	-9.38134
▁پرچاکہ	-9.38185
▁جھان	-9.38202
▁رپورٹ	-9.38275
▁شور	-9.38314
▁سزا	-9.38489
▁کئی	-9.38545
▁روچء	-9.38601
▁مثال	-9.38657
▁باندا	-9.38716
دل	-9.38759
▁اشاں	-9.38792
▁نامداریں	-9.38951
▁بچک	-9.39051
▁پدء	-9.39236
ص	-9.39292
▁بامن	-9.39418
▁پتر	-9.39468
▁ہور	-9.39621
▁وی	-9.39748
▁باندات	-9.39846
▁امان	-9.40057
ies	-9.40135
کو	-9.40167
▁or	-9.40188
▁تمپ	-9.40381
▁نمبر	-9.40463
▁F	-9.40527
▁کارندہ	-9.40544
▁گو	-9.40617
▁چوکہ	-9.40643
▁نسل	-9.40675
▁چھاپ	-9.40712
▁عربی	-9.41125
▁ربیدگ	-9.412
▁ندر	-9.41231
▁شے	-9.41274
▁سرمایہ	-9.41457
▁رست	-9.41724
▁پیسلہ	-9.41782
یے	-9.41819
▁her	-9.41872
▁گرم	-9.41952
▁جس	-9.41957
▁ردوم	-9.42
▁ساچشت	-9.42304
▁بارت	-9.42379
▁ھرچ	-9.42402
▁جانی	-9.42486
▁...	-9.42757
▁کمیں	-9.42794
▁ماہی	-9.42862
▁جوانی	-9.42914
بلوچستان	-9.42918
▁تنی	-9.42965
▁چاریں	-9.42995
▁زہر	-9.4306
▁دورء	-9.43069
▁اھتگ	-9.43363
▁بوتاں	-9.43429
▁انکہ	-9.43449
▁ادبی	-9.43472
also	-9.43477
▁ونتگ	-9.43569
▁نواب	-9.43585
▁روزگار	-9.43628
▁اھوالانی	-9.43656
▁بوتنت	-9.43878
▁ترقی	-9.43948
▁زلم	-9.4403
▁انکس	-9.44206
▁فار	-9.4425
▁وہدء	-9.44274
▁تها	-9.44318
▁دشت	-9.44351
▁I	-9.44388
جی	-9.44487
▁مالیات	-9.44506
بند	-9.44577
▁ائے	-9.44631
▁its	-9.44758
▁ہلاس	-9.44965
▁جا	-9.45103
▁ذات	-9.45135
ے۔	-9.45528
واجہ	-9.45553
▁زہگ	-9.45741
▁وارتگ	-9.45916
▁گڈ	-9.46031
▁زانتگ	-9.46052
▁نھ	-9.46112
▁ارا	-9.4629
▁سگ	-9.46292
▁شکار	-9.46369
▁دراہیں	-9.4638
▁بیار	-9.46407
▁تن	-9.46427
▁کپگ	-9.46452
ڑ	-9.46629
▁ساھت	-9.46717
▁نزور	-9.4682
▁دیمتر	-9.46897
▁بت	-9.46914
in	-9.46937
▁گد	-9.46985
▁سازی	-9.47009
▁امر	-9.47048
▁نظر	-9.47068
▁بنگیج	-9.47127
▁کمو	-9.47129
▁بیگواہی	-9.47142
▁ش	-9.47177
چو	-9.4723
▁زال	-9.47295
▁رب	-9.47342
▁مست	-9.47392
ول	-9.47409
▁اپنی	-9.47565
وا	-9.47591
▁پرچہ	-9.47593
▁کلدار	-9.47638
▁گراں	-9.47844
▁تامر	-9.48005
▁نامی	-9.4801
▁رھشون	-9.48025
▁گیس	-9.48201
▁مشکل	-9.48237
▁جاورانی	-9.48328
▁تنگ	-9.48364
▁گیشی	-9.48448
▁He	-9.48492
ام	-9.48961
▁ماما	-9.49065
▁جنجال	-9.49094
▁ہمراہ	-9.4916
▁دان	-9.49195
▁چراگ	-9.49249
▁سالی	-9.49257
▁جاوراں	-9.49321
▁سور	-9.4951
▁وھداں	-9.49543
▁بولان	-9.49945
▁اواران	-9.5012
▁جم	-9.5048
▁بالاد	-9.50497
۔۔	-9.50845
▁جیڑ	-9.50874
▁کمی	-9.50888
▁سلام	-9.50914
بیت	-9.50915
▁ارمان	-9.51034
▁have	-9.51097
▁زندمان	-9.51207
▁رواں	-9.5134
▁چیزاں	-9.51461
▁رسانک	-9.51562
▁لا	-9.51577
▁عرب	-9.51681
▁زبانانی	-9.51743
r	-9.51772
▁شعری	-9.51832
▁طرح	-9.51839
▁مسنگ	-9.51973
▁لیکن	-9.52007
▁لک	-9.52008
▁کچک	-9.52077
▁one	-9.52082
▁جوڈ	-9.52164
▁واک	-9.52338
▁نودربرانی	-9.52404
ند	-9.5257
▁زی	-9.52634
▁دیاں	-9.52697
▁پ	-9.52736
▁رواج	-9.52742
تئی	-9.52783
▁زاھدان	-9.52804
▁بزان	-9.52823
▁ورنایے	-9.52914
▁اسراتی	-9.52929
▁مڈی	-9.52966
شت	-9.53106
▁یکشل	-9.5329
▁اھوالکار	-9.53337
▁بہرے	-9.53454
▁رندا	-9.53498
گء	-9.53508
کن	-9.53582
ھر	-9.53606
▁بنشون	-9.53656
▁ترند	-9.53658
▁اگں	-9.53661
▁زھر	-9.53694
▁اگست	-9.53737
یاں	-9.53795
▁has	-9.53942
▁چنچو	-9.54248
▁ترک	-9.54429
▁جیڑگ	-9.54607
▁ساھگ	-9.54619
▁تلگرام	-9.54742
▁نویس	-9.54802
انہ	-9.54904
ھمے	-9.54942
▁1	-9.55181
▁ایندگہ	-9.55199
▁نئے	-9.55201
▁روانک	-9.55233
▁پری	-9.55413
▁ارشانی	-9.55417
▁مزار	-9.55478
ھو	-9.55504
▁منوک	-9.55546
▁سبز	-9.55603
▁پرائی	-9.5561
کر	-9.55678
▁ڈیرہ	-9.55679
▁مرید	-9.55698
▁پمشکا	-9.55898
▁گرد	-9.5598
▁۔اے	-9.5599
▁چوکی	-9.55991
▁باروء	-9.56053
▁شان	-9.56089
▁ھرکس	-9.56464
▁لال	-9.56508
▁عشق	-9.56596
▁سا	-9.56638
ہم	-9.56725
▁تباہ	-9.56772
▁عبداللہ	-9.5681
▁جنگل	-9.56865
▁نصیب	-9.56912
▁جنرل	-9.56939
▁been	-9.56993
▁سامان	-9.57116
▁گنوک	-9.57185
▁لاچار	-9.57188
▁گپانی	-9.57351
▁چکاس	-9.57464
▁two	-9.57467
کس	-9.57492
▁سرجمی	-9.57496
▁مہمان	-9.57505
▁کنڈ	-9.57524
▁مستر	-9.57535
▁چنت	-9.57599
▁سہ	-9.57636
▁پاھو	-9.57783
▁دعا	-9.57868
▁مجید	-9.5787
▁برزی	-9.57902
▁ھواریں	-9.57989
▁گنداں	-9.58063
▁هچ	-9.58141
▁داستان	-9.58163
ٹی	-9.58186
▁who	-9.58267
▁دکان	-9.58278
▁وطن	-9.58388
▁مل	-9.58406
▁زوریں	-9.58467
کنگ	-9.58564
یناں	-9.58674
▁اوتی	-9.58842
▁عقل	-9.58872
▁خبر	-9.58888
▁بلکہ	-9.59054
▁کنئے	-9.59062
▁گشنت	-9.59312
مہ	-9.59333
گا	-9.59442
▁گری	-9.59468
▁مرک	-9.59501
▁ج	-9.59526
▁بان	-9.59556
تے	-9.59577
▁مک	-9.59611
▁لئے	-9.59627
ینگ	-9.59668
▁درسیں	-9.59686
▁اسے	-9.59738
▁دوشی	-9.59789
▁اخر	-9.59831
▁تہر	-9.59875
▁شکر	-9.59966
▁بک	-9.60017
مان	-9.60057
▁جھانی	-9.60116
▁کمال	-9.60222
اگاں	-9.60426
▁کاگد	-9.60467
▁کسانی	-9.60512
▁گورء	-9.60533
▁ابادی	-9.60549
▁پمن	-9.60558
▁ز	-9.60613
تگیں	-9.60667
▁چنڈ	-9.60672
▁گوزگ	-9.60679
▁شد	-9.60855
اناں	-9.60935
▁پسند	-9.61001
▁رندء	-9.61154
▁وڑء	-9.61173
▁چیدگ	-9.613
▁گناہ	-9.61305
▁دگه	-9.61314
▁گوھرام	-9.61321
▁منند	-9.61409
▁وا	-9.61525
▁اپریشن	-9.61635
▁سکین	-9.61653
▁ٹکر	-9.61672
ت۔	-9.61724
▁چاگردء	-9.61926
▁پرسنز	-9.61956
▁پریشان	-9.6199
گر	-9.62025
i	-9.62056
▁نپ	-9.62098
▁ٹپ	-9.62154
▁دزبندی	-9.62216
▁ربیت	-9.62238
▁رہبند	-9.6229
▁نشہ	-9.62291
▁بالاچ	-9.62321
▁بور	-9.62372
▁ایمان	-9.6245
▁this	-9.62531
▁دیمی	-9.6259
▁بشیر	-9.62596
▁مینگل	-9.62641
▁بھا	-9.62681
▁شرتر	-9.62684
▁چوشکہ	-9.62701
▁رندے	-9.62845
▁شراب	-9.62846
وس	-9.62902
▁نود	-9.62958
▁نندگ	-9.63138
▁منصوبہ	-9.63194
▁جل	-9.6323
▁پنجاہ	-9.63243
▁بارہ	-9.63247
گل	-9.63293
▁امیر	-9.6344
▁کالج	-9.63451
▁شام	-9.63482
▁لڑ	-9.63582
▁روس	-9.63654
▁بود	-9.63681
▁سیت	-9.63717
se	-9.63756
▁سالاں	-9.63765
▁چاہ	-9.63829
▁کوئی	-9.63951
▁روڈ	-9.64054
▁حد	-9.64068
▁چگل	-9.64082
▁چرے	-9.64103
▁بئیت	-9.64133
▁2	-9.64134
▁دشتی	-9.64171
▁رژن	-9.6432
▁پوہ	-9.64328
۔اے	-9.64416
▁شرپ	-9.64447
او	-9.64524
▁سرمچار	-9.64562
▁بزگ	-9.64632
▁نیاد	-9.64736
▁کج	-9.64802
▁لڈ	-9.64861
▁بڈ	-9.64901
▁صدر	-9.65015
▁چیء	-9.65042
▁ھنچش	-9.65053
▁والا	-9.65129
▁بوگء	-9.65235
▁مہمد	-9.65241
▁تھی	-9.65301
ماں	-9.6531
▁حاصل	-9.65395
▁ھاشمی	-9.65432
▁جام	-9.656
▁زرمبشت	-9.65701
▁دوھزار	-9.65706
▁تیز	-9.65749
▁ہوا	-9.65866
▁شکل	-9.65917
▁ذمہ	-9.65934
▁کمشنر	-9.65965
▁ایمنی	-9.65974
▁بلوچاں	-9.66029
▁دؤر	-9.66053
▁دیوال	-9.66076
یانی	-9.66076
ھا	-9.66114
▁ساتھ	-9.66399
▁نومبر	-9.66454
..!	-9.66466
▁ف	-9.66512
▁کارمنداں	-9.66676
اش	-9.66707
▁ماڑی	-9.66794
▁بتل	-9.66847
▁تیل	-9.67027
▁اوشتوک	-9.6703
▁رحیم	-9.67032
▁موجود	-9.6714
▁year	-9.67219
▁نیمگے	-9.67312
▁سوت	-9.67326
▁B	-9.67426
▁ؤ	-9.67513
باز	-9.67588
▁امام	-9.67623
اری	-9.67823
جاہ	-9.67907
ic	-9.67934
▁کتابے	-9.68153
▁ہال	-9.68198
▁غیر	-9.68207
▁گیدی	-9.6826
▁سندھی	-9.68268
▁سنگتانی	-9.68463
دہ	-9.68495
▁بید	-9.68537
▁اشوب	-9.6854
▁ھلک	-9.68676
▁انگور	-9.68736
▁گرانیں	-9.68811
▁نگ	-9.68853
▁شوہاز	-9.68884
▁شون	-9.68968
▁اوشتات	-9.69
▁دوا	-9.69064
▁تیوگیں	-9.69138
▁جنگء	-9.69159
▁کرونا	-9.69225
▁قران	-9.69237
ہر	-9.69279
▁سہر	-9.69345
▁جھل	-9.69465
▁تاج	-9.69473
▁اھوال	-9.69551
▁کاروائی	-9.69567
▁پاداں	-9.69603
▁لبزانی	-9.69637
▁رنج	-9.69676
▁سول	-9.69678
کاری	-9.69784
▁کوکار	-9.69818
▁قدیر	-9.69858
on	-9.69983
▁پمیشکہ	-9.70052
▁نوشکی	-9.70171
▁گوناپ	-9.70235
▁اجازت	-9.70265
▁گول	-9.7028
ائیء	-9.70282
▁نامء	-9.70349
ي	-9.70356
چی	-9.70373
▁اوانی	-9.70449
▁براں	-9.70485
▁کنائینگ	-9.70651
بل	-9.70665
ion	-9.70667
▁کوہنیں	-9.70711
▁کھ	-9.70772
▁اواز	-9.7085
▁قلات	-9.70865
▁معاشی	-9.70885
▁کتابانی	-9.70965
▁رکینگ	-9.70974
▁مارگ	-9.70982
کت	-9.71034
▁ھزدار	-9.71039
▁درائینت	-9.71259
▁امید	-9.7132
▁دسمبر	-9.71322
▁سری	-9.71448
کل	-9.71536
▁جب	-9.71542
▁ترانگ	-9.71616
le	-9.71669
▁واہگ	-9.71681
▁ازمی	-9.71714
▁زبانے	-9.71724
▁گوازینگ	-9.71757
▁توکا	-9.7181
▁فوج	-9.71835
▁یاکہ	-9.71951
▁دیمپان	-9.71983
▁ڈک	-9.72076
وار	-9.72172
▁مدامی	-9.72208
▁ڈنی	-9.72218
▁مذہب	-9.72229
وی	-9.72257
▁پسنی	-9.72324
▁دروت	-9.72506
▁تام	-9.72703
▁طاقت	-9.72721
▁ونت	-9.72877
▁سلیم	-9.72877
▁پیمء	-9.72961
▁شمے	-9.72996
▁ممکن	-9.72997
▁جنوری	-9.7309
یر	-9.73519
چے	-9.73534
لو	-9.73555
▁ھنکین	-9.73608
▁براس	-9.7387
▁اگن	-9.74054
▁دزگیری	-9.74078
▁سنگر	-9.74082
▁کنوکاں	-9.7415
▁بگ	-9.74186
▁گیری	-9.7425
▁مزنین	-9.74304
دیم	-9.74355
▁انوں	-9.74356
▁لیویز	-9.74458
▁اوست	-9.74565
▁فرنٹ	-9.74696
▁زیارت	-9.74781
▁18	-9.74786
▁انگریز	-9.74828
▁ورنائیں	-9.74934
▁اوگانستان	-9.74978
▁شریف	-9.75038
▁نشتگیں	-9.75259
▁واقعہ	-9.75298
ڪ	-9.75399
▁کنٹرول	-9.75474
▁بیم	-9.75566
یت۔	-9.75674
ہمے	-9.75713
▁@,@	-9.75775
▁ماسٹر	-9.75807
▁تئو	-9.75861
▁برکت	-9.75882
▁لکھ	-9.75884
دان	-9.75915
▁after	-9.75918
ers	-9.75996
▁بیگواھی	-9.76179
▁ادگہ	-9.76329
▁ایچ	-9.76332
▁روچی	-9.7648
▁حکم	-9.76525
▁کرار	-9.76537
▁اینچو	-9.76571
▁می	-9.76583
ط	-9.76627
▁گوشان	-9.7667
▁رگ	-9.76772
▁نودربراں	-9.76798
▁اورتگ	-9.7681
▁نشانی	-9.76885
▁زبانا	-9.77022
▁گلزمین	-9.77052
▁عہد	-9.77083
▁عمران	-9.77119
▁دروگیں	-9.77269
میر	-9.77277
▁زیبائی	-9.77352
▁ازمانکانی	-9.77358
▁یکجھتی	-9.7749
▁لوز	-9.7755
▁الس	-9.77641
▁ترندی	-9.77783
▁متلب	-9.77852
▁اسپ	-9.77896
▁ھیل	-9.77908
▁بنجاہی	-9.78024
▁نیک	-9.78135
▁واجه	-9.78218
گڑا	-9.78221
▁تپاک	-9.7824
▁اکتوبر	-9.78271
▁دیمپانی	-9.7828
سٹ	-9.78319
▁ادارھانی	-9.78403
▁نرم	-9.78435
▁حقیقت	-9.78446
▁کد	-9.78495
▁بہت	-9.78623
▁دشمن	-9.78678
▁ماتی	-9.78836
▁میڈیا	-9.78886
▁کپتگیں	-9.78919
▁شپء	-9.79083
▁داریں	-9.79108
▁پمشکہ	-9.79188
▁وائی	-9.79247
▁گچکی	-9.79357
▁سرڈگار	-9.79381
▁اشیء	-9.79403
▁گدان	-9.79451
▁بز	-9.79474
▁حاجی	-9.79504
▁اسلم	-9.79516
▁بانگ	-9.7984
▁یو	-9.79882
▁کول	-9.79958
▁دشتیاری	-9.80154
▁جنیں	-9.8024
▁ھاسیں	-9.80253
▁هست	-9.80262
▁دامن	-9.80288
ھے	-9.80359
▁کرنے	-9.80419
h	-9.80444
▁اگہ	-9.80454
▁نزوری	-9.80489
▁سروکی	-9.80631
▁It	-9.8074
▁رسم	-9.80864
ینتگ	-9.81062
ائے	-9.81079
▁صد	-9.81088
▁بعد	-9.811
▁ڈولیں	-9.81246
▁m	-9.81299
▁بیر	-9.81381
▁چکانی	-9.8146
▁جز	-9.81467
▁re	-9.8152
▁انت۔۔۔	-9.81633
یں۔	-9.81648
▁انگر	-9.8167
▁('	-9.81702
مئے	-9.81786
▁سوچ	-9.81867
▁زوراکیانی	-9.81901
▁شعرء	-9.81948
▁چر	-9.81956
ھما	-9.8209
▁جتاجتائیں	-9.82137
▁ہوئے	-9.82258
▁مز	-9.82318
▁راجے	-9.82352
▁کند	-9.82372
▁کارمرد	-9.82419
▁C	-9.82444
▁اوپار	-9.82638
▁زندان	-9.82669
▁عالم	-9.82721
▁ردی	-9.82739
▁سو	-9.82773
▁time	-9.82795
زی	-9.82799
▁مسیت	-9.82802
▁ھوش	-9.82863
▁کمپنی	-9.82891
▁over	-9.82928
▁لگت	-9.83123
▁بج	-9.83126
▁چکاں	-9.83166
▁بنداں	-9.83296
نوں	-9.83334
اک	-9.83368
▁استان	-9.83399
▁other	-9.83431
▁ادار	-9.8344
▁ٹیم	-9.83575
▁کشار	-9.83604
▁ریل	-9.83656
وش	-9.83661
▁سان	-9.83671
▁حضرت	-9.83749
▁چنکس	-9.8383
▁سبک	-9.83841
داں	-9.8386
▁علاقہ	-9.83999
▁ام	-9.84055
▁ھمود	-9.84069
▁دگر	-9.84095
▁چوناھا	-9.84112
▁دزکپتگ	-9.84163
▁پیک	-9.84216
▁برجاھیں	-9.84246
▁بیرانی	-9.8426
▁ایوکء	-9.84376
▁تہاری	-9.84529
▁صنعت	-9.84548
از	-9.84554
▁ہرکس	-9.84636
▁کناں۔	-9.84668
▁قبیلہ	-9.84703
▁into	-9.84752
▁پنام	-9.84812
mber	-9.84832
▁چیاکہ	-9.8484
▁بدی	-9.84856
▁کندگ	-9.85032
▁چن	-9.85037
جان	-9.85051
▁پا	-9.85088
▁شمار	-9.85216
▁T	-9.85258
▁گہار	-9.85277
▁۔۔	-9.85312
▁بروت	-9.85375
▁کلوہ	-9.85391
داری	-9.85443
▁چد	-9.85468
▁یوسف	-9.85498
▁نوشتہ	-9.85502
▁ویبجاہ	-9.85536
▁ع	-9.8558
▁سیمسر	-9.856
▁اوشت	-9.85621
▁جولائی	-9.85637
▁کننت۔	-9.85639
نوکیں	-9.85724
▁سمی	-9.85747
▁3	-9.85795
▁مرچاں	-9.85805
▁نزیکی	-9.8584
▁گریوگ	-9.86053
▁اتاں۔	-9.8612
▁اندرء	-9.8616
▁ریش	-9.86171
▁کارگس	-9.86184
▁چاراں	-9.86196
▁ٹ	-9.86232
▁مرز	-9.86259
▁گندیت	-9.86353
▁بدیں	-9.86392
▁واکدار	-9.8646
▁شبین	-9.86526
جو	-9.86546
▁پروفیسر	-9.86568
▁انہی	-9.86631
▁پھل	-9.86683
▁بھتام	-9.86695
▁بله	-9.86741
▁رسگ	-9.86745
▁ایرانء	-9.86793
ce	-9.86848
▁پانزدہ	-9.86863
▁قدر	-9.86905
▁کشیت	-9.8692
▁بچکند	-9.8693
▁اتکگیں	-9.86934
▁شھدگ	-9.87077
▁اسمبلی	-9.87111
▁حب	-9.87149
▁سپت	-9.87175
کنت	-9.87217
▁گا	-9.87231
▁ایوکیں	-9.87245
▁ھیر	-9.87255
بزاں	-9.87296
▁کازی	-9.87439
▁گیا	-9.87473
▁کنوکانی	-9.87519
▁برجا	-9.8752
▁ہوں	-9.87562
کیں	-9.87587
▁اپریل	-9.87593
▁اسمان	-9.87669
▁گنج	-9.87704
▁مومن	-9.87725
دومی	-9.87774
▁خود	-9.87777
▁کیت۔	-9.87842
▁ماھتاک	-9.8801
▁داروکیں	-9.88034
▁زندے	-9.88079
'	-9.88097
لا	-9.88111
▁دائم	-9.88149
▁ستمبر	-9.88208
▁جنکے	-9.88247
en	-9.88281
▁لشکری	-9.88372
▁گیوار	-9.88406
▁واست	-9.88414
▁واحد	-9.88422
▁چ	-9.88542
▁ارت	-9.8855
▁بگوش	-9.8856
▁دپء	-9.88588
▁مھکم	-9.88629
▁کرن	-9.8864
▁فروری	-9.88642
ہی	-9.88732
تاکدیم	-9.8876
چک	-9.888
▁ہشت	-9.8882
▁بندش	-9.88835
ھاں	-9.88857
ڑی	-9.88894
▁تم	-9.88966
پد	-9.8902
▁امن	-9.89132
▁کرنا	-9.89171
▁مردمان	-9.89188
اں۔	-9.89222
▁مرزی	-9.89265
▁M	-9.89285
▁روچانی	-9.89315
▁ردانک	-9.89624
▁وہدیکہ	-9.89627
▁تحریک	-9.89633
▁انساپ	-9.89764
▁اروس	-9.89772
▁ہرچی	-9.89798
داد	-9.89819
▁نئیت	-9.89896
▁پانگس	-9.89932
▁would	-9.89961
us	-9.89982
▁more	-9.90063
▁سائنسی	-9.90063
▁بلاھیں	-9.90155
▁راجانی	-9.90174
▁نادراہی	-9.90198
▁واھند	-9.902
نام	-9.90364
▁گستا	-9.90372
▁خیر	-9.90428
▁سرکماش	-9.90619
an	-9.90699
▁دوازدہ	-9.90707
▁پژدر	-9.90712
▁بوتہ	-9.90758
▁بدار	-9.90767
▁دمانے	-9.91002
▁لوٹوکیں	-9.91004
▁وانگء	-9.91038
▁نگد	-9.91038
▁شاعرے	-9.91078
ث	-9.91132
▁ادینک	-9.91251
▁نیوز	-9.91523
▁تھے	-9.91552
▁ہاترا	-9.91563
▁سانگ	-9.91595
▁خاص	-9.91661
▁انصاف	-9.91725
▁اسلامی	-9.91751
▁راز	-9.91775
▁پالیسیانی	-9.91776
▁حیران	-9.91797
یم	-9.91959
▁قول	-9.91963
▁all	-9.9203
▁دراتک	-9.92191
▁مرچیگیں	-9.92274
▁ایراد	-9.92352
▁نیٹورک	-9.92383
▁سب	-9.92384
▁احت	-9.92389
▁ہرچ	-9.92409
▁کلی	-9.92423
▁یکبرے	-9.92427
▁پند	-9.92439
▁بام	-9.92453
▁پرک	-9.92501
▁نکش	-9.92514
▁ساپ	-9.92579
▁سسا	-9.92634
▁مجلس	-9.92643
▁موہ	-9.92653
▁اشتر	-9.92711
▁پاکستانء	-9.92816
▁براہ	-9.92848
▁گچینی	-9.92937
▁چھ	-9.93058
▁انت۔اے	-9.9308
شپ	-9.93081
▁مین	-9.93159
▁پراہ	-9.93199
▁بدئے	-9.932
▁چارت	-9.93213
▁دچار	-9.93236
▁کمیشن	-9.9327
▁افغانستان	-9.93325
!‘‘	-9.93373
b	-9.93431
▁وهد	-9.93435
▁ملکاں	-9.93505
▁ساجد	-9.93589
▁سکی	-9.93614
ستان	-9.93685
▁سار	-9.93794
▁وڈ	-9.93837
▁ورناہ	-9.93841
▁الی	-9.93962
▁پرے	-9.94032
ary	-9.9406
▁نزانت	-9.94065
▁دینت	-9.94094
گاں	-9.94153
▁خاصیں	-9.94189
▁سالے	-9.94256
گے	-9.94257
▁مقصد	-9.94415
▁بستگیں	-9.94486
▁ھنچیں	-9.94523
▁بگش	-9.9463
▁ھاک	-9.9465
▁طور	-9.94727
دست	-9.94747
▁راه	-9.94808
▁وانگی	-9.94909
روچ	-9.94918
سک	-9.94919
رد	-9.9492
ish	-9.94982
▁ھاترء	-9.95018
or	-9.95052
▁ہونا	-9.95107
▁رؤگ	-9.95114
▁پہک	-9.95134
نڈ	-9.95167
▁جمالدینی	-9.95185
▁فوجی	-9.95224
▁پارسی	-9.95274
▁پیچ	-9.95332
▁چیئرمین	-9.95372
▁لبزانکء	-9.95389
ست	-9.95436
▁درک	-9.95528
▁پھ	-9.95529
دا	-9.95539
▁کوشست	-9.95546
▁وفا	-9.95546
▁یورپ	-9.95588
▁شعرانی	-9.95616
▁اؤرتگ	-9.95659
▁زئی	-9.95714
▁کینگ	-9.95764
▁تھا۔	-9.95783
▁نزینک	-9.95821
▁گالوار	-9.95837
▁اسکواڈ	-9.95899
▁چکے	-9.96013
▁پکار	-9.96015
▁ایا	-9.96026
▁کاریت	-9.96044
▁انسانء	-9.96051
▁بینک	-9.96074
سا	-9.96105
▁زالبولانی	-9.96162
▁گلانی	-9.96245
ترا	-9.96281
▁بلک	-9.9635
▁گوم	-9.96351
▁کسمانک	-9.96439
▁کچھ	-9.96451
▁دوستیں	-9.96519
ڈی	-9.9659
▁عزیز	-9.96618
▁ہوٹل	-9.96636
u	-9.96655
ینت	-9.96669
▁گونڈیں	-9.96732
▁گیپت	-9.96799
▁بہار	-9.96883
▁مردء	-9.96963
▁دستی	-9.97094
▁وتن	-9.97137
▁تاریخی	-9.97145
▁برزیں	-9.97192
▁دیوانے	-9.97301
▁لیک	-9.97318
▁پیریں	-9.97359
▁نویسگ	-9.97529
ٹر	-9.97591
▁زیبا	-9.97659
▁مردین	-9.97663
۔۔۔۔۔	-9.97696
▁ھراب	-9.97823
▁مئیں	-9.9783
▁۔۔۔۔	-9.97853
▁اسپیت	-9.97863
▁میڑ	-9.97865
▁دیگر	-9.97868
▁she	-9.97879
ئگ	-9.97964
▁جاہے	-9.98005
▁مطلب	-9.98031
▁چادر	-9.98043
نو	-9.98085
▁پادانی	-9.98108
▁حون	-9.98112
▁کنیں۔	-9.98126
▁چہر	-9.98188
▁ساچشتی	-9.9827
رہ	-9.98409
▁ہکانی	-9.98415
▁استیں	-9.9845
▁ھشک	-9.9846
▁رک	-9.98579
▁سنگتے	-9.9861
▁تنک	-9.98698
▁جیئند	-9.98749
▁کمالان	-9.98775
▁اشکنگ	-9.98814
▁بلیدہ	-9.98851
▁درس	-9.98973
ۆ	-9.99004
▁خ	-9.991
▁نزاناں	-9.99111
▁گشاں	-9.99121
▁مہناز	-9.99133
▁لیے	-9.99219
ٰ	-9.99228
▁تواری	-9.99326
▁گوئشت	-9.9945
اور	-9.99456
▁اسرائیل	-9.9967
▁فائدہ	-9.99833
▁کوٹ	-9.9985
▁سوال	-9.99874
▁ہپت	-9.99969
ذ	-10.0001
▁معلوم	-10.0006
▁اورت	-10.0013
▁de	-10.0018
▁٭٭٭	-10.0021
▁پیرک	-10.0024
▁گندگء	-10.0067
▁باگ	-10.0071
▁ھار	-10.0072
▁ماہتاک	-10.0076
▁ھمگرنچ	-10.0078
▁توامیں	-10.0082
▁غزل	-10.0086
▁گوز	-10.0095
▁ص	-10.0101
p	-10.0102
▁دروشمے	-10.0102
▁گندئے	-10.0103
▁شیخ	-10.0108
▁out	-10.0113
ژ	-10.0121
▁رضا	-10.0124
▁دگنیا	-10.0127
▁یازدہ	-10.0127
▁ارب	-10.0134
▁لوٹت	-10.0141
▁چارمی	-10.0143
ation	-10.0146
▁میدان	-10.0147
▁ملکء	-10.0152
▁پوشاک	-10.0155
▁لین	-10.0167
▁جاه	-10.0169
گو	-10.0169
▁زیادہ	-10.0171
▁دوبر	-10.0173
▁پش	-10.0178
▁ہبر	-10.0178
▁مسلم	-10.018
▁وقت	-10.0187
▁چارات	-10.0191
▁اسل	-10.0196
▁گالبند	-10.0198
▁پاکیں	-10.0199
▁کانود	-10.02
رے	-10.0201
▁زار	-10.0202
▁سگریٹ	-10.0209
▁کونسل	-10.021
ایاں	-10.0211
بوت	-10.0211
▁نادراھجاہ	-10.0212
▁پور	-10.0217
چار	-10.0222
▁ڈپٹی	-10.0222
▁پلہ	-10.0223
▁شئے	-10.0227
پدا	-10.0248
▁تاکت	-10.0249
▁ہوش	-10.0254
▁صوبہ	-10.0255
▁گوک	-10.026
▁ڈس	-10.0263
▁شرف	-10.0264
▁نقصان	-10.0265
▁زیان	-10.0272
▁چینی	-10.0275
▁کوپگ	-10.0282
▁رسانکدراں	-10.0291
شر	-10.0292
▁ہوتا	-10.0293
بن	-10.0298
▁when	-10.0299
▁اناں	-10.0307
▁ملکانی	-10.0307
▁اتگ۔	-10.031
دگہ	-10.0313
▁up	-10.0318
۔بلے	-10.0322
▁بلد	-10.0324
▁لج	-10.0331
▁سارت	-10.0332
▁زمانگء	-10.0337
▁موبائل	-10.034
▁گی	-10.0342
▁جناں	-10.0343
▁us	-10.0344
گپ	-10.0349
▁دا	-10.0356
▁کورٹ	-10.0374
▁کبر	-10.0377
▁چا	-10.0379
▁روایت	-10.0383
▁سنچ	-10.0394
▁گوما	-10.0401
▁کلام	-10.0403
▁ظلم	-10.0415
▁مناں	-10.0418
▁وکیل	-10.0428
▁ٹیکنالوجی	-10.0437
▁زات	-10.044
▁ہاشمی	-10.0455
▁دیدگ	-10.0462
▁ساد	-10.0475
▁ستا	-10.0481
▁پوست	-10.0482
▁چوک	-10.0487
▁کام	-10.0489
▁ظاہر	-10.0491
▁زیرگ	-10.0494
▁دلجمی	-10.0495
▁دستیگ	-10.0498
▁سیاھیں	-10.0499
▁ری	-10.0499
▁یکجہتی	-10.05
▁اھگ	-10.0504
▁رہشون	-10.0506
▁پیسرا	-10.0507
▁قبر	-10.0508
▁ناصر	-10.051
▁قرار	-10.051
▁مرت	-10.0511
▁شست	-10.0517
▁حصہ	-10.0521
▁دلجم	-10.0523
!......	-10.0523
▁کرتے	-10.0523
▁لانچ	-10.053
▁وانینگ	-10.0543
▁اومان	-10.0543
جن	-10.0546
▁مذہبی	-10.0549
▁ماه	-10.055
▁اؤرت	-10.0552
▁نبیس	-10.0564
▁سوبین	-10.0566
▁نمیران	-10.0566
during	-10.0587
▁نیت	-10.0587
▁سیاد	-10.0589
▁بنیادم	-10.059
▁باج	-10.0593
▁برابر	-10.0599
▁چند	-10.0608
▁جتائی	-10.062
▁زیمر	-10.0622
▁جاہاں	-10.0628
▁زرتگ۔	-10.0628
▁تگ	-10.063
▁نامدار	-10.0631
میں	-10.0632
▁انا	-10.0637
▁لوٹیت۔	-10.0641
▁انتزامیہ	-10.0645
۔من	-10.0647
بو	-10.0647
▁علاج	-10.0648
▁ھ	-10.0651
▁پنجاب	-10.0654
▁most	-10.0655
▁باری	-10.0659
▁ولی	-10.0673
▁سوشل	-10.0688
▁گڑ	-10.0691
▁ھواری	-10.0706
▁لمب	-10.0712
▁لیگ	-10.0722
▁سربوتگیں	-10.0723
▁شل	-10.0727
▁بوگی	-10.0727
▁جتگ۔	-10.0731
▁حاکم	-10.0741
▁بیگا	-10.0743
▁]	-10.0744
▁سارتیں	-10.0744
▁سن	-10.0747
بار	-10.0751
▁دمب	-10.0753
کم	-10.0771
▁تچکیں	-10.0775
▁لوگانی	-10.0777
▁استمان	-10.0779
▁ڈیک	-10.0784
▁بئیگ	-10.0795
با	-10.0795
▁ناماں	-10.0795
▁اشک	-10.0796
مردم	-10.0807
▁لبزانت	-10.0824
▁اسی	-10.0824
▁نیکی	-10.0825
▁فون	-10.0828
▁game	-10.0837
▁ھچبر	-10.084
▁نیں	-10.0841
▁ہنچو	-10.0843
▁رم	-10.0844
▁برمش	-10.0847
▁جندئیگ	-10.0851
▁زانتی	-10.0852
▁عام	-10.0855
▁ضرورت	-10.0862
▁only	-10.0864
▁رحم	-10.0865
▁نیکراھی	-10.0866
▁محبت	-10.0868
▁گوشت۔	-10.0872
▁بنجاہ	-10.0873
▁ندکار	-10.0875
▁بلکن	-10.0879
▁ریچ	-10.0886
▁سبزیں	-10.0886
▁گلہ	-10.0893
▁راہء	-10.0901
▁تچان	-10.0914
▁فقیر	-10.0915
▁گیشینگ	-10.0931
▁میری	-10.0931
▁گلاں	-10.0934
▁دولت	-10.0942
▁کاف	-10.0943
▁مسلمان	-10.0949
▁شرتریں	-10.0949
▁مگر	-10.0949
▁بوہان	-10.095
▁دماغ	-10.095
▁اتگیں	-10.0958
▁ساچ	-10.0959
▁بگل	-10.0977
▁گواہ	-10.0983
▁نامہ	-10.0986
▁موکل	-10.0987
▁ساعت	-10.0988
▁وانگجاہ	-10.0993
▁تپاس	-10.0993
▁زندگیں	-10.0997
▁نک	-10.1001
▁امریکی	-10.1006
▁بوھیر	-10.1012
▁زھیر	-10.1028
▁سینگ	-10.1029
▁روش	-10.1037
▁جد	-10.1038
▁سست	-10.1048
▁بری	-10.1054
▁راھے	-10.1056
▁دزی	-10.1059
▁صبا	-10.1059
▁پاگ	-10.1063
▁گشے	-10.1067
▁اہوالکار	-10.1068
بس	-10.107
▁رہ	-10.1072
▁پوش	-10.1075
▁ئا	-10.1076
▁زاھر	-10.1079
▁نظم	-10.1089
el	-10.1092
▁فکشن	-10.1097
▁سسٹم	-10.1099
▁D	-10.1102
able	-10.1111
▁گاڑیانی	-10.1115
▁وهدے	-10.1124
▁ق	-10.1126
▁نبی	-10.1129
▁زیب	-10.1135
پل	-10.1139
▁ڪہ	-10.1141
▁ہار	-10.1142
▁سعید	-10.1144
▁تہار	-10.1147
▁","	-10.1163
▁ایوب	-10.1164
▁پرشت	-10.1165
▁حلک	-10.1166
um	-10.1167
▁پونز	-10.1178
ات۔	-10.1179
▁تمام	-10.1208
▁مڑ	-10.1208
▁بران	-10.121
▁چنگ	-10.1216
پی	-10.1218
▁ھانی	-10.1222
S	-10.1223
▁بکنت۔	-10.1228
about	-10.1229
▁پترت	-10.1229
tween	-10.1231
▁نزیکیں	-10.1236
▁زہیر	-10.124
▁نیامء	-10.125
زئی	-10.1257
▁سئیں	-10.1264
▁نون	-10.1273
▁شتاں	-10.1279
▁ھمدا	-10.1282
▁پہنات	-10.1289
زبان	-10.129
▁پروشگ	-10.129
▁پن	-10.1292
▁ارواح	-10.1297
▁علیہ	-10.1298
▁ھرچی	-10.1308
...?	-10.1312
▁انور	-10.1312
▁جگر	-10.1313
▁چاردہ	-10.1314
ity	-10.1314
تیں	-10.1317
▁ثابت	-10.1329
ڈاکٹر	-10.1341
وہ	-10.1343
▁زیات	-10.1344
▁دگے	-10.1348
▁حاترا	-10.1351
▁مشکے	-10.1353
▁سلامت	-10.1356
▁بینگ	-10.1356
▁گردن	-10.1367
▁سیٹ	-10.1369
اہ	-10.1369
وان	-10.1374
▁ھندی	-10.1375
▁him	-10.1377
▁داراں	-10.1378
▁دمک	-10.1379
▁روگء	-10.138
▁play	-10.1382
▁پالیسی	-10.1383
▁کامیاب	-10.1383
▁گڈسر	-10.1385
▁سرمچارانی	-10.1389
▁قانون	-10.1391
خان	-10.1395
g	-10.1395
▁هال	-10.1401
▁سمجھ	-10.1407
is	-10.1407
▁مو	-10.1408
▁ریک	-10.1409
▁پرواز	-10.1414
▁قاسم	-10.1415
زر	-10.1417
▁تعلیم	-10.1418
▁علمی	-10.142
▁گواچن	-10.1421
▁داریت۔	-10.1425
▁بزگی	-10.1427
▁زباناں	-10.143
ض	-10.1435
کش	-10.1452
▁ہائی	-10.1455
▁R	-10.1469
land	-10.147
یل	-10.147
▁سالانی	-10.1479
▁وپت	-10.148
▁امین	-10.1483
▁ح	-10.1484
▁گوشئے	-10.1485
▁جیل	-10.1485
▁دودمان	-10.1494
▁ذاتی	-10.1501
▁season	-10.1507
وری	-10.151
▁ارشاں	-10.1513
▁کشندہ	-10.1515
انک	-10.1516
▁ہندوستان	-10.1522
▁ھمائی	-10.1525
تریں	-10.1526
▁رؤت	-10.1529
▁again	-10.1535
▁یاں	-10.1536
c	-10.1536
▁گوھار	-10.1537
▁چیک	-10.1542
▁جماعت	-10.1542
▁کپان	-10.1542
▁رن	-10.1545
ایت	-10.1546
▁ادارہانی	-10.1548
▁On	-10.155
▁بیوکیں	-10.156
▁تجربہ	-10.1561
▁سلمان	-10.1563
▁جنوک	-10.1564
▁زوال	-10.1566
▁ادارھاں	-10.1569
▁انگتہ	-10.157
▁مس	-10.1574
▁کتاباں	-10.1578
▁رھادگ	-10.1579
▁three	-10.1585
وم	-10.1586
▁سیم	-10.1587
▁شرگدار	-10.1588
▁ھیران	-10.1592
▁جوش	-10.1593
▁شیئر	-10.1597
ملا	-10.1597
▁لو	-10.16
▁سوگند	-10.1604
▁پورا	-10.1606
▁جاہء	-10.1608
▁ورنایانی	-10.1609
مراد	-10.1619
ایشی	-10.1622
▁4	-10.1626
▁جاگہے	-10.1626
▁گراب	-10.1631
▁راشد	-10.1633
▁زامران	-10.1635
▁ادینگ	-10.1637
▁مئیل	-10.164
▁شپے	-10.1643
وز	-10.1648
m	-10.165
▁than	-10.1651
▁فضل	-10.1656
▁چارگء	-10.1657
▁باپاری	-10.1658
▁P	-10.1665
▁زورگر	-10.1666
▁''	-10.1666
جا	-10.1667
▁گشت۔	-10.1684
▁زوریت	-10.1686
▁5	-10.1687
▁کردے	-10.1692
▁پیشی	-10.1696
▁ادمین	-10.1699
▁تئ	-10.17
ریں	-10.1722
▁صاف	-10.1723
▁اندیم	-10.1723
▁اتیں	-10.1733
▁سرحال	-10.1737
گوشتگ	-10.1738
لہ	-10.1739
▁اسپیتیں	-10.174
▁جنئگ	-10.1741
نک	-10.1741
▁اؤکیں	-10.1745
▁زانشت	-10.1751
▁دن	-10.1752
▁زبہر	-10.1752
▁دلیل	-10.1754
▁جاتا	-10.1755
k	-10.1765
▁استال	-10.1766
▁نیل	-10.1767
▁وائرس	-10.1769
ێ	-10.1769
▁ننگ	-10.1779
▁بکناں	-10.1782
▁پرمان	-10.1784
▁ذکر	-10.1789
▁ڈیہہ	-10.1791
▁دلبڈی	-10.1798
▁مردمء	-10.1802
▁ترکی	-10.1802
▁پدریچ	-10.1809
▁پروگرام	-10.1813
▁بئیں	-10.1818
▁بجٹ	-10.1822
▁صفت	-10.1823
▁کمبر	-10.1823
▁ھردو	-10.1828
▁کیمپ	-10.183
▁بازینے	-10.183
▁موتک	-10.1831
▁فرق	-10.1835
انا	-10.1836
▁نامے	-10.1837
▁لائن	-10.1837
▁t	-10.1838
▁وزن	-10.1843
▁۔ائی	-10.1846
▁راجء	-10.1851
▁خاندان	-10.1856
▁ژا	-10.1859
▁سالء	-10.1861
▁وشبو	-10.1862
▁جمبر	-10.1864
▁پائدگ	-10.1865
▁گلاب	-10.1869
▁e	-10.1873
f	-10.1875
▁نواز	-10.1883
▁پشتء	-10.1891
▁پار	-10.1892
▁مالک	-10.1894
▁دریگ	-10.1897
▁المیں	-10.1901
▁درامد	-10.1907
▁سرین	-10.1915
▁انگہ	-10.1922
▁روح	-10.1922
▁منظور	-10.1923
اللہ	-10.1923
▁راجمان	-10.1927
▁پلانی	-10.1929
▁سوبمند	-10.1929
▁راجمانی	-10.1933
▁ڈل	-10.1937
▁زرباری	-10.1949
▁')	-10.1951
▁گلگ	-10.1952
▁پرواہ	-10.1956
▁دوستین	-10.1966
▁بیل	-10.1972
▁چوپ	-10.1981
▁وام	-10.1984
▁شاعرانی	-10.1988
▁شازادگ	-10.1991
دگ	-10.1995
▁ابرم	-10.2001
▁السی	-10.2002
▁باسکاں	-10.2015
▁رجانکار	-10.2029
▁باریگ	-10.2031
▁لوگے	-10.2032
▁پرشتگ	-10.2036
▁نال	-10.2048
▁ائید	-10.2051
نس	-10.2055
▁گوشدارگ	-10.2058
نگیں	-10.2058
▁through	-10.206
▁وانندہ	-10.2061
▁ساہگ	-10.2062
▁غنی	-10.207
▁ٹاہ	-10.2084
▁شا	-10.2093
............	-10.2099
▁واہند	-10.2102
▁ھندوستان	-10.2102
▁ادارگ	-10.2104
▁گالاں	-10.2118
▁خاران	-10.2119
▁دیا	-10.2119
▁زرمبش	-10.2126
دے	-10.2129
▁ڈکال	-10.213
▁نبشتگیں	-10.2134
▁متاثر	-10.2136
▁وڈیں	-10.2138
شی	-10.2138
▁تپنگ	-10.2141
▁گیگ	-10.2141
▁کارمرزی	-10.2141
▁گلامی	-10.2147
▁لعل	-10.2147
گور	-10.2156
ھانی	-10.2163
▁N	-10.2166
▁حانی	-10.2167
▁ارزان	-10.2167
▁روسی	-10.2169
▁later	-10.2179
▁شاعریء	-10.218
▁گھار	-10.2183
▁بزور	-10.2188
▁کنغ	-10.2191
▁عملی	-10.2192
▁کپت۔	-10.2192
▁گوانک	-10.2193
▁زرء	-10.2201
▁کشیں	-10.2208
▁چمشانک	-10.2218
▁بندر	-10.222
et	-10.2222
سید	-10.2225
کگ	-10.2226
▁رجینگ	-10.2227
▁[	-10.2232
▁پنت	-10.2233
▁نظریہ	-10.2243
▁تھ	-10.2244
▁ترین	-10.2251
ید	-10.2252
▁لبزاں	-10.2263
▁سھر	-10.2265
▁چندے	-10.2269
▁پاٹی	-10.2271
▁پریات	-10.228
▁اگدہ	-10.2284
▁مور	-10.2286
▁while	-10.2293
▁ردیں	-10.2297
▁ھمنچو	-10.2301
▁لازم	-10.2304
اتی	-10.2309
▁تاکہ	-10.2312
▁یعنی	-10.2312
▁گزر	-10.2325
▁شم	-10.2333
▁تاکبند	-10.2333
▁ظفر	-10.2334
▁دانک	-10.2337
▁ڈ	-10.2338
▁وال	-10.2339
▁مت	-10.234
▁دگرے	-10.2344
▁درگیجگ	-10.2346
▁پشک	-10.2361
▁ھنچو	-10.2365
▁پناہ	-10.2372
▁گز	-10.2381
▁ازار	-10.2383
▁پرپٹ	-10.239
▁درشانداب	-10.239
▁بگندئے	-10.2391
▁چتور	-10.2393
▁new	-10.2396
▁مے	-10.2398
▁زیمل	-10.2399
▁زد	-10.2401
▁ھسپتال	-10.2403
▁اج	-10.2407
شہ	-10.241
gan	-10.2411
▁زالبولے	-10.2411
▁باوست	-10.2415
اف	-10.2419
▁تپ	-10.242
▁some	-10.2423
▁لوگاں	-10.2428
▁ضلع	-10.243
▁نیکیں	-10.2433
▁۔من	-10.2434
شان	-10.2438
▁گونڈو	-10.2438
?”	-10.2439
▁سرکارء	-10.2449
▁ھان	-10.2453
▁مکسد	-10.2463
▁دینی	-10.2466
▁ناہ	-10.2469
▁ناچ	-10.2479
▁E	-10.2482
ever	-10.2483
▁درداں	-10.2483
▁اچہ	-10.2486
▁اتک۔	-10.2497
▁ربیدگی	-10.2499
ؤ	-10.2504
made	-10.2508
اؤ	-10.251
▁پندل	-10.2519
▁کمپیوٹر	-10.2525
▁ورنائی	-10.253
▁K	-10.2531
▁ہندی	-10.2532
▁حاصیں	-10.2532
▁لوٹگ	-10.2533
▁زیبائیں	-10.2534
▁گریب	-10.254
▁شت۔	-10.2545
▁دلوت	-10.2551
▁کلگ	-10.2555
▁ازادی	-10.2556
▁مهر	-10.2557
▁نگاہ	-10.2559
▁ات۔۔۔	-10.2565
▁ھنچوش	-10.2574
▁نندوکیں	-10.2577
▁فارم	-10.2581
▁ستر	-10.2583
▁راھبند	-10.259
▁سود	-10.2598
▁مروچیگیں	-10.2598
▁حرکت	-10.2602
▁نت	-10.2607
▁اختر	-10.2616
▁اشنا	-10.2619
▁جاری	-10.2619
▁ڈرائیور	-10.262
▁گہگیری	-10.2629
▁مرگء	-10.2629
▁گوشنت	-10.2639
ہما	-10.2639
▁سنی	-10.264
est	-10.2644
▁سرھال	-10.2647
▁تہہ	-10.2651
”.	-10.2654
▁کلاں	-10.2658
▁کولواہ	-10.2667
▁ماتء	-10.2667
▁نوزدہ	-10.2671
▁هبر	-10.2672
▁ایوکا	-10.2672
▁p	-10.2675
▁مساپر	-10.2677
▁سبی	-10.2684
▁صلی	-10.2689
▁تچگ	-10.2693
▁ند	-10.2694
▁گہرام	-10.2702
▁کمتر	-10.2706
▁عابد	-10.2706
▁دژمنیں	-10.2708
▁ادیم	-10.2709
▁ڈیٹا	-10.2712
▁طرف	-10.2718
▁دوچ	-10.2721
▁بوتین	-10.2723
▁صرف	-10.2723
▁برپ	-10.2723
غیں	-10.2724
▁کاہ	-10.2734
فی	-10.2737
▁گوزان	-10.2749
▁قلم	-10.2752
▁میڈیکل	-10.2759
▁بوئیگ	-10.2761
▁مواد	-10.2762
▁سرزمین	-10.277
▁بنزہ	-10.2774
▁تجربت	-10.2776
تاکدیم۔	-10.2779
▁خانہ	-10.278
▁تری	-10.278
▁ہمرائی	-10.2781
▁توارے	-10.2785
▁دستا	-10.2792
▁چاریت	-10.2798
▁گلے	-10.2798
","	-10.2801
▁بازین	-10.2801
▁لی	-10.2802
▁کانفرنس	-10.2808
▁al	-10.2813
▁قبول	-10.2813
▁گژن	-10.2818
▁اسان	-10.2828
▁تاھیر	-10.2833
وٹ	-10.2838
▁محمود	-10.2842
نبشتانک	-10.2858
▁یونین	-10.286
▁گونڈ	-10.2872
▁ووٹ	-10.2878
ھیں	-10.2881
▁کہنیں	-10.2881
▁درچکانی	-10.2882
▁تہاریں	-10.2892
▁دپی	-10.2899
▁سنج	-10.2921
▁امروز	-10.2922
▁ابا	-10.2923
▁سیاھگ	-10.2924
▁سٹ	-10.2926
▁اسحاق	-10.2927
▁امریکا	-10.2928
▁دیمترا	-10.2936
بیا	-10.2937
▁چمے	-10.2937
▁تبک	-10.294
نز	-10.294
▁کوچگ	-10.2948
▁تور	-10.2953
▁شاعراں	-10.2955
زانت	-10.2959
▁رندی	-10.2971
▁ه	-10.2973
▁وسی	-10.2986
▁ریڈیو	-10.2988
▁قوت	-10.2989
▁ڈیتھ	-10.2989
▁دانگ	-10.2991
▁حقانی	-10.2993
▁ھنر	-10.3003
▁قدیم	-10.3012
▁لے	-10.3018
▁کایاں	-10.3023
▁بجلی	-10.3024
▁بالا	-10.3027
out	-10.303
▁گلیں	-10.3032
▁گروک	-10.3035
▁کلاس	-10.304
▁روچگ	-10.3041
▁ہمودا	-10.3043
▁بائد	-10.3048
▁ھستی	-10.3049
ہاں	-10.3051
▁زانتکاری	-10.3053
▁وران	-10.3053
رند	-10.3058
▁واکداراں	-10.3058
▁درملکی	-10.3064
▁اندری	-10.3069
▁شھدربرجاہ	-10.3073
▁الا	-10.3078
▁سوسائٹی	-10.308
پیش	-10.308
▁جہاں	-10.3087
▁اتار	-10.3088
▁شعور	-10.3092
▁برانز	-10.3095
شاہ	-10.3096
▁اشت	-10.3098
ra	-10.3102
▁بھ	-10.3103
▁اہم	-10.3104
▁بلوچے	-10.3106
▁یوکرین	-10.3106
▁پلو	-10.3116
▁مدتے	-10.3136
▁کاروباری	-10.3138
▁بزگیں	-10.3139
▁where	-10.314
▁کارمندانی	-10.314
▁follow	-10.3144
▁حمید	-10.3149
▁استار	-10.3151
مل	-10.3152
▁ہوئی	-10.3153
▁سل	-10.3154
▁گرمیں	-10.316
▁خون	-10.3165
man	-10.3171
گال	-10.3176
▁شروع	-10.3176
▁سرشون	-10.3178
ist	-10.3195
یشن	-10.32
▁درکپت	-10.3205
▁نیا	-10.3206
▁غوث	-10.3207
کاں	-10.321
▁ھستیں	-10.3211
▁دریں	-10.3213
ایر	-10.3214
▁زنگ	-10.3224
▁توان	-10.3234
▁وتکشی	-10.3236
such	-10.3237
▁نمیرانیں	-10.3244
▁دوری	-10.3246
▁میاں	-10.3248
▁ابن	-10.3254
▁تپاوت	-10.3256
▁موت	-10.3258
▁un	-10.3261
اولی	-10.3264
▁رندگیری	-10.3272
▁بنیات	-10.3281
▁میتگء	-10.3285
▁ھپتاد	-10.3286
▁وجہ	-10.329
▁فی	-10.3296
▁اناگہ	-10.3302
▁مود	-10.3302
▁ٹال	-10.3303
▁ہان	-10.3304
▁ہمدا	-10.3309
▁زھری	-10.3309
▁راجدپتری	-10.3315
▁بژن	-10.3316
▁c	-10.3329
▁کوھانی	-10.3334
▁ملکے	-10.3335
▁W	-10.3336
▁تان	-10.3336
▁زمینء	-10.3341
▁نویسی	-10.3341
▁چات	-10.3346
▁انوگیں	-10.3347
▁لوٹانی	-10.3349
▁مج	-10.335
▁حداء	-10.335
چم	-10.3358
▁مولوی	-10.3359
▁them	-10.3363
▁ھاران	-10.3365
▁لیٹ	-10.337
▁number	-10.3373
▁دیگء	-10.3376
▁چرائی	-10.3377
▁جنینے	-10.3378
▁شار	-10.338
▁چاچ	-10.3383
▁اختیار	-10.3389
▁G	-10.3391
▁زمستان	-10.3397
▁مه	-10.3399
▁بیرک	-10.3403
▁دیراں	-10.3408
▁عیب	-10.3409
▁شپاں	-10.3412
▁ارشے	-10.3412
▁چول	-10.3413
▁سڑک	-10.3414
▁زید	-10.3415
▁سرد	-10.3417
▁چونائی	-10.3419
▁گشان	-10.3419
▁بدنت	-10.3422
▁لیاری	-10.3424
تک	-10.3432
▁کلاک	-10.3434
▁ہلک	-10.3447
▁چیرا	-10.3449
▁رپک	-10.3457
▁ڈکھ	-10.3458
▁کشان	-10.3458
▁خالد	-10.346
▁دستگیر	-10.346
▁پک	-10.3461
▁چینچو	-10.3466
▁نسیم	-10.3469
▁اھد	-10.3484
▁حیات	-10.3488
▁پہر	-10.3493
▁پون	-10.3504
▁بگند	-10.3508
▁تار	-10.3512
زور	-10.3514
▁مشک	-10.352
داریں	-10.3521
▁under	-10.353
▁پلاں	-10.3534
▁درسد	-10.3535
▁مرتگیں	-10.3536
▁film	-10.3537
▁اہگ	-10.3543
▁اشوبی	-10.3545
▁عید	-10.3546
▁This	-10.3547
▁part	-10.3557
▁اپس	-10.3559
▁بانور	-10.3559
▁ہچبر	-10.3563
▁زندگانی	-10.3572
▁مسافر	-10.3578
سے	-10.3579
مات	-10.358
▁توسیپ	-10.358
▁ہوتی	-10.3582
▁نیاما	-10.3585
▁بندوکیں	-10.3588
▁گوازینتگ	-10.3592
چر	-10.3593
▁چیرء	-10.3594
▁مہرء	-10.3597
▁گشتانک	-10.3597
▁گنوکی	-10.3601
▁حالت	-10.3605
▁پازل	-10.3607
▁بزدار	-10.3609
▁شو	-10.361
فر	-10.3612
▁افسر	-10.3614
▁نوکری	-10.3616
▁ھپتگ	-10.3626
▁کپوت	-10.3636
انے	-10.3639
▁پنچمی	-10.3643
▁no	-10.3644
▁وابانی	-10.3651
▁زیت	-10.3658
پا	-10.3668
▁چوٹ	-10.3669
▁ھکم	-10.367
▁call	-10.3675
▁000	-10.3697
▁پال	-10.3698
▁انقلاب	-10.3699
▁being	-10.3715
▁بلوچء	-10.3717
▁ھمیشی	-10.372
▁ابد	-10.3725
▁ھبرے	-10.3728
▁ھشکیں	-10.3732
مر	-10.3736
▁جنکانی	-10.3746
ازمانک	-10.3746
▁جہدء	-10.3747
▁تچ	-10.3748
▁واکدارانی	-10.3758
▁دنز	-10.376
▁درکار	-10.3764
▁بنیادی	-10.3769
▁لفظ	-10.377
▁شئر	-10.3772
▁یعنے	-10.3775
▁record	-10.3778
▁تاکدیم۔	-10.3779
▁song	-10.3787
یگیں	-10.3791
▁end	-10.3794
▁اشکتگ	-10.3794
زند	-10.3795
▁چکچینی	-10.3799
▁New	-10.3803
▁زوراک	-10.3809
▁before	-10.382
▁b	-10.3831
▁ھوٹل	-10.3839
▁ترجمہ	-10.3841
▁قسم	-10.3851
▁چاڑ	-10.3858
▁اپء	-10.386
▁رہے	-10.3862
▁گھر	-10.3864
▁امل	-10.3874
▁جک	-10.3874
▁روژنائی	-10.3876
▁ٹو	-10.3877
یز	-10.3881
▁کست	-10.3896
▁سلیمان	-10.3898
▁مروچاں	-10.3902
▁ہیال	-10.3904
▁کپیت۔	-10.3904
▁الدین	-10.3906
▁زاہر	-10.3908
▁نوکی	-10.3908
▁حاک	-10.3914
▁فیض	-10.3915
▁تلار	-10.3917
غاں	-10.3922
▁مشین	-10.3924
▁وانوکاں	-10.3927
.....	-10.3927
▁گالانی	-10.3933
▁عباس	-10.394
اشی	-10.394
▁کوھن	-10.3941
▁درانگازی	-10.3943
▁مجبور	-10.3948
▁مارشتانی	-10.3949
▁سراوان	-10.3951
▁سہرا	-10.3958
▁زمان	-10.3966
▁استعمال	-10.3966
▁جھ	-10.3971
▁دائمی	-10.3983
ینیت	-10.3987
▁can	-10.3987
دور	-10.3988
▁تنقید	-10.3992
▁وہداں	-10.3995
▁As	-10.3996
▁چمگ	-10.3997
▁ائیا	-10.4
▁پتء	-10.4007
بلئے	-10.4011
یات	-10.4013
یٹ	-10.4014
▁درکانودی	-10.4022
▁سیکورٹی	-10.4022
▁جاگہہ	-10.4024
▁حر	-10.4024
▁second	-10.4026
▁w	-10.4029
▁تہی	-10.4032
▁ول	-10.4036
▁work	-10.404
▁یونانی	-10.4054
▁کورء	-10.4055
▁راکٹ	-10.4058
▁ھد	-10.4058
▁جرم	-10.4059
▁تمن	-10.406
▁گوار	-10.406
▁اخلاقی	-10.4064
▁معاملہ	-10.4065
ur	-10.4079
▁پشی	-10.4082
▁پما	-10.4084
▁رہا	-10.4085
▁سمین	-10.4086
▁بش	-10.4087
بازیں	-10.4105
▁دنیگا	-10.4109
ٹک	-10.411
▁جنزان	-10.4115
▁زانش	-10.4116
▁رمضان	-10.4117
▁ایشان	-10.4118
▁پرشتگیں	-10.4123
▁نبیت	-10.4124
▁خلاف	-10.4127
جنگ	-10.4127
سو	-10.4134
▁نزوریں	-10.4138
▁سرے	-10.4142
▁شگان	-10.4143
جہ	-10.4145
▁درانگاز	-10.415
▁ازمانکے	-10.4151
▁ازمکار	-10.4153
▁چپی	-10.4155
بت	-10.4173
▁جنجالانی	-10.4176
▁6	-10.4188
▁اقبال	-10.4193
گانی	-10.42
▁سپاہی	-10.4204
▁گرک	-10.4207
▁توپک	-10.4208
▁لاہور	-10.4209
▁حوالہ	-10.421
▁صابر	-10.4215
▁کرتا	-10.4226
▁انسانے	-10.4226
زم	-10.4228
▁شاعرء	-10.4233
▁اسماعیل	-10.4239
▁نازک	-10.4249
ارا	-10.4249
ہے	-10.4251
سن	-10.4263
▁گپتگیں	-10.4265
▁حکیم	-10.4266
▁دیدار	-10.4277
▁انکار	-10.4278
▁جہانی	-10.4282
▁ڈالر	-10.4292
▁لندن	-10.4292
▁کمار	-10.4293
پت	-10.43
▁دربرگ	-10.43
▁تعلق	-10.4303
رنگ	-10.4312
▁لب	-10.4314
▁بیگء	-10.4316
▁گپت۔	-10.432
▁مردمی	-10.4321
▁الاج	-10.4327
▁وئیلاں	-10.4329
▁گۆں	-10.4331
▁سعودی	-10.4332
مار	-10.4346
▁جهد	-10.4349
▁صبر	-10.4351
▁show	-10.4352
▁بھرے	-10.4366
▁نوکین	-10.4366
▁مکہ	-10.438
▁قادر	-10.4381
▁عدالت	-10.4381
▁ھل	-10.4384
وئی	-10.4385
▁کھن	-10.4386
▁ہمگرنچ	-10.4391
▁سیاہیں	-10.4394
▁شات	-10.4395
▁سوبمندی	-10.44
▁رسیت۔	-10.4407
▁نزر	-10.4409
▁دراتکگ	-10.4413
▁صدی	-10.4413
▁لنٹ	-10.4413
▁اہمد	-10.4414
▁تین	-10.4416
ment	-10.4417
▁مہرانی	-10.4419
▁پولی	-10.4421
▁رزا	-10.4422
▁کریمہ	-10.4427
▁بابا	-10.4429
مارا	-10.443
▁زین	-10.4435
?......	-10.4437
▁دیدگاں	-10.4439
▁ته	-10.4442
▁دگرانی	-10.4443
▁شود	-10.4445
▁ادمی	-10.4445
▁وہدی	-10.4451
▁فرانس	-10.4454
▁ایگء	-10.4456
▁قبائلی	-10.4461
▁جانسلامتی	-10.4462
▁نودربرے	-10.4463
..?	-10.4464
ہو	-10.4465
▁صوبائی	-10.4465
▁بلو	-10.4468
▁وثی	-10.4472
▁نیاں	-10.4477
▁بادینی	-10.4477
ia	-10.4479
▁there	-10.448
▁جنت۔	-10.4484
▁جستے	-10.4487
▁درچکے	-10.4489
▁سواریں	-10.4491
▁مع	-10.4498
▁میزان	-10.4503
▁دوچار	-10.4504
▁کسء	-10.4505
▁نیمون	-10.4507
▁موٹر	-10.451
▁ہا	-10.4512
▁سنت	-10.4512
▁ملامت	-10.4514
▁بحث	-10.4516
▁گیج	-10.4527
▁ریس	-10.4527
▁وابے	-10.4529
▁خالق	-10.4529
▁large	-10.4529
محمد	-10.453
▁منافع	-10.453
!!	-10.4532
▁کوشش	-10.4537
▁گئی	-10.4538
▁راگ	-10.4541
یتگ	-10.4543
▁ماھیگ	-10.4546
▁پولکاری	-10.4547
▁عظیم	-10.4549
ar	-10.4549
تھ	-10.455
▁دیوانء	-10.4553
▁پیری	-10.4559
▁کساسے	-10.4559
▁اہ	-10.4567
▁نهانت	-10.4568
▁high	-10.4569
▁وتگڑیں	-10.4572
▁جت۔	-10.4575
▁نثار	-10.4576
▁گشاد	-10.4576
▁توپان	-10.4584
▁گماں	-10.4589
▁مارشتاں	-10.459
▁10	-10.4595
اچ	-10.4601
▁ترمپ	-10.4602
▁دگانی	-10.4606
واں	-10.4607
▁احساس	-10.4608
▁شھری	-10.4617
▁چمان	-10.4618
گار	-10.462
▁جمعہ	-10.4631
▁album	-10.4632
▁زھگانی	-10.4644
▁شوربندی	-10.4644
re	-10.4646
ul	-10.4646
▁دراں	-10.4657
▁غریب	-10.4659
تاں	-10.4663
سال	-10.4663
▁series	-10.4664
ا۔	-10.4666
؂	-10.4666
▁تپاکی	-10.4675
▁روگی	-10.4677
▁تہذیب	-10.4679
▁area	-10.4686
▁سارتی	-10.4692
▁رودراتکی	-10.4692
▁تھت	-10.4696
▁مارکیٹ	-10.4697
▁میش	-10.4698
▁زبیر	-10.4699
▁پھک	-10.4701
▁حبرے	-10.4706
▁اینڈ	-10.4708
▁اولس	-10.4721
▁رژنائی	-10.4723
▁حمزہ	-10.4724
▁ھاکم	-10.4729
▁اشارہ	-10.4731
راہ	-10.4732
▁گلزار	-10.4733
▁پلاٹ	-10.4734
▁ادیب	-10.4741
▁ٹنگ	-10.4742
▁کارمندے	-10.475
▁ابرمی	-10.4759
برے	-10.4765
گوش	-10.4766
▁ھزاراں	-10.4769
▁جاک	-10.4771
▁شاھی	-10.4775
▁نیٹ	-10.4778
▁اسٹوڈنٹس	-10.4778
▁سہی	-10.4783
▁رجانکاری	-10.479
▁مھمان	-10.4793
لے	-10.4794
▁تھر	-10.4796
▁بوتگنت	-10.4799
▁مزاحمت	-10.4801
▁ھمودا	-10.4807
▁بہادر	-10.4808
▁تیلانک	-10.4811
ent	-10.4814
▁مسال	-10.4817
شک	-10.4834
▁کستریں	-10.4835
▁بجار	-10.4837
▁مادن	-10.484
▁کنز	-10.4842
lo	-10.4843
▁کرتنت	-10.4844
▁جیہند	-10.4847
▁جستانی	-10.4848
▁راجدوست	-10.4854
▁بیبگر	-10.4856
▁سوگات	-10.4865
ive	-10.4866
▁عیسیٰ	-10.4866
بلکیں	-10.4869
▁سببء	-10.487
▁تصور	-10.4873
▁میتگے	-10.4877
▁درجہ	-10.4882
مرد	-10.4886
▁بٹ	-10.4887
▁جتگیں	-10.4888
▁گچینکاری	-10.489
▁ہمراہی	-10.4892
یس	-10.4893
▁قبضہ	-10.4896
▁so	-10.4898
▁both	-10.49
▁کرم	-10.4901
▁رحمت	-10.4902
▁ممتاز	-10.4904
ود	-10.4906
▁عاشق	-10.4911
▁اتکگ۔	-10.4914
▁جاوید	-10.4918
▁گندیں	-10.4919
لک	-10.4919
▁includ	-10.492
▁سوئی	-10.4928
▁چیل	-10.4929
▁انداز	-10.4931
▁O	-10.4933
▁تژن	-10.494
▁جائے	-10.4947
▁بھت	-10.4949
▁اعظم	-10.4951
▁عطاشاد	-10.4954
▁دلے	-10.4955
▁کتابء	-10.4957
▁برداشت	-10.4958
▁بیدار	-10.4958
▁فدا	-10.4971
▁جسم	-10.4971
▁ٹپاس	-10.4975
▁بدے	-10.4977
▁روکیں	-10.4981
ارگ	-10.4982
▁ایوکی	-10.4988
▁کھولانی	-10.4992
▁والے	-10.4994
▁عادت	-10.4998
▁اوگان	-10.4998
▁کوھی	-10.4999
سہ	-10.5005
▁کشکے	-10.5006
▁پو	-10.5012
▁جیگ	-10.5017
▁سمو	-10.5018
▁شانک	-10.5023
▁تهنا	-10.5027
▁قرض	-10.5032
▁حیالانی	-10.5035
▁سج	-10.5035
▁سورت	-10.5037
شن	-10.5038
▁مشہور	-10.5039
▁چاگردے	-10.5042
▁like	-10.5055
نٹ	-10.5063
▁لیڈر	-10.5068
▁استحکام	-10.5071
▁سہت	-10.5074
▁ارادہ	-10.5074
▁سلطان	-10.5074
’’(	-10.5076
▁جزبگ	-10.5079
it	-10.5079
▁باد	-10.508
▁ازمانکار	-10.5083
کتگ	-10.5085
▁Brit	-10.509
▁ایکس	-10.5091
▁ڈنء	-10.5093
▁ہنچیں	-10.5094
▁بریں	-10.5098
▁نبشتانکے	-10.5101
▁گھگیری	-10.5104
▁پروشتگ	-10.5105
▁حراب	-10.5105
▁پدی	-10.5111
▁گۆن	-10.5113
▁ابو	-10.5113
▁بندیت	-10.5113
▁پشتون	-10.5115
▁بازارء	-10.5118
▁کمکار	-10.5118
ton	-10.5121
▁ضروری	-10.5121
▁اشکت	-10.5122
▁form	-10.5131
▁درونت	-10.5132
came	-10.5137
▁پشتی	-10.5141
▁سمندر	-10.5143
▁ناگمان	-10.5145
▁ناکہ	-10.5149
▁اوشتگ	-10.5153
▁گواری	-10.5155
▁دیریں	-10.5156
▁شہری	-10.5159
▁اوان	-10.5168
▁بجن	-10.5169
▁گوازینت	-10.5171
▁پڑء	-10.5175
▁برا	-10.5179
گری	-10.5195
▁میراث	-10.5196
▁ھوں	-10.5207
▁گوھر	-10.5207
▁then	-10.5211
ma	-10.5212
▁بزانکہ	-10.5214
▁والی	-10.5223
▁well	-10.5224
▁کاپر	-10.5244
▁ساحرء	-10.525
▁سنٹ	-10.5256
▁جیڑھانی	-10.5263
▁جدید	-10.5264
▁بزگر	-10.5265
▁قدرت	-10.5268
▁وارث	-10.5268
▁درمیان	-10.5269
اھاں	-10.5272
▁گوراں	-10.5273
▁زالبولاں	-10.5273
▁موومنٹ	-10.5277
▁known	-10.5277
▁ساڑا	-10.528
▁ملور	-10.5284
▁episode	-10.5285
▁دیوک	-10.5285
▁اپی	-10.5286
▁پروشت	-10.5287
▁Al	-10.5287
▁جہت	-10.5288
▁بلوچیء	-10.5289
▁پیشدارگ	-10.5292
▁تھے۔	-10.5295
▁ھنداں	-10.5297
▁شی	-10.5299
▁فن	-10.5307
▁زبھر	-10.5309
▁پگرء	-10.5311
▁مجگ	-10.5327
▁۔بلے	-10.5329
علی	-10.5329
▁باسکانی	-10.533
▁پابندی	-10.5331
▁اماچیں	-10.5331
▁پڑا	-10.5334
▁سطح	-10.5334
▁پچیں	-10.5334
▁عذاب	-10.5338
▁بوہ	-10.5343
▁زورگیریں	-10.5346
▁واھگانی	-10.5346
لبزانک	-10.5347
son	-10.5348
ئیگ	-10.5348
▁زری	-10.5349
▁نر	-10.5351
▁مطابق	-10.5359
▁بنگلہ	-10.536
▁ابراھیم	-10.5367
▁سرگوست	-10.5369
▁داران	-10.537
▁کتیں	-10.537
▁کپتگ۔	-10.5373
▁پروم	-10.5375
▁بازی	-10.5377
▁عارف	-10.5381
▁خانء	-10.5382
▁لذت	-10.5388
▁مسئلہ	-10.5391
▁کشء	-10.5392
▁اشتاپ	-10.5392
▁برزء	-10.5392
ber	-10.5393
▁نوش	-10.5393
il	-10.5395
▁وپا	-10.54
▁یکوارے	-10.5407
▁کارچ	-10.5413
▁روتاک	-10.5421
▁مشت	-10.5424
▁7	-10.5426
▁بلۆچ	-10.5426
▁بندانی	-10.5427
▁کان	-10.5428
▁بارے	-10.5431
▁نادر	-10.5435
▁گوہر	-10.5437
▁گاریں	-10.544
▁کلو	-10.5443
▁چیردستی	-10.5446
اہاں	-10.5448
▁اھمد	-10.545
▁ویران	-10.545
▁کوہء	-10.545
▁مھکمیں	-10.5452
▁لنکک	-10.5458
▁دمگانی	-10.5459
الی	-10.546
▁تیاری	-10.546
▁بدلیاں	-10.5469
▁چندیں	-10.5471
تاک	-10.5476
بوتگ	-10.5477
▁راہبند	-10.5479
▁حیر	-10.5488
▁ھڈ	-10.5491
گوشت	-10.5492
▁راجدپترء	-10.5505
▁گریت	-10.5507
▁ٹوک	-10.5525
▁شہرء	-10.553
▁سیمسراں	-10.5543
▁یورپی	-10.5546
▁بیھار	-10.5548
▁غ	-10.555
▁منوگر	-10.556
▁چیزء	-10.5564
▁مقام	-10.5569
▁۔۔۔۔۔	-10.5574
▁دوار	-10.5575
▁پکا	-10.5577
▁L	-10.5581
ڈو	-10.5583
ها	-10.5587
▁بلاش	-10.5591
▁ٹیلی	-10.5592
▁گورنر	-10.5596
▁لگتمالی	-10.5597
▁پسندی	-10.5602
▁عبدالحمید	-10.5609
▁وراک	-10.561
▁many	-10.5613
▁جہاز	-10.5623
یو	-10.5623
▁دنتان	-10.5624
▁ندارہ	-10.5626
▁بھار	-10.5627
اج	-10.5629
بد	-10.5639
▁پرستی	-10.5639
▁رئیس	-10.5642
▁سٹی	-10.5642
▁پریں	-10.5644
▁جر	-10.5648
▁مسک	-10.5651
▁ٹاور	-10.5654
▁12	-10.5659
▁کوپگاں	-10.566
▁قد	-10.5661
▁باب	-10.5663
at	-10.5664
پٹ	-10.5665
▁زمانگے	-10.5666
though	-10.5672
▁found	-10.5673
ماہ	-10.5679
▁فاروق	-10.5688
کانی	-10.569
▁پہل	-10.5691
▁درکپتگ	-10.5693
▁دعوت	-10.5706
▁فلسفی	-10.5708
▁ہیل	-10.571
▁long	-10.571
▁کابل	-10.5712
▁گوزیت	-10.5717
▁واہ	-10.5718
▁زھم	-10.572
nited	-10.5721
▁گشی	-10.5722
▁ہمائی	-10.5722
▁حملہ	-10.5726
ایش	-10.5727
▁وخت	-10.5728
▁یکین	-10.5735
رجانک	-10.5736
▁سیستان	-10.5737
▁شائریء	-10.5738
▁الیکشن	-10.5738
▁پیشانی	-10.5741
▁پلیں	-10.5744
▁پلگار	-10.5744
id	-10.5748
▁زندگیء	-10.5749
▁9	-10.5749
▁منتگ	-10.5752
▁کشمیر	-10.5757
▁رشید	-10.5758
▁سریں	-10.576
▁مختلف	-10.5762
▁گرنچ	-10.5767
▁مانیت	-10.5769
z	-10.577
▁کنٹ	-10.5771
کور	-10.5774
▁لئیب	-10.578
▁کارکن	-10.5782
ھان	-10.5785
if	-10.5788
▁طاہرہ	-10.5788
▁ماھل	-10.5791
▁ارساں	-10.5791
ch	-10.5794
▁گشندہ	-10.5795
▁0	-10.5802
▁ہستی	-10.5808
ران	-10.5811
▁ڈیل	-10.5812
▁پئیم	-10.5816
▁ایمن	-10.5817
▁شیپ	-10.5819
▁ٹارگٹ	-10.5828
▁دردء	-10.5828
▁گرمی	-10.5831
▁مقابلہ	-10.5832
▁زلورت	-10.5839
ظ	-10.584
▁تخلیق	-10.5842
ازم	-10.5844
یش	-10.5847
کتاب	-10.585
▁8	-10.5851
▁مانداشتگ	-10.5852
▁یاگی	-10.5852
▁خلیل	-10.5853
▁سهیگ	-10.5854
روان	-10.5857
▁کمان	-10.5865
▁محنت	-10.5867
▁شرط	-10.5869
▁رگام	-10.5873
▁ٹل	-10.5873
منا	-10.5876
۔۔۔۔۔۔۔۔۔۔۔۔۔۔۔۔	-10.5876
▁پانی	-10.5881
▁امیری	-10.5882
▁بزنجو	-10.5882
▁اواں	-10.5883
اق	-10.5893
▁نیمگاں	-10.5893
▁شوک	-10.5894
▁مھتل	-10.5896
▁قیمتانی	-10.5896
▁دستانی	-10.5897
▁ہنر	-10.59
یب	-10.5903
▁بوجیگ	-10.5904
▁کیسگ	-10.5904
▁اخراجات	-10.5905
▁ذہن	-10.591
▁اندازہ	-10.5913
▁دلبند	-10.5913
age	-10.5917
▁کربانی	-10.5918
ڈر	-10.5923
▁use	-10.5924
▁نیمروچ	-10.5924
li	-10.5925
▁ناشرکاری	-10.593
▁ہندو	-10.5936
▁گواچنی	-10.5944
▁لرز	-10.5944
▁فتح	-10.5945
جت	-10.5947
▁توارء	-10.5948
▁گئے	-10.5949
گیر	-10.5954
▁سروزیر	-10.5957
▁مد	-10.5958
▁جیڑہانی	-10.5959
گان	-10.5967
▁روم	-10.5973
▁فلم	-10.5973
▁شورو	-10.5973
▁کواس	-10.5977
▁دردے	-10.5981
▁امارات	-10.5985
▁مندی	-10.5986
▁لالا	-10.5986
▁کرء	-10.599
▁پرچیکہ	-10.5994
▁بوج	-10.5996
▁لوگی	-10.5997
▁نماسگ	-10.5999
▁اسٹیشن	-10.6001
تنت	-10.6006
راج	-10.6009
▁خضدار	-10.6011
▁اصف	-10.6012
▁احوال	-10.6014
▁وردن	-10.6016
▁سودا	-10.6021
راں	-10.6027
▁ہاں	-10.6027
▁حل	-10.6029
▁سالونک	-10.6032
▁century	-10.6033
▁کرسی	-10.6034
است	-10.6035
▁جرمن	-10.6039
▁میرے	-10.6039
▁شاکر	-10.604
▁حمایت	-10.6041
▁دلی	-10.6042
وڑ	-10.6044
▁16	-10.6048
مند	-10.6048
▁تیوگ	-10.6049
▁پرایمن	-10.6051
▁روز	-10.6051
دات	-10.6054
▁After	-10.6059
▁روا	-10.6059
▁چت	-10.606
▁جمیل	-10.6061
▁پتو	-10.6064
▁ہونے	-10.6066
▁تاگت	-10.6066
▁دیت	-10.6069
▁میز	-10.607
▁دانشور	-10.6072
▁جمال	-10.6079
▁شیطان	-10.6079
▁داتہ	-10.6081
▁رپ	-10.6089
▁بوچ	-10.609
▁کترینا	-10.6093
▁اوتاک	-10.6094
▁کروڑ	-10.6096
▁نکنت	-10.6099
▁پیگمبر	-10.6104
▁رستگیں	-10.6104
کرت	-10.6107
پاد	-10.6108
▁ڈولدار	-10.612
▁جرمنی	-10.612
▁نوکتریں	-10.6123
▁اسد	-10.613
▁four	-10.6136
▁دگراں	-10.614
▁دروشمء	-10.6144
▁سستگ	-10.6146
▁H	-10.615
بنت	-10.6151
▁کڈن	-10.616
▁تالبان	-10.6163
▁اپسر	-10.6165
▁درامدیں	-10.6167
▁قائم	-10.6167
▁گنجیں	-10.617
▁چڑھاؤ	-10.6172
▁کنے	-10.6176
▁کٹم	-10.6181
▁مجھے	-10.6185
▁شخصیت	-10.6186
ry	-10.6189
▁رمگ	-10.6191
▁بهر	-10.6195
▁گراہک	-10.6198
▁چیف	-10.6206
▁دلا	-10.6211
▁شرکت	-10.6212
▁ھمد	-10.6215
▁پہلے	-10.6215
▁Re	-10.6216
▁طالبان	-10.6218
پان	-10.6222
▁پکرء	-10.6222
▁یہاں	-10.6223
▁رود	-10.6227
▁بباں	-10.6228
▁شخص	-10.6229
ناں	-10.6231
▁دوت	-10.6234
ھار	-10.6235
▁شکاری	-10.6239
▁دوئمی	-10.6239
ue	-10.6243
وء	-10.6245
بیت۔	-10.6246
اتگ	-10.6249
▁شانزدہ	-10.625
▁میران	-10.6252
▁پان	-10.6255
▁جہ	-10.6261
▁کائے	-10.6262
ڑو	-10.6263
▁sever	-10.6268
▁توکلی	-10.6268
پرچا	-10.6269
▁American	-10.6271
▁ماث	-10.6276
▁وپتگ	-10.6291
▁مید	-10.6295
▁یے۔	-10.6298
▁ایکشن	-10.6298
▁دئینت	-10.63
▁غالب	-10.6304
▁ماھے	-10.6305
▁دوران	-10.6313
▁کمکیں	-10.6316
▁زراں	-10.6316
▁St	-10.6326
▁کوچ	-10.6328
▁عبادت	-10.6335
▁کاینت۔	-10.6336
▁لنگ	-10.6338
▁گوادرء	-10.6339
رء	-10.6343
▁لچ	-10.6347
مت	-10.6349
▁اشتاپی	-10.6352
▁ھیالانی	-10.6352
▁کوہن	-10.6353
▁مرگے	-10.6356
▁لسبیلہ	-10.636
▁الما	-10.6363
▁فکری	-10.6366
................	-10.6372
پیر	-10.6372
▁final	-10.6373
▁پلامرزی	-10.6373
▁گہ	-10.6381
▁جاڑیگ	-10.6384
▁ازاتیں	-10.6385
▁مندیں	-10.6387
▁پیرا	-10.6392
▁ون	-10.6392
▁درخواست	-10.6395
▁اولاک	-10.6395
▁زبر	-10.6395
▁گوشیں	-10.6397
▁بیلٹ	-10.6413
▁سئی	-10.6418
▁دید	-10.6429
▁پھم	-10.6433
▁نبشته	-10.6435
▁حاتم	-10.644
▁ریکارڈ	-10.6442
▁گمانی	-10.6452
▁دلگوشی	-10.6453
▁صحت	-10.6456
▁h	-10.6457
پس	-10.6458
▁دیوانجاه	-10.6459
▁کن۔	-10.6459
▁چکر	-10.646
لگ	-10.6461
▁ارزانی	-10.6467
مرچی	-10.6467
اہانی	-10.6472
مب	-10.6475
▁کارستانی	-10.6476
▁g	-10.6479
▁نازرکیں	-10.6485
▁کائنات	-10.6485
کھ	-10.6487
▁تحت	-10.6489
▁پیسری	-10.6493
▁برطانیہ	-10.6495
▁مروارد	-10.6498
▁پہم	-10.6504
▁بہشت	-10.6508
▁حیالء	-10.6508
رک	-10.6508
▁سچ	-10.651
▁نگیگ	-10.6517
▁فلسفہء	-10.6519
▁team	-10.6519
مہر	-10.652
▁بیتہ	-10.6524
▁ڈگارانی	-10.6524
ian	-10.6525
▁چکء	-10.6527
▁تش	-10.6528
▁17	-10.6528
▁کاردار	-10.6532
▁گلء	-10.6535
ine	-10.6535
رس	-10.6536
▁اڑے	-10.6536
▁بوھگء	-10.654
▁لیکھ	-10.654
▁near	-10.6546
▁جنازہ	-10.6549
▁She	-10.6553
▁زھگے	-10.6557
ok	-10.6558
▁شریک	-10.6563
▁دلپدردی	-10.6571
▁دربار	-10.6572
▁توجیل	-10.6574
as	-10.6575
▁لوزانک	-10.6576
▁دلانی	-10.6576
▁درائی	-10.6581
▁ترینت	-10.6581
▁گواز	-10.6594
cause	-10.6597
▁فرانسیسی	-10.6599
۔۔۔۔۔۔	-10.6599
▁ہواریں	-10.6607
▁محفوظ	-10.661
واب	-10.6611
▁گہتر	-10.6612
▁زوان	-10.6615
رگ	-10.6617
▁مرو	-10.6621
▁براتاں	-10.6624
▁۔ا	-10.6625
▁بچکندگ	-10.6632
▁شامل	-10.6633
▁back	-10.6638
▁تیزی	-10.6639
▁کارمستر	-10.6644
▁زھگاں	-10.6647
ده	-10.665
▁تراکے	-10.6655
▁بندیگیں	-10.6655
▁مہکم	-10.6656
▁پنجابی	-10.6656
▁جسٹس	-10.6657
کان	-10.6658
رز	-10.666
▁نوجوان	-10.6662
▁کسےء	-10.6663
▁دابیں	-10.6672
کوہ	-10.6672
▁ریکی	-10.6674
▁سماجی	-10.6677
▁بلبل	-10.6687
▁رمب	-10.6691
▁گروپ	-10.6693
▁عجب	-10.6693
▁باغ	-10.6696
▁ورنایاں	-10.6702
▁زوربیگواہ	-10.6703
▁گلی	-10.6704
▁اظہار	-10.6705
▁راستیء	-10.6708
▁قربانی	-10.6715
▁remain	-10.6721
▁پلے	-10.6725
▁سیہ	-10.6726
▁امد	-10.6726
▁may	-10.673
▁جہانء	-10.673
▁کلمتی	-10.6731
▁سیزدہ	-10.6732
▁محکم	-10.6734
▁قدرتی	-10.6736
▁کامریڈ	-10.6743
▁روئے	-10.6746
▁پدائی	-10.6748
▁پاشک	-10.6754
▁سمائی	-10.6755
▁جنگے	-10.6758
▁چھبار	-10.6759
ty	-10.676
▁گیٹ	-10.6763
ll	-10.6771
ائن	-10.6771
▁شوق	-10.6773
مرگ	-10.6776
▁ھژدہ	-10.6787
▁سریاب	-10.6789
▁شانگ	-10.6794
▁ہوتے	-10.6794
▁درکنگ	-10.6802
▁جلال	-10.6803
▁علمء	-10.6807
▁میٹر	-10.6808
▁جوڑشت	-10.6809
▁دھ	-10.6809
▁پیل	-10.6811
▁دردانی	-10.6812
زان	-10.6814
▁شیشگ	-10.6814
▁حلاپ	-10.6815
▁ھژدری	-10.6815
▁ست	-10.6816
حال	-10.6818
▁زوتاں	-10.6821
شما	-10.6825
▁مارکس	-10.6828
▁اپنا	-10.6828
▁سرگ	-10.683
▁کماندار	-10.6834
▁براھوئی	-10.6835
▁ساچان	-10.6835
▁انسانیت	-10.6835
▁پنجاپ	-10.6839
ئت	-10.684
▁مردگ	-10.6843
▁اکر	-10.6844
▁بنپد	-10.6849
▁کارندھاں	-10.6854
▁نبوتگ	-10.6855
▁پربند	-10.6856
تب	-10.6856
▁جامگ	-10.6863
ٹا	-10.6863
اوں	-10.6864
▁امباز	-10.6865
▁نقش	-10.6867
اردو	-10.6867
▁انڈیا	-10.6867
▁جاتی	-10.6867
▁early	-10.687
▁گیرت	-10.687
▁لنٹانی	-10.6871
▁ڈرون	-10.6873
▁دودا	-10.6876
▁At	-10.6876
▁could	-10.6879
▁زمانہ	-10.6881
▁حافظ	-10.6885
رانی	-10.689
▁ذہنی	-10.6893
▁شعرے	-10.6897
▁ھؤر	-10.6897
▁ماتیں	-10.6902
▁شهر	-10.6904
جر	-10.6905
▁میت	-10.6907
▁did	-10.691
▁درایگ	-10.691
▁براتانی	-10.691
▁گسء	-10.6911
اتنت	-10.6923
▁رھبندانی	-10.6924
▁سپاھی	-10.6931
▁یکجا	-10.6935
▁کرتہ	-10.6935
نبشتہ	-10.6938
▁منٹ	-10.6942
▁اخلاق	-10.6943
▁کئیت۔	-10.6943
▁سیکرٹری	-10.6944
▁پارٹیء	-10.6947
▁گرند	-10.6949
▁ورد	-10.6951
▁تکانسر	-10.6951
▁شتیں	-10.6954
▁شدت	-10.6957
▁پکیر	-10.6959
ملک	-10.696
▁شودگ	-10.6961
▁سمل	-10.6962
▁جور	-10.6965
▁جہگیر	-10.6966
▁ھا	-10.6967
▁یونان	-10.697
شاد	-10.6971
▁کتنت	-10.6979
ھن	-10.698
دوست	-10.6981
▁ہل	-10.6988
▁ھیالاں	-10.6989
▁صادق	-10.6991
▁کارڈ	-10.6999
▁پیداگ	-10.7001
▁توانائی	-10.7009
▁ڈبلیو	-10.7011
''	-10.7013
▁اگ	-10.702
▁جڑ	-10.7027
گشت	-10.7028
▁رۆچ	-10.7032
▁کارندھانی	-10.7033
▁توبہ	-10.7034
▁چمن	-10.7041
یکے	-10.7041
▁place	-10.7043
▁بزرگ	-10.7048
▁ارد	-10.705
▁زاہ	-10.7051
▁رنداں	-10.707
▁سلاھاں	-10.707
▁جنگانی	-10.7075
""	-10.7078
▁کمیونسٹ	-10.708
▁ڪ	-10.7081
▁شب	-10.7081
▁شبیر	-10.709
زہ	-10.7099
▁قیمت	-10.7104
▁11	-10.7106
▁ہب	-10.7109
ئن	-10.7111
▁ڈرامہ	-10.7114
▁دوریں	-10.7115
am	-10.7119
▁شنز	-10.7121
▁زہری	-10.7123
▁اهانی	-10.7126
▁ٹوھیں	-10.7127
▁گوریچانی	-10.7127
▁پرز	-10.7128
▁جنسی	-10.7128
مو	-10.7129
▁تتکگ	-10.7132
ہا	-10.7133
▁بکار	-10.7141
وخ	-10.7142
ٹو	-10.7143
▁f	-10.7145
▁along	-10.7146
▁ذریعہ	-10.7147
▁منانک	-10.7151
▁ہون	-10.7154
▁دیمرئی	-10.7155
ad	-10.7158
▁مبارکی	-10.7158
▁ہمیشی	-10.716
▁خلافا	-10.7161
▁گیں	-10.7162
▁حیدر	-10.7164
▁لانک	-10.7164
▁بلا	-10.7171
▁دلمراد	-10.7174
▁بیانیہ	-10.7175
▁جمالی	-10.7185
▁زانیں	-10.7188
▁گوانکو	-10.7198
▁کتابجاہ	-10.7202
▁ھلاسی	-10.7206
▁حاکمی	-10.7211
▁دابے	-10.7211
▁زبانی	-10.7212
ایانی	-10.7215
▁زن	-10.7217
▁سببا	-10.7218
▁شلوار	-10.722
▁گوازین	-10.722
▁نائب	-10.7224
▁دبئی	-10.7226
▁جہلی	-10.724
▁sai	-10.7241
▁ھمل	-10.7241
▁دوئینانی	-10.7242
▁حفیظ	-10.7242
▁سوشلزم	-10.7243
▁جنینانی	-10.7253
▁ارتگ	-10.7254
▁عاجز	-10.7257
▁دستے	-10.726
▁پرنٹ	-10.7262
وب	-10.7263
▁بول	-10.7264
▁سنگتی	-10.7267
ادی	-10.7271
▁بلال	-10.7271
▁زمینی	-10.7274
▁نوبت	-10.7276
ادا	-10.7277
▁قابل	-10.7279
▁لچھ	-10.7279
وف	-10.7279
▁May	-10.7281
▁تھانہ	-10.7282
▁بشکھندگ	-10.7283
▁معناء	-10.7292
چون	-10.7294
▁صبور	-10.7297
▁احتگ	-10.7298
▁مریت	-10.7304
▁واد	-10.7314
شاعر	-10.732
▁تاکے	-10.7321
▁است۔	-10.7328
▁گیجگ	-10.7328
▁سرپ	-10.7329
round	-10.733
▁ہیر	-10.7331
▁سازگ	-10.7333
▁مشکول	-10.7336
▁جھمنندیں	-10.7336
▁گورم	-10.7337
▁ننداں	-10.7341
▁دارگء	-10.7343
▁پات	-10.7344
▁di	-10.7347
▁جسمانی	-10.7351
یار	-10.7351
▁ونڈ	-10.7354
▁شاه	-10.7356
پور	-10.7356
لیں	-10.7357
▁زنڈیں	-10.7365
▁سہریں	-10.7368
▁گت	-10.7368
▁داشتگیں	-10.7368
ٹس	-10.7377
ve	-10.7377
یئ	-10.7383
▁ناشرکار	-10.7387
شیر	-10.7388
ance	-10.7391
▁رہادگ	-10.7392
▁نیتکگ	-10.7394
▁لبزء	-10.7395
▁ھست۔	-10.7399
ائل	-10.7399
▁برائی	-10.7404
▁ایمنیں	-10.7404
▁انت۔۔۔۔	-10.7404
▁گوستانک	-10.7405
▁زحم	-10.7406
▁وڈا	-10.7407
▁شئیرانی	-10.7408
▁ہواری	-10.7412
▁مردمانء	-10.7413
▁مپت	-10.7414
▁بحرین	-10.7418
▁رکھینگ	-10.7419
▁رج	-10.7422
▁کلم	-10.7427
▁نزینکی	-10.7427
▁حیثیت	-10.7429
▁ائیئ	-10.7434
▁کشاں	-10.7434
▁عوامی	-10.7441
ایا	-10.7445
▁ہدا	-10.7447
▁حنیف	-10.7454
مال	-10.7466
▁J	-10.7466
▁رنگی	-10.7471
▁اصلی	-10.7475
▁زرے	-10.7476
▁زانت۔	-10.7481
▁بزیں	-10.7483
▁رہی	-10.7486
▁نپس	-10.7487
▁نعمت	-10.7487
▁تچکی	-10.7488
▁How	-10.7494
بیل	-10.7496
لچہ	-10.7503
▁مبیت	-10.7503
▁کپتہ	-10.7505
▁ببنت	-10.7508
▁جیونی	-10.7511
▁کاگدے	-10.7512
▁بارگ	-10.7517
▁مدان	-10.7521
نگی	-10.7521
▁بیغ	-10.7522
▁اسکانی	-10.7523
▁بین	-10.7523
ایوک	-10.7524
۔ہمے	-10.7526
▁سبا	-10.7526
▁بروکیں	-10.7527
▁وسائل	-10.753
▁عالمی	-10.7531
▁خوش	-10.7538
▁لینگویج	-10.7539
▁ساریء	-10.754
▁پسء	-10.7545
ten	-10.7545
ne	-10.7546
▁کمزور	-10.755
▁کارگشاد	-10.7559
▁صلاح	-10.7562
▁War	-10.7562
▁ship	-10.7563
▁روت۔	-10.7563
▁مسعود	-10.7565
▁ندیم	-10.7567
▁گیت	-10.7568
▁درستانی	-10.7571
گند	-10.7574
▁انٹر	-10.7576
▁دروہ	-10.7579
گرد	-10.7587
▁داخل	-10.759
▁لولی	-10.7591
▁ہمنچو	-10.7593
▁مصر	-10.7597
▁ڈوک	-10.7598
▁صدیق	-10.7601
▁تاکاں	-10.7603
▁لیکگ	-10.7604
▁مرزا	-10.761
▁15	-10.762
▁افلاطون	-10.7625
▁واباں	-10.7627
la	-10.764
▁مرگانی	-10.764
▁سواری	-10.7641
▁De	-10.7642
▁جمع	-10.7646
▁پکرانی	-10.7647
▁ستکگ	-10.7649
▁داشتگ۔	-10.7657
▁سواد	-10.7658
▁پگار	-10.7659
▁یونٹ	-10.7664
▁نہاد	-10.767
▁تعالیٰ	-10.7671
▁کراچیء	-10.7672
▁جنس	-10.7675
وگ	-10.768
▁سبر	-10.7682
▁زگریں	-10.7688
▁اہت	-10.7688
▁راجاں	-10.7689
▁انگیر	-10.769
▁لوار	-10.769
▁مزدور	-10.7691
▁تاہیر	-10.7692
▁بہتام	-10.7692
گش	-10.7694
▁قربان	-10.7695
▁حکمت	-10.7696
▁ریڈ	-10.7698
▁راھشون	-10.7698
▁بنگیجی	-10.7699
▁لنٹاں	-10.77
▁پترگ	-10.7702
▁طلب	-10.7704
سل	-10.771
▁فورسز	-10.7714
▁day	-10.7715
▁قرن	-10.7718
▁باھوٹ	-10.772
▁یعقوب	-10.7725
▁ذ	-10.7727
▁ھزارانی	-10.7728
ئین	-10.773
▁کاپٹر	-10.7732
▁درج	-10.7733
توار	-10.7733
▁دس	-10.7736
▁ازت	-10.7736
▁عرض	-10.7737
شا	-10.7739
▁ازباب	-10.7742
▁مزل	-10.7743
▁بستارے	-10.7746
▁بانزل	-10.7749
▁بغیر	-10.7752
▁city	-10.7754
▁براہوئی	-10.7757
▁سرباز	-10.7758
▁توکء	-10.7758
▁شیرین	-10.7761
▁چئیرمین	-10.7762
▁زاتی	-10.7765
▁دئیں	-10.7765
sh	-10.7768
▁شہم	-10.7769
▁گرانی	-10.7772
▁وسیلگ	-10.7773
▁موسیٰ	-10.7777
▁same	-10.7783
▁شھیدانی	-10.7785
▁ٹرک	-10.7786
▁off	-10.7787
یری	-10.779
▁original	-10.7792
▁نکان	-10.7793
▁اک	-10.7794
ٹری	-10.7795
▁اسکی	-10.7797
▁مڑدم	-10.7797
▁کیف	-10.7798
دم	-10.78
▁گے	-10.7801
▁سنگین	-10.7803
درد	-10.7805
▁نئیکہ	-10.7806
▁million	-10.7814
▁مدینہ	-10.7814
ھال	-10.7825
▁فکرء	-10.7827
کٹ	-10.7829
▁پادا	-10.783
▁اوگام	-10.7839
▁South	-10.7845
▁دام	-10.7853
▁فیصل	-10.7854
▁ڈاہ	-10.7861
▁کتابی	-10.7861
▁کربان	-10.7866
زمین	-10.787
اگ	-10.7872
▁پہریز	-10.7874
▁نندیت	-10.7875
▁پٹء	-10.7881
▁ھاموش	-10.7881
▁اینکس	-10.7882
▁وابء	-10.7888
▁گاہ	-10.789
▁گھ	-10.7891
▁بیماری	-10.7892
▁پوک	-10.7904
▁دیار	-10.7906
▁شئیرء	-10.7909
▁زاہد	-10.7913
▁ارشکار	-10.7916
▁حشک	-10.7919
▁فرض	-10.7919
▁John	-10.7921
▁دمانء	-10.7926
▁people	-10.7928
▁سئیل	-10.793
▁گپتار	-10.7932
▁down	-10.7932
وکین	-10.7934
▁ڈالچار	-10.7938
▁لاچاری	-10.7939
▁راستے	-10.7941
▁بگندے	-10.7945
▁اہان	-10.7946
▁توکل	-10.7948
▁دارو	-10.7949
▁return	-10.7949
▁شکست	-10.795
▁یاتانی	-10.7952
ایک	-10.7957
▁کسه	-10.7962
▁any	-10.7963
▁انت۔بلے	-10.7965
ڑا	-10.7967
▁شرت	-10.7974
▁پجارگ	-10.7975
▁عثمان	-10.7979
▁محدود	-10.798
▁؂۔	-10.798
گندگ	-10.7981
▁پلیٹ	-10.7981
▁جہہ	-10.7984
▁پٹی	-10.799
▁دہک	-10.7999
▁North	-10.8001
▁بچکے	-10.8005
▁مکتب	-10.8009
▁کڑی	-10.801
▁جمہوریت	-10.8015
▁مادی	-10.8016
▁km	-10.8022
▁بدنء	-10.8023
▁رے	-10.8025
▁کھولاں	-10.8026
▁لینڈ	-10.8026
▁unti	-10.8028
نند	-10.8031
▁وارت۔	-10.8033
▁ٹیسٹ	-10.804
▁سربازی	-10.8041
▁پارلیمنٹ	-10.8043
▁چاریگ	-10.8047
بندی	-10.805
▁نفسیات	-10.8051
▁میانی	-10.8053
▁ہک	-10.8054
▁نوکر	-10.8055
▁کلچر	-10.8057
ھور	-10.806
▁force	-10.806
▁ھشتاد	-10.8061
▁اؤ	-10.8061
▁main	-10.8065
▁نزان	-10.8069
▁جلد	-10.8072
▁ڈیہی	-10.8073
▁پولنگ	-10.8074
▁زانتکاریں	-10.8075
▁اکرم	-10.8075
▁بانل	-10.8077
▁بلند	-10.8078
▁قیامت	-10.8078
▁مڑد	-10.8079
▁20	-10.8082
▁بوٹ	-10.8086
▁They	-10.8088
▁رپتگ	-10.8088
▁بستارء	-10.8089
▁خطرہ	-10.809
▁سینگار	-10.8091
▁سراں	-10.8097
▁دلمانگ	-10.8099
▁ظاھر	-10.81
▁اخری	-10.8102
▁طبقہ	-10.8103
▁لیبی	-10.8105
▁تھاری	-10.8114
وپ	-10.8116
▁Be	-10.8118
▁کوم	-10.8124
▁ٹیبل	-10.8124
▁پریشانی	-10.8131
▁ارزی	-10.8136
▁کستر	-10.8136
▁پجہ	-10.8137
▁ریپبلکن	-10.814
ern	-10.8141
اتک	-10.8144
ri	-10.8149
▁player	-10.8149
▁مگرب	-10.8152
▁نازء	-10.8154
▁پشتو	-10.8156
▁ھوت	-10.8159
▁جنجالاں	-10.8163
▁وانندگ	-10.8166
▁نبیسی	-10.8168
گین	-10.8168
▁عہدی	-10.8168
▁نازینک	-10.8174
▁name	-10.8175
بان	-10.8175
▁زاری	-10.8176
▁کنٹگ	-10.8179
▁پانک	-10.8179
▁زوراکیں	-10.8179
▁کاریں	-10.8182
▁هدا	-10.8185
▁برورد	-10.8187
▁میتگاں	-10.8193
▁واز	-10.8201
▁how	-10.8202
▁August	-10.8203
▁مدار	-10.8206
▁سگار	-10.8206
▁بلی	-10.8213
▁ششمی	-10.8214
▁ثبوت	-10.8214
▁ھاں	-10.8214
▁ہنکین	-10.8225
▁سوز	-10.8225
دیگ	-10.8226
▁پلک	-10.8227
▁بیسہ	-10.8228
▁لزت	-10.8229
ie	-10.823
▁داگ	-10.8233
▁دیگی	-10.824
▁شہداد	-10.8241
▁انچوشکہ	-10.8242
▁ہزاراں	-10.8249
▁شوانگ	-10.8252
▁پسگ	-10.8253
▁life	-10.826
▁میم	-10.8264
ant	-10.8269
▁الرحمن	-10.8272
▁گاڑیاں	-10.8275
▁ماہیگ	-10.8275
▁لحاظ	-10.828
غا	-10.8283
▁فرد	-10.8283
▁سبزل	-10.8286
▁ویب	-10.829
▁اییا	-10.829
▁سقراط	-10.8292
▁دلپروش	-10.8294
جاه	-10.8298
دری	-10.8302
▁لانگ	-10.8303
▁دعویٰ	-10.8311
x	-10.8313
▁ڈیم	-10.8313
اھانی	-10.8317
شاعری	-10.8317
وانی	-10.832
▁محکمہ	-10.8326
▁مثل	-10.8327
▁سادگیں	-10.8331
ێا	-10.8332
▁ایسا	-10.8336
▁پابند	-10.8338
▁هو	-10.8339
▁انٹرنیٹ	-10.8343
▁متحدہ	-10.8347
▁مہری	-10.8348
ہہ	-10.8351
▁راہے	-10.8352
▁کارا	-10.8353
▁رپت	-10.836
▁وداریگ	-10.8368
ir	-10.837
کرتگ	-10.8371
▁زوران	-10.8371
▁سالیں	-10.8374
▁رؤکیں	-10.8381
▁لگتمال	-10.8384
▁مغربی	-10.8386
▁ورگء	-10.8388
گیش	-10.839
▁کوه	-10.8391
▁ودان	-10.8395
▁قومانی	-10.8396
▁دراجی	-10.8397
▁دوسرے	-10.8398
▁دھکان	-10.8399
▁جتیں	-10.8401
ھچ	-10.8401
▁اثرات	-10.8401
▁start	-10.8406
▁گڑاں	-10.8406
▁جبر	-10.8407
▁عبدال	-10.8409
انسان	-10.8409
▁کپنت	-10.8411
▁تبء	-10.8413
ate	-10.8413
▁راھی	-10.8417
▁سراج	-10.8417
▁رش	-10.8418
?"	-10.8419
انچو	-10.8421
▁اہمیت	-10.8426
▁An	-10.8427
▁پرو	-10.8427
▁شپانک	-10.8432
▁پرست	-10.8433
▁دوئیناں	-10.8434
▁ھائی	-10.8438
▁ترگ	-10.844
بچار	-10.8441
▁شائرے	-10.8442
▁گوارگ	-10.8443
ندہ	-10.8446
▁do	-10.8447
▁اہیء	-10.845
لوٹ	-10.8452
▁لوٹوک	-10.8452
▁اشتگ	-10.8454
▁واہش	-10.8455
▁انہیں	-10.8455
▁کپتاں	-10.8456
▁support	-10.8458
▁زانتکارانی	-10.846
▁نگن	-10.846
▁شناسی	-10.846
ئر	-10.8461
▁ماڈل	-10.8461
▁ٹیکی	-10.8465
▁درکیت	-10.8467
▁برف	-10.8469
▁ترسینگ	-10.8472
▁گدارء	-10.8472
▁ھاس	-10.8478
▁جنزگ	-10.8485
▁ھمرائی	-10.8486
▁مڈیانی	-10.8487
▁ساه	-10.8495
▁گواتء	-10.8497
▁یکرندے	-10.8497
ical	-10.8498
▁پریشر	-10.8499
▁لوگوں	-10.85
▁ژ	-10.8502
سری	-10.8505
▁معنی	-10.8505
▁بوتاں۔	-10.851
▁رادگ	-10.851
▁درگتء	-10.8513
واہ	-10.8514
▁بندء	-10.8516
▁ناگت	-10.8516
▁اگوں	-10.8521
?’’	-10.8522
▁وھدا	-10.8525
▁برباد	-10.8529
▁کالونی	-10.8531
▁جھدکار	-10.8532
▁releas	-10.8537
▁بلاہیں	-10.8539
▁زوراکیاں	-10.854
▁رکین	-10.8543
▁سگگ	-10.8545
▁گوشے	-10.8548
▁ابدال	-10.8551
▁سانمند	-10.8552
▁فل	-10.8569
▁تکاں	-10.8573
▁دہکان	-10.8573
▁جہدے	-10.8576
▁شانی	-10.8576
▁زیکیں	-10.8585
▁پھریز	-10.8585
▁قلعہ	-10.8586
▁امبر	-10.8589
سٹر	-10.8589
▁سوراب	-10.8589
▁انہوں	-10.8589
▁٭٭	-10.8591
▁توم	-10.8593
▁شعراں	-10.8594
▁ملی	-10.8601
زار	-10.8601
▁میا	-10.8602
▁کشتگ۔	-10.8605
▁اسرء	-10.8607
nother	-10.8608
▁گومازی	-10.8611
▁نگار	-10.8614
▁ہفت	-10.8615
▁دمکاں	-10.8623
▁ڈگارء	-10.8627
▁گالے	-10.8627
ol	-10.8629
▁اوت	-10.8631
▁دوستدار	-10.8631
▁وه	-10.8631
▁بلائیں	-10.8638
▁اوداں	-10.8639
▁سیالی	-10.8642
▁بارگیں	-10.8646
▁شنک	-10.8647
▁مارشتے	-10.8649
▁دھک	-10.8655
▁رضی	-10.8659
▁دارایت	-10.8664
▁واریں	-10.8666
▁ڈب	-10.8667
▁ازمانکاں	-10.8673
▁انتظامیہ	-10.8684
▁تمامیں	-10.8684
تن	-10.8685
▁receiv	-10.8686
▁درگتا	-10.8688
▁فری	-10.8692
▁جهان	-10.8693
▁رژنا	-10.8695
▁ساہت	-10.8702
▁فٹ	-10.8706
▁یکدم	-10.8708
▁small	-10.8709
▁کشگء	-10.8709
▁ہد	-10.871
▁قسمت	-10.8711
▁ہاتھ	-10.8711
▁مستی	-10.8712
▁پگری	-10.8713
▁زانتء	-10.8713
▁بوؤکیں	-10.8718
▁پارک	-10.8718
▁بورڈ	-10.872
▁مھروان	-10.872
▁شاگرد	-10.8722
▁اوتاگ	-10.8726
▁مگسی	-10.8729
▁مزاحمتی	-10.8733
▁اناگت	-10.8749
▁ماہء	-10.8751
کسہ	-10.8762
▁Ap	-10.8762
▁درجگ	-10.8762
▁فاضلء	-10.8766
da	-10.8767
▁انگو	-10.8767
▁ترو	-10.8767
▁زو	-10.8767
اریں	-10.8768
▁لائبریری	-10.8768
▁نمب	-10.8776
▁شف	-10.8776
▁کرز	-10.8777
▁گشنت۔	-10.8778
▁شاپ	-10.8781
▁بندے	-10.8788
▁پترتگ	-10.8789
ھمیش	-10.8791
یوں	-10.8791
▁کونڈ	-10.8795
▁روگن	-10.8795
▁دئور	-10.8799
▁ھردوکیں	-10.8802
▁الف	-10.8802
▁زانگء	-10.8803
ہند	-10.8808
▁فر	-10.8809
فل	-10.8811
na	-10.8811
▁اسکور	-10.8812
▁قانود	-10.8815
▁بیں	-10.8816
▁زانئے	-10.8817
▁همراه	-10.8817
▁سبزی	-10.8818
اتاں	-10.8821
▁بلۆچی	-10.8821
▁وئیلے	-10.8823
mp	-10.8823
▁دزگٹ	-10.8828
▁ریفرنس	-10.8834
▁مولاداد	-10.8834
▁ھکومت	-10.8843
▁group	-10.8845
▁درء	-10.8848
▁کرنل	-10.8849
▁نگدی	-10.8853
▁احسان	-10.8856
▁حبرء	-10.8862
▁head	-10.8864
▁بلڈ	-10.8865
▁ادمء	-10.887
▁تیرانی	-10.8876
▁Septe	-10.8879
دین	-10.8882
▁point	-10.8884
زانگ	-10.8886
2	-10.8891
▁سیمسری	-10.8893
▁سروس	-10.8893
▁پلان	-10.8893
▁اینچک	-10.8893
▁مریم	-10.89
▁جبین	-10.8901
مزنیں	-10.8908
وچ	-10.8908
▁ط	-10.8909
▁ڈان	-10.8913
▁each	-10.8914
▁پہمگ	-10.8916
▁یدار	-10.8916
▁لبزے	-10.892
▁بامرد	-10.892
▁بیزار	-10.8921
▁سوبی	-10.8922
▁ڈا	-10.8923
▁Man	-10.8923
▁وبا	-10.8925
▁بہرء	-10.8926
▁شرم	-10.8927
▁عہدء	-10.8928
▁نبوت	-10.8938
▁ڈگری	-10.8942
▁ارٹ	-10.8942
▁گیشین	-10.8942
▁پریشی	-10.8944
▁باقی	-10.8944
▁نوٹ	-10.8945
▁توری	-10.8945
▁war	-10.8947
▁ملیر	-10.8948
▁باھو	-10.8955
▁علامت	-10.8955
▁دستان	-10.8956
▁افغان	-10.8959
▁German	-10.896
▁رھشونی	-10.896
▁صفحہ	-10.8961
▁روانکے	-10.8961
▁طارق	-10.8963
▁امبار	-10.8966
▁پیروک	-10.8968
▁وتئی	-10.8969
nd	-10.8978
کنت۔	-10.8979
▁line	-10.8981
کین	-10.8983
▁ھی	-10.8983
▁ویڈیو	-10.8984
▁ایشیا	-10.8984
▁تھی۔	-10.8985
▁وراں	-10.8986
▁کلکشان	-10.8989
▁شھ	-10.8991
واری	-10.8991
▁معنائی	-10.8994
▁ناک	-10.8995
باں	-10.9
▁البتہ	-10.9001
▁ڈاک	-10.9002
▁عطاء	-10.9007
اکی	-10.9008
▁قحطانی	-10.9008
▁دروریں	-10.9008
گام	-10.901
وڈ	-10.901
▁امبازاں	-10.9014
یج	-10.9017
▁اییئے	-10.9024
▁بشک	-10.9026
▁مہتل	-10.9026
▁World	-10.903
▁افیسر	-10.9032
لس	-10.9033
▁ائ	-10.9037
▁جسد	-10.9041
uch	-10.9042
وھدے	-10.9044
▁حدیث	-10.9045
▁مگ	-10.9048
▁پہلوان	-10.9049
▁بڑ	-10.9049
▁واجکار	-10.9058
▁لاھور	-10.9066
▁کرو	-10.9067
▁دێما	-10.9069
▁شموش	-10.9072
▁برتگ۔	-10.9072
▁ھزمت	-10.908
چل	-10.9081
▁جوہر	-10.9085
▁بحر	-10.9085
▁سدکی	-10.9088
▁توئے	-10.9089
▁چیلنج	-10.9091
▁گسر	-10.9097
ro	-10.9101
گڈا	-10.9105
▁ہسپتال	-10.9106
▁مزنی	-10.9109
▁واھشت	-10.911
▁مقامی	-10.9115
نیں	-10.9116
▁هزار	-10.9116
▁مہلوکء	-10.9117
▁سینٹر	-10.912
▁بوتگاں	-10.912
▁پورٹ	-10.9122
زا	-10.9127
▁زا	-10.9128
▁وارس	-10.9129
▁کوسٹ	-10.9131
▁شہباز	-10.9133
▁سنگے	-10.9135
راست	-10.9138
▁اسک	-10.9141
▁وکٹ	-10.9149
▁کبرستان	-10.915
▁سکا	-10.9151
▁ناگ	-10.9161
▁محراب	-10.9162
▁خراب	-10.9165
▁ھنچشیں	-10.9169
▁لوپ	-10.9169
▁کبھی	-10.9175
▁لاشانی	-10.9178
▁con	-10.9179
▁اداں	-10.9181
▁five	-10.9183
▁order	-10.9183
▁گوانزگ	-10.9184
▁بوتہ۔	-10.9184
▁بڑی	-10.9184
▁پلنگ	-10.9186
چن	-10.9188
جل	-10.9193
▁سربوت	-10.9198
▁single	-10.9198
▁تھام	-10.9199
▁چریشاں	-10.92
یان	-10.9202
▁ڈر	-10.9205
▁ہن	-10.9209
▁جنوزام	-10.921
▁سھیل	-10.9211
▁زانشتی	-10.9211
▁پیداوار	-10.9215
▁کانٹ	-10.9217
▁attack	-10.9218
▁دیکھ	-10.9219
▁سیاستء	-10.922
▁زون	-10.9221
منء	-10.9223
▁نشنل	-10.923
▁جاگھے	-10.9231
te	-10.9234
برو	-10.9235
▁گردش	-10.924
▁زندمانی	-10.9248
▁نبشت	-10.9253
▁result	-10.9253
▁ایجنسی	-10.9254
▁describ	-10.9259
▁بیچ	-10.926
▁قدم	-10.926
مے	-10.9261
▁دریاء	-10.9263
▁کون	-10.9264
▁will	-10.9266
ren	-10.9269
▁دمے	-10.9271
▁اپوزیشن	-10.9278
▁یت	-10.9281
شرگداری	-10.9281
صل	-10.9287
▁کندیل	-10.9289
مک	-10.9289
▁جزم	-10.929
▁پیغام	-10.9291
▁اژ	-10.9301
▁appear	-10.9301
▁ترسے	-10.9302
▁سبارگ	-10.9302
▁ترینگ	-10.9303
▁جے	-10.9306
▁ٹوپ	-10.9306
▁No	-10.9306
بال	-10.9313
▁یکشمبے	-10.9315
▁فٹبال	-10.9321
▁کافی	-10.9322
▁کمرہ	-10.9323
▁lead	-10.9323
▁اشرف	-10.9325
▁ساچی	-10.9326
▁اسن	-10.9327
▁حیالاں	-10.9328
▁ریاض	-10.9331
▁پجی	-10.9332
▁لاشاری	-10.9335
▁طرز	-10.9341
ائین	-10.9341
▁تنکیں	-10.935
مز	-10.9352
لٹ	-10.9356
?“	-10.9359
▁ماھی	-10.9363
▁کنائینتگ	-10.9365
▁تشدد	-10.9365
▁جستء	-10.9367
▁ابدل	-10.9368
▁کیلئے	-10.9369
▁کافر	-10.9376
▁ود	-10.938
▁تکنیکی	-10.9381
▁گارڈ	-10.9382
▁رات	-10.9384
▁ھوری	-10.9385
▁داتنت	-10.9388
▁نل	-10.9388
▁منارا	-10.9393
شعر	-10.9394
▁بنگپانی	-10.9398
▁سوری	-10.9399
▁مونجا	-10.94
جست	-10.9407
▁یقین	-10.9407
▁مکنت	-10.9408
▁جتک	-10.941
▁لالچ	-10.941
▁سہبء	-10.9415
▁گپتگ۔	-10.9417
▁نیاتکگ	-10.9421
▁شادہ	-10.9422
▁گلائیش	-10.9422
▁دوشمبے	-10.9425
▁ھورت	-10.9426
▁اگاہ	-10.9427
▁نگور	-10.9427
▁نکل	-10.9429
▁ٹیک	-10.9429
▁پیپلزپارٹی	-10.9434
▁کلاسیکل	-10.9436
▁بھشت	-10.9437
▁ہدایت	-10.9438
ڈن	-10.9441
▁دیمونی	-10.9442
▁عقلی	-10.9442
چوش	-10.9444
▁پیغمبر	-10.9449
▁اصول	-10.945
▁جننت	-10.9452
ter	-10.9454
ینی	-10.9455
▁ابیتک	-10.9457
ایے	-10.9458
تگ۔	-10.9462
▁نگر	-10.9463
▁جلوہ	-10.9469
▁نازل	-10.947
ھت	-10.947
▁گوہار	-10.9473
▁ورک	-10.9473
▁انجمن	-10.9475
▁باں۔	-10.9478
▁music	-10.948
▁تعلقداری	-10.948
▁زہ	-10.9483
▁ده	-10.9484
سنگ	-10.9485
▁ایردستیں	-10.9486
▁سردارانی	-10.9491
▁اند	-10.9491
▁پیس	-10.9492
▁بسمل	-10.9498
▁مردک	-10.9502
▁کری	-10.9502
▁کشاری	-10.9503
▁ھرنائی	-10.9507
▁سائیکل	-10.9509
▁گدارے	-10.951
▁ظہور	-10.951
شم	-10.9518
▁رکھ	-10.9518
▁میک	-10.9524
▁زہگاں	-10.953
▁مشن	-10.953
احمد	-10.9531
▁دالبندین	-10.9533
op	-10.9535
▁مانگیش	-10.9535
▁زباد	-10.9536
▁تحقیق	-10.9539
اراں	-10.9544
▁چھر	-10.9544
▁ایلیٹ	-10.9547
▁کردی	-10.9551
▁سین	-10.9553
▁گوشتی	-10.9554
▁وانیت	-10.9554
▁پشدر	-10.9558
▁ازمانء	-10.9561
▁سالروچ	-10.9561
▁consider	-10.9562
▁فرمان	-10.9563
▁تکانسری	-10.9564
وئیں	-10.9565
▁شوکت	-10.9566
▁گاماں	-10.9568
▁ملین	-10.9569
▁Dur	-10.9574
▁درنیام	-10.9576
▁گالرد	-10.9576
۔اگاں	-10.958
▁great	-10.958
▁ایجنٹ	-10.958
▁لہڑ	-10.9583
▁پگ	-10.9585
▁رزاق	-10.9588
تء	-10.9591
ٹل	-10.9591
▁گونگیں	-10.9595
▁یکروچے	-10.9597
▁June	-10.9605
▁تخت	-10.9608
▁ھیک	-10.9609
▁کابینہ	-10.9617
▁بولی	-10.962
گپت	-10.9623
▁شوھازگ	-10.9626
im	-10.9626
▁پولکار	-10.9628
ٹن	-10.963
▁لاشار	-10.963
▁رؤ	-10.9631
▁کیفیت	-10.9634
▁ٹپیگ	-10.964
▁ماتے	-10.9642
▁نفس	-10.9643
▁ادریس	-10.9643
▁کوہانی	-10.9644
ولی	-10.9645
▁کسہانی	-10.9651
▁رئیسی	-10.9655
▁بنڈ	-10.9656
▁کروس	-10.9661
▁کیلو	-10.9662
▁ترء	-10.9664
▁درنگ	-10.9665
▁کرکے	-10.9665
▁زاھد	-10.9672
▁ڈال	-10.968
▁شتہ	-10.9682
دپ	-10.9684
▁صالح	-10.9687
▁ھج	-10.9694
▁حبیب	-10.9698
▁اولاد	-10.9698
▁اسلوب	-10.97
▁بکنیں	-10.9708
▁لہتین	-10.971
▁انگ	-10.9713
▁سدانی	-10.9719
▁ھوشاپ	-10.972
▁دنیگہ	-10.9723
▁کمکے	-10.9727
▁کوشت	-10.9728
▁شاھ	-10.9734
ous	-10.9734
▁گوشدار	-10.9736
▁پژدرء	-10.974
▁ژند	-10.9741
▁مھتر	-10.9741
▁since	-10.9742
▁own	-10.9743
نج	-10.9745
▁اتیں۔	-10.9748
▁داروک	-10.9751
▁میرو	-10.9752
ill	-10.9753
▁مبارکیء	-10.9757
▁دلبر	-10.9758
▁زاکر	-10.9768
▁دوسری	-10.9776
▁ڈڈ	-10.9778
کراچی	-10.9781
▁طالب	-10.9781
▁بھٹو	-10.9782
ناک	-10.9784
!’’	-10.9785
▁شعبہ	-10.9786
▁چۆ	-10.9788
iz	-10.9789
اباد	-10.9795
▁اہد	-10.9795
▁کڈ	-10.9798
شتگ	-10.9799
کارے	-10.9802
تین	-10.981
▁سیکیورٹی	-10.9817
▁زانشی	-10.9819
▁نفسیاتی	-10.9822
▁هون	-10.9822
▁گرماگ	-10.9827
▁سردی	-10.9827
▁گردگ	-10.9829
▁گیابان	-10.983
▁ات۔من	-10.9831
▁پردگ	-10.9835
▁زردیں	-10.9836
کسے	-10.9837
▁دنیائے	-10.9838
سد	-10.984
▁انٹرنیشنل	-10.9842
▁نزام	-10.9844
▁ھسین	-10.9845
▁لوگبانک	-10.9846
▁جیسے	-10.9847
▁what	-10.9847
▁مسکرا	-10.9847
▁شئیرے	-10.9856
▁حدائی	-10.9857
▁نعیم	-10.986
▁سھت	-10.9861
▁زالم	-10.9865
▁برابری	-10.9872
▁رابطہ	-10.988
▁ازاب	-10.988
▁مش	-10.9883
▁مرکزی	-10.9883
▁States	-10.9884
ئیت	-10.989
▁اندگہ	-10.9891
▁دارگی	-10.9894
▁تیرے	-10.9896
I	-10.9896
▁نئی	-10.9897
▁لونجان	-10.99
▁بنیاتی	-10.99
▁استت	-10.9903
▁زندہ	-10.9904
▁بنء	-10.9905
species	-10.9906
▁ریسرچ	-10.9906
▁تنظیم	-10.9906
▁زوراور	-10.9908
▁جامی	-10.991
▁Le	-10.9913
ork	-10.9915
▁ٹکرے	-10.9921
▁تراکناک	-10.9924
▁انسانانی	-10.9927
▁بھارت	-10.9929
▁نبشتکار	-10.9931
rote	-10.9933
▁هور	-10.9934
▁ارزشتے	-10.9939
▁بیمار	-10.9939
▁درکپگ	-10.994
▁سنگینیں	-10.9941
▁گجر	-10.9941
▁دودء	-10.9941
▁تہرے	-10.9947
▁پریدہ	-10.9951
▁چرس	-10.9953
که	-10.9956
▁مسلمانانی	-10.9956
▁جنگا	-10.9959
▁محسوس	-10.9959
▁ملنگ	-10.9966
غی	-10.9967
▁خاطر	-10.9969
▁مھ	-10.9971
▁سنگانی	-10.9993
قی	-10.9998
بیر	-11.0003
▁شمس	-11.0003
▁مردی	-11.0004
▁گین	-11.0009
▁انت۔ائی	-11.0013
▁دیمترء	-11.0014
▁کیں	-11.0015
▁گلباگ	-11.0023
▁شوم	-11.0023
▁وزم	-11.0023
کجام	-11.0025
بری	-11.0027
▁............	-11.0027
▁باتن	-11.0034
▁ازمء	-11.0034
▁مولد	-11.0039
▁بودلئیر	-11.0043
▁ئت	-11.0044
▁روشن	-11.0045
▁گہتری	-11.0045
▁reach	-11.0047
▁اماں	-11.0047
▁پارلیمانی	-11.0048
ou	-11.0048
ac	-11.0049
▁کسب	-11.0053
ese	-11.0054
▁کنڈے	-11.0057
▁دگری	-11.006
▁مرکء	-11.0064
▁ناولٹ	-11.0064
▁ماحول	-11.0064
ونی	-11.007
▁گن	-11.0073
▁واقع	-11.0079
▁انفارمیشن	-11.0085
▁ہزدار	-11.0086
▁انت۔من	-11.0086
▁روایتی	-11.0089
▁پیسریگیں	-11.0092
▁نزیکء	-11.0092
▁لیا	-11.0094
▁شگر	-11.0095
▁دوستاں	-11.0095
▁famil	-11.0098
▁کوھلو	-11.0098
▁اتوں	-11.0102
▁راضی	-11.0102
▁رشتگ	-11.0106
▁سہیل	-11.0106
گدار	-11.0107
پک	-11.0107
▁بیت۔اے	-11.011
▁نسیب	-11.0111
▁won	-11.0113
▁سوچن	-11.0119
▁ڈبہ	-11.0122
C	-11.0123
▁system	-11.0124
▁نپاد	-11.0126
▁state	-11.0128
▁late	-11.0135
▁دارے	-11.0139
چوکہ	-11.014
ril	-11.0142
▁کپاں	-11.0144
تم	-11.0146
▁اقتصادی	-11.0148
ag	-11.0151
▁13	-11.0151
▁دونوں	-11.0154
فت	-11.0156
▁مکر	-11.0161
▁ساھتے	-11.0164
▁تپاسگ	-11.0165
▁گوئشان	-11.0169
▁بخت	-11.0171
os	-11.0171
▁کماشیں	-11.0172
▁جمبراں	-11.0172
▁اشکر	-11.0172
▁پجاہ	-11.0177
","","","","","	-11.0178
▁یکجاھی	-11.0189
ای	-11.019
▁تسلا	-11.019
▁فا	-11.019
▁انتظام	-11.0193
▁ظالم	-11.0194
▁موسمانی	-11.0195
▁دربر	-11.0196
▁کلک	-11.0196
▁مندر	-11.0198
▁دیں	-11.0205
▁نعرہ	-11.0208
▁تربیت	-11.021
▁ادمے	-11.0215
▁علاوہ	-11.0216
▁معیار	-11.0219
▁حالے	-11.0219
▁....	-11.0219
▁کوھاں	-11.0219
اسر	-11.022
ig	-11.022
▁اہل	-11.0221
▁گندء	-11.0228
▁ٹھ	-11.0229
▁دومیء	-11.023
▁سگی۔	-11.023
▁چوناہا	-11.0232
▁بندن	-11.0236
▁کیل	-11.0238
▁کانال	-11.0238
▁تہنائی	-11.0241
▁جنکاں	-11.0244
▁طوفان	-11.0244
شگ	-11.0245
▁شیک	-11.0245
▁دلاں	-11.0246
▁ارسطو	-11.0246
▁وشیانی	-11.0246
گنج	-11.025
▁ایسے	-11.0253
▁short	-11.0255
▁گپان	-11.0259
پاکستانی	-11.0261
نوک	-11.0265
▁last	-11.0269
▁شالء	-11.0269
▁پورسز	-11.0269
وال	-11.027
▁اصغر	-11.0273
▁علت	-11.0274
▁ابیتکی	-11.0275
ۆک	-11.0275
▁لیکہء	-11.0278
سار	-11.0278
▁due	-11.0279
▁جیڑھے	-11.028
▁کارروائی	-11.0281
▁Octo	-11.0281
▁دیواناں	-11.0282
▁جانے	-11.0283
▁معنہ	-11.0285
تل	-11.0286
▁شناس	-11.0289
ين	-11.0292
▁پیادگ	-11.0295
▁منصور	-11.03
دنیا	-11.0301
▁گپتہ	-11.0301
▁لڈگ	-11.0302
▁زیک	-11.0304
▁بلوٹ	-11.0307
▁ھورانی	-11.031
▁بلاہ	-11.031
▁داشت۔	-11.0311
▁دودانی	-11.0312
▁لگیت	-11.0313
▁water	-11.0313
▁جگ	-11.0314
▁جعفر	-11.0322
▁قید	-11.0325
▁بچاں	-11.033
▁بیہار	-11.0331
▁بوتن	-11.0333
▁رہبندانی	-11.0333
▁مضبوط	-11.0334
▁صوفی	-11.0335
▁Me	-11.0337
▁ہو۔	-11.0337
▁شپانی	-11.0339
▁اپہ	-11.0342
▁سپاہ	-11.035
▁ریز	-11.0352
▁تازی	-11.0355
▁چشین	-11.036
▁week	-11.0361
▁کلومیٹر	-11.0361
▁بنگ	-11.0363
مین	-11.0364
▁عبد	-11.0364
▁بنگالی	-11.0364
مروچی	-11.0368
▁چراگے	-11.0369
▁دھلی	-11.0372
▁عابدہ	-11.0372
لوگ	-11.0373
▁ملافاضل	-11.0373
▁حالتاک	-11.0374
▁کیا۔	-11.0378
▁ڈولا	-11.038
▁مراگشے	-11.0382
▁تمنی	-11.0382
▁حج	-11.0383
▁دنیایے	-11.0383
▁بلہ	-11.0384
▁رویہ	-11.0386
ئنت	-11.0387
▁لیکہانی	-11.0387
▁غلامی	-11.0389
▁راجدوستی	-11.0389
مزن	-11.039
▁کانودی	-11.0391
ha	-11.0394
▁روژنا	-11.0396
▁ات۔ائی	-11.0408
▁ہنداں	-11.0408
▁تاس	-11.0412
سوب	-11.0413
▁بوتنت۔	-11.0418
▁ھمنکس	-11.0422
▁پوریاگر	-11.0422
▁قریش	-11.0428
▁جنیناں	-11.0429
▁set	-11.043
▁ث	-11.0434
▁اسپتال	-11.0441
▁دارانی	-11.0443
▁کسانکیں	-11.0446
پشت	-11.0448
▁چراغ	-11.045
سور	-11.0454
▁کوریں	-11.0459
▁ایرانشھر	-11.046
▁پیشرد	-11.0461
▁ماھکان	-11.0464
▁خمار	-11.0464
▁ونگ	-11.047
▁رفیق	-11.0471
▁سرگرمی	-11.0473
ڈا	-11.0473
▁مانش	-11.0477
▁پسندیں	-11.0477
▁کبل	-11.0478
▁شه	-11.0478
▁ہمت	-11.0478
مگ	-11.0483
▁کلاگ	-11.0483
▁ششت	-11.0485
▁بدلء	-11.0487
▁غیرت	-11.0488
▁اوں۔	-11.0492
▁دوزہ	-11.0492
بات	-11.0496
▁ریکانی	-11.0497
w	-11.0498
▁ساچگ	-11.0501
▁دماگ	-11.0503
▁کیو	-11.0507
▁موضوع	-11.0509
گوات	-11.051
▁ھمبل	-11.0515
▁گندیم	-11.0516
▁رنگاں	-11.0518
▁رستگ۔	-11.0521
▁نبشتانکاں	-11.0522
▁ازل	-11.0523
▁شهید	-11.0525
دیر	-11.0526
ڑہ	-11.0533
▁دژمنی	-11.0535
▁ہمینچو	-11.0536
▁باث	-11.0536
▁ائر	-11.0537
▁حیا	-11.0537
▁تاکانی	-11.0537
▁ھیالء	-11.0539
▁تنکہ	-11.0543
▁اھم	-11.0545
▁جیڑاں	-11.0547
▁افریقہ	-11.0551
یدہ	-11.0552
ائرا	-11.0553
▁مقبول	-11.0553
▁خرچ	-11.0555
ادء	-11.0561
▁world	-11.0564
▁ترسء	-11.0567
وھد	-11.0568
▁راشن	-11.0569
▁نزء	-11.0571
▁سوچگ	-11.058
▁ماہناز	-11.058
ێت	-11.0581
▁کارستے	-11.0586
▁دورے	-11.0587
ver	-11.0587
▁پلگ	-11.0588
ھک	-11.0591
▁بالگرد	-11.0592
▁عبدالواحد	-11.0593
ازات	-11.0593
▁co	-11.0596
▁چپیں	-11.0597
عت	-11.0599
گون	-11.0601
▁سپاھیگ	-11.0602
▁واھگاں	-11.0602
▁افسوس	-11.0604
▁شناخت	-11.0606
▁سازیں	-11.0606
▁شلی	-11.0606
▁شیہک	-11.0607
▁ترتیب	-11.0608
گوادر	-11.0609
▁فطرت	-11.0609
▁درکپ	-11.061
کپ	-11.0617
وشی	-11.0618
گاہ	-11.0618
▁همک	-11.0618
▁تیابدپ	-11.0618
▁ھید	-11.0619
▁now	-11.0619
▁ترینتگ	-11.0622
▁گھتر	-11.0626
▁گڈاں	-11.0631
▁role	-11.0631
▁بیث	-11.0633
▁کپتگاں	-11.0634
▁ادارہاں	-11.0638
▁زہگانی	-11.0639
▁کیپ	-11.0641
▁اردوء	-11.0648
▁زورء	-11.065
کء	-11.065
▁وہدا	-11.065
▁پچار	-11.0652
کریم	-11.0652
وکی	-11.0653
▁یکےء	-11.0654
ازی	-11.0655
D	-11.0655
رین	-11.0658
▁ھوناں	-11.0663
درا	-11.0665
▁گشتن	-11.0668
▁پروجیکٹ	-11.0672
▁پبلی	-11.0672
▁یاتاں	-11.0673
▁گوری	-11.0675
▁تند	-11.0676
▁طریقہ	-11.0676
▁ردانکی	-11.0679
اڈ	-11.0679
▁take	-11.0679
▁رونت	-11.0687
۔ھمے	-11.0689
▁وعدہ	-11.0689
▁لوزانی	-11.0689
لبز	-11.0698
▁میانء	-11.0698
▁لائق	-11.0699
▁سامنے	-11.07
▁ھنی	-11.0701
▁تال	-11.0701
▁ڈولداری	-11.0706
▁جذبہ	-11.0707
▁ارشاد	-11.0709
▁ناکیں	-11.0709
اسی	-11.0712
▁پرش	-11.0712
▁سبق	-11.0714
▁خدمت	-11.0715
▁بیورغ	-11.0716
▁عوام	-11.0718
▁جاگہاں	-11.0722
▁پے	-11.0728
علم	-11.0729
▁کمکی	-11.0734
▁کسھے	-11.0735
▁لم	-11.0736
▁مٹیں	-11.0737
▁جدا	-11.0739
▁پنج	-11.0743
▁سیشن	-11.0745
▁جبران	-11.0745
▁پہلی	-11.075
▁درورے	-11.075
▁الہان	-11.0752
▁گسانی	-11.0753
▁بادشاه	-11.0756
▁ملازم	-11.076
▁گرپتار	-11.0763
▁چلیم	-11.0769
▁کرمان	-11.0773
▁چمشانکے	-11.0774
▁اوشتیت	-11.0778
▁child	-11.0782
▁بیگواه	-11.0783
ھل	-11.0787
▁شالا	-11.0787
▁نھاد	-11.079
▁نیاتک	-11.079
▁عجبیں	-11.0795
▁نشتہ	-11.0796
hose	-11.0797
▁قتل	-11.0801
▁تنت	-11.0801
▁گرگء	-11.0806
▁ستار	-11.0808
▁مشرقی	-11.0808
▁اتحاد	-11.0809
▁وہاں	-11.081
▁اسودگی	-11.081
▁کنائینت	-11.0811
▁کالم	-11.0812
▁دروازگء	-11.0815
▁home	-11.0817
▁مرگاں	-11.0818
▁مولم	-11.082
ی۔	-11.082
▁بہادری	-11.0822
▁شادی	-11.0822
▁گندان	-11.0823
▁ھروھد	-11.0826
▁ابراہیم	-11.0829
▁اتکاں	-11.0831
▁ماسی	-11.0832
فن	-11.0832
▁شومیں	-11.0837
om	-11.0837
داتگ	-11.0842
▁منتگیں	-11.0845
▁فیس	-11.0855
▁یہی	-11.0856
▁دینا	-11.0859
سرا	-11.0859
▁لد	-11.086
▁سوگہ	-11.0863
▁چونائیا	-11.0864
▁عراق	-11.0865
▁ریچگ	-11.0865
ang	-11.087
▁سکندر	-11.0872
▁صنف	-11.0872
▁دیوکیں	-11.0874
▁ساحل	-11.0876
▁الگ	-11.088
▁کوٹیء	-11.0882
v	-11.0882
▁پورہ	-11.0883
▁دێم	-11.0883
▁پیماز	-11.0884
▁بیگواھیانی	-11.0885
نیم	-11.0886
▁تھار	-11.0886
▁جتہ	-11.0888
▁direct	-11.0891
▁ھمینچو	-11.0894
▁ورلڈ	-11.0894
▁جائیکہ	-11.0895
▁نپر	-11.0899
▁بوہگء	-11.0902
▁بچے	-11.0902
▁ائین	-11.0905
▁لکیر	-11.0906
▁allow	-11.0908
▁نوشکے	-11.091
اخ	-11.091
▁شونکار	-11.0911
▁جاپان	-11.0914
▁شرک	-11.0915
مست	-11.0915
ts	-11.0917
▁ہاران	-11.0917
▁بودشت	-11.0918
کنان	-11.0919
▁درملک	-11.092
▁مستقبل	-11.0922
▁دوہمی	-11.0923
▁پانکجن	-11.0926
▁گاری	-11.0932
▁کتار	-11.0935
▁سادگ	-11.0935
▁روچا	-11.0936
▁اسکے	-11.0938
▁?‘‘	-11.094
▁اسکولء	-11.0943
▁ڈولداریں	-11.0945
▁ساھتاں	-11.095
▁To	-11.0951
▁مزاج	-11.0951
▁هیال	-11.0952
▁بیرگ	-11.0953
ابی	-11.0954
very	-11.0954
ہچ	-11.0955
کوئٹہ	-11.0957
▁ڈولء	-11.0958
▁جوزگ	-11.0959
▁قومے	-11.0961
▁سیف	-11.0964
▁تحفظ	-11.0964
▁میزائل	-11.0965
نیمگ	-11.0965
▁صورتء	-11.0968
▁شہار	-11.0968
▁لنک	-11.0969
▁جال	-11.0969
▁واقعات	-11.0971
▁ناگیگ	-11.0973
▁14	-11.0973
▁محل	-11.0973
▁تبد	-11.0977
▁معیشت	-11.0978
▁شاہی	-11.0979
▁پیشگال	-11.098
▁man	-11.0983
▁ایسی	-11.0983
▁جنکو	-11.0986
▁اتکہ	-11.0987
جنین	-11.0989
▁death	-11.0993
▁مرکز	-11.0995
بدل	-11.0997
▁مدد	-11.0997
▁ڈائریکٹر	-11.1
جوڑ	-11.1
▁مالوم	-11.1003
.“	-11.1004
▁جاتے	-11.1006
▁مچکدگ	-11.1009
▁زوراں	-11.1011
▁اؤٹ	-11.1013
کیت	-11.1017
اہی	-11.1018
کجا	-11.102
▁کنڈگ	-11.1021
▁پہنچ	-11.1022
▁ھندء	-11.1026
▁شونگال	-11.1026
▁نما	-11.1029
▁درساں	-11.103
▁وابی	-11.1035
▁صائمہ	-11.1038
▁وهدا	-11.1045
ہانی	-11.1047
▁بالگتر	-11.1049
ارے	-11.105
▁انچۆ	-11.105
▁پاداتک	-11.1055
▁شرگداریء	-11.1059
▁عنقا	-11.1064
▁پائپ	-11.1065
ھدا	-11.1066
▁اجتماعی	-11.1066
▁نگاری	-11.1068
▁bas	-11.1073
▁ھمساھگ	-11.1075
▁ہژدری	-11.1078
▁کبول	-11.108
▁روتگ	-11.108
▁داخلہ	-11.108
▁جاگہء	-11.1081
▁کاران	-11.1082
▁بیاریت	-11.1085
▁گاڈی	-11.1087
▁اما	-11.1088
▁نگیگیں	-11.1096
▁سوبء	-11.1097
کدی	-11.1097
▁لیلو	-11.1097
▁تاپ	-11.1098
چگ	-11.1099
▁پرچی	-11.1101
▁سینیٹ	-11.1102
▁ھپتگے	-11.1103
▁پجا	-11.1105
▁مرا	-11.1106
▁عیسوی	-11.1107
▁ڈیپارٹمنٹ	-11.1107
▁ھیلی	-11.1111
▁مضمون	-11.1112
یف	-11.1114
▁بادشاہی	-11.1117
▁Janu	-11.1121
▁قریب	-11.1121
me	-11.1122
▁ختم	-11.1123
▁بوگا	-11.1123
▁سویڈن	-11.1123
▁ملار	-11.1128
▁ھاش	-11.1133
ness	-11.1134
▁six	-11.1134
▁میاریگ	-11.1135
▁included	-11.1138
▁دینت۔	-11.1141
▁خر	-11.1143
▁چدء	-11.1143
▁پیسرء	-11.1144
▁وپس	-11.1144
▁مڑا	-11.1144
▁پھازگ	-11.1144
▁درے	-11.1147
▁نرمیں	-11.1147
▁شھم	-11.1148
▁کردء	-11.1149
▁انشپی	-11.115
▁ٹیکس	-11.1151
▁کوپ	-11.1153
▁لگا	-11.1157
▁30	-11.116
▁دئیگا	-11.1163
▁امب	-11.1163
▁storm	-11.1165
▁سدل	-11.1172
▁نوری	-11.1172
▁پجارینگ	-11.1172
▁جادو	-11.1172
▁Ma	-11.1173
▁اهاں	-11.1174
▁پرما	-11.1176
▁غماں	-11.1177
▁تولگ	-11.1178
▁بیگہ	-11.1178
▁ایوان	-11.118
▁پانگ	-11.1182
▁جہمنند	-11.1183
▁سپریم	-11.1183
▁خلیج	-11.1184
▁ھیالے	-11.1186
▁چتگ	-11.1187
منٹ	-11.1192
▁Jul	-11.1193
بوگ	-11.1195
ab	-11.1196
▁اشان	-11.1197
▁زرت۔	-11.1198
يں	-11.1198
زو	-11.1203
▁زامات	-11.1204
▁تتک	-11.1204
▁left	-11.1207
▁اندوہ	-11.1208
اھی	-11.1213
▁شیرکنیں	-11.1217
▁هک	-11.122
▁نبشتانکانی	-11.1221
▁شوہازگ	-11.1232
▁گورکی	-11.1233
▁سفرء	-11.1235
▁زانتکاراں	-11.1236
▁England	-11.1236
▁video	-11.1236
▁government	-11.1237
گوشگ	-11.1237
▁نوروز	-11.1239
▁منیت	-11.1244
▁۔ھمیش	-11.1247
▁افسانہ	-11.1248
سم	-11.1249
ally	-11.1249
▁Nove	-11.1251
نور	-11.1252
▁پھازگی	-11.1253
ge	-11.1255
▁ملٹ	-11.1255
ow	-11.1256
▁سمیر	-11.1258
▁کڈک	-11.1259
▁بائی	-11.1259
▁خاموش	-11.1264
▁بابو	-11.1265
▁نیاز	-11.1266
▁تعریف	-11.1269
▁نقل	-11.1276
▁بیتگین	-11.1283
▁کسہاں	-11.1285
▁زرداری	-11.1287
▁سربوتگ	-11.1287
▁جاورھال	-11.1288
▁شموشگ	-11.1288
▁ھرابی	-11.1289
دیوان	-11.129
▁پرا	-11.1295
▁ترمپے	-11.1296
▁درہیں	-11.1297
▁For	-11.1298
▁ملگ	-11.1299
ائز	-11.1301
جم	-11.1302
▁نیستی	-11.1309
ودی	-11.1309
▁جئیند	-11.1309
▁کاسگ	-11.131
▁position	-11.1312
سیمی	-11.1313
ting	-11.1313
پاکستان	-11.1314
▁وغیرہ	-11.1315
▁صباء	-11.132
▁ھکل	-11.1321
اه	-11.1323
انکہ	-11.1323
▁جود	-11.1323
▁بچاریں	-11.1324
نیست	-11.1325
ونک	-11.1327
▁نین	-11.133
▁عن	-11.133
▁اوارجنی	-11.1331
▁رون	-11.1333
▁کشتگیں	-11.1336
امی	-11.1338
▁الفاظ	-11.1342
▁رچگ	-11.1342
▁موش	-11.1344
▁کارندھے	-11.1345
▁اسانی	-11.1347
▁کڑ	-11.1348
مپ	-11.1351
▁پہلو	-11.1352
▁ھمراھاں	-11.1352
▁شیوار	-11.1353
▁ماریت	-11.1356
▁تھاریں	-11.1357
▁بھائی	-11.1359
▁کورونا	-11.1359
▁مہار	-11.1364
▁تجربگ	-11.1365
▁جمہوری	-11.1369
▁March	-11.1369
▁اجب	-11.1372
▁فورس	-11.1374
ماہتاک	-11.1378
▁باہوٹ	-11.1379
▁ملتان	-11.1381
▁سسی	-11.1382
▁attempt	-11.1383
▁رشتہ	-11.1383
▁درپ	-11.1387
▁بڑا	-11.139
▁بڑے	-11.1393
▁موقع	-11.1395
▁برء	-11.1396
▁عکسے	-11.1398
دیں	-11.1401
وہدے	-11.1402
▁جانء	-11.1408
▁top	-11.1408
▁اش۔	-11.1409
▁پروری	-11.1411
▁سلاح	-11.1414
▁کیمرہ	-11.1414
▁بیس	-11.1414
▁گندگا	-11.1415
پچ	-11.1415
▁اژدری	-11.1417
ship	-11.1418
تاریخ	-11.142
▁نزیر	-11.1421
▁یوک	-11.1422
سان	-11.1422
▁کران	-11.1422
▁نمونگ	-11.1424
سنگت	-11.1427
▁character	-11.1428
▁رول	-11.143
ted	-11.1436
شنگ	-11.1438
▁perform	-11.1442
▁general	-11.1442
▁کاریت۔	-11.1443
▁قانونی	-11.1444
▁ھمیشانی	-11.1452
▁قال	-11.1453
▁چاروک	-11.146
▁دشتار	-11.146
▁یگ	-11.1462
ئگا	-11.1463
▁پجاروکی	-11.1463
▁ارسانی	-11.1466
▁حرام	-11.1467
▁دریگتیں	-11.1469
▁بڑھ	-11.1471
▁سحر	-11.1473
▁ارداد	-11.1473
▁مکمل	-11.1473
گاه	-11.1478
ta	-11.148
▁حرف	-11.1481
▁راسک	-11.1482
باریں	-11.1484
▁third	-11.1486
▁ملاقات	-11.1486
▁just	-11.1487
▁include	-11.1489
▁سروکاں	-11.1498
▁گراناز	-11.15
▁ایڈوکیٹ	-11.1501
▁کب	-11.1501
▁بیڑبرتگ	-11.1502
▁اقوام	-11.1502
▁open	-11.1509
اٹ	-11.1513
▁زهگ	-11.1517
▁تنا	-11.1517
▁سستگیں	-11.1522
▁سرچمگ	-11.1525
▁men	-11.1526
no	-11.1527
▁گداں	-11.1531
گران	-11.1533
▁سکھت	-11.1535
▁دھا	-11.1536
▁نابود	-11.1538
▁جمب	-11.154
کنوکیں	-11.1544
▁اسرار	-11.1544
▁II	-11.1546
▁go	-11.1546
ہیں	-11.1551
▁برنج	-11.1556
▁دھر	-11.1556
▁ھمگرنچیں	-11.1557
▁زنڈ	-11.1558
▁تکلیف	-11.1562
▁لاف	-11.1563
▁جانب	-11.1566
▁الکاپیں	-11.1571
▁His	-11.1576
▁روانی	-11.1576
▁سارتر	-11.1579
▁زمیندار	-11.1579
▁سرپدیں	-11.158
▁release	-11.1581
▁عمرء	-11.1582
▁مھراب	-11.1583
▁سرداری	-11.1587
لاں	-11.1589
▁کشکء	-11.1591
▁میانجی	-11.1592
▁وپسگ	-11.1593
نان	-11.1593
▁پیسرگیں	-11.1595
خت	-11.1596
▁مھلوکء	-11.1597
▁اھان	-11.1598
ci	-11.1599
▁ھاموشی	-11.1599
▁االله	-11.1601
▁games	-11.1601
▁اہمیں	-11.1603
ot	-11.1603
وسی	-11.1605
▁قمبرانی	-11.1606
ence	-11.1606
▁ستکگیں	-11.1606
▁school	-11.1606
▁design	-11.1609
▁گزار	-11.161
یلی	-11.1611
گن	-11.1611
▁ھرچیز	-11.1613
▁شعوری	-11.1615
▁ناسر	-11.1619
▁کہتے	-11.1619
▁درہ	-11.162
مع	-11.1621
▁previous	-11.1621
▁become	-11.1621
▁بروبر	-11.1621
عمر	-11.1624
▁چکا	-11.1624
▁شاھین	-11.1625
▁ہڈ	-11.1626
۔ائی	-11.1626
▁یاسر	-11.1627
▁انگریزانی	-11.1629
ریچ	-11.1629
یلہ	-11.1632
▁ثواب	-11.1637
ell	-11.164
▁سکتا	-11.1642
▁شہرے	-11.1642
▁گواتے	-11.1643
▁per	-11.1644
▁ازیز	-11.1646
جگ	-11.1646
▁پھناتاں	-11.1647
▁مهلوک	-11.1647
▁چیخوف	-11.165
▁لگور	-11.1651
▁south	-11.1651
▁pre	-11.1651
▁north	-11.1652
▁ہساب	-11.166
▁تگرد	-11.166
ism	-11.1665
▁گڈگ	-11.1666
▁برواں	-11.1666
▁اڑاند	-11.167
▁best	-11.1671
▁زندانی	-11.1672
▁ہمود	-11.1673
▁موسمی	-11.1673
▁ایریں	-11.1679
▁period	-11.1682
▁مستاگ	-11.1682
▁یڪ	-11.1688
▁جگہ	-11.1688
▁ملام	-11.1689
▁یونس	-11.169
ated	-11.1694
▁مخ	-11.1697
▁تحریر	-11.17
▁بستہ	-11.1703
▁تحصیلدار	-11.1705
▁ماندارگ	-11.1712
▁وزارت	-11.1713
▁چارگا	-11.1715
▁سلطنت	-11.1715
▁پلی	-11.1717
▁رسینت	-11.172
کسی	-11.1724
▁اێر	-11.1729
▁مڑاہ	-11.173
▁بارت۔	-11.1731
▁ہمارے	-11.1731
▁نتیجہ	-11.1731
be	-11.1735
جنک	-11.1736
▁لشکرکشی	-11.1736
▁برس	-11.1739
▁چدا	-11.1741
▁منیرء	-11.1742
▁عملء	-11.1742
▁جنوکیں	-11.1746
▁شیرکنی	-11.1749
▁Ra	-11.175
▁ٹکرء	-11.1754
▁کزا	-11.1757
▁جمپ	-11.1757
▁دلجمیں	-11.1757
▁ہردو	-11.1761
شریں	-11.1762
▁ترسناکیں	-11.1763
▁رومن	-11.1767
▁گہہ	-11.177
▁ھول	-11.1771
چین	-11.1774
▁الکاپ	-11.1776
▁دکی	-11.1777
▁زانوگر	-11.1779
▁وانشت	-11.1785
اط	-11.1785
▁دویں	-11.1785
حسن	-11.1788
ھیال	-11.1788
▁سلاھانی	-11.1789
▁local	-11.1789
▁اھوالکارانی	-11.179
اصل	-11.1791
▁سوک	-11.1792
▁کیشنز	-11.1794
▁باند	-11.1796
▁پریاتاں	-11.1797
▁درو	-11.1799
▁ٹاپ	-11.1802
▁سروکانی	-11.1804
pe	-11.1805
▁گڈسرء	-11.1807
▁شاھر	-11.1808
▁Ha	-11.1815
▁فراہم	-11.182
▁درویش	-11.1821
ti	-11.1823
▁پہریزگ	-11.1825
▁اخبار	-11.1825
▁اوشتاتگیں	-11.1826
P	-11.1826
▁ہاک	-11.1831
الم	-11.1831
▁ڈولے	-11.1831
[	-11.1831
▁Dece	-11.1836
▁اث	-11.1836
اسک	-11.1836
▁حاص	-11.1841
▁اسٹیج	-11.1841
▁ارزانیں	-11.1843
▁حاضر	-11.1845
مانی	-11.1845
وج	-11.1846
▁ہاتر	-11.1847
چیزے	-11.1848
▁بندیک	-11.185
▁major	-11.1852
▁شانتل	-11.1855
▁مطالعہ	-11.1856
▁کرے	-11.1858
▁اغا	-11.1858
N	-11.1861
by	-11.1862
▁سیدء	-11.1868
▁مانگ	-11.1869
▁پبلک	-11.1873
▁کورس	-11.1873
▁ایدگرانی	-11.188
مد	-11.1883
▁لطیف	-11.1888
5	-11.1889
▁شاریء	-11.1889
▁کرتیں	-11.1896
▁افراد	-11.1897
▁سرہال	-11.1897
کئے	-11.19
▁گمیگ	-11.19
▁چری	-11.1901
▁se	-11.1904
▁ساوڑ	-11.1905
▁کمزوری	-11.1905
ارت	-11.1908
▁بحت	-11.1909
▁وتاک	-11.191
▁ناجوڑی	-11.191
▁گریشگ	-11.1913
ہار	-11.1914
▁develop	-11.1918
▁زیند	-11.1919
ایی	-11.1919
زن	-11.1921
▁باھند	-11.1925
▁book	-11.1925
▁واجہی	-11.1926
▁رھم	-11.1926
بگ	-11.1932
▁مخلوق	-11.1932
▁کؤر	-11.1935
▁title	-11.1935
چشکہ	-11.1941
▁ترسگ	-11.1941
em	-11.1941
▁وڑےء	-11.1942
۔پدا	-11.1946
فارسی	-11.1946
▁سرور	-11.1949
▁ہمراہیء	-11.1952
اتے	-11.196
▁باسکے	-11.1961
▁بێ	-11.1967
میان	-11.1971
▁River	-11.1975
▁شاتکامی	-11.1975
▁سجدہ	-11.1976
کیچ	-11.1977
گیری	-11.1978
▁وسیم	-11.1985
▁By	-11.199
▁list	-11.1991
▁دامگ	-11.1994
▁بدواہ	-11.1999
شل	-11.2002
▁شیدا	-11.2005
▁پیلوی	-11.2005
▁جتاھیں	-11.2006
▁جوریں	-11.201
▁دہمی	-11.201
ئے۔	-11.2015
▁انو	-11.2015
یث	-11.2015
▁کدہ	-11.2017
▁ڪت	-11.2018
▁لوچ	-11.2022
▁پیداور	-11.2022
▁بیغ۔	-11.2023
▁چاری	-11.2026
▁تھنائی	-11.2028
▁ملامتی	-11.2029
▁buil	-11.2032
▁ي	-11.2033
▁پنڈوک	-11.2036
▁ضرور	-11.2036
▁روبرکتی	-11.2037
▁سیکریٹری	-11.2037
▁داس	-11.2039
گس	-11.2041
▁رھبندے	-11.2042
▁pass	-11.2044
دز	-11.2045
▁پدردی	-11.2048
▁اسء	-11.2049
▁continu	-11.2049
پمیشا	-11.205
▁گلا	-11.2052
▁ادمانی	-11.2054
▁City	-11.2055
▁فدائی	-11.2057
▁رحمان	-11.2064
▁وھدئے	-11.2067
▁نفر	-11.2067
▁ھیالداری	-11.2068
▁مٹی	-11.2068
▁مغل	-11.2068
▁لوغ	-11.207
▁سلکاری	-11.207
▁turn	-11.2073
▁power	-11.2074
▁حاجت	-11.2075
▁امکان	-11.2077
▁ھبرء	-11.2079
▁حیالے	-11.2082
▁شریدار	-11.2083
شیا	-11.2088
▁Co	-11.209
▁دومیگ	-11.2092
▁سواس	-11.2092
▁واکیات	-11.2094
▁موٹل	-11.2095
بک	-11.2096
▁شہیدانی	-11.2099
▁سخت	-11.2099
▁شیرانی	-11.21
▁جۆڑ	-11.2101
▁تھیوری	-11.2102
▁دکاندار	-11.2104
رات	-11.2106
▁چاگی	-11.2108
▁صنعتی	-11.211
▁پرنگی	-11.2111
حق	-11.2112
▁شوکیں	-11.2113
▁گولہ	-11.2114
▁باوری	-11.2115
▁ٹا	-11.2121
▁کندگے	-11.2124
▁ٹور	-11.2127
▁رپتار	-11.2131
▁بکن۔	-11.2131
▁شھراں	-11.2132
▁دربرتگ	-11.2136
وے	-11.2137
▁لٹک	-11.2139
▁وڈھ	-11.2139
▁رستر	-11.2139
▁نشتگاں	-11.214
▁یکمی	-11.2142
سب	-11.2143
to	-11.2148
▁باقاعدہ	-11.2148
▁برتانیہ	-11.2149
▁حدے	-11.2149
▁بچکندے	-11.2149
باد	-11.215
▁میتگانی	-11.2151
▁حشکیں	-11.2156
‘‘,’’	-11.2157
▁گیا۔	-11.2157
▁All	-11.2158
ذا	-11.2158
▁بیگل	-11.2159
▁ٹیچر	-11.2159
نچ	-11.216
دوئیں	-11.2164
▁Ka	-11.2164
▁نیو	-11.2166
▁علاقے	-11.2168
▁راھبندانی	-11.2169
▁رودراتک	-11.2173
▁اھی	-11.2177
جھ	-11.218
▁دراھگ	-11.2181
مری	-11.2182
▁publish	-11.2183
▁دمگے	-11.2186
▁تباہی	-11.2187
▁پث	-11.2188
▁سوداگر	-11.2188
▁پیرزال	-11.2189
sa	-11.2194
▁month	-11.2196
▁When	-11.2196
▁لیاقت	-11.2196
▁کنین	-11.2196
▁کلان	-11.2199
▁سیائیں	-11.22
▁بلین	-11.2205
mo	-11.2205
▁زمانگاں	-11.2206
▁کلیت	-11.2207
▁عیسائی	-11.2208
▁سروز	-11.2211
▁version	-11.2212
زگ	-11.2212
▁!!	-11.2216
یچ	-11.2218
نڈی	-11.2219
ندگ	-11.222
▁بابل	-11.2221
▁اٹھ	-11.2222
وانگ	-11.2223
▁make	-11.2224
▁شاھد	-11.2227
چاگردی	-11.2228
▁پرسی	-11.223
▁حالکار	-11.2231
▁چانگ	-11.2232
▁There	-11.2235
▁ات۔اے	-11.2235
اڑ	-11.2236
ارش	-11.2237
▁رچ	-11.2238
▁اختلاف	-11.2238
▁اوستا	-11.2242
▁اعتبار	-11.2244
▁ٹیل	-11.2245
▁سندی	-11.2246
▁ڈنگ	-11.2247
▁مارے	-11.2247
▁گوشتن	-11.2248
اگر	-11.2249
▁fire	-11.2249
▁منطق	-11.2252
▁بلوچوں	-11.2254
▁برت۔	-11.2256
▁ممبر	-11.2256
▁مرچیگ	-11.2258
▁اومر	-11.2264
▁نار	-11.2267
▁گولی	-11.2267
زیر	-11.2269
کارانی	-11.227
▁Mo	-11.227
▁۔چہ	-11.2273
هے	-11.2276
شتہ	-11.2276
▁جاورال	-11.2279
▁شکایت	-11.228
▁ودارء	-11.2281
▁کاریز	-11.2281
بیگ	-11.2287
غ۔	-11.2287
▁کمانڈر	-11.2292
▁باوجود	-11.2293
▁National	-11.2293
▁پھنات	-11.2294
A	-11.2296
▁کانون	-11.2296
رام	-11.2303
▁dis	-11.2303
▁جاھمنند	-11.2305
▁ابی	-11.2307
پو	-11.2309
▁بوتیں۔	-11.231
▁کدیر	-11.2312
▁گالریچ	-11.2313
چیا	-11.2314
▁برادری	-11.2319
▁پیتی	-11.232
▁بارکھان	-11.2325
▁ھاوند	-11.2325
▁کچل	-11.2325
▁public	-11.2327
co	-11.2329
min	-11.2329
▁راہی	-11.233
▁کلہ	-11.2331
▁ھبکہ	-11.2331
▁گا۔	-11.2337
▁ترونگل	-11.234
ره	-11.2341
▁بوئگء	-11.2344
▁ہواں	-11.2347
▁دربرجاہ	-11.2348
▁دوسد	-11.2349
نگا	-11.235
▁موسی	-11.2351
▁کنر	-11.2353
▁تاوانے	-11.2355
▁2009	-11.2357
▁کشا	-11.2359
اتکگ	-11.2359
▁اپسوز	-11.236
▁زرکاری	-11.236
▁مدرسہ	-11.2361
▁ئنت	-11.2363
▁دکانے	-11.2364
▁ھن	-11.2369
▁اھدی	-11.2369
▁2010	-11.2374
▁بیلہ	-11.2374
▁رویں	-11.2376
▁پشین	-11.2378
3	-11.2379
▁کدرت	-11.2381
▁ناکام	-11.2381
▁بلوچانء	-11.2381
▁زم	-11.2382
▁مہم	-11.2385
▁دیست۔	-11.2385
▁طاہر	-11.239
▁واشک	-11.239
▁شنگکار	-11.2391
▁داؤد	-11.2393
▁زیم	-11.2394
▁گامے	-11.2394
▁ہرچیز	-11.2397
▁چارگی	-11.2398
▁درصد	-11.2398
▁side	-11.24
▁گلاس	-11.24
▁پنڈ	-11.2402
▁کلمکار	-11.2403
▁بوھان	-11.2404
▁دژمناں	-11.2405
▁تجارت	-11.2405
▁دفتر	-11.2411
▁چنڈے	-11.2412
▁ھمت	-11.2413
یٰ	-11.2414
▁25	-11.2416
▁۔بلئے	-11.2417
▁جانا	-11.2419
▁کدر	-11.242
▁2008	-11.2422
▁sp	-11.2423
▁واکاں	-11.2423
▁مرغ	-11.2425
روگ	-11.2425
▁جلسہ	-11.2426
▁دیکھا	-11.2426
▁بہہ	-11.2426
▁جما	-11.2429
▁پنجگ	-11.2431
ak	-11.2434
▁پرتو	-11.2438
▁کال	-11.2441
▁گشیں	-11.2443
▁مزاری	-11.2444
▁گالی	-11.2449
▁ٹٹ	-11.245
▁تنگی	-11.2451
ابید	-11.2452
▁روگا	-11.2452
▁مشکلیں	-11.2454
▁جہاندپتر	-11.2455
▁رنگانی	-11.2457
▁way	-11.2459
ley	-11.2463
گیشتر	-11.2466
▁ارجان	-11.2468
▁ابدمان	-11.2469
▁میرا	-11.2469
▁جرنیل	-11.2472
رت	-11.2472
▁اسرے	-11.2475
بکن	-11.2478
▁even	-11.248
ions	-11.248
▁ماری	-11.2484
▁لوڈ	-11.2485
▁بندان	-11.2486
▁v	-11.2487
▁رازی	-11.249
▁بم	-11.2492
ینان	-11.2493
▁نیکراہ	-11.2495
▁زراب	-11.2497
▁دستور	-11.25
▁ڈیہ	-11.2501
▁جہلانکی	-11.2502
▁مرداں	-11.2504
▁شتگ۔	-11.2504
▁واپس	-11.2506
رچ	-11.2511
▁ماتانی	-11.2512
ینتہ	-11.2512
▁جنزء	-11.2517
ut	-11.2518
راستی	-11.2519
▁ٹپانی	-11.252
▁بادگیر	-11.2523
▁تجزیہ	-11.2524
نر	-11.2525
اول	-11.253
▁سیاستدان	-11.253
▁کنغ۔	-11.2531
▁حس	-11.2533
▁اگرچہ	-11.2535
▁سباہ	-11.2537
رم	-11.254
ایشانی	-11.2544
▁پیکر	-11.2549
▁لالہ	-11.2551
▁نقطہ	-11.2557
▁وانان	-11.2559
▁تاچ	-11.2559
▁شھیدی	-11.256
▁رام	-11.2564
▁بدر	-11.2564
▁دف	-11.2566
▁ھبراں	-11.2574
▁مانزمان	-11.2575
شے	-11.2576
▁اگہی	-11.2578
▁سادہ	-11.2578
مدام	-11.2579
▁استانی	-11.2579
▁ھانل	-11.2582
هی	-11.2585
▁بریگیڈ	-11.2587
▁معتبر	-11.2587
▁رخ	-11.2588
▁اسپر	-11.2595
▁کھڈ	-11.26
▁ٹوہیں	-11.2601
▁club	-11.2604
▁اسودگ	-11.2607
پار	-11.2607
▁مہکمیں	-11.2611
line	-11.2612
▁رفتار	-11.2613
▁پیرمرد	-11.2615
▁چکار	-11.2618
▁اسٹال	-11.2621
▁شرین	-11.2624
▁لیکہی	-11.2626
▁کردانی	-11.2626
▁وتکش	-11.2627
▁کمب	-11.2629
▁تیراں	-11.2631
▁ڈگاراں	-11.2633
▁Con	-11.2635
▁وشیاں	-11.2636
▁محتاج	-11.2637
▁داوا	-11.2639
▁came	-11.2639
خیر	-11.2639
▁نفرت	-11.264
▁کنائین	-11.2641
▁ساھدار	-11.2641
▁دینار	-11.2644
▁عاصم	-11.2654
▁الرحمان	-11.2654
un	-11.2657
▁حالات	-11.266
▁ہمدردی	-11.2662
▁اجبیں	-11.2662
▁روپ	-11.267
▁انتظامی	-11.267
▁ہاؤس	-11.2671
▁پھریزگ	-11.2673
▁۔۔۔۔۔۔	-11.2676
ناز	-11.2678
تہ۔	-11.2678
▁زہم	-11.2684
ہوار	-11.2687
▁باران	-11.2688
▁کرکٹ	-11.2689
▁کیونکہ	-11.2691
▁تصویر	-11.2693
▁ترسناک	-11.2694
▁ندی	-11.2699
▁ارپ	-11.2701
▁مستری	-11.2702
▁دیش	-11.2703
▁جملہ	-11.2704
▁اکسیجن	-11.2704
تاب	-11.2709
▁ملائی	-11.2711
▁present	-11.2713
شانی	-11.2713
▁سیا	-11.2714
▁Do	-11.2717
▁پھلی	-11.2719
▁بیت۔۔۔	-11.2719
کپتگ	-11.272
▁بێگواه	-11.2721
▁لهتے	-11.2722
▁شن	-11.2723
▁پیرو	-11.2735
▁یمن	-11.2735
▁establish	-11.2736
▁ھورک	-11.2738
بھ	-11.2738
▁بداریت	-11.2738
▁عاقل	-11.2739
چھ	-11.275
▁بئے۔	-11.2751
▁رژنائیں	-11.2751
▁اچار	-11.2752
▁واھگے	-11.2753
▁کرتی	-11.2757
tra	-11.2757
▁گمراہ	-11.2758
▁روئگ	-11.2758
▁حقیقی	-11.276
▁شاباش	-11.276
▁اساپ	-11.2761
▁لرزگ	-11.2763
▁مح	-11.2763
ud	-11.2769
▁باطن	-11.2771
▁still	-11.2772
▁کپودر	-11.2772
▁ھرابیں	-11.2774
▁ایسوسی	-11.2775
▁اشکار	-11.2777
▁گڈسرا	-11.2779
▁حکومتی	-11.278
▁گساں	-11.278
▁اپے	-11.2783
▁زانا	-11.2785
▁بوئگا	-11.2787
▁منگچر	-11.2791
▁نازرک	-11.2792
▁ایئر	-11.2793
▁اتکگاں	-11.2794
ain	-11.2799
▁لیکہے	-11.2801
▁سنا	-11.2803
▁کامل	-11.2805
uent	-11.2805
▁ناما	-11.2809
▁نیب	-11.281
▁وانندگیں	-11.2813
▁دیوالانی	-11.2813
▁nam	-11.2814
▁کریں	-11.2817
▁حبراں	-11.2817
ؤں	-11.282
▁تنیگ	-11.2822
▁قاصد	-11.2823
▁جنیانی	-11.283
▁ھبدہ	-11.283
▁جنگلے	-11.2831
▁ھردوک	-11.2832
▁نثر	-11.2834
▁رکگ	-11.2834
▁درائینت۔	-11.2834
▁feature	-11.2836
▁حالاں	-11.2837
▁نفسی	-11.2839
▁ھالے	-11.284
▁وانین	-11.284
▁وانوکانی	-11.2842
▁career	-11.2844
▁ایات	-11.2849
▁بلیک	-11.285
F	-11.2853
▁old	-11.2855
▁اوکیں	-11.2856
▁دانش	-11.2857
▁history	-11.2857
▁ھردیں	-11.2865
▁رمس	-11.2865
▁led	-11.2868
▁کالب	-11.2874
▁common	-11.2874
▁اسپیکر	-11.2874
▁گوئر	-11.2875
▁شاہد	-11.2879
یپ	-11.288
▁دیوتا	-11.288
▁مچھ	-11.2889
▁تضاد	-11.2891
▁we	-11.2893
▁پهک	-11.2895
▁کتہ۔	-11.2897
اخر	-11.2899
▁دلیری	-11.29
▁برد	-11.2901
▁رمزان	-11.2903
▁نئیں	-11.2903
▁La	-11.2905
▁کساں	-11.2907
▁ذاتء	-11.2908
▁پانچ	-11.2909
▁کسو	-11.2912
▁فہم	-11.2913
شال	-11.2926
▁ادراک	-11.2926
▁مشکت	-11.2926
ھند	-11.293
▁بکرتیں	-11.293
▁کہتا	-11.2931
ster	-11.2931
▁ایردست	-11.2931
▁کھر	-11.2932
جار	-11.2932
▁چھو	-11.2933
▁ایدگراں	-11.2934
▁حسنی	-11.2935
▁مہلہ	-11.2935
بنی	-11.2937
دن	-11.2938
مبارک	-11.2939
ائینت	-11.2942
▁جنے	-11.2944
وکانی	-11.2944
▁غصہ	-11.2944
▁جاگه	-11.2947
▁وانگا	-11.2947
▁دوستیگیں	-11.2948
▁چیدگی	-11.2948
▁گشیت۔	-11.2948
▁جھدے	-11.2949
▁وشتر	-11.295
▁رزان	-11.295
▁قیمتی	-11.2951
▁اریپیں	-11.2952
▁گنجائش	-11.2954
▁تاجر	-11.2957
▁شپی	-11.2958
▁انار	-11.2961
▁اسٹیٹس	-11.2965
▁گوشتہ	-11.2966
ثہ	-11.2966
▁ھسابء	-11.2969
▁سرینت	-11.2971
▁جیڑھ	-11.2971
▁لہڑگ	-11.2973
▁ھجبر	-11.2979
زاں	-11.2981
▁ڈھاڈر	-11.2983
▁انچ	-11.2984
▁لوڑ	-11.2984
عی	-11.2987
▁وسیں	-11.2992
دروشم	-11.2993
▁واکی	-11.2994
ساز	-11.2995
برگ	-11.2995
▁منشیات	-11.2998
▁often	-11.2998
▁صلاحیت	-11.3
▁زورگء	-11.3002
حیال	-11.3002
▁دیستگیں	-11.3002
▁ہانی	-11.3002
کپت	-11.3003
▁سھیگ	-11.3003
▁منظر	-11.3006
▁ایٹم	-11.301
▁100	-11.3012
▁تبیں	-11.3013
▁امیتے	-11.3019
▁زنداناں	-11.3023
▁تگرانی	-11.3028
▁جین	-11.3029
▁قبرستان	-11.3031
▁شائرانی	-11.3032
▁گوشگء	-11.3032
نم	-11.3038
▁سرکنگ	-11.3041
▁بلۆچانی	-11.3042
▁site	-11.3043
▁گرا	-11.3043
▁درنگاز	-11.3043
ial	-11.3045
▁ویکسین	-11.3046
▁کارکرد	-11.3048
▁اسسٹنٹ	-11.3049
▁تہران	-11.305
▁سلسلہ	-11.305
▁ورزی	-11.3051
▁سجہیں	-11.3051
▁کنئگی	-11.3053
▁شمال	-11.3057
▁سپا	-11.3057
▁ٹاک	-11.3058
▁دزاپ	-11.3061
▁سریگ	-11.3061
▁دئیگء	-11.3066
ke	-11.3066
ماھتاک	-11.3066
▁مردیں	-11.3066
▁ندار	-11.3068
▁کلا	-11.3071
نیت	-11.3071
▁تؤ	-11.3072
▁نکن	-11.3073
▁بکننت	-11.3077
▁سدک	-11.3077
ling	-11.3079
▁انتظار	-11.3082
▁ھاسٹل	-11.3082
▁دارنت	-11.3083
▁هلاس	-11.3083
▁دوبارہ	-11.3084
▁ماسء	-11.3084
دک	-11.3084
▁اکسے	-11.3085
▁اگے	-11.3086
▁ایراں	-11.3088
ندی	-11.3089
▁ضد	-11.3089
▁ببر	-11.309
▁ایشن	-11.3091
▁چتو	-11.31
▁ھدایت	-11.3101
▁گردان	-11.3104
▁هرکس	-11.3108
▁دیئگ	-11.3112
▁اسم	-11.3116
▁ثناء	-11.3121
▁ایڈ	-11.3123
▁اسرمند	-11.3124
۔منی	-11.3126
▁تریاک	-11.313
▁رتکگ	-11.3133
▁help	-11.3134
▁few	-11.3134
▁اولسر	-11.3135
▁کمپان	-11.3137
▁ڈور	-11.3139
▁مارکسی	-11.3141
▁ھش	-11.3142
▁چندن	-11.3142
▁اثار	-11.3143
▁کھل	-11.3144
▁رئیسانی	-11.3145
ائیت	-11.3147
▁درین	-11.3147
ینک	-11.3149
▁ردیت	-11.3151
company	-11.3151
▁بیک	-11.3158
▁سیوی	-11.3161
▁سھرا	-11.3162
▁سنگھ	-11.3163
▁بتی	-11.3164
▁توشگ	-11.3166
▁دمبرتگ	-11.3167
??	-11.3167
...............	-11.3168
▁suggest	-11.3169
▁ہاسٹل	-11.3169
▁One	-11.317
▁ٹوئٹر	-11.317
ach	-11.317
▁تواراں	-11.3174
▁جرگہ	-11.3174
▁دپا	-11.3177
▁ھاکمی	-11.3182
▁اگل	-11.3186
▁درنیامء	-11.3187
▁next	-11.3187
▁2007	-11.3187
▁داکٹر	-11.3187
▁زاهدان	-11.3189
▁مادر	-11.319
▁کندان	-11.3191
خدا	-11.3192
▁جلیل	-11.3192
▁نوشتانک	-11.3194
▁جهل	-11.3194
▁دیوانگ	-11.3195
▁لائک	-11.3196
▁طاقتور	-11.3198
▁چنال	-11.3198
▁رکینت	-11.3199
▁حالی	-11.3202
▁ائولی	-11.3205
▁نیار	-11.3208
▁روی	-11.321
ندر	-11.3212
▁arm	-11.3214
یٹر	-11.3214
ورگ	-11.3216
پگ	-11.3217
T	-11.3219
▁سلیں	-11.3221
ure	-11.3223
▁واناں	-11.3223
ڈول	-11.3224
▁کافکا	-11.3231
bo	-11.3232
▁اجوئیں	-11.3234
▁پمے	-11.3234
سیاسی	-11.3238
▁درتکگ	-11.3238
▁سماج	-11.3239
ایران	-11.3239
▁وومن	-11.3241
▁ھاجی	-11.3242
▁پرکار	-11.3243
▁باپار	-11.3243
▁اجکہ	-11.3243
چا	-11.3244
▁صوت	-11.3247
سرجمیں	-11.3247
ن۔	-11.3249
▁چڑ	-11.3255
▁واتری	-11.3256
▁English	-11.3258
▁بگندات	-11.326
▁شاعریئ	-11.326
▁building	-11.3263
▁قومء	-11.3265
▁ھلکء	-11.3267
دانی	-11.327
▁ورگی	-11.3271
▁شئیری	-11.3271
▁نباں	-11.3272
▁جنگول	-11.3272
▁دیگا	-11.3272
▁رتک	-11.3274
▁حفاظت	-11.3278
▁کوھنگیں	-11.3278
▁اوور	-11.3278
رب	-11.328
▁زندگاں	-11.3281
▁نوشت	-11.3285
▁مھرنگ	-11.3286
▁بیمناکیں	-11.3288
الله	-11.3289
▁سامراج	-11.329
▁یاسین	-11.3291
▁پنچیں	-11.3293
▁French	-11.3293
▁گندے	-11.3293
▁چکی	-11.3294
▁زهر	-11.3294
گم	-11.3295
اسلام	-11.3297
▁دانا	-11.3298
▁چرت	-11.3299
▁پرمات	-11.3299
▁رائے	-11.33
▁انہ	-11.3301
▁بادشاھی	-11.3302
▁اسپین	-11.3306
▁ھؤ	-11.3309
▁نامینگ	-11.3309
▁contain	-11.3311
▁similar	-11.3311
▁pro	-11.3314
▁درھیں	-11.3319
زانی	-11.3319
▁دریائی	-11.332
▁نگرانی	-11.3325
▁درگ	-11.3326
هر	-11.3327
▁گشتے	-11.3328
▁رھبنداں	-11.3328
▁دودمانی	-11.3329
▁پیوست	-11.333
▁بارڈر	-11.3333
▁کینگی	-11.3333
▁دیستگ۔	-11.3337
ائینگ	-11.3342
▁بساک	-11.3348
▁سدی	-11.3348
کاراں	-11.3349
▁نصیحت	-11.335
ether	-11.3352
▁متعلق	-11.3353
▁ٹن	-11.3354
▁رکھا	-11.3354
▁ریا	-11.3354
lu	-11.3355
▁شادء	-11.3355
▁فوجء	-11.3358
▁right	-11.3359
▁نئیت۔	-11.3361
▁لوٹیں	-11.3362
der	-11.3365
▁عبدالصمد	-11.3367
مس	-11.3367
▁لاپء	-11.3367
شہر	-11.3372
۔۔۔۔۔۔۔	-11.3374
▁وفات	-11.3377
▁مالدار	-11.338
▁بعض	-11.3383
▁بروبری	-11.3386
▁خط	-11.3386
▁ولد	-11.3387
▁خاک	-11.3389
▁سنگینی	-11.3389
▁کہیر	-11.3389
▁شدکش	-11.3391
▁همیش	-11.3393
ئس	-11.3393
▁درشت	-11.3393
بیتگ	-11.3398
vi	-11.3398
▁باپ	-11.3399
حر	-11.3399
▁پشمبے	-11.3401
▁خو	-11.3404
▁کبزہ	-11.3406
▁سوزیں	-11.3409
▁کارئے	-11.3409
▁سائٹ	-11.341
▁گونگ	-11.3412
بتل	-11.3418
▁زهیر	-11.3419
▁کلاہ	-11.3419
مش	-11.3422
▁گنت	-11.3423
▁me	-11.3426
▁برزگ	-11.3426
▁دوستانی	-11.3429
▁تما	-11.343
▁تماہ	-11.343
ئیر	-11.3431
۔ائیء	-11.3432
▁موج	-11.3432
▁گفتار	-11.3433
▁کٹگ	-11.3433
▁مسام	-11.3434
▁استین	-11.3437
ld	-11.3439
▁سوشلسٹ	-11.3439
▁حامد	-11.344
▁ساحلی	-11.3442
▁تہرء	-11.3443
سرپد	-11.3443
▁writ	-11.3447
ٹھ	-11.3456
▁چولانی	-11.3461
▁عاقبت	-11.3464
▁تلب	-11.3464
▁چارء	-11.3466
▁produc	-11.3468
▁دئیان	-11.3472
▁claim	-11.3473
▁دباؤ	-11.3474
▁اکثر	-11.3475
▁بارہء	-11.3476
▁تئیی	-11.3477
ھمک	-11.3477
جب	-11.3482
ھد	-11.3483
▁چلگ	-11.3485
▁وڑی	-11.3485
▁رہشوناں	-11.3487
▁مجن	-11.3487
▁انس	-11.3487
▁انچین	-11.3488
وند	-11.349
▁عامر	-11.3491
▁نزدیک	-11.3492
▁اپاں	-11.3493
یڈ	-11.3495
▁لانگو	-11.3498
▁ٹرانسپورٹ	-11.3499
▁محبوبہ	-11.3503
▁cover	-11.3503
▁برزا	-11.3503
▁ازر	-11.3507
▁نرمی	-11.3512
▁قا	-11.3513
held	-11.3514
▁ھاٹیگ	-11.3518
▁تج	-11.3522
▁رنگےء	-11.3529
▁شوهاز	-11.353
▁گرام	-11.3531
▁برگء	-11.3537
▁لنجیں	-11.3538
▁ھالاں	-11.3539
▁With	-11.3547
▁عنہ	-11.3549
▁دروغ	-11.355
▁موم	-11.3552
▁حیرانی	-11.3554
▁کاکڑ	-11.3556
▁ہوشام	-11.3559
▁قصہانی	-11.3562
▁برطانیا	-11.3565
▁ارگنائزیشن	-11.3565
▁تھسیل	-11.3565
▁پکری	-11.3566
▁ایردستی	-11.3567
▁نێست	-11.3567
▁قہر	-11.3568
▁چارشمبے	-11.3568
▁بها	-11.3573
▁مئیگ	-11.3573
▁بالکل	-11.3573
ئل	-11.3574
▁بیستمی	-11.3577
دھ	-11.3578
▁ٹکے	-11.3579
▁سیال	-11.358
▁air	-11.358
▁یلیں	-11.3581
aw	-11.3581
▁seven	-11.3583
▁اوتھل	-11.3583
▁پہناتانی	-11.3586
▁ترز	-11.3587
▁نانکہ	-11.3587
▁دریاورد	-11.3587
▁church	-11.3587
▁دیغ	-11.3588
▁رحمن	-11.3593
▁شریء	-11.3596
ard	-11.3597
▁تہرانی	-11.3597
▁ماپ	-11.3599
▁عادل	-11.3603
▁کوریا	-11.3603
▁لیس	-11.3604
▁نسیر	-11.3605
▁جلدی	-11.3607
▁توپ	-11.361
وکے	-11.3615
▁you	-11.3617
▁اسلء	-11.3619
▁level	-11.362
▁جارج	-11.362
▁مسجد	-11.362
▁جاہمنند	-11.3622
▁لیو	-11.3623
▁بھیسہ	-11.3625
گہ	-11.3629
▁ایی	-11.3631
▁خیبر	-11.3638
▁متھدہ	-11.3639
▁یہودی	-11.364
▁دیرء	-11.364
ear	-11.3642
▁ارزش	-11.3642
▁دوستے	-11.3642
▁کسہے	-11.3642
اگہ	-11.3642
▁درستی	-11.3649
▁کارجاہ	-11.3651
▁یورپء	-11.3652
ٹہ	-11.3655
جاگہ	-11.3658
▁سوڑگ	-11.3659
▁وانگجاھاں	-11.3659
L	-11.3659
جین	-11.3659
▁سدلی	-11.366
▁half	-11.366
les	-11.3661
▁ڈیوا	-11.3663
▁زلف	-11.3664
▁کاش	-11.3666
ھیر	-11.3667
▁نیلیں	-11.3671
▁قلمکار	-11.3679
▁گج	-11.368
▁گیران	-11.3682
▁قبائل	-11.3683
ایں	-11.3685
▁کشوک	-11.3688
▁بجنت	-11.369
▁لاگر	-11.3692
▁جوزہ	-11.3692
راجی	-11.3692
▁میوزک	-11.3694
ap	-11.3694
▁ھمراھداری	-11.3694
▁مھروانیں	-11.3699
▁اه	-11.37
▁گوشی	-11.3702
▁گشگء	-11.3704
قر	-11.3705
نامہ	-11.3707
▁songs	-11.3708
▁نشار	-11.3711
▁Division	-11.3712
ni	-11.3713
▁جانور	-11.3718
▁former	-11.3718
▁چارئے	-11.3722
▁ببیت۔	-11.3725
▁گزران	-11.3725
▁تشے	-11.3726
▁دژمنانی	-11.3729
لین	-11.373
▁لوگواجہ	-11.373
▁add	-11.3731
▁مرادانی	-11.3732
▁واهگ	-11.3734
▁ھاندان	-11.3737
side	-11.3738
لبزانکی	-11.3738
▁گرنت	-11.3743
بکش	-11.3743
M	-11.3746
▁تحصیل	-11.3747
▁رجینتگیں	-11.3749
▁دیووند	-11.375
spite	-11.3751
▁ات۔بلے	-11.3752
لڈ	-11.3757
▁مناسب	-11.3759
▁پدرد	-11.3761
اپی	-11.3762
▁though	-11.3762
حی	-11.3763
▁وفاقی	-11.3763
مور	-11.3764
▁State	-11.3764
▁حاطرا	-11.3766
▁مذھب	-11.3766
▁اورماڑہ	-11.3768
▁among	-11.3768
▁طائر	-11.3769
▁total	-11.3769
▁زتک	-11.3769
▁واجہء	-11.377
▁ڈیھاں	-11.3771
▁ڈھل	-11.3771
▁دئینت۔	-11.3772
▁یکوئی	-11.3774
▁رھشوناں	-11.3777
▁میس	-11.3778
▁نگیگی	-11.3778
▁زمانے	-11.378
▁گروہ	-11.378
▁للہ	-11.3781
▁گرء	-11.3781
▁بچارئے	-11.3783
▁لوک	-11.3788
▁سرفراز	-11.3789
▁برطانوی	-11.3789
▁نیزگار	-11.3789
▁ہمیشانی	-11.379
▁امانت	-11.3792
▁full	-11.3795
▁رجینتگ	-11.3795
▁Her	-11.3801
شام	-11.3801
▁بنداتء	-11.3802
انگ	-11.3806
▁گالوارے	-11.3806
پمشکہ	-11.3812
▁ابدی	-11.3814
شور	-11.3815
▁ادارانی	-11.3815
▁مزارء	-11.3816
▁مسکیں	-11.3816
▁ڈو	-11.3818
▁نرس	-11.3819
▁زالے	-11.3821
▁کورے	-11.3821
▁گوشتانک	-11.3826
▁فرید	-11.3827
سین	-11.3827
▁قبل	-11.3829
▁امداد	-11.3832
اع	-11.3833
▁ینگ	-11.3835
▁جھدء	-11.3839
▁ولے	-11.3841
▁سندء	-11.3842
▁نادان	-11.3843
حل	-11.3846
انچیں	-11.3847
▁ten	-11.3848
▁want	-11.3849
▁لیکو	-11.3853
▁پرزند	-11.3855
▁ھئور	-11.3856
▁برج	-11.3856
▁کپگء	-11.3861
▁جبکہ	-11.3861
▁مسیح	-11.3862
▁field	-11.3862
▁شعیب	-11.3862
▁ٹہک	-11.3863
▁دروشماں	-11.3865
▁scor	-11.3865
▁گیشینت	-11.3866
▁پرویز	-11.3867
▁خیرات	-11.3868
ہ۔	-11.3868
▁دارء	-11.3869
▁دلوتانی	-11.3869
▁اندام	-11.3872
▁بندہ	-11.3872
▁مم	-11.3875
▁نشت۔	-11.3878
▁ناجوڑ	-11.3888
▁پراھگ	-11.3889
پری	-11.3892
اغ	-11.3892
چیاکہ	-11.3894
▁جج	-11.3894
▁جنجالے	-11.3895
▁ھالو	-11.3897
▁بدیاں	-11.3897
▁اسرا	-11.3901
الو	-11.3904
▁تپر	-11.3906
هم	-11.391
▁ساچشتانی	-11.3911
وہد	-11.3912
▁بکشاتگ	-11.3914
▁Arm	-11.3915
▁کوکو	-11.3916
▁مادہ	-11.3916
▁دیدگانی	-11.3916
▁production	-11.3921
▁المیہ	-11.3922
بیگواہ	-11.3922
▁مریض	-11.3924
▁مہربان	-11.3925
▁چھٹی	-11.3925
▁شہہ	-11.3928
▁نکت	-11.393
▁ادماں	-11.3932
de	-11.3933
▁close	-11.3935
▁مراں	-11.3936
▁گنبد	-11.394
▁review	-11.394
▁پشاور	-11.394
▁every	-11.3942
▁ارگء	-11.3943
▁روحانی	-11.3944
▁محبوب	-11.3946
▁زہرگ	-11.3946
کند	-11.3948
▁یلو	-11.3949
▁اربی	-11.395
▁شتر	-11.3952
▁گوشانی	-11.3952
hi	-11.3952
ward	-11.3956
دء	-11.3958
▁پراموش	-11.3958
▁الحق	-11.396
▁دروگے	-11.3962
دیما	-11.3962
▁مھم	-11.3963
▁سرئے	-11.3963
▁land	-11.3964
▁وارتگیں	-11.3965
دود	-11.3967
▁شتگیں	-11.3971
▁ڈنگر	-11.3971
▁پتاتگ	-11.3972
▁بوتگانت	-11.3973
رن	-11.3974
▁population	-11.3976
▁ریکوڈک	-11.3976
ئیل	-11.3978
گز	-11.3979
▁l	-11.3979
▁بمبے	-11.3984
▁ماحولیاتی	-11.3988
▁سدو	-11.3989
▁چیزئے	-11.3991
▁واناک	-11.3994
تار	-11.3996
ful	-11.4006
▁چارئگ	-11.4008
▁زانگی	-11.401
▁گندی	-11.4011
▁قاتل	-11.4015
▁کارپد	-11.4015
▁بمبگواری	-11.4016
▁گنتر	-11.4017
▁مصیبت	-11.4017
▁نوید	-11.4019
▁شاہوانی	-11.402
▁اثرمند	-11.402
▁امیتانی	-11.4022
▁تبے	-11.4023
▁جبری	-11.4024
▁change	-11.4026
cy	-11.4028
▁دینے	-11.403
▁مسائل	-11.4034
▁ڈیوٹی	-11.4035
ترس	-11.4035
▁انجام	-11.4038
کرد	-11.4038
▁نوخیں	-11.404
▁سینیٹر	-11.4043
ھوں	-11.4044
▁دانی	-11.4048
▁further	-11.4053
زاناں	-11.4055
▁اسٹریلیا	-11.4055
▁چونکہ	-11.4056
کوٹ	-11.4058
▁چھوڑ	-11.4061
▁دپترء	-11.4062
▁ٹر	-11.4062
▁east	-11.4063
▁ھرکسی	-11.4063
▁شاھو	-11.4067
▁2011	-11.4072
▁جناح	-11.4075
قہ	-11.4079
▁سرو	-11.4079
▁لانچر	-11.408
▁ہپتگ	-11.4081
ations	-11.4081
▁گلگدار	-11.4084
▁پتا	-11.4087
▁وحید	-11.4088
▁تریت	-11.4091
▁ہچی	-11.4092
کشی	-11.4093
▁اوشتوکیں	-11.4096
▁۔یک	-11.4096
ناکیں	-11.4097
▁گیشوار	-11.4098
▁نیلگ	-11.4098
va	-11.41
▁فورم	-11.4104
▁اسرائیلی	-11.4104
▁اوژناگ	-11.4105
ہور	-11.4105
▁ٹہ	-11.4108
ینانی	-11.411
▁سیرء	-11.411
▁different	-11.4111
▁ڈسٹرکٹ	-11.4111
▁کرام	-11.4111
▁هند	-11.4112
▁تہل	-11.4115
▁اوانء	-11.4115
▁پوری	-11.4116
▁روچان	-11.4116
▁لھم	-11.4118
گوستگیں	-11.4124
▁زرتگیں	-11.4127
▁کہدہ	-11.4132
▁زروان	-11.4134
▁گواہی	-11.4134
▁الہ	-11.4136
▁چکاسگ	-11.4136
▁شہراں	-11.4137
▁مشینری	-11.414
▁درگیج	-11.4144
▁ازمانکاری	-11.4146
جام	-11.4147
▁تراکانی	-11.4148
▁نجیب	-11.4149
▁According	-11.415
▁2006	-11.415
▁الن	-11.4151
کٹر	-11.4151
چیز	-11.4153
▁کپتیں	-11.4156
▁پرشگ	-11.4156
▁مستیں	-11.4156
▁واراں	-11.4159
▁ششتگ	-11.4162
▁بزیر	-11.4163
▁سماہ	-11.4163
▁track	-11.4164
▁creat	-11.4165
▁مغرب	-11.4168
▁Church	-11.4169
▁strong	-11.4169
بہر	-11.4174
▁نادراہجاہ	-11.4175
▁زیل	-11.4177
▁سرئ	-11.4177
▁پٹگ	-11.4177
▁کاٹ	-11.4179
▁چور	-11.418
▁راجکاری	-11.418
▁run	-11.4181
▁بندرء	-11.4182
▁مارت	-11.4182
▁مدگ	-11.4188
▁کارکنوکیں	-11.4189
▁رشت	-11.419
▁کراس	-11.4191
وخیں	-11.4191
▁نکس	-11.4192
▁دؤ	-11.4192
▁پادان	-11.4193
▁ببا	-11.4193
استاد	-11.4194
▁مجیب	-11.4195
زل	-11.4196
▁چۆن	-11.4202
▁سلاہاں	-11.4203
▁کشتہ	-11.4203
▁اگبالانی	-11.4205
ler	-11.4205
▁شگل	-11.4209
▁دیستہ	-11.4211
▁کشگا	-11.4212
خو	-11.4216
▁اکل	-11.4218
گشگ	-11.4218
▁نوداں	-11.422
▁۔ما	-11.4221
▁kill	-11.4221
▁طبی	-11.4222
▁ابوبکر	-11.4228
▁حسابء	-11.4228
▁غازی	-11.4228
ھست	-11.4231
▁بحران	-11.4231
▁حالء	-11.4231
▁کسہء	-11.4237
▁جیڑیت	-11.4239
▁اجز	-11.4242
▁ٹکٹ	-11.4243
▁کرتاں	-11.4244
mi	-11.4248
▁قمبر	-11.425
▁رومان	-11.4251
▁حکمران	-11.4253
▁days	-11.4254
گرگ	-11.4256
▁لسانی	-11.4257
▁زردء	-11.4261
▁ٹوٹ	-11.4262
▁فلسطین	-11.4264
▁militar	-11.4267
▁بنگلزئی	-11.4267
▁سائنسدان	-11.4269
▁story	-11.427
▁زانتے	-11.4274
do	-11.4275
▁پیٹ	-11.4276
ینے	-11.4277
▁پجیگ	-11.4278
▁کشادگ	-11.4278
▁پیرس	-11.4279
▁گوریچ	-11.4279
▁جنکیں	-11.4281
▁دیتے	-11.4281
▁چلی	-11.4284
gu	-11.4285
▁گبار	-11.4285
▁بالاں	-11.4286
▁ویروس	-11.4288
▁کرشی	-11.4289
▁اشارگ	-11.4295
▁ھورکیں	-11.4297
▁ھندے	-11.43
اح	-11.4305
▁مارات	-11.4305
▁official	-11.4306
▁particular	-11.4306
▁روشنی	-11.4307
▁عملے	-11.4308
▁اناگاہ	-11.4308
▁دیوار	-11.4313
▁ینت	-11.4316
▁ٹولیانی	-11.4316
غلام	-11.4317
▁شئرانی	-11.4318
▁کسہی	-11.4319
ئو	-11.432
▁پارست	-11.432
الہ	-11.4321
▁ہمیں	-11.4323
▁مجاہد	-11.4326
▁پاہو	-11.4328
▁شفیع	-11.4331
▁بوتگ۔اے	-11.4331
▁واہشت	-11.4337
▁لچه	-11.4344
▁دستبندی	-11.4345
▁ھیرو	-11.4345
ebru	-11.4346
کنئگ	-11.4347
▁win	-11.4347
▁کارگال	-11.4348
▁تعداد	-11.435
▁ٹھک	-11.435
▁اصلاح	-11.435
....!	-11.4351
▁sub	-11.4351
چوشکہ	-11.4354
▁):	-11.4355
▁پڑھ	-11.4356
▁الکاپی	-11.4356
▁West	-11.4356
O	-11.4358
▁منزلے	-11.4358
▁فارس	-11.4359
ویل	-11.4359
▁پلانٹ	-11.436
▁real	-11.4363
▁جہلیں	-11.4363
▁ھوشام	-11.4363
▁سوتکگ	-11.4364
▁وہم	-11.4365
ٹے	-11.4365
▁جبزگ	-11.4368
▁یاداشت	-11.4368
less	-11.4368
▁ترہ	-11.4369
▁تامدار	-11.4372
▁بناربس	-11.4372
one	-11.4373
▁بشام	-11.4374
پنچ	-11.4375
▁زربار	-11.4377
▁الب	-11.4378
▁رھشونانی	-11.438
▁ھرجاہ	-11.4384
▁بیٹھ	-11.439
ors	-11.4397
▁human	-11.4406
▁وارڈ	-11.4406
▁ٹریفک	-11.4406
▁مولا	-11.4406
mar	-11.4406
▁منزلء	-11.4408
▁ورنائے	-11.4412
بز	-11.4412
▁سرگوز	-11.4416
▁باشد	-11.4419
▁میرین	-11.4419
▁کلاسیک	-11.4421
▁بروان	-11.4431
av	-11.4434
▁ایمانداری	-11.4436
▁روچتاک	-11.4438
▁ہوت	-11.4443
▁21	-11.4445
▁عبدالمالک	-11.4446
▁وٹ	-11.4447
▁دزبمب	-11.4447
▁بگو	-11.4448
▁جاو	-11.4448
▁انڈین	-11.4449
▁لیوس	-11.4449
▁ہورء	-11.4451
▁جدل	-11.4451
▁ورناھانی	-11.4454
▁راھ	-11.4454
ساحر	-11.4454
▁گب	-11.4454
▁ندارگاں	-11.4457
▁کماشاں	-11.4457
▁عمان	-11.4457
▁پشومان	-11.4461
▁بودناکی	-11.4464
▁انگلش	-11.4467
▁کارایت	-11.4469
▁گوئی	-11.447
▁کرنء	-11.4476
▁رسائی	-11.4477
▁شادان	-11.4477
tic	-11.448
▁هئیال	-11.448
▁خشک	-11.4483
▁ناسرپد	-11.4484
▁درستان	-11.4484
سیت	-11.4486
▁League	-11.4486
▁نزانتگ	-11.4486
▁ہورت	-11.4486
▁چھوٹ	-11.4487
▁کاپی	-11.4487
▁رہشونی	-11.4488
▁مسترین	-11.4488
▁کوڈ	-11.4491
▁جھلی	-11.4491
▁عیش	-11.4492
▁ترپ	-11.4495
اوتی	-11.4496
▁control	-11.4497
▁دیبا	-11.4498
▁سخی	-11.4499
▁کلاتء	-11.45
▁واہگانی	-11.4504
▁ساچشتکار	-11.4504
▁رجانکی	-11.4505
ca	-11.4505
▁کیشن	-11.4506
▁increase	-11.4506
▁ورزش	-11.4506
▁ریگستان	-11.4506
▁پہناتاں	-11.4508
▁اپانی	-11.451
لان	-11.4511
▁وتکاریں	-11.4519
▁دنیائی	-11.4521
▁خانگ	-11.4522
▁پیشدار	-11.4524
▁کمیونزم	-11.4526
▁رائٹس	-11.4526
▁سچگ	-11.4527
بانک	-11.4527
▁Se	-11.4529
▁unit	-11.453
▁ملنڈ	-11.453
:’’	-11.453
▁.....	-11.453
ns	-11.4531
▁بامنء	-11.4532
رنگیں	-11.4534
▁بگٹیء	-11.4534
▁ہمیشہ	-11.454
▁شاخ	-11.4542
way	-11.4542
com	-11.4542
شار	-11.4543
▁گریبی	-11.4544
ves	-11.4545
▁ہزارانی	-11.4545
▁اتھارٹی	-11.4546
▁ابر	-11.4548
▁سدھ	-11.455
▁مخالف	-11.4551
▁السلام	-11.4554
▁بہتر	-11.4555
ير	-11.4557
▁ہردیں	-11.4557
▁چشمک	-11.4561
صد	-11.4563
▁چندر	-11.4564
▁میراس	-11.4565
لال	-11.4565
▁عیسی	-11.4566
▁band	-11.4567
▁ھدے	-11.4567
▁گرو	-11.4569
▁ملوک	-11.4571
▁لۆٹ	-11.4581
اشانی	-11.4584
باری	-11.4587
▁Song	-11.4587
▁ھزانگ	-11.4588
▁گێشتر	-11.4588
▁وتیگ	-11.4589
▁لیکہاں	-11.459
ite	-11.4595
▁دامنء	-11.4595
▁ٹہل	-11.4599
▁وادی	-11.4601
▁پاچ	-11.4606
▁نامگال	-11.4606
تران	-11.4606
▁سھریں	-11.461
▁گریو	-11.4611
▁کنت۔۔۔	-11.4612
▁پرینتگ	-11.4616
مون	-11.4616
ade	-11.4617
▁گیریں	-11.4617
▁ڑ	-11.4617
▁مجاں	-11.4619
▁کرنچ	-11.462
ct	-11.462
▁دوراں	-11.4621
میتگ	-11.4624
▁وابیں	-11.4624
ؤک	-11.4624
▁Sa	-11.4627
کائی	-11.4627
▁service	-11.4627
▁finish	-11.4627
ide	-11.4628
پول	-11.4628
▁توانا	-11.4629
▁نیز	-11.4629
▁ہلاسی	-11.463
ترین	-11.463
▁جمڑی	-11.4631
▁wh	-11.4632
▁درمانی	-11.4633
▁جول	-11.4635
▁نشتاں	-11.4639
هء	-11.464
▁ازیت	-11.4641
▁انجینئر	-11.4643
▁چرچ	-11.4643
▁میڑہ	-11.4647
▁شہدگ	-11.4647
▁کمیونٹی	-11.4648
ینا	-11.465
▁وتواجھی	-11.4652
▁دلکش	-11.4653
▁کامیو	-11.4656
▁پج	-11.4659
▁پچے	-11.4659
▁اسٹیٹ	-11.466
▁لیپ	-11.466
چارگ	-11.4662
▁تواریں	-11.4666
▁مون	-11.4666
▁استالاں	-11.4667
▁پہنچا	-11.4668
gave	-11.4669
▁ساہدار	-11.467
▁برانت	-11.4674
مٹ	-11.4676
▁مختار	-11.4678
▁چرگ	-11.4678
▁match	-11.4678
▁لوٹتگ	-11.4679
▁امیدوار	-11.468
▁رسینتگ	-11.4684
▁operation	-11.4685
▁defeat	-11.4689
▁project	-11.4689
▁ڈاؤن	-11.4689
▁کچھی	-11.4689
ities	-11.4692
▁گدانی	-11.4693
▁غفور	-11.4696
▁ٹکی	-11.4699
▁body	-11.47
▁جیڑھاں	-11.4704
▁شوندات	-11.4705
▁مڈیاں	-11.4706
▁محکمیں	-11.4709
▁‘‘(	-11.471
▁پگرے	-11.471
▁times	-11.471
▁نئیل	-11.471
▁بلیدی	-11.4711
▁بندگی	-11.4712
▁گلو	-11.4713
سیاہ	-11.4716
▁Ca	-11.4717
▁less	-11.4721
▁معنایے	-11.4722
▁caus	-11.4724
▁بیئگ	-11.4725
▁اگه	-11.4726
▁ات۔۔	-11.4727
stead	-11.4728
▁ماحل	-11.4729
▁دورانی	-11.473
▁کرچک	-11.473
▁Dylan	-11.473
▁دارئے	-11.473
ریک	-11.4732
▁لبرل	-11.4733
▁جاورحال	-11.4734
▁Li	-11.4734
▁سرون	-11.4741
▁reported	-11.4742
▁کوچگی	-11.4744
▁بنگال	-11.4745
▁ٹائم	-11.4745
▁دارانت	-11.4745
▁دردناکیں	-11.4746
ستہ	-11.4746
▁بوتگنت۔	-11.4747
▁لاشے	-11.4748
▁جنینء	-11.4749
▁تشبیہ	-11.4756
اؤں	-11.4757
▁r	-11.4757
▁ھلو	-11.4758
▁چرا	-11.4761
▁چوگان	-11.4762
▁ض	-11.4764
▁br	-11.4765
▁جذبگ	-11.4771
▁اسٹور	-11.4772
▁تیری	-11.4773
▁گولے	-11.4774
▁نذر	-11.4774
▁باپشت	-11.4775
▁دمگدار	-11.4776
▁دستونکئ	-11.4777
ka	-11.4779
▁سندگ	-11.4779
▁سهر	-11.4779
▁ہوری	-11.478
▁چنانچہ	-11.478
▁کامران	-11.4782
▁گنوکیں	-11.4784
▁سرداراں	-11.4784
▁برنت	-11.4785
▁Park	-11.4785
▁مہرک	-11.4785
moved	-11.4786
چاگرد	-11.4786
▁بکشیت	-11.4787
▁۔منی	-11.4789
سپر	-11.4789
بنت۔	-11.4792
▁جمھوری	-11.4792
▁علاقوں	-11.4792
▁منظم	-11.4793
▁جاورے	-11.4794
▁رسینگ	-11.4794
▁ترانگاں	-11.4798
▁پجاروک	-11.4802
▁صف	-11.4804
▁ئیء	-11.4805
▁دئیگی	-11.4807
▁سپ	-11.4811
▁مہے	-11.4811
▁شکلیں	-11.4811
▁ہندء	-11.4813
▁سامی	-11.4814
▁بنام	-11.4822
▁ریپ	-11.4823
▁بیثہ	-11.4824
▁پاری	-11.4828
▁تکہ	-11.4833
▁پێسر	-11.4833
▁پژم	-11.4834
ہان	-11.4835
▁پیگام	-11.4836
▁پادء	-11.4837
▁امریکائی	-11.4837
▁اید	-11.4841
▁دلجان	-11.4841
▁see	-11.4841
تاہے	-11.4842
▁دیمے	-11.4845
▁فراز	-11.4846
▁ٹپاں	-11.4849
▁اصطلاح	-11.485
▁کمپ	-11.4854
▁2012	-11.4854
▁شکی	-11.4854
▁اتحادی	-11.4855
▁سماء	-11.4857
▁گيئشتر	-11.486
▁اتمانء	-11.4864
▁نخ	-11.4868
ته	-11.4872
▁انچوکہ	-11.4872
▁بکناں۔	-11.4873
▁El	-11.4874
▁بوک	-11.4876
▁تعمیر	-11.4876
▁تامربند	-11.4876
▁مرتگ۔	-11.4877
▁پاگواجہ	-11.4878
ویں	-11.4878
▁برگیڈ	-11.4879
▁پنوں	-11.4881
▁ماوتی	-11.4882
▁تچوکیں	-11.4882
ھوار	-11.4883
▁چہرء	-11.4884
▁بیائے	-11.4889
ham	-11.4893
▁ماشین	-11.4893
ماتی	-11.4895
▁لاگریں	-11.4896
▁ترکگ	-11.4896
▁۔اگاں	-11.4899
▁چاراتگ	-11.49
▁سئید	-11.4902
میل	-11.4904
▁مائی	-11.4904
▁اداراں	-11.4905
بیان	-11.4905
▁سیاه	-11.4906
▁مکرانء	-11.4906
ther	-11.4909
حمل	-11.491
▁زورگری	-11.491
اماں	-11.4911
▁تنیگہ	-11.4911
پاس	-11.4913
▁جسے	-11.4913
پرچے	-11.4915
▁یونائیٹڈ	-11.4917
▁مقرر	-11.4917
▁ماہور	-11.492
▁سلی	-11.492
▁خوب	-11.4923
شھلچہ	-11.4923
▁گوربام	-11.4925
▁سعدی	-11.4925
▁برگی	-11.4925
▁بوته	-11.4929
▁کدو	-11.493
▁راھاں	-11.4931
▁منندیں	-11.4932
▁بچاریت	-11.4932
▁روء	-11.4933
▁low	-11.4935
▁قریشی	-11.4937
▁popular	-11.4938
▁مہلنج	-11.494
▁ننک	-11.4941
▁ھچی	-11.4943
مھر	-11.4946
▁کچہ	-11.495
▁مرگی	-11.495
ought	-11.4951
▁درنجگ	-11.4951
▁درچکاں	-11.4951
تری	-11.4955
▁چمء	-11.4956
▁کلیر	-11.4956
▁شرح	-11.4957
▁ہست۔	-11.4957
▁کنا	-11.4959
▁تخلیقی	-11.4962
کناں	-11.4966
▁گؤں	-11.4966
▁لوٹائینتگ	-11.4967
▁کانچ	-11.4968
▁کنوکے	-11.4969
he	-11.4969
▁فعل	-11.4969
▁پدرائی	-11.497
▁Na	-11.4973
▁واریاں	-11.4974
▁پہکیں	-11.4975
▁بوتوں	-11.4976
▁انگریزاں	-11.4977
▁سهب	-11.498
▁سوبا	-11.4981
▁لوٹنت	-11.4982
▁ھمروچیگیں	-11.4986
▁Po	-11.4989
▁tropic	-11.4991
▁کرناں	-11.4992
▁fl	-11.4993
▁نسب	-11.4994
▁ملکا	-11.4994
▁تہلیں	-11.4996
نڑ	-11.5
اث	-11.5004
▁ذرائع	-11.5006
▁صحب	-11.5007
▁بروک	-11.5008
▁رنجاں	-11.5011
شاں	-11.5012
▁ماناء	-11.5014
▁پنڈگ	-11.5014
▁حوالے	-11.5015
▁نگدکار	-11.5015
▁23	-11.5015
▁پیمے	-11.5018
▁ابرو	-11.502
▁ایگی	-11.5021
▁General	-11.5022
▁ندارگے	-11.5026
▁جذبات	-11.5028
سپ	-11.5029
زاد	-11.5031
▁بزانتیں	-11.5031
▁ادارے	-11.5036
▁کردہ	-11.5037
▁پہوال	-11.5038
▁چٹی	-11.5038
▁بیبو	-11.5039
▁ات۔ائیء	-11.504
▁سوبمندیں	-11.504
▁کلانچ	-11.5042
▁()	-11.5043
▁انساناں	-11.5046
▁ترکیب	-11.5047
▁دکتر	-11.5047
ینیت۔	-11.5048
▁استادے	-11.5048
▁ٹرمپ	-11.5049
▁چنڈگ	-11.5051
▁بخاری	-11.5054
▁جنکء	-11.5056
▁واڑ	-11.5059
▁پڑی	-11.506
▁گراک	-11.5062
▁زرانی	-11.5063
▁موسمء	-11.5064
▁مہراں	-11.5065
▁اشکرانی	-11.5065
▁house	-11.5066
▁گندایت	-11.5066
عربی	-11.5066
uarter	-11.5067
▁بیتگاں	-11.5068
▁لوٹائینت	-11.5068
▁پتار	-11.5069
▁ببو	-11.507
▁چاریگی	-11.5072
پدء	-11.5077
جد	-11.5078
▁لہ	-11.5081
▁ڈویژن	-11.5086
▁ملکیت	-11.5087
▁انتخاب	-11.5087
▁کوت	-11.5089
▁نبیسوک	-11.5089
انگت	-11.5089
▁hav	-11.5092
▁ھترہ	-11.5092
▁حالگش	-11.5093
▁منتوار	-11.5094
▁پیڑ	-11.5095
▁ابکہ	-11.51
▁شیری	-11.5102
▁critic	-11.5104
▁گهار	-11.5105
▁ڈیموکریٹ	-11.5108
▁ہشک	-11.5108
▁region	-11.511
▁گورے	-11.5117
▁star	-11.5118
our	-11.5119
▁اتراپ	-11.5119
▁ڈلگ	-11.512
▁پہلوی	-11.5122
▁فیکٹری	-11.5123
▁تباھی	-11.5123
▁ھمدردی	-11.5123
ادب	-11.5124
▁چال	-11.5125
▁ردان	-11.5127
B	-11.5128
▁Japan	-11.5129
▁novel	-11.5129
▁چداں	-11.513
given	-11.5132
▁جیڑہاں	-11.5136
▁بھرام	-11.5137
R	-11.5139
▁رہبنداں	-11.514
▁دروشمیں	-11.5145
▁مفت	-11.5145
▁light	-11.5145
▁برائے	-11.5149
▁اٹلی	-11.5149
▁سمندری	-11.5149
▁پورم	-11.515
▁سینزدہ	-11.5151
▁ھتم	-11.5151
پھ	-11.5152
▁چریشیء	-11.5152
▁مکی	-11.5152
مول	-11.5155
▁سکول	-11.5155
▁writing	-11.5159
▁ندوی	-11.5161
▁گنی	-11.5164
▁گواھی	-11.5164
ورنا	-11.5165
به	-11.5166
▁ھمدپ	-11.5166
قوم	-11.5171
▁مکان	-11.5174
▁رہوت	-11.5174
▁base	-11.5174
▁کھو	-11.5175
▁حیوان	-11.5178
▁ra	-11.5181
▁چمپل	-11.5182
خی	-11.5182
▁ازگار	-11.5182
کاریں	-11.5187
▁جدگال	-11.5187
▁بلکنہ	-11.5187
▁تلک	-11.5189
▁شمشتگ	-11.5191
▁کوہاں	-11.5192
▁وند	-11.5193
ڑے	-11.5194
▁du	-11.5196
▁ترانت	-11.5197
▁جوانتریں	-11.5198
▁لاطینی	-11.5199
▁نادرا	-11.5201
▁?”	-11.5201
▁سہن	-11.5201
▁گیشواری	-11.5202
واریں	-11.5203
▁دیری	-11.5205
▁پیلہ	-11.5208
▁members	-11.5209
▁range	-11.521
▁سم	-11.5211
▁ڈاکٹرء	-11.5211
▁مزور	-11.5213
▁چکان	-11.5213
▁انلاین	-11.5215
▁محرم	-11.5215
▁جنئک	-11.5216
▁نیوگ	-11.5216
▁نکتہ	-11.5218
▁بوس	-11.5219
یگاں	-11.5221
▁ازمانکء	-11.5224
پروش	-11.5224
▁We	-11.5225
▁plan	-11.5226
سردار	-11.5228
الوجی	-11.5229
▁پڑاں	-11.5231
▁view	-11.5232
دھی	-11.5233
▁west	-11.5234
▁ایڈیشن	-11.5236
غنی	-11.5237
▁کارکردگی	-11.5238
▁زلپ	-11.5239
▁محسن	-11.524
▁کاڑ	-11.5246
▁عومر	-11.5248
▁مچار	-11.5248
lost	-11.5248
▁تچیت	-11.5249
▁بیلاں	-11.525
▁بئیگا	-11.5252
▁دزمانجنی	-11.5254
دستونک	-11.5254
▁نازاں	-11.5254
▁ژانگول	-11.5259
▁انچائیں	-11.526
▁متلبے	-11.5261
▁جوانسال	-11.5261
▁انجیر	-11.5265
▁مئیت	-11.5267
▁کسا	-11.5268
▁نوٹس	-11.5268
▁انیگیں	-11.5269
یکیں	-11.527
مردماں	-11.5272
▁جناور	-11.5273
▁کھیر	-11.5274
▁سیاھی	-11.5274
▁تاکء	-11.5274
▁گمء	-11.5275
ابا	-11.5276
▁بالادء	-11.5278
▁ولید	-11.528
▁ذریعے	-11.528
▁داکتر	-11.528
▁سرکپت	-11.528
▁گرانڈ	-11.5283
▁کته	-11.5287
▁گیشنگ	-11.5287
▁ساپیں	-11.5287
▁ہوکر	-11.5289
▁موسمے	-11.5294
▁ردومء	-11.5295
▁مب	-11.5295
▁Ar	-11.5302
▁اسمائیل	-11.5302
▁عبدالکریم	-11.5302
▁k	-11.5303
▁چنگیز	-11.5303
▁country	-11.5304
پن	-11.5305
▁شاید	-11.5305
▁تامور	-11.5309
▁۔پدا	-11.5311
▁جندے	-11.5312
چیر	-11.5312
فکر	-11.5314
احت	-11.5315
▁America	-11.5317
▁لوزاں	-11.5318
▁تقریبا	-11.532
▁امیج	-11.5322
▁young	-11.5324
▁انعام	-11.5326
▁کشکاں	-11.5327
▁کرپشن	-11.5329
▁مزید	-11.533
یئر	-11.5332
▁زہگے	-11.5333
▁شتنت	-11.5336
▁اہتگ	-11.5339
▁گرے	-11.5342
▁Whil	-11.5346
دریا	-11.5348
▁۔بلوچی	-11.5349
یکہ	-11.5349
▁عالی	-11.535
▁گی۔	-11.535
▁نوان	-11.5351
▁متاہ	-11.5352
▁بربادی	-11.5352
▁کسانیء	-11.5353
ium	-11.5356
نزیک	-11.5358
ایگ	-11.5362
▁بیمناک	-11.5365
▁مھلب	-11.5368
▁ھمسیادی	-11.5368
ائینتگ	-11.5368
▁بیھال	-11.537
▁جوک	-11.537
▁ھیات	-11.537
تھا	-11.5371
▁سہتے	-11.5371
▁جنگوجانی	-11.5372
▁دیوانا	-11.5375
▁انگریزوں	-11.5379
▁دلار	-11.538
زمانگ	-11.5381
▁پکراں	-11.5381
▁ربیتی	-11.5382
seen	-11.5384
▁ھسن	-11.5389
▁خواتین	-11.539
...!‘‘	-11.5393
▁ناامیتی	-11.5393
▁گشتہ	-11.5394
▁ذیل	-11.5396
▁thought	-11.5397
▁پڈ	-11.5399
▁چلا	-11.5399
nt	-11.5401
4	-11.5402
▁درابیت	-11.5405
▁چارایت	-11.5407
▁اقتدار	-11.5412
عمل	-11.5412
▁اوزار	-11.5413
بانی	-11.5413
▁شدیگ	-11.5415
▁تماشا	-11.5415
▁عدم	-11.5416
▁tour	-11.5417
▁بیوس	-11.5417
▁ھرتال	-11.5418
▁بیگی	-11.5418
▁جرمکار	-11.5419
▁گارڈز	-11.5419
اڑی	-11.542
▁ہنری	-11.5421
▁زاننت	-11.5421
▁کک	-11.5425
▁کیوں	-11.5428
▁اپیل	-11.5432
▁غور	-11.5433
▁اذیت	-11.5434
▁تھیں	-11.5435
▁کماندان	-11.5436
▁town	-11.5439
▁ھمایاں	-11.5439
▁کسھاں	-11.5444
▁گرئگ	-11.5446
▁چونا	-11.5447
▁رنگا	-11.5448
دئیگ	-11.5449
چاپ	-11.5449
▁term	-11.545
سفرخان	-11.545
▁ھالیگ	-11.545
نڈر	-11.5451
▁چما	-11.5452
▁نسر	-11.5453
▁کتب	-11.5454
▁تالہ	-11.5455
▁2013	-11.5456
▁سینئر	-11.5456
سیر	-11.5457
▁تلاہ	-11.546
▁بلوچان	-11.5463
▁دۆست	-11.5465
▁ماہے	-11.5466
عد	-11.5467
...‘‘	-11.5471
گھ	-11.5471
▁سفرنامہ	-11.5471
ick	-11.5472
▁دانائی	-11.5472
▁گیگان	-11.5472
▁دیاں۔	-11.5477
▁ایمنسٹی	-11.5478
▁ہنچش	-11.5478
▁جنیادم	-11.5479
▁نزار	-11.548
▁ادیرہ	-11.548
▁سیاہگ	-11.5481
▁mak	-11.5482
رود	-11.5484
▁روٹکی	-11.5486
▁پٹھان	-11.5489
▁ھدائی	-11.5491
▁ریگی	-11.5492
▁پشتا	-11.5492
▁جلی	-11.5493
pa	-11.5493
▁کوشانی	-11.5496
▁الو	-11.5497
▁صحیح	-11.5499
▁ضمانت	-11.55
▁اشعار	-11.55
ونڈ	-11.55
▁بارکزئی	-11.55
▁complete	-11.55
ning	-11.5501
ai	-11.5501
▁کامیابی	-11.5503
▁پرشیت	-11.5505
▁زیروک	-11.5506
▁نادراهی	-11.5509
▁بیٹ	-11.551
اسپ	-11.551
▁پین	-11.5512
▁شہد	-11.5513
▁سجاد	-11.5513
▁پاچن	-11.5517
▁اشکن	-11.5521
▁زادگ	-11.5522
▁پاسپورٹ	-11.5523
ub	-11.5523
▁اہو	-11.5524
▁میگ	-11.5526
▁King	-11.5526
▁بیگاہء	-11.5528
زات	-11.5528
▁ہنی	-11.553
▁گوشداروک	-11.5531
▁بچاراں	-11.5531
▁رحمدل	-11.5531
▁ریاستء	-11.5533
▁ناروے	-11.5533
▁ناسرجم	-11.5534
▁لگگ	-11.5534
▁گشگا	-11.5535
▁وشحالی	-11.554
▁گسے	-11.5542
▁سرتاک	-11.5543
ساچشت	-11.5543
طر	-11.5545
▁فصل	-11.5546
▁ایرجیگ	-11.5547
▁کینسر	-11.5547
▁دراھی	-11.555
▁ماسکو	-11.5551
یتگیں	-11.5555
الدین	-11.5555
▁ورناھاں	-11.5557
went	-11.556
کمے	-11.5564
▁راھانی	-11.5566
niversit	-11.5567
▁ٹائپ	-11.5567
▁پربستگ	-11.5567
▁never	-11.5568
▁جاڑی	-11.5569
▁بانداتء	-11.5569
▁سرکارا	-11.557
▁مسلہ	-11.557
▁development	-11.557
▁کدیم	-11.5572
▁گواتانی	-11.5572
▁رچان	-11.5573
▁پاساں	-11.5574
▁24	-11.5577
▁ادارکی	-11.5578
لء	-11.5579
انکی	-11.5581
▁پیسہ	-11.5582
گٹ	-11.5582
▁درنز	-11.5584
▁ره	-11.5585
گاڑی	-11.5586
▁قطار	-11.559
▁مراگاہ	-11.559
▁مشورہ	-11.5594
▁گشادی	-11.5596
روس	-11.5596
▁ذی	-11.5599
▁باتیں	-11.56
▁stated	-11.56
نشتگ	-11.5602
,’’	-11.5603
▁بلاک	-11.5605
▁تگران	-11.561
▁لینن	-11.5611
▁روزی	-11.5612
▁اجزاء	-11.5612
▁سفیر	-11.5613
▁style	-11.5616
▁پٹان	-11.5618
▁زالکار	-11.5619
▁ایدیم	-11.562
▁award	-11.5622
▁کین	-11.5623
▁دلسیاہ	-11.5626
▁بیانے	-11.5627
go	-11.5628
▁post	-11.5629
▁راجہ	-11.563
▁تہت	-11.5632
▁واکب	-11.5632
▁too	-11.5633
▁گریں	-11.5633
den	-11.5637
▁بوت۔۔۔	-11.5638
▁ھیروپ	-11.564
▁کشنت	-11.5642
▁action	-11.5642
▁لپ	-11.5642
▁گوزگء	-11.5643
▁Dr	-11.5651
▁کنانء	-11.5652
▁تھرو	-11.5654
▁دیوالاں	-11.5655
▁ہوا۔	-11.5656
▁سانتیاگونصر	-11.5657
▁ڈاکٹرے	-11.5657
▁بوشت	-11.5658
▁الت	-11.566
▁میچ	-11.566
▁ہوارانت۔	-11.5664
چشیں	-11.5669
▁بیاراں	-11.5671
بین	-11.5672
رج	-11.5678
▁پدانک	-11.5678
لانی	-11.5679
▁ماراں	-11.568
▁روایات	-11.5682
ven	-11.5683
گڑ	-11.5685
▁ہمساہگ	-11.5689
سما	-11.569
▁زاد	-11.5693
▁بہرام	-11.5693
ture	-11.5696
▁پرسیگ	-11.5697
دلی	-11.5701
▁نکاح	-11.5703
▁چونین	-11.5705
▁کسٹم	-11.5707
▁شائراں	-11.5709
▁پاھار	-11.5712
▁toward	-11.5713
▁توام	-11.5713
▁رسین	-11.5714
غنت	-11.5715
▁پلیت	-11.5716
▁کاسد	-11.5716
▁سسائی	-11.5717
▁success	-11.5721
E	-11.5721
▁22	-11.5723
ga	-11.5724
▁اروک	-11.5725
▁نہیں۔	-11.5726
▁کسھانی	-11.5726
▁کرامات	-11.5726
▁دریافت	-11.5728
▁دپار	-11.5728
بود	-11.5732
lin	-11.5732
▁کردارانی	-11.5732
▁لشکرے	-11.5736
▁جمر	-11.5737
▁زانتکارے	-11.5737
▁نادریں	-11.5738
زک	-11.574
▁وهدی	-11.5741
▁ہپتاد	-11.5742
تانی	-11.5747
▁بژنیگ	-11.5748
▁اہی	-11.5748
▁بگاوت	-11.5749
▁جاھانی	-11.5751
▁راھبندے	-11.5755
▁نم	-11.5755
coming	-11.5756
▁پرین	-11.5756
▁کفر	-11.5757
▁Australian	-11.5757
چیء	-11.5757
▁یکشلی	-11.5761
▁راھا	-11.5764
▁Mar	-11.5764
چاکر	-11.5767
▁حدء	-11.5767
انیں	-11.577
▁پلاسٹک	-11.5771
▁نگرہ	-11.5775
ستگ	-11.5775
▁نانء	-11.5778
▁ادت	-11.5778
تھی	-11.578
▁مومنٹ	-11.578
فا	-11.5781
▁بحری	-11.5781
▁ازاتیء	-11.5782
قد	-11.5783
عطا	-11.5784
▁ترسیت	-11.5784
▁جنگلی	-11.5787
▁ریاستے	-11.5787
self	-11.5789
▁وصف	-11.579
▁تمبو	-11.5793
▁حضور	-11.5794
▁سنگتء	-11.5794
▁ازمانگ	-11.5797
پڑ	-11.5797
▁کسمت	-11.5798
▁سبکیں	-11.5798
▁جیڑگء	-11.5804
▁کسارت	-11.5804
▁بہرانی	-11.5804
▁اصلیں	-11.5804
▁لوڑی	-11.5806
▁sign	-11.5807
▁گوج	-11.5807
▁کفن	-11.581
▁کشیت۔	-11.5811
▁ft	-11.5811
▁Bo	-11.5812
▁پشومانی	-11.5812
بست	-11.5812
▁حیالداری	-11.5814
▁تف	-11.5814
نیک	-11.5815
▁سون	-11.5817
▁توازن	-11.5817
▁فوٹو	-11.5817
مود	-11.5818
▁نمائندگی	-11.5819
▁اینٹی	-11.582
▁ٹھینگ	-11.5823
▁بندیگی	-11.5823
▁چاک	-11.5825
▁بیگانگ	-11.5825
▁پردہ	-11.5827
▁کچکے	-11.5827
▁۔ایشی	-11.5827
▁کائی	-11.583
▁اسری	-11.583
▁پھول	-11.5831
▁ازمون	-11.5831
زه	-11.5832
ger	-11.5833
▁سورس	-11.5834
فہ	-11.5834
▁براتی	-11.5834
▁ثمر	-11.5834
▁دشمنی	-11.5835
روکپتی	-11.5836
▁پسیل	-11.5837
حدا	-11.5837
▁ساعتے	-11.5837
ائر	-11.5837
▁زمینانی	-11.5838
▁رودینتگ	-11.5839
فو	-11.5839
▁گورنمنٹ	-11.584
▁تروتاب	-11.584
▁پسانی	-11.584
▁ملکموت	-11.5841
▁تیغ	-11.5842
▁انگار	-11.5844
▁Ro	-11.5846
▁28	-11.5847
▁کاپرء	-11.5848
کت۔	-11.5849
▁اندازگ	-11.5849
▁وج	-11.585
▁سوا	-11.5851
ass	-11.5852
ba	-11.5853
▁مصری	-11.5854
▁مسلماناں	-11.5857
سبز	-11.5857
▁سرمچارے	-11.5857
▁کارستاں	-11.586
▁بڈا	-11.5862
▁scene	-11.5863
▁شپاد	-11.5863
▁عبید	-11.5863
▁Ire	-11.5865
▁ڈؤل	-11.5868
▁فلاں	-11.5868
▁هوار	-11.5872
▁پشل	-11.5873
ither	-11.5873
▁island	-11.5873
▁جیڑہے	-11.5873
▁وتاس	-11.5874
▁زگر	-11.5874
▁زانتیں	-11.5874
▁بیچار	-11.5874
▁نیادی	-11.5875
▁مردانی	-11.5877
▁۔ہمے	-11.5878
▁بوتک	-11.5879
▁50	-11.588
▁کتگین	-11.5883
▁ڈوبر	-11.5884
▁توصیف	-11.5886
▁کھڑکی	-11.5886
▁enter	-11.5886
▁پیشکان	-11.5887
▁Pa	-11.589
▁رائی	-11.589
▁بتلانی	-11.5895
▁بستگ۔	-11.5896
▁گیشینتگ	-11.5896
▁بڑز	-11.5897
▁گهتر	-11.5901
▁نامداری	-11.5901
▁کٹی	-11.5903
▁پسوء	-11.5905
▁chart	-11.591
▁دوداں	-11.591
کساس	-11.5912
▁ایرموش	-11.5913
▁عربانی	-11.5915
▁نمونہ	-11.5915
▁منہ	-11.5916
▁بندری	-11.5919
▁گیپت۔	-11.5923
اہے	-11.5926
اھیں	-11.5926
حت	-11.5928
امین	-11.5929
ائٹ	-11.5931
▁issue	-11.5932
▁زیراں	-11.5932
▁hour	-11.5932
▁انگلینڈ	-11.5932
▁سیٹھ	-11.5932
وھدیکہ	-11.5933
پرس	-11.5934
og	-11.5937
▁بشارت	-11.594
▁بالو	-11.594
ایس	-11.5944
جنت	-11.5944
کماش	-11.5945
مئی	-11.5945
."	-11.5945
ice	-11.5945
▁نێمگا	-11.5945
جس	-11.5947
▁سلاه	-11.5949
1	-11.595
▁ہاسیں	-11.5952
▁fee	-11.5953
▁رستہ	-11.5953
▁ground	-11.5954
▁پاور	-11.5955
▁پروردگار	-11.5955
▁دوھیں	-11.5958
▁تسلسل	-11.5958
▁ڈیجیٹل	-11.5959
dy	-11.596
▁برزتر	-11.5961
▁اسٹ	-11.5962
تربت	-11.5962
▁سکھ	-11.5963
▁دانکاں	-11.5965
▁مہتر	-11.5969
▁کیامت	-11.5971
فق	-11.5972
▁join	-11.5972
K	-11.5974
▁وانوکیں	-11.5975
▁earlie	-11.5979
▁تانا	-11.5981
res	-11.5982
ویے	-11.5984
▁مولابخش	-11.5985
▁سخن	-11.5986
▁نشانے	-11.5988
▁دانگے	-11.599
▁تئوار	-11.599
▁مفتی	-11.5991
▁وفاق	-11.5992
▁white	-11.5993
▁پجارے	-11.5994
دنت	-11.5997
لیکہ	-11.5999
نصیر	-11.6001
▁حذمت	-11.6001
▁تعالی	-11.6002
▁کمانچر	-11.6003
▁سربیت	-11.6008
▁نگدء	-11.6009
▁سلہ	-11.601
خر	-11.6011
▁گوگل	-11.6013
▁ھیرات	-11.6014
▁حوال	-11.6014
▁ھپتمی	-11.6015
▁ذگریں	-11.602
▁ساھگء	-11.6021
▁ہرکسی	-11.6022
▁رہبندے	-11.6023
▁Black	-11.6025
▁case	-11.6026
▁نارشت	-11.6027
▁موسیقی	-11.6029
▁لنج	-11.6029
▁ھانزا	-11.603
▁ارادگ	-11.603
▁مھکمی	-11.6031
ner	-11.6031
▁نگدکاری	-11.6032
زندگ	-11.6032
▁حرچ	-11.6033
▁وشھالی	-11.6036
▁ناس	-11.6037
▁صغیر	-11.6037
▁سات	-11.6039
گڈی	-11.6039
▁مرکب	-11.604
▁سرام	-11.6041
ual	-11.6042
سئے	-11.6045
▁پرینگ	-11.6046
▁ورناہانی	-11.6047
▁پمێشکا	-11.6049
▁سیاہی	-11.6049
▁پولگ	-11.6052
بول	-11.6053
io	-11.6055
▁درپش	-11.6056
▁دیئے	-11.6059
▁سینہ	-11.6062
▁نورل	-11.6065
▁بنند	-11.6067
بچ	-11.6068
▁زیبدار	-11.6068
▁حوری	-11.607
across	-11.6072
▁پکنک	-11.6074
▁جارے	-11.6075
بید	-11.6078
▁چتکان	-11.6078
▁en	-11.6084
▁جاورء	-11.6086
▁کرشن	-11.6086
▁وہی	-11.6086
▁نجات	-11.6088
زین	-11.6091
زندء	-11.6092
po	-11.6092
▁شزار	-11.6092
▁انوگ	-11.6095
▁لگام	-11.6096
▁element	-11.6096
bi	-11.6096
▁نائک	-11.6096
▁عصا	-11.6097
▁بب	-11.6097
لہتیں	-11.6098
▁یله	-11.6099
شری	-11.61
▁مردان	-11.6101
اہد	-11.6101
▁ناھدا	-11.6102
مچ	-11.6102
▁پئیمیں	-11.6103
▁وجودء	-11.6103
▁ضمیر	-11.6105
▁میاریں	-11.6105
▁دابء	-11.6109
▁ساهگ	-11.6111
▁شرو	-11.6111
▁منظوری	-11.6112
ny	-11.6112
▁کندیت	-11.6112
▁Lo	-11.6113
▁کونج	-11.6115
تام	-11.6117
ذی	-11.6121
95	-11.6123
▁درپشوکیں	-11.6123
▁بوپ	-11.6124
ونگ	-11.6125
▁عبدالحکیم	-11.6125
▁ننگر	-11.6126
▁لیکیت	-11.6126
▁مزد	-11.6127
عبدال	-11.6128
▁مجھ	-11.6129
▁سرحد	-11.613
▁ٹپاسگ	-11.6131
▁writer	-11.6134
▁ساربان	-11.6135
▁اشانء	-11.6138
پمیشکا	-11.6138
▁غمانی	-11.6139
▁کشمیری	-11.6139
.......	-11.614
پیت	-11.614
▁ولا	-11.6141
▁دوز	-11.6142
▁route	-11.6143
felt	-11.6143
▁دراہگ	-11.6145
▁ات۔ا	-11.6146
▁پہمئن	-11.6147
▁تربتء	-11.6147
▁الیاس	-11.6149
▁وسوسگ	-11.615
▁نوہ	-11.615
▁noted	-11.6152
▁ھونانی	-11.6153
▁ھمودء	-11.6153
▁موڑ	-11.6154
▁ناتپاکی	-11.6154
▁ھمگام	-11.6154
ڈے	-11.6155
لیٹ	-11.6155
درست	-11.6158
▁ہول	-11.6158
▁رتکگیں	-11.6159
▁ھداء	-11.616
▁برئے	-11.6161
▁منشی	-11.6162
▁ریشگ	-11.6162
▁نامانی	-11.6165
ردی	-11.6166
▁پیژگاہ	-11.6166
▁London	-11.6167
▁مراقبہ	-11.6167
▁کێنگء	-11.6167
▁ائن	-11.617
▁پیپلز	-11.6171
▁بلاول	-11.6171
▁کپٹن	-11.6173
▁انگه	-11.6175
کنڈ	-11.6177
▁ناگتی	-11.6179
▁son	-11.618
این	-11.6183
▁کیوبا	-11.6184
شئیر	-11.6184
▁جگا	-11.6185
▁مھرانی	-11.6185
▁26	-11.6187
▁شانت	-11.619
▁دائما	-11.619
▁مسل	-11.6192
▁لبزی	-11.6193
▁ائوکیں	-11.6194
▁کمکء	-11.6196
▁سفارت	-11.6197
▁بیتاں۔	-11.6198
▁ازلی	-11.6198
برز	-11.6198
▁مذھبی	-11.6199
امیت	-11.62
▁گیشگیواری	-11.6204
▁گلامیں	-11.6204
▁ھمگرنچی	-11.6205
▁ماش	-11.6208
▁نگران	-11.6209
▁فنا	-11.621
▁ابات	-11.621
▁غار	-11.6211
برجاہ	-11.6211
▁عدل	-11.6212
▁ماھاں	-11.6213
▁پروشی	-11.6215
▁ریگزار	-11.6215
▁ژوب	-11.6215
▁ہلاپ	-11.6216
رحم	-11.6216
▁خواہش	-11.6217
▁کڑک	-11.6217
▁بنگپے	-11.6218
▁ھوراں	-11.6219
▁دلگران	-11.6219
▁mi	-11.622
▁زورگیر	-11.6221
سریں	-11.6222
▁عین	-11.6222
▁براتے	-11.6225
▁یکسد	-11.6225
کمک	-11.6227
▁سوچیت	-11.6231
فری	-11.6231
▁گرز	-11.6232
▁جنگلء	-11.6232
▁ایجوکیشن	-11.6235
▁مانی	-11.6239
▁ریسکیو	-11.6239
▁پمپ	-11.6239
▁بندرگاہ	-11.6239
▁خدائی	-11.624
▁اصلء	-11.6241
▁گوئش	-11.6243
di	-11.6244
rs	-11.6244
▁غرض	-11.6244
▁مہربانی	-11.6244
▁ورناہاں	-11.6247
▁چس	-11.6247
▁get	-11.6248
ile	-11.6248
وکاں	-11.6249
▁ناگتیں	-11.6249
▁نالگ	-11.6251
▁ھردوئیں	-11.6253
اوار	-11.6254
▁باس	-11.6255
oc	-11.6256
▁موسماں	-11.6257
نبشتگ	-11.6257
▁سپاہیگ	-11.6258
اگن	-11.6259
▁good	-11.6263
▁himself	-11.6263
ائیڈ	-11.6263
▁ابرمء	-11.6264
▁رؤف	-11.6265
▁اہدی	-11.6265
زد	-11.6266
▁دردی	-11.6267
▁درتگیں	-11.6268
▁امت	-11.6268
nder	-11.6268
cr	-11.627
▁حلقہ	-11.6273
▁باکس	-11.6274
▁بقول	-11.6274
▁گذر	-11.6276
tion	-11.6277
▁دانکے	-11.6277
▁۔تو	-11.6279
▁داز	-11.6282
▁مہروان	-11.6285
▁برمشے	-11.6286
▁دوزواہ	-11.6287
pp	-11.6289
▁ایپلی	-11.629
▁تاثر	-11.6291
▁مڈل	-11.6291
▁ھمداں	-11.6292
دگی	-11.6293
▁چادرے	-11.6294
▁جوھر	-11.6301
6	-11.6302
▁live	-11.6303
▁رست۔	-11.6307
ess	-11.631
▁black	-11.6311
▁تجابان	-11.6311
▁ایکسپریس	-11.6311
▁ارمانی	-11.6318
▁شیرے	-11.6318
low	-11.6319
▁تلو	-11.6319
▁کیچء	-11.6323
▁چیدگے	-11.6324
▁شموشتگ	-11.6324
▁پلگاریں	-11.6326
▁نندگء	-11.6327
▁رازاں	-11.6327
▁وردی	-11.6328
گ۔	-11.6332
▁درہائ	-11.6333
▁عبدالغفار	-11.6335
▁دزگہار	-11.6336
▁ازمانکی	-11.6337
▁ندیستگ	-11.6338
▁ابیتکیں	-11.634
▁پادگ	-11.6341
▁دمانی	-11.6341
▁چمدار	-11.6342
▁ہمراہاں	-11.6342
▁پروا	-11.6344
▁ابادیں	-11.6344
▁جامعہ	-11.6345
▁گندک	-11.6345
▁ایاز	-11.6346
▁حبرانی	-11.6347
▁تاگ	-11.6351
▁Cr	-11.6351
▁ڪنت	-11.6352
داشت	-11.6355
▁زھیروک	-11.6356
▁!!!	-11.6358
‘,’	-11.6359
▁جاپانی	-11.636
▁ائیگ	-11.636
▁stage	-11.636
▁ڈیلہ	-11.6363
▁سرک	-11.6365
▁گوئشگ	-11.6365
▁جاؤ	-11.6366
ھبر	-11.6368
▁کچکانی	-11.6369
▁li	-11.6374
▁دزرس	-11.6375
▁گوشداران	-11.6376
کوش	-11.6379
▁ٹکء	-11.638
▁سوبیں	-11.6383
▁الزام	-11.6385
▁لوزانت	-11.6386
▁گئیں	-11.6388
▁درکئیت	-11.6388
▁تیوک	-11.6389
▁featur	-11.6389
▁گاڑیء	-11.639
راز	-11.6391
▁ارڈر	-11.6391
کلی	-11.6392
▁کھور	-11.6392
▁استونک	-11.6397
▁Australia	-11.6398
▁پچگرگ	-11.6399
فاضل	-11.6402
▁مبات	-11.6403
▁بالشت	-11.6406
زہرشانی	-11.6407
▁باہر	-11.6407
▁بندوبست	-11.6408
▁significant	-11.6408
▁exist	-11.6408
ارک	-11.6408
▁لازمی	-11.6408
▁پیمانہ	-11.641
▁تڑ	-11.6412
▁اوبادگ	-11.6412
▁تبدیلی	-11.6415
▁اهد	-11.6415
▁استا	-11.6416
▁اشترء	-11.642
▁گناه	-11.642
and	-11.642
▁act	-11.6424
▁دک	-11.6425
▁اتش	-11.643
بخش	-11.6431
▁گمسار	-11.6433
▁سلاحبند	-11.6433
▁رکھتے	-11.6434
▁خواہ	-11.6434
▁کئور	-11.6434
▁وپتگیں	-11.6437
▁شاہین	-11.6437
▁کمبل	-11.6444
▁ورنت	-11.6444
شیت	-11.6448
▁گندوک	-11.6451
▁پروشیت	-11.6455
▁تس	-11.6456
▁عبدالرحمن	-11.6457
▁ھاؤس	-11.6457
جہان	-11.6457
▁کباب	-11.6462
▁سنسکرت	-11.6462
▁دہلی	-11.6463
▁مرضی	-11.6464
▁واس	-11.6465
▁ازگ	-11.6467
▁تانہ	-11.6469
▁چکیں	-11.647
▁دگرء	-11.6473
▁لاشعور	-11.6475
بالاچ	-11.6481
▁important	-11.6481
▁ھمیشاں	-11.6482
▁گناھیں	-11.6482
▁جائز	-11.6483
▁قر	-11.6484
▁سرکش	-11.6485
▁برق	-11.6486
▁miles	-11.6486
▁لہر	-11.6487
▁پژ	-11.6487
▁ثنا	-11.6489
▁چرپ	-11.6491
ious	-11.6492
▁مثالے	-11.6492
بلکنا	-11.6498
یشی	-11.6498
▁ها	-11.6498
▁مشکلات	-11.65
زدہ	-11.65
▁coast	-11.6501
▁سادگی	-11.6501
سرء	-11.6502
uir	-11.6503
▁داشتہ	-11.6505
کاف	-11.6505
▁یکپارگی	-11.6506
▁initial	-11.6506
▁ٹاؤن	-11.6506
▁شیعہ	-11.6506
▁فیلڈ	-11.6507
▁تؤکا	-11.6507
uck	-11.6508
▁ناامیت	-11.651
away	-11.6515
▁damage	-11.6518
جہل	-11.6521
▁class	-11.6523
▁حمیدہ	-11.6525
▁ہستیں	-11.6525
▁کارانت	-11.6527
▁کرزیت	-11.6527
▁ھشتمی	-11.6528
!!!	-11.6528
▁پچی	-11.6529
▁گرگی	-11.653
▁تعاون	-11.653
▁comment	-11.653
▁father	-11.6531
▁ساہتے	-11.6531
▁پائیدار	-11.6532
▁ساگر	-11.6534
گراں	-11.6535
▁منڈ	-11.6536
ایم	-11.6538
▁پکرے	-11.6538
▁شاتو	-11.654
▁تچکء	-11.654
▁رستری	-11.6542
▁Pro	-11.6542
▁mid	-11.6542
بے۔	-11.6543
▁نج	-11.6546
زندگی	-11.6556
▁جمعی	-11.6557
▁چیزان	-11.6557
جوان	-11.6558
▁ہیرو	-11.6559
چوشیں	-11.6561
▁تنگو	-11.6562
▁ہورک	-11.6563
نیا	-11.6563
▁بیدے	-11.6566
▁انچشیں	-11.6566
▁مردمےء	-11.6569
hind	-11.6571
▁اہر	-11.6576
▁سانکل	-11.6577
▁شیریں	-11.658
▁female	-11.658
▁modern	-11.658
▁ھندو	-11.658
▁television	-11.658
▁ریاضی	-11.6582
▁دیوالء	-11.6583
▁age	-11.6585
▁سیارہ	-11.6586
▁دریکگ	-11.6586
شین	-11.6586
▁بندگء	-11.6587
برا	-11.6587
▁وردنی	-11.659
▁ازمکاری	-11.6592
▁پیٹر	-11.6594
جک	-11.6594
▁تھریک	-11.6594
▁یکتنا	-11.6595
▁اٹھا	-11.6595
▁ملوری	-11.66
دوستی	-11.6601
▁eight	-11.6604
▁پیدائش	-11.6605
▁عبدالمجید	-11.6605
▁کردگالی	-11.6605
▁عورت	-11.6613
شو	-11.6615
▁تز	-11.6616
▁پرانی	-11.6617
▁بوٹگ	-11.6619
▁واسطہ	-11.6621
▁امریکہء	-11.6623
▁وارے	-11.6629
▁various	-11.6629
▁interest	-11.663
▁انلائن	-11.6631
▁جوہان	-11.6636
▁میریں	-11.6637
▁چربی	-11.6637
▁جھلانکی	-11.6638
▁فنڈ	-11.6638
field	-11.6639
▁روکپت	-11.6643
▁گلستان	-11.6647
▁ہماری	-11.665
▁کنڈی	-11.6651
▁ملگزار	-11.6651
▁روزگاری	-11.6652
▁لیل	-11.6654
▁minute	-11.6654
▁دوم	-11.6656
▁Di	-11.6657
▁ساچشتے	-11.6657
▁لل	-11.6657
راجدپتر	-11.6658
باید	-11.666
▁ناظم	-11.666
▁مٹھا	-11.6662
▁road	-11.6663
لر	-11.6665
▁قصہی	-11.6666
▁گیتکگ	-11.667
▁ناہک	-11.6671
▁لکھا	-11.6671
▁وریں	-11.6671
▁ربیدگانی	-11.6672
دراہ	-11.6679
▁اخرت	-11.668
▁گنگدام	-11.668
▁لیگار	-11.6681
▁الماری	-11.6681
▁انت۔۔۔۔۔	-11.6682
▁حور	-11.6684
▁کرگ	-11.6685
پش	-11.6687
۔بلئے	-11.6688
ونٹ	-11.669
گڈ	-11.6697
▁طبیب	-11.6697
▁اوہد	-11.6701
▁گنوکے	-11.6701
▁Su	-11.6705
▁امروہی	-11.6705
▁James	-11.6705
▁تسلہ	-11.6706
▁رھ	-11.6706
نویس	-11.671
▁جنینی	-11.6711
▁شیراں	-11.6711
▁بدھ	-11.6713
▁art	-11.6716
▁گشتگ۔	-11.6717
ڈک	-11.6717
▁کثہ	-11.6718
▁مثلا	-11.6718
▁لوٹے	-11.6722
▁ہفتگ	-11.6726
▁باعث	-11.673
▁look	-11.673
▁احترام	-11.673
▁اینگو	-11.6731
▁دزکش	-11.6732
▁چاھ	-11.6735
▁تسلیم	-11.6736
▁بیچارگ	-11.6737
▁نیلیت	-11.6737
▁بیلی	-11.6738
▁انجن	-11.6739
▁جنێن	-11.6742
▁شفیق	-11.6743
▁ریشاں	-11.6745
جز	-11.6746
ڈل	-11.6748
▁تعلیمی	-11.6752
▁عبدالرحیم	-11.6755
ودار	-11.6757
▁کیسے	-11.6758
▁تیابء	-11.6759
▁منگی	-11.6761
▁زمزیل	-11.6762
▁کوارٹر	-11.6766
▁گپتیں	-11.6768
▁اشکنگء	-11.6771
▁غلط	-11.6772
▁منصب	-11.6773
▁سنگء	-11.6773
▁جکس	-11.6776
▁جوڑی	-11.6777
▁Robert	-11.678
▁جھاؤ	-11.6781
▁مراگہ	-11.6782
▁نادراھیانی	-11.6784
▁مشگ	-11.6786
▁شھریاں	-11.6787
▁تع	-11.6787
نانی	-11.6787
▁منڈی	-11.6787
▁بھادر	-11.6788
ولا	-11.6789
▁دراه	-11.679
▁need	-11.6791
▁زگری	-11.6792
جتا	-11.6793
ڑیں	-11.6794
▁met	-11.6794
▁شاھگان	-11.6796
▁دکھ	-11.6797
وائی	-11.6798
▁موداں	-11.6798
▁داتیں	-11.6801
▁ھز	-11.6803
▁جائیں	-11.6803
▁اسمی	-11.6805
▁پوائنٹ	-11.6805
▁ھڑتال	-11.6805
▁successful	-11.6805
▁ھندانی	-11.6807
▁اروہی	-11.6807
▁برکش	-11.6808
▁رخصت	-11.6808
▁does	-11.6809
che	-11.6819
▁میکسم	-11.6821
▁نبیل	-11.6822
▁events	-11.6823
▁جنزے	-11.6823
▁کمر	-11.6824
واد	-11.6826
▁ھیالی	-11.6827
یئے	-11.683
▁Road	-11.6831
▁ازادیء	-11.6831
▁sent	-11.6832
▁مسکرہ	-11.6832
▁ردیاں	-11.6835
▁رھوت	-11.6836
▁روپگ	-11.6837
▁عبدالقادر	-11.6838
▁ایٹمی	-11.6848
▁ٹہینگ	-11.6849
▁درتگ	-11.6853
▁صدا	-11.6853
▁peak	-11.6856
▁وتئ	-11.6859
▁گزرانی	-11.6859
▁دنیگت	-11.686
▁زابل	-11.6861
mer	-11.6862
جاھے	-11.6864
▁نوبل	-11.6864
▁ھمایانی	-11.6865
▁سرینگ	-11.6866
▁دیتا	-11.6868
▁امیتان	-11.687
▁چمی	-11.6873
▁برئگ	-11.6874
▁زینت	-11.6874
▁person	-11.6875
عن	-11.6876
▁چرک	-11.6881
▁discover	-11.6882
▁بکرتین	-11.6882
۔بزاں	-11.6883
▁زورایت	-11.6883
▁بلوٹیت	-11.6884
▁مجرم	-11.6885
چونیں	-11.6886
▁گنجی	-11.6886
▁political	-11.6887
انسانی	-11.6888
▁کید	-11.6889
au	-11.6889
▁زبانوں	-11.6889
▁روئیں	-11.689
▁دلیر	-11.6891
▁نب	-11.6891
▁واجھ	-11.6898
له	-11.6898
▁دوسال	-11.6901
▁جواز	-11.6903
▁بہرگاں	-11.6905
▁ائیڈیل	-11.6905
▁تقسیم	-11.6907
▁تفسیر	-11.6907
▁نوشیروانی	-11.6916
عر	-11.6916
عل	-11.6917
سس	-11.6918
▁سازش	-11.6918
▁یکجائی	-11.6919
▁ائیر	-11.692
▁باتاں	-11.6923
▁زریں	-11.6924
▁مہرگ	-11.6925
▁پنتء	-11.6926
▁hand	-11.6927
▁دمگء	-11.693
▁دزکشی	-11.6931
▁announc	-11.6933
▁معاہدہ	-11.6933
▁fight	-11.6933
▁ذال	-11.6934
▁فائنل	-11.6938
▁سرمگ	-11.6939
▁national	-11.6944
مج	-11.6947
▁کٹیت	-11.6948
▁دیو	-11.6948
▁زیور	-11.695
▁مادنیں	-11.6954
▁یوں	-11.6955
بستگ	-11.6956
▁مہلب	-11.6957
▁جیڑگانی	-11.6959
▁الحاق	-11.6959
gen	-11.6959
▁پائیدگ	-11.696
▁فیروز	-11.6965
▁نکناں	-11.6966
▁دیستیں	-11.6967
▁ہز	-11.6967
▁رز	-11.6971
▁mm	-11.6971
▁سنٹر	-11.6971
▁روشنائی	-11.6973
▁ریم	-11.6975
▁بابر	-11.6979
▁گندگی	-11.6982
ford	-11.6982
▁Ne	-11.6983
▁بهار	-11.6984
▁ایرکنگ	-11.6984
بھی	-11.6985
▁گولڈ	-11.6985
▁ابداللہ	-11.6987
تغیں	-11.6988
▁مادگ	-11.6989
▁نمائندہ	-11.699
▁پاہار	-11.699
▁Wi	-11.699
سرجم	-11.6993
▁شھرء	-11.6993
▁تفصیل	-11.6993
▁ساچشتاں	-11.6995
ps	-11.6995
داراں	-11.6996
▁Tw	-11.6997
▁زیملی	-11.6999
ho	-11.6999
▁بنجلے	-11.7
هیں	-11.7001
▁واکان	-11.7003
▁لمبر	-11.7005
▁نواں	-11.7008
▁چگ	-11.7009
▁poem	-11.701
▁ھالتاک	-11.7012
▁کلوھے	-11.7012
▁مشاہدہ	-11.7013
▁عاروس	-11.7013
▁جیڑه	-11.7019
▁پادے	-11.7019
ٹنگ	-11.702
شش	-11.7021
▁گوادری	-11.7022
اھگ	-11.7023
ee	-11.703
▁دج	-11.7032
▁بات۔	-11.7033
▁مکسک	-11.7034
▁ثقافت	-11.7035
ارس	-11.7035
▁برٹش	-11.7036
▁میوزیم	-11.7036
▁میزاں	-11.7037
▁پسے	-11.7038
ورا	-11.7038
▁performance	-11.7038
▁بچہ	-11.7039
▁سیکنڈ	-11.7042
▁بجائے	-11.7046
▁تلوار	-11.7047
مردمانی	-11.7047
▁بدلا	-11.7048
▁جہلء	-11.705
▁گڑی	-11.7056
▁پنگ	-11.7059
لوک	-11.7059
▁تنگیں	-11.7059
▁خوبصورت	-11.7061
▁example	-11.7062
▁چارمکنڈ	-11.7062
▁County	-11.7063
▁کلانی	-11.7064
▁انت۔چہ	-11.7066
▁بانء	-11.7067
ath	-11.7067
ڈیو	-11.7068
▁نازرکی	-11.7071
▁Ju	-11.7072
تان	-11.7072
▁واھش	-11.7074
▁شررنگی	-11.7074
▁ھیلکاری	-11.7075
▁سوٹ	-11.7075
▁الھان	-11.7076
▁Or	-11.7076
▁بتلے	-11.7077
▁استادانی	-11.7077
▁دراجکش	-11.708
گمان	-11.7082
میار	-11.7085
▁دیوالے	-11.7088
▁پولیٹیکل	-11.7088
▁اکبت	-11.7089
▁And	-11.7089
▁امنی	-11.709
▁رنجانی	-11.709
۔بلوچی	-11.7091
ساں	-11.7091
▁پیالہ	-11.7093
▁سوغات	-11.7094
▁ٹائمز	-11.7096
▁گارء	-11.7097
ارہ	-11.7098
▁کوار	-11.7099
ایشیء	-11.7102
تال	-11.7102
انچش	-11.7102
▁بوتگاں۔	-11.7103
▁سمب	-11.7104
▁اوشتات۔	-11.7104
▁جرات	-11.7107
▁عرفان	-11.711
▁چیری	-11.7111
▁put	-11.7113
▁الخط	-11.7116
بادشاہ	-11.7116
▁محض	-11.7117
▁سنگاں	-11.7118
ru	-11.7127
▁پراں	-11.7128
▁گونڈل	-11.7128
▁وھم	-11.7129
▁کنت۔اے	-11.7132
▁دیا۔	-11.7133
▁سیکس	-11.7133
▁حرابی	-11.7133
pi	-11.7134
▁شماری	-11.7138
▁should	-11.714
قاضی	-11.714
▁انت۔ھمے	-11.7141
▁influence	-11.7141
▁مخصوص	-11.7141
▁سربر	-11.7142
▁دوچگ	-11.7143
▁کاگدانی	-11.7144
▁درشتگ	-11.7152
▁ٹول	-11.7153
▁تھل	-11.7154
▁نابودی	-11.7154
▁wide	-11.7155
▁ٹائی	-11.7156
اجوئی	-11.7157
▁ٹالسٹائی	-11.7158
▁شرتگ	-11.7158
▁گریڈ	-11.7158
▁ابھی	-11.716
نون	-11.7164
نمدی	-11.7164
▁زانتاں	-11.7165
▁victor	-11.7167
▁شتاں۔	-11.7171
▁بیدء	-11.7171
ایان	-11.7174
7	-11.7175
▁locat	-11.7176
▁مقدمہ	-11.7177
▁معلومات	-11.7179
▁بھتی	-11.7181
▁تکء	-11.7181
▁شیرگ	-11.7183
▁سانکلاں	-11.7187
اسٹ	-11.7188
▁سوتے	-11.719
▁effect	-11.7193
▁پرائمری	-11.7193
▁چوہدری	-11.7193
▁بہارگاہ	-11.7194
▁حطرہ	-11.7196
▁تھران	-11.7199
▁نوار	-11.7199
▁رئوت	-11.7199
▁شپک	-11.7201
نود	-11.7202
▁بدرنگ	-11.7203
▁سرمگیں	-11.7204
▁شوہازء	-11.7204
▁کردستان	-11.7204
▁دادء	-11.7206
▁اھوالکاراں	-11.7212
▁شدید	-11.7214
▁سالا	-11.7214
▁جبل	-11.7216
▁ناموس	-11.7218
▁پادری	-11.7219
▁litt	-11.7219
▁ویکاریو	-11.7219
▁نکال	-11.7219
▁حساس	-11.722
▁پرکے	-11.722
▁بختاور	-11.722
rd	-11.7221
▁مبارکیں	-11.7221
▁درانڈیھ	-11.7222
▁structure	-11.7223
فقیر	-11.7223
▁بئیت۔	-11.7225
▁خوف	-11.7227
▁ماہر	-11.7228
▁ننگار	-11.7228
▁ماضی	-11.723
▁پندلے	-11.723
▁نویساں	-11.723
سہر	-11.723
▁جاهے	-11.7231
▁وین	-11.7235
▁گزی	-11.7237
▁لوٹئے	-11.7237
زام	-11.7238
▁انت۔ائیء	-11.7238
▁اوٹ	-11.7239
▁فعال	-11.7241
▁گچک	-11.7241
ائش	-11.7244
▁اسنائپر	-11.7246
▁حوصلہ	-11.7246
▁eventual	-11.7246
▁Go	-11.7246
red	-11.7248
▁وشال	-11.7248
▁ائیگا	-11.725
نگو	-11.725
▁ارسطوء	-11.7259
▁اغاز	-11.7261
کارء	-11.7263
▁تے	-11.7264
▁ڈیھانی	-11.7264
▁bar	-11.7264
▁Ga	-11.7266
انگریزی	-11.7267
▁ماڈی	-11.7268
▁استاداں	-11.7269
▁درکرت	-11.727
▁جنتر	-11.727
▁کھا	-11.727
▁لانس	-11.7271
▁کماشے	-11.7272
▁پدمنتگیں	-11.7273
▁ھاجت	-11.7273
▁انٹیلی	-11.7276
▁نیکراہی	-11.7277
▁زمینے	-11.7278
▁سپرے	-11.728
▁27	-11.728
▁لسٹ	-11.7282
▁پندے	-11.7282
▁سکتے	-11.7282
جوانیں	-11.7283
▁کوئٹہء	-11.7283
▁بچکاں	-11.7286
▁لوٹاں۔	-11.7286
یون	-11.7289
▁کوکر	-11.7289
▁تت	-11.7289
▁چینء	-11.7292
▁ملکان	-11.7296
▁بدنام	-11.7298
.........	-11.73
▁بہائیں	-11.7301
▁حملء	-11.7302
▁جاگاہ	-11.7302
▁گوٹھ	-11.7304
▁دوزحہ	-11.7304
▁بغداد	-11.7305
▁گواش	-11.7308
▁شینک	-11.7309
غم	-11.7312
▁ٹگل	-11.7312
▁جائزہ	-11.7312
شد	-11.7312
▁ویرانیں	-11.7313
▁٭۔	-11.7313
▁وحدت	-11.7314
▁ادارگاں	-11.7315
کول	-11.7317
▁اھر	-11.7318
men	-11.7318
۔بلکیں	-11.7318
بندات	-11.7318
ki	-11.7319
▁دہر	-11.732
▁مالاں	-11.7321
▁یکشلہ	-11.7324
▁وشنود	-11.7324
▁سیمسرانی	-11.7325
۔۔۔بلے	-11.7325
▁شانیں	-11.7326
▁اجازہ	-11.733
▁چابک	-11.7332
▁ہژدہ	-11.7332
▁اطلاعات	-11.7335
▁پکائیں	-11.7335
▁Per	-11.7336
▁پڑے	-11.7337
▁اتکیں	-11.7337
▁report	-11.7337
▁چھرگ	-11.7338
▁بٹاک	-11.7338
مانا	-11.7338
▁لڑے	-11.7339
▁گشتگیں	-11.7339
▁فرا	-11.7339
▁قطر	-11.7339
▁لبنان	-11.734
▁بھرتی	-11.7344
und	-11.7347
▁لوٹائینگ	-11.7349
▁مشق	-11.7349
▁منئ	-11.7349
▁رازے	-11.735
▁اي	-11.735
▁ناروائی	-11.7351
▁2004	-11.7353
▁درورء	-11.7354
▁ذاتے	-11.7355
▁برادر	-11.7355
▁خلق	-11.7356
▁توس	-11.7358
▁حرماگ	-11.7359
بشکن	-11.7359
▁معمولی	-11.736
▁شوھازء	-11.736
▁ٹیکسی	-11.7362
ھین	-11.7367
▁میاری	-11.7369
▁characters	-11.7369
ورت	-11.7369
▁عل	-11.7369
▁تراش	-11.737
▁گزشت	-11.7371
▁افس	-11.7374
▁یکدار	-11.7375
▁درانی	-11.7375
طی	-11.7377
▁ناگتء	-11.7377
▁entire	-11.7379
▁2005	-11.7379
▁Music	-11.7379
▁پروٹین	-11.7379
▁مێتگ	-11.738
▁construction	-11.738
▁انکلاب	-11.738
پاک	-11.7382
▁ھنگت	-11.7384
ینٹ	-11.7385
▁leas	-11.7386
▁جپت	-11.7386
▁زبانزانت	-11.7387
▁مارگء	-11.7389
زرت	-11.739
▁تراول	-11.7392
▁نزارگ	-11.7392
▁سراپ	-11.7393
▁شربت	-11.7394
▁سرجمء	-11.7396
▁پاند	-11.7398
شیں	-11.7398
▁Roman	-11.74
▁وختے	-11.7401
▁نف	-11.7402
کچک	-11.7402
▁جنوبی	-11.7403
▁بوتت	-11.7405
▁شھادت	-11.7406
کشن	-11.7407
نار	-11.7408
▁نادینت	-11.7409
▁ساخت	-11.7411
▁ملگور	-11.7411
▁واگ	-11.7412
تیر	-11.7412
▁باتیل	-11.7414
▁شکیل	-11.7415
▁نمک	-11.7417
▁ھجالت	-11.7417
▁ھمدء	-11.7421
▁کدیں	-11.7425
▁ارواہء	-11.7428
روسی	-11.7428
▁کمبرانی	-11.7429
لزم	-11.7431
▁جیڑو	-11.7432
▁Some	-11.7433
▁فاروقی	-11.7434
▁ناکۆ	-11.7434
▁بئیگء	-11.7438
▁گشوک	-11.7438
کلات	-11.7439
▁اورتگ۔	-11.7439
▁کودکیں	-11.7441
▁car	-11.7441
▁تیزیں	-11.7441
▁چریک	-11.7442
▁وشیء	-11.7442
▁ہیک	-11.7443
▁ایشانء	-11.7448
▁بستر	-11.7449
▁نادراھانی	-11.7449
ریز	-11.7451
▁مانیت۔	-11.7453
▁represent	-11.7453
▁شاہگان	-11.7453
,,,	-11.7454
▁رستیں	-11.7456
▁بگلء	-11.7458
▁کوڑی	-11.7459
لم	-11.7459
▁انٹرویو	-11.746
▁قندیل	-11.746
▁ہوس	-11.7462
▁میو	-11.7462
▁اگان	-11.7464
▁کاؤنٹر	-11.7464
▁دفاع	-11.7469
▁شیشہ	-11.747
منیر	-11.7472
▁ہیڈ	-11.7472
چکہ	-11.7475
سندھی	-11.7476
روک	-11.7477
▁زیریت	-11.7478
▁کی۔	-11.748
▁..	-11.7481
▁court	-11.7487
▁مق	-11.7487
روپ	-11.7491
▁ھرچے	-11.7491
▁حسد	-11.7492
▁انونیں	-11.7496
کمیں	-11.7497
▁رین	-11.7499
▁کارل	-11.7503
▁ھدیس	-11.7504
شرف	-11.7504
end	-11.7505
▁پوت	-11.7505
▁چارتگ	-11.7506
▁کردگار	-11.7507
▁سلا	-11.751
▁بیاں	-11.7514
▁مھربان	-11.7515
▁دیمرہی	-11.7515
▁گرانت	-11.7516
▁راھبنداں	-11.7517
▁قسمے	-11.7518
▁ٹیکسٹ	-11.7518
▁نظریاتی	-11.7523
▁بلۆچستان	-11.7528
▁ندات	-11.7528
▁پازلء	-11.7529
▁برئو	-11.753
▁works	-11.7534
▁لیں	-11.7537
▁انتہائی	-11.7537
▁اکسانی	-11.7537
لشکر	-11.754
▁صبیحہ	-11.7542
▁ہشتاد	-11.7543
▁رویش	-11.7544
▁سمالانی	-11.7545
▁مرادساحر	-11.7548
▁نزیکا	-11.7548
ایشاں	-11.7551
▁ناراض	-11.7553
▁دوارگ	-11.7557
▁گرکی	-11.7558
▁come	-11.7563
▁پئیما	-11.7563
▁کھندان	-11.7564
۔گڈا	-11.7567
انوں	-11.7567
▁مملکت	-11.7569
ریشن	-11.7572
▁میاربار	-11.7572
▁دلکشیں	-11.7573
▁کشش	-11.7574
▁بازارے	-11.7574
ریش	-11.7575
▁بوجگ	-11.7576
▁زینب	-11.7577
▁بانزلاں	-11.7578
▁ہلاک	-11.7579
▁راہاں	-11.7582
▁زانے	-11.7584
درچک	-11.7587
برات	-11.7589
▁ھورء	-11.7591
▁سرجمیء	-11.7591
tro	-11.7595
▁حالرسانی	-11.7596
▁ھدامرزی	-11.7596
▁عبدالعزیز	-11.7596
▁شادمانی	-11.7598
فع	-11.76
▁اکتر	-11.7602
ٹیو	-11.7603
▁مدئے	-11.7604
▁انان	-11.7604
▁گہتریں	-11.7604
▁برجاه	-11.7606
ارو	-11.7606
▁رازیگ	-11.7607
▁نمائندگ	-11.7608
گنوک	-11.761
▁date	-11.761
▁نوح	-11.7611
▁رت	-11.7613
illa	-11.7614
▁ترانے	-11.7617
▁بلکین	-11.7618
بگر	-11.762
▁دیمروئیء	-11.7624
▁others	-11.7624
txt	-11.7624
▁سیری	-11.7624
▁گناھے	-11.7624
▁وہاب	-11.7625
▁فوک	-11.7626
▁ورگا	-11.7627
▁چارلس	-11.7627
شعرء	-11.7627
▁کاملیں	-11.7629
▁ادبیات	-11.7629
▁جہدکار	-11.763
▁رکشہ	-11.7631
▁۔کہ	-11.7637
▁مرادساحرء	-11.7638
رست	-11.7639
▁قصہے	-11.7641
زال	-11.7641
▁سداں	-11.7641
▁خیل	-11.7642
ہست	-11.7645
▁سبزگ	-11.7646
▁خواب	-11.7646
▁تپل	-11.7647
▁Ta	-11.765
▁ساھ	-11.7651
مھ	-11.7651
▁ساهت	-11.7651
▁گرنیڈ	-11.7651
گچین	-11.7652
▁ہمگرنچیں	-11.7652
▁ڈاکٹردیدگ	-11.7653
▁ترات	-11.7655
▁ویسٹ	-11.7659
▁سگریٹے	-11.766
j	-11.7661
▁چیئر	-11.7662
ھڑ	-11.7664
▁ائینی	-11.7665
▁میڑے	-11.7668
بکنت	-11.7668
▁حالا	-11.767
▁کشتی	-11.7671
▁دوہ	-11.7673
▁Ho	-11.7674
▁شاگ	-11.7674
دارگ	-11.7674
▁ماھانی	-11.7674
▁پتن	-11.7675
▁زل	-11.7675
نا۔	-11.7675
▁لیڑو	-11.7678
▁چالاک	-11.7678
▁ہجبر	-11.768
▁ہمد	-11.768
▁زبریں	-11.7681
▁کیمت	-11.7682
H	-11.7682
▁سوداگری	-11.769
▁نصر	-11.7691
▁دمکے	-11.7693
▁non	-11.7693
یکل	-11.7693
▁السء	-11.7694
▁دژمنء	-11.7695
▁دشمنیں	-11.7697
▁سردارء	-11.7697
جتگ	-11.77
بع	-11.7701
▁سازء	-11.7701
▁شہدیں	-11.7701
▁battle	-11.7707
▁شیرزال	-11.7709
ator	-11.7709
▁گرین	-11.7712
▁زردار	-11.7713
مثال	-11.7713
▁رخشانی	-11.7714
▁کپئگ	-11.7715
▁خلا	-11.7715
اسل	-11.7717
ھب	-11.7717
ماس	-11.772
▁دلوش	-11.7721
▁provid	-11.7723
▁لۆگ	-11.7723
ٹین	-11.7725
▁ابے	-11.7727
سراں	-11.7728
جند	-11.773
بھر	-11.773
▁tri	-11.773
▁جاگھاں	-11.7734
▁hurricane	-11.7734
دیست	-11.7735
▁ڈگارے	-11.7736
▁پێش	-11.7736
▁ہندوستانی	-11.7736
▁پھمگ	-11.7737
▁command	-11.7737
گرمیں	-11.7738
▁front	-11.7739
▁راجمانء	-11.774
▁یادگار	-11.7741
▁نداتگ	-11.7742
▁بانی	-11.7742
▁کوتاہ	-11.7743
▁شھمیر	-11.7743
غیر	-11.7744
▁ندارگانی	-11.7745
ric	-11.7745
▁مردینانی	-11.7751
صبا	-11.7751
▁بیبرگ	-11.7751
▁براھدار	-11.7752
▁یاتگیری	-11.7753
▁اکرء	-11.7754
▁فردوسی	-11.7754
▁یانی	-11.7755
▁انت۔یک	-11.7756
........	-11.7758
▁read	-11.7761
▁la	-11.7761
▁ہیران	-11.7762
▁منتء	-11.7762
▁فو	-11.7763
▁مختصر	-11.7765
▁مکھیں	-11.7766
پرچاکہ	-11.7766
▁ظ	-11.7767
▁نگاہاں	-11.7768
میز	-11.777
▁بندیگجاہ	-11.777
▁ھرام	-11.7771
▁کمپین	-11.7773
▁ھدیسے	-11.7774
▁جات	-11.7774
نب	-11.7775
▁گمے	-11.7776
▁ہمدپ	-11.7776
▁دوستء	-11.7776
▁روشے	-11.778
کہول	-11.7781
▁ھاکاں	-11.7783
▁وانیں	-11.7785
▁ملاء	-11.7785
▁پپ	-11.7787
▁بانداتے	-11.7787
▁ڈیمز	-11.7788
▁debut	-11.779
▁اصحاب	-11.779
▁ریموٹ	-11.7791
▁خراسان	-11.7791
▁نوعیت	-11.7791
▁منطقی	-11.7791
▁تئیگ	-11.7792
▁کائیگر	-11.7794
▁موز	-11.7796
▁کلاسیکی	-11.7797
▁پتریت	-11.7797
▁چولاں	-11.7798
▁rest	-11.7798
▁زہن	-11.7801
روت	-11.7801
▁انون	-11.7803
▁ھمراھانی	-11.7806
▁بژنی	-11.7807
اتیں	-11.7807
▁سروکے	-11.7808
▁بھاگ	-11.7808
واه	-11.7809
▁دوسرا	-11.7811
▁شائ	-11.7811
▁لاک	-11.7811
▁جمبرانی	-11.7813
ng	-11.7813
رون	-11.7814
▁ماڈرن	-11.7818
▁پٹرول	-11.7818
▁difficult	-11.7818
▁Kingdom	-11.7818
▁rock	-11.7818
▁حقوق	-11.782
▁رودپتر	-11.782
▁حاندان	-11.782
چش	-11.782
▁تنقیدی	-11.7821
▁گورگیج	-11.7821
▁شیراز	-11.7821
سیل	-11.7821
▁داغ	-11.7826
▁ھندوستانی	-11.7826
▁خیالات	-11.7827
▁night	-11.7829
▁ہندے	-11.7832
▁جاپر	-11.7833
▁بازاراں	-11.7833
▁Du	-11.7834
▁مہروانیں	-11.7836
gi	-11.7837
▁سیدھاشمی	-11.7837
▁نقشہ	-11.7837
▁کنات	-11.7838
▁درنج	-11.784
▁پائے	-11.784
▁campaign	-11.7846
▁واشنگٹن	-11.7846
▁Am	-11.7847
▁Island	-11.7847
▁چاغی	-11.7847
▁چیروکائی	-11.7848
▁دوستیء	-11.7852
▁مارٹر	-11.7855
▁guns	-11.7855
▁۔۔۔۔۔۔۔	-11.7856
▁ساہء	-11.7857
▁عقلء	-11.7858
▁میارباری	-11.7859
▁پاگاس	-11.786
▁پولیسء	-11.786
چه	-11.786
▁عصر	-11.7861
۔ما	-11.7862
سانی	-11.7866
یاتی	-11.7867
▁کبگ	-11.7867
▁الک	-11.7872
▁کنڈء	-11.7873
▁سکریٹری	-11.7874
▁Grand	-11.7875
▁Cup	-11.7875
▁ریلوے	-11.7876
▁سرریچ	-11.7877
▁اژناگ	-11.7878
▁گوہرام	-11.7879
▁کما	-11.7879
▁ماھو	-11.7881
▁اسکا	-11.7881
▁مرمر	-11.7882
▁والد	-11.7882
غوث	-11.7883
▁پارٹیانی	-11.7883
▁پنجاپی	-11.7884
▁عنبر	-11.7884
▁لنککاں	-11.7885
▁رہبندء	-11.7885
▁کانونی	-11.7885
پاں	-11.7887
افی	-11.7887
الے	-11.7888
ساہ	-11.7889
▁داث	-11.7889
▁پیشہ	-11.789
▁رژناہ	-11.789
▁director	-11.789
▁ھجالتی	-11.7891
▁str	-11.7892
▁غفار	-11.7894
▁حقاں	-11.7894
▁سچکان	-11.7897
▁ازماں	-11.7897
▁جیڑہء	-11.7899
▁give	-11.79
▁کتبی	-11.79
▁انیس	-11.7901
▁سوویت	-11.7903
▁درابوت	-11.7903
▁امجد	-11.7903
▁ہوگا	-11.7904
▁جہلانکیں	-11.7904
▁استاراں	-11.7904
▁rank	-11.7905
▁جنزاں	-11.7906
پیسر	-11.7907
▁عیبے	-11.7907
▁بوارت	-11.7907
▁بیگاه	-11.7908
▁سائنسداناں	-11.7909
▁فلیٹ	-11.791
دژمن	-11.791
▁goal	-11.791
▁Ber	-11.7912
▁شامء	-11.7915
بور	-11.7916
▁بھنگ	-11.7917
▁قصو	-11.7923
▁کویت	-11.7923
▁ستون	-11.7926
▁نیمونے	-11.7926
▁دزاں	-11.7929
▁Pol	-11.793
▁دزگ	-11.7931
▁مران	-11.7932
▁وابجاہ	-11.7933
▁بچی	-11.7933
▁addition	-11.7934
▁گوا	-11.7936
▁مهمان	-11.7936
▁ڈیوڈ	-11.7938
ney	-11.7939
▁منو	-11.7942
▁واجھیں	-11.7945
▁Hu	-11.7947
سند	-11.795
▁شیرء	-11.7951
???	-11.7952
شھ	-11.7956
▁الطاف	-11.7959
▁سرپراز	-11.796
▁شھداد	-11.7962
▁شریعت	-11.7963
▁my	-11.7964
▁ڈبی	-11.7966
▁گلائش	-11.7967
▁گدارانی	-11.7968
تاج	-11.7971
▁مازگ	-11.7972
▁کپن	-11.7973
▁سینٹ	-11.7973
▁San	-11.7973
▁سورء	-11.7974
▁اوش	-11.7975
▁پرمائیت	-11.7975
▁دوئین	-11.7975
▁گیل	-11.7975
▁دھکانء	-11.7981
▁تیگ	-11.7982
▁جہگیری	-11.7984
▁ساڑ	-11.7984
نین	-11.7987
۔چہ	-11.7988
▁Si	-11.7988
▁Company	-11.7988
▁پدریں	-11.799
▁سائی	-11.7991
▁ترمیم	-11.7991
▁سرپر	-11.7992
ریل	-11.7992
▁پداں	-11.7993
▁ماتاں	-11.7995
▁ودینگ	-11.7995
▁گوٹ	-11.8001
▁کلاکاں	-11.8004
▁بیزن	-11.8004
▁اباں	-11.8006
▁ازاتء	-11.8007
لیکن	-11.8008
▁انسٹی	-11.8009
▁ترانگ۔۔۔	-11.8009
▁liv	-11.8009
▁سرمچاری	-11.801
▁believ	-11.8013
چپ	-11.8013
▁پتھر	-11.8015
گریں	-11.8015
▁سردیں	-11.8015
▁خوار	-11.8016
▁process	-11.8017
▁کولیسٹرول	-11.8017
▁عبدالنبی	-11.8017
▁France	-11.8017
▁ساسانی	-11.8018
▁موں	-11.8021
▁نندیں	-11.8022
▁جہانگیر	-11.8024
▁گرفتار	-11.8026
▁نیاریت	-11.8027
▁شانتگ	-11.8027
▁کیگد	-11.8027
دلگوش	-11.8028
▁کنئگا	-11.803
▁تاریک	-11.8035
قل	-11.8037
▁اںت	-11.804
▁بچکانی	-11.804
▁کوهن	-11.8041
▁شھزاد	-11.8046
▁male	-11.8046
▁وشتریں	-11.805
▁منافق	-11.8051
▁چیرمین	-11.8053
▁مڑگ	-11.8056
▁نوشتگ	-11.8059
▁highway	-11.8061
▁شموشت	-11.8062
▁لہڑی	-11.8064
day	-11.8064
0	-11.8066
ble	-11.8067
▁پرگ	-11.8068
▁زرتہ	-11.8072
▁انت۔منی	-11.8073
▁کف	-11.8073
▁کوالٹی	-11.8074
▁رہتا	-11.8074
اشک	-11.8075
▁کردارے	-11.8076
▁کنڈاں	-11.8079
?!	-11.8079
▁ریھان	-11.808
▁بٹن	-11.808
▁جوابی	-11.8082
▁هاک	-11.8083
پے	-11.8084
سازی	-11.8084
▁انکاری	-11.8084
▁ئین	-11.8085
وریں	-11.8085
▁روایر	-11.8085
اہیں	-11.8086
▁کارامد	-11.8086
▁ہونا۔	-11.8086
▁gun	-11.8087
▁ریں	-11.8088
▁کنزگ	-11.8088
▁میٹ	-11.809
▁رپتگیں	-11.8092
▁پدمنتگی	-11.8092
▁تاریخء	-11.8094
رانت	-11.8095
▁برتگیں	-11.8095
▁کندن	-11.8098
▁کدء	-11.8098
▁چیٹ	-11.8098
▁visit	-11.8099
▁وھدان	-11.81
▁حسی	-11.8101
▁براتء	-11.8102
▁روباہ	-11.8103
▁دلوں	-11.8103
▁عنصر	-11.8103
▁والہ	-11.8103
▁اشوبے	-11.8104
▁فرزند	-11.8104
▁ڈوھدار	-11.8105
▁امپ	-11.8105
▁stars	-11.8106
بازار	-11.8107
برت	-11.8107
▁offer	-11.8109
۔دومی	-11.8111
▁براث	-11.8111
واز	-11.8112
read	-11.8113
▁سساء	-11.8114
▁تبی	-11.8116
ana	-11.812
▁کوہلو	-11.8121
▁ڈیھی	-11.8121
▁ڪن	-11.8124
▁سیلاب	-11.8125
دام	-11.8126
▁مودانی	-11.8127
▁پتی	-11.8127
▁کوہی	-11.8128
▁لشکرء	-11.8129
▁گندات	-11.8129
▁گوشیت۔	-11.813
▁چارین	-11.8131
عہ	-11.8131
▁اچکزئی	-11.8132
▁رودینگ	-11.8132
▁ہمبل	-11.8132
▁سیما	-11.8133
لاک	-11.8133
▁ڈاچی	-11.8134
گوز	-11.8135
▁limit	-11.8135
▁لہجہ	-11.8138
کنوک	-11.8139
اچہ	-11.8141
▁اثرے	-11.8144
▁کچی	-11.8146
▁نہایت	-11.815
▁لن	-11.8152
▁انگیں	-11.8153
▁میچل	-11.8155
▁Love	-11.8156
▁زمستانی	-11.8159
▁figure	-11.8161
▁گردی	-11.8163
ck	-11.8163
▁اشیا	-11.8164
▁نیشنلزم	-11.8164
▁جلشک	-11.8165
▁بچانی	-11.8165
▁کارکنانی	-11.8165
▁جماز	-11.8169
▁شکے	-11.8172
▁ناتوان	-11.8174
سز	-11.8174
ناکو	-11.8176
▁دراتکگیں	-11.8177
▁سوجکار	-11.8179
▁پرام	-11.818
▁درامدانی	-11.8183
▁بنیں	-11.8185
▁چاڑے	-11.8187
▁کوچگاں	-11.8187
▁خالی	-11.8187
▁شارء	-11.8188
▁river	-11.819
▁رحمٰن	-11.819
▁لقب	-11.819
▁بانگواہ	-11.8193
mph	-11.8195
▁چڑو	-11.8197
▁پاسداری	-11.8197
▁لۆگئے	-11.8198
▁کپتنت	-11.8202
ونا	-11.8203
▁تیں	-11.8204
وٹی	-11.8204
اسحاق	-11.8208
اڑے	-11.821
▁وز	-11.821
▁سنگیں	-11.8212
▁جمعیت	-11.8213
▁Battalion	-11.8219
ov	-11.8219
▁ناکوزتک	-11.8219
▁بکال	-11.822
▁تھئی	-11.8221
اوانی	-11.8221
▁کوٹگ	-11.8221
ways	-11.8221
▁نظیر	-11.8223
▁بشکندگ	-11.8224
▁special	-11.8224
▁جزباتی	-11.8224
▁اشکی	-11.8227
▁ذاکر	-11.8227
▁سرھالانی	-11.8227
▁کنئے۔	-11.8228
▁زھیراں	-11.8228
اوان	-11.8229
led	-11.823
▁ھسا	-11.8231
▁ویر	-11.8232
▁born	-11.8234
▁دب	-11.8234
زرد	-11.8236
اولس	-11.8237
▁جرمے	-11.8239
▁متھ	-11.824
▁Bar	-11.824
واک	-11.8241
▁چورہ	-11.8241
ons	-11.8243
▁complet	-11.8243
▁کھں	-11.8244
▁inter	-11.8244
▁گرئے	-11.8244
▁نمای	-11.8245
▁اندرا	-11.8245
▁کلیم	-11.8247
▁David	-11.8248
▁wife	-11.8248
▁southern	-11.8248
▁دھوت	-11.8249
▁تلاش	-11.8251
▁جہلگ	-11.8252
▁افسانے	-11.8255
روم	-11.8256
▁بھیر	-11.826
▁ھے	-11.8261
▁بیراں	-11.8264
۔تو	-11.8264
▁بلور	-11.8265
per	-11.8266
▁گوازینگء	-11.8268
تکگ	-11.8269
▁تیا	-11.8269
▁جاڑیں	-11.8271
▁مروشی	-11.8275
▁ball	-11.8276
▁میلانک	-11.8276
▁تامرے	-11.8276
▁ملان	-11.8277
ذر	-11.8278
وق	-11.8278
▁گورتگ	-11.828
▁دریاب	-11.828
▁تورگ	-11.8281
▁نوکنڈی	-11.8281
▁خواجہ	-11.8282
یرہ	-11.8285
▁زورے	-11.8285
▁صبح	-11.8286
▁گھنٹہ	-11.8287
مہلوک	-11.8287
جتائیں	-11.8288
▁ھام	-11.8289
ib	-11.8289
▁نیش	-11.829
▁provide	-11.829
▁ٹکانی	-11.829
امان	-11.829
▁جٹ	-11.8292
▁سئوب	-11.8292
▁پھرہ	-11.8292
▁سہل	-11.8293
▁حدود	-11.8294
▁دازن	-11.8295
▁شائرء	-11.8296
▁بوسگ	-11.8297
▁بداں	-11.8297
▁پیز	-11.8298
▁ھرچنت	-11.8298
مکران	-11.8299
▁بابتا	-11.8299
▁anti	-11.8301
▁سالار	-11.8301
▁زھن	-11.8302
ڑگ	-11.8305
▁گریتگ	-11.8306
▁چھک	-11.8306
mon	-11.8306
▁mother	-11.8307
▁women	-11.8307
▁وٹامن	-11.8307
▁پبلشرز	-11.8308
ہیر	-11.8308
▁کائینت	-11.8308
▁ازمے	-11.8309
▁اروچ	-11.8309
۔۔۔۔۔۔۔۔۔۔۔۔۔	-11.8309
▁بنگپی	-11.8311
▁مشترکہ	-11.8311
انچوش	-11.8311
وئے	-11.8312
▁سلوات	-11.8315
▁ٹیوٹ	-11.8317
▁پہاز	-11.8317
▁تالاں	-11.8318
▁پیگور	-11.8319
▁مراداں	-11.832
▁بولک	-11.8321
زے	-11.8323
▁گڈسری	-11.8323
▁love	-11.8327
▁چاھے	-11.8328
▁بھڑ	-11.8329
od	-11.8329
▁پاکی	-11.8333
▁وانوکے	-11.8334
▁ارواھ	-11.8334
▁داوت	-11.8334
▁رچیت	-11.8335
▁Cha	-11.8335
▁Brigade	-11.8336
▁study	-11.8336
▁ٹھاٹھ	-11.8336
▁ہڑتال	-11.8336
▁وصیت	-11.8336
▁دزگھار	-11.8337
▁نصراللہ	-11.8337
▁فخر	-11.8337
▁کپوک	-11.8338
▁ستارہ	-11.8338
تہا	-11.834
▁سکتی	-11.8341
▁اشکنوک	-11.8342
▁گلوبل	-11.8345
▁کمیت	-11.8349
لیس	-11.835
▁loss	-11.835
▁کاروائیاں	-11.8351
▁هں	-11.8351
▁الع	-11.8352
▁شورہاں	-11.8352
▁کوھے	-11.8353
▁بڈء	-11.8353
▁گرداں	-11.8357
▁رستم	-11.8358
▁اداره	-11.8359
▁پٹک	-11.8362
▁طبق	-11.8364
باب	-11.8365
▁مارء	-11.8366
▁لورالائی	-11.8366
▁مھرنھاد	-11.8366
▁چوھدری	-11.8366
99	-11.8366
▁بغاوت	-11.8366
▁East	-11.8368
▁کادر	-11.837
▁اعجاز	-11.8373
▁رولہ	-11.8373
▁ازمکارے	-11.8373
▁جاھ	-11.8373
▁کلاتے	-11.8375
▁نپت	-11.8377
▁ابانی	-11.838
▁سچیت	-11.838
▁نزوریاں	-11.8382
▁کوشکار	-11.8382
▁اگا	-11.8382
▁بچارات	-11.8383
▁مقابل	-11.8383
▁تخیل	-11.8383
▁دارئگ	-11.8384
▁مادری	-11.8386
▁میڈ	-11.8388
▁رودین	-11.8389
▁Ri	-11.8391
▁مانشانتگ	-11.8395
▁سفارش	-11.8396
▁cell	-11.8396
▁ببارت	-11.8397
▁تندجاہ	-11.8397
▁رھیم	-11.8398
▁تلوس	-11.84
▁چوری	-11.8401
▁نورخان	-11.8402
▁فرشتہ	-11.8403
ساد	-11.8404
ins	-11.8405
اثر	-11.8406
▁بینت	-11.8406
▁ہم۔	-11.8408
غر	-11.8409
▁وک	-11.8412
▁حو	-11.8413
اینت	-11.8413
▁ماتو	-11.8414
▁گڑد	-11.8414
▁حالانکہ	-11.8414
▁کلاکے	-11.8415
یسی	-11.8416
▁سائیٹ	-11.8416
▁جندئے	-11.8416
▁چیھال	-11.8416
▁بلگ	-11.8417
ینگء	-11.8418
▁بزھگ	-11.8423
▁جامع	-11.8423
ھگ	-11.8424
▁دیتگ	-11.8424
▁احتجاج	-11.8425
▁village	-11.8425
▁ازمءگوازی	-11.8425
▁اعلیٰ	-11.8426
▁اکوام	-11.8426
▁eastern	-11.8426
▁ٹھوس	-11.8427
رنگی	-11.8428
▁تہاریء	-11.8428
▁مارشل	-11.8428
▁پدرا	-11.843
▁Car	-11.843
▁رہیم	-11.8431
▁یاسمین	-11.8432
▁کلگی	-11.8433
▁کائیں	-11.8437
▁پھیل	-11.8437
▁ھزاریں	-11.8438
۔ایشی	-11.8438
▁گھس	-11.8443
”?	-11.8446
▁جیڑت	-11.8448
▁دورہ	-11.8448
▁چدو	-11.8453
حد	-11.8454
▁ھونی	-11.8454
▁relationship	-11.8455
▁ٹینک	-11.8457
▁بندئے	-11.846
▁So	-11.846
▁جوانیء	-11.8462
▁الودگی	-11.8463
▁رکست	-11.8465
▁ناسرپدی	-11.8467
یاء	-11.8468
وشک	-11.8469
▁بیزاری	-11.8469
ack	-11.847
▁نورمحمد	-11.8471
▁ھلوت	-11.8472
راه	-11.8473
▁کاھان	-11.8476
▁انفرادی	-11.848
غت	-11.8481
رائی	-11.8482
▁ھدابند	-11.8483
▁قالب	-11.8484
▁اکاؤنٹ	-11.8485
▁2015	-11.8485
▁2003	-11.8485
▁داروگہ	-11.8486
▁ھیرانی	-11.8486
▁علاقائی	-11.8486
▁اسکرین	-11.8486
▁شخصی	-11.8488
▁ھاکمانی	-11.8489
ircraft	-11.8489
▁مانپوش	-11.849
▁Christian	-11.8491
مکن	-11.8491
▁بگشاں	-11.8491
▁جوانین	-11.8492
▁تپد	-11.8494
▁داستانانی	-11.8497
▁دال	-11.8498
▁انہاں	-11.8499
▁اہن	-11.8501
بوج	-11.8501
▁بارء	-11.8503
▁وٹس	-11.8504
▁ڪار	-11.8504
اکہ	-11.8505
▁گوئستگیں	-11.8506
چوں	-11.8507
▁نگاھاں	-11.8509
▁المین	-11.8511
▁نکسان	-11.8512
کسان	-11.8513
▁ساٹ	-11.8514
▁ترانگء	-11.8514
▁ئیت	-11.8514
▁بگوشاں	-11.8514
▁اؤرت۔	-11.8514
ازمان	-11.8514
▁introduc	-11.8515
▁image	-11.8515
▁ایمرجنسی	-11.8515
▁مچانی	-11.8515
▁سحب	-11.8516
▁دادے	-11.8518
▁اون	-11.8518
▁گولا	-11.8518
▁گیڑھ	-11.8518
ٹون	-11.8519
▁سوالی	-11.8519
معنا	-11.8519
لب	-11.8523
▁روانبد	-11.8523
▁continue	-11.8523
ong	-11.8524
▁ex	-11.8525
▁ناشریں	-11.8525
▁سرائیکی	-11.8526
▁گے۔	-11.8526
▁گوپگ	-11.8527
▁پرشان	-11.8534
▁بادشاہء	-11.8534
▁ہپتگے	-11.8539
▁لیٹر	-11.854
▁گوست۔	-11.854
▁بیت۔بلے	-11.8545
▁افزائش	-11.8545
▁سیندک	-11.8546
▁گالبندانی	-11.8546
بزگ	-11.8546
▁ماہکان	-11.8546
ina	-11.8547
▁سویت	-11.8548
▁پزور	-11.8549
▁پہمئنء	-11.855
▁واج	-11.8552
▁ارباب	-11.8554
▁گرامر	-11.8557
▁ہمہ	-11.8558
▁ساھگے	-11.8558
▁جہانے	-11.8558
98	-11.8559
fa	-11.856
پیم	-11.8562
▁کدین	-11.8563
▁حقء	-11.8564
all	-11.8565
نازک	-11.8568
▁move	-11.8569
han	-11.857
▁جھدا	-11.8573
انو	-11.8573
کسانیں	-11.8575
▁کنک	-11.8575
ارء	-11.8575
▁Other	-11.8576
..........	-11.8577
▁ھئیال	-11.8578
▁بنھشت	-11.8578
▁پرسن	-11.8579
▁God	-11.8579
▁نشانیاں	-11.8581
ایت۔	-11.8581
▁نیر	-11.8582
▁رۆچے	-11.8583
▁ہسین	-11.8583
وه	-11.8583
▁وامدار	-11.8584
رجانکار	-11.8585
▁ولایت	-11.8585
ارسطو	-11.8586
▁نوبتاں	-11.8589
▁تلوسگ	-11.8593
▁کندگانی	-11.8594
ea	-11.8594
▁جاورھالانی	-11.8595
▁پیلویں	-11.8597
▁چراگاں	-11.8599
دید	-11.8599
▁چاکرء	-11.86
لاپ	-11.86
▁انقلابی	-11.8601
توں	-11.8602
▁زوتیں	-11.8603
▁کاگدء	-11.8603
ah	-11.8605
▁عاشقی	-11.8607
▁نس	-11.8607
▁جاندراھی	-11.8608
کتہ	-11.8609
▁دلپروشی	-11.861
▁سازگر	-11.8613
▁رندانی	-11.8615
▁کودک	-11.8615
▁فائدگ	-11.8616
▁ہاترء	-11.8617
▁ڈیھء	-11.862
▁تورات	-11.862
▁بلڈنگ	-11.8621
▁کلمت	-11.8621
▁بانوری	-11.8622
▁جمبور	-11.8622
▁تراں	-11.8622
▁اصطلاحات	-11.8622
▁صفائی	-11.8624
▁ائیوکیں	-11.8625
نشت	-11.8627
▁بوتل	-11.8629
▁نجی	-11.863
نظر	-11.8633
▁امبری	-11.8634
▁اۆدا	-11.8636
▁مسقط	-11.8636
▁ارگنائزر	-11.8638
▁taken	-11.8639
▁le	-11.864
▁fourth	-11.864
▁سوزمان	-11.8641
▁شہیدی	-11.8642
▁مرشی	-11.8645
val	-11.8646
▁40	-11.865
▁race	-11.8651
مڑ	-11.8652
▁Ru	-11.8652
▁توپانی	-11.8654
▁ات۔۔۔۔	-11.8655
▁روہ	-11.8657
▁وڈے	-11.8658
▁بوھگی	-11.8658
▁نیزگاری	-11.8663
▁زوراوریں	-11.8665
▁عکسء	-11.8665
▁روانت	-11.8666
▁لٹریچر	-11.8667
▁المء	-11.8667
▁دبستان	-11.8667
▁گپی	-11.8671
دئے	-11.8672
▁زریت	-11.8672
▁مہرنگ	-11.8673
جنی	-11.8675
▁تالانی	-11.8676
▁چاپء	-11.8676
▁الق	-11.8676
▁سرداروں	-11.8677
منت	-11.8678
▁نهات	-11.8678
▁تناظر	-11.8684
▁sea	-11.8689
ze	-11.869
دلیں	-11.8694
▁Europe	-11.8696
▁پشکپتگ	-11.8697
▁انگلستان	-11.8697
▁وائے	-11.8698
▁بگرد	-11.8698
▁European	-11.8699
پجار	-11.87
▁پریشتگ	-11.8701
▁جه	-11.8702
▁ڪس	-11.8704
▁شاہدی	-11.8707
ناصر	-11.8708
▁شومک	-11.8708
▁ثقافتی	-11.8709
▁ساعتاں	-11.8711
▁کسھی	-11.8711
▁مہرانکی	-11.8712
▁چینکس	-11.8712
▁ڈنک	-11.8718
▁سربیتگیں	-11.872
▁جیک	-11.8722
▁جزماں	-11.8722
▁فال	-11.8724
▁جلگ	-11.8725
▁لڑء	-11.8725
▁free	-11.8726
▁پائی	-11.8728
▁ماہل	-11.8728
▁کورچات	-11.8729
▁سلاماں	-11.873
▁دزانی	-11.8731
▁سپائی	-11.8731
▁لینا	-11.8731
▁پجارء	-11.8732
▁ابدمانیں	-11.8735
کشگ	-11.8737
▁رومی	-11.8739
▁سیپ	-11.8739
▁کپی	-11.8739
▁لہم	-11.8744
▁گوئز	-11.8744
▁ہین	-11.8745
▁اوپن	-11.8746
▁واجہیں	-11.8747
▁نیامی	-11.8748
بچک	-11.8748
▁قدح	-11.8748
▁پتات	-11.875
▁کسم	-11.8751
▁غریبی	-11.8753
سکیں	-11.8753
▁ہش	-11.8755
▁consist	-11.8758
▁واھگدار	-11.8759
▁پتلون	-11.8759
▁خدائیداد	-11.8759
▁ہرجاہ	-11.876
▁پھزدار	-11.8764
▁break	-11.8767
lan	-11.8771
ذات	-11.8771
بڑ	-11.8772
▁سرپوش	-11.8773
▁وب	-11.8774
▁هرچ	-11.8775
۔مئے	-11.8776
▁Au	-11.8776
▁کماشانی	-11.8776
▁شاہگانی	-11.8777
▁سنگتان	-11.8778
▁پیرکی	-11.8778
▁کسانین	-11.8781
▁ساجو	-11.8781
▁برین	-11.8781
▁زندئے	-11.8782
▁واقعی	-11.8785
▁ھالی	-11.8786
▁اسراتیاں	-11.8787
▁دھکاں	-11.8787
لنگ	-11.8789
بندر	-11.879
▁Port	-11.879
▁lack	-11.879
▁بوؤگء	-11.8791
▁دزکپتگ۔	-11.8792
▁decided	-11.8792
▁چنک	-11.8792
وڑا	-11.8795
▁ناحق	-11.8796
۔یک	-11.8796
▁بؤکیں	-11.8798
▁ویلے	-11.8798
▁ایکٹ	-11.8802
▁ٹاپار	-11.8804
▁مانتر	-11.8804
▁اھو	-11.8809
▁گنڈ	-11.881
▁هل	-11.8813
▁قل	-11.8816
▁زیبائیء	-11.8816
▁ککڑ	-11.8819
▁سئوت	-11.882
▁heavy	-11.8821
▁عوض	-11.8821
▁mix	-11.8821
▁law	-11.8823
▁رسانکجاھ	-11.8823
▁باہند	-11.8824
▁نبا	-11.8825
▁وترا	-11.8825
▁چادرء	-11.8828
بلی	-11.8828
▁کؤل	-11.883
زیب	-11.8834
▁رکھتا	-11.8834
▁رہبر	-11.8834
ابو	-11.8836
▁مجتی	-11.8836
▁کورانی	-11.884
▁بتایا	-11.8842
▁Gra	-11.8842
▁ھمراھے	-11.8843
▁اٹ	-11.8844
▁هی	-11.8845
▁idea	-11.8846
▁پہناد	-11.8847
▁بانز	-11.8847
▁اسٹر	-11.8848
▁شررنگ	-11.8849
▁نش	-11.8851
▁اکیڈیمی	-11.8852
▁دزگوھار	-11.8852
قصہ	-11.8852
ھائی	-11.8854
▁منج	-11.8855
▁زکر	-11.8855
▁ترن	-11.8856
▁کنزان	-11.8858
رندء	-11.8859
▁لوکل	-11.8859
▁ارٹس	-11.886
▁سرگوات	-11.8862
ments	-11.8865
▁گپا	-11.8865
▁افسرے	-11.8865
▁بیتہ۔	-11.8865
▁ملٹری	-11.8865
▁program	-11.8866
ding	-11.8866
▁پولیو	-11.8866
▁جاتو	-11.8869
▁درخت	-11.887
▁لچہانی	-11.8872
واھگ	-11.8874
▁گزل	-11.8875
▁چگین	-11.8876
▁توانمند	-11.8876
ائم	-11.8877
جہد	-11.8877
▁زوریت۔	-11.8883
▁problem	-11.8883
▁امشپی	-11.8883
▁condom	-11.8883
▁شیڈول	-11.8883
▁Royal	-11.8883
▁کالجء	-11.8883
▁انک	-11.8883
▁وسواس	-11.8884
▁sold	-11.8885
▁ابیل	-11.8885
▁White	-11.8885
جاھ	-11.8887
▁گوستگال	-11.8888
▁چاکری	-11.8889
▁ناں۔	-11.889
▁پائ	-11.889
کارست	-11.8891
▁سرگوستے	-11.8893
▁ٹرین	-11.8893
▁هوش	-11.8894
ازاد	-11.8898
ft	-11.8898
▁Star	-11.8898
▁ٹرا	-11.8901
▁red	-11.8902
انہی	-11.8904
▁دریگء	-11.8905
▁دودے	-11.8905
▁چتر	-11.8908
▁سینما	-11.8909
ینوک	-11.8909
سکی	-11.8909
▁ویتنام	-11.8914
▁مافیا	-11.8917
ھیل	-11.8917
▁نمازء	-11.8917
▁شیرکن	-11.8918
▁نوائے	-11.8919
▁باگیں	-11.892
▁پشکپتگیں	-11.892
▁دیدانک	-11.892
▁far	-11.8922
▁am	-11.8925
▁سڑ	-11.8925
G	-11.8926
▁دلچسپی	-11.8926
▁اسکولے	-11.8926
▁رئو	-11.8927
▁ویک	-11.8932
▁وشاتک	-11.8933
▁توجہ	-11.8934
▁هار	-11.8936
▁ترجمان	-11.8937
▁گورگ	-11.8942
▁ڈرا	-11.8943
▁دیدگء	-11.8945
▁individual	-11.8945
▁تاثیر	-11.8945
▁کسانسال	-11.8951
کھی	-11.8951
▁یورو	-11.8952
▁مچاچ	-11.8952
▁میرء	-11.8952
▁o	-11.8955
▁بیکار	-11.8955
▁بہراں	-11.8955
▁اغ	-11.8955
▁کاٹار	-11.8958
▁اھوگ	-11.8962
▁face	-11.8963
▁دھن	-11.8964
▁شین	-11.8964
▁فرقہ	-11.8965
▁شھار	-11.8967
▁موٹ	-11.8968
فکشن	-11.897
▁سنگار	-11.8973
▁مارک	-11.8974
▁پشپد	-11.8974
▁کتکار	-11.8976
▁shot	-11.8977
▁پارس	-11.8978
▁البرٹ	-11.8978
▁پرینت	-11.898
رڈ	-11.8983
▁جزیرہ	-11.8984
سوج	-11.8985
▁گراد	-11.8986
▁واھگء	-11.8987
▁ببات	-11.8987
▁رزق	-11.8988
▁مالانی	-11.899
عبداللہ	-11.8991
گیا	-11.8993
▁راگے	-11.8994
▁میٹرک	-11.8994
▁پرشتہ	-11.8996
▁ھرجان	-11.8996
▁هساب	-11.8997
▁دئی	-11.8999
wa	-11.9004
▁ناوشیں	-11.9004
▁واپار	-11.9004
▁منزور	-11.9006
▁زاھدہ	-11.9006
▁شورہ	-11.9006
▁clear	-11.9008
▁فقط	-11.9009
▁tog	-11.901
▁لوہ	-11.901
▁ٹویٹ	-11.9011
▁کمٹمنٹ	-11.9012
بندیں	-11.9013
▁ٹھیکہ	-11.9014
▁بشکھندگی	-11.9014
▁احوالکار	-11.9017
ادر	-11.9017
▁باھوٹی	-11.9018
▁Th	-11.9018
▁فش	-11.9024
▁بسم	-11.9024
▁درامدے	-11.9024
▁جواں	-11.9025
▁سمبل	-11.9026
▁ضلعی	-11.9029
▁گھڑی	-11.9029
▁rule	-11.903
▁بانکیں	-11.9031
ولے	-11.9033
▁شاھگانی	-11.9036
ہشت	-11.9037
اہگ	-11.9037
▁پیت	-11.9038
▁گردیں	-11.9038
▁مدیر	-11.9038
▁بیشک	-11.9039
▁عمری	-11.9039
▁ایشیئ	-11.9039
▁رہیں	-11.904
▁Carey	-11.904
▁عبدالرحمان	-11.904
▁قندھار	-11.904
ائزیشن	-11.9041
▁Earl	-11.9041
▁درخانی	-11.9041
▁اوستانی	-11.9041
▁گھڑیال	-11.9043
▁بکشگ	-11.9044
▁اچھا	-11.9045
▁ٹریننگ	-11.9045
▁دراز	-11.9045
▁اروسی	-11.9046
▁پارٹیز	-11.9048
▁نمیرانی	-11.9048
▁ہوں۔	-11.9051
رحیم	-11.9052
▁سیریں	-11.9056
▁گوریچان	-11.9056
▁Part	-11.906
▁عد	-11.906
▁گوستگین	-11.9061
▁سرکتگ	-11.9065
▁29	-11.9066
▁گزیر	-11.9066
▁شیتان	-11.9066
▁شوش	-11.9066
▁غذائی	-11.9067
▁بدلہ	-11.907
▁نیبگ	-11.907
▁تصدیق	-11.9073
▁افسوز	-11.9073
▁جاھی	-11.9073
▁سیمینار	-11.9074
▁لان	-11.9074
▁گودی	-11.9076
هان	-11.9077
▁ستاہ	-11.9077
▁گوزوکیں	-11.9079
▁درشک	-11.908
▁شئیراں	-11.9081
پرو	-11.9082
وہدیکہ	-11.9084
▁center	-11.9084
کنیں	-11.9084
▁موڈ	-11.9085
▁میڑاں	-11.9085
بوئیں	-11.9087
▁burn	-11.9088
▁نویستگ	-11.9089
ادم	-11.9091
▁مومنء	-11.9091
▁درباری	-11.9091
▁کارہندہ	-11.9092
▁زہیرانی	-11.9092
▁دکانء	-11.9093
▁گيئش	-11.9095
▁Air	-11.9095
▁انکی	-11.9096
جون	-11.9097
درو	-11.9098
▁ھمید	-11.91
▁شدہ	-11.91
▁ثانی	-11.9101
▁تاپگ	-11.9101
▁accept	-11.9104
▁مدافعت	-11.9104
▁وتساچیں	-11.9104
▁چریشانی	-11.9104
▁چانسلر	-11.9104
▁انٹیلیجنس	-11.9104
▁ارامی	-11.9105
▁برقرار	-11.9105
▁معراج	-11.9105
▁بیپاری	-11.9107
▁حمد	-11.9109
▁ہید	-11.911
الا	-11.9111
▁نانے	-11.9112
▁چیار	-11.9112
▁Ad	-11.9113
رژن	-11.9115
▁مڑائی	-11.9117
▁گژنگ	-11.9119
▁روژنائیں	-11.912
▁سببے	-11.9121
ight	-11.9121
▁وشین	-11.9123
▁زورگپت	-11.9123
▁Red	-11.9126
▁پرنچ	-11.9128
▁مزھب	-11.913
▁بالیچہ	-11.9131
▁کپے	-11.9133
▁مشرف	-11.9135
▁begin	-11.9135
91	-11.9136
▁گامگیجے	-11.9136
▁ساھیل	-11.9137
▁cap	-11.9137
▁ساچشتء	-11.9138
▁عزاب	-11.9138
▁اغہ	-11.9139
▁رپورٹس	-11.914
الاں	-11.9142
▁پیوند	-11.9143
we	-11.9143
▁جستاں	-11.9143
▁دارگا	-11.9146
▁ھوالگ	-11.9146
▁ایماندار	-11.9147
▁ارز	-11.9148
▁My	-11.9149
ساچ	-11.9151
▁درچکء	-11.9152
جاں	-11.9153
▁fre	-11.9154
▁شیرازی	-11.9154
کئی	-11.9157
vo	-11.9157
لیک	-11.9159
پال	-11.916
▁اقا	-11.916
ik	-11.9161
▁درگاہ	-11.9162
▁زھ	-11.9166
▁بئیں۔	-11.9166
ڈال	-11.9167
▁ٹریکٹر	-11.9168
▁سافٹ	-11.9168
▁جئ	-11.917
▁کوھیں	-11.917
▁بلیت	-11.9172
▁ٹریک	-11.9172
▁ہمید	-11.9172
▁نبشتانکء	-11.9177
▁گئے۔	-11.9179
▁خور	-11.9183
▁گڑھ	-11.9183
▁پھلوان	-11.9185
▁بشی	-11.9185
اہم	-11.9193
چراگ	-11.9194
▁گپتء	-11.9195
▁عبدالصبور	-11.9197
▁گندئگ	-11.9198
عا	-11.92
▁تہمبل	-11.9201
▁کنڈیرا	-11.9201
▁بینجو	-11.9202
▁چکگ	-11.9202
▁انکھوں	-11.9202
چست	-11.9203
▁دلوتاں	-11.9205
بلک	-11.9205
▁وانوکء	-11.9205
▁رخشان	-11.9207
▁رکھین	-11.9208
▁سروسز	-11.921
▁طالع	-11.921
ہال	-11.9212
▁چلشت	-11.9215
▁نندان	-11.9216
▁ایشر	-11.9217
▁۔ائیء	-11.9218
▁دیوی	-11.9218
▁communit	-11.9218
کندگ	-11.9218
▁بگنداں	-11.9219
61	-11.922
۔۔۔۔۔۔۔۔	-11.9221
▁یم	-11.9223
▁سورج	-11.9223
▁انے	-11.9224
نش	-11.9225
▁وارتگ۔	-11.9227
▁پلگاری	-11.9229
▁امیتی	-11.923
▁تعلقات	-11.9231
▁Federer	-11.9232
▁protein	-11.9232
▁اکانومی	-11.9232
▁ڈیزائن	-11.9232
▁جھینگا	-11.9232
▁فیل	-11.9232
▁لاشاں	-11.9233
▁ہڑ	-11.9234
▁قوتانی	-11.9234
▁پوره	-11.9235
کاہ	-11.9235
▁کاروانے	-11.9236
▁گونی	-11.9238
۔وہدے	-11.9239
▁بدنت۔	-11.9242
▁گشینگ	-11.9242
▁king	-11.9242
▁بوء	-11.9249
▁کہنا	-11.9249
▁ہوٹلء	-11.925
روز	-11.9252
▁جنگلات	-11.9253
▁دہل	-11.9254
▁بھائیں	-11.9254
▁ھمائیء	-11.9255
ساری	-11.9256
▁روشنا	-11.9256
▁کدم	-11.9257
▁پمیش	-11.9257
▁زیردستیں	-11.9258
بیست	-11.9259
ٰی	-11.926
▁دربرت	-11.926
▁لاری	-11.9261
▁گٹی	-11.9262
▁شہمات	-11.9263
▁ڈولی	-11.9264
▁درشانتگ	-11.9266
▁وسء	-11.9266
▁اجر	-11.9266
▁نویسے	-11.9268
▁دیھ	-11.9268
▁سؤب	-11.9268
▁لپرزگ	-11.9268
▁گۆش	-11.927
▁بینر	-11.9272
گپتگ	-11.9274
▁نادانی	-11.9277
▁بارش	-11.9277
▁fall	-11.9277
▁شریان	-11.9278
▁ناوشی	-11.9278
▁ادینکے	-11.928
۔۔۔من	-11.9281
▁روزرد	-11.9283
نڈا	-11.9283
▁نزانتکاری	-11.9283
▁بستی	-11.9285
▁زامرانی	-11.9285
▁تهار	-11.9287
▁زنگی	-11.9287
▁تبلیغ	-11.9291
▁ٹیلگ	-11.9291
▁تنیگت	-11.9293
▁source	-11.9297
▁saw	-11.9297
▁مشھد	-11.9297
▁پرنسپل	-11.9297
▁امتحان	-11.9297
▁چلو	-11.9298
▁جدیدیت	-11.9298
▁رهبند	-11.9299
▁باطنی	-11.9299
▁ریتکگ	-11.93
▁رکھنے	-11.93
▁round	-11.93
▁ھوس	-11.9301
▁دھمی	-11.9303
▁ڈوبار	-11.9305
tor	-11.9306
▁سالیگیں	-11.9307
ather	-11.9307
ڈہ	-11.9307
▁بنچ	-11.9307
▁رواجی	-11.9308
خانہ	-11.9308
▁کربلا	-11.9308
▁ریٹ	-11.9308
قدر	-11.931
▁گورکوپ	-11.9311
▁چھل	-11.9312
تیار	-11.9312
▁ہردوئیں	-11.9314
▁تحقیقی	-11.9317
▁یتکگ	-11.9317
▁پتینکاں	-11.9318
▁خل	-11.9319
▁جاہی	-11.9323
▁کاریاں	-11.9324
هار	-11.9324
▁ارسی	-11.9329
▁ھمش	-11.9329
▁George	-11.9329
▁International	-11.9329
▁ڈپارٹمنٹ	-11.9329
▁گرمائشت	-11.9329
▁مشہوریں	-11.9329
▁قیاس	-11.933
▁نیکشھر	-11.933
▁manager	-11.933
▁ابتدائی	-11.933
▁سلیمانی	-11.933
ction	-11.9332
▁انام	-11.9332
▁عرش	-11.9332
▁ہاجی	-11.9333
▁Col	-11.9334
▁دوئم	-11.9334
▁شنزگ	-11.9335
▁بحالی	-11.9336
▁طاھر	-11.9336
▁شموشکار	-11.9337
▁ایرگیجگ	-11.9338
داب	-11.9339
زانتکار	-11.9341
▁شناست	-11.9343
▁جیسا	-11.9344
رض	-11.9344
▁gr	-11.9345
▁سرپرہ	-11.9345
▁لیبیاں	-11.9346
▁ہاشم	-11.9347
▁هاتر	-11.9348
ep	-11.9348
و۔	-11.9348
▁زوم	-11.9349
▁حاکمانی	-11.9349
▁William	-11.9353
▁بکتیں	-11.9357
▁اپسرے	-11.9358
کری	-11.9358
▁port	-11.9358
▁مریء	-11.9362
▁activit	-11.9362
▁تفتان	-11.9362
▁مہنگائی	-11.9362
▁واهند	-11.9363
▁اسٹاپ	-11.9363
کنگء	-11.9366
▁پروشان	-11.9367
جے	-11.9368
▁جیسی	-11.9368
▁گورانی	-11.9368
▁ڈنگی	-11.9369
▁مہروانی	-11.9371
پورٹ	-11.9371
▁بوهگ	-11.9372
▁ask	-11.9373
الف	-11.9373
▁ہکل	-11.9373
▁گرپتاری	-11.9377
لینڈ	-11.9377
▁انیگ	-11.9378
الس	-11.9379
▁"","	-11.938
▁برتر	-11.938
پرچہ	-11.9384
▁استعارہ	-11.9385
▁اڑان	-11.9385
▁جنوب	-11.9388
▁ترانگانی	-11.9389
▁عم	-11.939
▁مڑدے	-11.9394
▁language	-11.9395
▁مھناز	-11.9396
▁Wales	-11.9396
▁نبیستگ	-11.9397
▁نابلد	-11.9397
▁subse	-11.9397
▁نچ	-11.9397
▁بٹے	-11.9398
▁بداتیں	-11.9398
▁اسراتیانی	-11.9399
▁هنچو	-11.9399
▁چیلک	-11.94
▁بھارتی	-11.9401
▁مندریک	-11.9402
▁مودی	-11.9402
▁Hero	-11.9402
جال	-11.9402
بوتگ۔	-11.9403
▁لعنت	-11.9403
نگر	-11.9404
▁گاں	-11.9404
▁اشکانی	-11.9404
▁member	-11.9405
gg	-11.9406
▁موک	-11.9406
▁کردیا	-11.9409
▁مصرعہ	-11.9411
▁شاھگانیں	-11.9412
▁جوھان	-11.9413
ifi	-11.9418
▁احمدان	-11.942
▁لنککانی	-11.942
وڑیں	-11.9424
▁ڈھانچہ	-11.9428
▁کانپرنس	-11.9428
▁launch	-11.9428
▁چیدگانی	-11.9428
▁مشرک	-11.9429
پین	-11.9429
نسل	-11.9433
یگی	-11.9433
گد	-11.9434
cu	-11.9434
▁ہالو	-11.9437
▁ھس	-11.9437
▁mov	-11.9439
▁deal	-11.9439
▁رژنے	-11.944
▁سرسبز	-11.944
▁گریوان	-11.9441
▁opening	-11.9443
▁جدلیات	-11.9443
▁destroy	-11.9443
▁involv	-11.9446
▁میرانی	-11.9447
▁لڈء	-11.9448
wood	-11.9449
▁“”	-11.9449
▁بمبتراک	-11.9451
.”	-11.9453
قف	-11.9453
▁ااے	-11.9454
میری	-11.9455
▁hit	-11.9455
▁ارسے	-11.9456
▁زیاد	-11.9457
▁پیپر	-11.9457
▁دروشمانی	-11.9457
زیت	-11.9459
▁پرنگ	-11.9459
▁خوبی	-11.9459
▁طب	-11.946
▁بنگل	-11.9461
▁current	-11.9461
▁regular	-11.9461
▁central	-11.9461
▁host	-11.9461
کوئی	-11.9461
▁رۆ	-11.9461
▁دہقان	-11.9461
▁سومری	-11.9463
▁ارٹیکل	-11.9463
▁قلندر	-11.9464
▁واضح	-11.9465
▁Day	-11.9466
▁رجانکارء	-11.9466
▁کماشء	-11.9466
▁قاری	-11.9468
▁براه	-11.947
▁wall	-11.9471
▁شتوں	-11.9473
صورت	-11.9475
▁نشتگ۔	-11.9475
▁عکسانی	-11.9476
▁گہیں	-11.9476
▁گفت	-11.9478
▁جاں	-11.948
▁زاهر	-11.9481
بشیر	-11.9484
یلا	-11.9486
▁تمردی	-11.9486
▁لائی	-11.9487
ئم	-11.9491
ہمک	-11.9493
▁Mor	-11.9494
▁voice	-11.9494
▁House	-11.9494
▁مقدس	-11.9494
▁نازی	-11.9494
▁درامدی	-11.9497
اوت	-11.9499
▁جانشو	-11.9501
▁تصوف	-11.9502
▁مشیر	-11.9503
▁تھو	-11.9505
▁leg	-11.9508
ازگ	-11.9508
▁ٹاس	-11.9508
جارکش	-11.9511
▁ربیتے	-11.9515
▁ارزشتی	-11.9516
▁ڈنڈ	-11.9517
▁اوھد	-11.9519
▁اکساں	-11.9519
ay	-11.9521
▁نبشتہی	-11.9522
▁اوگار	-11.9522
▁سمار	-11.9524
▁کبرانی	-11.9524
▁راولپنڈی	-11.9527
▁عبدالقیوم	-11.9527
▁بائیکاٹ	-11.9527
جه	-11.9527
▁زیرک	-11.9527
▁اسٹاف	-11.9528
▁شدیک	-11.9528
▁Game	-11.9529
▁نیزگاریں	-11.9529
▁ever	-11.9532
▁گیتک	-11.9532
▁شاپی	-11.9533
▁رسمء	-11.9536
▁دلپدرد	-11.9536
▁مارشتء	-11.9536
▁درکپان	-11.9537
▁دمکانی	-11.9537
جاھاں	-11.9537
▁لوت	-11.9537
فضل	-11.9538
ett	-11.9539
▁دلیں	-11.954
▁ترست	-11.9541
۔پرچاکہ	-11.9542
دھا	-11.9543
▁زریات	-11.9543
▁امیتء	-11.9544
▁بانڈم	-11.9544
نومبر	-11.9544
▁لبزیات	-11.9545
زمان	-11.9547
▁مورے	-11.9548
▁ریزمانک	-11.9549
وتا	-11.955
▁گالوارء	-11.9551
▁تنگہ	-11.9553
واجه	-11.9554
▁جدائی	-11.9555
یٹی	-11.9556
▁کیک	-11.9557
▁عر	-11.9557
▁لکھن	-11.9558
▁مانچسٹر	-11.956
▁grow	-11.9562
▁مرہ	-11.9563
روکیں	-11.9565
▁کرگین	-11.9565
▁اسٹار	-11.9565
▁باجی	-11.9565
▁تازہ	-11.9569
old	-11.9569
▁استنت	-11.9569
▁زخم	-11.957
▁پکن	-11.957
دارء	-11.9573
▁امنہ	-11.9573
نل	-11.9575
▁Sp	-11.9577
▁شول	-11.9578
▁شرپی	-11.9578
▁ڈائی	-11.9579
▁اریائی	-11.9579
▁رؤت۔	-11.9581
kin	-11.9582
▁31	-11.9583
دہی	-11.9585
tter	-11.9586
▁واجہاں	-11.9586
▁score	-11.9589
ۆکێں	-11.959
▁شمسی	-11.9591
▁بریت	-11.9592
▁متن	-11.9593
▁گردہ	-11.9594
▁پرماتگ	-11.9594
▁approach	-11.9594
▁contract	-11.9594
▁براھندگ	-11.9594
▁Tech	-11.9594
▁کانگریس	-11.9594
▁size	-11.9594
▁خلیات	-11.9594
▁طویل	-11.9594
▁مارشتی	-11.9595
▁مارکسزم	-11.9595
▁جذباتی	-11.9598
▁زرورت	-11.9598
زانتی	-11.9599
▁موکہ	-11.96
▁مبو	-11.96
شات	-11.9603
▁کرداں	-11.9604
▁Pi	-11.9607
▁اعلان	-11.9608
▁نبشتگ۔	-11.9608
▁ماھان	-11.9609
▁چہرگ	-11.9609
▁cut	-11.9611
جنگل	-11.9613
▁میلان	-11.9613
▁بنیادمء	-11.9616
▁شرانت	-11.9618
▁لگے	-11.962
▁پسگاں	-11.9622
▁کچء	-11.9622
کیا	-11.9623
بزانت	-11.9625
▁Street	-11.9627
▁افیشل	-11.9627
▁یوٹیوب	-11.9627
▁واژہ	-11.9628
▁Ex	-11.9629
▁دراہی	-11.9629
خیال	-11.963
▁هد	-11.963
نه	-11.9633
▁مکرانی	-11.9635
▁اچھی	-11.9637
▁قاضیء	-11.9638
▁پوچ	-11.9646
▁کسهے	-11.9647
▁عشقی	-11.9651
▁prais	-11.9651
▁مشکلے	-11.9653
▁Pe	-11.9653
▁مادنی	-11.9655
▁فلا	-11.9655
▁گوپ	-11.9657
دیمرھی	-11.966
بلو	-11.9661
▁recording	-11.9661
▁Championship	-11.9661
▁مبوتین	-11.9661
▁پادمال	-11.9662
▁دلئ	-11.9662
▁مھلہ	-11.9668
▁دوائی	-11.9669
▁دوہزار	-11.967
▁فاطمہ	-11.967
▁نوشگ	-11.967
▁ھردوکانی	-11.9672
ربیت	-11.9674
۔پمیشکہ	-11.9674
▁رودینی	-11.9677
▁درونتاں	-11.9678
▁ماد	-11.9679
ولر	-11.968
▁چھاپء	-11.9684
▁تغ	-11.9685
▁زانگول	-11.9686
بیں	-11.9688
▁سریچک	-11.9689
جائیں	-11.9689
▁بہتامے	-11.9693
▁سلم	-11.9693
▁ti	-11.9694
▁artist	-11.9694
غزل	-11.9694
▁Follow	-11.9695
▁رکاوٹ	-11.9695
▁flood	-11.9695
▁ٹائر	-11.9696
▁مارتگ	-11.9698
▁گجرات	-11.9698
▁نیما	-11.9698
ربیدگ	-11.9698
▁ماشکیل	-11.9699
▁ناشری	-11.9702
▁مظہر	-11.9702
▁کارکنگ	-11.9703
▁earn	-11.9704
▁find	-11.9704
▁ہمائیء	-11.9705
▁نودی	-11.9705
ڑاں	-11.9706
▁شکور	-11.9706
پگر	-11.9707
uest	-11.9707
▁بڑگ	-11.9707
▁موجودگی	-11.971
رھبند	-11.9711
▁فکرے	-11.9711
▁کانی	-11.9712
▁وانینت	-11.9714
▁ٹری	-11.9714
▁کارنت	-11.9715
▁توجیلے	-11.9715
▁تلگ	-11.9717
▁کائنت	-11.9717
▁draw	-11.9722
▁پیرین	-11.9723
▁کھار	-11.9724
▁ٹرالر	-11.9725
▁میدانی	-11.9725
▁شکلے	-11.9728
▁پترت۔	-11.9728
▁Jordan	-11.9729
▁سحار	-11.9729
▁دفعہ	-11.9729
▁شاھوانی	-11.973
ہرکس	-11.9731
سٹل	-11.9732
▁تمردیں	-11.9734
▁بانڑی	-11.9734
▁ڈاکٹرانی	-11.9736
▁گرائمر	-11.9736
▁بناء	-11.9737
▁appearance	-11.9739
▁گداری	-11.974
ک۔	-11.9742
سندھ	-11.9742
▁براں۔	-11.9742
شنبه	-11.9742
▁کامی	-11.9743
▁Nav	-11.9744
▁نمی	-11.9744
▁پوریا	-11.9745
▁ہاتھوں	-11.9746
▁ھزارہ	-11.9753
▁دروازگے	-11.9755
▁کئیل	-11.9756
▁پھزداری	-11.9757
▁گیشکور	-11.9758
ردانک	-11.9759
▁مھنت	-11.976
▁regard	-11.9763
▁evidence	-11.9763
▁عبدالقدوس	-11.9763
▁commercial	-11.9763
▁From	-11.9763
▁معشیت	-11.9763
ory	-11.9763
نئے	-11.9764
دارانی	-11.9765
)"	-11.9766
▁سامراجی	-11.9769
▁وسیع	-11.9769
▁واش	-11.9769
اود	-11.977
▁نزوریانی	-11.9771
2014	-11.9772
▁چینچک	-11.9773
▁لکانی	-11.9775
▁کپات	-11.9775
▁چھپ	-11.9776
▁cast	-11.9778
امر	-11.9779
▁مارکیز	-11.978
▁کاسم	-11.978
▁بوه	-11.978
▁زبانےء	-11.9781
▁کھند	-11.9781
▁کوپگانی	-11.9784
▁صابرء	-11.9786
▁بندنت	-11.9786
▁سمیت	-11.9787
▁باتنء	-11.9787
▁شمالی	-11.979
▁چمک	-11.979
ستک	-11.979
▁اشتراک	-11.9791
▁ھالتران	-11.9794
▁سیمک	-11.9796
▁Michael	-11.9797
▁attend	-11.9797
▁gain	-11.9797
▁غزہ	-11.9798
اوی	-11.9799
جاور	-11.9799
▁سوبے	-11.98
▁لہڑئگ	-11.98
▁سچان	-11.9802
سہب	-11.9804
مح	-11.9804
▁لاڑ	-11.9805
▁فرعون	-11.9806
▁نیمء	-11.9806
▁اوشتاتگ۔	-11.9807
▁travel	-11.9807
▁space	-11.9807
قص	-11.9807
▁یش	-11.9808
▁فلسطینی	-11.9809
ائد	-11.9812
های	-11.9813
خط	-11.9813
▁بیچارگیں	-11.9814
▁پنیر	-11.9815
▁تازگ	-11.9816
▁yard	-11.9816
پانی	-11.9821
▁ایدا	-11.9824
▁Tri	-11.9825
▁مجبوری	-11.9827
▁ناٹک	-11.9829
▁ضیا	-11.9829
▁جمالیاتی	-11.9829
▁ایرجنگ	-11.983
▁گشین	-11.983
▁سہولت	-11.9831
▁Rock	-11.9832
▁یورش	-11.9832
▁اولسرء	-11.9832
▁زلمانی	-11.9833
▁داناں	-11.9833
▁پیام	-11.9833
▁برسیت	-11.9834
▁کارمرزگ	-11.9836
▁تہلی	-11.9837
▁سربوگ	-11.9838
درستیں	-11.9839
fore	-11.9839
▁فطری	-11.984
▁سوزش	-11.984
▁صورتے	-11.984
▁بیرگیری	-11.9841
▁بیاات	-11.9842
▁گھٹ	-11.9843
سیم	-11.9843
زوریں	-11.9846
▁دیتی	-11.9846
▁کہور	-11.9847
▁مالا	-11.985
▁کدام	-11.9851
▁مرتبہ	-11.9852
▁زانندگ	-11.9853
▁Ch	-11.9853
▁سدء	-11.9854
▁چاتے	-11.9854
▁اھدء	-11.9856
▁ہٹ	-11.9858
▁رھبندء	-11.9858
▁سرکچ	-11.9859
▁کراں	-11.986
▁لاڈ	-11.9861
▁agree	-11.9861
▁بندپتر	-11.9862
▁الماس	-11.9864
▁کٹوکیں	-11.9865
▁نوخ	-11.9865
▁average	-11.9866
▁ھیبتان	-11.9866
▁sound	-11.9866
▁کوھستگ	-11.9866
▁مشتمل	-11.9867
ریا	-11.9869
▁ہجرت	-11.987
▁دتک	-11.987
قران	-11.9871
rop	-11.9871
▁دانے	-11.9872
▁ہسن	-11.9873
▁دوکان	-11.9874
رواں	-11.9874
▁لکھوڑ	-11.9874
قول	-11.9874
▁نوشی	-11.9877
بوان	-11.9877
لغ	-11.9877
▁میخ	-11.9878
▁دیرو	-11.9878
▁وڑین	-11.9881
▁200	-11.9885
▁پہلا	-11.9886
▁لائکی	-11.9888
▁Indian	-11.9888
▁درشانگ	-11.9888
▁کھنت	-11.9889
▁شمشت	-11.9889
▁تاچین	-11.9891
اکس	-11.9892
▁نویسانی	-11.9895
▁پسگانی	-11.9895
▁بیتگینانی	-11.9898
▁مردیناں	-11.9898
▁هرچی	-11.9899
▁جوڑینگ	-11.9899
▁compar	-11.99
▁Peter	-11.99
دکان	-11.99
▁تقدیر	-11.9901
▁مکہیں	-11.9901
▁ارواه	-11.9903
▁چیہال	-11.9904
▁بچوں	-11.9904
▁کنوں	-11.9904
▁سوگاتے	-11.9904
▁مہماناں	-11.9905
▁سہراب	-11.9906
▁بنو	-11.9907
▁وانگیانی	-11.9908
▁نیادے	-11.9908
▁ھفت	-11.9909
▁ھوالہ	-11.991
▁واہگاں	-11.991
..."	-11.9911
▁اومیت	-11.9915
▁جوانتر	-11.9918
اتون	-11.9919
▁ورناھے	-11.992
۔نوں	-11.992
سٹن	-11.9921
","","","	-11.9922
▁experience	-11.9924
▁جیڑگاں	-11.9924
هو	-11.9927
86	-11.9929
حسین	-11.9929
▁زندمانء	-11.9931
▁فائر	-11.9932
ڈز	-11.9933
▁مرادجان	-11.9933
▁خداء	-11.9934
▁نیویارک	-11.9935
▁براھوی	-11.9935
▁پوزیشن	-11.9935
▁ٹیچنگ	-11.9936
▁بکشات	-11.9936
▁گؤر	-11.9937
▁سؤت	-11.9938
بام	-11.9939
▁تاہم	-11.994
▁ھدوناک	-11.9942
▁cit	-11.9942
▁یکمشت	-11.9943
▁سھی	-11.9943
▁سکت	-11.9943
شون	-11.9943
▁پورے	-11.9946
▁Mary	-11.9948
▁ھلی	-11.9949
▁تیس	-11.9951
▁معاف	-11.9952
▁ملیں	-11.9952
رسول	-11.9953
▁سدگ	-11.9954
▁پینل	-11.9955
▁سلو	-11.9956
▁نامرد	-11.9959
upon	-11.9961
sta	-11.9963
▁کبیر	-11.9964
▁سفرے	-11.9964
▁سرنگ	-11.9964
▁حقدار	-11.9965
▁ہتم	-11.9965
▁یاری	-11.9967
▁اجل	-11.9968
امن	-11.9969
▁reveal	-11.9969
▁گواڑگ	-11.9969
ہت	-11.9971
▁ھرمردم	-11.9971
٭	-11.9971
▁ازمائش	-11.9972
▁جھاز	-11.9972
▁تمرد	-11.9973
دریں	-11.9973
ولوجی	-11.9974
▁کپتان	-11.9974
▁سجهێن	-11.9979
▁چمروک	-11.9979
▁وحی	-11.9982
▁شمش	-11.9986
▁سربراہ	-11.9986
▁نیچے	-11.9993
▁ac	-11.9993
▁تامل	-11.9994
▁صحابی	-11.9995
▁خاصیت	-11.9996
▁ٹام	-11.9996
▁همش	-11.9996
har	-11.9998
▁برگا	-11.9998
▁کدرتی	-11.9999
▁کرنانی	-11.9999
وانوک	-12.0003
▁کماتگ	-12.0003
ؤر	-12.0004
▁الاقوامی	-12.0004
▁outside	-12.0005
▁troops	-12.0006
▁پوشاکاں	-12.0006
▁پیروز	-12.0007
▁چاچے	-12.0008
▁عقیدہ	-12.0009
▁جش	-12.001
▁ایجاد	-12.001
▁فریاد	-12.0013
▁ٹیپ	-12.0013
▁ھلیل	-12.0014
▁جہتء	-12.0015
▁کرنا۔	-12.0015
▁امرے	-12.0019
▁مگسک	-12.0022
▁بوہگا	-12.0023
▁مجاھد	-12.0023
▁ساہگء	-12.0023
▁ہجری	-12.0028
▁ہروہد	-12.0029
▁شورش	-12.0032
▁قبرء	-12.0032
پیں	-12.0033
▁استالانی	-12.0035
▁معاشرتی	-12.0036
▁معصوم	-12.0036
▁رفت	-12.0037
بیار	-12.0037
▁ہشکیں	-12.0037
▁ریت	-12.0039
▁northern	-12.004
▁ناشر	-12.004
▁عنایت	-12.004
▁مالداری	-12.0042
▁افتاب	-12.0043
▁دیمروہی	-12.0046
▁بادام	-12.0047
غے	-12.0051
▁دستونکء	-12.0051
▁حی	-12.0052
وشیں	-12.0053
▁event	-12.0054
up	-12.0054
▁نکہ	-12.0055
▁اخلاقیات	-12.0056
▁چارینگ	-12.0056
▁هاترا	-12.0057
▁برک	-12.0057
▁ات۔کہ	-12.0057
▁پھاز	-12.006
شمس	-12.006
▁replac	-12.0067
▁تہراں	-12.0069
▁ماجد	-12.007
▁نداریت	-12.0073
▁ایو	-12.0074
▁روئٹرز	-12.0074
▁پریمئیر	-12.0074
▁دیمااہتگ	-12.0074
▁ہیومن	-12.0075
▁وروک	-12.0076
▁ٹہشت	-12.0076
دگیں	-12.0076
▁عشقء	-12.0079
▁ہیت	-12.008
▁شیش	-12.0082
▁قضا	-12.0082
▁۔۔۔۔۔۔۔۔	-12.0086
چاہ	-12.0087
▁بوم	-12.0088
▁نادرائی	-12.0092
وام	-12.0093
▁تنیگا	-12.0093
▁درزن	-12.0093
▁کچکول	-12.0094
▁کدھ	-12.0098
مستریں	-12.01
▁درجنگ	-12.0101
یئن	-12.0101
▁mean	-12.0102
▁سالہ	-12.0103
▁اشترانی	-12.0104
lorida	-12.0109
▁ہتھیار	-12.0109
▁ھکیکت	-12.011
▁ابابگر	-12.011
▁yards	-12.0111
▁منٹو	-12.0111
ماسٹر	-12.0111
▁ڪش	-12.0115
▁fact	-12.0115
▁دائرہ	-12.0116
▁کمکین	-12.0116
▁وشدل	-12.0118
sis	-12.0119
▁قدیمی	-12.0119
▁بایدیں	-12.0119
▁چائی	-12.0121
▁عمومدار	-12.0124
▁Bay	-12.0124
ڈھ	-12.0125
▁نپرت	-12.0127
▁بیٹا	-12.0127
▁نوا	-12.013
▁گردینت	-12.013
head	-12.013
خا	-12.0131
▁پکی	-12.0131
▁سیادانی	-12.0135
▁کوری	-12.0136
▁درشاندابے	-12.0136
▁پم	-12.0137
▁بشر	-12.0137
▁دوستناک	-12.0137
کام	-12.0138
▁اھتک	-12.0139
مالی	-12.014
▁ضیاء	-12.014
▁زھنی	-12.0141
▁شہرانی	-12.0142
پولیس	-12.0142
▁پھکیں	-12.0142
▁ca	-12.0144
▁reason	-12.0145
▁length	-12.0145
▁conduct	-12.0145
▁عبدالرزاق	-12.0145
▁ولگوج	-12.0145
▁section	-12.0145
▁وزبت	-12.0145
▁حیدراباد	-12.0145
▁ملیشیا	-12.0146
▁سانیٹ	-12.0148
▁سکون	-12.015
▁ساماناں	-12.015
▁مزھبی	-12.0151
▁زرناز	-12.0152
▁زمه	-12.0154
▁ستم	-12.0155
وران	-12.0155
▁لنکا	-12.016
▁بهداشتی	-12.0161
▁n	-12.0165
▁بالیگ	-12.0166
▁دمبر	-12.0169
▁باراں	-12.0169
▁پکنت	-12.017
▁ییں	-12.0173
▁جفا	-12.0173
چارمی	-12.0174
▁سہمی	-12.0174
ونس	-12.0174
سوچ	-12.0175
▁مالء	-12.0177
گت	-12.0178
شھید	-12.0179
served	-12.018
▁سپرء	-12.018
▁اسپیشل	-12.018
▁برجمیں	-12.018
▁موثر	-12.018
▁پلگارگ	-12.0181
▁جنئے	-12.0181
▁لینگ	-12.0182
▁possible	-12.0182
▁پچاں	-12.0184
نیل	-12.0185
▁براہندگ	-12.0185
▁ردوبند	-12.0187
▁ابادء	-12.0189
▁نتا	-12.0189
▁پگرانی	-12.0191
▁شریپ	-12.0191
دارے	-12.0194
con	-12.0196
▁عطر	-12.0196
ہمیش	-12.0197
gr	-12.0197
▁شفیقہ	-12.0197
ect	-12.0199
▁500	-12.0199
▁اسانیں	-12.02
جھد	-12.02
ولو	-12.0201
▁راجداری	-12.0201
▁کیتو	-12.0203
▁گوران	-12.0204
▁location	-12.0204
▁ہیگل	-12.0204
▁ھاشم	-12.0205
▁دربہ	-12.0205
▁سرجمین	-12.0207
▁ازمانی	-12.0207
▁ھوا	-12.0209
▁واہد	-12.0209
▁حاموش	-12.0209
ٹگ	-12.0211
▁وانینتگ	-12.0211
▁چیپ	-12.0213
پدر	-12.0213
ارین	-12.0215
▁league	-12.0216
▁داعش	-12.0216
▁ھذمت	-12.0216
▁crew	-12.0216
▁جائیداد	-12.0216
▁قائد	-12.0216
▁سرنامگ	-12.0217
ریٹ	-12.0218
▁بامسار	-12.0218
▁ہائیکو	-12.0221
▁saying	-12.0222
▁نتھا	-12.0223
▁کیمتی	-12.0224
▁بوانیت	-12.0224
دانکہ	-12.0225
▁گیشتری	-12.0225
▁بشکن	-12.0225
▁پست	-12.0226
▁Paul	-12.0228
▁بازانت	-12.0229
▁محشر	-12.0229
ئنت۔	-12.023
▁گانی	-12.023
▁پاسپان	-12.0233
▁وجودی	-12.0235
▁جنید	-12.0236
▁تراس	-12.0237
▁عمرے	-12.0238
▁دربی	-12.0239
▁برھنگ	-12.0241
▁دلسیاھی	-12.0244
ئتگ	-12.0244
▁حت	-12.0248
▁بندین	-12.0248
▁واقف	-12.0249
▁ورئے	-12.025
دیمتر	-12.025
▁وانت	-12.025
▁پچگ	-12.025
▁گلگل	-12.0251
▁account	-12.0252
▁تشریح	-12.0252
▁competition	-12.0252
▁material	-12.0252
▁لؤٹ	-12.0252
▁نذیر	-12.0252
▁فصیح	-12.0252
دمان	-12.0252
▁نویسوک	-12.0253
ama	-12.0253
▁گوئشیت	-12.0254
▁Most	-12.0255
▁past	-12.0255
▁ھرروچ	-12.0256
▁پتاں	-12.0256
▁زیشان	-12.0256
▁بچکندگے	-12.0256
▁دروراں	-12.0257
▁سئیمی	-12.0257
▁گویا	-12.0258
▁ہرروچ	-12.0258
بریں	-12.0259
▁شالکوٹ	-12.0259
▁کوس	-12.026
▁سربار	-12.0261
▁بروس	-12.0262
▁ٹرانس	-12.0263
▁لوٹیتگ	-12.0263
ھون	-12.0266
ایل	-12.0267
زمانہ	-12.0267
▁ھالت	-12.0268
ple	-12.0268
▁درتہ	-12.0269
▁توکہ	-12.027
▁جنئگء	-12.027
▁مشرق	-12.0273
بازی	-12.0273
وگر	-12.0273
حاجی	-12.0273
▁انج	-12.0274
▁سمر	-12.0276
مندی	-12.0279
شتر	-12.0279
▁ناسرجمیں	-12.028
▁اباتی	-12.0282
▁مونجائی	-12.0282
▁دنگ	-12.0285
ویا	-12.0286
▁زدگیں	-12.0286
▁working	-12.0286
▁گلشن	-12.0286
▁effort	-12.0287
▁international	-12.0287
▁ایڈووکیٹ	-12.0287
▁سنڈیمن	-12.0287
▁Richard	-12.0287
▁دیگری	-12.0288
uick	-12.0288
▁خداوند	-12.0289
▁جابر	-12.029
▁سواراں	-12.029
▁رنگین	-12.0291
▁whom	-12.0292
▁اولا	-12.0293
▁میڑھ	-12.0294
▁مزائیں	-12.0295
▁بووگ	-12.0296
سائنس	-12.0297
▁مرتب	-12.0299
▁گرادگ	-12.03
▁پٹاں	-12.0302
ستا	-12.0303
شمے	-12.0303
▁Sc	-12.0305
▁رپکاں	-12.0307
نگد	-12.0309
ڈین	-12.0311
▁عطاشادء	-12.0312
▁کوشاں	-12.0312
▁راس	-12.0313
تگنت	-12.0314
▁جہاد	-12.0316
▁کودکی	-12.0317
▁مھکمہ	-12.0318
▁گؤن	-12.0318
▁کیچی	-12.0318
▁اران	-12.0319
▁گوستء	-12.0319
oo	-12.0322
...........	-12.0324
▁ولیعہد	-12.0324
▁گڑتی	-12.0324
fi	-12.0324
▁شؤر	-12.0324
▁تۆکا	-12.0324
▁مرتگاں	-12.0325
.(	-12.0328
▁مبنی	-12.033
▁واپاری	-12.0331
▁شھد	-12.0331
▁مکسدے	-12.0331
عام	-12.0335
▁اسٹی	-12.0335
▁کارکناں	-12.0337
▁ھسابے	-12.0337
▁زوربیگواہی	-12.034
▁Har	-12.034
کاگد	-12.0341
▁Wal	-12.0345
ٹڈ	-12.0345
سربوتگیں	-12.0347
▁بکر	-12.035
▁دیتہ	-12.035
▁سوجے	-12.0351
قومی	-12.0351
▁بالغ	-12.0352
▁ریتک	-12.0352
ota	-12.0352
▁Mark	-12.0354
▁گوستگ۔	-12.0355
ایرانی	-12.0355
▁کپیں	-12.0356
بدی	-12.0359
▁Hurricane	-12.0359
▁Missouri	-12.0359
▁focus	-12.0359
▁ممبئی	-12.036
▁poor	-12.036
▁بدبھتی	-12.0361
▁گنو	-12.0361
▁extend	-12.0362
▁اسپتیں	-12.0364
▁وھش	-12.0365
گوشیت	-12.0365
▁شمشکار	-12.0365
▁یاں۔	-12.0368
▁بندروشم	-12.0369
▁کریک	-12.0371
▁وتسر	-12.0372
سلام	-12.0372
▁دنزاں	-12.0372
▁سوتانی	-12.0373
کون	-12.0373
▁رانا	-12.0377
▁اسرات	-12.0379
▁گالوارانی	-12.0379
▁ریگ	-12.038
تون	-12.0382
par	-12.0383
یغ	-12.0384
▁گیچن	-12.0385
▁وندر	-12.0386
▁درمانے	-12.0387
mm	-12.0389
▁لیکچر	-12.0389
حب	-12.0391
tin	-12.0391
▁appoint	-12.0391
▁همود	-12.0391
چنڈ	-12.0393
▁نسلی	-12.0394
▁ظریف	-12.0396
▁ڈکٹیٹر	-12.0396
▁مہلونک	-12.0396
▁2001	-12.0396
▁فروغ	-12.0397
لیب	-12.0398
▁اری	-12.0398
▁imp	-12.0399
▁معروضی	-12.04
واھی	-12.04
yn	-12.0401
سیں	-12.0403
۔ادا	-12.0409
▁بوہیر	-12.041
ھنگ	-12.0411
▁فضا	-12.0412
▁ترامجا	-12.0414
۔انچو	-12.0414
▁جونے	-12.0417
more	-12.0417
کڑ	-12.0418
▁درتک	-12.0419
▁...............	-12.0419
واحد	-12.042
اپہ	-12.0423
▁مصنف	-12.0426
اومان	-12.0427
▁محکمی	-12.0428
بط	-12.043
▁مینجمنٹ	-12.0432
▁territor	-12.0432
▁ہرنائی	-12.0433
▁براہدار	-12.0433
▁انسر	-12.0433
▁لبزتکنیک	-12.0433
▁test	-12.0435
▁جھدکاراں	-12.0435
ake	-12.0435
[...]
