<pad>	0
<unk>	0
<s>	0
</s>	0
[CLS]	0
[SEP]	0
[MASK]	0
<0x00>	0
<0x01>	0
<0x02>	0
<0x03>	0
<0x04>	0
<0x05>	0
<0x06>	0
<0x07>	0
<0x08>	0
<0x09>	0
<0x0A>	0
<0x0B>	0
<0x0C>	0
<0x0D>	0
<0x0E>	0
<0x0F>	0
<0x10>	0
<0x11>	0
<0x12>	0
<0x13>	0
<0x14>	0
<0x15>	0
<0x16>	0
<0x17>	0
<0x18>	0
<0x19>	0
<0x1A>	0
<0x1B>	0
<0x1C>	0
<0x1D>	0
<0x1E>	0
<0x1F>	0
<0x20>	0
<0x21>	0
<0x22>	0
<0x23>	0
<0x24>	0
<0x25>	0
<0x26>	0
<0x27>	0
<0x28>	0
<0x29>	0
<0x2A>	0
<0x2B>	0
<0x2C>	0
<0x2D>	0
<0x2E>	0
<0x2F>	0
<0x30>	0
<0x31>	0
<0x32>	0
<0x33>	0
<0x34>	0
<0x35>	0
<0x36>	0
<0x37>	0
<0x38>	0
<0x39>	0
<0x3A>	0
<0x3B>	0
<0x3C>	0
<0x3D>	0
<0x3E>	0
<0x3F>	0
<0x40>	0
<0x41>	0
<0x42>	0
<0x43>	0
<0x44>	0
<0x45>	0
<0x46>	0
<0x47>	0
<0x48>	0
<0x49>	0
<0x4A>	0
<0x4B>	0
<0x4C>	0
<0x4D>	0
<0x4E>	0
<0x4F>	0
<0x50>	0
<0x51>	0
<0x52>	0
<0x53>	0
<0x54>	0
<0x55>	0
<0x56>	0
<0x57>	0
<0x58>	0
<0x59>	0
<0x5A>	0
<0x5B>	0
<0x5C>	0
<0x5D>	0
<0x5E>	0
<0x5F>	0
<0x60>	0
<0x61>	0
<0x62>	0
<0x63>	0
<0x64>	0
<0x65>	0
<0x66>	0
<0x67>	0
<0x68>	0
<0x69>	0
<0x6A>	0
<0x6B>	0
<0x6C>	0
<0x6D>	0
<0x6E>	0
<0x6F>	0
<0x70>	0
<0x71>	0
<0x72>	0
<0x73>	0
<0x74>	0
<0x75>	0
<0x76>	0
<0x77>	0
<0x78>	0
<0x79>	0
<0x7A>	0
<0x7B>	0
<0x7C>	0
<0x7D>	0
<0x7E>	0
<0x7F>	0
<0x80>	0
<0x81>	0
<0x82>	0
<0x83>	0
<0x84>	0
<0x85>	0
<0x86>	0
<0x87>	0
<0x88>	0
<0x89>	0
<0x8A>	0
<0x8B>	0
<0x8C>	0
<0x8D>	0
<0x8E>	0
<0x8F>	0
<0x90>	0
<0x91>	0
<0x92>	0
<0x93>	0
<0x94>	0
<0x95>	0
<0x96>	0
<0x97>	0
<0x98>	0
<0x99>	0
<0x9A>	0
<0x9B>	0
<0x9C>	0
<0x9D>	0
<0x9E>	0
<0x9F>	0
<0xA0>	0
<0xA1>	0
<0xA2>	0
<0xA3>	0
<0xA4>	0
<0xA5>	0
<0xA6>	0
<0xA7>	0
<0xA8>	0
<0xA9>	0
<0xAA>	0
<0xAB>	0
<0xAC>	0
<0xAD>	0
<0xAE>	0
<0xAF>	0
<0xB0>	0
<0xB1>	0
<0xB2>	0
<0xB3>	0
<0xB4>	0
<0xB5>	0
<0xB6>	0
<0xB7>	0
<0xB8>	0
<0xB9>	0
<0xBA>	0
<0xBB>	0
<0xBC>	0
<0xBD>	0
<0xBE>	0
<0xBF>	0
<0xC0>	0
<0xC1>	0
<0xC2>	0
<0xC3>	0
<0xC4>	0
<0xC5>	0
<0xC6>	0
<0xC7>	0
<0xC8>	0
<0xC9>	0
<0xCA>	0
<0xCB>	0
<0xCC>	0
<0xCD>	0
<0xCE>	0
<0xCF>	0
<0xD0>	0
<0xD1>	0
<0xD2>	0
<0xD3>	0
<0xD4>	0
<0xD5>	0
<0xD6>	0
<0xD7>	0
<0xD8>	0
<0xD9>	0
<0xDA>	0
<0xDB>	0
<0xDC>	0
<0xDD>	0
<0xDE>	0
<0xDF>	0
<0xE0>	0
<0xE1>	0
<0xE2>	0
<0xE3>	0
<0xE4>	0
<0xE5>	0
<0xE6>	0
<0xE7>	0
<0xE8>	0
<0xE9>	0
<0xEA>	0
<0xEB>	0
<0xEC>	0
<0xED>	0
<0xEE>	0
<0xEF>	0
<0xF0>	0
<0xF1>	0
<0xF2>	0
<0xF3>	0
<0xF4>	0
<0xF5>	0
<0xF6>	0
<0xF7>	0
<0xF8>	0
<0xF9>	0
<0xFA>	0
<0xFB>	0
<0xFC>	0
<0xFD>	0
<0xFE>	0
<0xFF>	0
▁ءَ	-3.0232
▁ءِ	-3.34987
▁ءُ	-3.6213
▁کہ	-4.06182
▁انت	-4.16081
,	-4.31175
▁ء	-4.72445
▁اے	-4.78624
▁ات	-4.89226
▁,	-4.93076
▁نہ	-4.96756
▁وتی	-5.01259
▁چہ	-5.11755
▁۔	-5.21898
▁من	-5.2388
▁یک	-5.2956
▁	-5.29606
▁ائی	-5.29906
▁ا	-5.38745
▁انت۔	-5.4056
▁بیت	-5.43877
▁گوں	-5.49294
▁کنگ	-5.49521
▁بہ	-5.53795
▁و	-5.53804
▁پہ	-5.5396
▁(	-5.60946
▁:	-5.63287
ءِ	-5.64098
انی	-5.73749
ءَ	-5.78433
▁سر	-5.78805
▁بلوچ	-5.8202
▁بوتگ	-5.82604
یں	-5.84753
اں	-5.8637
▁)	-5.90032
▁.	-5.91773
▁the	-5.94635
▁بلے	-5.98389
ی	-5.98562
۔	-5.98905
▁منی	-6.01722
▁ئے	-6.02226
ے	-6.02706
s	-6.03175
▁کنت	-6.08782
▁ھم	-6.10807
▁تو	-6.11846
▁کتگ	-6.13394
▁بوت	-6.15343
▁بیتگ	-6.21405
▁بے	-6.23597
)	-6.23624
▁مردم	-6.25184
▁کن	-6.25315
▁ئ	-6.2599
.	-6.26356
:	-6.26477
ءُ	-6.27181
▁بلوچستان	-6.2809
▁ما	-6.30069
▁تہا	-6.37712
▁تہ	-6.37712
ا	-6.38749
▁دیم	-6.39084
▁ھمے	-6.39169
▁یا	-6.41724
ed	-6.43843
▁کار	-6.44759
▁"	-6.4478
▁پد	-6.4573
▁بلوچی	-6.45819
▁کت	-6.46193
▁مئے	-6.48075
▁دگہ	-6.48215
▁گپ	-6.52018
▁ہم	-6.53641
▁ات۔	-6.54783
▁’’	-6.5487
▁وت	-6.58368
▁گڑا	-6.60878
▁تئی	-6.61721
▁روچ	-6.61722
▁سرا	-6.65591
▁دو	-6.6624
▁of	-6.67246
▁دل	-6.6756
▁کے	-6.73915
▁نام	-6.74277
▁رد	-6.74515
▁ایت	-6.77229
▁and	-6.78956
▁جنگ	-6.79016
▁کرتگ	-6.79724
▁بنت	-6.79832
▁پدا	-6.80164
▁زبان	-6.80718
▁بیت۔	-6.81159
?	-6.83204
▁ھما	-6.83919
▁باز	-6.84522
▁اگاں	-6.8584
▁را	-6.86263
▁گوشتگ	-6.87213
▁بازیں	-6.87669
‘‘	-6.89277
▁بی	-6.89718
▁چو	-6.89976
▁ہما	-6.90184
▁ہمے	-6.90598
▁پر	-6.91067
▁ایشی	-6.9165
▁دست	-6.94211
▁سے	-6.94278
▁لوٹ	-6.9554
▁اں	-6.96056
▁یے	-6.96815
▁ماں	-6.97015
▁کی	-6.97979
▁in	-6.99707
▁to	-7.00721
▁مردمانی	-7.03204
▁تہءَ	-7.04257
▁مہ	-7.05072
▁نیمگ	-7.05758
▁میں	-7.0625
▁a	-7.08489
▁پاکستانی	-7.08888
▁در	-7.09137
▁ایں	-7.09244
▁چے	-7.09686
▁زند	-7.12201
▁جوڑ	-7.12865
▁ھال	-7.12983
▁کرت	-7.13739
(	-7.138
▁دومی	-7.14211
▁نبشتہ	-7.15113
▁زانت	-7.15727
▁وھد	-7.16887
▁اور	-7.17044
▁مزنیں	-7.17299
▁ترا	-7.17622
▁دیگ	-7.17729
▁‘‘	-7.18251
ہ	-7.186
▁سک	-7.18732
▁پوج	-7.18789
▁واجہ	-7.18965
▁نوں	-7.19682
ان	-7.19844
▁دور	-7.19923
▁که	-7.20023
...	-7.20581
▁اس	-7.21073
▁گل	-7.22329
!	-7.23855
▁داتگ	-7.23962
▁پیش	-7.24038
▁دات	-7.24483
▁بند	-7.24584
ء	-7.24912
▁چار	-7.25082
▁رند	-7.25696
ن	-7.26065
▁خان	-7.26559
▁ہر	-7.2794
ing	-7.29344
▁کنت۔	-7.29695
▁مردماں	-7.30575
▁رنگ	-7.30606
▁گیش	-7.31021
▁ھچ	-7.31096
ئے	-7.31591
▁￴	-7.32016
▁=	-7.32294
▁ایر	-7.32338
▁دمگ	-7.32379
▁نوکیں	-7.32662
▁زانگ	-7.32707
▁شنگ	-7.33338
▁شپ	-7.34033
▁سال	-7.34501
▁داں	-7.35378
▁ارش	-7.35428
▁ھر	-7.35588
▁جان	-7.35896
▁گوشت	-7.36825
▁مارا	-7.37988
▁کتاب	-7.38393
▁کنان	-7.3846
▁اللہ	-7.38804
▁کس	-7.39236
▁جست	-7.39867
▁کا	-7.40282
▁اپ	-7.40564
▁نیست	-7.42737
▁راج	-7.43323
▁بوتگ۔	-7.44318
▁جاہ	-7.44669
▁ہے	-7.46452
▁اش	-7.46665
▁راہ	-7.46724
▁اوار	-7.46914
▁ایش	-7.47385
▁گوش	-7.4772
”	-7.47861
▁میر	-7.48002
▁وش	-7.48526
y	-7.49612
’’	-7.49964
▁گیشتر	-7.50368
▁ھوار	-7.50449
▁گوشگ	-7.50628
▁ایانی	-7.50671
▁لوگ	-7.51195
▁سرءَ	-7.51603
▁دنیا	-7.51909
▁لشکر	-7.52006
▁”	-7.52752
▁کم	-7.53261
▁توار	-7.54623
▁اتگ	-7.55036
▁اوں	-7.56313
ئ	-7.56735
▁او	-7.56761
▁اولی	-7.56767
▁کو	-7.56911
▁'	-7.5765
▁سی	-7.57679
▁وھدے	-7.58831
"	-7.5898
▁مان	-7.59002
▁گندگ	-7.60417
▁وڑ	-7.60606
▁بیگواہ	-7.61848
▁گوستگیں	-7.61908
▁“	-7.61988
▁جتگ	-7.62011
▁یکے	-7.62415
▁ائیءِ	-7.63597
▁چک	-7.64961
▁بزاں	-7.65433
▁کش	-7.65742
▁بوگ	-7.66186
▁was	-7.66565
▁دوست	-7.66938
▁گشت	-7.67376
▁وڑیں	-7.67883
▁دار	-7.68185
▁بس	-7.68294
▁گشتگ	-7.68479
ت	-7.68818
▁لبزانک	-7.68822
▁بلئے	-7.69172
▁پاکستان	-7.69542
▁بلکیں	-7.69913
▁چم	-7.70443
@	-7.70815
وں	-7.71125
▁ماہ	-7.71269
▁چیزے	-7.71395
▁برجاہ	-7.7157
▁@	-7.7181
▁گون	-7.72125
▁ھست	-7.72934
▁درشان	-7.73206
▁دیما	-7.73424
▁اچ	-7.73592
▁مردمے	-7.73782
▁گ	-7.74384
▁ابید	-7.75312
▁چیز	-7.75339
▁اتکگ	-7.75774
▁زور	-7.75878
▁مروچی	-7.76158
▁وانگ	-7.76232
▁محمد	-7.76284
▁پشت	-7.77058
▁شاعری	-7.78195
▁کسے	-7.78388
▁زمین	-7.79335
▁بن	-7.79721
▁The	-7.80569
▁چشکہ	-7.80661
▁ائیءَ	-7.80751
▁بیتگیں	-7.80796
ین	-7.81048
▁￵	-7.81095
▁ائرا	-7.81112
▁شال	-7.81205
▁منا	-7.81742
▁سرجمیں	-7.82354
▁بدل	-7.82582
▁ازمانک	-7.82647
▁بندات	-7.82705
▁بیران	-7.83022
▁اتک	-7.8316
▁سرپد	-7.83197
▁سوب	-7.83609
▁دنت	-7.84251
▁ملک	-7.84271
▁راجی	-7.8457
گ	-7.84794
▁مدام	-7.84823
▁زھرشانی	-7.84831
▁اتنت	-7.85098
▁کر	-7.85259
▁مراد	-7.85424
▁مزن	-7.85528
▁مات	-7.85675
-	-7.85788
▁ڈاکٹر	-7.86167
▁مرچی	-7.8637
▁انگت	-7.86391
▁ان	-7.8646
▁چست	-7.87235
▁ن	-7.8785
▁دارگ	-7.87883
▁ھیال	-7.87965
▁کناں	-7.88116
▁بنت۔	-7.88287
و	-7.88503
▁[...]	-7.88552
▁تر	-7.88731
▁برے	-7.88833
▁سیاسی	-7.88884
▁انچیں	-7.88955
▁پچ	-7.89682
▁انسان	-7.89847
▁میان	-7.89871
▁شر	-7.90016
▁دی	-7.90218
▁دیوان	-7.90523
▁پاد	-7.90704
▁نے	-7.91087
▁واب	-7.91309
▁کپتگ	-7.91692
▁ہچ	-7.91756
▁کدی	-7.92501
▁کشگ	-7.92587
▁تاں	-7.92669
▁بوت۔	-7.92924
▁حیال	-7.9308
ly	-7.93111
اے	-7.93238
▁انچو	-7.93594
▁این	-7.94287
من	-7.943
▁پی	-7.94574
▁ئیں	-7.94629
نگ	-7.94765
▁است	-7.94939
▁بوتگیں	-7.95024
▁کسہ	-7.96179
▁ادا	-7.96638
▁مرد	-7.96812
▁رجانک	-7.97215
▁کجام	-7.97289
▁پٹ	-7.97694
▁سلاہ	-7.98223
▁شما	-7.98486
▁بہر	-7.9913
▁ایاں	-7.99631
▁شت	-7.99972
▁دروشم	-8.00626
▁سبب	-8.00642
ک	-8.00847
▁زر	-8.01042
▁پت	-8.01115
▁کمک	-8.01753
▁پرچا	-8.02035
▁کراچی	-8.0245
▁چی	-8.02887
▁جتائیں	-8.03345
‘	-8.04077
▁جتا	-8.04087
▁جند	-8.04947
▁جارکش	-8.05516
▁گور	-8.056
▁ملا	-8.05689
▁پولیس	-8.059
▁گڈا	-8.06312
▁سرجم	-8.06346
▁دپ	-8.06488
▁that	-8.06503
▁اباد	-8.06996
▁as	-8.07001
▁ایشانی	-8.07385
▁چه	-8.07421
▁with	-8.08094
▁ایوک	-8.08279
▁on	-8.08333
▁یل	-8.08628
ائی	-8.08682
▁گار	-8.08686
▁حال	-8.08928
▁تران	-8.10137
▁بر	-8.10196
▁پنچ	-8.10641
▁for	-8.10662
ں	-8.10974
▁مرگ	-8.10998
▁کجا	-8.11057
▁گاڑی	-8.11128
▁چاگرد	-8.11609
▁?	-8.11644
▁اجوئی	-8.12066
▁بابت	-8.12236
▁برتگ	-8.12999
▁کتگ۔	-8.13604
کہ	-8.14219
▁بیان	-8.14936
▁کیچ	-8.1497
▁شھر	-8.15429
▁پیسر	-8.15787
▁نزیک	-8.15983
▁کرتگ۔	-8.16016
▁ایل	-8.16099
▁واستا	-8.16117
▁بھر	-8.16288
▁انسانی	-8.16936
▁اسر	-8.17028
▁کت۔	-8.17349
▁دراھیں	-8.1766
▁چیر	-8.18613
▁بیگ	-8.18765
▁راست	-8.1878
▁شاہ	-8.18969
▁ایک	-8.19176
▁زندگ	-8.20288
▁کپ	-8.20743
▁پوسٹ	-8.21107
▁جت	-8.2135
▁by	-8.21504
▁اتاں	-8.21656
▁الم	-8.21695
▁ترس	-8.21904
▁میتگ	-8.22087
▁وہد	-8.22121
▁جنین	-8.22329
▁جن	-8.2263
▁جھد	-8.22699
▁!	-8.22837
▁لیکہ	-8.22842
▁سید	-8.22858
▁کارمرز	-8.23118
▁زندگی	-8.23408
▁گشگ	-8.24125
▁بکن	-8.24138
▁ودی	-8.24601
▁سنگت	-8.24762
▁بیست	-8.24768
▁روگ	-8.2481
▁پجار	-8.25159
▁چریشی	-8.25196
▁چون	-8.25368
▁is	-8.25413
▁بیا	-8.25468
▁نا	-8.25994
▁پیم	-8.26252
▁یات	-8.26595
▁راستی	-8.26649
▁اہانی	-8.26726
▁کیت	-8.26904
▁بندیں	-8.2713
▁زورانسری	-8.27438
▁ھاتر	-8.27479
▁گوادر	-8.27652
▁اود	-8.2767
▁جہد	-8.27953
▁برز	-8.2801
▁گپت	-8.28647
▁دوئیں	-8.2875
▁شہ	-8.29297
▁چارگ	-8.29364
نت	-8.29535
▁￶	-8.29605
▁کسانیں	-8.29728
▁مہر	-8.29887
▁درد	-8.29995
▁واری	-8.30021
▁اشی	-8.30088
▁تیرگواری	-8.30297
▁کپت	-8.3052
▁نشانگ	-8.30902
▁ایم	-8.31023
▁گر	-8.31172
▁be	-8.31219
▁وڑا	-8.31357
▁ادم	-8.31672
▁ھالانی	-8.31818
▁منءَ	-8.32006
▁ٹی	-8.32692
▁تربت	-8.32729
▁برات	-8.32911
▁مستریں	-8.32936
▁چوش	-8.33399
▁نشتگ	-8.33485
▁ڈی	-8.33662
▁شریں	-8.33973
▁وئیل	-8.3403
▁دیست	-8.34132
▁درگت	-8.34443
▁وھدیکہ	-8.35143
▁تاوان	-8.35695
▁شاعر	-8.3589
▁’	-8.36156
▁گرگ	-8.36195
▁برگ	-8.36437
▁ے	-8.36467
ر	-8.36492
▁ہیں	-8.37176
▁په	-8.37447
▁زمانگ	-8.37458
“	-8.37614
’	-8.37661
▁کساس	-8.37804
▁پدر	-8.37856
▁جوانیں	-8.37895
▁بیتگ۔	-8.38015
▁ساری	-8.38319
▁تب	-8.38608
م	-8.39126
▁ھند	-8.39238
▁ارگ	-8.39587
▁داریت	-8.39663
▁ورنا	-8.40001
▁زمہ	-8.40036
▁کوہ	-8.40077
▁علی	-8.40612
▁نی	-8.40932
▁سرکار	-8.4116
▁بلکنا	-8.41504
▁ہے۔	-8.41632
▁سد	-8.41683
▁کاری	-8.41875
ات	-8.41897
▁وہدے	-8.42139
▁ملکی	-8.42343
▁؂	-8.42479
▁کنوکیں	-8.42506
▁داد	-8.4263
▁ار	-8.42935
▁روان	-8.43264
▁سما	-8.43361
e	-8.43501
▁کئے	-8.43706
▁شعر	-8.44433
▁اسلام	-8.44576
▁یلہ	-8.44606
▁یہ	-8.44625
▁بنی	-8.44718
▁جنت	-8.45349
▁چشیں	-8.45349
▁دیر	-8.45728
▁شتگ	-8.45972
▁زان	-8.46134
▁زاناں	-8.46201
انت	-8.46283
▁کارے	-8.46321
▁جی	-8.46442
▁تک	-8.46542
▁چاگردی	-8.46776
▁نبشتانک	-8.46795
▁زرتگ	-8.46835
▁بازار	-8.46868
▁گپتگ	-8.46892
۔۔۔	-8.47118
▁جنک	-8.47227
▁چاپ	-8.47236
▁وزیر	-8.47366
▁نیم	-8.47591
▁سیادی	-8.47746
▁اد	-8.47794
▁ناں	-8.47808
▁پول	-8.4783
▁کتگیں	-8.48004
▁دلگوش	-8.4811
▁لچہ	-8.48147
▁روچے	-8.48392
▁ورگ	-8.48403
▁ھبر	-8.48556
▁اھانی	-8.49007
▁سردار	-8.49022
d	-8.49107
▁نوک	-8.49148
ل	-8.49301
▁جو	-8.49325
▁بھی	-8.49403
▁گڈی	-8.49421
▁داشت	-8.49472
▁سرمچاراں	-8.49837
▁پل	-8.50044
▁تھا	-8.5036
▁زندءِ	-8.50718
▁اردو	-8.50883
▁شش	-8.50961
▁جیڑہ	-8.51033
▁گران	-8.51053
▁جاگہ	-8.51092
▁ایس	-8.511
▁کاروان	-8.51254
▁هم	-8.51458
▁کرتگیں	-8.51471
▁ایت۔	-8.51654
▁ھمک	-8.51714
▁from	-8.52316
▁دگ	-8.52844
▁زہرشانی	-8.53137
▁ٹپی	-8.5317
▁نیمگا	-8.53241
▁لس	-8.5325
▁بوھگ	-8.5333
▁ھمیش	-8.53519
▁ایران	-8.54481
▁ایرانی	-8.5449
▁کھول	-8.54852
▁ھلاپ	-8.54889
▁مارشت	-8.55225
▁گمان	-8.553
▁شیر	-8.55315
▁اہاں	-8.5578
▁ھاترا	-8.55803
▁چماں	-8.55904
▁گس	-8.56137
▁وہ	-8.5641
▁ازم	-8.56532
▁راجدپتر	-8.56638
▁بچار	-8.56678
▁اماچ	-8.57031
▁لبز	-8.57069
▁سروک	-8.57342
▁لہتیں	-8.57624
▁کرد	-8.57676
نہ	-8.57813
▁باریں	-8.57908
▁کنیں	-8.58007
▁وار	-8.58109
▁his	-8.58368
▁دیستگ	-8.58442
▁رس	-8.58578
▁تا	-8.58683
▁گش	-8.587
▁لوٹیت	-8.58812
▁گال	-8.58907
▁دژمن	-8.59496
▁ھلاس	-8.59498
▁گورا	-8.59837
ه	-8.59956
▁مھلوک	-8.60093
▁کور	-8.60274
▁at	-8.60606
بلے	-8.60646
▁تاک	-8.60656
▁کل	-8.60815
▁بنجاھی	-8.6102
▁پس	-8.61189
▁دئیگ	-8.62159
▁درست	-8.6227
▁جاور	-8.62472
▁بوان	-8.62475
▁ڈن	-8.62751
▁درا	-8.62868
▁بار	-8.63104
▁گوات	-8.63118
وتی	-8.63535
▁نیام	-8.63669
▁دزگیر	-8.63857
▁بد	-8.6406
▁رو	-8.64068
چہ	-8.64514
▁دہ	-8.64741
▁رسول	-8.64763
▁ہوار	-8.64788
▁پنجگور	-8.64892
▁لبزانکی	-8.65115
▁دیمءَ	-8.65198
▁زدگ	-8.65342
▁احمد	-8.65596
▁گند	-8.65885
▁پسو	-8.66087
▁ایشاں	-8.66106
▁الله	-8.66197
▁کشتگ	-8.67012
▁زوت	-8.67141
▁بگیری	-8.67205
▁بیگواھیں	-8.67445
▁مال	-8.67616
▁کلات	-8.67735
▁واستہ	-8.68069
......	-8.6824
▁بو	-8.68454
▁یکیں	-8.68686
▁وھدی	-8.68841
▁کمیٹی	-8.69063
▁لٹ	-8.69076
ش	-8.6924
▁باں	-8.69309
▁وتا	-8.69577
▁مہلوک	-8.7
▁ریاست	-8.70012
▁کوش	-8.70128
▁گپے	-8.70609
▁شہر	-8.70733
▁لبریش	-8.70757
▁لگ	-8.7106
▁جہل	-8.71214
یک	-8.71248
▁نہیں	-8.71389
▁جون	-8.71392
▁بلوچانی	-8.71636
;	-8.71829
ز	-8.71939
▁چوں	-8.71999
▁were	-8.72101
▁کوئٹہ	-8.72266
▁بندی	-8.72402
▁کٹ	-8.72671
..	-8.73177
▁ایدگہ	-8.74207
▁روچاں	-8.74271
▁ساہ	-8.74319
▁بخش	-8.74521
▁ردءَ	-8.74577
▁بکنت	-8.74994
تو	-8.75088
▁علم	-8.75252
▁ت	-8.75382
▁المی	-8.75625
سگ	-8.75641
▁توک	-8.75795
▁رنگیں	-8.75797
▁کنگی	-8.75969
▁حکومت	-8.76116
▁it	-8.76266
▁عمل	-8.76275
▁بنجل	-8.76393
▁ساحر	-8.76423
▁پمیشا	-8.76877
یا	-8.77091
▁‘	-8.77125
▁تاکدیم	-8.77348
▁داشتگ	-8.77526
▁زالبول	-8.77617
▁دمگاں	-8.77696
▁وتءَ	-8.778
▁نودربر	-8.77994
▁کشی	-8.78048
▁تچک	-8.78127
س	-8.78413
▁لاش	-8.78424
▁زوراکی	-8.78728
▁کچ	-8.78821
▁شھید	-8.79023
▁رسانکدر	-8.79261
▁ایف	-8.79325
▁ناشناسیں	-8.79344
▁نه	-8.79496
▁دے	-8.79508
▁عمر	-8.79771
▁ک	-8.79836
▁پیداک	-8.79881
▁سرکاری	-8.79896
▁کاراں	-8.8
▁دمگی	-8.80027
▁وشی	-8.80173
▁سیاہ	-8.80265
▁جار	-8.8035
▁زرت	-8.80503
▁فلسفہ	-8.80577
▁اھاں	-8.8072
زورگریں	-8.80766
▁سئے	-8.80897
▁گچین	-8.81315
▁انی	-8.81541
▁بال	-8.8165
▁روکپتی	-8.81724
▁پمیشکا	-8.81729
▁سیاست	-8.81734
▁کارانی	-8.8191
▁درستیں	-8.8205
▁قوم	-8.82194
▁بات	-8.82204
▁چمانی	-8.82235
▁اودا	-8.82327
▁استاد	-8.82401
▁ازات	-8.82689
▁اشانی	-8.83067
▁روت	-8.83351
▁ئی	-8.83563
▁مکران	-8.83588
▁کئیت	-8.83665
▁""	-8.83768
▁وسلم	-8.83803
▁چیا	-8.84215
▁باسک	-8.84233
▁گیر	-8.84298
▁کہول	-8.84595
منی	-8.84783
▁درائیں	-8.84912
▁بچ	-8.84981
▁تیر	-8.84991
▁ڈول	-8.85357
▁دانکہ	-8.85461
▁کیا	-8.85502
▁ٹک	-8.85633
▁سرپدی	-8.85902
▁سفر	-8.85937
▁شمئے	-8.86063
▁مھر	-8.86101
▁پیر	-8.86444
▁گدار	-8.86458
▁ھزار	-8.86706
▁صاحب	-8.86751
▁شائری	-8.86761
▁درور	-8.86922
▁ہو	-8.87002
▁زورگ	-8.87766
▁زھگ	-8.87798
پہ	-8.87875
▁بل	-8.88027
▁ھدا	-8.88057
▁بستگ	-8.88178
▁حق	-8.8819
▁دوستی	-8.88204
▁پریس	-8.88252
▁تاریخ	-8.88344
▁چش	-8.88399
▁تہنا	-8.88604
▁امیت	-8.88963
▁پیلو	-8.89012
▁کسی	-8.89374
▁نیمگءَ	-8.89412
▁چیریں	-8.89526
▁سنگ	-8.8955
▁In	-8.89719
▁نند	-8.89722
▁مند	-8.89734
▁ئے۔	-8.89886
▁شری	-8.89898
▁he	-8.89952
▁اکیڈمی	-8.90103
▁وشیں	-8.90371
بلوچی	-8.90832
▁واتر	-8.90916
▁گشیت	-8.90918
▁گیشیں	-8.90987
▁شوھاز	-8.90993
▁دود	-8.91004
▁پروش	-8.91037
▁an	-8.91138
▁ہست	-8.91392
▁چپ	-8.91827
▁م	-8.91902
▁ہند	-8.92002
....	-8.921
▁کننت	-8.92307
▁بزانت	-8.9234
▁نسبت	-8.92415
▁نبشتگ	-8.92438
▁بانک	-8.9253
▁کسان	-8.92547
▁ایگ	-8.92773
▁واھگ	-8.92868
▁ھور	-8.92964
▁کنوک	-8.92975
▁۔۔۔	-8.92986
▁ھساب	-8.9322
▁دین	-8.93288
▁تانکہ	-8.9372
▁حدا	-8.94203
▁اتنت۔	-8.94206
▁بوئگ	-8.94373
▁بنا	-8.94651
▁نشان	-8.94713
▁ارمی	-8.94836
▁حساب	-8.95079
یت	-8.95196
▁وارت	-8.95272
▁بندوک	-8.95516
▁جنان	-8.95631
▁معنا	-8.95873
▁استمانی	-8.96232
▁به	-8.96306
▁مری	-8.96386
▁مچی	-8.96585
▁گوازی	-8.96758
▁بگٹی	-8.96824
▁چونیں	-8.97041
▁پگر	-8.97054
▁کنئگ	-8.97132
▁حبر	-8.9722
▁had	-8.97261
▁مانا	-8.97414
t	-8.97564
▁مار	-8.97614
▁دیمروئی	-8.97811
▁چوشیں	-8.97881
▁ارزشت	-8.97928
▁لاپ	-8.97983
▁بیڑ	-8.98189
▁مچ	-8.98219
▁ہمیش	-8.98365
▁سیمی	-8.98481
▁قصہ	-8.98574
▁ہمک	-8.99059
▁ال	-8.99082
▁گم	-8.99183
▁;	-8.99276
▁مٹ	-8.99292
▁اف	-8.99324
▁ادارہ	-8.99336
▁چل	-8.99425
▁ادب	-8.99444
▁سپر	-8.99457
▁پکر	-8.99559
▁دم	-8.99611
▁باروا	-8.99774
▁مرتگ	-8.99822
▁انچش	-8.99922
▁درستاں	-8.99923
▁کنگا	-8.99971
▁ٹولی	-9.00004
▁which	-9.00088
▁ہی	-9.00402
گوں	-9.00425
▁چاران	-9.00736
▁کماش	-9.00753
▁فاضل	-9.00825
بہ	-9.0087
▁نان	-9.00881
ما	-9.00932
▁دلءَ	-9.00957
▁ردا	-9.01119
▁گپاں	-9.01139
▁برجم	-9.01264
▁پارٹی	-9.01521
▁هما	-9.01565
▁ادءَ	-9.01598
▁کارمند	-9.01819
▁گوست	-9.01889
▁بگر	-9.02156
▁کشت	-9.02235
al	-9.02238
▁ازمان	-9.02451
▁ھشت	-9.03172
▁سنگتاں	-9.03292
▁دیان	-9.03321
▁بنیاد	-9.03498
▁نندانک	-9.03756
▁گٹ	-9.04068
▁کنگءَ	-9.04075
ێں	-9.04316
▁بیگواہیں	-9.04508
▁دنت۔	-9.04568
▁ساڑی	-9.04597
▁ایں۔	-9.04921
▁د	-9.04931
▁نظام	-9.04979
▁دستونک	-9.05035
▁فارسی	-9.05045
▁بوتیں	-9.05108
▁دراج	-9.05177
▁نامیں	-9.0525
▁حمل	-9.05305
▁یکجاہ	-9.05646
د	-9.05703
▁برت	-9.05796
▁ر	-9.05971
▁جنی	-9.06574
▁قاضی	-9.06593
▁تراک	-9.06633
▁منت	-9.06721
▁بمب	-9.06758
▁روک	-9.0677
▁هر	-9.07206
▁شرگداری	-9.07211
▁ہیں۔	-9.07324
▁دروازگ	-9.07611
▁میجر	-9.07675
▁رنگے	-9.07675
▁همے	-9.07862
▁وسیلہ	-9.08006
▁دمان	-9.08191
▁اھت	-9.08195
نی	-9.08238
▁بئے	-9.08388
▁میار	-9.08797
▁کمے	-9.08931
▁صل	-9.08989
▁ی	-9.0901
▁سیر	-9.09322
▁غلام	-9.09629
▁جھمنند	-9.09642
▁باور	-9.09915
▁وانوک	-9.0992
▁سلامتی	-9.09955
▁عليه	-9.10014
▁لھتے	-9.10145
▁چینل	-9.10157
er	-9.10212
▁کپیت	-9.10323
▁دری	-9.10402
▁جنگی	-9.10464
▁پیدا	-9.10518
▁حسن	-9.10609
▁باید	-9.10687
سر	-9.10806
▁رستگ	-9.10874
▁حسین	-9.10924
▁ناز	-9.11008
▁س	-9.11026
▁بادشاہ	-9.11596
▁داری	-9.11619
▁نندوک	-9.12234
▁دات۔	-9.12276
▁کرا	-9.12307
▁عکس	-9.12549
▁بستار	-9.12556
▁وڑے	-9.12633
▁نشت	-9.12704
▁دراہ	-9.13154
▁دراجیں	-9.13318
▁ازاتی	-9.13367
▁مکن	-9.13405
▁ایان	-9.13775
▁چاکر	-9.13984
▁ہزار	-9.14075
▁مں	-9.14431
▁شئیر	-9.14788
بے	-9.14877
▁نادراہ	-9.15023
▁اثر	-9.15278
▁بیرم	-9.15439
▁A	-9.15478
▁موسم	-9.1555
▁ہ	-9.15563
▁کارست	-9.15825
▁دریا	-9.1587
▁درچک	-9.15876
▁شک	-9.1592
▁رامین	-9.15943
▁ایشیءِ	-9.16194
▁وتارا	-9.16286
▁ھمراہ	-9.16342
▁ناکو	-9.16351
▁تیاب	-9.16403
▁اکس	-9.16409
▁یار	-9.16467
▁تریں	-9.16493
▁انگریزی	-9.16569
▁نیکہ	-9.16794
▁بنداتی	-9.1681
▁داتگ۔	-9.16821
▁چین	-9.16835
▁لوٹاں	-9.1684
▁جاھے	-9.16894
▁19	-9.16976
ب	-9.16981
▁are	-9.1703
▁ساز	-9.17193
▁ڈیھ	-9.172
...!	-9.17407
▁منیر	-9.17484
▁سکیں	-9.17491
▁اجو	-9.17732
▁ترندیں	-9.17739
▁بونگ	-9.17846
▁گوشیت	-9.17848
▁دز	-9.17924
▁پرچے	-9.18274
▁سندھ	-9.18285
▁ھپت	-9.18363
▁سوار	-9.18531
▁کوٹی	-9.18633
▁٭	-9.18686
▁پسہ	-9.18842
▁پیما	-9.1892
▁کتہ	-9.19109
▁دنیاءِ	-9.19204
▁پوجی	-9.19544
▁منزل	-9.19672
▁کرت۔	-9.19744
▁امریکہ	-9.1983
▁لھتیں	-9.19831
▁بندگ	-9.20015
▁بدلی	-9.20027
▁یونیورسٹی	-9.20038
▁اپنے	-9.20166
▁نور	-9.20308
▁بیگاہ	-9.20373
▁اندر	-9.20404
▁ناول	-9.20508
▁جہان	-9.20831
▁ندارگ	-9.20857
▁ڈگار	-9.20882
▁نادراھی	-9.21095
▁مھمد	-9.21143
▁مبارک	-9.21261
▁شمبے	-9.21321
▁اسکول	-9.21522
▁بنگپ	-9.2159
n	-9.21624
▁بدن	-9.22002
▁داتگیں	-9.22029
▁بنکی	-9.22074
▁تاب	-9.22409
▁ریاستی	-9.22625
▁اں۔	-9.22712
▁گام	-9.2272
غ	-9.22759
▁شاد	-9.22826
▁منگ	-9.22859
▁ایشرا	-9.22863
▁دیمروی	-9.2307
▁مالی	-9.23136
▁تکنیک	-9.23166
▁جنز	-9.2332
▁بارو	-9.23337
▁کچے	-9.23359
▁تھنا	-9.23392
▁فیصلہ	-9.23401
▁شائر	-9.23504
▁جاھاں	-9.2365
▁خدا	-9.23762
▁مردے	-9.24027
▁اڈ	-9.24065
▁اول	-9.24272
▁ودار	-9.24574
▁گوشاں	-9.24643
▁راستیں	-9.24876
?‘‘	-9.24902
▁بندیگ	-9.2499
▁دستاں	-9.25
▁ھو	-9.2521
▁پیمیں	-9.25265
▁اوشتاتگ	-9.25316
▁پاک	-9.25344
▁درچ	-9.2539
▁کاینت	-9.25562
▁کاروبار	-9.25642
▁بکش	-9.25648
▁ای	-9.25719
▁اودءَ	-9.25787
th	-9.25829
▁مراگش	-9.2591
▁بست	-9.2592
▁تیار	-9.25925
▁فکر	-9.25965
▁گیشتریں	-9.2602
▁نصیر	-9.26139
▁ارس	-9.26209
▁اکبر	-9.26577
▁قومی	-9.26606
▁زرد	-9.26629
▁اگر	-9.26717
▁سوج	-9.26893
▁کلیں	-9.27016
▁جواب	-9.27045
▁ھون	-9.27151
▁نیشنل	-9.27164
▁وجود	-9.27226
▁گامگیج	-9.27359
▁البت	-9.27412
▁جوان	-9.27544
▁رھبند	-9.27736
▁انچوش	-9.2785
▁داب	-9.27938
تہ	-9.28006
بلوچ	-9.28028
▁جندءِ	-9.28113
▁ببیت	-9.2849
▁گشئے	-9.28632
▁اب	-9.28647
انءِ	-9.28963
▁سائنس	-9.29073
▁بوہگ	-9.29233
▁بالی	-9.2929
▁شمارا	-9.29379
▁their	-9.29567
▁نمدی	-9.29716
▁مئی	-9.29776
▁درشانی	-9.29934
▁برو	-9.2997
▁وس	-9.30086
▁نو	-9.30119
▁لہتے	-9.30206
▁خیال	-9.30219
▁صورت	-9.30349
▁عزت	-9.30647
▁دئے	-9.30813
▁شاری	-9.30891
▁but	-9.30938
▁اصل	-9.31203
▁پڑ	-9.31272
▁کشک	-9.31443
نا	-9.31599
▁نماز	-9.31689
▁not	-9.31824
‘‘(	-9.31835
▁دپتر	-9.31873
es	-9.31887
▁بہا	-9.32038
▁مول	-9.32058
ئیں	-9.3214
▁ئیگ	-9.32315
▁کریم	-9.324
▁کلب	-9.32467
▁گنگ	-9.32572
▁ارواہ	-9.32618
▁کوھنیں	-9.32629
▁ویل	-9.32762
▁تنے	-9.329
▁first	-9.3292
▁وائس	-9.33013
▁......	-9.3306
▁مولانا	-9.33222
a	-9.33273
ار	-9.33298
▁چیزانی	-9.33379
▁سہب	-9.33481
▁شہید	-9.33518
کی	-9.33648
▁ماس	-9.3366
▁چٹ	-9.33683
▁رسیت	-9.33739
▁پرس	-9.33836
▁تالان	-9.34262
▁مستونگ	-9.34269
▁عطا	-9.3447
▁نیست۔	-9.34556
▁پاس	-9.34708
▁بامن	-9.34875
▁مارچ	-9.34952
▁اشاں	-9.35082
▁درشانے	-9.35188
▁پرچاکہ	-9.35536
▁ارام	-9.35624
▁ایپ	-9.35633
▁زانتکار	-9.35643
ies	-9.35971
▁نامداریں	-9.36056
▁نبیسگ	-9.36225
▁باندا	-9.3662
▁ستک	-9.36777
▁وان	-9.36823
▁گوستگ	-9.3698
▁ھکانی	-9.37096
▁چوکہ	-9.371
▁امان	-9.37115
▁بگیر	-9.3715
▁پدءَ	-9.3719
▁لیب	-9.37528
▁امیدگس	-9.3764
▁تمپ	-9.3765
▁جانی	-9.37723
▁ربیدگ	-9.37755
▁سرمایہ	-9.37934
▁کئی	-9.37963
▁شے	-9.38012
▁کنگءِ	-9.38014
▁ھمراھی	-9.38028
▁بوتاں	-9.38255
▁ازاد	-9.383
▁وی	-9.38339
▁ساچشت	-9.38361
▁ماہی	-9.38634
▁پیسلہ	-9.38705
▁باندات	-9.38728
▁عربی	-9.38787
▁جھان	-9.38844
▁کمیں	-9.38854
▁بابتءَ	-9.39107
▁کیس	-9.39135
▁چھاپ	-9.39245
▁از	-9.3944
▁ادبی	-9.39603
▁or	-9.39714
▁ردوم	-9.39732
▁سزا	-9.39758
▁ھب	-9.39835
also	-9.39838
▁...	-9.39873
▁مدت	-9.39965
▁کردار	-9.40185
▁اھوالانی	-9.40248
▁رپورٹ	-9.40279
▁روزگار	-9.4028
▁دروگ	-9.40297
▁گلام	-9.40305
▁چاریں	-9.40441
▁ترقی	-9.4045
▁انکہ	-9.40513
▁یاد	-9.40543
▁انکس	-9.40767
▁بوتنت	-9.40781
▁میل	-9.40848
▁مالیات	-9.40876
▁تها	-9.40924
بی	-9.40983
▁غم	-9.4102
▁its	-9.41107
▁سھب	-9.41138
▁جس	-9.41198
▁اھتگ	-9.41271
▁بچک	-9.41318
▁her	-9.41585
▁ونتگ	-9.41664
▁ہلاس	-9.41706
▁ھرچ	-9.4173
▁بارت	-9.42155
▁با	-9.42361
▁ہور	-9.42384
▁نامی	-9.42437
▁کپگ	-9.42563
▁ائے	-9.42612
▁پھر	-9.42722
▁کارندہ	-9.42766
▁درمان	-9.42769
▁دراہیں	-9.42875
▁زیر	-9.43159
▁جوانی	-9.432
▁تنی	-9.43241
▁دشت	-9.43294
▁بیگواہی	-9.43302
▁مثال	-9.43659
▁رست	-9.43679
▁دیمتر	-9.43749
▁ندر	-9.43776
▁اپنی	-9.44053
▁بنگیج	-9.44138
▁وارتگ	-9.44173
▁ذات	-9.44308
▁سالی	-9.44356
بلوچستان	-9.44387
▁سازی	-9.44625
▁پرچہ	-9.44636
۔۔۔۔	-9.44719
▁گیشی	-9.44934
▁جاورانی	-9.45059
▁وھداں	-9.45146
▁زانتگ	-9.45163
st	-9.45181
▁کمو	-9.45219
▁ھک	-9.45519
▁نسل	-9.45749
▁جاوراں	-9.46009
ێن	-9.4607
▁نمبر	-9.46081
▁گرم	-9.46344
▁گراں	-9.46598
تگ	-9.46628
▁رھشون	-9.47226
▁چیزاں	-9.47366
▁have	-9.47438
▁اواران	-9.4745
▁زبانانی	-9.47465
▁بولان	-9.47556
نے	-9.4771
▁ور	-9.47716
▁گڈ	-9.47785
▁رواں	-9.48012
▁سلام	-9.48014
▁زہگ	-9.48115
▁طرح	-9.4818
▁نز	-9.48199
▁سند	-9.48327
▁دیاں	-9.4836
▁He	-9.48509
▁نزور	-9.4851
▁شعری	-9.48551
▁لیکن	-9.48618
▁وھدءَ	-9.48771
▁ساھت	-9.48856
نت۔	-9.48954
▁زلم	-9.49054
▁کمی	-9.49407
▁مشکل	-9.49651
▁رندا	-9.4974
▁ورنایے	-9.49881
▁گیس	-9.49903
▁ماما	-9.49905
گی	-9.49996
▁نواب	-9.50072
▁کچک	-9.50116
▁بنشون	-9.5012
▁one	-9.50143
ھمے	-9.50197
▁مسنگ	-9.50254
▁شکار	-9.50273
▁has	-9.50279
▁فار	-9.50296
▁بالاد	-9.50326
▁مڈی	-9.50373
▁چراگ	-9.5038
▁اگں	-9.50422
▁ہمراہ	-9.50478
▁اسراتی	-9.50726
▁مزار	-9.50805
▁نظر	-9.50834
▁جنجال	-9.5084
▁کلدار	-9.51213
▁نودربرانی	-9.51332
کار	-9.5134
ھ	-9.51356
▁تلگرام	-9.51359
واجہ	-9.51386
کے	-9.51398
▁جوڈ	-9.51524
▁نھ	-9.51538
▁نئے	-9.51628
▁دلءِ	-9.51738
▁اگست	-9.51795
▁سیل	-9.51822
▁امر	-9.51879
▁بہرے	-9.51905
▁زاھدان	-9.5191
▁عرب	-9.52298
▁ایندگہ	-9.52423
▁۔اے	-9.52748
▁پمشکا	-9.52782
▁دستءَ	-9.52835
▁گپانی	-9.52837
▁چوکی	-9.52861
▁اتءُ	-9.52918
▁زہر	-9.52983
ئی	-9.53215
▁جنگل	-9.53251
▁مر	-9.53321
▁ڈیرہ	-9.53328
▁been	-9.53333
▁ارا	-9.53338
▁گد	-9.53354
▁ساھگ	-9.53422
▁زندمان	-9.53679
▁two	-9.53814
▁ھرکس	-9.53913
▁عشق	-9.53952
▁یکشل	-9.53998
▁ارشانی	-9.54085
▁زندءَ	-9.54175
▁عبداللہ	-9.54234
▁چنچو	-9.54268
▁دیمی	-9.54275
▁اسے	-9.5436
▁واک	-9.54373
▁رسانک	-9.54398
▁زوریں	-9.54407
▁جیڑگ	-9.54469
▁جنرل	-9.54489
ری	-9.54616
▁who	-9.54618
▁تامر	-9.54681
▁اھوالکار	-9.54765
▁ٹکر	-9.54895
▁ارمان	-9.54905
▁تباہ	-9.54925
▁ترند	-9.54931
▁کنئے	-9.55077
▁I	-9.55087
▁بزان	-9.55111
▁ھواریں	-9.55116
▁روانک	-9.55175
▁پرائی	-9.55194
▁شور	-9.55236
▁اوتی	-9.55293
▁مست	-9.55483
▁سگ	-9.5567
▁بلکہ	-9.55699
▁اڑ	-9.55754
▁بلوچاں	-9.55866
▁لئے	-9.55962
▁چنت	-9.55995
▁سرجمی	-9.56016
▁پری	-9.56091
▁گنوک	-9.5611
▁گو	-9.56126
▁گشنت	-9.56326
▁برزی	-9.56569
▁دوشی	-9.56638
▁تی	-9.56924
ال	-9.56991
▁نصیب	-9.57048
▁عقل	-9.57114
▁ب	-9.57123
▁وطن	-9.57162
▁پاھو	-9.57207
ھم	-9.57276
▁مرید	-9.57285
▁نویس	-9.5733
▁رواج	-9.57434
▁سور	-9.57461
▁درسیں	-9.57465
▁کسانی	-9.57483
▁لاچار	-9.57515
وکیں	-9.57544
▁جھانی	-9.57595
▁جیڑ	-9.57634
▁دگه	-9.57699
▁منوک	-9.57861
▁رندے	-9.57909
▁گنداں	-9.58242
▁زال	-9.58246
▁پتر	-9.58302
▁تنگ	-9.58368
▁امام	-9.5843
▁گوھرام	-9.58471
یے	-9.58527
گیں	-9.58659
تئی	-9.58823
▁this	-9.58877
▁مرک	-9.58964
ج	-9.59001
▁بالاچ	-9.59073
▁دان	-9.59086
▁بیار	-9.5915
▁مجید	-9.5919
▁پریشان	-9.59241
▁رہبند	-9.59334
▁لک	-9.59527
▁هچ	-9.59538
▁منصوبہ	-9.59573
▁چوشکہ	-9.59577
l	-9.59644
▁دکان	-9.59714
پ	-9.59716
▁دشتی	-9.59875
▁انتءُ	-9.60102
دو	-9.60181
▁تہر	-9.60264
▁دزبندی	-9.60322
▁سری	-9.60352
▁سالاں	-9.60362
▁پرسنز	-9.60419
▁رب	-9.60442
▁چرے	-9.60491
تی	-9.60581
▁باروءَ	-9.60618
▁ایمان	-9.60656
▁زی	-9.60706
▁شرتر	-9.60857
▁پنجاہ	-9.60936
▁ابادی	-9.61024
▁مہمان	-9.61103
▁پوہ	-9.61173
▁رژن	-9.61199
▁سکین	-9.61226
▁سہ	-9.61247
▁دعا	-9.61268
▁رنگءَ	-9.61292
▁جم	-9.61303
▁نندگ	-9.61347
▁مینگل	-9.61546
▁مہمد	-9.61572
▁بارہ	-9.61674
▁چگل	-9.61859
▁ھنچش	-9.62012
▁نشہ	-9.6202
▁اپریشن	-9.62035
▁پمن	-9.62233
▁سامان	-9.62309
اگاں	-9.6239
▁اخر	-9.62426
▁گوزگ	-9.62492
▁تن	-9.62522
▁سرمچار	-9.6256
▁کمشنر	-9.62584
▁ذمہ	-9.62589
▁تل	-9.6276
..!	-9.62822
▁منند	-9.62927
▁کوئی	-9.62972
▁بئیت	-9.62973
▁زرمبشت	-9.6301
انت۔	-9.63012
▁کتابے	-9.63118
▁ساتھ	-9.63245
▁بشیر	-9.63269
▁چیدگ	-9.63348
▁روس	-9.63443
▁year	-9.63565
▁جا	-9.63616
▁کارمنداں	-9.63681
▁دوھزار	-9.63743
▁ؤ	-9.6378
ٹ	-9.63806
▁ایشیءَ	-9.63861
▁شکل	-9.63883
▁شان	-9.63912
▁سوت	-9.63989
▁نومبر	-9.64092
▁حاصل	-9.64207
▁اوشتوک	-9.64253
▁بت	-9.64265
▁سندھی	-9.64598
▁ایمنی	-9.64798
▁گیدی	-9.64813
▁شکر	-9.64979
▁شرپ	-9.65
▁رحیم	-9.65047
o	-9.65077
▁ھاشمی	-9.65244
▁کاگد	-9.65296
▁حد	-9.65446
▁گرانیں	-9.65583
▁زھر	-9.65647
▁پاداں	-9.65734
▁کالج	-9.65769
▁ہوا	-9.65832
▁سنگتانی	-9.65899
▁تیوگیں	-9.65962
▁براں	-9.65982
▁ترک	-9.66016
▁غیر	-9.66049
▁صدر	-9.66068
▁شوہاز	-9.6608
▁اوانی	-9.66084
▁چاہ	-9.66098
▁دوا	-9.66116
▁کرونا	-9.66194
▁شام	-9.66207
▁فوج	-9.66209
▁لبزانی	-9.66237
▁گرد	-9.66276
▁نیمگے	-9.66332
▁داستان	-9.66476
▁پسند	-9.66479
▁بید	-9.66549
▁زبانے	-9.66549
▁1	-9.66579
▁پمیشکہ	-9.66609
می	-9.66792
▁کتابانی	-9.6697
▁کاروائی	-9.67155
▁کوہنیں	-9.67161
▁اجازت	-9.67174
اناں	-9.67242
▁کنڈ	-9.67245
ون	-9.67281
▁معاشی	-9.67453
▁ازمی	-9.67507
▁والا	-9.67549
▁چیءَ	-9.67598
▁واہگ	-9.67633
▁روڈ	-9.67644
▁مستر	-9.67663
▁تیز	-9.67758
▁قدیر	-9.68018
▁نیاد	-9.68019
▁ماڑی	-9.6804
▁مدامی	-9.68073
▁شراب	-9.68207
▁انگور	-9.68297
▁امید	-9.6833
▁نوشکی	-9.68389
▁توکا	-9.68408
▁لال	-9.68426
▁گوناپ	-9.68436
▁چکاس	-9.68477
▁روچی	-9.68698
▁دسمبر	-9.68732
▁بزگ	-9.68785
▁یاکہ	-9.68808
▁رندءَ	-9.68847
▁کمال	-9.68896
▁موجود	-9.68984
▁گوازینگ	-9.68994
▁خبر	-9.69042
▁دیوال	-9.69092
▁ڈنی	-9.69248
▁امیر	-9.69351
وک	-9.6939
▁اشوب	-9.69495
▁شمے	-9.6953
▁نود	-9.69642
▁ھزدار	-9.69817
▁اوشتات	-9.69882
▁قلات	-9.69889
▁دیمپان	-9.69894
▁ترانگ	-9.69908
▁درائینت	-9.69953
▁جام	-9.69971
▁بلوچستانءِ	-9.70029
ےءَ	-9.70045
▁جنوری	-9.70076
▁طاقت	-9.70117
▁2	-9.70316
▁قران	-9.7039
▁کوکار	-9.70471
▁بتل	-9.70491
▁گورءَ	-9.70539
▁گیری	-9.70698
▁دؤر	-9.70736
▁ممکن	-9.71039
▁مزنین	-9.71057
▁کنائینگ	-9.71072
▁گناہ	-9.71166
▁انوں	-9.71186
▁جب	-9.7119
▁شریف	-9.71216
▁شد	-9.71368
▁مذہب	-9.71532
▁ربیت	-9.71539
▁اگن	-9.71608
▁کنوکاں	-9.71608
▁سلیم	-9.71639
▁ورنائیں	-9.71715
▁ل	-9.71797
▁الس	-9.7182
▁لیویز	-9.71833
▁زبانا	-9.71851
▁سیت	-9.72054
▁@,@	-9.72121
▁بان	-9.72136
▁ٹپ	-9.72312
▁میڈیا	-9.72318
اس	-9.72322
یہ	-9.72492
▁کنٹرول	-9.72493
▁after	-9.72562
ڈ	-9.72662
▁بھا	-9.72721
▁نشتگیں	-9.72735
▁رگ	-9.72897
▁گوشان	-9.72966
▁دزگیری	-9.72971
▁تھی	-9.73104
▁ادگہ	-9.73223
▁بڈ	-9.73226
▁پسنی	-9.73276
▁زیبائی	-9.73278
▁ھلک	-9.73314
▁ایچ	-9.73324
ماں	-9.73327
▁گری	-9.73493
▁ش	-9.73496
▁فرنٹ	-9.73498
▁سبز	-9.7355
▁نودربراں	-9.73671
▁برکت	-9.73838
▁دروت	-9.73873
▁ازمانکانی	-9.73874
▁اواز	-9.73967
▁اوگانستان	-9.73967
▁اورتگ	-9.74045
▁تیل	-9.74074
▁گلزمین	-9.7422
▁بنجاہی	-9.7431
▁وہدءَ	-9.74314
▁تام	-9.74819
▁شون	-9.75052
▁لوز	-9.751
▁نپ	-9.75111
وت	-9.75207
▁اکتوبر	-9.75227
▁ماتی	-9.75251
دی	-9.75366
▁بیگواھی	-9.75533
▁دروگیں	-9.75707
▁بود	-9.75767
▁عہد	-9.75797
▁تپاک	-9.75884
▁تاج	-9.75897
▁کپتگیں	-9.75899
▁پمشکہ	-9.7592
اپ	-9.76062
▁عمران	-9.76077
▁دیمپانی	-9.76089
▁وائی	-9.76109
▁جل	-9.76135
▁سروکی	-9.76176
▁جھل	-9.7618
▁اینچو	-9.76288
▁نشانی	-9.76374
▁وا	-9.76402
▁گپءَ	-9.765
▁اسلم	-9.76515
▁ونت	-9.7665
▁رکینگ	-9.76717
▁وڑءَ	-9.76779
▁کشار	-9.76847
دل	-9.76869
▁کرنے	-9.76876
▁یکجھتی	-9.76976
چو	-9.77055
تر	-9.77091
▁It	-9.77151
▁ردی	-9.77354
▁حاجی	-9.77389
ع	-9.77431
▁ھاسیں	-9.77515
▁ادارھانی	-9.77607
▁S	-9.77625
▁پیمءَ	-9.77648
▁بیم	-9.77664
▁چکانی	-9.77726
▁ہال	-9.77747
▁بنداں	-9.77824
▁اھوال	-9.77873
▁ڈولیں	-9.77885
▁('	-9.78061
▁بہت	-9.78067
▁تئو	-9.78216
▁F	-9.78338
▁گچکی	-9.78455
▁کج	-9.7859
▁داریں	-9.78669
▁کارءَ	-9.78774
▁بعد	-9.78793
۔۔	-9.78817
▁ہوئے	-9.78897
▁سہر	-9.79144
▁چکاں	-9.79152
۔اے	-9.79155
را	-9.7916
▁لوگءَ	-9.79174
▁time	-9.79218
▁زوراکیانی	-9.79279
▁کرار	-9.79315
▁ترندی	-9.7937
تا	-9.79385
▁گول	-9.7943
▁متلب	-9.79433
▁دامن	-9.79549
▁other	-9.79777
▁ھنکین	-9.79908
مئے	-9.7991
▁سرڈگار	-9.80036
▁سول	-9.80132
▁واقعہ	-9.80172
▁شبین	-9.8021
▁جنیں	-9.8029
▁حضرت	-9.80298
▁دشتیاری	-9.80328
▁۔۔	-9.80385
ہم	-9.80398
▁مارگ	-9.80561
▁مک	-9.80588
▁اگہ	-9.80624
ہمے	-9.80627
▁انت۔۔۔	-9.80709
▁انگر	-9.80715
r	-9.80756
▁عالم	-9.80788
ف	-9.8081
▁زیارت	-9.80914
▁چوناھا	-9.8093
▁ج	-9.81158
▁لڈ	-9.81217
▁نزوری	-9.81255
▁جتاجتائیں	-9.81328
▁انگریز	-9.81339
▁حکم	-9.81411
▁دزکپتگ	-9.81455
▁هست	-9.81479
▁کمپنی	-9.81499
▁نزیکی	-9.8158
▁into	-9.81611
▁گہار	-9.81627
▁چنکس	-9.81628
ائیں	-9.81714
▁نوشتہ	-9.81869
▁رسم	-9.81896
یءَ	-9.81912
▁ویبجاہ	-9.82004
▁چیاکہ	-9.82109
بیت	-9.82179
▁ہرکس	-9.8224
▁کننت۔	-9.82256
▁نیک	-9.82356
▁ھیل	-9.82387
▁اوپار	-9.8239
▁مرچاں	-9.82425
▁ز	-9.82505
▁برجاھیں	-9.82506
▁چاراں	-9.82515
▁پنام	-9.82575
▁راجے	-9.82733
▁چد	-9.82829
▁روچءَ	-9.82839
▁واجه	-9.82905
▁بدیں	-9.82946
▁بله	-9.83052
▁گدان	-9.83058
▁براس	-9.83064
▁انہی	-9.83169
▁کارمرد	-9.83171
▁گندیت	-9.83183
▁بانگ	-9.83208
▁لشکری	-9.83277
▁کد	-9.83324
▁چنڈ	-9.83345
پر	-9.83352
▁کشیت	-9.83464
دار	-9.83597
بزاں	-9.83609
▁پ	-9.83621
▁صد	-9.83627
▁اتکگیں	-9.83639
▁لڑ	-9.8369
▁کناں۔	-9.83777
▁استان	-9.83819
▁حب	-9.83823
▁سنگر	-9.83829
▁زندان	-9.83834
▁ڈک	-9.83865
▁ہوں	-9.83894
▁یوسف	-9.83982
در	-9.8399
▁نرم	-9.84055
یناں	-9.84066
▁اوست	-9.84074
▁حقیقت	-9.84075
▁مناں	-9.84139
▁زبانءِ	-9.84178
▁علاقہ	-9.84194
▁اسمبلی	-9.84264
▁ردانک	-9.84284
▁پانزدہ	-9.84337
▁بیرانی	-9.84351
ق	-9.8437
▁ایوکیں	-9.8437
▁دشمن	-9.84443
'	-9.8446
▁واکدار	-9.84632
▁over	-9.8474
▁مردمان	-9.84897
▁B	-9.84929
▁کازی	-9.84978
▁روچانی	-9.84998
▁کنوکانی	-9.85209
▁شھدگ	-9.85213
▁واحد	-9.85256
▁جولائی	-9.85498
▁تہاری	-9.85518
▁اتاں۔	-9.85652
▁گیوار	-9.85682
▁بوتہ	-9.85714
▁بگ	-9.85735
▁زندے	-9.85847
▁ستمبر	-9.85906
▁پروفیسر	-9.85922
▁ایوکءَ	-9.85934
یاں	-9.86044
▁داروکیں	-9.86075
▁ہشت	-9.86079
▁ہرچی	-9.86104
▁صنعت	-9.86106
▁فروری	-9.86174
▁کرن	-9.86276
▁would	-9.86307
▁مسیت	-9.86377
▁more	-9.8641
▁سبک	-9.86435
▁لگت	-9.86482
▁مھکم	-9.86523
▁تحریک	-9.86577
▁قبیلہ	-9.86621
▁دمانے	-9.86641
▁کرنا	-9.86645
▁وہدیکہ	-9.86655
▁تہء	-9.8677
▁سائنسی	-9.86771
▁اپریل	-9.86854
▁جنکے	-9.8689
چے	-9.86949
▁کندگ	-9.87191
▁راجانی	-9.87241
▁ٹیم	-9.87264
▁کیت۔	-9.87265
▁18	-9.87269
▁پرے	-9.8734
▁رسگ	-9.87351
▁کلوہ	-9.87397
▁پانگس	-9.87523
▁سیمسر	-9.87553
▁مرزی	-9.87563
▁بلاھیں	-9.87573
▁مرز	-9.8758
▁نگد	-9.8762
▁گیا	-9.87626
▁انساپ	-9.87673
▁لا	-9.87686
▁برجا	-9.87716
▁پیک	-9.87905
▁رنج	-9.87947
▁لوٹوکیں	-9.87965
▁بک	-9.88029
▁ادینک	-9.88031
▁تھے	-9.88152
▁اسمان	-9.8816
دومی	-9.88199
▁بھتام	-9.88419
▁ہاترا	-9.88449
کو	-9.88452
▁سکی	-9.88511
▁نامءَ	-9.88659
▁شمار	-9.88702
▁مجلس	-9.88786
in	-9.8896
▁مرچیگیں	-9.88963
ے۔	-9.89028
تاکدیم	-9.89251
▁نگ	-9.89336
▁اشتر	-9.89395
▁3	-9.8942
▁کارگس	-9.89491
▁لکھ	-9.8953
▁دستی	-9.89536
▁موہ	-9.89571
▁یکبرے	-9.89582
▁گچینی	-9.89659
▁ریل	-9.89685
▁انت۔اے	-9.89765
▁ملکاں	-9.89903
▁بدئے	-9.89958
دیم	-9.90196
▁سسا	-9.90212
mber	-9.90225
▁سا	-9.90285
▁دگر	-9.90339
▁کمیشن	-9.90443
▁بدی	-9.90477
▁وانگی	-9.90485
▁خاصیں	-9.90672
▁دینت	-9.90689
▁ادار	-9.90749
ion	-9.90865
گڑا	-9.90889
کن	-9.90949
کا	-9.91032
▁دوازدہ	-9.91041
▁خاص	-9.91043
▁یو	-9.91154
▁گالوار	-9.91171
▁بستگیں	-9.91242
!‘‘	-9.91272
se	-9.91343
▁چکے	-9.9135
▁شاعرے	-9.91404
▁انصاف	-9.91418
▁ہونا	-9.91442
▁پالیسیانی	-9.9147
▁سپت	-9.91489
▁طور	-9.9149
▁شعرانی	-9.91602
▁بندش	-9.9168
▁کاریت	-9.9171
▁مومن	-9.91733
▁نئیت	-9.9182
▁اسپ	-9.91825
▁نیٹورک	-9.91975
▁ھنچیں	-9.91998
▁سالے	-9.92046
یگ	-9.92052
▁ماسٹر	-9.92155
▁سمی	-9.92184
▁قدر	-9.92207
▁ھمود	-9.92229
▁پارسی	-9.92254
▁all	-9.92309
▁بور	-9.92378
▁بچکند	-9.92405
▁چادر	-9.92453
▁فوجی	-9.92596
▁مل	-9.92684
▁ماھتاک	-9.92735
▁اندرءَ	-9.9279
▁نزینک	-9.92803
▁چیئرمین	-9.92806
▁گستا	-9.92816
▁ھوش	-9.92818
▁اسلامی	-9.92863
▁ہرچ	-9.92882
▁تاریخی	-9.92928
▁دوستیں	-9.92945
▁گلانی	-9.93016
▁تواری	-9.93032
▁حیران	-9.9306
▁دائم	-9.93125
▁اروس	-9.93203
▁ھاترءَ	-9.93237
▁نیوز	-9.9329
▁اشکنگ	-9.93331
▁سان	-9.93474
▁امن	-9.93561
▁خود	-9.93571
نوکیں	-9.93599
▁گونڈیں	-9.93691
▁نویسگ	-9.93716
▁برزیں	-9.93758
▁زالبولانی	-9.93867
نوں	-9.93932
▁پیریں	-9.93963
اد	-9.94059
▁دچار	-9.94072
▁خیر	-9.94128
▁بینک	-9.94134
▁مئیں	-9.94161
▁استیں	-9.94206
▁گنج	-9.94326
▁پکار	-9.94344
▁نادراہی	-9.9435
ھو	-9.94355
▁جمالدینی	-9.94381
▁ساچشتی	-9.94459
▁ھیر	-9.94513
▁سرکماش	-9.94529
▁پادانی	-9.94547
▁واھند	-9.94593
▁مطلب	-9.94611
▁پژدر	-9.94671
▁وتن	-9.94679
▁ہکانی	-9.94711
▁یورپ	-9.94716
▁گا	-9.94741
▁چہر	-9.94795
▁افغانستان	-9.9486
▁ساجد	-9.94941
▁رؤگ	-9.95071
▁کنیں۔	-9.95126
▁کمالان	-9.95138
▁راز	-9.95147
▁سنگتے	-9.95161
▁بیر	-9.95267
▁سب	-9.95318
جی	-9.95422
▁ساپ	-9.95435
▁مردین	-9.95462
▁تھا۔	-9.95542
▁لیے	-9.95571
▁مہناز	-9.95703
سی	-9.95721
▁جاہے	-9.95735
▁۔۔۔۔	-9.96115
▁T	-9.96216
▁پہک	-9.9624
▁چارت	-9.96243
▁گیپت	-9.96258
▁بلک	-9.96267
▁فائدہ	-9.96278
ور	-9.96314
▁گریوگ	-9.96318
▁بلیدہ	-9.9647
▁کچھ	-9.96519
▁بج	-9.96568
on	-9.96575
▁اسکواڈ	-9.96648
▁ایا	-9.96708
▁جیئند	-9.96744
▁اسپیت	-9.96866
داں	-9.969
▁اؤرتگ	-9.97068
خ	-9.97154
▁نزانت	-9.97184
▁توامیں	-9.97393
▁کند	-9.97409
▁بروت	-9.97444
▁براہ	-9.97565
▁دیوانے	-9.97718
▁ماہتاک	-9.97724
▁غزل	-9.97736
▁٭٭٭	-9.9785
▁she	-9.97938
▁معلوم	-9.97996
▁بوگءَ	-9.98011
▁گشاں	-9.9803
▁کوشست	-9.98278
▁زئی	-9.98286
یءِ	-9.98305
▁اناں	-9.98386
▁پاکیں	-9.98386
▁راه	-9.98409
▁عزیز	-9.98465
▁نزاناں	-9.98521
▁الی	-9.98525
▁چارمی	-9.98582
▁بگش	-9.98591
▁کرتے	-9.98678
▁اسرائیل	-9.98736
▁ھمگرنچ	-9.98744
▁پلہ	-9.98766
▁بام	-9.98769
تگیں	-9.98805
▁اورت	-9.98825
▁واست	-9.98885
▁ایراد	-9.98898
▁یازدہ	-9.98963
▁شئے	-9.98993
▁نقصان	-9.9901
▁پراہ	-9.99047
▁ڈپٹی	-9.99052
▁درک	-9.99131
▁بگوش	-9.99204
▁دراتک	-9.99296
▁اتیں	-9.99311
▁when	-9.99335
▁وڈ	-9.99547
▁اتگ۔	-9.99552
▁ہبر	-9.9956
▁ملکانی	-9.99587
▁دروشمے	-9.99598
▁سانگ	-9.99617
▁دوبر	-9.99628
▁شیخ	-9.99785
▁C	-9.99831
باز	-9.99905
▁مقصد	-9.99906
▁چینی	-10
▁زیان	-10.0005
▁گندئے	-10.0007
▁کسمانک	-10.001
▁پھل	-10.0012
▁ارب	-10.0012
▁موبائل	-10.0019
ary	-10.0026
▁لوٹت	-10.0032
▁سوال	-10.0034
▁جاہاں	-10.0049
▁up	-10.0065
▁رسانکدراں	-10.0066
▁ھراب	-10.007
▁ہوٹل	-10.0073
▁چن	-10.0074
▁ریش	-10.0074
▁us	-10.0078
▁چارات	-10.0085
▁ناماں	-10.009
▁گوما	-10.009
مہ	-10.0103
▁دگنیا	-10.0105
▁نادراھجاہ	-10.0115
▁ہاشمی	-10.0116
▁وقت	-10.0123
▁صفت	-10.0124
▁نیت	-10.0128
▁گالبند	-10.0128
▁پیسرا	-10.013
▁کانود	-10.0131
▁ارت	-10.0131
▁دلجمی	-10.0137
▁سگریٹ	-10.0138
ھر	-10.0152
▁یکجہتی	-10.0155
▁مذہبی	-10.0158
یانی	-10.0166
▁حصہ	-10.0166
▁مسلم	-10.017
▁کول	-10.0175
▁وفا	-10.0179
▁وانینگ	-10.0183
▁ناصر	-10.0189
▁دپءَ	-10.0198
▁سیاھیں	-10.0205
▁بوگی	-10.0208
ص	-10.0217
▁چ	-10.0219
▁ھاک	-10.0221
▁ہپت	-10.023
▁میری	-10.024
▁ندکار	-10.0241
▁پنجاب	-10.0248
▁گوم	-10.025
▁تنک	-10.0251
▁سوبین	-10.0255
▁زرتگ۔	-10.0261
▁دلجم	-10.0272
▁زیرگ	-10.0273
▁سوچ	-10.0275
▁most	-10.0289
▁ئا	-10.0295
▁وهد	-10.0305
▁کورٹ	-10.0312
▁لوٹیت۔	-10.0313
▁نمیران	-10.033
▁زیادہ	-10.0339
▁کھ	-10.0339
▁بنیادم	-10.034
▁ورناہ	-10.034
▁پوست	-10.0346
▁دستیگ	-10.0348
▁صوبہ	-10.035
▁ھشک	-10.0351
during	-10.0354
▁ستا	-10.0357
▁پا	-10.0365
▁درس	-10.0373
او	-10.0374
▁زانتی	-10.0375
▁جتگ۔	-10.0376
▁نیں	-10.0384
چی	-10.0386
▁دیگر	-10.04
▁پوشاک	-10.0407
▁پرک	-10.0412
▁ٹیکنالوجی	-10.0413
کنگ	-10.0416
▁شست	-10.0422
▁انتزامیہ	-10.0422
▁شرف	-10.0427
▁گلاں	-10.0432
▁احت	-10.0444
▁لوگانی	-10.0448
▁برابر	-10.0451
▁تچکیں	-10.0451
▁گندگءَ	-10.0452
بر	-10.0455
▁سارتیں	-10.0461
▁کینگ	-10.0468
▁جز	-10.0472
▁میڑ	-10.0474
▁جناں	-10.0475
▁game	-10.0478
ےءِ	-10.0483
ھما	-10.0483
▁ہنچو	-10.0485
▁زیبا	-10.0492
▁ہوتا	-10.0497
▁only	-10.0499
▁لبزانت	-10.0503
▁سارت	-10.0503
▁گوشت۔	-10.0505
ce	-10.0511
▁سوشل	-10.0516
▁نامہ	-10.0517
▁اتگیں	-10.0522
▁سربوتگیں	-10.0523
▁سبزیں	-10.0526
▁نیکراھی	-10.0527
▁وکیل	-10.0545
▁حون	-10.0552
▁کلی	-10.0553
▁نیکی	-10.0558
▁جتائی	-10.0568
▁بیگا	-10.057
▁نکش	-10.0584
▁بلکن	-10.059
▁ظاہر	-10.0592
▁]	-10.0596
▁زندگیں	-10.0599
▁اسل	-10.0606
▁رہشون	-10.0609
پد	-10.061
تے	-10.0616
▁دماغ	-10.0617
▁ھچبر	-10.0618
▁شرتریں	-10.0622
▁می	-10.0622
▁out	-10.063
▁بوہان	-10.0636
▁علاج	-10.0636
▁اؤرت	-10.0642
▁ھواری	-10.0643
▁روایت	-10.0643
▁قول	-10.0646
▁کام	-10.0649
▁کونسل	-10.0662
le	-10.0674
▁مسلمان	-10.0675
▁رضا	-10.0676
▁کوٹ	-10.0678
▁گشے	-10.0686
▁لین	-10.0698
▁زباناں	-10.0702
▁اہوالکار	-10.0703
اب	-10.0703
▁چند	-10.0704
▁تاکت	-10.0704
▁راھے	-10.0712
▁محبت	-10.0717
▁نبیس	-10.0717
▁لیک	-10.0719
▁گلہ	-10.0724
ish	-10.074
▁صبا	-10.0745
▁باری	-10.0749
▁امریکی	-10.0751
▁کوپگ	-10.0756
▁گواہ	-10.0759
▁سست	-10.076
▁اوشت	-10.0762
▁زاھر	-10.0763
▁مگر	-10.0764
▁کاف	-10.0764
▁ڈیہہ	-10.077
▁گوئشت	-10.0791
▁دیدگ	-10.0791
▁جاه	-10.0808
▁وهدے	-10.0821
▁گاڑیانی	-10.0831
▁شتاں	-10.0841
▁جندئیگ	-10.0852
▁تمام	-10.0856
about	-10.0857
▁پروشگ	-10.086
tween	-10.0866
i	-10.0866
▁ڪہ	-10.0871
▁m	-10.0875
▁بدار	-10.0876
▁کلام	-10.0881
▁اسی	-10.0885
▁داراں	-10.0887
▁ھانی	-10.0889
▁ضرورت	-10.0893
▁بوھیر	-10.0904
۔۔۔۔۔	-10.0904
▁گڑ	-10.0909
▁پند	-10.0912
▁باگ	-10.0916
▁نزیکیں	-10.0919
▁علیہ	-10.0924
▁نامدار	-10.0924
▁بکنت۔	-10.0931
▁بئیگ	-10.0932
▁ظلم	-10.0942
▁گوز	-10.0946
▁وانگجاہ	-10.0948
▁علمی	-10.0948
▁دزی	-10.0958
▁پرواز	-10.0959
▁ھمدا	-10.0965
▁دگے	-10.097
▁سئیں	-10.0971
▁لیگ	-10.0972
▁ھندی	-10.0981
▁ھرچی	-10.0984
▁بنجاہ	-10.0988
▁ثابت	-10.0991
▁نون	-10.0993
▁اھگ	-10.0998
▁پیشی	-10.1007
▁کتاباں	-10.1008
▁him	-10.1011
▁اومان	-10.1027
▁ہوش	-10.1027
▁حاترا	-10.103
▁سو	-10.1033
▁شپے	-10.1034
▁ڈیک	-10.1036
▁بگل	-10.1052
▁play	-10.1058
▁شیئر	-10.1061
▁نامے	-10.1065
▁کامیاب	-10.1066
▁استمان	-10.1066
▁سلامت	-10.1068
▁ام	-10.1081
▁ایوب	-10.1082
اش	-10.1083
▁پونز	-10.1085
▁مشکے	-10.1087
▁ارشاں	-10.1089
▁زار	-10.1089
▁یاں	-10.1093
▁ریچ	-10.1093
▁سنچ	-10.1103
▁لانچ	-10.1104
▁ساعت	-10.1106
▁سالانی	-10.1107
▁گوشئے	-10.1107
▁انور	-10.111
▁گڈسر	-10.1125
▁کبر	-10.113
▁","	-10.1131
!......	-10.1133
ت۔	-10.1135
انہ	-10.1135
ي	-10.1135
▁باج	-10.1139
▁سرمچارانی	-10.1143
▁season	-10.1143
▁حرکت	-10.1148
▁روش	-10.1152
لی	-10.1155
دگہ	-10.1155
▁ادارہانی	-10.1164
ھی	-10.1166
▁انگتہ	-10.1167
▁کپان	-10.1169
▁again	-10.117
▁قاسم	-10.117
▁فون	-10.1171
▁کشندہ	-10.1188
▁پورا	-10.1191
▁سلمان	-10.1201
▁حلک	-10.1205
▁ھمائی	-10.1216
▁دولت	-10.1219
▁three	-10.1219
▁تجربہ	-10.1229
▁سسٹم	-10.1233
▁پالیسی	-10.1233
▁گوک	-10.1233
▁داریت۔	-10.1236
▁بزگی	-10.1238
▁تچان	-10.1241
▁ولی	-10.1241
▁فکشن	-10.1243
▁گیشینگ	-10.1244
گل	-10.1247
▁ذاتی	-10.1254
▁دمک	-10.1254
▁ساد	-10.1263
▁بلد	-10.1265
▁چر	-10.1266
▁رؤت	-10.1279
کنت	-10.1286
▁نبی	-10.1289
چ	-10.1295
▁''	-10.1299
▁زیب	-10.1313
▁ورنایانی	-10.1313
▁میدان	-10.1317
▁رھادگ	-10.132
▁نظم	-10.1325
▁تگ	-10.1339
▁ہائی	-10.1341
▁گشت۔	-10.1342
▁ادمین	-10.1343
▁5	-10.1346
▁عام	-10.1349
▁فضل	-10.1357
▁بیوکیں	-10.1362
▁امین	-10.1364
▁بران	-10.1368
▁چھ	-10.137
▁بکناں	-10.1371
▁سعید	-10.1378
▁چاردہ	-10.1379
کت	-10.138
شپ	-10.1386
▁چیک	-10.1389
▁زامران	-10.1393
▁پترت	-10.1395
▁ادارھاں	-10.1398
▁لج	-10.1399
▁زیمر	-10.1402
▁۔ائی	-10.1403
▁تہار	-10.1411
▁زوال	-10.1412
▁On	-10.1417
▁سیاد	-10.1418
▁بہار	-10.1428
▁گردن	-10.1429
▁راجمان	-10.1431
▁M	-10.1433
▁پیچ	-10.1436
...?	-10.1439
▁دلیل	-10.1439
▁قبر	-10.1441
▁جگر	-10.1444
▁رحم	-10.1448
▁قرار	-10.1448
▁قانون	-10.145
us	-10.1456
▁اؤکیں	-10.1457
▁ادینگ	-10.146
▁دلبڈی	-10.1461
▁المیں	-10.1466
▁اسپیتیں	-10.1474
▁ھندوستان	-10.1475
▁کمبر	-10.1475
▁وائرس	-10.1477
▁جوش	-10.148
▁سمجھ	-10.1481
▁پیرک	-10.1483
▁ابرم	-10.1483
▁تئ	-10.1484
▁باپاری	-10.1488
▁پش	-10.149
▁بجٹ	-10.149
▁than	-10.1493
▁بلوچے	-10.1494
▁موکل	-10.1498
▁دودمان	-10.1501
▁ڈس	-10.1503
▁سار	-10.1503
▁گی	-10.1506
▁تعلیم	-10.1517
▁مرت	-10.1523
▁چوک	-10.153
▁پہنات	-10.1537
▁تم	-10.1546
▁بئیں	-10.1551
▁4	-10.1553
▁پلانی	-10.1555
▁مز	-10.1558
▁راجمانی	-10.1565
▁انگہ	-10.1566
▁دوستین	-10.1571
▁کردے	-10.1571
▁ھار	-10.1588
▁فرق	-10.159
گوشتگ	-10.1592
▁')	-10.1594
▁شاعرانی	-10.1594
▁بازینے	-10.1595
▁راشد	-10.1599
▁سینگ	-10.16
▁السی	-10.1605
▁ھیران	-10.1626
▁انا	-10.1626
▁جاتا	-10.1631
ترا	-10.1634
▁اندیم	-10.1636
▁صاف	-10.1641
▁کارمرزی	-10.1648
▁ارواح	-10.1648
▁رک	-10.1652
ہر	-10.168
گا	-10.1689
▁حاکم	-10.1693
▁through	-10.1696
▁باسکاں	-10.1697
▁تپاس	-10.1697
able	-10.1707
▁زرباری	-10.1709
▁زوریت	-10.1714
▁ردیں	-10.1719
▁بز	-10.1727
▁جنئگ	-10.1731
▁وانندہ	-10.1735
▁غنی	-10.1738
▁گالاں	-10.1746
▁نبشتگیں	-10.1753
▁ھردو	-10.1759
▁سوبمند	-10.1761
▁رجانکار	-10.1766
▁حانی	-10.1768
▁متاثر	-10.1772
▁جاگہے	-10.1773
میر	-10.1776
▁کشیں	-10.1777
▁ترکی	-10.1777
▁گراب	-10.1781
پدا	-10.1783
▁خاندان	-10.1791
رد	-10.1798
▁منظور	-10.1805
▁later	-10.1812
▁استال	-10.1834
▁روسی	-10.1841
▁رجینگ	-10.1861
▁دیا	-10.1863
▁[	-10.1866
▁درامد	-10.1869
▁ہندوستان	-10.1875
▁نظریہ	-10.1876
▁زہیر	-10.1881
▁لوگے	-10.1893
▁بری	-10.1899
▁لوگاں	-10.19
▁پور	-10.19
▁لبزاں	-10.1902
▁عملی	-10.1913
▁چمشانک	-10.1917
▁پاگ	-10.1923
▁زبانءَ	-10.1925
▁while	-10.1928
▁چندے	-10.1931
ھے	-10.1935
▁لائن	-10.1938
▁نیامءَ	-10.1938
▁باریگ	-10.194
ام	-10.1943
▁ھستی	-10.1952
▁یعنی	-10.1965
▁لازم	-10.1974
▁وڈیں	-10.1977
▁تچگ	-10.1981
▁مے	-10.1981
▁تاکہ	-10.1985
▁گوھار	-10.1986
ڑ	-10.2013
ح	-10.2024
▁دینی	-10.203
▁درداں	-10.2033
▁تاکبند	-10.2033
وا	-10.2035
▁گواچن	-10.2035
▁جنوک	-10.2038
▁کپت۔	-10.205
▁بگندئے	-10.2053
▁کیمپ	-10.2056
▁some	-10.2057
▁روح	-10.2072
▁مالک	-10.2074
▁تہہ	-10.2078
▁زیات	-10.2079
▁زالبولے	-10.208
▁پرواہ	-10.2081
▁وزن	-10.2083
an	-10.2086
?”	-10.2093
▁ارزان	-10.2096
▁نیکیں	-10.2106
▁اچہ	-10.2109
▁ہندی	-10.2113
▁شعرءِ	-10.2115
ایشی	-10.2117
▁ائید	-10.2124
▁زھیر	-10.2126
▁زات	-10.2126
made	-10.2128
▁چتور	-10.2128
▁پرپٹ	-10.2129
دست	-10.2132
▁زرمبش	-10.2133
ایاں	-10.2135
▁سوگند	-10.2142
▁گلے	-10.2152
بند	-10.2152
▁زانشت	-10.2162
▁ٹاہ	-10.2169
▁جماعت	-10.2172
▁پروگرام	-10.2175
▁گلامی	-10.218
▁کلاں	-10.2188
▁ربیدگی	-10.2188
▁حاصیں	-10.2189
▁لعل	-10.219
▁زیبائیں	-10.2191
▁لوٹگ	-10.2193
▁فقیر	-10.2193
▁ف	-10.2199
▁مکسد	-10.2199
▁پرشت	-10.2211
▁ریڈیو	-10.2223
▁گوشدارگ	-10.2233
ity	-10.2234
▁نندوکیں	-10.2235
▁گلگ	-10.2239
▁ظفر	-10.2245
▁re	-10.2252
▁سیم	-10.2254
▁سرے	-10.2255
▁پدریچ	-10.2261
▁گہگیری	-10.2262
▁پشتءَ	-10.2263
▁جمبر	-10.2267
▁اگدہ	-10.2268
▁دلوت	-10.227
▁درشانداب	-10.2271
▁خاران	-10.2272
▁ادارگ	-10.2273
▁گوشنت	-10.228
▁ساچ	-10.2282
▁سرء	-10.2286
▁رندی	-10.229
▁ائیا	-10.2292
▁شت۔	-10.2293
میں	-10.2293
▁دگرے	-10.2295
مراد	-10.2295
▁مین	-10.2297
▁پرمان	-10.2299
”.	-10.2323
▁مروچیگیں	-10.2324
▁ھمنچو	-10.2324
▁ایوکا	-10.2324
▁پریات	-10.2327
▁ساہگ	-10.2332
▁بوتین	-10.2333
ائے	-10.2336
▁ازادی	-10.2336
▁گہرام	-10.2337
▁چنگ	-10.2345
▁رن	-10.2346
▁طرف	-10.2352
جاہ	-10.2353
▁اشک	-10.2353
▁ورنائی	-10.2354
▁صرف	-10.2357
▁خانہ	-10.2358
▁ایشان	-10.236
▁پناہ	-10.236
▁ھنر	-10.2361
▁گونڈو	-10.2361
▁۔من	-10.2363
ٹی	-10.2366
▁پندل	-10.2369
▁بینگ	-10.237
▁بندر	-10.2373
▁شرگدار	-10.2377
▁چمے	-10.238
▁کمپیوٹر	-10.2381
▁نوزدہ	-10.2389
▁بوئیگ	-10.2396
▁اتک۔	-10.2401
دہ	-10.241
▁گوزان	-10.2411
▁کولواہ	-10.2413
تاکدیم۔	-10.2415
ic	-10.2419
▁پنت	-10.2423
▁مئیل	-10.2423
▁ہمرائی	-10.2426
▁بنزہ	-10.2433
▁دژمنیں	-10.2437
▁ستر	-10.2439
▁توارے	-10.2445
▁تجربت	-10.2449
▁ھنچوش	-10.2454
▁سبی	-10.2455
▁دریگ	-10.2459
گر	-10.2462
▁ھان	-10.2463
▁عابد	-10.2475
▁رم	-10.2481
▁شاعراں	-10.2485
▁چاریت	-10.2488
▁ڈیٹا	-10.2491
کس	-10.2493
▁تہی	-10.25
ever	-10.2504
نبشتانک	-10.2505
▁اسان	-10.2506
▁محمود	-10.2508
▁قبول	-10.2512
▁ھنچو	-10.2517
▁تہاریں	-10.2521
جان	-10.2521
▁گلیں	-10.2522
▁مدتے	-10.2524
▁دستا	-10.2524
▁رہ	-10.2525
▁امروز	-10.2526
▁اشنا	-10.2534
▁درچکانی	-10.2534
▁کہنیں	-10.2537
▁چا	-10.2553
▁نواز	-10.2554
▁کوچگ	-10.2556
▁ات۔۔۔	-10.2557
سک	-10.256
▁کنغ	-10.2563
▁ضلع	-10.257
▁ری	-10.2571
▁لے	-10.2586
کر	-10.2599
▁زانتکاری	-10.26
▁میڈیکل	-10.2601
مان	-10.2601
▁گوانک	-10.2603
▁اتار	-10.2622
▁اسحاق	-10.2623
▁کانفرنس	-10.2632
▁کلگ	-10.2636
▁دریں	-10.2638
▁برمش	-10.264
▁اختر	-10.2641
▁درگیجگ	-10.2645
▁سرین	-10.265
▁اشیءِ	-10.2666
▁یونین	-10.2671
▁قلم	-10.2677
▁قوت	-10.2679
▁e	-10.268
▁حقانی	-10.2683
شت	-10.2686
▁دیمترا	-10.2689
▁قدیم	-10.269
▁زبہر	-10.2691
▁جیل	-10.2707
▁جہاں	-10.2708
▁دانک	-10.2713
▁کایاں	-10.2713
▁کاروباری	-10.2719
▁بجلی	-10.2719
▁دپی	-10.2722
▁مردمی	-10.2724
▁وران	-10.2728
▁پرشتگ	-10.2735
▁صلی	-10.274
▁دانگ	-10.2741
▁سود	-10.2744
▁جاری	-10.2754
▁درملکی	-10.2755
▁ادیم	-10.2761
▁شپاں	-10.2762
▁ہوئی	-10.2771
▁کمتر	-10.278
▁پائدگ	-10.2785
▁گرمیں	-10.2789
بن	-10.2789
▁دوری	-10.2791
▁new	-10.2797
▁دمب	-10.2811
▁سنی	-10.2814
▁واکداراں	-10.2816
▁چوپ	-10.2824
▁سرھال	-10.2828
▁شروع	-10.2829
▁شازادگ	-10.283
▁پاٹی	-10.283
▁بائد	-10.2832
▁ترین	-10.2833
▁where	-10.2844
▁نویسی	-10.2848
▁کارمندانی	-10.2848
▁غوث	-10.2855
▁سرحال	-10.2857
▁راجدپتری	-10.2863
such	-10.2864
▁ڈیتھ	-10.2874
▁نت	-10.2874
▁بزگیں	-10.2877
▁ارشے	-10.2879
▁اہم	-10.2884
▁de	-10.2895
▁ھستیں	-10.2895
▁ناچ	-10.29
▁تری	-10.2901
▁استار	-10.2903
▁ھسپتال	-10.2905
اور	-10.2908
▁ذکر	-10.292
▁گژن	-10.292
▁یوکرین	-10.2929
▁میاں	-10.2932
رو	-10.2934
▁ماه	-10.2936
▁اندری	-10.2937
▁نیل	-10.2941
▁them	-10.2943
▁تپاوت	-10.2947
▁لوٹانی	-10.2947
▁دورءِ	-10.295
▁جنینے	-10.2951
▁وتکشی	-10.2967
▁وجہ	-10.2969
▁ہمودا	-10.2981
▁کوھانی	-10.2985
▁ننگ	-10.2995
▁دیراں	-10.3001
▁چاگردءِ	-10.3004
ڈاکٹر	-10.3006
▁number	-10.3008
▁شھدربرجاہ	-10.3014
▁کاہ	-10.3021
▁چرائی	-10.3022
ٰ	-10.3022
▁باوست	-10.3024
▁ھ	-10.3025
▁انوگیں	-10.3038
en	-10.3038
۔بلے	-10.304
▁مولوی	-10.304
▁سیٹ	-10.3041
▁دورءَ	-10.3043
............	-10.3049
▁بدنت	-10.3063
▁مساپر	-10.3068
کیں	-10.3075
▁جد	-10.3087
▁نمیرانیں	-10.3088
▁پشک	-10.3093
▁بژن	-10.3094
▁دنیاءَ	-10.3099
▁پلاں	-10.31
","	-10.3116
▁follow	-10.3118
▁سھر	-10.3118
▁سرزمین	-10.3127
ھاں	-10.3144
▁کشان	-10.3147
▁شعور	-10.3149
▁گیگ	-10.3151
▁جاہءَ	-10.3154
بل	-10.3158
▁ھپتاد	-10.316
▁خالد	-10.316
▁ھاران	-10.3161
▁لیاری	-10.3165
▁دستگیر	-10.3165
▁سیاھگ	-10.3166
▁گھار	-10.3169
▁زھری	-10.3172
▁اہگ	-10.3175
▁مرتگیں	-10.3179
▁نیاما	-10.3181
▁This	-10.3182
▁ہمدا	-10.3183
▁بازین	-10.3186
▁زندگانی	-10.3189
▁پازل	-10.3192
نام	-10.3201
تریں	-10.3205
▁بالا	-10.3208
▁ڈرائیور	-10.3221
▁ہچبر	-10.3226
▁سن	-10.3228
▁وابانی	-10.3236
▁بزدار	-10.3239
▁پہر	-10.324
▁چیرا	-10.3243
▁ہان	-10.3246
▁ژا	-10.3257
ھا	-10.3257
▁اشوبی	-10.326
▁وشبو	-10.3262
کل	-10.3262
▁امریکا	-10.3264
▁درکپت	-10.3265
▁ھمیشی	-10.3269
▁حمید	-10.3275
▁ابا	-10.3276
▁افسر	-10.3276
▁رندگیری	-10.3277
▁مواد	-10.3282
▁film	-10.3293
▁پنچمی	-10.3294
▁زیت	-10.331
▁موتک	-10.3312
▁ازار	-10.3316
▁سوسائٹی	-10.3323
▁بنیادی	-10.3331
▁000	-10.3343
▁being	-10.3348
▁بنیات	-10.335
▁درسد	-10.3355
▁دا	-10.3357
▁توان	-10.3359
▁موت	-10.336
▁برپ	-10.3364
▁جنکانی	-10.3373
▁ھشکیں	-10.3373
▁واہند	-10.3377
▁چینچو	-10.3392
▁ھکم	-10.3396
▁تاکدیم۔	-10.3396
▁part	-10.3404
▁بندوکیں	-10.3405
▁وام	-10.341
▁record	-10.3413
▁نوکی	-10.3416
▁song	-10.3422
▁گونڈ	-10.343
▁یعنے	-10.343
▁New	-10.3433
gan	-10.3435
▁لندن	-10.3454
▁before	-10.3454
سید	-10.3459
▁چول	-10.3465
▁under	-10.3466
▁تپنگ	-10.3476
▁ترجمہ	-10.3476
گپ	-10.3485
▁انسانءِ	-10.3496
▁رہے	-10.3505
وی	-10.3512
▁شئر	-10.3516
▁وانوکاں	-10.3521
▁کپیت۔	-10.3523
▁تبک	-10.3524
ینگ	-10.3527
▁هبر	-10.3528
▁زد	-10.3537
▁ابن	-10.3539
▁نسیم	-10.354
▁گالانی	-10.3542
▁بزور	-10.3544
▁شپءَ	-10.3544
▁ھبرے	-10.3546
▁ھوٹل	-10.3556
▁پوش	-10.3562
▁وہداں	-10.3575
▁ملکے	-10.3576
▁واکدارانی	-10.3579
land	-10.358
▁جاگہہ	-10.358
▁مروچاں	-10.3588
▁راھبند	-10.359
▁مارشتانی	-10.3595
▁گنوکی	-10.3598
S	-10.36
▁چکچینی	-10.3602
▁استعمال	-10.3608
▁ہوتی	-10.3609
▁لمب	-10.3615
▁وسی	-10.3616
▁الدین	-10.3616
▁ڈکال	-10.3619
▁دن	-10.3632
▁وپت	-10.3634
▁دائمی	-10.3636
وش	-10.364
▁روچگ	-10.364
▁end	-10.364
▁ایرانءِ	-10.3649
▁ازمانکے	-10.3649
▁نگاہ	-10.365
▁چارگءَ	-10.3651
▁مود	-10.3652
▁second	-10.3661
▁N	-10.3663
▁یونانی	-10.3665
▁درانگازی	-10.3666
▁عباس	-10.3666
▁مجبور	-10.3672
▁اھد	-10.3679
▁نال	-10.3682
انء	-10.3694
گے	-10.3701
ملا	-10.3706
▁al	-10.372
▁پدی	-10.3721
▁دوچ	-10.3743
▁معاملہ	-10.3758
▁اخلاقی	-10.3762
▁نبیت	-10.3766
▁دنیگا	-10.3773
▁رہا	-10.3775
ہی	-10.3776
▁هال	-10.378
▁درکانودی	-10.3785
▁دراں	-10.3785
▁پرشتگیں	-10.3786
▁چاچ	-10.3788
▁فیض	-10.3803
▁پار	-10.3805
▁چات	-10.3807
▁سراوان	-10.3807
▁نزوریں	-10.3813
▁work	-10.3814
نگیں	-10.3819
▁اختیار	-10.3827
▁گوازینتگ	-10.3828
▁خلاف	-10.3831
▁ریک	-10.3833
شر	-10.3835
بلئے	-10.3836
▁جہانی	-10.3844
▁لاہور	-10.3851
▁سیکورٹی	-10.3857
▁ہار	-10.3858
▁بھرے	-10.3859
▁نازک	-10.3866
▁D	-10.3867
▁اقبال	-10.3869
▁وانگءَ	-10.3873
▁جنزان	-10.3878
ers	-10.3878
▁جنجالانی	-10.3886
▁حالت	-10.3889
▁دلے	-10.3892
▁تنقید	-10.3901
▁کپوت	-10.3911
یر	-10.3911
▁کرتا	-10.3918
▁can	-10.3918
▁وہدی	-10.393
▁حکیم	-10.3935
▁تاھیر	-10.3939
▁call	-10.3941
▁شار	-10.3941
▁چپی	-10.3948
خان	-10.395
▁R	-10.395
▁ادمی	-10.3957
▁اشکتگ	-10.3964
▁گۆں	-10.3965
۔من	-10.3967
▁توسیپ	-10.3978
▁وابے	-10.3985
▁زنگ	-10.3986
اری	-10.3991
▁گشان	-10.3995
▁گپتگیں	-10.3997
▁انکار	-10.3998
▁پما	-10.4005
▁نیاں	-10.4006
▁دنز	-10.4007
▁سیاہیں	-10.4009
▁صدی	-10.4013
▁روژنائی	-10.4015
▁سرشون	-10.4035
▁ہلک	-10.4037
▁مہرانی	-10.4037
▁گپت۔	-10.4043
بیا	-10.4048
▁اہمد	-10.4049
بوت	-10.4052
مردم	-10.4058
▁عدالت	-10.4067
▁کارءُ	-10.4068
▁انسانے	-10.4068
▁سعودی	-10.4071
▁گھر	-10.4073
▁زاہر	-10.4074
▁قادر	-10.4077
▁گزر	-10.4077
est	-10.4082
ات۔	-10.4083
▁ہمگرنچ	-10.4086
▁رسیت۔	-10.4088
▁الاج	-10.4091
▁دیدگاں	-10.4093
▁عیب	-10.4095
▁حیات	-10.41
▁چوٹ	-10.41
▁وثی	-10.4101
کاری	-10.4105
▁درانگاز	-10.4112
▁چونائی	-10.4112
▁ڈل	-10.4117
▁لنٹ	-10.4119
um	-10.412
▁بابا	-10.412
▁نوکین	-10.4121
▁برانز	-10.4128
▁سلیمان	-10.4129
▁مسافر	-10.413
▁پولی	-10.4131
▁کلاس	-10.4133
▁تمن	-10.4134
▁رمضان	-10.4137
▁جرم	-10.4138
▁دگرانی	-10.4144
▁روگی	-10.4152
رے	-10.4158
▁مارشتاں	-10.4158
▁منافع	-10.4164
▁صوبائی	-10.4166
▁کریمہ	-10.4179
▁مبارکی	-10.4179
▁جستے	-10.4181
▁جنت۔	-10.4182
▁no	-10.4189
▁سواریں	-10.4191
بس	-10.4192
▁نهانت	-10.4194
▁ٹال	-10.4194
زبان	-10.4198
▁large	-10.4202
▁high	-10.4204
▁نیمون	-10.4206
▁گماں	-10.4207
▁ند	-10.4212
▁اسماعیل	-10.4214
داد	-10.4224
▁نثار	-10.4233
▁عید	-10.4237
▁بیل	-10.4246
▁area	-10.4249
▁there	-10.4255
▁پن	-10.4256
▁احساس	-10.4259
▁بوتگنت	-10.4263
▁album	-10.4266
▁حبرے	-10.4271
▁زیمل	-10.4272
▁ڈالر	-10.4279
▁کسءَ	-10.4281
▁وئیلاں	-10.4287
▁ہمراہی	-10.4288
▁سریں	-10.4293
▁زوراک	-10.4296
▁series	-10.4298
▁نوکری	-10.4301
روچ	-10.4305
▁پشی	-10.4308
▁ووٹ	-10.4313
▁زمستان	-10.4319
▁زھگانی	-10.4322
▁تعلق	-10.4324
▁گپءُ	-10.4327
ھانی	-10.4338
▁مکہ	-10.4347
▁ترمپ	-10.4348
▁دوچار	-10.4348
بلکیں	-10.4351
▁لبزانکءِ	-10.4355
▁پک	-10.4355
▁شاھی	-10.4356
ند	-10.4361
▁خالق	-10.4364
▁کلاک	-10.4364
▁اشارہ	-10.4371
▁6	-10.4371
▁جستانی	-10.4376
▁قبائلی	-10.4377
▁جت۔	-10.4378
▁زمانگءَ	-10.4381
▁شھری	-10.4385
▁مارکیٹ	-10.4387
▁ایوکی	-10.4393
▁رودراتکی	-10.4397
▁جانسلامتی	-10.4397
▁وتگڑیں	-10.4408
▁حمزہ	-10.4412
▁توپک	-10.4417
▁کوشش	-10.4417
▁میزان	-10.4429
.....	-10.4435
▁دگانی	-10.4435
▁سببءَ	-10.4436
▁کارمندے	-10.4438
▁سوبمندی	-10.444
▁نیٹ	-10.444
بازیں	-10.4443
out	-10.4446
▁ابرمی	-10.4448
▁دراتکگ	-10.4448
▁عطاشاد	-10.4449
▁ڈکھ	-10.445
▁شوربندی	-10.4452
▁سارتی	-10.4462
▁ناہ	-10.4463
▁مور	-10.4469
..?	-10.4471
▁گئی	-10.4471
▁اولس	-10.4474
▁راگ	-10.4475
▁پیری	-10.448
▁جیہند	-10.4481
▁جنگءَ	-10.4483
▁درکار	-10.4486
▁خون	-10.4486
▁نودربرے	-10.4491
▁گندیں	-10.4492
▁جتگیں	-10.4498
▁تار	-10.45
▁کرتنت	-10.4501
گاں	-10.4502
▁عیسیٰ	-10.4502
▁بحث	-10.4505
▁نک	-10.4505
▁کستریں	-10.4508
ول	-10.4522
▁عظیم	-10.4524
▁انقلاب	-10.4527
▁ھمودا	-10.4529
▁پولکاری	-10.4531
▁صابر	-10.4532
▁تصور	-10.4533
▁both	-10.4534
▁کتیں	-10.4536
▁ملامت	-10.4543
▁گلاب	-10.4545
▁ازمکار	-10.4547
▁راکٹ	-10.4553
▁ممتاز	-10.4554
▁سرد	-10.4555
▁گریب	-10.4555
▁ھزاراں	-10.4557
▁چمان	-10.4558
▁اتکگ۔	-10.456
ائیءَ	-10.4561
▁show	-10.4566
▁کست	-10.4567
▁جاوید	-10.4568
▁پشتی	-10.457
▁دلی	-10.4571
▁تور	-10.4575
▁سہی	-10.4577
▁فرانس	-10.4581
▁حوالہ	-10.4594
▁اسٹوڈنٹس	-10.4597
▁چاگردءَ	-10.4598
▁قبضہ	-10.4599
▁چاگردے	-10.46
▁حیالانی	-10.46
▁ابد	-10.4604
ہما	-10.4608
▁اعظم	-10.4609
▁کنے	-10.4609
▁پلاٹ	-10.4612
▁کشکے	-10.4615
▁includ	-10.4618
▁نیا	-10.4618
▁اوان	-10.462
▁روگءَ	-10.462
▁نبشتانکے	-10.4621
▁فارم	-10.4623
▁لفظ	-10.4627
▁جائے	-10.4629
▁بیبگر	-10.4631
▁بازی	-10.4635
▁درجہ	-10.4637
▁والے	-10.4639
▁دربرگ	-10.4644
▁انداز	-10.4644
▁جسم	-10.4645
▁مزاحمت	-10.4648
▁برداشت	-10.4651
چار	-10.4652
▁پلو	-10.4655
▁موٹر	-10.4656
▁روکیں	-10.4657
▁کوھی	-10.4666
ازمانک	-10.4675
اولی	-10.4677
▁شانک	-10.4677
▁راجدوست	-10.4678
گو	-10.4683
؂	-10.4687
▁ہیال	-10.4693
▁ھپتگ	-10.4694
▁تچ	-10.4702
▁استحکام	-10.4705
▁کساسے	-10.471
▁بندیت	-10.4726
▁درچکے	-10.4727
▁کوھن	-10.4728
▁شل	-10.4733
▁سہرا	-10.4733
▁لوگءِ	-10.4734
▁ہنچیں	-10.4741
▁ارادہ	-10.4741
▁دیریں	-10.4754
▁مشہور	-10.4755
▁form	-10.4758
▁سمین	-10.4765
▁صبر	-10.4766
▁ضروری	-10.4771
came	-10.4774
ائیءِ	-10.4774
?......	-10.4778
▁اناگہ	-10.4781
▁گلزار	-10.4781
کم	-10.4784
جو	-10.4786
▁حراب	-10.4795
▁As	-10.4796
▁سمندر	-10.4801
▁بیرک	-10.4803
▁like	-10.4811
▁then	-10.4814
▁گوراں	-10.4815
▁زین	-10.4819
▁سمو	-10.4821
’’(	-10.4823
man	-10.4825
انا	-10.4829
▁زورگر	-10.4833
انءَ	-10.4833
▁تهنا	-10.4833
▁ناگمان	-10.4837
پیش	-10.4848
▁مادن	-10.4853
▁بدے	-10.4853
▁well	-10.4855
▁بہادر	-10.4868
▁تپاکی	-10.487
▁زمان	-10.4878
▁گز	-10.4878
▁مس	-10.4879
▁جیگ	-10.4881
▁رژنائی	-10.4882
!!	-10.4892
سے	-10.4895
▁حاک	-10.4897
▁ھوں	-10.4909
▁فدا	-10.4911
▁Brit	-10.4911
▁known	-10.4911
▁بزانکہ	-10.4913
▁پروم	-10.4913
▁پریں	-10.4916
▁بریں	-10.4916
▁روچءِ	-10.4917
▁episode	-10.4919
▁بندانی	-10.4924
▁پچیں	-10.4924
▁جاک	-10.4924
▁موومنٹ	-10.4927
کگ	-10.4928
▁گۆن	-10.4929
▁قسم	-10.493
▁قرض	-10.4935
▁ھنداں	-10.4941
▁ھاکم	-10.4943
▁پاکستانءِ	-10.4953
▁کپتگ۔	-10.4968
▁اماچیں	-10.4983
▁کھولانی	-10.4984
▁ناکہ	-10.4985
▁بارے	-10.4985
▁چاڑ	-10.4986
▁گشتانک	-10.4988
▁زالبولاں	-10.4996
▁پون	-10.4998
▁شہری	-10.5
▁گاریں	-10.5001
▁واھگانی	-10.5002
▁دمگانی	-10.5004
▁داران	-10.5009
▁۔بلے	-10.501
▁بنگلہ	-10.5012
▁لیٹ	-10.5013
▁گھگیری	-10.5016
▁اینڈ	-10.5018
▁تان	-10.5019
▁10	-10.5019
▁زری	-10.502
▁ہنر	-10.5024
داری	-10.5031
▁جیڑھانی	-10.5031
▁جہت	-10.5035
▁گچینکاری	-10.5038
▁چیرءَ	-10.5039
▁زورگیریں	-10.5041
وار	-10.5053
▁جهد	-10.5054
▁جمعہ	-10.5055
▁اوگان	-10.5055
▁ملور	-10.5055
▁بدلیاں	-10.5055
▁میتگے	-10.506
▁تیاری	-10.5065
▁گواری	-10.5073
▁سوئی	-10.5074
▁مسئلہ	-10.5082
دور	-10.5084
▁رزا	-10.5085
▁پھ	-10.5087
▁یکوارے	-10.5087
▁بادینی	-10.509
▁باسکانی	-10.5091
▁اپی	-10.5091
▁ابراھیم	-10.5092
▁نیمگاں	-10.5102
▁جزبگ	-10.5113
▁دیدار	-10.5115
یں۔	-10.5116
▁لب	-10.5122
▁تھے۔	-10.5127
▁اواں	-10.5128
▁مت	-10.5129
▁والی	-10.5135
چک	-10.5136
▁گوہر	-10.5146
▁چندیں	-10.5148
▁پیشانی	-10.5167
▁زبیر	-10.5175
u	-10.5181
▁زمانگے	-10.5181
▁سنج	-10.5186
▁لو	-10.5202
▁چیردستی	-10.5205
▁رپک	-10.5208
▁مھکمیں	-10.5212
▁مهر	-10.5214
▁سیمسراں	-10.5217
▁زانش	-10.5217
▁گیج	-10.5228
▁شات	-10.5233
ڑی	-10.5234
▁سوگات	-10.5238
▁سلطان	-10.524
▁اج	-10.5242
▁many	-10.5247
ھیں	-10.5253
▁سورت	-10.5261
▁توپان	-10.5262
▁رجانکاری	-10.5263
دے	-10.5264
▁مقام	-10.527
▁سڑک	-10.5271
▁پال	-10.5277
▁دستانی	-10.5278
▁اکر	-10.529
زر	-10.5295
▁بگند	-10.5296
▁ہمائی	-10.5297
▁وال	-10.5304
though	-10.5306
▁میرے	-10.5308
▁پشتون	-10.5311
▁کرم	-10.533
▁found	-10.5332
۔۔۔۔۔۔۔۔۔۔۔۔۔۔۔۔	-10.5332
▁ندارہ	-10.5333
▁۔۔۔۔۔	-10.5334
▁پلیں	-10.5335
▁ٹاور	-10.5346
▁کوپگاں	-10.5348
▁عادت	-10.5349
▁دوار	-10.535
▁مسال	-10.5352
▁رئیس	-10.5356
▁گوزیت	-10.5364
▁گوازینت	-10.5366
nited	-10.5371
▁تژن	-10.5371
▁اشتاپ	-10.5376
▁توجیل	-10.5376
▁فاروق	-10.5378
▁پہل	-10.538
▁بانور	-10.5382
▁ھد	-10.5387
▁ارساں	-10.539
▁اپس	-10.5396
▁الیکشن	-10.5398
▁اشکت	-10.5399
▁پسندی	-10.54
▁عبدالحمید	-10.5403
▁مختلف	-10.5405
▁اشت	-10.5406
▁حملہ	-10.5408
▁تپ	-10.541
▁بیتہ	-10.5416
▁امل	-10.542
▁long	-10.5422
▁سراں	-10.5424
▁گرمی	-10.5427
▁پھک	-10.5431
▁لوگی	-10.5438
▁کشمیر	-10.5444
▁جدید	-10.5445
▁ع	-10.5445
▁مانیت	-10.5449
▁گشاد	-10.5459
▁مندی	-10.5463
ڪ	-10.5464
▁t	-10.5464
▁دردے	-10.5464
▁مارکس	-10.5467
▁طاہرہ	-10.5471
▁گورنر	-10.5472
▁نزر	-10.5475
▁لگتمالی	-10.5477
▁مجگ	-10.5478
▁سرگوست	-10.5486
▁رشید	-10.5495
▁محنت	-10.55
▁عارف	-10.5503
▁درمیان	-10.5503
▁مشین	-10.5505
▁سهیگ	-10.5506
▁بزنجو	-10.5508
▁۔ا	-10.551
▁so	-10.5511
▁پکا	-10.5512
▁ایکس	-10.5513
▁بیدار	-10.5513
▁پانی	-10.5514
▁قیمتانی	-10.5524
▁ازمانکار	-10.5525
▁یورپی	-10.5528
▁مانداشتگ	-10.5532
▁ہاں	-10.5535
▁اخراجات	-10.5539
▁جیڑہانی	-10.554
▁ایمن	-10.5543
▁گئے	-10.5544
▁اھمد	-10.5546
▁ٹپاس	-10.5547
▁تلار	-10.5549
ارا	-10.5558
▁شورو	-10.5561
▁لی	-10.5573
▁کمار	-10.5577
▁سطح	-10.5578
▁E	-10.5579
▁تہذیب	-10.5579
▁درونت	-10.5584
جنگ	-10.5585
▁اندازہ	-10.5589
▁سیستان	-10.5592
▁بلو	-10.5595
▁داتہ	-10.5597
▁خلیل	-10.5598
▁فلسفی	-10.5604
▁چمگ	-10.5607
▁ناشرکاری	-10.5609
▁بلاش	-10.561
▁شم	-10.5619
▁گواچنی	-10.562
▁پرستی	-10.5623
▁ماھل	-10.5625
▁ٹارگٹ	-10.5625
▁پتو	-10.5629
▁ماھیگ	-10.5631
▁P	-10.5644
▁یکین	-10.5647
▁تھت	-10.5647
▁میراث	-10.5655
▁منتگ	-10.5656
▁فتح	-10.5656
▁دربار	-10.5659
▁بوہ	-10.5665
▁century	-10.5668
لا	-10.5669
▁دنتان	-10.5672
▁ٹیلی	-10.5685
▁کرسی	-10.5688
▁شاکر	-10.569
▁After	-10.5693
▁رستگیں	-10.5694
▁غریب	-10.5701
▁جنگے	-10.5707
▁پرچیکہ	-10.5707
▁ہونے	-10.571
▁گلی	-10.5713
مارا	-10.5719
▁use	-10.5721
▁کترینا	-10.5729
▁زراں	-10.5729
▁یہاں	-10.5734
از	-10.5736
▁جمیل	-10.574
▁گریت	-10.574
▁ذہن	-10.5745
▁ہستی	-10.5751
▁ویران	-10.5752
▁ٹنگ	-10.5752
▁زید	-10.5752
▁four	-10.5771
▁خضدار	-10.5776
▁شاعریءِ	-10.5776
▁اہ	-10.5776
................	-10.5778
▁8	-10.5779
▁اسد	-10.5782
▁نکنت	-10.5787
▁کروڑ	-10.5789
▁فن	-10.5793
▁دگراں	-10.5798
▁گرک	-10.5801
▁مطابق	-10.5801
ط	-10.5805
▁چڑھاؤ	-10.5807
▁کواس	-10.581
▁وردن	-10.5811
ڈی	-10.5812
▁گنجیں	-10.5813
▁دلانی	-10.5814
▁مڑ	-10.5817
▁ڈیہی	-10.5819
▁مرگے	-10.5819
▁تھ	-10.5821
▁پہلے	-10.5822
اں۔	-10.5824
▁زبانی	-10.5827
▁7	-10.5828
▁میران	-10.583
وس	-10.5832
▁گراہک	-10.5833
▁قائم	-10.5834
▁مجھے	-10.5839
▁ول	-10.5847
▁مه	-10.585
▁بباں	-10.5858
▁سروزیر	-10.586
▁پڑا	-10.586
▁لالا	-10.5862
▁نوکتریں	-10.5865
رجانک	-10.5866
▁توکلی	-10.587
▁درامدیں	-10.5871
▁کمکیں	-10.5873
▁پروشتگ	-10.5884
▁جرمنی	-10.5884
▁بیھار	-10.5886
▁تین	-10.5888
اللہ	-10.5888
اہاں	-10.59
▁کائے	-10.5901
▁یے۔	-10.5901
▁کڈن	-10.5903
▁sever	-10.5903
▁American	-10.5905
▁دلگوشی	-10.5912
▁سپاہی	-10.5912
▁سودا	-10.5914
▁ماث	-10.5917
ایت	-10.5917
▁فکری	-10.5928
▁پابندی	-10.5929
▁کاپر	-10.5931
▁ملکءِ	-10.5932
▁0	-10.5936
▁وخت	-10.5953
ہاں	-10.5965
▁امیری	-10.5968
▁ڈنءَ	-10.597
▁غالب	-10.5973
▁گروک	-10.5977
▁جمال	-10.5977
▁وپتگ	-10.5982
▁مندیں	-10.5989
▁گمانی	-10.5991
▁ھیالانی	-10.5993
▁دعوت	-10.5996
▁دلبند	-10.5997
▁عبادت	-10.6004
h	-10.6005
▁ھمد	-10.6006
▁دئینت	-10.6008
▁ہیل	-10.6009
▁واہ	-10.601
▁دوئمی	-10.601
▁بجار	-10.6011
▁ابو	-10.6012
▁ازاتیں	-10.6014
▁شانزدہ	-10.602
▁پروشت	-10.602
▁کیسگ	-10.602
▁کارچ	-10.6021
▁کاینت۔	-10.6022
▁ایکشن	-10.6025
▁کن۔	-10.6026
▁درخواست	-10.6029
▁لذت	-10.6033
▁ھڈ	-10.6036
▁تخلیق	-10.6037
ذ	-10.6038
کاں	-10.6046
▁قدرت	-10.6046
▁کمکار	-10.6048
▁زبھر	-10.605
▁اصف	-10.6066
▁حیر	-10.6068
▁دلا	-10.6071
▁الما	-10.6074
▁حاتم	-10.6074
▁باد	-10.6076
▁گشی	-10.608
▁بیلٹ	-10.6088
▁جک	-10.6089
▁وارث	-10.6091
▁لسبیلہ	-10.6093
▁9	-10.6095
▁کابل	-10.61
▁چیف	-10.6101
▁نبشته	-10.6103
▁ہندو	-10.6109
▁براتاں	-10.6109
▁دیوانجاه	-10.611
▁ادیب	-10.611
▁ماھے	-10.6114
▁مقابلہ	-10.6118
▁ہدا	-10.6121
▁نازرکیں	-10.6128
▁ریکارڈ	-10.6133
▁امارات	-10.6135
▁ڈولدار	-10.6137
▁کارستانی	-10.6141
▁دیوک	-10.6147
▁درائی	-10.6151
▁اڑے	-10.6152
▁team	-10.6154
▁مردءَ	-10.6157
▁احوال	-10.6158
▁برا	-10.6158
▁اوشتگ	-10.616
▁ڈگارانی	-10.6161
شہ	-10.6161
▁بجن	-10.6181
▁near	-10.6181
▁زھگے	-10.6185
▁ہواریں	-10.6186
▁پیسری	-10.6187
▁عذاب	-10.6192
▁سرءُ	-10.6197
▁عاشق	-10.6198
▁سنت	-10.6198
▁سالونک	-10.6204
▁پڑءَ	-10.6205
▁یاگی	-10.6211
▁تیلانک	-10.6212
▁حمایت	-10.6223
▁ساڑا	-10.623
▁شخصیت	-10.6231
cause	-10.6231
▁پلامرزی	-10.6236
▁فرانسیسی	-10.6242
▁صحت	-10.6243
▁تراکے	-10.6243
▁محفوظ	-10.6245
▁رنداں	-10.6247
▁مھتل	-10.6248
▁برطانیہ	-10.6257
▁جنازہ	-10.6257
یت۔	-10.6263
▁شرکت	-10.6266
▁زھگاں	-10.6269
▁پنجابی	-10.6276
▁راجءِ	-10.6278
▁پلے	-10.6282
▁بلوچءِ	-10.6301
▁سماجی	-10.6301
ایر	-10.6309
اک	-10.6312
▁ریکی	-10.6322
▁نگیگ	-10.6324
▁جسٹس	-10.6329
▁اسٹیشن	-10.6329
▁عجب	-10.6331
▁ص	-10.6334
▁بیتءُ	-10.6341
نو	-10.6347
▁دابیں	-10.6348
▁remain	-10.6355
▁سیہ	-10.6358
▁کلمتی	-10.636
زانت	-10.6361
▁مہکم	-10.6366
▁اظہار	-10.6367
ست	-10.6368
▁شعرے	-10.637
تاں	-10.6379
▁بھ	-10.638
▁بندیگیں	-10.638
ation	-10.6386
▁کامریڈ	-10.6387
▁یونان	-10.639
بو	-10.6391
▁پلگار	-10.6397
▁دردانی	-10.6398
محمد	-10.6404
زی	-10.6404
▁قدرتی	-10.6406
▁پرایمن	-10.641
▁final	-10.6417
▁محکم	-10.6418
▁کرتہ	-10.6421
▁پاشک	-10.6425
▁زلورت	-10.6428
▁16	-10.6429
▁ہوتے	-10.6434
▁جوڑشت	-10.6438
▁ماتیں	-10.6441
▁شا	-10.645
▁طالبان	-10.6452
▁دستے	-10.646
▁دوریں	-10.6462
▁ورنایاں	-10.6464
▁زوتاں	-10.6465
▁چھبار	-10.6469
▁مھمان	-10.6471
▁گوھر	-10.6473
▁کربانی	-10.6474
▁ریس	-10.6477
▁رحمت	-10.6479
▁گیں	-10.648
▁ھیالاں	-10.6481
چم	-10.6482
▁جاتی	-10.6483
دان	-10.649
▁K	-10.6491
▁ھژدری	-10.6497
▁بوج	-10.6498
▁ته	-10.65
بار	-10.6502
▁early	-10.6504
بوتگ	-10.6506
▁شیطان	-10.6506
▁نوبت	-10.6507
▁زمانہ	-10.6509
▁زوربیگواہ	-10.651
▁could	-10.6514
▁لوزانک	-10.6518
اتی	-10.652
▁جنگانی	-10.6522
▁شتیں	-10.6528
زور	-10.6533
▁مشت	-10.6536
▁انسانیت	-10.6537
▁سریاب	-10.6538
▁وپا	-10.654
▁لنٹانی	-10.6542
▁شوک	-10.6544
▁زھم	-10.6545
▁جاڑیگ	-10.6545
غیں	-10.6546
▁اپنا	-10.6546
▁گرنچ	-10.6554
▁لئیب	-10.6556
▁پیشدارگ	-10.6557
▁زبر	-10.6557
▁کتنت	-10.6557
▁گوشیں	-10.6558
▁گیٹ	-10.6561
▁ذہنی	-10.6562
▁راہبند	-10.6562
▁دلپدردی	-10.6564
▁رۆچ	-10.6568
▁روتاک	-10.6571
▁سیزدہ	-10.6572
▁کئیت۔	-10.6579
▁un	-10.6586
▁جرمن	-10.6586
▁did	-10.659
▁دودا	-10.6592
▁انڈیا	-10.6594
▁ھژدہ	-10.66
▁لنکک	-10.6603
▁بهر	-10.6603
▁سمل	-10.6603
▁کوہن	-10.6605
▁ہا	-10.6606
▁دوران	-10.6609
▁براتانی	-10.6609
▁درایگ	-10.6609
▁براھوئی	-10.662
▁درکنگ	-10.6622
▁گہتر	-10.6622
نبشتہ	-10.6625
▁اخلاق	-10.6633
▁توانائی	-10.6641
▁ہمیشی	-10.6643
m	-10.665
▁درجگ	-10.6651
▁شامل	-10.6654
▁سئی	-10.6656
▁ائیئ	-10.6657
▁ڈیل	-10.6658
▁شدت	-10.6661
▁جہگیر	-10.6669
▁رنگی	-10.6687
▁سنگتی	-10.6688
▁صادق	-10.6691
▁w	-10.6693
▁زمینی	-10.6695
▁کارندھاں	-10.6695
▁ڈبلیو	-10.6696
▁بوجیگ	-10.6697
▁ترینت	-10.67
▁کارکن	-10.6702
▁سیکرٹری	-10.6704
▁12	-10.6704
یل	-10.6705
▁سٹی	-10.6708
▁تکانسر	-10.6711
گءَ	-10.6713
▁جہلی	-10.6715
▁تحت	-10.6719
وہ	-10.672
▁بوتگاں	-10.6725
▁دبئی	-10.6725
▁سببا	-10.673
▁رھبندانی	-10.6737
ہے	-10.6738
▁شو	-10.6743
▁دیت	-10.6744
اوں	-10.6745
▁توبہ	-10.6746
▁نماسگ	-10.6747
برے	-10.675
مات	-10.675
▁شگان	-10.6757
▁پیداگ	-10.676
▁سمائی	-10.6762
▁ڈرامہ	-10.6766
▁ہواری	-10.6771
▁کارمستر	-10.678
▁along	-10.6781
▁الا	-10.6782
▁ھلاسی	-10.6782
▁اهانی	-10.6789
▁خلافا	-10.679
▁بلۆچ	-10.6798
▁ذریعہ	-10.6801
▁شود	-10.6802
▁جنینانی	-10.6804
▁مرو	-10.6806
▁پنجاپ	-10.6807
▁چیل	-10.6808
▁منوگر	-10.6812
▁ایگءَ	-10.6819
▁تاکے	-10.682
▁کتابجاہ	-10.683
▁قیمت	-10.6831
▁بیانیہ	-10.6834
▁زانیں	-10.6836
▁چمن	-10.6841
▁تیوگ	-10.6846
▁زرے	-10.685
▁may	-10.6854
▁سلاھاں	-10.6864
▁کتابی	-10.6864
▁سستگ	-10.6865
ایانی	-10.6874
▁زہری	-10.6875
▁ٹوھیں	-10.6877
▁کارندھانی	-10.6879
ئگ	-10.6883
▁نیمروچ	-10.6884
▁سوشلزم	-10.6888
▁یکجا	-10.6892
▁دوئینانی	-10.6893
یگیں	-10.6896
▁place	-10.6898
روان	-10.6904
▁نائب	-10.6909
▁sai	-10.691
▁O	-10.6915
▁مشک	-10.6915
▁عاجز	-10.6916
▁روز	-10.6917
▁ننداں	-10.6921
▁جمالی	-10.6921
▁تیزی	-10.6922
▁گوریچانی	-10.6924
▁است۔	-10.6925
▁مریت	-10.6932
▁صبور	-10.6941
▁بشکھندگ	-10.6944
ber	-10.6944
▁میز	-10.6944
▁روئے	-10.6945
▁پئیم	-10.6946
▁She	-10.6948
▁17	-10.6948
▁کٹم	-10.6952
▁اشتاپی	-10.6953
▁حافظ	-10.6957
▁نادر	-10.6958
▁میش	-10.6959
شاہ	-10.696
▁راجاں	-10.6961
▁گروپ	-10.6964
▁حفیظ	-10.6965
▁شکاری	-10.697
▁سہریں	-10.6972
اچ	-10.6972
▁بلال	-10.6973
▁ڈ	-10.6976
▁واباں	-10.6992
▁جھمنندیں	-10.6994
▁شخص	-10.6999
▁جہاز	-10.7003
▁تھر	-10.7004
▁حاکمی	-10.7007
▁بش	-10.7013
▁شلوار	-10.702
▁شئیرانی	-10.702
▁کتءُ	-10.7022
▁گے	-10.7024
▁روم	-10.7026
▁ارزانی	-10.7031
گور	-10.7037
▁جبر	-10.7037
▁داشتگیں	-10.7039
ناں	-10.704
▁تھانہ	-10.7043
▁جسمانی	-10.7047
▁رہادگ	-10.7057
▁زانت۔	-10.7058
۔ہمے	-10.706
▁بحرین	-10.706
▁خ	-10.706
▁حیثیت	-10.7064
▁زنڈیں	-10.7066
▁پدائی	-10.7066
▁شبیر	-10.7067
▁رکھینگ	-10.707
▁تچکی	-10.707
ینتگ	-10.707
▁اصلی	-10.707
▁پہم	-10.7084
▁کپتہ	-10.7087
▁نزینکی	-10.7092
▁کشاں	-10.7092
▁ایمنیں	-10.7098
▁بھت	-10.7105
""	-10.7106
▁ھمل	-10.7108
▁عالمی	-10.7113
▁عوامی	-10.7116
▁پیرا	-10.7117
▁دوت	-10.7125
▁بزیں	-10.7126
▁کاگدے	-10.713
▁سنٹ	-10.7142
▁دیگی	-10.7142
▁پرنٹ	-10.7148
▁حنیف	-10.7152
▁روت۔	-10.7155
▁تاکاں	-10.7155
▁کمان	-10.7159
▁ببنت	-10.716
''	-10.7162
▁نیتکگ	-10.7167
وز	-10.7167
شما	-10.7168
▁پیگمبر	-10.7173
▁سل	-10.7173
▁لینگویج	-10.7174
▁ھست۔	-10.7177
▁کاردار	-10.7184
▁مرگانی	-10.7193
▁مید	-10.7193
▁کارءِ	-10.7197
▁سپاھی	-10.7199
▁وسائل	-10.7204
▁گرانی	-10.7204
▁باب	-10.7207
▁کارڈ	-10.7208
▁امد	-10.7213
▁درستانی	-10.7214
▁اسکانی	-10.7216
▁درکپتگ	-10.722
▁منٹ	-10.7221
اہانی	-10.7224
▁ہمنچو	-10.7227
▁پکرانی	-10.7238
▁مصر	-10.7238
▁بلا	-10.7238
▁جلال	-10.7242
ؤ	-10.7242
▁رمگ	-10.7244
▁راہءَ	-10.7246
▁انت۔۔۔۔	-10.725
▁حلاپ	-10.7255
▁بروکیں	-10.7259
▁افلاطون	-10.7259
▁مردمءَ	-10.7261
▁شیپ	-10.7263
زند	-10.727
▁کھن	-10.7273
▁ندیم	-10.7273
▁روا	-10.7274
▁گیرت	-10.7275
▁بکار	-10.7278
▁بلوچستانءَ	-10.7279
▁ڈرون	-10.7283
▁تالبان	-10.7284
▁کنٹ	-10.7286
▁گوار	-10.7287
▁ناشرکار	-10.7288
▁بنگیجی	-10.7289
▁جیونی	-10.7289
▁کمزور	-10.7297
▁صدیق	-10.7298
▁لیکگ	-10.7309
▁وراک	-10.7312
▁فلم	-10.7314
کش	-10.7315
▁سواری	-10.7323
▁شانگ	-10.7324
▁لیڈر	-10.7324
▁جامگ	-10.7328
▁ھؤر	-10.7329
▁حکمت	-10.7331
▁back	-10.7335
▁کائنات	-10.7339
▁اپسر	-10.7342
▁بہتام	-10.7342
▁تعالیٰ	-10.7346
▁زاہ	-10.7348
▁کارا	-10.7348
▁unti	-10.7348
▁سرگ	-10.7352
▁لنٹاں	-10.7354
▁داشتگ۔	-10.7358
▁یونٹ	-10.7359
▁بستارے	-10.7366
▁پو	-10.7375
round	-10.7377
▁رگام	-10.7382
▁بہشت	-10.7387
▁قربان	-10.7389
▁city	-10.739
▁براہوئی	-10.7392
▁راستے	-10.7395
▁اوتاک	-10.7403
▁میانی	-10.7408
▁چئیرمین	-10.7408
اشی	-10.7409
▁فورسز	-10.7409
علی	-10.7412
▁رپ	-10.7414
▁same	-10.7418
▁جنس	-10.7419
▁original	-10.742
▁مشکول	-10.7423
▁موسیٰ	-10.7432
▁دئیں	-10.7434
ئیگ	-10.744
▁زگریں	-10.7444
▁تاگت	-10.7444
▁ستکگ	-10.7446
▁million	-10.7448
▁شرط	-10.7451
▁یعقوب	-10.7452
▁زوان	-10.7455
▁بلبل	-10.7456
▁انگیر	-10.746
یکے	-10.7467
▁باھوٹ	-10.7476
▁کاپٹر	-10.748
▁کاریں	-10.7483
▁راہے	-10.7486
ث	-10.7489
▁اسکی	-10.7489
▁سنگین	-10.7495
▁ہب	-10.75
شی	-10.7502
▁شیشگ	-10.7507
▁داخل	-10.7512
▁قابل	-10.7512
▁زاتی	-10.7518
▁نئیکہ	-10.7524
▁سرباز	-10.7526
is	-10.7527
▁جنگءِ	-10.7533
▁بغیر	-10.7534
▁ٹوک	-10.7537
▁Al	-10.7538
▁لاچاری	-10.7547
▁انت۔بلے	-10.7548
▁جنسی	-10.755
لبزانک	-10.7551
▁day	-10.7553
▁ازت	-10.7556
ازم	-10.7559
▁people	-10.7563
▁اینکس	-10.7564
▁20	-10.7571
داریں	-10.7573
▁زاہد	-10.7575
▁اوگام	-10.7578
▁بگندے	-10.758
ہو	-10.7583
▁return	-10.7583
▁پجارگ	-10.7584
▁ائیء	-10.7585
▁بچکے	-10.7586
▁دلمراد	-10.759
▁any	-10.7593
▁سہت	-10.7594
▁قربانی	-10.7597
▁ارشکار	-10.76
▁At	-10.7603
▁گیجگ	-10.7607
▁ق	-10.7609
▁اولاک	-10.7612
▁جہہ	-10.7615
▁پادا	-10.7616
▁مرزا	-10.7625
▁بین	-10.7627
▁نپس	-10.7638
▁May	-10.764
▁گوازین	-10.7643
▁ٹ	-10.7643
▁؂۔	-10.7643
▁برائی	-10.7645
راہ	-10.7646
▁جمہوریت	-10.7646
▁یاتانی	-10.765
▁ھزارانی	-10.7652
▁ٹرک	-10.7654
▁مہری	-10.7655
▁km	-10.7657
▁مسعود	-10.7657
▁محدود	-10.7658
▁اخری	-10.7658
▁عثمان	-10.7667
دا	-10.7674
پت	-10.7676
▁ٹو	-10.7677
▁مردگ	-10.7683
▁شھیدانی	-10.7689
▁وارت۔	-10.7689
▁صلاح	-10.7691
گوشت	-10.7692
▁کربان	-10.7693
▁player	-10.7695
▁زانتکاریں	-10.7695
▁بیغ	-10.7697
▁main	-10.7699
▁بھار	-10.77
▁نفسیات	-10.7703
son	-10.7704
پرچا	-10.7706
▁میتگاں	-10.7707
▁رہی	-10.7708
▁پترگ	-10.7709
▁شہم	-10.7712
▁نقش	-10.7713
▁ایشیا	-10.7713
▁بانل	-10.7714
▁They	-10.7722
▁خطرہ	-10.7723
اف	-10.7723
▁کارگشاد	-10.7723
▁مسک	-10.7728
▁میٹر	-10.7739
▁سازگ	-10.7739
▁نکان	-10.7743
▁گوشے	-10.7745
▁کرءَ	-10.7749
▁اہی	-10.7753
▁عہدی	-10.7754
▁پٹی	-10.7762
▁پجہ	-10.7769
انے	-10.7779
▁بلند	-10.7783
▁جلد	-10.7788
▁دابے	-10.7789
▁کلچر	-10.7793
لو	-10.7797
▁ھوت	-10.7798
▁پان	-10.7798
▁اکرم	-10.7804
▁لولی	-10.7806
▁بندے	-10.7808
▁ہزاراں	-10.7811
▁گاڑیاں	-10.7813
▁بنپد	-10.7815
▁ھاں	-10.7815
▁تھاری	-10.7825
▁force	-10.7827
▁کمیونسٹ	-10.7828
▁ہون	-10.7829
▁چاریگ	-10.783
۔۔۔۔۔۔	-10.7834
▁چت	-10.7834
▁شپءِ	-10.7835
▁August	-10.7838
▁How	-10.7838
▁سربازی	-10.784
▁how	-10.784
▁ارتگ	-10.7844
▁بٹ	-10.7847
سٹ	-10.7848
جن	-10.785
▁امباز	-10.7853
ایک	-10.7854
▁ون	-10.7855
▁وھدا	-10.7857
▁جنجالاں	-10.7863
▁گوانکو	-10.7863
▁کنتءُ	-10.7863
▁W	-10.7864
▁off	-10.7865
▁دروشمءَ	-10.787
▁شہداد	-10.7871
▁ناگت	-10.788
▁John	-10.788
▁دیمرئی	-10.788
▁پلیٹ	-10.7888
▁ثبوت	-10.7893
رنگ	-10.7895
▁ایسا	-10.7898
پی	-10.7903
▁نبیسی	-10.7907
▁جمع	-10.7907
▁کپتاں	-10.7909
▁بیسہ	-10.7909
▁ship	-10.791
▁لحاظ	-10.7915
▁زوراکیں	-10.7916
▁انچوشکہ	-10.792
▁ریپبلکن	-10.7925
▁نر	-10.7926
▁سالیں	-10.793
▁شودگ	-10.7933
▁سبزل	-10.7934
▁North	-10.7935
▁الرحمن	-10.7938
▁ششمی	-10.7944
▁جتیں	-10.7948
▁پٹءُ	-10.7949
▁فی	-10.7952
▁releas	-10.7959
▁سادگیں	-10.7963
▁دمانءَ	-10.7964
▁سئیل	-10.7967
▁گشندہ	-10.7972
▁اییا	-10.7972
▁توکءَ	-10.7974
▁گوستانک	-10.7974
لچہ	-10.7975
▁دعویٰ	-10.7979
▁احتگ	-10.7982
▁ھشتاد	-10.7985
▁ازمانکاں	-10.7992
▁ڈاہ	-10.7995
▁South	-10.7997
g	-10.7998
▁تتکگ	-10.7998
▁بچکندگ	-10.8001
▁پشتو	-10.8004
وئی	-10.8006
▁لانگ	-10.8008
کتگ	-10.8009
▁گرند	-10.801
▁down	-10.8013
▁کھولاں	-10.8015
▁محکمہ	-10.8024
▁راھشون	-10.8025
▁قومانی	-10.8027
▁مغربی	-10.803
▁شانی	-10.8031
▁واد	-10.8032
▁وھدءِ	-10.8034
▁وڈا	-10.8038
▁سراج	-10.8039
▁دوسرے	-10.8039
▁میت	-10.8041
اؤ	-10.8045
▁شائرے	-10.8046
مرگ	-10.8048
▁ھمرائی	-10.8053
2	-10.8058
▁اہمیت	-10.8058
▁کپنت	-10.8059
▁مدینہ	-10.806
▁جہدے	-10.8062
▁سٹ	-10.8063
▁شعراں	-10.8066
ok	-10.8068
▁ویب	-10.807
ue	-10.8084
▁لچ	-10.8086
▁زحم	-10.8086
▁دلپروش	-10.8086
▁انہیں	-10.8087
▁دوئیناں	-10.8094
کتاب	-10.8095
▁رے	-10.81
▁لوگوں	-10.8102
▁بوچ	-10.811
▁name	-10.8115
▁شناسی	-10.8118
▁اگوں	-10.8119
▁گڑاں	-10.8123
▁لنگ	-10.8123
▁گالے	-10.8124
▁کلو	-10.8129
▁پابند	-10.8129
▁مبیت	-10.8129
▁سوبی	-10.8131
▁زانتکارانی	-10.8131
▁دہک	-10.8135
▁پریشانی	-10.8137
▁حیدر	-10.8141
▁ساچان	-10.8142
▁ٹیسٹ	-10.8144
▁سالءَ	-10.8151
▁پریشر	-10.8155
▁رؤکیں	-10.8157
▁مپت	-10.8161
▁اوداں	-10.8163
▁support	-10.8167
▁پگار	-10.817
▁معنی	-10.8172
▁مارشتے	-10.8173
▁درکیت	-10.818
▁مادی	-10.8182
▁پانک	-10.819
▁ترسینگ	-10.8194
▁رادگ	-10.8196
▁نوش	-10.8202
▁ودان	-10.8202
ry	-10.8205
▁بارگ	-10.8206
▁سبا	-10.8207
▁مزنی	-10.8209
▁بلاہیں	-10.821
▁انٹرنیٹ	-10.821
▁سرءِ	-10.8211
▁پکرءُ	-10.8214
▁نہاد	-10.8217
▁جور	-10.8219
▁ٹل	-10.822
▁توکل	-10.8221
▁یکرندے	-10.8222
▁ازباب	-10.8223
▁دمکاں	-10.8224
▁برباد	-10.8226
▁پگری	-10.8229
سا	-10.8231
▁ردءُ	-10.8232
▁کشتگ۔	-10.8232
▁زوراکیاں	-10.8234
▁٭٭	-10.8236
▁War	-10.8238
nother	-10.824
▁بوتاں۔	-10.8242
▁حشک	-10.8244
▁گومازی	-10.8244
▁انہوں	-10.825
▁لوٹوک	-10.8252
▁زاری	-10.8253
▁قد	-10.8255
▁مڈیانی	-10.8263
▁مکتب	-10.8268
▁ڈالچار	-10.8269
▁درگتا	-10.827
▁حل	-10.8279
▁نوکر	-10.8283
▁تکاں	-10.8283
▁11	-10.8286
▁جھدکار	-10.8288
▁مثل	-10.8289
▁دارو	-10.829
▁برورد	-10.8292
تیں	-10.8303
▁پرز	-10.8303
▁سوراب	-10.8313
▁بارگیں	-10.8315
▁15	-10.8323
▁receiv	-10.8326
▁تمامیں	-10.8328
▁کتابءِ	-10.833
▁مج	-10.8335
▁ساحرءِ	-10.8335
▁زیکیں	-10.8336
▁پھم	-10.8338
▁دارایت	-10.8342
▁small	-10.8343
▁ہفت	-10.8346
▁بلائیں	-10.8348
▁انتظامیہ	-10.8349
▁بوؤکیں	-10.8351
▁کماندار	-10.8351
▁بزگر	-10.8351
▁لینڈ	-10.8353
منا	-10.8357
▁مردمءِ	-10.8358
زئی	-10.8358
▁life	-10.8358
▁مزاحمتی	-10.8367
▁لبزے	-10.8383
▁گت	-10.8384
▁بیں	-10.8384
▁مستی	-10.8392
ستان	-10.8394
▁توارءَ	-10.8399
▁lead	-10.8402
▁قیامت	-10.8402
▁گپتار	-10.8406
پل	-10.8408
▁گاہ	-10.841
▁کنز	-10.8412
▁ظاھر	-10.8415
▁نوجوان	-10.8416
▁درگتءَ	-10.8416
▁بلۆچی	-10.8417
▁ھاموش	-10.8417
▁لائبریری	-10.8425
▁یکدم	-10.8431
▁کالونی	-10.8431
▁ہنکین	-10.8442
▁گشنت۔	-10.8442
▁ھاس	-10.8444
▁ٹیکی	-10.8444
▁قلعہ	-10.8448
▁زانئے	-10.8452
ایش	-10.8455
▁پترتگ	-10.8458
▁مروارد	-10.8461
▁وسیلگ	-10.8467
▁L	-10.8468
▁مولاداد	-10.8468
▁ریفرنس	-10.847
▁مدان	-10.8472
▁رپتگ	-10.8473
?"	-10.848
▁group	-10.848
▁نگدی	-10.8482
▁دیگءَ	-10.8485
▁ونڈ	-10.8491
▁شیرین	-10.8491
▁لچھ	-10.8496
▁دانشور	-10.8498
et	-10.8503
▁جہ	-10.8504
▁گوشتی	-10.8506
بچار	-10.8506
▁لرز	-10.8507
ا۔	-10.8509
▁start	-10.8509
اردو	-10.851
▁Septe	-10.8514
▁تیرانی	-10.8515
▁پلان	-10.8522
▁چکر	-10.8526
▁سیالی	-10.8531
▁کرنل	-10.8536
▁لیبی	-10.8539
▁توئے	-10.8544
▁گورم	-10.8548
▁ارزی	-10.8548
▁each	-10.8549
▁شریک	-10.8553
▁قانود	-10.8554
▁سیمسری	-10.8564
▁منانک	-10.8571
یم	-10.8575
وھدے	-10.8579
▁اداں	-10.8585
▁سرکارءِ	-10.8587
▁واریں	-10.8589
▁ھردوکیں	-10.8592
▁صفحہ	-10.8595
▁German	-10.8595
▁رھشونی	-10.8604
▁مریم	-10.8605
▁مڑدم	-10.8607
▁علامت	-10.8617
▁شوانگ	-10.862
▁روانکے	-10.8624
▁وه	-10.8626
?’’	-10.8627
▁دزگٹ	-10.8639
▁هدا	-10.8641
▁شپانک	-10.8642
▁وئیلے	-10.8643
▁خوش	-10.8643
▁حیالاں	-10.8644
▁شوق	-10.8647
▁دروریں	-10.8648
▁قحطانی	-10.8651
▁ڈیم	-10.8651
▁ملیر	-10.8654
▁اییئے	-10.8658
▁کلم	-10.8658
▁ھائی	-10.8659
ادا	-10.866
▁گیت	-10.8661
مرچی	-10.8661
▁گپءِ	-10.8662
▁World	-10.8664
▁برتگ۔	-10.8671
▁البتہ	-10.8673
▁سنگے	-10.8677
▁طبقہ	-10.868
تک	-10.8681
▁بوٹ	-10.8684
p	-10.8688
c	-10.8689
▁سواد	-10.8691
▁تھی۔	-10.8695
▁دێما	-10.8697
▁بیزار	-10.8704
ton	-10.8705
▁زوران	-10.8708
▁مقامی	-10.8714
▁نعمت	-10.8715
واب	-10.8716
گوش	-10.8719
▁طارق	-10.8726
گار	-10.8733
▁دراجی	-10.8733
▁باھو	-10.8735
▁شی	-10.8751
▁رات	-10.8753
▁امبازاں	-10.8753
▁لانک	-10.8754
▁حداءِ	-10.8756
▁دلاں	-10.8757
▁شکست	-10.8758
▁وداریگ	-10.8759
▁جوہر	-10.8766
▁ترسے	-10.8767
▁لاھور	-10.8772
▁ھنچشیں	-10.8776
▁عرض	-10.8777
▁دیار	-10.878
▁فٹ	-10.8784
▁ناک	-10.8785
▁بڑی	-10.879
ریں	-10.88
ینت	-10.8801
b	-10.8801
بنت	-10.8805
▁سقراط	-10.8808
▁نگن	-10.8808
▁دستان	-10.8815
▁برف	-10.8815
▁سدکی	-10.8815
▁دمے	-10.8817
▁five	-10.8817
▁تاہیر	-10.8818
▁single	-10.8831
رند	-10.8831
▁سبر	-10.8832
▁میم	-10.8833
▁کبھی	-10.8833
▁قرن	-10.8834
▁زندمانی	-10.8834
▁ھزمت	-10.8835
▁یت	-10.8839
▁ھل	-10.8843
▁پہمگ	-10.8844
▁مزدور	-10.8844
▁گسر	-10.8848
ماہ	-10.8851
▁ھکومت	-10.8852
انچو	-10.8859
▁اشتگ	-10.8863
شان	-10.8864
▁محراب	-10.8868
▁بوتہ۔	-10.8869
▁کستر	-10.887
▁سگگ	-10.8875
▁نندیت	-10.8876
▁رضی	-10.8885
▁result	-10.8888
▁لاشانی	-10.889
▁کافی	-10.8895
▁کبرستان	-10.8897
▁اسکور	-10.8899
▁تکنیکی	-10.8901
▁مگسی	-10.8905
▁ماتے	-10.8907
▁مردی	-10.8908
▁وتئی	-10.8911
▁انگو	-10.8913
گشت	-10.8915
▁سینگار	-10.8917
▁جر	-10.8918
▁واہش	-10.8922
▁جزم	-10.893
▁appear	-10.8936
▁ٹیبل	-10.894
▁سھیل	-10.894
▁شموش	-10.8942
رہ	-10.8947
▁زانشتی	-10.8958
▁معنائی	-10.8959
گڈا	-10.8962
▁describ	-10.8963
▁بانزل	-10.8972
▁ساریءَ	-10.8972
▁ماڈل	-10.8975
▁افغان	-10.8987
▁داتنت	-10.8997
ten	-10.8998
▁کمرہ	-10.8999
▁بلڈ	-10.9003
▁جے	-10.9004
نک	-10.9005
▁زندگیءِ	-10.9006
▁اہان	-10.9007
▁ہک	-10.9007
▁رکین	-10.9008
▁عقلی	-10.901
▁چریشاں	-10.9014
▁زمینءِ	-10.9018
▁پھریز	-10.9019
▁تنکیں	-10.902
▁متحدہ	-10.9024
▁کڑی	-10.9028
گندگ	-10.9028
▁مزل	-10.9034
▁نبوتگ	-10.9035
▁منارا	-10.9035
▁کشاری	-10.9037
▁شہباز	-10.9039
▁باقی	-10.9042
▁پسگ	-10.9047
▁بنگپانی	-10.9049
▁کیلئے	-10.9049
▁حر	-10.9054
▁یقین	-10.9058
▁attack	-10.9059
▁ہیر	-10.9067
▁درج	-10.9071
▁ست	-10.9072
▁کلاسیکل	-10.9073
▁سردارانی	-10.9073
▁کوسٹ	-10.9076
▁شائریءِ	-10.9076
▁جنگا	-10.9077
یات	-10.9077
▁راھی	-10.9078
▁own	-10.9078
▁کوچ	-10.9079
▁گپتگ۔	-10.9082
▁ترینگ	-10.9083
▁سروس	-10.9084
▁رپت	-10.9086
▁پہریز	-10.9087
▁یکشمبے	-10.9089
▁جننت	-10.9089
▁رژنا	-10.9091
▁گلائیش	-10.9093
▁پیپلزپارٹی	-10.9093
▁ساچی	-10.9094
or	-10.9094
▁دارگی	-10.9098
if	-10.91
▁اگاہ	-10.9102
▁فٹبال	-10.9103
▁کمکے	-10.9104
کسہ	-10.9106
▁ہدایت	-10.9108
k	-10.9109
▁جہدءَ	-10.9112
▁نازل	-10.9116
▁ڈگری	-10.9118
▁music	-10.9121
▁consider	-10.9123
▁بسمل	-10.9124
▁جلوہ	-10.9125
▁زہگاں	-10.9127
اء	-10.9128
با	-10.9131
▁اپوزیشن	-10.9131
▁ماہیگ	-10.9134
▁دیمونی	-10.914
▁ظہور	-10.9143
▁مدار	-10.9146
▁اینچک	-10.9155
▁توم	-10.9161
▁کنائینتگ	-10.9164
▁تعلقداری	-10.9166
▁مگرب	-10.9167
▁دوشمبے	-10.917
▁ایلیٹ	-10.9178
▁پریشی	-10.918
▁شاه	-10.9181
▁لگتمال	-10.9185
▁تش	-10.9186
▁کسہانی	-10.9187
▁ویڈیو	-10.9187
▁ورک	-10.9194
▁اتوں	-10.9197
▁دوستدار	-10.9197
▁ماھی	-10.9198
▁Dur	-10.9199
▁سبزی	-10.9199
▁وراں	-10.9199
▁کوہانی	-10.92
▁ایردستیں	-10.9201
▁باں۔	-10.9204
▁ھرنائی	-10.9204
▁باغ	-10.9204
▁سکا	-10.9205
▁احسان	-10.9206
▁هزار	-10.9208
وان	-10.921
مزنیں	-10.9211
▁اثرات	-10.9212
▁گردش	-10.9213
▁کرز	-10.9215
▁great	-10.9216
▁امبار	-10.9219
▁نوٹ	-10.9221
▁لیکھ	-10.9223
▁سینٹر	-10.9237
▁June	-10.924
کوہ	-10.924
▁نشنل	-10.9241
▁مو	-10.9243
▁سالروچ	-10.9252
▁اشرف	-10.9252
▁ورد	-10.9254
▁پربند	-10.9255
▁رئیسی	-10.9257
▁ٹپیگ	-10.9258
▁اتیں۔	-10.9259
▁دھکان	-10.9263
▁تحقیق	-10.927
اتنت	-10.9272
▁گاماں	-10.9273
▁جسد	-10.9278
▁وانیت	-10.9278
▁سرپ	-10.9279
▁گواز	-10.9281
▁اشیءَ	-10.9283
▁لاشار	-10.9285
▁بکنیں	-10.9287
▁ساہت	-10.929
▁دید	-10.929
▁گونگیں	-10.9291
▁نفس	-10.9293
▁حیالءَ	-10.9296
▁دارے	-10.9298
▁ملین	-10.9298
▁بورڈ	-10.9305
▁بیماری	-10.9307
▁شوھازگ	-10.9308
▁بحر	-10.931
▁جنزگ	-10.9312
دوست	-10.9316
▁رزاق	-10.932
▁کسه	-10.9321
▁کرکے	-10.9324
▁پارلیمنٹ	-10.9334
▁ترگ	-10.9334
▁میرو	-10.9335
▁بنءَ	-10.9337
▁دوستاں	-10.9337
▁تکانسری	-10.9346
اھاں	-10.9347
▁زاھد	-10.9352
▁یکروچے	-10.9356
ment	-10.9357
▁زندہ	-10.9359
▁مرگءِ	-10.936
age	-10.936
▁بلوچیءَ	-10.9362
?“	-10.9368
▁point	-10.9376
▁since	-10.9376
▁سدانی	-10.9378
▁صالح	-10.9379
▁حبیب	-10.9381
▁توری	-10.9382
▁جانے	-10.9384
▁شئیرے	-10.9384
وکین	-10.9389
ٹک	-10.9393
▁مھروان	-10.9395
▁زون	-10.9396
▁انت۔ائی	-10.9397
▁پوک	-10.9399
▁واز	-10.9406
اہ	-10.941
▁جبین	-10.9412
▁مہتل	-10.9414
▁کابینہ	-10.9414
▁تیرے	-10.9415
▁پارٹیءِ	-10.9418
جا	-10.9419
▁دنیگہ	-10.942
سن	-10.9421
پٹ	-10.9424
▁پکیر	-10.9427
ive	-10.9427
▁دالبندین	-10.9428
▁لاشاری	-10.9432
▁دوسری	-10.9432
▁زردیں	-10.9435
▁ارسطو	-10.9437
▁دام	-10.9441
▁بھٹو	-10.9442
▁شعبہ	-10.9445
▁انسانانی	-10.9446
▁جامی	-10.9447
▁برابری	-10.9451
▁قسمت	-10.9455
▁جاگھے	-10.9455
▁زانشی	-10.9456
▁حالے	-10.9462
▁فرض	-10.9464
▁ئت	-10.9465
▁شاپ	-10.9466
▁ہسپتال	-10.9468
▁order	-10.947
▁تھام	-10.9471
▁پجی	-10.9476
▁ارزشتے	-10.9477
▁دنیائے	-10.9479
▁what	-10.9481
▁لوگبانک	-10.9482
▁جیسے	-10.9484
▁سیکیورٹی	-10.949
▁فرد	-10.9494
▁بنیاتی	-10.9497
▁نفسیاتی	-10.9497
▁میا	-10.95
▁نازینک	-10.95
▁طلب	-10.9502
▁بزرگ	-10.9505
دگ	-10.9508
▁ات۔من	-10.951
▁States	-10.9519
▁تہرے	-10.952
▁استت	-10.952
اھانی	-10.9522
▁رابطہ	-10.9528
▁ہاتھ	-10.9528
uch	-10.9529
▁ٹکرے	-10.953
▁عراق	-10.9532
▁نعیم	-10.9532
▁گپان	-10.9536
species	-10.954
ملک	-10.9544
▁گیابان	-10.9547
▁گارڈ	-10.9548
تاک	-10.9551
▁ھسین	-10.9557
▁شوکت	-10.9559
▁دورے	-10.9564
▁وکٹ	-10.9568
▁گیشین	-10.9569
بد	-10.9573
▁گدارے	-10.9574
▁پریدہ	-10.9577
▁لونجان	-10.9579
▁سنگانی	-10.958
▁تراکناک	-10.958
▁خراب	-10.9583
▁پورٹ	-10.9583
▁درنیام	-10.959
▁بھارت	-10.9602
▁پارک	-10.9604
▁اسلوب	-10.9607
▁واھشت	-10.9608
▁دروہ	-10.9621
▁مسلمانانی	-10.9624
▁اماں	-10.9632
▁دیواناں	-10.9634
سال	-10.9635
▁ھوشاپ	-10.9645
▁مسکرا	-10.9645
▁چۆ	-10.9646
▁رنگاں	-10.9649
▁مردءِ	-10.965
▁دگری	-10.9653
کجام	-10.9657
▁سانمند	-10.966
▁تشدد	-10.966
▁چھر	-10.9661
▁ادمے	-10.9665
▁سارتر	-10.9666
▁شرم	-10.9669
▁جنکاں	-10.967
▁لوپ	-10.9671
▁روایتی	-10.9676
▁بودلئیر	-10.9678
▁سنگینیں	-10.9683
▁زاکر	-10.9683
▁گہتری	-10.9686
▁جهان	-10.9689
▁اندگہ	-10.969
▁ایسے	-10.9692
▁بلی	-10.9695
▁انٹرنیشنل	-10.9696
▁ادریس	-10.9697
▁کان	-10.97
ێ	-10.9709
▁شنک	-10.9713
▁ہزدار	-10.9721
▁واجکار	-10.9723
▁ماحول	-10.9723
▁وزم	-10.9729
▁ھوری	-10.9731
▁روگن	-10.974
▁ھورت	-10.9741
▁اہت	-10.9745
شرگداری	-10.9749
▁انت۔من	-10.9756
▁انفارمیشن	-10.976
!’’	-10.9761
▁مونجا	-10.9765
▁will	-10.9766
▁state	-10.977
▁late	-10.9774
▁بیت۔اے	-10.9778
▁سگی۔	-10.9778
▁پیسریگیں	-10.9778
▁لوار	-10.9779
▁ترو	-10.978
گیر	-10.9782
▁شپانی	-10.9782
▁ریاض	-10.9783
▁اشان	-10.9783
▁ایجنٹ	-10.9785
▁ابیتک	-10.9786
▁دونوں	-10.9786
▁رود	-10.9787
▁راضی	-10.9787
▁طرز	-10.9791
▁اقتصادی	-10.9793
▁پارلیمانی	-10.9794
▁Ap	-10.9794
▁مکنت	-10.9797
▁تپاسگ	-10.9801
▁ساھتے	-10.9801
▁موسمانی	-10.9801
کور	-10.9818
▁ڈبہ	-10.9825
▁بیچ	-10.9826
یتگ	-10.9828
▁بوھگءَ	-10.9832
▁گوئشان	-10.9834
▁جمبراں	-10.9835
یئ	-10.9836
▁نعرہ	-10.9841
▁تربیت	-10.9844
ئت	-10.9849
▁دارانی	-10.985
▁علاوہ	-10.985
▁انتظام	-10.9851
▁کوشت	-10.9853
▁شرت	-10.9853
▁famil	-10.9853
منءَ	-10.9854
▁جنیناں	-10.9856
شاعری	-10.9856
▁روچا	-10.9857
▁باتن	-10.986
▁بخت	-10.9862
▁مہرءُ	-10.9867
▁line	-10.9868
▁چوناہا	-10.9871
▁گندءُ	-10.9871
▁پجاہ	-10.9872
▁اسرءَ	-10.9872
▁فلسفہءِ	-10.9874
▁بچاں	-10.9877
▁رمب	-10.9879
▁نگور	-10.9884
x	-10.9885
▁reach	-10.9888
▁کانال	-10.9896
▁بامرد	-10.9899
▁فیصل	-10.99
▁مرکزی	-10.99
▁ہنداں	-10.9901
▁درے	-10.9902
پاکستانی	-10.9902
▁last	-10.9903
▁No	-10.9913
▁ابیتکی	-10.9913
▁Octo	-10.9916
▁کوھلو	-10.9917
▁دئور	-10.9921
ٹر	-10.9921
▁اولاد	-10.9921
▁حدائی	-10.9925
▁راجدوستی	-10.9926
▁داشت۔	-10.993
▁چراگے	-10.9937
▁ٹوپ	-10.9937
▁ارٹ	-10.9939
▁دژمنی	-10.9941
▁دلمانگ	-10.9944
▁منصور	-10.9946
▁نبشتانکاں	-10.995
ھچ	-10.9954
▁دودانی	-10.9955
▁system	-10.9956
▁وشیانی	-10.9957
▁ریسرچ	-10.9957
▁کوھاں	-10.996
▁تمنی	-10.9965
▁ایجنسی	-10.9969
▁مضبوط	-10.9969
▁بدلءَ	-10.997
▁کماشیں	-10.9971
▁زندءُ	-10.9971
▁مراگشے	-10.9973
انسان	-10.9974
▁وبا	-10.9979
▁ڈولا	-10.998
▁ات۔ائی	-10.9984
▁ائین	-10.9992
▁رہبندانی	-10.9994
▁لبزانکءَ	-10.9995
▁week	-10.9995
▁عابدہ	-10.9998
rote	-10.9999
▁یکجاھی	-11.0001
▁لیکہانی	-11.0003
▁جیڑھے	-11.0005
▁پیداوار	-11.0005
▁....	-11.0006
▁کیف	-11.0007
▁جتک	-11.0008
▁قید	-11.0008
ril	-11.0009
▁روشن	-11.0013
ایا	-11.0017
▁کیا۔	-11.0019
▁جعفر	-11.002
کراچی	-11.0025
▁دنیایے	-11.0026
▁ھورانی	-11.0026
▁زرءَ	-11.003
▁کوریں	-11.003
▁گاری	-11.0036
▁پورسز	-11.0036
▁شمس	-11.0042
▁گرماگ	-11.0042
▁اپہ	-11.0043
▁ژند	-11.0044
▁گوارگ	-11.0046
نیں	-11.0055
▁ہو۔	-11.0059
▁لزت	-11.0059
▁مردک	-11.0059
ork	-11.006
▁بلہ	-11.006
▁لالچ	-11.0061
▁فری	-11.0064
▁ھمنکس	-11.0068
▁بولی	-11.007
▁کیفیت	-11.0082
▁اہد	-11.0083
▁پسندیں	-11.0083
▁نزیکءَ	-11.0088
▁شگر	-11.009
▁کوم	-11.0092
▁گین	-11.0092
▁رویہ	-11.0094
▁پیادگ	-11.0095
▁اتکاں	-11.0097
▁کمکی	-11.01
▁بوتنت۔	-11.0101
مرد	-11.0103
▁کلومیٹر	-11.0104
▁ایرانشھر	-11.0108
▁صوفی	-11.0112
▁قریش	-11.0112
▁ریکانی	-11.0112
▁معنہ	-11.0119
▁دہکان	-11.0121
▁سردی	-11.0123
▁محسوس	-11.0124
▁رستگ۔	-11.0125
▁واھگاں	-11.0127
▁گوری	-11.0131
▁مرگاں	-11.0132
▁دھلی	-11.0135
▁تاکانی	-11.0136
▁جیڑاں	-11.0138
ێا	-11.014
▁ادارہاں	-11.014
▁ڈوک	-11.0141
▁اسپتال	-11.0145
▁کسانکیں	-11.0149
▁دوزہ	-11.0149
▁اوتاگ	-11.0151
▁بوگءِ	-11.0151
▁اوں۔	-11.0156
▁کارستے	-11.0159
پس	-11.0159
نس	-11.0159
▁وابی	-11.0163
▁سبارگ	-11.0171
▁رفیق	-11.0173
▁سازیں	-11.0173
▁کانودی	-11.0178
▁جاگہاں	-11.0178
▁فرمان	-11.0178
▁سپاہ	-11.018
▁ڈان	-11.0189
▁war	-11.019
▁بیگءِ	-11.0192
▁شاہی	-11.0195
▁چپیں	-11.0196
▁اسک	-11.0197
▁world	-11.0199
▁بیمار	-11.0202
▁رنگءُ	-11.0203
▁اؤ	-11.0205
▁ساچگ	-11.021
▁وہاں	-11.0212
▁اہل	-11.0214
▁منیت	-11.0214
▁کیں	-11.0214
▁رؤ	-11.0215
▁ماہناز	-11.0217
▁شتہ	-11.0221
▁پرست	-11.0224
▁گڈاں	-11.0226
▁کونڈ	-11.0228
▁زہگانی	-11.0231
▁یہی	-11.0232
نز	-11.0237
▁نیاتکگ	-11.0238
▁شیہک	-11.0241
▁پے	-11.0242
▁میتگءَ	-11.0243
▁وہدا	-11.0243
▁شالا	-11.0247
▁نزام	-11.0248
▁میتگءِ	-11.0251
▁now	-11.0252
▁نپاد	-11.0254
▁عبدالواحد	-11.0255
▁خاطر	-11.0257
▁واقع	-11.0262
▁role	-11.0265
▁لیا	-11.0269
▁G	-11.0269
▁فطرت	-11.0271
▁............	-11.0274
▁St	-11.0277
ارگ	-11.0278
▁ملکءَ	-11.0278
▁همراه	-11.0281
۔اگاں	-11.0285
▁set	-11.0286
▁ارد	-11.0286
▁ردانکی	-11.0288
▁ہل	-11.0289
▁ایسی	-11.0292
▁بیث	-11.0292
▁جہانءِ	-11.0293
▁لوزانی	-11.0295
▁تنکہ	-11.0296
▁ڈولداری	-11.0297
▁سوری	-11.0299
▁یاتاں	-11.0299
▁انٹر	-11.0304
▁پیغام	-11.0307
▁پولنگ	-11.0307
▁رونت	-11.0308
▁طریقہ	-11.0309
▁سوچگ	-11.0309
▁take	-11.031
▁تیابدپ	-11.0317
▁داروک	-11.032
▁خرچ	-11.032
▁سوز	-11.0322
▁کسب	-11.0327
گال	-11.0328
▁کوه	-11.0332
▁کنٹگ	-11.0334
▁سامنے	-11.0334
▁won	-11.0335
▁بالگرد	-11.0335
▁پلک	-11.0336
ھمیش	-11.0338
ty	-11.0341
▁وہدءِ	-11.0343
▁غ	-11.0345
▁ھوناں	-11.0347
▁چرس	-11.0349
▁مٹیں	-11.035
▁پیل	-11.035
▁بیورغ	-11.035
▁افیسر	-11.0355
▁ہمت	-11.0355
▁ارشاد	-11.0357
▁due	-11.0358
▁ناکیں	-11.0358
▁کپاں	-11.0363
کسے	-11.0364
▁رشتگ	-11.0365
▁کپتگاں	-11.0365
▁وعدہ	-11.0366
▁چمشانکے	-11.0369
▁head	-11.037
کرت	-11.0373
▁بچے	-11.0375
▁جذبہ	-11.0382
▁نل	-11.0389
▁بہادری	-11.039
▁اوت	-11.0391
▁ششت	-11.0391
▁بازارءَ	-11.0397
ren	-11.0399
▁گسانی	-11.0401
▁افریقہ	-11.0405
▁یدار	-11.0409
▁راشن	-11.0413
▁child	-11.0417
▁کیلو	-11.042
▁گرپتار	-11.0422
▁بیہار	-11.0422
▁منتگیں	-11.0426
▁کاران	-11.0429
▁ونگ	-11.0429
very	-11.0432
▁قتل	-11.0434
▁چارءُ	-11.0439
▁لائق	-11.044
▁پہلی	-11.0441
▁وانندگ	-11.0444
▁الہان	-11.0445
▁مشرقی	-11.045
▁واجہی	-11.0453
▁درنگ	-11.0454
▁تنت	-11.0455
▁home	-11.0455
hose	-11.0467
شاعر	-11.0467
▁چلیم	-11.0471
▁کسھے	-11.0473
راج	-11.0474
دات	-11.0474
لوگ	-11.0477
▁عجبیں	-11.0478
▁do	-11.0478
▁جبران	-11.0483
▁شومیں	-11.0485
▁شادی	-11.0486
▁13	-11.0486
▁دیوانءَ	-11.0488
▁داگ	-11.0489
ءَرا	-11.049
▁تسلا	-11.049
▁پولکار	-11.049
▁معیار	-11.0491
ese	-11.0491
▁ابراہیم	-11.0492
وٹ	-11.0497
▁افسوس	-11.0503
▁نسیب	-11.0503
مر	-11.0504
▁دیوکیں	-11.0505
▁چیلنج	-11.0506
▁علت	-11.0508
▁ہمینچو	-11.0509
▁ماتءِ	-11.051
چون	-11.051
واں	-11.0511
▁اسانی	-11.0512
▁دیمترءَ	-11.0517
▁پیماز	-11.0522
▁کالم	-11.0527
▁جائیکہ	-11.0529
▁علمءِ	-11.053
▁کلک	-11.0531
▁direct	-11.0536
▁اسکے	-11.0539
▁پورہ	-11.0543
▁نوشکے	-11.0546
▁ساحل	-11.055
▁allow	-11.0551
▁اگ	-11.0552
▁وارس	-11.0557
▁مستقبل	-11.0559
▁چونائیا	-11.056
▁اسن	-11.056
▁ائ	-11.0562
یو	-11.0565
▁ھیالے	-11.0567
▁ترتیب	-11.057
▁?‘‘	-11.0575
▁ملافاضل	-11.0575
▁هور	-11.0577
▁ساھتاں	-11.058
▁کسےءَ	-11.0583
▁لہتین	-11.0583
▁b	-11.0583
▁قدم	-11.0585
▁زرءِ	-11.0585
▁تازی	-11.0587
▁کنائینت	-11.0587
▁دوہمی	-11.0588
▁بادشاہی	-11.059
▁اتحاد	-11.059
▁بوتن	-11.0591
▁H	-11.0592
▁دیں	-11.0594
▁کسہاں	-11.0595
▁دویں	-11.0596
▁شونکار	-11.0601
▁خمار	-11.0604
گانی	-11.0605
▁سادگ	-11.0606
▁ح	-11.0607
▁ڈولداریں	-11.0609
▁بودشت	-11.0611
▁تحفظ	-11.0613
▁معیشت	-11.0614
▁مدد	-11.0618
▁مد	-11.062
▁بوتءُ	-11.062
.“	-11.0623
غاں	-11.0623
▁چشین	-11.0624
▁بیتگین	-11.0625
▁death	-11.0627
▁جاتے	-11.0633
▁انجمن	-11.0633
▁کلکشان	-11.0642
▁پبلی	-11.0644
▁درساں	-11.0651
▁وهدا	-11.0651
▁سیشن	-11.0654
▁di	-11.0661
▁پیشرد	-11.0663
▁زوراں	-11.0665
▁کلاگ	-11.0668
▁نوری	-11.0669
▁ه	-11.067
▁صائمہ	-11.0673
▁ناولٹ	-11.0674
▁ساه	-11.0678
▁تنظیم	-11.0683
▁دھک	-11.0683
▁ھمبل	-11.0685
▁انچۆ	-11.0686
▁نھاد	-11.0687
▁گپتہ	-11.0689
▁سکندر	-11.069
▁دئیگا	-11.0698
▁غماں	-11.0703
▁ٹیکس	-11.0704
▁نگاری	-11.0704
▁بیاریت	-11.0705
▁بنگالی	-11.0706
تنت	-11.0707
▁سوگہ	-11.0707
▁تخت	-11.0709
▁پانکجن	-11.0711
ۆ	-11.0711
▁چاری	-11.0713
▁ہژدری	-11.0714
▁جاپان	-11.0716
▁اصغر	-11.0716
▁ورلڈ	-11.0716
▁بیگواھیانی	-11.0718
چر	-11.0721
▁داخلہ	-11.0723
▁لیلو	-11.0725
▁ماسی	-11.0727
▁ڈائریکٹر	-11.0733
▁حدیث	-11.0735
▁14	-11.0737
▁اناگت	-11.0739
ید	-11.074
▁درورے	-11.0745
el	-11.0746
▁روتگ	-11.0749
▁سدل	-11.075
▁ناگیگ	-11.0752
▁روانی	-11.0753
▁همک	-11.0753
▁سائیکل	-11.0754
▁Janu	-11.0756
▁نیستی	-11.0757
▁سویڈن	-11.0758
▁انسانءَ	-11.076
▁c	-11.0763
f	-11.0768
▁six	-11.0769
▁کبول	-11.077
▁included	-11.0773
▁مقبول	-11.0773
▁نگیگیں	-11.0775
▁30	-11.0776
▁پائپ	-11.0785
▁کشءَ	-11.0785
▁Be	-11.0786
▁نرمیں	-11.0786
▁بھشت	-11.0788
▁غلامی	-11.0796
▁storm	-11.08
▁انشپی	-11.08
مہر	-11.0801
▁Man	-11.0802
▁پیسرءَ	-11.0803
▁سینیٹ	-11.0803
▁سالءِ	-11.0812
▁دینت۔	-11.0814
▁گندان	-11.0814
▁ختم	-11.0817
ia	-11.0818
▁سرداری	-11.0826
▁ھپتگے	-11.0826
▁short	-11.0827
▁اهاں	-11.0828
▁ملی	-11.0831
▁سپریم	-11.0832
▁نبشتانکانی	-11.0833
▁left	-11.0842
▁میزائل	-11.0842
▁زانتکاراں	-11.0847
است	-11.0851
▁اھم	-11.0852
▁کرمان	-11.0852
▁مرکز	-11.0854
▁ایریں	-11.0855
▁ہاران	-11.0857
▁شلی	-11.0861
▁پات	-11.0863
▁گن	-11.0864
▁نشتہ	-11.0864
ینیت	-11.0864
▁بشک	-11.0864
وری	-11.0866
ائرا	-11.0869
زمین	-11.0871
▁England	-11.0871
▁video	-11.0871
▁government	-11.0871
▁زرت۔	-11.0875
▁کردی	-11.0878
▁کشتگیں	-11.0879
▁حیا	-11.0882
▁غیرت	-11.0883
▁افسانہ	-11.0883
بیت۔	-11.0885
بت	-11.0888
▁An	-11.0892
▁بہہ	-11.0894
▁ماتءَ	-11.0898
▁قومے	-11.09
▁ڈیپارٹمنٹ	-11.09
▁عیسوی	-11.0901
▁ازل	-11.0902
▁بالگتر	-11.0903
رز	-11.0903
▁راجدپترءِ	-11.0904
▁لگیت	-11.0904
زم	-11.0905
▁شیرکنیں	-11.0906
▁اؤٹ	-11.0916
▁تعریف	-11.0917
▁گھتر	-11.0918
▁بوگا	-11.0919
▁نوروز	-11.092
▁خدمت	-11.0921
▁ڈولءَ	-11.0922
▁۔ھمیش	-11.0923
▁پجارینگ	-11.0929
بندی	-11.093
▁نقل	-11.093
▁ترمپے	-11.093
▁گورکی	-11.093
▁دلبر	-11.093
وہدے	-11.0931
▁درہیں	-11.0933
▁شموشگ	-11.0937
▁زامات	-11.0939
▁سہیل	-11.0942
▁زرداری	-11.0943
▁ہساب	-11.0944
▁position	-11.0946
▁عکسے	-11.095
▁ھمینچو	-11.0953
▁پجا	-11.0954
▁وغیرہ	-11.0956
▁کندیل	-11.0957
▁بچاریں	-11.096
▁ھنی	-11.0966
کجا	-11.0968
▁پیروک	-11.097
▁جئیند	-11.0973
گیش	-11.0974
▁بڑا	-11.0976
▁الفاظ	-11.0976
▁کہتے	-11.0977
▁تئیی	-11.0981
▁دێم	-11.099
زانگ	-11.0992
تب	-11.0992
▁سروکاں	-11.0995
▁چکا	-11.0996
▁ماریت	-11.0996
▁بڑے	-11.1002
▁include	-11.1003
▁March	-11.1005
▁بھائی	-11.1006
▁مشن	-11.1009
▁مڑد	-11.1011
ماہتاک	-11.1012
▁ھمیشانی	-11.1012
▁سسی	-11.1015
▁فیس	-11.1017
▁اش۔	-11.1017
▁attempt	-11.1017
▁سرپدیں	-11.1024
▁قانونی	-11.1025
پاکستان	-11.1026
▁شہرے	-11.1027
▁کانٹ	-11.1033
▁موقع	-11.1035
▁کرے	-11.104
▁خاموش	-11.1042
▁اسودگی	-11.1044
نٹ	-11.1044
▁رشتہ	-11.1044
▁دودءُ	-11.1053
▁دینا	-11.1054
▁کنڈے	-11.1055
▁پلگ	-11.106
▁اپءِ	-11.1062
▁راہی	-11.1064
▁شونگال	-11.1066
▁ھمراھاں	-11.1067
▁جاگہءَ	-11.1068
▁ارسانی	-11.1069
▁عوام	-11.1069
▁ابدال	-11.1071
▁ماھکان	-11.1071
▁پچار	-11.1074
ie	-11.1074
▁سوبءَ	-11.1077
▁bas	-11.1078
▁کاریت۔	-11.1081
▁general	-11.1081
▁ملتان	-11.1087
▁نمونگ	-11.109
▁گواتے	-11.1092
▁کارندھے	-11.1094
لے	-11.1095
▁ارداد	-11.1101
▁حرام	-11.1101
","","","","","	-11.1102
▁دریگتیں	-11.1106
▁گداں	-11.1108
▁مکمل	-11.1108
▁جتہ	-11.111
▁ھا	-11.1114
▁پروری	-11.1117
▁third	-11.1121
▁زیک	-11.1122
▁جاورھال	-11.1122
▁ملاقات	-11.1123
▁اجب	-11.1127
▁شیوار	-11.1128
▁ایوان	-11.1128
تاریخ	-11.1136
▁جنکو	-11.1137
▁سوچن	-11.1138
▁موسمی	-11.1143
▁پھازگی	-11.1143
z	-11.1143
▁open	-11.1144
▁پشدر	-11.1145
▁گراناز	-11.1146
راست	-11.1149
▁دمگے	-11.1151
▁جگ	-11.1154
▁men	-11.1155
▁پجاروکی	-11.1157
▁ڈب	-11.1164
▁الف	-11.1165
▁تبد	-11.1169
▁کتار	-11.1172
▁سرچمگ	-11.1174
چوش	-11.1175
▁ھاش	-11.1176
▁پلنگ	-11.1176
▁کنڈگ	-11.1177
▁اوارجنی	-11.1178
▁کیو	-11.1178
▁کیمرہ	-11.1182
▁بڑ	-11.1183
▁فورس	-11.1188
▁نمب	-11.1201
توار	-11.1205
جست	-11.1207
ها	-11.1209
ہچ	-11.1211
▁سستگیں	-11.1212
▁گندگا	-11.1217
▁شعوری	-11.1219
▁اہمیں	-11.1222
▁ایڈوکیٹ	-11.1227
▁ھیلی	-11.1227
▁ھمگرنچیں	-11.1227
▁تکلیف	-11.1228
ist	-11.123
▁games	-11.1236
▁school	-11.1241
▁کافر	-11.1242
▁نگار	-11.1242
▁پیشگال	-11.1243
▁ستکگیں	-11.1245
▁ڈال	-11.1245
▁بیگواه	-11.1246
▁وپسگ	-11.125
▁پرچی	-11.125
▁previous	-11.1256
▁become	-11.1256
▁کون	-11.1261
▁Nove	-11.1268
▁الکاپیں	-11.127
▁بندن	-11.1271
▁De	-11.1272
▁نبوت	-11.1273
▁انگریزانی	-11.1274
▁نیاز	-11.1275
▁گشتن	-11.1275
▁گردگ	-11.1276
▁وابءَ	-11.1279
▁زمانگءِ	-11.128
▁یاسر	-11.1284
▁جندءَ	-11.1286
شن	-11.1287
▁north	-11.1288
▁ثواب	-11.1288
▁ھرچیز	-11.129
▁فاضلءِ	-11.1293
▁ریڈ	-11.1299
▁پیسرگیں	-11.13
▁بیڑبرتگ	-11.1302
▁نبشت	-11.1305
▁حیالے	-11.1306
▁تھاریں	-11.1306
▁جہمنند	-11.1311
▁مھتر	-11.1311
▁جگہ	-11.1318
▁بلاہ	-11.1327
گری	-11.1327
▁امبر	-11.1331
▁نزان	-11.1334
▁design	-11.1334
▁عنقا	-11.1334
▁اجتماعی	-11.1336
▁اڑاند	-11.1338
▁ملنگ	-11.1341
▁لاف	-11.1343
▁مھراب	-11.135
▁اژدری	-11.135
▁ہمارے	-11.135
▁تہنائی	-11.1358
▁موضوع	-11.1359
شیر	-11.136
▁شهر	-11.1363
▁کارروائی	-11.1365
▁نتیجہ	-11.1366
▁اێر	-11.1368
▁طالب	-11.1368
باریں	-11.137
▁بروبر	-11.1373
▁ھاموشی	-11.1376
▁چیخوف	-11.1376
يں	-11.1377
ہا	-11.1386
▁go	-11.1387
ازات	-11.1391
وڑ	-11.1391
▁گہہ	-11.1392
▁بابو	-11.1393
▁گندیم	-11.1393
▁دلجمیں	-11.1398
▁رومن	-11.1402
▁پریاتاں	-11.1403
▁مڑاہ	-11.1405
▁جمپ	-11.1408
▁سلطنت	-11.1411
▁شیرکنی	-11.1411
شریں	-11.1412
▁سربوتگ	-11.1412
▁کورونا	-11.1412
▁پھناتاں	-11.1414
▁اقوام	-11.1417
▁پرش	-11.1419
که	-11.1425
▁نزیر	-11.1425
▁پیلوی	-11.1428
دنیا	-11.1428
▁چدا	-11.143
▁زن	-11.143
▁رکھ	-11.1433
▁جنوکیں	-11.1434
▁ماندارگ	-11.1435
▁پتءَ	-11.1439
▁روژنا	-11.1439
علم	-11.1439
▁لشکرکشی	-11.1445
▁اتکہ	-11.1446
▁پہریزگ	-11.1447
▁شب	-11.1449
▁چدءُ	-11.1457
▁سروکانی	-11.1458
▁انگ	-11.146
▁بارت۔	-11.146
▁ترسناکیں	-11.1465
رگ	-11.1465
▁گہ	-11.1465
[	-11.1466
▁وزارت	-11.147
▁فراہم	-11.147
مروچی	-11.147
▁Dece	-11.147
▁His	-11.1473
کان	-11.1474
▁قمبرانی	-11.1479
▁اوشتاتگیں	-11.1481
▁باسکے	-11.1483
▁سگار	-11.1485
▁مطالعہ	-11.149
▁ارزانیں	-11.1502
۔ھمے	-11.1507
▁release	-11.1512
▁چراغ	-11.1521
▁زوراور	-11.1526
▁ایدگرانی	-11.1527
▁ہاتر	-11.1528
▁کراچیءَ	-11.1528
▁سرہال	-11.1529
▁حاص	-11.1532
▁Jul	-11.1535
شک	-11.1536
▁مزاج	-11.1538
▁مرگءَ	-11.154
▁وتاک	-11.154
▁ھالے	-11.1541
▁پھازگ	-11.1543
▁درکپگ	-11.1546
▁مچکدگ	-11.1547
▁زمانگاں	-11.1547
▁رش	-11.1548
یشن	-11.155
▁book	-11.1552
▁سھت	-11.1552
▁شوہازگ	-11.1554
▁major	-11.1558
▁سلاھانی	-11.1559
▁افراد	-11.1564
دیگ	-11.1566
▁لہڑ	-11.1566
▁باوری	-11.1567
چشکہ	-11.1568
▁title	-11.1571
▁پژدرءَ	-11.1571
انک	-11.1571
▁بحت	-11.1573
▁اپے	-11.1574
▁زنڈ	-11.1575
▁character	-11.1576
▁ترینتگ	-11.1576
▁مندر	-11.1576
▁south	-11.1578
▁سبق	-11.1578
▁جانا	-11.1579
ھال	-11.1583
▁گوانزگ	-11.1583
▁پبلک	-11.1585
▁اصول	-11.159
▁ده	-11.1594
▁نبشتکار	-11.1595
▁سرور	-11.1597
▁اھی	-11.1604
▁develop	-11.1607
▁ناجوڑی	-11.1607
▁تھار	-11.1608
▁River	-11.1609
▁ناما	-11.1611
▁By	-11.1614
▁جانب	-11.1615
▁perform	-11.1616
▁just	-11.162
فارسی	-11.1626
▁اھوالکارانی	-11.163
▁اندوہ	-11.1631
▁دہمی	-11.1635
▁ھکل	-11.1638
ern	-11.164
▁نیاتک	-11.164
▁continu	-11.164
▁جوریں	-11.1641
▁سجدہ	-11.1644
▁بلوچوں	-11.1644
▁زندانی	-11.1649
▁شہار	-11.1649
▁االله	-11.1649
▁مارے	-11.165
▁ادمانی	-11.1651
▁جادو	-11.1653
▁بیغ۔	-11.1653
▁ملامتی	-11.1653
▁صنعتی	-11.1655
▁ھروھد	-11.1657
▁شپی	-11.1659
▁وپس	-11.1669
▁وھدئے	-11.1672
▁شھراں	-11.1675
▁مضمون	-11.1678
▁بنڈ	-11.1681
▁کرتی	-11.1682
▁شناخت	-11.1682
▁جتاھیں	-11.1685
▁یکمی	-11.1687
▁City	-11.1689
▁رھبندے	-11.1691
▁اند	-11.1691
▁سج	-11.1692
انکہ	-11.1693
▁قریب	-11.1695
▁گلباگ	-11.1698
▁مرداں	-11.1699
▁شوم	-11.17
▁میتگانی	-11.1701
▁تباہی	-11.1701
▁گوہار	-11.1702
▁شہیدانی	-11.1704
▁شئیرءِ	-11.1705
▁II	-11.1707
▁روبرکتی	-11.1711
▁ھیالداری	-11.1711
▁مالوم	-11.1717
▁چارگی	-11.1718
▁تھنائی	-11.1719
▁period	-11.1719
▁میاریگ	-11.1725
▁شیرانی	-11.1728
▁کرتیں	-11.1728
▁ضرور	-11.1728
کئے	-11.1729
▁جدا	-11.1732
▁جۆڑ	-11.1736
▁رنگانی	-11.1737
گون	-11.1738
▁چارگا	-11.1738
▁تھیوری	-11.1739
▁فدائی	-11.1741
کوئٹہ	-11.1742
▁بادشاه	-11.1743
▁make	-11.1744
▁کندگے	-11.1745
▁دس	-11.1748
▁buil	-11.175
▁جود	-11.1751
▁شیدا	-11.1752
پمیشا	-11.1754
▁اغا	-11.1754
▁تاوانے	-11.1755
▁اودءِ	-11.1757
▁کبل	-11.1759
▁بچکندے	-11.176
▁شہرءَ	-11.1761
▁پرسی	-11.1762
▁water	-11.1762
▁سخت	-11.1766
▁ہواں	-11.1766
▁اپءَ	-11.1769
▁کساں	-11.1775
▁تتک	-11.1777
▁شاعرءِ	-11.1781
▁وسیم	-11.1782
▁ورگءَ	-11.1785
▁بیگل	-11.1787
▁دماگ	-11.179
▁کورس	-11.1791
‘‘,’’	-11.1793
▁تند	-11.1797
▁گوادرءَ	-11.1798
▁علاقے	-11.1801
▁شوکیں	-11.1803
▁ایراں	-11.1806
مل	-11.1807
▁ود	-11.1809
▁گیا۔	-11.181
سیمی	-11.181
▁راھبندانی	-11.181
▁حشکیں	-11.1811
▁گڈسرءَ	-11.1812
▁اسرے	-11.1813
▁دربرتگ	-11.1815
▁شاتکامی	-11.1818
▁پث	-11.182
▁یونس	-11.1821
▁گوشتن	-11.1822
▁اوشتیت	-11.1824
▁دکی	-11.1824
▁نگر	-11.1829
▁best	-11.1829
▁month	-11.1831
▁When	-11.1831
▁باقاعدہ	-11.1831
▁بستارءَ	-11.1837
▁All	-11.1837
▁publish	-11.1846
▁سروز	-11.1848
▁version	-11.1848
▁پیرزال	-11.1848
ness	-11.1849
▁باہوٹ	-11.1852
▁ات۔اے	-11.1852
درد	-11.1853
▁نزءَ	-11.1853
▁سمیر	-11.1856
نڈ	-11.1861
▁بکن۔	-11.1863
کنت۔	-11.1864
▁تجربگ	-11.1867
▁سیائیں	-11.1869
▁برت۔	-11.1869
چاگردی	-11.1871
▁چیزءِ	-11.1872
▁کڈک	-11.1876
▁پرنگی	-11.1877
جنین	-11.188
▁لیکہی	-11.1883
▁رودراتک	-11.1885
▁سپاھیگ	-11.1886
▁نین	-11.1888
اج	-11.1888
دین	-11.1892
▁اگہی	-11.1893
▁کیشنز	-11.1899
▁مستاگ	-11.19
▁گولہ	-11.1901
▁ئنت	-11.1904
▁دراھگ	-11.1905
▁بوتیں۔	-11.1907
▁بستہ	-11.1907
▁پلی	-11.191
حال	-11.1912
▁ملازم	-11.1915
▁بابل	-11.1916
▁local	-11.1919
▁عن	-11.192
▁دکانے	-11.1921
▁مردمانءِ	-11.1921
▁نابود	-11.1922
▁اختلاف	-11.1923
▁دژمناں	-11.1923
▁ھمت	-11.1927
▁National	-11.1928
▁اوستا	-11.1928
▁پگرءِ	-11.193
▁۔چہ	-11.1931
▁سندی	-11.1932
الی	-11.1933
▁ڪت	-11.1933
ض	-11.1937
چیزے	-11.1937
▁!!	-11.194
▁درہ	-11.1941
▁گالرد	-11.1943
▁باوجود	-11.1944
▁اتکگاں	-11.1955
▁نشتگاں	-11.1959
▁ملٹ	-11.1959
نان	-11.1963
▁اھدی	-11.1965
گوات	-11.1966
کانی	-11.1966
▁کدیر	-11.1968
▁چکی	-11.1971
▁nam	-11.1972
▁شکایت	-11.1978
▁واکاں	-11.1978
ma	-11.1979
▁جڑ	-11.1982
▁گامے	-11.1982
▁کدرت	-11.1984
▁There	-11.1985
نیم	-11.1985
▁بول	-11.1989
▁یگ	-11.1989
▁2009	-11.1992
▁طوفان	-11.1992
▁ھبراں	-11.1993
▁ڈنگ	-11.1994
▁کہتا	-11.1996
▁رچ	-11.1998
▁دربرجاہ	-11.2
▁کورءَ	-11.2
ch	-11.2001
▁چنڈے	-11.2001
▁سلکاری	-11.2005
▁بیلہ	-11.2008
▁2010	-11.2008
▁ناسر	-11.2009
▁وڈھ	-11.2009
پا	-11.2014
▁تحصیلدار	-11.2017
▁25	-11.2019
▁درویش	-11.2021
▁ادمءِ	-11.2021
▁کلان	-11.2021
ای	-11.2021
▁پنجگ	-11.2028
▁ہمراہیءَ	-11.2028
▁ماتانی	-11.2031
▁گولی	-11.2032
▁ھج	-11.2033
▁کڈ	-11.2034
▁کاسگ	-11.2037
▁تجارت	-11.2037
▁گا۔	-11.2038
▁ائر	-11.2038
▁گجر	-11.2043
▁۔بلئے	-11.2044
▁مزاری	-11.2046
▁way	-11.2048
مزن	-11.2055
▁2008	-11.2057
▁ھاوند	-11.2059
▁گلاس	-11.2059
▁مولد	-11.206
▁لیکہے	-11.2061
وئیں	-11.2061
▁سیف	-11.2061
▁راسک	-11.2069
▁رازی	-11.207
▁ناکام	-11.2073
▁دیکھا	-11.2073
▁بارکھان	-11.2074
▁جلسہ	-11.2077
▁گڈگ	-11.2081
▁درصد	-11.2084
▁میانجی	-11.209
▁جمہوری	-11.2091
▁اسٹیج	-11.2091
▁تیراں	-11.2093
راں	-11.2095
▁جھ	-11.2097
▁حالاں	-11.2099
شعر	-11.21
▁رستر	-11.2101
▁مشکلیں	-11.2101
▁حاضر	-11.2102
رانی	-11.2104
لوٹ	-11.2106
دپ	-11.2109
▁even	-11.2115
▁شھیدی	-11.2121
نوک	-11.2123
▁مدرسہ	-11.2125
▁رحمان	-11.2126
▁گالی	-11.2128
▁بیتگاں	-11.213
▁پروجیکٹ	-11.2136
▁انت۔۔	-11.2137
▁بوھان	-11.2138
▁side	-11.2141
ود	-11.2142
▁لیاقت	-11.2142
▁الگ	-11.2143
▁جاھمنند	-11.2143
مند	-11.2144
▁وشیاں	-11.2146
▁گالریچ	-11.2149
▁نیکراہ	-11.2149
▁شاھد	-11.2149
▁کنغ۔	-11.2149
وخ	-11.215
▁دیست۔	-11.2154
▁لالہ	-11.2155
▁جہاندپتر	-11.2156
گان	-11.2158
▁تجزیہ	-11.2159
▁کشا	-11.216
▁ڈگاراں	-11.2165
▁جنے	-11.2166
▁واشک	-11.2167
▁کورءِ	-11.2169
▁تواراں	-11.2173
▁اگرچہ	-11.2173
▁درپ	-11.2174
▁چری	-11.2176
▁تاس	-11.2177
ھیال	-11.2178
▁دوسد	-11.2182
▁زرکاری	-11.2188
▁برادری	-11.219
▁محل	-11.2191
▁نقطہ	-11.2192
فر	-11.2193
▁برزءَ	-11.2194
▁وانان	-11.2195
▁زہ	-11.2195
▁کریں	-11.2196
▁public	-11.2197
▁بوتگءُ	-11.22
▁پیغمبر	-11.2202
▁کروس	-11.2205
▁تنگی	-11.2206
▁استانی	-11.2207
▁شتگ۔	-11.221
▁ھالاں	-11.221
▁top	-11.2211
▁کدر	-11.2211
بدل	-11.2211
سہ	-11.2212
▁برنج	-11.2213
▁گریشگ	-11.2214
▁ہمود	-11.2218
▁ساوڑ	-11.2218
▁جوزگ	-11.2222
▁پشین	-11.2226
▁چاگی	-11.2227
▁مہکمیں	-11.2231
▁سیاستدان	-11.2232
▁واھگے	-11.2233
▁بندان	-11.2234
▁مانگ	-11.2234
▁ٹپانی	-11.2236
▁ہمدردی	-11.2236
▁روگا	-11.2237
▁شهید	-11.2237
شنگ	-11.2238
▁club	-11.2239
▁To	-11.2241
▁حالات	-11.2247
▁ٹوہیں	-11.2247
▁ترءُ	-11.2248
▁واپس	-11.226
▁ڈڈ	-11.2264
▁اپاں	-11.2264
▁دومیءَ	-11.2264
ou	-11.2269
▁ستار	-11.227
▁ہردو	-11.227
▁دینار	-11.2275
▁سربوت	-11.2275
▁ارجان	-11.2275
▁هو	-11.2277
▁سادہ	-11.2278
▁انتظامی	-11.2282
▁زانا	-11.2284
کرتگ	-11.2287
▁زمینءَ	-11.2289
کنوکیں	-11.229
▁شنز	-11.2291
▁گساں	-11.2292
▁لڈگ	-11.2295
▁شھم	-11.2301
▁نما	-11.2306
▁بلین	-11.2306
▁حبراں	-11.2307
▁برتانیہ	-11.2307
▁ڈولے	-11.2308
▁برواں	-11.2311
▁شرین	-11.2311
▁ابدمان	-11.2317
▁باران	-11.2318
برو	-11.2318
▁پردگ	-11.2318
▁اما	-11.2319
پیر	-11.232
▁اجبیں	-11.2321
▁h	-11.2321
لس	-11.2323
▁سواس	-11.2323
▁ملام	-11.2325
▁کیونکہ	-11.2326
▁شنگکار	-11.233
▁اسودگ	-11.233
▁ریچگ	-11.2332
▁اکسیجن	-11.2339
▁کردانی	-11.2344
▁امکان	-11.2344
▁بلوچیءِ	-11.2345
▁present	-11.2346
▁گزار	-11.2347
▁دیمے	-11.2347
▁حکومتی	-11.2347
▁بوئگا	-11.2348
▁لٹک	-11.235
▁مٹی	-11.2358
اتک	-11.2358
▁اژ	-11.2359
▁کران	-11.2359
ایشانی	-11.2362
▁ھانل	-11.2363
▁شاھین	-11.2365
▁دھ	-11.2365
▁اساپ	-11.2366
ہند	-11.2371
▁establish	-11.2372
گین	-11.2373
▁الرحمان	-11.2374
▁صورتءَ	-11.2384
▁جھدے	-11.2387
▁ٹاپ	-11.2388
▁سیکریٹری	-11.2389
▁ھرابیں	-11.239
▁بداریت	-11.2391
▁لهتے	-11.2391
▁یڪ	-11.2392
▁شناس	-11.2393
▁حقیقی	-11.2395
▁کاریز	-11.2398
▁جنگلے	-11.2403
▁پہلو	-11.2405
▁still	-11.2407
nd	-11.2417
▁لطیف	-11.2418
▁سرگرمی	-11.2422
▁گوشی	-11.2423
▁دومیگ	-11.2423
جہ	-11.2424
▁مستری	-11.2426
▁درائینت۔	-11.2426
▁گڈسرا	-11.2428
▁خانءَ	-11.2433
▁گوشدار	-11.2433
▁ہانی	-11.2434
▁گسءَ	-11.2438
▁اوکیں	-11.2438
کریم	-11.2441
▁اتا	-11.2448
▁کافکا	-11.2449
▁نفرت	-11.2452
دری	-11.2453
▁بئے۔	-11.2456
▁کامل	-11.2457
▁شادہ	-11.2458
▁ھید	-11.2458
▁دیوالانی	-11.2458
▁اشکر	-11.2461
▁ازیز	-11.2469
یش	-11.247
▁قال	-11.2472
▁کیل	-11.2474
▁led	-11.2476
▁career	-11.2476
▁۔۔۔۔۔۔	-11.248
▁وانگا	-11.248
ar	-11.2482
▁J	-11.2483
کنان	-11.2484
▁وانوکانی	-11.2484
▁شرگداریءِ	-11.2488
▁لوٹیں	-11.2488
▁پیداور	-11.2489
▁طاہر	-11.2489
▁امیتے	-11.249
▁چیدگی	-11.249
▁history	-11.2492
▁کتہ۔	-11.2492
▁منگچر	-11.2493
▁پرتو	-11.2493
مار	-11.2496
▁دیگا	-11.2505
پشت	-11.2505
▁common	-11.2509
▁نفسی	-11.2509
▁وانندگیں	-11.251
لہ	-11.2511
▁پیتی	-11.2512
▁چتگ	-11.2517
▁رژنائیں	-11.2519
▁قیمتی	-11.2523
▁گدارءِ	-11.2526
ism	-11.2529
▁کنر	-11.2531
▁خانءِ	-11.2537
ٹو	-11.2538
▁روئگ	-11.2539
▁گشیت۔	-11.2543
▁حج	-11.2544
▁اسپیکر	-11.2545
ئن	-11.2547
▁دیستگیں	-11.2548
▁یوک	-11.2554
▁feature	-11.2554
▁مردیں	-11.2555
▁کلیت	-11.2555
▁پھلی	-11.2559
▁اعتبار	-11.2559
▁ایسوسی	-11.2562
▁رمس	-11.2562
▁زندگاں	-11.2562
▁گوئر	-11.2563
▁شاگرد	-11.2563
▁old	-11.2566
▁بلیک	-11.2568
▁پیس	-11.2573
▁زمیندار	-11.2573
▁وسیں	-11.2574
▁شیک	-11.2574
▁بتی	-11.2574
▁رمزان	-11.2575
▁دوستے	-11.2576
uent	-11.2578
▁رپتار	-11.2578
▁غصہ	-11.2578
▁پاداتک	-11.2579
▁پدردی	-11.258
▁ادراک	-11.2582
▁دپا	-11.2583
▁اسرار	-11.2584
کیچ	-11.2586
▁ھردوک	-11.2587
▁لہڑگ	-11.2589
▁نازرک	-11.2591
▁لکیر	-11.2591
▁بیرگ	-11.2594
▁دربر	-11.2594
اتاں	-11.2595
دیوان	-11.2595
▁اگے	-11.2598
یار	-11.2601
▁اکسے	-11.2603
▁مہلہ	-11.2605
▁پگ	-11.2607
▁ورگی	-11.2609
▁حاجت	-11.261
▁زانگی	-11.2612
▁لوڈ	-11.2612
▁گنجائش	-11.2614
▁جال	-11.2614
▁ظالم	-11.2616
▁کزا	-11.2616
▁ایدگراں	-11.2617
چوکہ	-11.2622
▁ابدل	-11.2626
▁تبیں	-11.2626
فی	-11.2627
▁گمیگ	-11.2629
▁often	-11.263
▁زا	-11.2632
▁بیت۔۔۔	-11.2634
▁دلیری	-11.2635
▁100	-11.2637
ژ	-11.2647
▁جاگه	-11.2652
▁اریپیں	-11.2652
▁ڈھاڈر	-11.2652
▁سھیگ	-11.2653
▁ایشن	-11.2654
by	-11.2654
▁کانون	-11.2655
...............	-11.2657
▁ھردیں	-11.2658
▁مغل	-11.266
▁بیس	-11.2662
▁site	-11.2662
▁چکار	-11.2664
▁شائرانی	-11.2665
▁ھجبر	-11.2665
▁تہران	-11.2669
▁وڑی	-11.267
▁پوریاگر	-11.267
▁بلۆچانی	-11.2672
▁تگرانی	-11.2676
▁سرینت	-11.2678
▁گشیں	-11.2684
▁واناں	-11.2685
▁وتکش	-11.2686
▁حبرءَ	-11.2687
جوڑ	-11.2691
▁وڑےءَ	-11.2691
▁زباد	-11.2693
▁For	-11.2698
کیت	-11.27
ماھتاک	-11.2701
▁دارنت	-11.2701
▁سلسلہ	-11.2702
▁اسٹیٹس	-11.2702
▁ویکسین	-11.2704
▁ھبدہ	-11.2707
▁منظر	-11.2718
▁اسسٹنٹ	-11.2719
▁دوبارہ	-11.272
▁حدے	-11.2723
▁شریدار	-11.2724
▁شئیری	-11.2724
▁سھرا	-11.2726
گوشگ	-11.2727
▁پانگ	-11.2729
▁پنچیں	-11.273
▁انار	-11.2731
▁انہ	-11.2733
▁سکھت	-11.2735
▁کمزوری	-11.2737
▁چتو	-11.2739
▁سکتا	-11.2739
▁ایردست	-11.2739
▁بکننت	-11.2741
▁چیزءَ	-11.2743
ھان	-11.2745
▁درکپ	-11.2746
▁موش	-11.2749
▁ورزی	-11.2753
وھد	-11.2755
ران	-11.2757
▁مارکسی	-11.276
▁گشتے	-11.2766
▁رویں	-11.2766
▁یکےءَ	-11.2767
سو	-11.2769
▁help	-11.2769
▁few	-11.2769
▁قبرستان	-11.2772
▁جنیانی	-11.2775
▁ایات	-11.2775
وانگ	-11.2775
گیشتر	-11.2778
▁بیتاں	-11.2779
▁باث	-11.2783
company	-11.2786
▁منشیات	-11.2788
▁بنداتءَ	-11.2788
▁دوستانی	-11.2794
▁سجہیں	-11.2795
▁نثر	-11.2796
▁فل	-11.2796
▁ڈور	-11.2797
▁دورءُ	-11.2797
کدی	-11.2798
▁دیرءَ	-11.2798
▁لوغ	-11.2798
▁One	-11.2799
▁سحر	-11.2799
▁list	-11.28
▁جرنیل	-11.28
▁ھسابءَ	-11.2804
▁ہاسٹل	-11.2806
▁مهلوک	-11.2809
▁رج	-11.2811
▁جمب	-11.2814
▁وشتر	-11.2815
▁میرا	-11.2815
▁رسینت	-11.2817
▁رائے	-11.282
▁next	-11.2821
▁2007	-11.2821
▁کنئگی	-11.2827
▁شاہد	-11.2827
▁زراب	-11.283
▁جلیل	-11.2835
▁شاعریئ	-11.2836
▁ھدایت	-11.2836
▁arm	-11.284
▁کنین	-11.284
▁دستءِ	-11.284
▁ائولی	-11.2841
گوادر	-11.2848
▁دزاپ	-11.285
▁دستور	-11.2852
▁عبد	-11.2853
▁کارئے	-11.2857
▁زانتے	-11.2858
▁زنداناں	-11.2859
▁رچگ	-11.2861
▁نئی	-11.2861
▁چنال	-11.2862
▁دیش	-11.2862
یان	-11.2864
▁دشتار	-11.2864
▁دیئگ	-11.2866
▁اخبار	-11.2874
▁سلیں	-11.2874
▁طاقتور	-11.2877
▁لائک	-11.2878
▁سین	-11.2879
ڈن	-11.2879
سیاسی	-11.2887
▁ہاؤس	-11.2891
▁کینگی	-11.2891
▁بگندات	-11.2891
▁English	-11.2892
▁ٹوئٹر	-11.2893
وف	-11.2894
▁مخلوق	-11.2895
▁مہم	-11.2895
▁building	-11.2896
▁کرتاں	-11.2898
▁لگور	-11.2907
▁پمے	-11.2909
▁ایی	-11.291
▁دوستیگیں	-11.2911
▁کوھنگیں	-11.2915
▁جرگہ	-11.2915
▁رھبنداں	-11.2915
▁وانگءِ	-11.2915
▁حرف	-11.2917
▁لینن	-11.2917
▁پرکار	-11.2921
▁کسہے	-11.2925
▁رئیسانی	-11.2925
▁انتظار	-11.2926
لٹ	-11.2927
▁کنائین	-11.2928
▁ھاسٹل	-11.2928
▁French	-11.2929
▁ہمیں	-11.293
▁درملک	-11.2931
▁سرکنگ	-11.2932
▁نگرانی	-11.2935
▁مگ	-11.2939
▁وتیگ	-11.2943
▁man	-11.2946
▁similar	-11.2946
▁دامگ	-11.2947
▁عیسائی	-11.2949
▁اسرمند	-11.2949
▁فکرءُ	-11.295
▁درستی	-11.2952
▁بادشاھی	-11.2953
▁دودمانی	-11.2953
نیست	-11.2954
▁fire	-11.2956
▁بم	-11.2958
▁پکری	-11.2958
▁پانچ	-11.296
▁ھبکہ	-11.2961
▁دیکھ	-11.2961
??	-11.2969
▁زاهدان	-11.2973
▁ھرابی	-11.2973
▁لوڑ	-11.2974
زہ	-11.2976
▁اجکہ	-11.2978
پچ	-11.2979
ئین	-11.298
▁بریگیڈ	-11.2982
▁داکٹر	-11.2982
▁الکاپ	-11.2985
▁نصیحت	-11.2985
▁pass	-11.2985
▁right	-11.2986
▁خلیج	-11.2986
▁باپار	-11.2988
▁پتءِ	-11.2989
▁ایرانءَ	-11.2989
▁پیرمرد	-11.2992
▁متعلق	-11.2992
▁چرت	-11.2993
▁مھرنگ	-11.2993
▁دیستگ۔	-11.2994
▁کؤر	-11.2994
▁زانتءُ	-11.2998
▁درھیں	-11.3
▁وومن	-11.3
▁اک	-11.3001
▁بروبری	-11.3003
▁نئیت۔	-11.3011
▁مادر	-11.3014
▁سدک	-11.3015
▁حالتاک	-11.3017
غی	-11.3018
سرجمیں	-11.3019
▁سوزیں	-11.302
▁بعض	-11.302
▁برزا	-11.3023
▁وفات	-11.3024
ڑو	-11.303
جت	-11.3031
▁انو	-11.3038
▁ٹکے	-11.3038
▁ازاب	-11.3038
▁حیرانی	-11.3042
▁مرچیگ	-11.3042
▁دھا	-11.3048
▁گوشتہ	-11.3049
▁ساحلی	-11.3049
▁گلءِ	-11.3051
▁یلیں	-11.3052
نیمگ	-11.3052
▁بلوٹ	-11.3053
▁ھاجی	-11.3057
▁ہچی	-11.3058
▁اشکار	-11.3059
▁رہشوناں	-11.306
▁سباہ	-11.3061
▁ہڈ	-11.3064
شتگ	-11.3064
▁سیوی	-11.3068
▁بیمناکیں	-11.3072
▁سنگھ	-11.3079
▁درنیامءَ	-11.3079
لیں	-11.308
▁کٹگ	-11.3081
راستی	-11.3082
▁دروشماں	-11.3085
▁ردیت	-11.3086
ایوک	-11.3088
▁تلب	-11.309
▁چولانی	-11.309
▁دوراں	-11.3093
▁حامد	-11.3095
▁پرو	-11.3096
▁ڈاک	-11.31
▁یاسین	-11.3104
یس	-11.3105
▁power	-11.3106
▁دریائی	-11.3107
▁claim	-11.3108
▁دباؤ	-11.3108
▁سلاح	-11.311
▁اکثر	-11.3112
▁produc	-11.3112
▁عاقبت	-11.3115
held	-11.3117
▁انچین	-11.312
▁واکی	-11.3121
▁مانش	-11.3121
▁گوشانی	-11.3123
▁کھڈ	-11.3124
گش	-11.3126
▁رفتار	-11.3126
▁پشمبے	-11.3128
مال	-11.3131
▁پاکستانءَ	-11.3132
▁سرئے	-11.3133
ical	-11.3133
▁مہار	-11.3134
▁اثار	-11.3135
▁محبوبہ	-11.3135
غا	-11.3138
▁عاقل	-11.314
▁عبدال	-11.3141
▁مہے	-11.3141
▁میانءَ	-11.3141
▁گلا	-11.3141
▁پسءِ	-11.3142
▁ملگ	-11.3145
▁حالی	-11.3149
▁اجوئیں	-11.3155
▁ٹٹ	-11.3155
▁سرکارءَ	-11.3155
▁came	-11.3157
▁بێگواه	-11.3158
▁تاپ	-11.3161
▁مرادانی	-11.3162
▁دئیان	-11.3163
▁قصہانی	-11.3164
▁تہرانی	-11.3167
▁روچان	-11.3171
▁turn	-11.3177
▁With	-11.3182
▁دیوتا	-11.3182
▁عامر	-11.3185
ھدا	-11.3186
ous	-11.319
پور	-11.3192
▁پہناتانی	-11.3192
مست	-11.3193
▁جہلانکی	-11.3198
▁نێست	-11.3203
▁لم	-11.3205
▁کورے	-11.3207
▁وانین	-11.3207
▁بالکل	-11.3208
▁جیڑھ	-11.3209
▁نپر	-11.321
▁writ	-11.321
▁کسہی	-11.3211
▁واتری	-11.3213
▁رحمن	-11.3213
▁لانگو	-11.3214
▁ھیک	-11.3215
▁بکرتیں	-11.3216
▁سماج	-11.3217
▁بیستمی	-11.3217
▁seven	-11.3218
▁کبزہ	-11.3219
▁بارہءَ	-11.322
▁جاورال	-11.3224
▁مکر	-11.3224
▁دانش	-11.3228
▁per	-11.323
▁کدہ	-11.3231
▁بندہ	-11.3233
▁ھاکمی	-11.3233
بنی	-11.3237
▁چارئے	-11.324
▁رتکگ	-11.3247
▁مئیگ	-11.3248
▁هون	-11.3248
▁you	-11.3253
▁لنجیں	-11.3254
▁level	-11.3254
▁کمانڈر	-11.3255
▁جاہمنند	-11.3255
▁تصویر	-11.3255
re	-11.3259
▁ایردستی	-11.326
▁واقعات	-11.3267
▁ھالو	-11.3268
▁جلدی	-11.3273
▁باپ	-11.328
▁کارجاہ	-11.328
▁ھاٹیگ	-11.3281
▁تبے	-11.3281
▁سدلی	-11.3286
▁نرمی	-11.3288
▁half	-11.3295
▁شرک	-11.3299
▁امب	-11.3301
▁سریگ	-11.3302
▁بساک	-11.3305
▁بیک	-11.3306
▁نانکہ	-11.3308
▁موٹل	-11.3308
▁نیلیں	-11.332
▁کاکڑ	-11.3323
▁پہلوان	-11.3331
ؤں	-11.3333
▁تریاک	-11.3334
▁ماری	-11.3336
▁ژ	-11.3338
▁نشار	-11.3339
▁songs	-11.3339
ی۔	-11.334
▁ادماں	-11.334
▁زہم	-11.3342
▁Division	-11.3347
▁نیب	-11.3349
▁former	-11.335
▁ودارءَ	-11.3351
▁سوڑگ	-11.3351
▁زالے	-11.3351
▁بوتگانت	-11.3351
▁مسجد	-11.3351
▁عبدالصمد	-11.3352
یز	-11.3352
▁ولے	-11.336
▁contain	-11.3361
▁سلاہاں	-11.3362
دیر	-11.3365
رس	-11.3365
▁زمانے	-11.3366
▁جما	-11.3366
▁اسلءَ	-11.3367
▁دیوانگ	-11.3368
▁نسیر	-11.3368
▁درین	-11.3369
▁کچل	-11.337
▁نگیگی	-11.3372
مبارک	-11.3375
▁رجینتگیں	-11.3376
▁ات۔بلے	-11.3376
▁ایٹم	-11.3376
▁یمن	-11.3376
▁نئیں	-11.3379
▁داؤد	-11.3379
3	-11.338
▁سرئ	-11.338
▁کہدہ	-11.3381
▁جوزہ	-11.3383
spite	-11.3384
▁متھدہ	-11.3386
▁سامراج	-11.3386
بان	-11.3387
باں	-11.3391
▁کرکٹ	-11.3393
▁بچارئے	-11.3395
▁کیپ	-11.3396
▁سہبءَ	-11.3396
▁ٹرانسپورٹ	-11.3397
▁State	-11.3398
▁though	-11.34
▁دئینت۔	-11.3401
▁یکوئی	-11.3402
▁among	-11.3403
▁total	-11.3403
▁ہمیشانی	-11.3405
▁دانا	-11.3406
▁رجینتگ	-11.3406
▁وانگجاھاں	-11.3406
▁تشے	-11.3407
▁رکگ	-11.3407
سنگ	-11.3407
▁مناسب	-11.341
▁صنف	-11.3411
▁جنجالے	-11.3412
▁گرنت	-11.3415
▁گردان	-11.3417
▁للہ	-11.3418
▁مسکیں	-11.3421
▁چاروک	-11.3422
اتگ	-11.3422
▁شتگیں	-11.3427
▁پھریزگ	-11.3429
▁full	-11.3429
▁پهک	-11.3433
▁جنوزام	-11.3434
▁داوا	-11.3434
▁دژمنانی	-11.3435
▁ھورک	-11.3436
▁لوگواجہ	-11.3437
لک	-11.3437
▁تحصیل	-11.3441
▁church	-11.3441
ھوں	-11.3442
یلہ	-11.3442
▁میوزک	-11.3444
▁حاطرا	-11.3445
پمشکہ	-11.3447
▁ٹیچر	-11.3448
▁هیال	-11.3458
▁اورماڑہ	-11.3461
▁بمبے	-11.3463
مین	-11.3465
▁دینے	-11.3466
▁درتکگ	-11.3467
▁کوہءِ	-11.3469
▁ھچی	-11.347
▁رجانکی	-11.347
▁شف	-11.347
۔منی	-11.347
شاد	-11.3471
▁بلوچان	-11.3472
▁ضد	-11.3474
▁واراں	-11.3475
▁ببیت۔	-11.3476
▁ترونگل	-11.3476
▁اوتھل	-11.3479
▁want	-11.348
▁برطانوی	-11.348
▁ازمءِ	-11.3483
▁ھمراھداری	-11.3483
▁قبل	-11.3485
▁field	-11.3488
▁دیگءِ	-11.3493
▁تھسیل	-11.3497
▁المیہ	-11.3499
▁ھؤ	-11.3501
▁ھاندان	-11.3501
▁چارشمبے	-11.3502
▁مادہ	-11.3504
▁منطق	-11.3507
▁پدرد	-11.351
▁زالم	-11.3513
▁ٹور	-11.3515
▁جملہ	-11.3515
▁جبکہ	-11.3516
▁مسیح	-11.3517
▁اربی	-11.3519
▁سرفراز	-11.3519
▁مھروانیں	-11.3522
▁شہہ	-11.3525
شا	-11.3528
▁درءَ	-11.3531
▁ساچشتانی	-11.3538
▁دیدگانی	-11.3541
▁ادارانی	-11.3542
▁زتک	-11.3543
▁اسرا	-11.3543
ether	-11.3544
▁قبائل	-11.3546
▁قہر	-11.3549
▁شعیب	-11.3554
▁production	-11.3554
▁سدو	-11.3557
لبز	-11.3558
▁روحانی	-11.3561
▁گندی	-11.3563
کٹ	-11.3563
▁هلاس	-11.3564
▁ارپ	-11.357
▁تحریر	-11.357
▁حالکار	-11.357
▁سدی	-11.3573
▁امیتانی	-11.3574
▁پرویز	-11.3578
ایں	-11.3579
▁امداد	-11.3581
▁شمال	-11.3587
▁کندان	-11.3587
▁کشگا	-11.3588
▁خانگ	-11.3589
▁درو	-11.359
جنک	-11.359
▁ارگنائزیشن	-11.3592
چیا	-11.3593
▁گندے	-11.3598
▁suggest	-11.3603
▁محبوب	-11.3605
▁اث	-11.3605
▁بیگءَ	-11.3607
▁جج	-11.3609
▁رنگےءَ	-11.361
▁population	-11.3611
ين	-11.3613
▁محتاج	-11.3613
▁مجن	-11.3614
▁شہراں	-11.3616
▁مہربان	-11.3617
▁اندام	-11.3619
▁ماحولیاتی	-11.362
▁ھئور	-11.362
▁وفاقی	-11.3622
▁رھشوناں	-11.3624
▁گاڈی	-11.3624
▁چیزئے	-11.3626
▁review	-11.3627
▁تنا	-11.3628
▁ملائی	-11.363
▁اپانی	-11.3634
▁سچ	-11.3637
ہانی	-11.3652
▁قاتل	-11.3653
▁پادان	-11.3656
▁زو	-11.3662
تن	-11.3664
▁نوخیں	-11.3666
▁باطن	-11.3667
▁مسائل	-11.367
▁ٹیک	-11.3673
▁جبری	-11.3674
▁انجام	-11.3675
▁پوری	-11.3675
▁ھرکسی	-11.3675
▁ترسگ	-11.3676
▁چارئگ	-11.3678
انچیں	-11.3682
ٹا	-11.3682
▁چونکہ	-11.3683
▁further	-11.3688
▁وارتگیں	-11.3688
▁گیران	-11.3691
▁کوریا	-11.3691
▁لنک	-11.3695
▁ڈیھاں	-11.3695
ابید	-11.3699
▁ازمانکاری	-11.3705
▁شاہوانی	-11.3706
چیاکہ	-11.3707
▁2011	-11.3707
▁پشاور	-11.3708
▁پراموش	-11.371
▁دلوتانی	-11.3712
▁گنتر	-11.3714
▁ینگ	-11.3714
▁الحق	-11.3714
▁یلو	-11.3718
▁اسرائیلی	-11.3719
▁نشت۔	-11.3728
▁جناح	-11.3729
▁زرتگیں	-11.3729
▁اچار	-11.3729
▁تراکانی	-11.373
▁اومر	-11.3733
▁پچے	-11.3734
▁different	-11.3736
▁نباں	-11.3739
▁نوشتانک	-11.374
▁مستیں	-11.3741
▁گیشوار	-11.3745
▁نیلگ	-11.3746
▁ایئر	-11.3746
▁ڈیوٹی	-11.3746
▁چندر	-11.3746
▁add	-11.3747
▁گواہی	-11.3748
▁ببا	-11.3751
▁تماہ	-11.3753
▁ابدی	-11.3753
▁چکاسگ	-11.3753
▁اسم	-11.3753
▁لسانی	-11.3763
▁حسنی	-11.3764
وشی	-11.3764
▁نوداں	-11.3764
▁تگرد	-11.3765
▁ریکوڈک	-11.3766
▁نوید	-11.3767
▁اوشتوکیں	-11.3778
▁ششتگ	-11.3779
▁مہرءِ	-11.378
ارش	-11.3782
▁سنگینی	-11.3783
▁۔یک	-11.3783
چل	-11.3784
▁According	-11.3784
▁2006	-11.3784
▁بمبگواری	-11.3785
کارے	-11.3787
ایے	-11.3791
▁جنگءُ	-11.3793
۔ائی	-11.3795
▁لد	-11.3796
▁track	-11.3799
▁close	-11.3801
▁بها	-11.3803
▁درنگاز	-11.3803
▁ي	-11.3804
▁Church	-11.3804
ئنت	-11.3804
▁change	-11.3805
▁strong	-11.3806
▁نزدیک	-11.3809
▁دفتر	-11.3811
▁اپسوز	-11.3812
▁چھو	-11.3813
▁run	-11.3819
▁سپا	-11.382
زاناں	-11.3821
▁چانگ	-11.3822
▁سائٹ	-11.3825
▁بارڈر	-11.3825
▁مجیب	-11.3829
▁نادراہجاہ	-11.383
بتل	-11.3837
▁فہم	-11.3838
▁عاصم	-11.3839
▁طبی	-11.3846
▁مشینری	-11.3848
▁پیکر	-11.385
▁تریت	-11.3856
▁سینیٹر	-11.3857
▁دیتے	-11.3857
▁وحید	-11.3858
ایی	-11.3859
▁خط	-11.3859
▁ڈسٹرکٹ	-11.3863
▁پرشگ	-11.3866
▁مارات	-11.3867
▁گونگ	-11.3867
گشگ	-11.3868
▁جہلیں	-11.3872
▁رکھا	-11.3876
▁قاصد	-11.3877
پاد	-11.3878
▁تواریں	-11.3878
▁برءَ	-11.3881
▁گرا	-11.3882
ant	-11.3882
▁Re	-11.3883
▁مغرب	-11.3883
▁گروہ	-11.3886
ایران	-11.3888
▁days	-11.3888
▁گوشگءَ	-11.3891
▁میک	-11.3892
▁روشنی	-11.3894
▁دمبرتگ	-11.3895
▁بادگیر	-11.3899
▁ہاک	-11.39
زان	-11.3901
▁militar	-11.3902
▁ابی	-11.3908
▁زیم	-11.3908
▁جنکیں	-11.3908
▁عنہ	-11.391
▁نفر	-11.3916
گوستگیں	-11.3916
جر	-11.3919
▁ھورکیں	-11.392
▁بالاں	-11.3923
پان	-11.3925
▁بائی	-11.3927
▁دانی	-11.3928
▁اولسر	-11.3931
▁رام	-11.3935
▁مرگی	-11.3937
▁official	-11.3941
▁particular	-11.3941
▁ٹکٹ	-11.3941
▁حس	-11.3942
▁ابوبکر	-11.3943
▁بندیک	-11.3946
▁اشارگ	-11.3952
▁پارست	-11.3953
▁کارکنوکیں	-11.3954
اریں	-11.3954
▁مانزمان	-11.3956
▁بنگلزئی	-11.3961
▁منزلے	-11.3962
لبزانکی	-11.397
▁بدواہ	-11.3973
ڈو	-11.3974
▁لیکہاں	-11.3974
▁میرین	-11.3976
▁کماشاں	-11.3977
▁مذھب	-11.3977
الم	-11.3979
▁بوتگ۔اے	-11.3981
▁نجیب	-11.3982
ودی	-11.3983
▁اناگاہ	-11.3985
▁رخ	-11.3987
▁ندارگاں	-11.3993
▁گزران	-11.3993
▁قمبر	-11.3994
▁ٹولیانی	-11.3997
▁پاہو	-11.4
▁جھلی	-11.4002
▁بناربس	-11.4007
▁مچھ	-11.4007
▁کال	-11.4012
▁دستبندی	-11.4014
▁شاباش	-11.4014
▁رہشونی	-11.4018
▁ترز	-11.4018
▁ولد	-11.4019
▁سوشلسٹ	-11.4019
▁ریز	-11.4021
▁باند	-11.4022
▁موم	-11.4023
▁تعداد	-11.4024
▁گمراہ	-11.4025
▁شفیع	-11.4025
▁گوریچ	-11.4027
▁توشگ	-11.4027
▁شانتل	-11.4028
▁کلہ	-11.4039
ساحر	-11.404
▁human	-11.404
▁باشد	-11.4047
▁درستان	-11.4047
▁کنگء	-11.4048
▁بودناکی	-11.4048
▁شئرانی	-11.4053
▁تیری	-11.4055
▁ورنائے	-11.4059
▁روچتاک	-11.4061
▁ساھدار	-11.4062
▁ھرجاہ	-11.4063
▁بندگی	-11.4067
▁بھیسہ	-11.4071
▁ہلاسی	-11.4072
▁دئیگی	-11.4073
▁scor	-11.4075
پنچ	-11.4078
▁پہناتاں	-11.4078
▁راجکاری	-11.4079
▁کنگے	-11.408
▁ردان	-11.4084
▁گیریں	-11.4087
▁درمانی	-11.4088
▁سرداراں	-11.4088
▁گبار	-11.4089
دوئیں	-11.4091
▁زربار	-11.4093
▁منہ	-11.4093
سری	-11.4097
▁مارت	-11.4099
▁گالوارے	-11.4106
▁unit	-11.4106
▁کارگال	-11.4107
سور	-11.4109
▁ہزارانی	-11.411
گند	-11.4111
▁فارس	-11.4112
▁اگبالانی	-11.4114
▁):	-11.4116
▁وابیں	-11.4117
▁بشام	-11.4117
▁دیبا	-11.4118
▁رسائی	-11.4118
▁گیشینت	-11.4119
▁نشتاں	-11.4119
▁League	-11.412
▁ٹریفک	-11.412
تین	-11.4123
▁انگلش	-11.4124
▁وادی	-11.4124
▁every	-11.4124
جگ	-11.4124
▁ورناھانی	-11.4127
▁رکینت	-11.4129
▁جانور	-11.4129
▁گوشتانک	-11.4129
▁یاداشت	-11.413
ley	-11.4136
▁ماپ	-11.4136
▁increase	-11.414
▁ورزش	-11.414
استاد	-11.4141
ناک	-11.4142
میان	-11.4143
▁ریگستان	-11.4143
▁پہنچ	-11.4145
▁کیشن	-11.4145
▁تنیگ	-11.4147
▁خیرات	-11.4148
▁نامینگ	-11.4148
▁سخی	-11.415
▁هک	-11.415
▁نزانتگ	-11.4152
▁انساناں	-11.4154
▁برگی	-11.4155
N	-11.4155
▁دکاندار	-11.4155
▁ملار	-11.4156
▁سوتکگ	-11.4158
▁ات۔۔	-11.4158
کھ	-11.4159
▁پگرے	-11.4159
▁کمیونزم	-11.4161
▁عبدالمالک	-11.4162
▁ہورت	-11.4163
▁واہگانی	-11.4164
▁control	-11.4165
▁چریشیءَ	-11.4167
▁وانشت	-11.4168
▁گدانی	-11.4169
▁تضاد	-11.417
:’’	-11.417
▁ٹیل	-11.4175
▁بدر	-11.4182
ئر	-11.4183
▁دنیائی	-11.4183
▁کری	-11.4187
▁ہرچیز	-11.4187
▁السلام	-11.4188
▁عیش	-11.4189
▁مجاں	-11.419
▁امانت	-11.4196
▁دزبمب	-11.4198
▁لاشے	-11.4198
▁مراں	-11.4203
▁شدکش	-11.4207
▁real	-11.4207
▁سیاستءِ	-11.4212
ھمک	-11.4213
▁وتکاریں	-11.4216
▁بجنت	-11.422
▁دورانی	-11.4223
▁گێشتر	-11.4227
وچ	-11.4228
▁پاکستانء	-11.4229
لگ	-11.4232
▁استین	-11.4236
▁بلوچءَ	-11.4238
ebru	-11.4239
▁ناسرپد	-11.424
▁منیرءِ	-11.4242
▁دارگءِ	-11.4246
▁ہمیشہ	-11.4247
▁بوته	-11.4251
▁تولگ	-11.4252
▁ترسناک	-11.4252
▁گریبی	-11.4254
▁ریا	-11.4257
▁تؤ	-11.4257
▁شه	-11.4259
▁استالاں	-11.426
▁service	-11.4262
▁کێنگ	-11.4262
▁finish	-11.4263
▁جمڑی	-11.4264
▁گورے	-11.4265
▁قلمکار	-11.4269
▁مڈیاں	-11.4271
▁کرنچ	-11.4273
▁چندن	-11.4273
▁caus	-11.4275
▁مہراں	-11.4276
▁we	-11.4277
▁عادل	-11.4278
▁واریاں	-11.4279
▁لوک	-11.428
▁شہدگ	-11.428
▁گنبد	-11.4283
▁کامیو	-11.4283
▁story	-11.4285
▁راستیءِ	-11.4286
▁لیس	-11.4286
▁kill	-11.429
ہیں	-11.43
▁اسٹال	-11.4302
▁اتھارٹی	-11.4303
gave	-11.4304
▁تہل	-11.4304
▁عیسی	-11.4305
مدام	-11.4306
ian	-11.4308
▁ھیالءَ	-11.4309
▁ٹن	-11.431
▁دروگے	-11.4312
▁ڈر	-11.4312
▁ھندے	-11.4313
سار	-11.4313
▁صلاحیت	-11.4314
▁چلی	-11.4318
▁بوتگنت۔	-11.4318
▁ہردیں	-11.432
▁زورگری	-11.4322
▁کوچگی	-11.4323
▁project	-11.4323
▁defeat	-11.4323
▁پرمات	-11.4324
اسلام	-11.4325
▁شاعریءَ	-11.4326
▁محکمیں	-11.4327
▁جاورے	-11.4329
▁چرگ	-11.4331
▁دلکش	-11.4331
ance	-11.4332
▁سرو	-11.4336
▁شاھو	-11.4336
▁ملکا	-11.4336
▁۔منی	-11.4339
گدار	-11.4344
▁رھشونانی	-11.4347
▁ماحل	-11.4351
▁عملے	-11.4352
▁پیمے	-11.4352
▁دیوانءِ	-11.4352
▁اوور	-11.4353
▁معنایے	-11.4353
▁تکہ	-11.4355
▁‘‘(	-11.4356
▁ماہے	-11.4358
▁مہرک	-11.4359
واری	-11.4362
stead	-11.4363
▁Song	-11.4363
▁ناجوڑ	-11.4363
▁شیری	-11.4363
▁Dylan	-11.4364
▁پھنات	-11.4365
▁رائٹس	-11.4367
▁بلیدی	-11.4368
▁گنت	-11.437
سرپد	-11.4374
▁کچھی	-11.4375
▁reported	-11.4376
▁بیگہ	-11.4376
▁سندگ	-11.4377
▁بلوچستانء	-11.438
▁چلگ	-11.438
▁وٹ	-11.4381
▁cover	-11.4382
▁ایگی	-11.4383
▁اسٹریلیا	-11.4386
▁دروغ	-11.4388
▁دمگدار	-11.439
▁کنانءَ	-11.4391
▁کنوکے	-11.4397
▁دستونکئ	-11.44
▁انچ	-11.4403
▁کلاہ	-11.4405
▁بنگال	-11.4405
▁گفتار	-11.4408
اسر	-11.4408
▁ترانگاں	-11.4413
ده	-11.4413
▁فلسطین	-11.4414
▁21	-11.4415
▁دف	-11.4415
▁چنانچہ	-11.4415
▁کلاسیک	-11.4415
▁سھریں	-11.4416
▁.....	-11.4416
▁اسپین	-11.4418
▁شکلیں	-11.4419
▁نئیل	-11.4421
▁جسے	-11.4421
▁صوت	-11.4425
▁حفاظت	-11.4425
▁میڑہ	-11.4427
▁ویروس	-11.4427
▁ڈاؤن	-11.4427
▁شادان	-11.4428
▁سرون	-11.4428
▁ھیرو	-11.4429
▁گنوکیں	-11.443
▁عہدءِ	-11.443
ورگ	-11.4433
▁مع	-11.4434
▁مولا	-11.4436
▁درچکاں	-11.4437
▁نازءِ	-11.4438
▁کامران	-11.4439
ne	-11.4441
▁land	-11.4441
▁معتبر	-11.4445
▁زرانی	-11.4445
▁ٹپاں	-11.4447
moved	-11.4447
▁علاقوں	-11.4448
▁ٹائم	-11.445
▁لرزگ	-11.445
▁بیثہ	-11.4451
▁بیائے	-11.4451
▁منظم	-11.4452
▁نیو	-11.4454
▁بیئگ	-11.4456
▁دردناکیں	-11.4458
▁جیڑہاں	-11.446
▁جیڑھاں	-11.4461
▁east	-11.4461
▁سامی	-11.4464
▁بیگی	-11.4464
ڑا	-11.4465
▁کراس	-11.4466
▁کوہاں	-11.4466
▁دارانت	-11.4467
▁مھم	-11.4468
▁زہرگ	-11.4472
D	-11.4476
▁صباء	-11.448
▁پیرس	-11.4483
▁ماوتی	-11.4483
ڈر	-11.4483
▁عطاء	-11.4487
▁فورم	-11.4488
شال	-11.4488
▁کشتہ	-11.4488
▁2012	-11.4489
▁اتراپ	-11.4494
▁بازارءِ	-11.4495
▁پہکیں	-11.4495
اتکگ	-11.4495
▁گرے	-11.4496
▁تہت	-11.4496
بیل	-11.4497
▁ثناء	-11.4498
▁مرتگ۔	-11.4499
▁دلجان	-11.45
▁اداراں	-11.45
▁سوبا	-11.4503
▁اوانءِ	-11.4505
▁پنوں	-11.4509
▁کارپد	-11.451
یوں	-11.4512
▁منندیں	-11.4513
▁پیوست	-11.4514
▁جمھوری	-11.4515
▁بنام	-11.4516
▁ممبر	-11.4516
▁تخلیقی	-11.4518
▁air	-11.4522
▁ترانت	-11.4522
▁کسو	-11.4523
▁چوگان	-11.4526
▁رنگا	-11.4529
▁بزانتیں	-11.453
▁لشکرے	-11.4531
▁رون	-11.4531
▁استادے	-11.4531
▁برگیڈ	-11.4533
▁ازیت	-11.4534
▁match	-11.4536
▁گيئشتر	-11.4537
▁ہست۔	-11.4539
▁لوٹنت	-11.4539
▁رنجاں	-11.454
▁body	-11.4541
▁تنیگہ	-11.4541
▁ادارے	-11.4546
▁ملکیت	-11.4547
وانی	-11.4549
▁انگریزاں	-11.4549
▁۔اگاں	-11.4549
▁ائیگ	-11.455
▁کنگ۔	-11.4552
▁low	-11.4557
▁فراز	-11.4558
▁دروشمیں	-11.4559
۔۔۔۔۔۔۔	-11.456
▁ندارگے	-11.4562
ally	-11.4563
▁حداءَ	-11.4564
▁شرح	-11.4567
▁چاراتگ	-11.4569
▁مجاہد	-11.4571
▁راھاں	-11.4572
▁جندے	-11.4572
▁سئید	-11.4574
▁سماہ	-11.4574
▁مہلنج	-11.4576
▁تچوکیں	-11.458
▁بکناں۔	-11.4582
▁کنت۔۔۔	-11.4583
پرچے	-11.4584
▁کسا	-11.4584
▁ببو	-11.4587
▁مولم	-11.4588
▁کمپان	-11.4591
▁وارڈ	-11.4592
▁توانا	-11.4593
▁پدرائی	-11.4593
▁شاعرءُ	-11.4595
▁یونائیٹڈ	-11.4596
▁گؤں	-11.4599
▁دیوانا	-11.4602
▁مانی	-11.4604
▁بلوچانءِ	-11.4605
▁لیکو	-11.4615
▁خو	-11.4615
▁چھوڑ	-11.4616
▁انچوکہ	-11.4618
▁لوٹے	-11.4619
▁ھمروچیگیں	-11.462
▁لاگر	-11.462
▁نذر	-11.4621
نگی	-11.4622
▁حوالے	-11.4624
اوتی	-11.4626
▁درنجگ	-11.4627
▁کرو	-11.4628
▁جیڑیت	-11.463
▁کچہ	-11.463
▁Arm	-11.4632
▁بروک	-11.4632
▁کردہ	-11.4633
▁ڈیہ	-11.4633
▁پنڈگ	-11.4633
▁دیستہ	-11.4634
▁tropic	-11.4634
▁مریض	-11.4635
▁نسب	-11.4636
▁ذرائع	-11.4641
▁قریشی	-11.4644
▁بوتوں	-11.4647
ادی	-11.4651
▁لوٹائینتگ	-11.4653
دم	-11.4654
▁لانچر	-11.4655
▁پرا	-11.4655
▁General	-11.4657
▁لھم	-11.4658
▁راہءُ	-11.4658
▁۔ءُ	-11.4664
راجی	-11.4664
▁گوربام	-11.4664
▁سوبمندیں	-11.4665
▁کته	-11.4666
▁ھمساھگ	-11.4668
▁لاگریں	-11.4668
▁پڑاں	-11.4677
▁نازاں	-11.4677
▁نکس	-11.4683
▁دکتر	-11.4685
▁ننک	-11.4687
▁تہلیں	-11.4688
▁ڈھل	-11.4688
▁ترکیب	-11.4697
شے	-11.4697
انگت	-11.4698
شھلچہ	-11.4698
▁گپی	-11.4699
▁بخاری	-11.4699
▁کلانچ	-11.47
▁ٹہک	-11.4701
▁پراں	-11.4701
▁چداں	-11.4702
▁تامربند	-11.4703
▁ٹرمپ	-11.4705
▁شگل	-11.4707
▁جذبات	-11.4709
▁ھوشام	-11.4709
وخیں	-11.4712
▁ٹکی	-11.4712
اشانی	-11.4714
▁کرناں	-11.4715
▁لوچ	-11.4718
▁بکشاتگ	-11.4722
▁سمندری	-11.4725
▁لوٹائینت	-11.4727
ائین	-11.4729
اگ	-11.473
▁چنڈگ	-11.473
da	-11.4732
وگ	-11.4736
▁ڈاکٹرے	-11.4737
▁گولے	-11.4737
▁23	-11.4739
▁گنی	-11.474
▁house	-11.4741
▁چاریگی	-11.4741
▁ڈویژن	-11.4742
بگ	-11.4746
▁مش	-11.4748
▁hav	-11.4749
▁پیرو	-11.4749
▁region	-11.4749
▁طائر	-11.4749
▁بدیاں	-11.4751
▁critic	-11.4752
▁رہبنداں	-11.4756
▁همیش	-11.4757
اراں	-11.4757
▁پشتا	-11.4761
▁Japan	-11.4764
▁اوژناگ	-11.4764
▁سیا	-11.4764
▁لیپ	-11.4766
▁پہلوی	-11.4766
▁برائے	-11.4769
▁حالگش	-11.4769
▁مرغ	-11.4771
▁برد	-11.4772
▁کشوک	-11.4776
▁وتواجھی	-11.4777
▁فیکٹری	-11.4777
وال	-11.4777
میتگ	-11.4777
▁کارکرد	-11.4777
▁دیمء	-11.4777
▁ابرو	-11.4778
▁موسمے	-11.4781
▁پہمئن	-11.4781
▁اشکرانی	-11.4785
▁times	-11.4786
▁term	-11.479
▁سائنسدان	-11.4792
▁گشتہ	-11.4793
▁writing	-11.4793
▁کانچ	-11.4797
▁گیشواری	-11.4799
▁بدنءِ	-11.4802
▁سکول	-11.4803
▁انتخاب	-11.4809
▁پاری	-11.4812
ائن	-11.4816
▁پورم	-11.4817
▁بیبو	-11.482
▁زہگے	-11.482
▁نبیسوک	-11.4823
یٹ	-11.4824
اگر	-11.4825
▁موسی	-11.4825
▁روی	-11.4826
▁کشکاں	-11.4826
ہوار	-11.4829
▁رومان	-11.483
....!	-11.4832
▁بیلاں	-11.4833
▁ندوی	-11.4833
▁کوپ	-11.4834
▁پیٹ	-11.4834
▁جنگول	-11.4835
▁تپر	-11.4836
▁ڈلگ	-11.4837
بری	-11.484
▁creat	-11.484
▁کوکو	-11.4841
▁بھرام	-11.4842
▁زانتیں	-11.4842
▁بئیگا	-11.4843
▁ربیتی	-11.4844
▁members	-11.4844
seen	-11.4846
عربی	-11.4846
▁جدگال	-11.4848
▁گسے	-11.4849
▁اسٹیٹ	-11.485
روگ	-11.4851
▁رتک	-11.4852
▁ڈیموکریٹ	-11.4852
lost	-11.4853
▁دیری	-11.4854
▁ھترہ	-11.4854
گپت	-11.4854
▁گواھی	-11.4856
▁غازی	-11.4856
▁شہرءِ	-11.4856
▁لوزاں	-11.4859
▁مچار	-11.4861
▁متلبے	-11.4861
▁بہتر	-11.4862
▁west	-11.4864
ine	-11.4864
5	-11.4865
▁star	-11.4867
▁کمیونٹی	-11.4871
▁کارکردگی	-11.4872
▁پتا	-11.4874
▁گوئی	-11.4875
▁بچاراں	-11.4877
▁?”	-11.4879
ٹن	-11.4885
▁عمان	-11.4887
دستونک	-11.4888
▁برج	-11.4888
▁ملنڈ	-11.4894
▁بیانے	-11.4895
▁بڑھ	-11.4896
▁لبرل	-11.4898
▁لاطینی	-11.4898
▁جوانسال	-11.49
▁کاپی	-11.4901
احمد	-11.4903
▁پڑی	-11.4904
▁تاچ	-11.4904
▁ایڈیشن	-11.4905
▁پکراں	-11.4906
▁مشکت	-11.4907
▁fee	-11.4908
▁ھتم	-11.491
▁باھند	-11.491
▁ذریعے	-11.4915
▁تلک	-11.4918
▁چرا	-11.492
▁ساپیں	-11.4922
▁گیشنگ	-11.4923
حسن	-11.4923
▁انڈین	-11.4925
▁شمشتگ	-11.4927
▁گشگا	-11.4928
▁فرید	-11.4929
▁پداں	-11.4929
ھار	-11.493
▁بلکنہ	-11.4933
▁پنڈوک	-11.4935
▁کیوں	-11.4935
▁نوٹس	-11.4935
▁اٹلی	-11.4937
▁تقریبا	-11.4937
▁انچائیں	-11.4938
▁سہتے	-11.4938
▁country	-11.4939
▁ایمانداری	-11.4939
▁()	-11.494
▁براتی	-11.4941
غلام	-11.4944
▁مدگ	-11.4944
▁ٹاک	-11.4951
▁زهگ	-11.4952
▁تال	-11.4953
▁America	-11.4954
▁تج	-11.4957
▁چما	-11.4958
▁young	-11.4959
▁سرگوز	-11.4959
▁popular	-11.4963
▁مزید	-11.4963
▁ہوکر	-11.4964
▁گلگدار	-11.4964
▁چرچ	-11.4967
دیما	-11.4968
▁۔بلوچی	-11.4968
▁گی۔	-11.4972
چوشکہ	-11.4973
▁کنا	-11.4974
▁plan	-11.4975
ھور	-11.4976
▁سنا	-11.4978
▁ھمدردی	-11.4979
▁mak	-11.4981
▁مخالف	-11.4983
▁p	-11.4985
▁ہوشام	-11.4991
▁راجہ	-11.4995
▁کارایت	-11.4995
▁داس	-11.4996
▁تھیں	-11.4997
▁سچگ	-11.4997
▁دارئے	-11.4999
▁کلمکار	-11.5
▁نامگال	-11.5
▁جوانتریں	-11.5001
▁اسری	-11.5001
واہ	-11.5003
▁روپ	-11.5004
▁انگریزوں	-11.5004
▁عبدالکریم	-11.5005
▁ھمسیادی	-11.5006
▁جنگوجانی	-11.5006
▁سرکارا	-11.5011
▁محسن	-11.5012
▁خیبر	-11.5012
▁متاہ	-11.5013
▁وہم	-11.5013
▁الہ	-11.5015
▁کتگین	-11.5016
▁کپتیں	-11.5016
مے	-11.5018
▁دزمانجنی	-11.5022
▁۔ما	-11.5024
given	-11.5024
▁ازمانکی	-11.5025
▁خواتین	-11.5025
uarter	-11.5026
▁میراس	-11.5027
▁thought	-11.5028
برگ	-11.5029
▁پجیگ	-11.5029
▁کامیابی	-11.5029
▁شاید	-11.503
went	-11.5032
▁tour	-11.5033
▁base	-11.5037
▁کتب	-11.5041
▁ژانگول	-11.5049
▁ذیل	-11.5051
▁کرپشن	-11.5052
▁ماراں	-11.5052
▁باتیں	-11.5056
▁West	-11.5062
▁ہنری	-11.5063
▁ناامیتی	-11.5064
▁تباھی	-11.5067
▁اسمائیل	-11.507
▁پاساں	-11.5071
▁گارڈز	-11.5072
ئگا	-11.5073
▁برنت	-11.5073
▁Whil	-11.5075
▁ریگی	-11.5075
▁جارج	-11.5075
گس	-11.5076
▁شوهاز	-11.5076
▁کماندان	-11.5078
▁درشت	-11.5084
▁برانت	-11.5086
▁2013	-11.509
▁جیڑہے	-11.5091
▁اقتدار	-11.5092
▁کھر	-11.5097
▁بہرءَ	-11.5097
▁چٹی	-11.5097
▁بیھال	-11.5097
▁عدم	-11.5097
بیگواہ	-11.51
وکی	-11.5101
▁بیاں	-11.5105
▁نامانی	-11.5106
گرد	-11.5107
▁گواتانی	-11.5107
کمے	-11.5107
▁انیگیں	-11.5107
▁ھزانگ	-11.5108
▁لبزءُ	-11.5112
▁light	-11.5113
▁پشومان	-11.5114
▁روٹکی	-11.5117
less	-11.5118
▁ادیرہ	-11.5119
▁بہرانی	-11.512
سد	-11.5123
▁ھمایاں	-11.5124
سفرخان	-11.5129
▁برطانیا	-11.513
▁ذ	-11.513
▁پرینتگ	-11.513
▁دارگءَ	-11.5131
▁اپیل	-11.5132
▁less	-11.5133
▁کوہءَ	-11.5134
▁صحیح	-11.5134
▁ضمانت	-11.5135
ولی	-11.5137
▁دراھی	-11.5139
▁پجارے	-11.5144
▁لیوس	-11.5145
▁گرگءَ	-11.5146
▁ہمد	-11.5146
▁ہنچش	-11.5149
▁کرشی	-11.5149
▁شکی	-11.5151
▁ایمنسٹی	-11.5157
▁operation	-11.516
▁دیاں۔	-11.516
▁ھالیگ	-11.5161
▁سرتاک	-11.5162
▁بچاریت	-11.5163
▁۔پدا	-11.5166
مو	-11.5169
▁پٹگ	-11.5169
▁زهر	-11.5176
▁توپ	-11.5178
▁ڪ	-11.5179
▁دؤ	-11.5179
▁سینئر	-11.518
▁دانائی	-11.5182
▁ڈیوا	-11.5182
▁اشعار	-11.5182
▁اذیت	-11.5182
▁مکان	-11.5184
▁پنج	-11.5185
▁غفور	-11.5187
ther	-11.5195
▁جنگلی	-11.52
▁ماسکو	-11.52
▁جاورحال	-11.5201
niversit	-11.5202
▁گوادرءِ	-11.5202
▁never	-11.5202
▁بارکزئی	-11.5202
▁لیکہءِ	-11.5202
▁پاسپورٹ	-11.5203
▁development	-11.5203
▁روزی	-11.5204
▁ٹائپ	-11.5204
▁جذبگ	-11.5204
▁شائراں	-11.5207
▁جین	-11.521
▁ساہدار	-11.5213
▁ریاستے	-11.5217
▁پیسہ	-11.522
▁range	-11.5221
▁وند	-11.5222
▁کسھاں	-11.5222
تم	-11.5223
▁ھندءُ	-11.5226
▁ایرجیگ	-11.5227
▁سینزدہ	-11.5229
▁لگگ	-11.523
▁گشادی	-11.5232
▁زمینانی	-11.5233
▁stated	-11.5234
▁رحمدل	-11.5234
▁پرزند	-11.5236
▁زیند	-11.5237
فن	-11.5238
▁کرتءُ	-11.524
▁دیوالاں	-11.5242
▁گرئگ	-11.5242
▁مسترین	-11.5246
▁واکیات	-11.5246
▁novel	-11.5247
▁مراگاہ	-11.5247
▁سفیر	-11.5247
▁اجزاء	-11.5247
▁مشورہ	-11.5249
▁مڑا	-11.5249
▁award	-11.5251
▁کوشانی	-11.5251
▁ایدیم	-11.5253
▁بلاک	-11.5253
▁زالکار	-11.5257
▁مقرر	-11.5259
▁style	-11.526
▁زانتکارے	-11.5261
▁action	-11.5261
▁یکشلی	-11.5265
▁گھ	-11.5268
▁رسینتگ	-11.5269
▁نہیں۔	-11.5269
▁رچان	-11.5271
▁سفرنامہ	-11.5272
▁فصل	-11.5272
▁پتاتگ	-11.5275
منٹ	-11.5276
▁تاجر	-11.528
▁مسام	-11.5284
▁ناروے	-11.5286
▁کوڈ	-11.529
▁ادارکی	-11.5291
▁سانتیاگونصر	-11.5294
▁ھرتال	-11.5294
▁چھٹی	-11.5295
▁پسانی	-11.5302
▁گرو	-11.5302
▁اتش	-11.5303
بیان	-11.5304
▁ترسءَ	-11.5305
▁بہرام	-11.5306
▁دشمنی	-11.5308
▁کچکے	-11.531
▁ولید	-11.531
▁راھانی	-11.5311
▁تگران	-11.5313
▁ہوا۔	-11.5315
▁قطار	-11.532
▁band	-11.5321
یکہ	-11.5321
▁سسائی	-11.5325
▁اھان	-11.5325
▁ینت	-11.5325
▁اروک	-11.5326
▁جاڑی	-11.5326
ظ	-11.5327
▁زانوگر	-11.5331
▁سوا	-11.5333
▁co	-11.5336
▁نادریں	-11.5337
کسی	-11.534
▁کدیم	-11.534
▁toward	-11.5341
▁کینسر	-11.5341
▁نکاح	-11.5342
▁We	-11.5344
▁کشادگ	-11.5344
▁ورناھاں	-11.5345
▁دھر	-11.5345
▁نیزگار	-11.5346
4	-11.5348
▁حکمران	-11.5348
تھ	-11.5349
▁انجینئر	-11.5351
ra	-11.5352
رنگیں	-11.5354
▁دوداں	-11.536
▁مرا	-11.536
▁راھبندے	-11.5361
▁کپودر	-11.5362
نیت	-11.5362
▁روایات	-11.5362
▁دریافت	-11.5364
▁Park	-11.5367
▁لۆگ	-11.5369
کارانی	-11.537
▁ناگ	-11.5371
اسی	-11.5372
▁وشحالی	-11.5373
▁بندرءَ	-11.5375
▁لبزی	-11.5376
▁بحری	-11.5376
▁ہپتاد	-11.5378
ur	-11.5381
▁دپار	-11.5382
▁کردارانی	-11.5383
▁بگاوت	-11.5383
▁گندگی	-11.5384
▁مھلب	-11.5386
▁چنگیز	-11.5388
▁Australian	-11.5388
▁شاخ	-11.5389
▁ڈنگر	-11.539
▁زیراں	-11.539
▁نگرہ	-11.5391
ونی	-11.5393
▁گرام	-11.5394
▁سجاد	-11.5395
▁نکل	-11.5398
بال	-11.5398
▁ساعتے	-11.5399
▁ترسیت	-11.54
▁مختار	-11.54
▁سبکیں	-11.5401
▁کسھانی	-11.5401
▁لچه	-11.5402
▁اصلیں	-11.5404
▁پلاسٹک	-11.5407
▁complete	-11.5409
ئے۔	-11.541
▁بحران	-11.5412
▁کارستاں	-11.5415
▁ft	-11.5416
▁دلسیاہ	-11.5418
▁کسمت	-11.542
▁بندری	-11.5423
self	-11.5424
▁رزان	-11.5425
▁خوب	-11.5425
وم	-11.5427
▁اصطلاح	-11.5429
▁بنتءُ	-11.5429
مب	-11.543
▁مصری	-11.5436
▁حیالداری	-11.5438
▁منتوار	-11.544
▁کفر	-11.5441
▁مسلماناں	-11.5442
▁نمائندگی	-11.5443
▁پراھگ	-11.5443
مھر	-11.5444
▁نکت	-11.5446
▁50	-11.5446
▁پێسر	-11.5447
▁منو	-11.5448
پدءَ	-11.5449
تران	-11.5452
,’’	-11.5453
▁توازن	-11.5453
▁اید	-11.5453
▁ھلو	-11.5454
▁ازمون	-11.5456
▁براتے	-11.5457
ماتی	-11.5457
ter	-11.5458
ندہ	-11.5459
▁مبارکیءَ	-11.546
▁سورس	-11.5462
▁اینٹی	-11.5463
گم	-11.5469
▁سیاہی	-11.5469
▁سیاھی	-11.5471
روکپتی	-11.5472
▁بتلانی	-11.5475
▁گورنمنٹ	-11.5476
coming	-11.5477
▁تمبو	-11.5479
▁جاھانی	-11.548
یری	-11.5482
رک	-11.5484
▁برس	-11.5485
▁کشیت۔	-11.5485
▁دردی	-11.5486
▁پشل	-11.5486
▁کاٹ	-11.5486
▁چمی	-11.5492
▁ابر	-11.5492
▁فلاں	-11.5495
▁مردانی	-11.5496
▁پروشی	-11.5498
▁مہلوکءِ	-11.5498
▁شعرءَ	-11.5499
▁حضور	-11.5499
▁Ire	-11.5501
▁ملکموت	-11.5501
▁نشانے	-11.5502
▁scene	-11.5504
سردار	-11.5506
▁island	-11.5506
▁عربانی	-11.551
▁بندیگی	-11.5511
▁خاک	-11.5511
▁انگار	-11.5512
▁پرما	-11.5513
▁نکن	-11.5518
تگ۔	-11.5518
▁سرمچارے	-11.5518
▁پردہ	-11.5518
▁تانا	-11.552
ھک	-11.552
▁enter	-11.552
▁رستہ	-11.5522
▁توصیف	-11.5522
حق	-11.5523
▁کسٹم	-11.5525
▁بستگ۔	-11.5526
نور	-11.5532
▁دمانی	-11.5532
▁سعدی	-11.5533
ither	-11.5536
ینان	-11.5536
▁واناک	-11.5539
▁زانتاں	-11.554
▁دریاورد	-11.554
سوب	-11.5542
▁تروتاب	-11.5544
▁شتنت	-11.5544
▁نمونہ	-11.5545
▁ہرکسی	-11.5554
▁ط	-11.5555
▁chart	-11.5556
▁کرچک	-11.5556
۔پدا	-11.5557
▁سیٹھ	-11.5559
▁پلانٹ	-11.556
▁پرسیگ	-11.5562
▁گریں	-11.5564
▁28	-11.5564
▁پسیل	-11.5564
▁مفتی	-11.5565
▁hour	-11.5567
▁پشومانی	-11.5568
...!‘‘	-11.5572
▁رہبندے	-11.5573
▁بوت۔۔۔	-11.5577
▁گیگان	-11.5579
بانک	-11.558
مری	-11.5581
▁پولگ	-11.5582
گءِ	-11.5584
▁توام	-11.5588
▁منء	-11.5588
اہی	-11.5591
ain	-11.5592
▁گیپت۔	-11.5593
▁تسلسل	-11.5593
▁ڈیجیٹل	-11.5593
▁سربر	-11.5594
▁نیار	-11.5594
بکن	-11.5598
▁داتیں	-11.5599
▁شیرے	-11.5601
عطا	-11.5602
چاکر	-11.5602
▁ھوراں	-11.5606
▁مزور	-11.5607
▁سلہ	-11.5608
▁ہاسیں	-11.5608
▁وانوکیں	-11.5608
▁بوئگءَ	-11.5609
▁ھیالی	-11.5609
▁join	-11.561
▁لوٹتگ	-11.561
▁earlie	-11.5613
▁ھمدپ	-11.5615
▁ھول	-11.5615
تربت	-11.5615
▁ببر	-11.5615
▁پاور	-11.5617
مردماں	-11.562
▁انلاین	-11.562
▁سہن	-11.562
چارگ	-11.562
."	-11.5624
▁white	-11.5627
▁جنئک	-11.5629
سرا	-11.5631
▁ھیرات	-11.5631
▁زیل	-11.5631
▁نگدکاری	-11.5631
▁جارے	-11.5632
▁ماہءَ	-11.5635
کنئگ	-11.5635
▁بوتک	-11.5636
▁کمانچر	-11.5637
وھدیکہ	-11.5638
▁پروردگار	-11.5639
▁تعالی	-11.564
گڈی	-11.5642
▁مولابخش	-11.5643
▁town	-11.5644
▁مہتر	-11.5646
▁گندایت	-11.5646
▁جدل	-11.5648
▁ذگریں	-11.5651
▁رھم	-11.5651
...‘‘	-11.5652
▁منظوری	-11.5654
▁رول	-11.5655
▁دیئے	-11.5655
▁حرچ	-11.5657
▁ھانزا	-11.5657
نند	-11.5659
▁یہودی	-11.5659
▁Black	-11.566
▁سینہ	-11.566
▁شاھر	-11.5662
ابا	-11.5664
▁مومنٹ	-11.5665
▁بنگپے	-11.5665
▁داتءُ	-11.5665
▁گوگل	-11.567
▁دانکاں	-11.567
▁کلیر	-11.5671
▁۔ہمے	-11.5673
▁رسینگ	-11.5676
▁دوھیں	-11.5677
▁وفاق	-11.5679
▁یله	-11.5681
▁غمانی	-11.5683
▁پمێشکا	-11.5684
▁22	-11.5685
▁راستیءَ	-11.5686
▁کلا	-11.5688
▁کسارت	-11.5689
▁صغیر	-11.569
▁گواتءَ	-11.569
▁گسءِ	-11.5692
▁چارایت	-11.5694
▁کشمیری	-11.5695
▁مھکمی	-11.5696
▁دانگے	-11.5699
▁برئے	-11.5699
▁ورناہانی	-11.57
▁دراہگ	-11.5701
ro	-11.5701
▁لگا	-11.5702
▁وہی	-11.5702
▁ابادیں	-11.5703
▁writer	-11.5705
شیا	-11.5706
▁پدانک	-11.5706
بیگ	-11.5707
▁بگو	-11.5709
▁سوبیں	-11.5711
▁موسماں	-11.5714
▁لگام	-11.5715
بات	-11.5717
▁ھپتمی	-11.5718
▁جنینی	-11.5718
line	-11.5724
▁اثرمند	-11.5726
▁پرینگ	-11.5727
▁ارادگ	-11.5728
لہتیں	-11.573
▁element	-11.5731
▁نائک	-11.5732
▁مردان	-11.5732
ھل	-11.5734
▁میریں	-11.5734
▁بربادی	-11.5737
▁الکاپی	-11.574
▁سات	-11.5741
نشتگ	-11.5743
▁کیامت	-11.5744
▁ھیات	-11.5746
▁ڈگارءَ	-11.5746
▁ارمانی	-11.5749
▁پچی	-11.5749
▁اگه	-11.575
عمر	-11.5751
▁بوک	-11.5751
▁شزار	-11.5751
▁نێمگا	-11.5751
▁میاریں	-11.5755
▁بوشت	-11.5756
▁ایرموش	-11.5756
▁مھرانی	-11.5758
▁درگیج	-11.5759
▁24	-11.576
▁چونا	-11.576
غنی	-11.5761
▁مجھ	-11.5763
▁ازلی	-11.5764
▁چکءَ	-11.5766
▁منشی	-11.5766
▁نوہ	-11.5766
ll	-11.5766
▁son	-11.5766
▁sign	-11.5768
▁دائما	-11.5769
▁وسوسگ	-11.5769
it	-11.5771
▁ورناہاں	-11.5775
felt	-11.5778
A	-11.5779
▁issue	-11.578
▁درپشوکیں	-11.5781
▁زروان	-11.5781
▁نارشت	-11.5783
▁سیال	-11.5784
▁اتحادی	-11.5785
▁ضمیر	-11.5786
▁ہوری	-11.5786
▁گواتءِ	-11.5786
▁امیدوار	-11.5787
▁noted	-11.579
▁جلی	-11.5794
▁هرکس	-11.5794
▁نجات	-11.5796
▁گارءُ	-11.5799
▁کشنت	-11.58
▁پئیمیں	-11.58
▁دردءُ	-11.58
گام	-11.5801
▁London	-11.5802
▁مراقبہ	-11.5802
▁عبید	-11.5802
▁مہربانی	-11.5804
▁انگه	-11.5806
▁چتکان	-11.5806
درا	-11.5806
▁عبدالحکیم	-11.5807
▁ھیروپ	-11.5808
▁الیاس	-11.581
▁تماشا	-11.5812
سٹر	-11.5815
across	-11.5817
away	-11.5818
▁وردی	-11.5819
▁ناتپاکی	-11.5819
▁جوڑی	-11.5824
▁مذھبی	-11.5826
▁رتکگیں	-11.5826
▁ابات	-11.5827
یکیں	-11.5827
▁بزیر	-11.5827
▁ائوکیں	-11.5829
▁بلاول	-11.583
▁خر	-11.5833
▁دانکے	-11.5834
▁عدل	-11.5836
▁سیدءِ	-11.5839
▁ٹپاسگ	-11.5839
▁دیغ	-11.5842
▁route	-11.5842
▁چیدگے	-11.5843
ادب	-11.5843
▁اسپر	-11.5847
▁خدائی	-11.5849
▁پنڈ	-11.5851
▁وارے	-11.5854
▁اہدی	-11.5854
▁ہشک	-11.5858
▁رازاں	-11.5858
▁ہمراہاں	-11.5858
▁پیژگاہ	-11.5858
سئے	-11.5859
▁چکیں	-11.586
▁سرحد	-11.5862
▁عومر	-11.5863
▁چلا	-11.5863
▁نالگ	-11.5864
▁منڈ	-11.5864
▁ھونانی	-11.5868
▁بندرگاہ	-11.5874
▁get	-11.5875
▁پٹان	-11.5875
▁ثنا	-11.5875
▁ہلاپ	-11.5877
▁کفن	-11.5878
▁نگران	-11.5879
▁ہد	-11.588
داتگ	-11.5881
▁انعام	-11.5882
▁گلامیں	-11.5883
▁ھردوئیں	-11.5885
▁ھمداں	-11.5886
▁ھمگرنچی	-11.5887
▁روگءِ	-11.5887
▁حبرانی	-11.5891
▁درتگیں	-11.5894
▁زاننت	-11.5896
▁ایجوکیشن	-11.5897
▁good	-11.5897
▁himself	-11.5898
▁ایرانء	-11.59
▁پیپلز	-11.59
▁win	-11.59
▁رؤف	-11.5904
▁featur	-11.5905
▁واکب	-11.5906
▁ارزش	-11.5908
هر	-11.5908
▁حلقہ	-11.5908
▁ماھاں	-11.5908
▁جبزگ	-11.5913
▁شہد	-11.5915
▁ایپلی	-11.5916
▁ھمیشاں	-11.5917
▁چھوٹ	-11.5917
▁معناءُ	-11.5918
▁کرشن	-11.5921
▁دلگران	-11.5922
▁درہائ	-11.5934
چاپ	-11.594
▁چادرے	-11.5941
▁ناگتیں	-11.5941
▁کائی	-11.5942
▁جناور	-11.5942
▁black	-11.5945
▁اصلاح	-11.5946
▁ریسکیو	-11.5946
▁زگر	-11.5951
▁مڈل	-11.5952
▁پکرے	-11.5957
▁بقول	-11.5957
▁!!!	-11.5957
▁جوھر	-11.5959
▁پادے	-11.596
▁بنگ	-11.5961
▁ناگتی	-11.5962
▁کیوبا	-11.5964
▁برمشے	-11.5969
▁سیاه	-11.5971
▁ایکسپریس	-11.5972
▁پھول	-11.5972
▁رست۔	-11.5974
▁ڈیلہ	-11.5974
▁شیراں	-11.5975
ترس	-11.5976
▁ڪنت	-11.5976
▁ات۔ا	-11.5978
شہر	-11.598
▁واہشت	-11.5987
▁پیلہ	-11.5992
▁کچکانی	-11.5992
▁پٹھان	-11.5992
▁بیاراں	-11.5992
ۆک	-11.5992
‘,’	-11.5994
▁گوادری	-11.5996
▁نرس	-11.5998
▁تلو	-11.5998
▁فنا	-11.6008
▁دردءِ	-11.6008
▁وریں	-11.6009
▁بوؤگ	-11.601
▁چڑ	-11.6012
▁زانگءَ	-11.6013
▁وشھالی	-11.6013
▁جاؤ	-11.6016
▁شیریں	-11.6017
▁شاہین	-11.6017
▁لازمی	-11.6018
چیر	-11.6019
▁ہستیں	-11.6022
▁ھمودءَ	-11.6027
▁بابتء	-11.6028
▁گوشداران	-11.6029
▁برزگ	-11.6029
▁پیمانہ	-11.6031
▁تیوک	-11.6034
▁سخن	-11.6034
▁شوندات	-11.6034
▁درانی	-11.6036
▁Australia	-11.6036
زہرشانی	-11.6041
▁وهدی	-11.6041
▁see	-11.6043
▁شموشتگ	-11.6043
▁significant	-11.6043
▁26	-11.6048
▁قصہی	-11.6049
▁راہءِ	-11.605
▁پلگاریں	-11.605
▁راہاں	-11.6053
▁اگل	-11.6053
▁بکشیت	-11.6057
حیال	-11.6057
▁اہتگ	-11.6057
▁تچیت	-11.6058
▁ندیستگ	-11.6062
▁سلاحبند	-11.6063
▁چیری	-11.6064
▁بندوبست	-11.6067
▁انگلینڈ	-11.6067
▁رکھتے	-11.6068
▁کشگءَ	-11.6068
▁فعل	-11.6069
▁ارڈر	-11.607
حمل	-11.6071
▁کرزیت	-11.6074
▁ابیتکیں	-11.6078
▁سادگی	-11.6078
برز	-11.6079
▁کھور	-11.6082
▁منئ	-11.6083
▁ہنی	-11.6085
▁مرضی	-11.6086
▁وپتگیں	-11.6087
سنگت	-11.6087
▁عبدالغفار	-11.6088
▁پژم	-11.6089
▁ھدائی	-11.6092
▁خواہ	-11.6094
▁ہوت	-11.6095
بہر	-11.6095
▁مفت	-11.6096
▁نیز	-11.6098
▁روزگاری	-11.6101
▁کباب	-11.6102
▁ٹہل	-11.6104
▁جاپانی	-11.6106
▁ایاز	-11.6107
▁صحب	-11.6107
▁پروشیت	-11.6108
مچ	-11.6112
▁تجابان	-11.6116
▁important	-11.6116
اباد	-11.6118
▁عبدالرحمن	-11.6119
▁مشکلات	-11.612
▁چمدار	-11.6125
سریں	-11.6129
▁لاشعور	-11.6132
▁ہماری	-11.6137
▁جمعی	-11.6137
▁انس	-11.6139
▁initial	-11.614
▁تؤکا	-11.6141
زیر	-11.6141
بالاچ	-11.6142
▁سیاہگ	-11.6143
▁ساہتے	-11.6144
▁نادرا	-11.6146
▁age	-11.6147
▁سوداگر	-11.6151
خدا	-11.6153
▁ten	-11.6154
جل	-11.6155
ثہ	-11.6157
▁شاتو	-11.616
بکش	-11.6162
▁تعمیر	-11.6164
▁یکپارگی	-11.6165
▁father	-11.6165
▁انچشیں	-11.6167
▁تعاون	-11.6167
▁ٹاؤن	-11.6167
▁کئور	-11.6168
▁سدھ	-11.6168
▁چکان	-11.6169
▁نورل	-11.6169
▁کاڑ	-11.617
▁ردء	-11.617
▁ساگر	-11.6172
▁ازمکاری	-11.6173
▁حسابءَ	-11.6175
▁یکدار	-11.6175
▁ائیر	-11.6177
▁درگ	-11.618
کپ	-11.6182
▁شعرءُ	-11.6183
▁تانہ	-11.6183
اخر	-11.6185
▁تبدیلی	-11.6185
پمیشکا	-11.6186
اپی	-11.6193
▁کاش	-11.6193
▁گناھیں	-11.6193
▁ورنت	-11.6195
▁سنسکرت	-11.6195
▁کسےءِ	-11.6197
▁کمبل	-11.6199
اول	-11.62
▁act	-11.6201
ve	-11.6201
▁ساچشتے	-11.6202
دز	-11.6203
▁بیدے	-11.6204
▁ھشتمی	-11.6204
▁یکسد	-11.6205
▁زهیر	-11.6211
▁باپشت	-11.6212
▁کڑ	-11.6212
▁King	-11.6213
▁بیلی	-11.6214
▁female	-11.6214
▁modern	-11.6214
▁television	-11.6215
▁ملوری	-11.6215
▁وتئ	-11.6216
▁شیعہ	-11.6216
▁چکءِ	-11.6219
▁miles	-11.6221
▁ازر	-11.6222
▁الزام	-11.6222
زندگی	-11.6222
▁سیارہ	-11.6222
▁رستری	-11.6223
▁سوک	-11.6224
▁باتاں	-11.6224
▁مکی	-11.6224
▁جامعہ	-11.6227
▁بدنءَ	-11.6227
▁جائز	-11.6228
بے۔	-11.6231
▁فر	-11.6235
▁عالی	-11.6235
▁زریں	-11.6237
▁eight	-11.6239
▁کردگالی	-11.624
way	-11.624
▁بدلا	-11.6242
▁راجدپترءَ	-11.6246
▁زمینے	-11.6248
▁کیسے	-11.6249
▁ناھدا	-11.6249
▁پاچن	-11.6254
نبشتگ	-11.6254
▁اخرت	-11.6256
▁ریشاں	-11.6256
▁ہپتگ	-11.626
▁سانکل	-11.6263
▁واڑ	-11.6264
▁various	-11.6264
▁ھاؤس	-11.6264
▁interest	-11.6264
▁موج	-11.6265
▁راھا	-11.6267
▁پیدائش	-11.6268
▁چربی	-11.6268
▁ازمانکءِ	-11.6268
uir	-11.6268
▁۔ایشی	-11.6269
▁انلائن	-11.6269
▁تے	-11.6269
▁بیتاں۔	-11.6269
▁منڈی	-11.627
▁مسلہ	-11.627
▁ازگ	-11.6272
▁یکتنا	-11.6272
ارے	-11.6272
▁واهگ	-11.6275
▁ناامیت	-11.6278
▁اسمی	-11.6278
▁سکھ	-11.6279
▁جرمکار	-11.628
▁ترکگ	-11.6287
▁عورت	-11.6287
▁minute	-11.6289
▁ژوب	-11.6289
▁ہوارانت۔	-11.629
▁حمیدہ	-11.6292
▁عبدالمجید	-11.6292
▁هوار	-11.6295
▁سرینگ	-11.6299
اصل	-11.6303
▁ھدے	-11.6305
▁واسطہ	-11.6306
▁پسے	-11.631
▁سالا	-11.6313
▁بڈا	-11.6313
▁مئیت	-11.6313
▁جوہان	-11.6316
اڑ	-11.6318
▁live	-11.6327
دنت	-11.6327
▁هئیال	-11.6329
▁دیستیں	-11.6332
کناں	-11.6333
▁مثلا	-11.6335
▁تعلیمی	-11.6336
▁ادت	-11.6336
▁چمپل	-11.6337
غ۔	-11.6338
▁James	-11.6339
ڑہ	-11.634
▁امروہی	-11.6341
▁ناظم	-11.6345
▁مصیبت	-11.6346
▁ردیاں	-11.6347
▁بیچار	-11.6348
▁پرشیت	-11.6348
▁ھسن	-11.6349
▁جنزے	-11.635
▁۔تو	-11.6352
te	-11.6355
▁stage	-11.6355
▁گوئشگ	-11.6357
▁کٹی	-11.6359
▁اندازگ	-11.6361
▁داکتر	-11.6362
چشیں	-11.6362
▁look	-11.6364
▁باعث	-11.6364
▁احترام	-11.6365
▁پنتءُ	-11.6365
▁تسلہ	-11.6366
▁ھبرءَ	-11.6366
▁زبانوں	-11.6367
▁نواں	-11.6369
▁تسلیم	-11.637
▁ربیدگانی	-11.637
▁باہر	-11.6373
▁کندیت	-11.6375
▁دامنءَ	-11.6375
▁گشتگ۔	-11.6377
▁لوڑی	-11.6378
▁موڑ	-11.6379
▁گهتر	-11.6381
ham	-11.6384
▁شفیق	-11.6385
▁موداں	-11.639
▁نسر	-11.6391
▁گنوکے	-11.6395
▁فنڈ	-11.64
▁اکہ	-11.64
▁نادراھیانی	-11.6401
▁تھریک	-11.6401
▁ھالی	-11.6403
ship	-11.6405
▁ماش	-11.6406
چوشیں	-11.6407
▁اینگو	-11.6413
▁امریکائی	-11.6415
▁کھڑکی	-11.6415
▁مراگہ	-11.6415
▁پمپ	-11.642
یث	-11.6421
▁need	-11.6421
ایان	-11.6422
▁damage	-11.6424
اوار	-11.6426
▁روکپت	-11.6427
▁گزرانی	-11.6431
اگن	-11.6435
▁success	-11.6438
▁پہوال	-11.6439
چاگرد	-11.6439
▁case	-11.644
▁successful	-11.644
▁نازءَ	-11.6442
▁does	-11.6442
▁برکش	-11.6445
▁اروہی	-11.6447
▁سربیت	-11.6447
▁اہیءَ	-11.6448
دود	-11.6448
ought	-11.645
▁وصف	-11.6455
▁events	-11.6458
▁زورءُ	-11.6461
ھیر	-11.6467
▁عبدالرحیم	-11.6467
▁مسکرہ	-11.6467
▁یکجائی	-11.6469
▁road	-11.6469
▁پتار	-11.6471
▁گلستان	-11.6473
▁امیتان	-11.6473
▁استا	-11.6474
ینی	-11.6477
▁ائن	-11.6479
▁زینت	-11.6479
▁کلانی	-11.6483
▁ترانے	-11.6486
▁منزلءَ	-11.6486
▁لیگار	-11.6488
ent	-11.649
▁peak	-11.6491
▁ھندانی	-11.6491
▁اسٹور	-11.6492
▁سلاه	-11.6494
▁بنجلے	-11.6496
▁سنگاں	-11.6496
کائی	-11.6497
▁گیشگیواری	-11.6497
▁کید	-11.6497
▁اشکن	-11.6499
▁بلوٹیت	-11.6499
▁انت۔۔۔۔۔	-11.6501
▁نوبل	-11.6502
▁ٹہینگ	-11.6503
یب	-11.6503
▁ساچشتاں	-11.6505
اماں	-11.6506
▁الماری	-11.6508
▁منصب	-11.6508
ورنا	-11.6509
▁لیو	-11.6509
▁ملوک	-11.6509
جار	-11.6513
باید	-11.6513
iz	-11.6517
▁discover	-11.6518
▁political	-11.652
▁بہرگاں	-11.6521
▁نبیل	-11.6521
▁تما	-11.6526
one	-11.6526
▁جیڑگانی	-11.6527
▁پکنک	-11.6527
▁بیوس	-11.6537
▁ھمایانی	-11.6537
▁زیملی	-11.6538
▁نوشیروانی	-11.6538
▁کالب	-11.654
▁کٹیت	-11.654
▁سرمگ	-11.6541
▁جھاؤ	-11.6542
ہان	-11.6543
لین	-11.6544
▁تقسیم	-11.6544
▁تفسیر	-11.6545
▁امنی	-11.6545
▁تیغ	-11.6555
▁یوں	-11.6555
▁اصلءَ	-11.6556
▁بروان	-11.6557
▁شھریاں	-11.6557
ینے	-11.6558
▁وردنی	-11.6558
▁بچہ	-11.6558
وے	-11.656
▁شاھگان	-11.6561
▁ثمر	-11.6562
▁گیشینتگ	-11.6566
▁announc	-11.6568
▁مالاں	-11.6571
▁فائنل	-11.6574
▁ایٹمی	-11.6576
▁چۆن	-11.6576
▁شتر	-11.6578
▁دزکش	-11.6579
▁mm	-11.6581
▁تامدار	-11.6582
▁تنگیں	-11.6582
▁بتلے	-11.6583
▁گرگی	-11.6584
▁تلاہ	-11.6584
▁ہن	-11.6587
▁بوہگءَ	-11.6588
▁کین	-11.659
▁کتگءُ	-11.6591
▁موسیقی	-11.6591
▁زمزیل	-11.6593
▁art	-11.6594
▁دیووند	-11.6595
▁الحاق	-11.6597
▁زیروک	-11.6597
▁کمب	-11.6598
حدا	-11.6599
▁جنێن	-11.6599
▁کتابءَ	-11.6601
▁پاچ	-11.6604
▁دیتا	-11.6605
▁برزتر	-11.6605
▁استاداں	-11.6607
▁میکسم	-11.6608
▁نازرکی	-11.6608
▁روشنائی	-11.6611
▁سنٹر	-11.6612
کین	-11.6614
▁میزاں	-11.6616
▁ابداللہ	-11.662
▁مجرم	-11.6623
▁دوسال	-11.6628
▁مادنیں	-11.6637
▁دابءَ	-11.6638
▁دلیر	-11.6641
▁بات۔	-11.6644
▁poem	-11.6645
▁ازمانءَ	-11.6645
▁دہلی	-11.6645
▁پجاروک	-11.6646
▁رھوت	-11.6647
▁جاو	-11.665
I	-11.6651
▁ایرکنگ	-11.6654
▁mid	-11.6655
▁رنجانی	-11.6655
▁وھم	-11.6655
▁too	-11.6657
▁درتگ	-11.6657
اق	-11.6658
▁بوپ	-11.6661
▁لوٹئے	-11.6662
▁انت۔چہ	-11.6664
▁درشتگ	-11.6666
▁دزکشی	-11.6667
▁گنجی	-11.6669
▁میوزیم	-11.6671
▁پائیدگ	-11.6672
▁میاری	-11.6672
▁بکرتین	-11.6673
▁performance	-11.6673
▁نمائندہ	-11.6674
▁ابکہ	-11.6675
▁منگی	-11.6676
چونیں	-11.6679
▁جهل	-11.6683
▁میس	-11.6683
▁سپرے	-11.6686
▁ائیگا	-11.6686
ائع	-11.6687
▁هند	-11.6688
▁پڑے	-11.6689
▁لمبر	-11.669
▁کی۔	-11.6693
ھوار	-11.6695
▁پیشکان	-11.6696
▁example	-11.6697
▁ھڑتال	-11.6697
▁County	-11.6698
زا	-11.6699
▁پاگواجہ	-11.67
▁نویساں	-11.6701
▁پرکے	-11.6702
▁ازمانءِ	-11.6702
▁استادانی	-11.6704
▁مہلوکءَ	-11.6705
شم	-11.6705
▁بوتت	-11.6705
▁لکھا	-11.6711
▁پربستگ	-11.6712
▁کہیر	-11.6715
▁شالءَ	-11.672
▁leas	-11.6723
▁sent	-11.6723
▁پولیٹیکل	-11.6725
▁برٹش	-11.6727
▁لیکیت	-11.6732
▁کپٹن	-11.6736
▁سوتے	-11.6737
▁کشءُ	-11.6738
ودار	-11.674
▁تالہ	-11.6741
▁برئگ	-11.6745
▁ثقافت	-11.6745
▁نابودی	-11.6745
▁گپا	-11.6748
▁پرانی	-11.6748
▁دراجکش	-11.6748
▁کارانت	-11.675
▁اکبت	-11.6752
▁محض	-11.6752
▁دیا۔	-11.6753
▁بجائے	-11.6755
▁مبارکیں	-11.6756
سان	-11.6757
▁گونڈل	-11.6757
ڈا	-11.676
▁رشت	-11.6762
▁جرات	-11.6764
▁ولا	-11.6764
▁غور	-11.6764
▁جوک	-11.6765
▁زانے	-11.6767
اه	-11.6775
▁Road	-11.6775
▁influence	-11.6775
▁کماشے	-11.6775
سیاہ	-11.6776
▁شالءِ	-11.6776
▁مخصوص	-11.6777
▁درابیت	-11.6778
▁کشتی	-11.678
▁مہروان	-11.678
▁سیکس	-11.6783
▁دکھ	-11.6785
الہ	-11.6786
▁مرادساحر	-11.6786
▁کہنا	-11.6786
▁ازمانگ	-11.6791
▁ٹالسٹائی	-11.6793
▁عرفان	-11.6793
▁ماتاں	-11.6796
▁شررنگی	-11.6798
▁should	-11.6799
▁سداں	-11.6799
▁چارمکنڈ	-11.6801
▁معلومات	-11.6805
▁ماہر	-11.6806
▁ذاتے	-11.6807
▁انان	-11.6809
▁پندے	-11.681
▁کاگدانی	-11.6813
▁گج	-11.6815
▁شرو	-11.6816
▁پادری	-11.6816
▁انت۔ھمے	-11.6817
▁بئیت۔	-11.6817
▁ائیڈیل	-11.6819
▁نگدکار	-11.6819
▁locat	-11.6821
▁گشتگیں	-11.6821
▁گلو	-11.6822
▁گلءَ	-11.6822
▁بژنیگ	-11.6826
انچش	-11.6827
▁جاهے	-11.6827
▁effect	-11.6827
▁اھوالکاراں	-11.6828
اؤں	-11.6828
▁نامداری	-11.6829
▁چونین	-11.6829
▁بانی	-11.683
▁حطرہ	-11.683
▁سرمگیں	-11.6831
▁مشاہدہ	-11.6831
▁بشارت	-11.6832
▁کردستان	-11.6835
▁مثالے	-11.6837
▁خوبصورت	-11.6838
▁فوٹو	-11.6844
▁نکتہ	-11.6844
▁لڑے	-11.6844
▁مٹھا	-11.6846
▁چیزان	-11.6848
▁گپتیں	-11.6849
▁جنیادم	-11.6852
▁شتاں۔	-11.6853
▁ویکاریو	-11.6854
▁الخط	-11.6855
▁ٹھینگ	-11.6855
▁نزیکا	-11.6855
▁رازے	-11.6857
▁structure	-11.6857
▁کلوھے	-11.6859
▁مقدمہ	-11.6863
▁سکتے	-11.6867
▁زگری	-11.687
▁Le	-11.687
▁نبشتہی	-11.687
▁بچکاں	-11.687
▁بہائیں	-11.6873
▁کنت۔اے	-11.6877
▁دوزواہ	-11.6877
▁کرام	-11.688
▁شدید	-11.688
ti	-11.6881
▁ننگار	-11.6882
▁ٹائمز	-11.6883
▁ادءِ	-11.6884
▁حساس	-11.6884
▁سانکلاں	-11.6884
w	-11.6887
▁رودینتگ	-11.6888
▁ماشین	-11.6891
▁شانیں	-11.6894
▁نادان	-11.6895
▁ماضی	-11.6896
▁پسوءَ	-11.6897
▁بازارے	-11.6897
▁تھران	-11.6904
▁eventual	-11.6904
▁لوٹاں۔	-11.6905
▁ساچشتکار	-11.6905
▁چوہدری	-11.6907
▁انوگ	-11.6908
▁درکرت	-11.691
▁بختاور	-11.6911
▁پیالہ	-11.6913
ساچشت	-11.692
▁شاریءِ	-11.692
ate	-11.6926
▁وڑءُ	-11.6927
▁ٹھک	-11.6928
▁حذمت	-11.6929
am	-11.693
▁دۆست	-11.6932
▁نیکراہی	-11.6933
▁ھاجت	-11.6934
hind	-11.6935
▁حوصلہ	-11.6935
▁ہورک	-11.6938
▁عبدالقادر	-11.6938
▁اغاز	-11.6939
▁جاگاہ	-11.694
▁حالا	-11.6943
▁ویرانیں	-11.6944
▁ٹیکسی	-11.6944
▁ھمگام	-11.6946
▁ادارگاں	-11.695
▁ریاضی	-11.695
دروشم	-11.6952
▁ہژدہ	-11.6954
انگریزی	-11.6957
K	-11.696
▁اسنائپر	-11.696
▁ground	-11.696
▁دریاءِ	-11.6961
▁تنگو	-11.6961
▁ندی	-11.6961
مک	-11.6963
▁اجازہ	-11.6963
▁ھیلکاری	-11.6965
▁معاہدہ	-11.6965
۔۔۔بلے	-11.6965
بادشاہ	-11.697
هم	-11.697
▁زبانءُ	-11.6971
▁دروازگءَ	-11.6976
▁سیمسرانی	-11.6979
▁حوری	-11.698
▁ھرچے	-11.6984
▁خلق	-11.6985
▁2004	-11.6987
چکہ	-11.6988
ھت	-11.699
▁معمولی	-11.6991
▁لوزانت	-11.6992
▁وختے	-11.6992
▁حرماگ	-11.6995
▁مبات	-11.6995
▁اطلاعات	-11.6996
▁جائزہ	-11.6998
▁پکائیں	-11.6999
▁سم	-11.7
▁ماہور	-11.7
▁سروکے	-11.7001
▁characters	-11.7002
بندات	-11.7002
ts	-11.7002
▁اورتگ۔	-11.7003
بشکن	-11.7004
▁ساربان	-11.7005
▁زم	-11.7007
برجاہ	-11.7008
▁گواش	-11.7012
ld	-11.7013
▁پدمنتگیں	-11.7013
▁دیمءِ	-11.7013
مئی	-11.7013
▁گزی	-11.7013
▁entire	-11.7014
▁2005	-11.7014
▁construction	-11.7014
▁استونک	-11.7014
▁پروٹین	-11.7015
▁پرائمری	-11.7016
▁دوزحہ	-11.7017
▁سهر	-11.7018
▁قصہے	-11.702
▁ابے	-11.7021
▁سرجمءَ	-11.7022
▁نمک	-11.7024
▁کمر	-11.7024
▁کشگءِ	-11.7025
▁ناموس	-11.7026
▁وحدت	-11.7026
▁وشنود	-11.7026
▁تیزیں	-11.7027
▁مانیت۔	-11.7027
▁یانی	-11.7027
▁ائینی	-11.7028
بلکنا	-11.7029
▁لسٹ	-11.7034
▁بابر	-11.7035
▁ساھگءَ	-11.7037
▁نزارگ	-11.7039
شور	-11.704
▁مالدار	-11.7041
▁گرکی	-11.7043
▁ra	-11.7043
▁گوٹھ	-11.7044
اجوئی	-11.7044
▁ڑ	-11.7048
▁اگان	-11.7049
▁یکشلہ	-11.7052
گٹ	-11.7053
▁گوج	-11.7055
▁بیگانگ	-11.7058
▁پچگرگ	-11.7058
▁ندار	-11.7062
▁اسءَ	-11.7063
▁سوچیت	-11.7063
▁کودکیں	-11.7063
کاراں	-11.7069
گرگ	-11.7069
▁چارتگ	-11.7072
▁باتیل	-11.7073
جنت	-11.7075
▁ورگا	-11.7075
▁قسمے	-11.7075
▁کدیں	-11.7078
▁کنڈی	-11.7081
▁دیوار	-11.7081
▁کرامات	-11.7082
▁گزشت	-11.7089
▁قطر	-11.7089
▁ھجالت	-11.709
▁بازاراں	-11.709
▁کوہی	-11.7091
سندھی	-11.7092
▁represent	-11.7092
▁راجءَ	-11.7092
▁قندیل	-11.7095
▁راھبنداں	-11.7095
▁کپوک	-11.7095
▁٭۔	-11.7096
▁پیشہ	-11.7097
▁سون	-11.7097
▁کوٹیءَ	-11.7097
▁ٹھ	-11.7099
▁اکسانی	-11.7099
تان	-11.7099
▁27	-11.7102
▁گچک	-11.7107
▁زورے	-11.7108
▁عین	-11.7108
▁سرام	-11.7111
▁شماری	-11.7114
▁شاہگان	-11.7118
▁عصا	-11.712
▁انونیں	-11.7121
▁ذی	-11.7124
▁شھ	-11.7126
شرف	-11.7126
جام	-11.7127
▁۔کہ	-11.7129
▁گئیں	-11.7129
▁اوشتات۔	-11.713
▁شیشہ	-11.713
سل	-11.7131
▁لوٹائینگ	-11.7134
▁جاہی	-11.7137
▁se	-11.714
▁الو	-11.7143
▁حسد	-11.7143
▁انکلاب	-11.7148
▁دہر	-11.715
▁انٹرویو	-11.7151
▁ابھی	-11.7151
▁شھادت	-11.7151
▁چریک	-11.7152
▁ازماں	-11.7153
▁انٹیلی	-11.7154
دریا	-11.7155
▁ھدیس	-11.7155
▁دیمرہی	-11.7156
▁بانزلاں	-11.7159
▁مراداں	-11.7161
▁ہشتاد	-11.7161
▁اوزار	-11.7162
▁گمے	-11.7164
▁زیریت	-11.7166
▁پتی	-11.7169
وب	-11.717
عمل	-11.7175
▁کمکءَ	-11.7175
▁دفاع	-11.718
▁ریشگ	-11.7181
▁خشک	-11.7181
▁امت	-11.7182
▁ہندے	-11.7185
▁ھندو	-11.7187
▁قومءِ	-11.7187
▁ڈگارے	-11.7187
▁کھندان	-11.7189
▁انتہائی	-11.7193
▁رائی	-11.7194
مردمانی	-11.7195
▁نظریاتی	-11.7199
▁ھنگت	-11.7202
هے	-11.7203
▁comment	-11.7204
▁مملکت	-11.7208
▁مشگ	-11.7208
▁جنوبی	-11.7209
▁خواہش	-11.7211
▁بوجگ	-11.7211
▁سبزگ	-11.7212
▁ڈیھانی	-11.7213
▁provid	-11.7214
▁کشش	-11.7215
▁لہر	-11.7216
▁national	-11.7216
▁ندات	-11.7219
وڈ	-11.722
▁تراں	-11.722
▁مدئے	-11.7221
جاه	-11.7221
▁پگرءُ	-11.7227
▁بھرتی	-11.7228
پرچاکہ	-11.7229
▁ھی	-11.7229
▁تامور	-11.7233
▁بنند	-11.7233
▁ھدامرزی	-11.7234
▁چور	-11.7235
▁لہ	-11.7236
▁نار	-11.7236
▁جگا	-11.7237
▁پئیما	-11.7239
▁گہتریں	-11.724
▁حقاں	-11.7242
▁ریگزار	-11.7243
▁وہاب	-11.7244
▁بنیں	-11.7245
▁کمبرانی	-11.725
▁غار	-11.7251
▁ہندوستانی	-11.7251
▁come	-11.7251
▁وھدان	-11.7254
▁کوارٹر	-11.7254
▁تبی	-11.7255
▁ہمگرنچیں	-11.7258
txt	-11.7258
▁others	-11.7259
▁رازیگ	-11.726
▁رکشہ	-11.7261
▁چھرگ	-11.7262
کمیں	-11.7262
▁پادگ	-11.7262
lo	-11.7263
▁بانداتے	-11.7266
▁پرین	-11.7268
گرمیں	-11.7272
▁اشیا	-11.7273
▁دلکشیں	-11.7277
▁person	-11.7279
▁چارلس	-11.7284
▁ڈاکٹردیدگ	-11.7287
▁زبریں	-11.7288
▁زینب	-11.7293
ناکیں	-11.7294
▁ھش	-11.7295
▁سوداگری	-11.7295
▁شادمانی	-11.7296
.......	-11.73
▁ادبیات	-11.7303
▁برجاه	-11.7303
قاضی	-11.7305
▁اںت	-11.7306
▁بیچارگ	-11.7308
کہول	-11.7311
▁pre	-11.7311
▁ریں	-11.7312
▁سگریٹے	-11.7312
▁سیری	-11.7313
▁صبیحہ	-11.7314
▁ہجبر	-11.7314
ینتہ	-11.7314
▁نگاہاں	-11.7314
▁عبدالعزیز	-11.7316
▁گناھے	-11.7318
▁ھمدءَ	-11.7319
▁ناسرجم	-11.732
▁ہمہ	-11.7321
ندر	-11.7321
▁date	-11.7321
▁شہدیں	-11.7321
▁زردار	-11.7321
شل	-11.7323
ھند	-11.7323
مٹ	-11.7325
▁چاک	-11.7326
▁ہم۔	-11.7328
▁نیادی	-11.7329
▁بالشت	-11.7329
▁یورپءِ	-11.7331
▁اوبادگ	-11.7331
▁پوائنٹ	-11.734
▁غلط	-11.7341
▁چیئر	-11.7346
▁اوٹ	-11.7348
▁گولڈ	-11.7351
سیر	-11.7352
▁نادراھانی	-11.7352
▁رخشانی	-11.7353
sh	-11.7353
▁کپئگ	-11.7354
▁روشے	-11.7354
چن	-11.7355
▁عمرءَ	-11.7357
▁ھاکاں	-11.7358
▁گرانت	-11.7358
▁منطقی	-11.7359
▁تاگ	-11.736
▁کاملیں	-11.7361
▁حالرسانی	-11.7362
▁سفرءَ	-11.7367
▁..	-11.7369
▁تنقیدی	-11.7369
▁hurricane	-11.7369
▁مردینانی	-11.7369
▁کوڑی	-11.7375
▁انجن	-11.7382
▁بندءُ	-11.7385
▁جانءِ	-11.7385
▁اسکولءِ	-11.7392
ach	-11.7392
▁ھدیسے	-11.7393
▁تیں	-11.7394
▁جوابی	-11.7394
▁بدھ	-11.7395
▁پدریں	-11.7395
▁گمسار	-11.7398
▁داز	-11.74
زن	-11.74
▁اکتر	-11.7401
▁کمپین	-11.7403
▁بندیگجاہ	-11.7404
▁پاھار	-11.7407
▁چولاں	-11.7408
▁والد	-11.7409
▁ندارگانی	-11.7411
▁اہو	-11.7414
▁بداں	-11.7417
ابی	-11.7418
▁ٹکرءَ	-11.7418
▁پائے	-11.7419
▁مادگ	-11.7421
▁روپگ	-11.7422
ایشاں	-11.7423
▁ئین	-11.7425
▁debut	-11.7425
▁نوعیت	-11.7425
▁پھمگ	-11.7426
▁پائیدار	-11.7427
▁اصحاب	-11.7427
▁دزاں	-11.7427
▁منتءَ	-11.7427
▁داشتہ	-11.7429
▁شپک	-11.743
▁ڈیمز	-11.7432
▁بژنی	-11.7432
▁خیل	-11.7433
▁پارٹیانی	-11.7441
▁ھندوستانی	-11.7441
▁عملءِ	-11.7442
▁اباں	-11.7443
▁سرمچاری	-11.7444
▁کتبی	-11.7449
▁نندیں	-11.7451
▁لنککاں	-11.7452
▁دشمنیں	-11.7452
▁difficult	-11.7453
▁Kingdom	-11.7453
▁ڈبی	-11.7453
▁حقوق	-11.7453
▁کویت	-11.7453
▁بھتی	-11.7455
▁liv	-11.7457
▁مہروانیں	-11.7459
▁مائی	-11.7459
▁رخصت	-11.746
▁جاپر	-11.7463
▁برزءِ	-11.7465
▁نادراهی	-11.7465
▁زورگیر	-11.7465
▁استاراں	-11.7466
▁میارباری	-11.7468
اھی	-11.7468
▁فردوسی	-11.747
▁۔۔۔۔۔۔۔	-11.747
▁سیدھاشمی	-11.7472
▁رہوت	-11.7472
▁تشبیہ	-11.7477
▁rest	-11.7477
▁wide	-11.7478
▁campaign	-11.7481
▁Island	-11.7482
▁حاندان	-11.7482
کرد	-11.7482
▁گورگیج	-11.7482
▁رویش	-11.7483
ul	-11.7483
▁ھجالتی	-11.7486
▁نوشت	-11.7487
▁زاد	-11.7487
▁غرض	-11.7488
▁پاہار	-11.7489
▁خیالات	-11.7492
▁سرریچ	-11.7498
▁میڑے	-11.7498
▁جاگھاں	-11.7499
▁لانس	-11.7502
▁جنزاں	-11.7503
▁واجہاں	-11.7505
▁Grand	-11.7509
▁واجہیں	-11.751
▁ریلوے	-11.751
▁Cup	-11.751
▁گرنیڈ	-11.7511
▁رودپتر	-11.7513
▁کنئگا	-11.7513
▁works	-11.7514
▁ٹیکسٹ	-11.7514
▁view	-11.7517
▁گوہرام	-11.7517
▁برتگیں	-11.7517
▁رندانی	-11.7519
غوث	-11.752
▁دلوں	-11.7521
▁دنیگت	-11.7522
▁ہوگا	-11.7522
خیر	-11.7525
▁گیتکگ	-11.7525
▁بوتگاں۔	-11.7526
▁نیمونے	-11.753
▁عیبے	-11.753
یج	-11.7531
▁complet	-11.7531
▁جہلانکیں	-11.7533
▁ازگار	-11.7534
▁ھرام	-11.7534
ير	-11.7537
وکے	-11.7537
▁کرگ	-11.7537
▁victor	-11.7537
▁زندگیءَ	-11.7538
گاڑی	-11.7538
▁چیروکائی	-11.7539
▁چاغی	-11.754
▁ازمے	-11.754
▁کاؤنٹر	-11.7541
▁دوسرا	-11.7542
بوگ	-11.7542
▁سچکان	-11.7544
ساز	-11.7545
▁انیس	-11.7546
منیر	-11.7548
▁گپتءُ	-11.7549
▁گرین	-11.755
▁جستاں	-11.755
▁گدارانی	-11.7551
▁جمبرانی	-11.7552
▁ننگر	-11.7553
▁وابجاہ	-11.7554
اخ	-11.7555
اگہ	-11.7557
▁ناس	-11.7559
▁یاتگیری	-11.756
مت	-11.756
▁افس	-11.756
▁مرکءِ	-11.7563
▁کنڈاں	-11.7565
▁believ	-11.7566
▁امجد	-11.7569
▁نقشہ	-11.757
▁کدو	-11.7571
▁گردی	-11.7572
▁کیمت	-11.7572
▁رژناہ	-11.7574
ٹس	-11.7574
▁پنجاپی	-11.7575
▁addition	-11.7576
▁ئیت	-11.7577
▁کردارے	-11.7578
گران	-11.7581
▁ہمدپ	-11.7581
▁عنبر	-11.7582
▁دوز	-11.7583
▁دادے	-11.7584
▁کنک	-11.7588
▁جپت	-11.759
▁سهب	-11.7591
▁موں	-11.7593
▁درپش	-11.7594
▁کاپرءِ	-11.7594
▁زورگءَ	-11.7594
▁give	-11.7597
▁گلائش	-11.7597
▁سردیں	-11.7599
▁night	-11.7601
▁گرز	-11.7601
▁سائنسداناں	-11.7603
▁سوٹ	-11.7603
▁Me	-11.7604
▁گونی	-11.7604
▁دورہ	-11.7604
▁انسٹی	-11.7606
▁زندء	-11.7607
▁شکے	-11.7608
▁کپن	-11.7608
ادءَ	-11.7609
▁ھمراھانی	-11.7609
▁دلیں	-11.761
▁بیبرگ	-11.7611
بک	-11.7613
▁نمائندگ	-11.7614
▁guns	-11.7615
▁اشوبے	-11.7618
▁fight	-11.7618
▁بابتا	-11.7618
▁نوشتگ	-11.7621
▁گاں	-11.7622
▁انے	-11.7622
▁Company	-11.7623
▁ریموٹ	-11.7623
▁سمالانی	-11.7624
▁ودینگ	-11.7624
▁پٹرول	-11.7625
▁بلۆچستان	-11.7626
▁مکھیں	-11.7627
▁انت۔یک	-11.7628
▁پرمائیت	-11.7628
▁بیزن	-11.763
▁بٹن	-11.7633
▁بستر	-11.7634
▁تچکءَ	-11.7636
▁کشکءَ	-11.7637
زندگ	-11.7638
▁me	-11.7639
▁ترانگ۔۔۔	-11.7639
▁المءَ	-11.7641
▁جات	-11.7642
os	-11.7642
▁ستون	-11.7643
▁کلاتے	-11.7644
بازار	-11.7645
▁اتمان	-11.7646
▁سنگیں	-11.7649
جب	-11.765
▁نہایت	-11.765
▁process	-11.7651
▁کولیسٹرول	-11.7651
▁فیلڈ	-11.7652
▁سوویت	-11.7654
▁فوجءِ	-11.7654
▁پتھر	-11.7661
ھست	-11.7662
▁زورایت	-11.7663
▁وین	-11.7665
▁دوچگ	-11.7667
▁offer	-11.7668
▁شانتگ	-11.7669
▁کنزگ	-11.7671
▁کڑک	-11.7671
▁سینٹ	-11.7671
▁بهار	-11.7672
▁لیں	-11.7673
▁گوزگءَ	-11.7674
▁ملان	-11.7674
▁بنگپی	-11.7674
▁بچانی	-11.7675
▁فعال	-11.7676
▁گوشیت۔	-11.7676
▁زمستانی	-11.7678
▁انگیں	-11.7679
▁مڑگ	-11.7682
▁ڪن	-11.7682
▁واجھیں	-11.7682
▁عبدالنبی	-11.7683
▁کوهن	-11.7684
▁کما	-11.7686
▁ساسانی	-11.7688
▁شنبہ	-11.7688
▁highway	-11.7695
▁گرفتار	-11.7695
▁کنات	-11.7698
ترین	-11.7699
▁رنگءِ	-11.77
▁کلاکاں	-11.77
▁پدمنتگی	-11.7703
▁شیراز	-11.7703
▁بہراں	-11.7708
▁کندن	-11.7708
▁واشنگٹن	-11.771
▁پندلے	-11.7714
▁سوغات	-11.7715
▁شھداد	-11.7716
▁میچ	-11.7716
▁نیلیت	-11.772
▁ساحرءَ	-11.7722
▁بینت	-11.7724
▁لاک	-11.7726
▁ہونا۔	-11.7727
▁شپاد	-11.7727
▁بیراں	-11.773
▁ٹکانی	-11.7731
▁وانوکے	-11.7734
!!!	-11.7735
▁چاڑے	-11.7735
▁ریم	-11.7736
انوں	-11.7737
▁ڈا	-11.7737
▁کوالٹی	-11.7738
▁exist	-11.7738
ford	-11.7739
▁الطاف	-11.7739
▁stars	-11.7741
▁انت۔منی	-11.7742
بنت۔	-11.7743
▁انکاری	-11.7743
▁شکیل	-11.7744
فاضل	-11.7745
▁litt	-11.7747
▁کوہلو	-11.7747
▁بوھگی	-11.7749
▁اشکنگءَ	-11.775
▁وشتریں	-11.7751
▁visit	-11.7751
▁رپتگیں	-11.7755
▁گرءُ	-11.7755
▁اثرے	-11.7756
▁خواب	-11.7758
▁رودینگ	-11.7758
▁زابل	-11.776
▁لہڑی	-11.7763
▁شیرگ	-11.7764
▁پیز	-11.7765
▁Some	-11.7766
▁سرپراز	-11.7767
▁دلوش	-11.7767
▁مودانی	-11.7767
▁روباہ	-11.7769
▁گرئے	-11.777
▁ھے	-11.777
بیتگ	-11.7772
▁بچکانی	-11.7772
▁لہجہ	-11.7773
▁ڈگارءِ	-11.7775
tic	-11.7776
امان	-11.7777
▁سرجمیءَ	-11.7778
▁mi	-11.7783
▁کارکنانی	-11.7786
نج	-11.779
▁دریکگ	-11.779
▁Love	-11.7792
▁سیما	-11.7793
▁figure	-11.7795
▁فاروقی	-11.7802
▁خالی	-11.7806
▁کوچگاں	-11.7808
▁جھدا	-11.7809
▁موز	-11.781
▁باکس	-11.7811
▁class	-11.7816
▁برق	-11.7819
▁کنئے۔	-11.7819
▁ابانی	-11.7819
▁ردومءِ	-11.7821
▁کانونی	-11.7821
▁جھلانکی	-11.7822
زاں	-11.7824
▁گریڈ	-11.7824
▁رحمٰن	-11.7824
▁لقب	-11.7824
▁male	-11.7825
▁سالار	-11.7825
▁ڈوھدار	-11.7827
▁دراتکگیں	-11.7829
▁چیرمین	-11.783
▁بانگواہ	-11.783
▁ڈیوڈ	-11.7834
▁گڈسری	-11.7837
▁بوٹگ	-11.7837
پو	-11.7838
▁جمعیت	-11.7838
▁La	-11.784
▁ڈیھی	-11.7843
▁بناء	-11.7843
▁جماز	-11.7846
▁میچل	-11.7846
▁g	-11.7846
at	-11.7847
▁جنتر	-11.7847
▁تاثر	-11.785
▁Battalion	-11.7853
▁Ma	-11.7856
شئیر	-11.7856
تری	-11.7857
▁نظیر	-11.7858
▁گندوک	-11.7859
▁born	-11.7864
▁جزباتی	-11.7867
▁تاریک	-11.7868
▁جنزءِ	-11.7869
▁پھرہ	-11.7871
▁زھیراں	-11.7872
▁روئیں	-11.7872
▁پاسداری	-11.7872
▁بکال	-11.7872
▁ناہک	-11.7874
▁اتکیں	-11.7875
▁کھں	-11.7877
کپتگ	-11.7879
▁زیور	-11.7879
▁سرپر	-11.7881
▁حرابی	-11.7881
▁David	-11.7883
▁wife	-11.7883
▁southern	-11.7883
▁نزوریاں	-11.7885
▁پہنچا	-11.7888
▁گندک	-11.7889
▁کمیت	-11.7889
▁افسانے	-11.789
▁ذاکر	-11.789
▁تامرے	-11.7892
فقیر	-11.7893
ته	-11.7893
▁تالاں	-11.7894
▁coast	-11.7895
▁کلیم	-11.7899
▁اکل	-11.7899
▁نیامی	-11.7899
▁جاڑیں	-11.7901
▁اشکی	-11.7904
▁مروشی	-11.7905
▁post	-11.7907
▁ہیران	-11.7907
▁گریتگ	-11.7908
▁تئوار	-11.7908
▁گرداں	-11.7908
▁France	-11.791
▁سراپ	-11.791
▁سرھالانی	-11.7911
▁بندئے	-11.7911
▁فیروز	-11.7912
▁ھرچنت	-11.7912
کچک	-11.7913
▁ساخت	-11.7913
▁صبح	-11.7917
▁گھنٹہ	-11.7919
▁اندرا	-11.792
▁ھزاریں	-11.7921
▁دیتگ	-11.7923
▁ناکۆ	-11.7923
▁کلگی	-11.7926
▁دازن	-11.7931
▁ڈو	-11.7932
▁چال	-11.7932
▁wh	-11.7934
▁درکئیت	-11.7937
سین	-11.7939
▁women	-11.7941
▁وٹامن	-11.7942
▁اچکزئی	-11.7942
▁چشمک	-11.7943
▁حدود	-11.7944
▁mother	-11.7945
▁مشترکہ	-11.7948
▁مارٹر	-11.7949
▁ناسرپدی	-11.7951
▁ترہ	-11.7952
▁دریاب	-11.7954
▁داغ	-11.7955
▁بلور	-11.7956
جتائیں	-11.7958
▁ھونی	-11.796
▁سببے	-11.7962
▁ستارہ	-11.7962
▁چورہ	-11.7964
▁love	-11.7966
اچہ	-11.7966
▁سکتی	-11.7967
▁دیمروہی	-11.7967
اڈ	-11.7968
▁Music	-11.7968
▁کاروائیاں	-11.7969
▁شورہاں	-11.797
▁پێش	-11.7971
▁Brigade	-11.7971
▁ٹھاٹھ	-11.7971
▁study	-11.7971
▁ہڑتال	-11.7973
95	-11.7974
▁شھزاد	-11.7974
▁اشکنوک	-11.7975
▁نیشنلزم	-11.7976
▁هں	-11.7978
صل	-11.7979
این	-11.798
▁چرپ	-11.7982
▁سچیت	-11.7983
ium	-11.7983
▁loss	-11.7984
rd	-11.7988
▁بیمناک	-11.7992
▁ماھانی	-11.7994
▁ھیرانی	-11.7999
▁پدرا	-11.8
▁ماڈرن	-11.8
▁چوھدری	-11.8001
اوانی	-11.8001
▁مھرنھاد	-11.8001
▁بغاوت	-11.8001
وہد	-11.8003
▁داوت	-11.8003
▁دروازگءِ	-11.8005
▁بگوشاں	-11.8006
▁خواجہ	-11.8007
▁سلوات	-11.8007
▁command	-11.8008
▁بٹاک	-11.8011
▁put	-11.8012
▁چاھے	-11.8012
▁سیکنڈ	-11.8012
▁report	-11.8015
▁سائیٹ	-11.8018
▁مشرف	-11.8019
▁مادری	-11.8019
▁ٹیوٹ	-11.8022
▁زہن	-11.8022
▁مقابل	-11.8024
عر	-11.8027
▁Robert	-11.8028
▁کچی	-11.8028
▁کک	-11.8028
▁جہانے	-11.8029
روسی	-11.803
▁ناکوزتک	-11.803
▁جرمے	-11.8032
▁وصیت	-11.8033
▁زوتیں	-11.8033
▁بیزاری	-11.8035
▁اتکءُ	-11.8035
▁ازمکارے	-11.8036
▁نورخان	-11.8037
▁بگشاں	-11.8039
▁فرشتہ	-11.8039
▁کوھے	-11.804
▁ائیوکیں	-11.8041
مگ	-11.8042
چش	-11.8042
▁ھلکءِ	-11.8043
▁اوہد	-11.8044
▁رسین	-11.805
▁چراگاں	-11.805
نڑ	-11.8053
▁زھن	-11.8054
▁جیڑت	-11.8055
▁میلانک	-11.8055
▁رستم	-11.8055
▁رہیم	-11.8057
▁جواز	-11.806
▁eastern	-11.806
▁Roman	-11.8062
▁پیلویں	-11.8062
▁اکوام	-11.8063
ینک	-11.8064
▁مارشل	-11.8065
▁اعلیٰ	-11.8067
▁نمای	-11.8071
▁East	-11.8075
▁جائیں	-11.8075
▁مانشانتگ	-11.8076
▁حالانکہ	-11.8078
▁ترپ	-11.8078
▁provide	-11.8079
▁المین	-11.808
▁جندئے	-11.8082
▁وتاس	-11.8083
▁گب	-11.8088
▁تپد	-11.8088
▁سفارت	-11.8089
▁وٹس	-11.8089
▁relationship	-11.809
▁ساھگے	-11.8091
ناکو	-11.8093
▁الودگی	-11.8093
▁مچانی	-11.8094
▁دارئگ	-11.8096
▁انہاں	-11.8096
کاف	-11.8099
▁تئیگ	-11.8101
▁پرگ	-11.8104
▁انقلابی	-11.8105
جم	-11.8106
▁اسکولءَ	-11.8107
▁نیوگ	-11.8107
▁cell	-11.8107
▁بیٹ	-11.8108
▁تالانی	-11.8111
▁رودین	-11.8113
▁شہیدی	-11.8115
▁2015	-11.812
▁2003	-11.812
▁داروگہ	-11.812
▁پبلشرز	-11.812
▁ہیڈ	-11.8123
▁40	-11.8123
▁کادر	-11.8124
▁کلاکے	-11.8124
▁کوٹیءِ	-11.8125
▁بدنام	-11.8126
▁بوس	-11.8132
il	-11.8135
▁ہپتگے	-11.8136
▁عمری	-11.8137
▁لنج	-11.8138
▁گوئستگیں	-11.8138
▁جوانین	-11.8139
▁Her	-11.8139
یف	-11.814
▁جواں	-11.8141
▁دردءَ	-11.8141
▁پنگ	-11.8142
▁مرکب	-11.8143
▁بیت۔بلے	-11.8143
ارت	-11.8148
▁ویلے	-11.8149
▁گوئش	-11.815
▁ھاکمانی	-11.815
▁نکسان	-11.8151
▁ٹھوس	-11.8151
▁گیڑھ	-11.8152
▁کپے	-11.8153
▁علاقائی	-11.8153
▁غفار	-11.8156
چیءَ	-11.8158
▁داستانانی	-11.8158
▁عاشقی	-11.8159
▁El	-11.8159
▁ہمساہگ	-11.8159
▁image	-11.816
جس	-11.8161
مانا	-11.8162
▁وتء	-11.8162
تھا	-11.8162
▁درامدانی	-11.8163
▁گالبندانی	-11.8165
▁دمکے	-11.8165
مکران	-11.8166
▁امبری	-11.8167
▁واکان	-11.8168
▁وانیں	-11.8169
زرت	-11.817
▁گوشداروک	-11.8173
▁گے۔	-11.8173
▁رۆچے	-11.8174
بیر	-11.8175
▁وائے	-11.8175
بھر	-11.8176
id	-11.8176
▁گرامر	-11.8177
F	-11.8178
▁افزائش	-11.818
کت۔	-11.818
▁ھدابند	-11.818
▁لبزءِ	-11.8181
▁لورالائی	-11.8181
▁اھر	-11.8183
نازک	-11.8183
▁یاسمین	-11.8184
▁اعجاز	-11.8187
▁اؤرت۔	-11.8187
▁چاکری	-11.8191
دوستی	-11.8192
▁گیشتری	-11.8195
▁دودے	-11.8196
▁نشانیاں	-11.8198
▁سلاماں	-11.8199
▁وامدار	-11.8199
▁دوم	-11.82
اسپ	-11.8201
ہہ	-11.8203
▁بزھگ	-11.8204
▁دلپروشی	-11.8207
▁Other	-11.821
▁تندجاہ	-11.8212
▁ھئیال	-11.8215
▁race	-11.8215
▁بانوری	-11.8216
▁مانگیش	-11.8221
▁چگ	-11.8224
▁non	-11.8225
▁کثہ	-11.8226
▁ہسین	-11.8227
۔بلئے	-11.8228
▁پیرکی	-11.8229
ھن	-11.8231
▁مہرنگ	-11.8231
ایس	-11.8232
▁ازادیءِ	-11.8238
.........	-11.824
▁continue	-11.8242
▁چیٹ	-11.8246
▁سحب	-11.8246
▁گوست۔	-11.8246
▁نجی	-11.8247
▁نگاھاں	-11.8247
▁پیگام	-11.8249
▁فائدگ	-11.825
▁دیوالے	-11.8251
▁گشگءَ	-11.8251
شری	-11.8252
▁سرائیکی	-11.8252
”?	-11.8252
▁وڈے	-11.8255
▁کردگار	-11.8255
▁اصطلاحات	-11.8256
▁مختصر	-11.8257
▁توپانی	-11.8261
▁انون	-11.8265
▁نیمگی	-11.8265
▁کلمت	-11.8267
▁کورانی	-11.8268
سما	-11.8268
▁زوراوریں	-11.8269
▁نوبتاں	-11.827
▁ایمرجنسی	-11.8271
........	-11.8271
▁ارگنائزر	-11.8273
▁taken	-11.8273
ir	-11.8274
▁اۆدا	-11.8274
▁fourth	-11.8274
▁سرداروں	-11.8275
▁مرشی	-11.8275
▁مسقط	-11.8275
▁گولا	-11.8276
▁روانبد	-11.8276
ٹری	-11.8277
▁شاہدی	-11.8278
▁Per	-11.8278
▁پپ	-11.8278
▁نصر	-11.8278
بچک	-11.8279
کسانیں	-11.828
مہلوک	-11.8282
▁پرسن	-11.8284
▁تبءَ	-11.8285
▁move	-11.8287
رءَ	-11.8289
1	-11.8291
▁ٹر	-11.8291
▁انفرادی	-11.8293
▁ملگزار	-11.8295
▁سہل	-11.8296
▁ذال	-11.83
?!	-11.83
▁عاروس	-11.83
▁بنھشت	-11.8303
▁ماتو	-11.8303
لال	-11.8303
▁حیوان	-11.8304
▁ساعتاں	-11.8306
▁جمبور	-11.8311
▁شومک	-11.8312
▁زرتہ	-11.8313
۔بزاں	-11.8314
▁ثقافتی	-11.8316
▁ذاتءِ	-11.8319
as	-11.8322
▁رئوت	-11.8322
▁لینا	-11.8323
▁تناظر	-11.8325
▁رکھتا	-11.8327
▁خوار	-11.8328
▁مران	-11.8329
▁ساهگ	-11.833
▁کماشانی	-11.833
▁لچہانی	-11.833
▁اسکولے	-11.833
▁ماہل	-11.8331
▁Europe	-11.8331
جتا	-11.8331
▁زندئے	-11.8332
▁European	-11.8333
▁گورگ	-11.8333
▁کلاسیکی	-11.8333
بور	-11.8333
لاں	-11.8336
▁واقعی	-11.8339
▁سوزمان	-11.8339
▁ناراض	-11.8341
چه	-11.8343
▁نوان	-11.8344
یگاں	-11.8351
اولس	-11.8351
▁غریبی	-11.8351
دئیگ	-11.8352
▁پسءَ	-11.8354
▁میرانی	-11.8355
▁نیزگاری	-11.8357
▁دوارگ	-11.836
▁ابدمانیں	-11.836
ak	-11.8361
چوں	-11.8362
▁مہرانکی	-11.8363
▁دزانی	-11.8364
▁بگلءَ	-11.8364
▁لٹریچر	-11.8366
▁نوکنڈی	-11.8366
ling	-11.8369
▁الھان	-11.8371
▁goal	-11.8372
▁بھاگ	-11.8373
▁کاھان	-11.8373
زمانگ	-11.8374
▁دارگا	-11.8374
▁شاہگانی	-11.8376
▁جیک	-11.8377
جوانیں	-11.8379
▁ماھو	-11.8379
▁کندگانی	-11.8383
▁لہم	-11.8387
▁حور	-11.8389
▁consist	-11.8393
▁ازمءُگوازی	-11.8393
▁نصراللہ	-11.8394
▁پٹک	-11.8394
▁چہرءُ	-11.8395
▁زلف	-11.8396
▁خدائیداد	-11.8396
▁کسھی	-11.84
▁تفصیل	-11.8402
▁مزد	-11.8402
▁کپتنت	-11.8403
▁چڑو	-11.8403
▁کھیر	-11.8404
دیں	-11.8405
کلات	-11.8406
▁ہرجاہ	-11.8407
▁اسراتیاں	-11.8407
▁سنگتان	-11.8411
▁ایشیئ	-11.8412
▁جہگیری	-11.8416
▁پاگاس	-11.8416
▁کسانین	-11.8417
بست	-11.8417
هی	-11.8418
▁کاریاں	-11.8419
▁ناشریں	-11.8419
▁شدیگ	-11.8421
den	-11.8421
انسانی	-11.8421
▁افسرے	-11.8424
▁lack	-11.8424
▁ایڈ	-11.8424
▁God	-11.8425
▁بستی	-11.8426
▁جاندراھی	-11.8426
▁ڈولی	-11.8427
▁decided	-11.8427
be	-11.8427
▁بیتہ۔	-11.8428
▁ارامی	-11.8429
▁دزکپتگ۔	-11.8429
▁امیتی	-11.843
▁سوبے	-11.8431
▁نانے	-11.8432
▁idea	-11.8437
▁جزماں	-11.8438
▁کراں	-11.844
▁متھ	-11.8444
▁Port	-11.8447
▁بدلہ	-11.8448
▁نکناں	-11.8453
▁heavy	-11.8455
▁عوض	-11.8455
▁اجز	-11.8457
▁شانت	-11.8458
▁کؤل	-11.8458
▁اردوءَ	-11.8458
▁پھزدار	-11.8459
▁امیج	-11.846
▁ککڑ	-11.8461
▁سرگوستے	-11.8463
▁کنزان	-11.8464
ting	-11.8464
▁پج	-11.8468
▁ہیک	-11.847
کمک	-11.8471
▁face	-11.8474
▁سربیتگیں	-11.8475
▁سرک	-11.8475
اڑے	-11.8475
▁باگیں	-11.8476
▁صدا	-11.8477
▁ساجو	-11.8478
▁زوریت۔	-11.8478
▁بتایا	-11.8479
▁ارٹس	-11.848
چین	-11.8481
▁gun	-11.8483
ارس	-11.8485
ities	-11.8492
▁مالانی	-11.8492
کشگ	-11.8492
جہل	-11.8495
نزیک	-11.8496
▁شئیراں	-11.8498
▁ڈوبر	-11.8501
▁ریزمانک	-11.8502
▁اروسی	-11.8503
co	-11.8504
▁دزرس	-11.8504
▁فلیٹ	-11.8505
▁گوستگال	-11.8508
▁چگین	-11.8509
▁مجتی	-11.8509
▁دلچسپی	-11.8509
▁چرک	-11.8511
▁گذر	-11.8511
وند	-11.8513
▁ناں۔	-11.8513
▁ہاترءَ	-11.8516
▁دھکاں	-11.8517
▁problem	-11.8517
▁condom	-11.8517
▁Royal	-11.8518
▁ترات	-11.8518
▁انگلستان	-11.8518
▁بوتل	-11.8519
▁White	-11.852
▁امشپی	-11.852
▁دوہ	-11.852
▁چکگ	-11.852
▁sold	-11.852
▁f	-11.8523
▁گردیں	-11.8526
▁سیریں	-11.8526
▁وترا	-11.8527
▁ڈنک	-11.8528
▁اسکا	-11.8528
▁program	-11.8528
▁لبنان	-11.8529
▁میاربار	-11.8529
▁ھمراھے	-11.853
▁ہلاک	-11.8534
▁کاروانے	-11.8537
▁رستیں	-11.8538
▁لاپءَ	-11.8539
▁شوہازءَ	-11.8539
▁گوشتے	-11.8539
▁گامگیجے	-11.854
▁اہر	-11.854
▁نوائے	-11.8541
▁توجہ	-11.8542
▁ضلعی	-11.8544
▁فا	-11.8544
▁اکیڈیمی	-11.8549
▁درامدے	-11.855
جون	-11.8553
▁جاورھالانی	-11.8554
▁بیدء	-11.8556
▁وشاتک	-11.856
▁بکشگ	-11.8561
▁ٹاپار	-11.8562
▁بشکھندگی	-11.8564
▁باھوٹی	-11.8566
▁زورءَ	-11.8566
امی	-11.8571
▁گزل	-11.8573
ئیت	-11.8573
▁نداتگ	-11.8576
▁ببات	-11.8576
▁بچی	-11.8577
▁ارسی	-11.8579
▁individual	-11.858
ab	-11.858
▁پتلون	-11.8581
▁پرشتہ	-11.8581
▁فرقہ	-11.8582
▁اھوگ	-11.8584
▁بانکیں	-11.8586
▁مارشتی	-11.8586
▁بؤکیں	-11.8586
▁کمپ	-11.8587
▁لاشاں	-11.8587
▁سویت	-11.8591
▁شریعت	-11.8591
▁اهد	-11.8591
▁گریو	-11.8592
▁نازی	-11.8596
▁تلوار	-11.8597
▁گورانی	-11.8597
▁شیرکن	-11.8597
▁گندات	-11.86
▁ماہءِ	-11.8604
▁منزور	-11.8606
▁far	-11.8607
▁خوف	-11.8607
ائل	-11.8609
▁ٹریکٹر	-11.8609
لیکہ	-11.8609
▁tog	-11.8609
رم	-11.861
▁ٹا	-11.861
مس	-11.8612
▁سکریٹری	-11.8613
▁ھرجان	-11.8613
▁ٹرین	-11.8614
▁ملکان	-11.8614
▁shot	-11.8615
▁سینما	-11.8617
▁دیدانک	-11.8617
کوش	-11.862
▁جانءَ	-11.8626
دن	-11.8629
▁ترجمان	-11.863
▁زاھدہ	-11.863
وہدیکہ	-11.8636
▁پشکپتگیں	-11.8639
▁سرگوات	-11.864
بچ	-11.8644
▁شورہ	-11.8646
li	-11.8646
▁فقط	-11.8646
▁جزیرہ	-11.8647
▁سمبل	-11.865
▁جنگاں	-11.8652
▁ملٹری	-11.8653
کند	-11.8653
▁شاھگانی	-11.8654
عبداللہ	-11.8656
چست	-11.8661
▁رزق	-11.8662
▁زہیرانی	-11.8662
▁پولیو	-11.8663
▁گناه	-11.8664
▁گرانڈ	-11.8668
▁limit	-11.8668
▁rule	-11.8669
▁ناگتءَ	-11.8669
اسحاق	-11.8669
▁احوالکار	-11.867
▁بلیت	-11.8672
▁my	-11.8674
▁زریت	-11.8675
▁سیندک	-11.8675
▁Earl	-11.8675
▁اوستانی	-11.8675
▁Carey	-11.8675
▁ٹریک	-11.8677
▁درخانی	-11.8677
▁نویسے	-11.8679
▁رواجی	-11.8681
▁درباری	-11.8681
ینانی	-11.8684
▁کیگد	-11.8684
▁کسانسال	-11.8686
کئی	-11.8687
▁رسانکجاھ	-11.8691
▁گھڑی	-11.8691
▁لوکل	-11.8697
▁منٹو	-11.8702
▁غذائی	-11.8704
▁پیڑ	-11.8706
▁تصدیق	-11.8707
▁پلیت	-11.8707
▁چھاپءُ	-11.8708
▁بشی	-11.871
▁کب	-11.8711
▁ٹھیکہ	-11.8711
▁29	-11.8711
▁ہوں۔	-11.8712
▁center	-11.8712
▁بیپاری	-11.8714
▁تخیل	-11.8716
مثال	-11.872
▁میڑاں	-11.8721
▁بسم	-11.8722
▁کدین	-11.8723
▁گڑی	-11.8724
▁ایشر	-11.8724
▁گوریچان	-11.8727
ڑیں	-11.8728
▁ارزشتی	-11.873
▁دیو	-11.8731
▁سندءَ	-11.8733
▁مدافعت	-11.8738
▁برقرار	-11.8739
▁ٹویٹ	-11.8739
▁accept	-11.874
ٹے	-11.8742
▁ات۔۔۔۔	-11.8742
▁شدہ	-11.8743
▁احمدان	-11.8743
▁وتساچیں	-11.8743
▁گوزوکیں	-11.8745
زار	-11.8746
▁محرم	-11.875
▁مکرانی	-11.875
▁کارل	-11.8751
▁اچھا	-11.8751
▁شریءَ	-11.8752
▁ساهت	-11.8754
▁روژنائیں	-11.8754
▁Red	-11.8756
na	-11.8756
▁Ka	-11.876
▁اغہ	-11.8763
▁تھل	-11.877
▁begin	-11.877
▁افسوز	-11.8771
اود	-11.8773
▁زامرانی	-11.8773
▁بالو	-11.8774
▁انٹیلیجنس	-11.8775
بین	-11.8777
▁گٹی	-11.8777
▁مافیا	-11.8778
▁جٹ	-11.8779
▁گڑھ	-11.878
لاپ	-11.878
جند	-11.8782
▁براث	-11.8782
▁کوار	-11.8782
▁communit	-11.8783
▁سرکش	-11.8783
▁کانی	-11.8784
▁بیگاه	-11.8787
▁سیلاب	-11.8791
▁سلیمانی	-11.8791
فکشن	-11.8791
▁شیتان	-11.8791
▁گيئش	-11.8793
▁ادینکے	-11.8793
▁دراز	-11.8793
▁بالیچہ	-11.8794
▁مزھب	-11.8794
▁عصر	-11.8796
▁تاپگ	-11.8799
ہور	-11.8799
▁سافٹ	-11.8803
نر	-11.8804
▁عبدالرحمان	-11.8805
6	-11.8805
▁پڈ	-11.8806
▁کارہندہ	-11.8806
▁شموشت	-11.881
نمدی	-11.8813
▁ستاہ	-11.8814
▁کرداں	-11.8814
▁کاسد	-11.8814
▁village	-11.8814
ta	-11.8816
▁هساب	-11.8817
▁شیرازی	-11.8818
▁دلوتاں	-11.882
▁باطنی	-11.8822
▁لاری	-11.8827
کماش	-11.8829
▁زانگءِ	-11.883
▁دروشمانی	-11.8834
▁قوتانی	-11.8835
▁کنڈیرا	-11.8835
field	-11.8835
▁گندئگ	-11.8835
▁انکھوں	-11.8836
▁درگاہ	-11.8836
▁وشال	-11.8837
▁ٹریننگ	-11.8838
▁وارتگ۔	-11.8839
▁anti	-11.884
▁بینجو	-11.8841
▁چینکس	-11.8842
▁چلشت	-11.8845
ہمک	-11.8845
▁چدو	-11.8846
▁کوھیں	-11.8847
▁سورج	-11.8847
▁تلاش	-11.8853
▁پچاں	-11.8853
ways	-11.8853
▁گئے۔	-11.8854
▁تعلقات	-11.8855
▁وشین	-11.8858
▁جاھی	-11.886
▁ویسٹ	-11.8862
▁بئیں۔	-11.8865
▁جنگلات	-11.8866
▁Federer	-11.8867
▁protein	-11.8867
▁اکانومی	-11.8867
▁جھینگا	-11.8867
▁کپی	-11.887
▁دنیاء	-11.8871
▁معراج	-11.8871
▁زنگی	-11.8873
اکی	-11.8875
▁بێ	-11.8875
▁البرٹ	-11.8875
▁بارش	-11.8875
▁ڈاچی	-11.8875
▁بگرد	-11.8878
▁پارٹیز	-11.888
▁جستءَ	-11.8881
▁جبل	-11.8886
▁گشینگ	-11.8886
▁ماڈی	-11.8886
▁رپورٹس	-11.8887
▁ناوشیں	-11.8889
▁تحقیقی	-11.8892
▁نادینت	-11.8892
▁درشانتگ	-11.8894
▁وانگءُ	-11.8896
خی	-11.8897
▁ریھان	-11.8898
▁سؤب	-11.8901
▁Co	-11.8903
▁سروسز	-11.8905
▁جیڑگءَ	-11.8907
▁عبدالصبور	-11.8907
▁سرکتگ	-11.8908
side	-11.8908
▁سلا	-11.8909
۔بلوچی	-11.891
▁fall	-11.891
▁گداری	-11.8912
فت	-11.8912
مپ	-11.8913
▁شرتگ	-11.8914
▁جدیدیت	-11.8919
▁بینر	-11.8921
▁پوره	-11.8921
▁پروشان	-11.8921
▁بدنت۔	-11.8923
اینت	-11.8923
▁بٹے	-11.8924
▁جاں	-11.8925
▁کسانیءَ	-11.8925
▁مشہوریں	-11.8926
جہد	-11.8927
cy	-11.8929
II	-11.8929
▁source	-11.8931
▁رکھنے	-11.8933
▁اژناگ	-11.8934
▁ارز	-11.8934
▁Hero	-11.8935
▁طالع	-11.8935
▁مہروانی	-11.8936
▁کوت	-11.8936
ویل	-11.8938
▁کربلا	-11.894
▁جھدءَ	-11.894
▁حسی	-11.894
▁ہالو	-11.8942
▁mov	-11.8943
▁director	-11.8943
▁ایماندار	-11.8944
▁چابک	-11.8944
▁پتینکاں	-11.8945
▁نزار	-11.8949
▁تبلیغ	-11.8949
▁ها	-11.8949
▁ہردوئیں	-11.895
▁ترانگانی	-11.895
▁بحالی	-11.8952
▁حاکمانی	-11.8953
دیست	-11.8954
▁گرپتاری	-11.8954
▁کیچی	-11.8955
▁سیاستءَ	-11.8955
▁front	-11.8956
▁مڑدے	-11.8956
▁نندان	-11.8959
▁جمر	-11.8964
▁International	-11.8964
▁چانسلر	-11.8965
▁George	-11.8965
▁قیاس	-11.8965
▁ساھیل	-11.8966
▁ہاجی	-11.8966
▁گرمائشت	-11.8966
ial	-11.8966
▁William	-11.8966
وپ	-11.8967
ka	-11.8967
▁ابتدائی	-11.8969
▁manager	-11.8969
▁جیسا	-11.8972
▁تیگ	-11.8974
▁زوم	-11.8975
▁پائی	-11.8976
▁رژنے	-11.8978
شگ	-11.8979
▁دوئم	-11.8979
▁چیدگانی	-11.898
▁ناوشی	-11.8981
▁نهات	-11.8982
▁گوشتگیں	-11.8982
گاہ	-11.8983
▁شناست	-11.8983
▁کردءَ	-11.8984
▁گودی	-11.8984
▁جیسی	-11.8986
de	-11.8986
دک	-11.8987
▁راھ	-11.8989
▁نمیرانی	-11.899
▁ربیتے	-11.8992
▁ٹول	-11.8992
▁هاتر	-11.8996
▁یاری	-11.8996
مز	-11.8997
▁involv	-11.8998
▁اسٹاپ	-11.8999
▁شموشکار	-11.8999
▁مہنگائی	-11.9
▁ہول	-11.9
▁ہاشم	-11.9001
▁اکساں	-11.9002
▁ہکل	-11.9005
ناصر	-11.9008
▁خوبی	-11.9009
بیست	-11.9012
▁دیوی	-11.9013
الله	-11.9014
▁ازاتیءِ	-11.9014
▁فکرے	-11.9016
▁استعارہ	-11.9016
▁activit	-11.9018
گیری	-11.9018
▁مودی	-11.9018
▁ریپ	-11.9019
▁پژ	-11.902
▁سوالی	-11.902
▁عکسانی	-11.9021
لیٹ	-11.9022
▁درامدی	-11.9022
▁میٹرک	-11.9024
▁رہتا	-11.9025
▁دئیگءَ	-11.9025
▁سالیگیں	-11.9026
▁con	-11.9027
▁واھش	-11.9028
▁language	-11.9029
▁Wales	-11.903
▁واهند	-11.903
▁Part	-11.9031
امیت	-11.9032
▁subse	-11.9032
▁نبیستگ	-11.9033
▁کدم	-11.9033
▁پرنسپل	-11.9033
▁"","	-11.9034
▁ااے	-11.9034
▁hand	-11.9038
▁member	-11.9039
▁شرپی	-11.9041
▁ارسے	-11.9042
▁گورکوپ	-11.9044
▁نشتگ۔	-11.9045
▁اپسرے	-11.905
▁عشقی	-11.905
▁واپار	-11.9055
▁ملگور	-11.9058
▁ڈھانچہ	-11.9062
▁launch	-11.9062
انہی	-11.9063
▁مشق	-11.9064
▁رخشان	-11.9065
▁کردیا	-11.9065
▁گہیں	-11.9067
▁دلار	-11.9067
▁چریشانی	-11.9068
▁کائیگر	-11.9068
▁ask	-11.9068
▁طاھر	-11.9069
▁شاھگانیں	-11.907
▁جہانءَ	-11.9072
▁تهار	-11.9072
ازمان	-11.9072
▁مصرعہ	-11.9075
▁جنوب	-11.9077
▁opening	-11.9077
▁بھارتی	-11.9078
▁ڈاکٹرانی	-11.9078
▁بکتیں	-11.9079
ڈول	-11.908
▁گوٹ	-11.9081
▁رکست	-11.9082
▁زیردستیں	-11.9083
رام	-11.9083
پری	-11.9083
▁بنچ	-11.9083
▁بریت	-11.9084
▁چلو	-11.9087
▁نزانتکاری	-11.9087
▁اسراتیانی	-11.9088
▁پٹاں	-11.9088
▁بیشک	-11.9089
ناز	-11.909
▁پشکپتگ	-11.909
▁regular	-11.9095
▁بشکندگ	-11.9096
▁current	-11.9097
▁نادانی	-11.9097
▁Day	-11.9098
▁اون	-11.9099
▁صفائی	-11.9099
▁واضح	-11.91
▁ھوالگ	-11.9101
▁free	-11.9102
▁قلندر	-11.9102
▁wall	-11.9103
▁قاری	-11.9108
▁شادءَ	-11.9109
▁جدلیات	-11.911
▁زاهر	-11.9112
▁کوشکار	-11.9113
کساس	-11.9114
▁شاپی	-11.9116
▁گهار	-11.9116
▁مشکلے	-11.9117
▁برین	-11.9121
▁زورگپت	-11.9121
▁ایدا	-11.9121
▁دروازگے	-11.9122
▁مڑائی	-11.9123
▁بوهگ	-11.9124
▁پتن	-11.9124
▁کبرانی	-11.9124
▁ڈنگی	-11.9125
▁رھیم	-11.9126
▁لعنت	-11.9127
▁شربت	-11.9127
سیت	-11.9127
mph	-11.9127
▁ڈپارٹمنٹ	-11.9129
▁کانپرنس	-11.9129
▁House	-11.9129
▁روانت	-11.913
▁انکی	-11.9131
ائز	-11.9132
▁ناروائی	-11.9133
▁جدائی	-11.9134
▁مشھد	-11.9135
▁دوائی	-11.9135
گڈ	-11.9135
▁تھئی	-11.9136
▁تصوف	-11.9136
▁سرنگ	-11.9138
▁گانی	-11.9138
پار	-11.9139
▁میدانی	-11.914
▁گورتگ	-11.9141
▁پروا	-11.9141
▁هوش	-11.9141
▁طبیب	-11.9144
جارکش	-11.9145
▁درکپان	-11.9146
▁جول	-11.9147
الوں	-11.9147
▁destroy	-11.915
دژمن	-11.915
▁نیما	-11.9151
▁ہمبل	-11.9153
▁ever	-11.9156
▁اچے	-11.9156
▁جذباتی	-11.9157
▁گردہ	-11.9158
▁چوری	-11.9163
▁امنہ	-11.9163
▁سومری	-11.9165
▁دہقان	-11.9166
▁دھمی	-11.9168
▁لپرزگ	-11.9168
▁تلگ	-11.9169
▁اسءِ	-11.917
▁بلکین	-11.9171
▁سرپرہ	-11.9171
نیک	-11.9171
▁لبزیات	-11.9174
▁شمسی	-11.9174
ircraft	-11.9175
▁دزگ	-11.9175
یلی	-11.9178
نومبر	-11.9179
▁بھائیں	-11.9179
▁پتاں	-11.918
▁بداتیں	-11.9185
▁زیرک	-11.9188
پرچہ	-11.9191
▁زریات	-11.9191
▁ازمانی	-11.9192
بھ	-11.9194
ۆکێں	-11.9194
▁دھوت	-11.9195
▁بائیکاٹ	-11.9195
▁نودی	-11.9195
▁راولپنڈی	-11.9195
▁بوھگءِ	-11.9202
▁سنگار	-11.9204
نتا	-11.9205
▁قالب	-11.9205
▁جوھان	-11.9206
▁تازہ	-11.9206
▁تز	-11.9207
▁کرنءِ	-11.9209
▁نورمحمد	-11.9209
▁نیمءَ	-11.9209
▁پٹے	-11.921
▁مادنی	-11.9213
▁نیزگاریں	-11.9213
▁چیار	-11.9213
▁اشکانی	-11.9214
▁موکہ	-11.9215
▁برگا	-11.9216
▁شدیک	-11.9216
▁پیشدار	-11.9217
▁Nav	-11.9219
لشکر	-11.922
▁واھگدار	-11.9222
▁سفرے	-11.9222
▁prais	-11.9226
▁clear	-11.9228
▁خلیات	-11.9229
▁size	-11.9229
▁طویل	-11.9229
▁مارکسزم	-11.9229
ہار	-11.923
▁contract	-11.923
▁صف	-11.923
▁ارگی	-11.9231
▁کرگین	-11.9231
▁پرماتگ	-11.9235
سکیں	-11.9236
▁اعلان	-11.9239
▁میلان	-11.924
▁تورات	-11.9241
▁San	-11.9241
▁لنککانی	-11.9242
▁رؤت۔	-11.9243
▁اچھی	-11.9243
▁اسٹار	-11.9243
▁Game	-11.9244
▁نبشتگ۔	-11.9246
▁central	-11.9253
▁فوک	-11.9253
▁مرکءَ	-11.9254
▁صورتے	-11.9255
▁grow	-11.9255
۔چہ	-11.9256
▁کارنت	-11.9257
▁مورے	-11.9257
▁کپگءَ	-11.9257
▁دانے	-11.926
▁Street	-11.9262
▁نیکشھر	-11.9262
▁یوٹیوب	-11.9264
▁نیر	-11.9266
▁داناں	-11.9267
بز	-11.9267
▁انیگ	-11.9268
▁زرورت	-11.9268
▁اداره	-11.927
▁سالہ	-11.9271
▁درونتاں	-11.9271
▁لۆگئے	-11.9272
▁بہتامے	-11.9277
▁دلئ	-11.9277
▁کپات	-11.928
▁نمی	-11.9289
▁کراچیءِ	-11.929
▁هنچو	-11.9291
▁hit	-11.9293
▁اگا	-11.9295
nder	-11.9295
▁باجی	-11.9295
▁recording	-11.9295
▁بہرءُ	-11.9295
▁Championship	-11.9296
▁تفتان	-11.9296
ایم	-11.9297
▁sea	-11.93
▁شکلے	-11.93
▁مشیر	-11.9301
▁والہ	-11.9302
سم	-11.9303
▁کارمرزگ	-11.9305
▁مارتگ	-11.9305
.”	-11.9306
▁اریائی	-11.9306
▁دیتی	-11.9307
تاب	-11.9308
▁هاک	-11.9309
▁کسهے	-11.931
۔پمیشکہ	-11.9313
▁بڑگ	-11.9323
▁ترست	-11.9328
▁artist	-11.9329
▁Follow	-11.933
▁مانچسٹر	-11.933
▁عبدالقیوم	-11.933
▁مھلہ	-11.9331
▁توجیلے	-11.9332
▁مجبوری	-11.9332
▁find	-11.9336
▁فاطمہ	-11.9337
▁کوری	-11.9337
▁موجودگی	-11.9337
▁اردوءِ	-11.9338
▁مھ	-11.9338
▁اي	-11.9341
▁بلڈنگ	-11.9342
▁مہماناں	-11.9345
▁کامی	-11.9349
▁پرشان	-11.935
▁ملیں	-11.935
▁پترت۔	-11.935
▁لیبیاں	-11.9353
▁سچان	-11.9354
▁draw	-11.9357
▁رومی	-11.9357
▁رودینی	-11.9358
▁ڈؤل	-11.9358
▁ھردوکانی	-11.936
▁واجہءَ	-11.936
▁تمردی	-11.9362
▁دمکانی	-11.9362
ns	-11.9362
▁Jordan	-11.9363
▁رکاوٹ	-11.9363
▁ھالتاک	-11.9364
▁کانگریس	-11.9364
▁مسل	-11.9365
▁سحار	-11.9366
▁اسٹاف	-11.9369
▁ماشکیل	-11.9369
ینیت۔	-11.937
▁کوپگانی	-11.9373
▁appearance	-11.9374
▁سھی	-11.9374
▁موڈ	-11.9376
▁شمالی	-11.9376
پگ	-11.9377
دلی	-11.9383
شش	-11.9386
▁زیبدار	-11.9388
▁پسگاں	-11.9389
▁mix	-11.9391
اتے	-11.9393
سندھ	-11.9393
▁شن	-11.9394
upon	-11.9395
▁واہگاں	-11.9395
▁کپتان	-11.9395
▁چاتے	-11.9397
▁پکن	-11.9397
▁evidence	-11.9397
▁regard	-11.9397
▁commercial	-11.9397
▁From	-11.9397
▁ھوس	-11.9398
شتہ	-11.9398
▁عبدالقدوس	-11.94
▁نزوریانی	-11.9401
▁دفعہ	-11.9401
▁cast	-11.9402
▁ٹائر	-11.9403
▁وسیع	-11.9405
▁کساسءَ	-11.9405
2014	-11.9405
▁مظہر	-11.9405
▁met	-11.9413
۔تو	-11.9414
▁پہلا	-11.9414
▁yard	-11.9415
ٹھ	-11.9416
لڈ	-11.9417
▁زھیروک	-11.9418
▁شکور	-11.9421
▁مہرگ	-11.9423
▁ٹینک	-11.9423
▁درشانگ	-11.9424
▁دیھ	-11.9426
▁ھالتران	-11.9427
▁Michael	-11.9432
▁معشیت	-11.9432
▁gain	-11.9432
▁مردیناں	-11.9432
▁سرکپت	-11.9433
▁لہڑئگ	-11.9434
▁نویسانی	-11.9439
▁گرائمر	-11.9439
▁بیچارگیں	-11.9439
▁زلمانی	-11.944
▁انت۔ا	-11.9442
▁سیمک	-11.9443
▁ہاتھوں	-11.9444
▁ببارت	-11.9444
▁شائریءَ	-11.9444
▁اوشتاتگ۔	-11.9445
▁پیرین	-11.9446
▁باراں	-11.9446
▁Christian	-11.9446
▁پلگاری	-11.9447
۔ما	-11.9447
▁ھلوت	-11.9449
▁براں۔	-11.9449
▁river	-11.945
▁انجیر	-11.945
رات	-11.945
▁جمالیاتی	-11.9452
illa	-11.9453
کیا	-11.9453
▁ناٹک	-11.9453
بلک	-11.9454
برات	-11.9454
▁لیٹر	-11.9454
▁Tw	-11.9456
▁رچیت	-11.9457
▁کھنت	-11.9459
۔نوں	-11.9461
▁سوگاتے	-11.9463
▁ماھان	-11.9464
▁سہولت	-11.9466
▁Rock	-11.9466
▁بیرگیری	-11.9466
▁break	-11.9466
▁بیٹھ	-11.947
▁سوزش	-11.947
▁واگ	-11.947
▁لائکی	-11.9473
▁بہارگاہ	-11.9473
▁وانگیانی	-11.9474
▁فطری	-11.9475
▁rock	-11.9475
▁چینچک	-11.9478
▁عمرے	-11.9482
ful	-11.9483
شام	-11.9483
▁مرتبہ	-11.9484
▁ریت	-11.9485
▁زرتءُ	-11.9486
▁بیاات	-11.9487
ha	-11.9491
▁اوپن	-11.9492
▁مکہیں	-11.9494
▁مبو	-11.9495
پول	-11.9496
▁بچوں	-11.9497
▁agree	-11.9499
▁پادءَ	-11.9499
▁تمردیں	-11.9501
▁گشوک	-11.9502
▁افیشل	-11.9503
▁مشتمل	-11.9504
▁کوتاہ	-11.9506
▁چتر	-11.9507
▁لکھوڑ	-11.9508
اسک	-11.9509
▁ث	-11.9513
▁تیس	-11.9514
۔ائیءَ	-11.9514
▁نوار	-11.9518
▁توکی	-11.9518
▁تہراں	-11.9519
▁بندپتر	-11.9521
تغیں	-11.9522
99	-11.9523
ves	-11.9523
بزانت	-11.9524
▁200	-11.9525
▁31	-11.9525
جوان	-11.9528
▁دروراں	-11.9531
▁کدام	-11.9532
▁کتکار	-11.9534
▁شہرانی	-11.9535
▁یورش	-11.9535
شمے	-11.9536
▁پورے	-11.9539
▁جیڑگاں	-11.9539
▁چاچے	-11.954
▁بانڑی	-11.9541
▁ییں	-11.9542
▁saw	-11.9543
▁ھیبتان	-11.9547
)"	-11.9547
▁جوڑینگ	-11.9549
▁پوشاکاں	-11.9551
▁الت	-11.9552
▁کیک	-11.9553
▁دراہی	-11.9555
▁درانڈیھ	-11.9555
▁مرادجان	-11.9556
▁سرکچ	-11.9556
▁نامرد	-11.9559
▁سمیت	-11.9561
▁چیھال	-11.9561
چا	-11.9563
یڈ	-11.9564
▁حقدار	-11.9566
▁وجودی	-11.9567
▁کوشاں	-11.9569
▁ات۔کہ	-11.957
▁استی	-11.957
▁ہجرت	-11.9572
▁اومیت	-11.9572
▁لکانی	-11.9573
ھون	-11.9574
▁Mary	-11.9576
▁گوستگین	-11.9576
▁نیادے	-11.9576
▁مرادے	-11.9578
read	-11.958
الو	-11.9583
..."	-11.9585
▁ات۔ائیءَ	-11.9585
▁پتریت	-11.9588
▁کمکین	-11.9589
▁شھمیر	-11.959
▁مھربان	-11.959
▁کٹوکیں	-11.959
ell	-11.959
▁سپاہیگ	-11.959
▁تاہم	-11.9591
▁ہتم	-11.9592
▁مرتگاں	-11.9592
▁بندین	-11.9597
▁فیل	-11.9599
ted	-11.96
▁پھزداری	-11.9601
▁reveal	-11.9604
▁ازمائش	-11.9605
▁نبا	-11.9605
▁براھوی	-11.9607
▁مالداری	-11.9609
▁دگاں	-11.961
▁معاف	-11.9612
▁گؤر	-11.9612
▁فرعون	-11.9613
▁جوانیءَ	-11.9614
▁خاصیت	-11.9615
▁توکہ	-11.9615
▁مهمان	-11.9616
▁replac	-11.9617
▁کدرتی	-11.962
▁مھنت	-11.9624
▁کرنا۔	-11.9625
▁نیچے	-11.9627
▁پکی	-11.9628
▁ایکٹ	-11.963
▁بندنت	-11.9631
▁score	-11.9631
▁چاپءُ	-11.9632
امین	-11.9632
▁بوہگا	-11.9632
▁فلسطینی	-11.9633
▁دیگری	-11.9633
▁بکشات	-11.9634
▁راگے	-11.9635
▁پوریا	-11.9637
C	-11.9637
▁گھڑیال	-11.9638
▁الاقوامی	-11.9639
▁outside	-11.9639
▁گراک	-11.964
▁بیتگینانی	-11.9641
▁پادمال	-11.9641
▁troops	-11.9642
▁تقدیر	-11.9642
▁نیویارک	-11.9643
▁ھوالہ	-11.9643
▁اجل	-11.9644
چیز	-11.9644
بوان	-11.9644
▁قدیمی	-11.9645
▁عقیدہ	-11.9645
مد	-11.9645
▁دہل	-11.9646
▁کارکنگ	-11.9647
▁فرزند	-11.9648
???	-11.9648
▁فریاد	-11.9648
▁بایدیں	-11.9649
▁battle	-11.965
کتہ	-11.965
▁ترمیم	-11.9651
▁درشاندابے	-11.9654
ونک	-11.9655
▁یکمشت	-11.9655
مکن	-11.9655
▁event	-11.9656
▁استالانی	-11.9657
قران	-11.9657
▁پزور	-11.9657
▁معاشرتی	-11.9659
ونگ	-11.966
wood	-11.9661
کاریں	-11.9661
▁چالاک	-11.9661
▁پہمئنءِ	-11.9662
▁نکہ	-11.9665
▁لچہی	-11.9668
▁مکسک	-11.9669
▁امرے	-11.9672
▁کرنانی	-11.9672
▁ہیت	-11.9673
▁پارس	-11.9673
▁زوربیگواہی	-11.9674
▁northern	-11.9674
▁ٹیچنگ	-11.9675
▁برجمیں	-11.9675
▁هاترا	-11.9676
تہ۔	-11.9676
uest	-11.9677
▁شخصی	-11.9681
▁معصوم	-11.9683
▁کائیں	-11.9683
▁اشترانی	-11.9685
▁خراسان	-11.9689
ھبر	-11.9689
▁جونے	-11.9689
▁ہشکیں	-11.969
▁کبیر	-11.9691
▁۔۔۔۔۔۔۔۔	-11.9693
▁فش	-11.9693
▁جتءُ	-11.9701
▁تبءِ	-11.9704
▁جہلگ	-11.9705
▁rank	-11.9706
▁وحی	-11.9706
▁اران	-11.9708
▁Tech	-11.9709
▁گریوان	-11.9709
▁امتحان	-11.9709
▁ٹہشت	-11.9709
▁جنئے	-11.971
▁سواراں	-11.971
▁دیمااہتگ	-11.971
▁ھدوناک	-11.9712
▁عنایت	-11.9713
▁سوجے	-11.9714
▁اھتک	-11.9715
▁جوانتر	-11.9715
▁وشان	-11.9716
▁سرجمین	-11.9718
▁مارکیز	-11.9719
▁لنکا	-11.9719
▁دوہزار	-11.972
۔پرچاکہ	-11.972
روس	-11.972
▁ساماناں	-11.9721
▁پگرانی	-11.9722
روک	-11.9723
▁mean	-11.9724
▁پتات	-11.9725
▁جامع	-11.9725
▁پھکیں	-11.9725
▁بغداد	-11.9725
▁کچکول	-11.9728
▁ماجد	-11.9729
▁شاھوانی	-11.9729
زانی	-11.9731
گہ	-11.9731
▁چمروک	-11.9731
▁ڈوبار	-11.9732
باری	-11.9733
▁هار	-11.9734
▁ھرمردم	-11.9735
▁پسگانی	-11.9737
▁پہناد	-11.9737
▁درجنگ	-11.9737
▁ہروہد	-11.9739
▁نسلی	-11.9741
پک	-11.9742
جاھے	-11.9743
▁واجہءِ	-11.9745
▁رفت	-11.9747
▁نیمگء	-11.9747
▁ھکیکت	-11.9749
مستریں	-11.9751
▁لپ	-11.9751
کپت	-11.9752
▁دوئین	-11.9752
▁بوارت	-11.9753
▁اٹھا	-11.9755
▁نادرائی	-11.9756
▁ارباب	-11.9757
▁ورناھے	-11.9757
قوم	-11.9758
▁مزھبی	-11.9759
▁دزگہار	-11.976
▁زدگیں	-11.9763
lorida	-11.9765
▁پچگ	-11.9767
▁ضیا	-11.9768
▁دپءِ	-11.9768
ن۔	-11.9769
▁yards	-11.9769
▁ستم	-11.9769
▁ھزارہ	-11.9771
▁نپت	-11.9772
ره	-11.9773
▁experience	-11.9775
▁تھرو	-11.9776
▁cit	-11.9776
▁بیٹا	-11.9776
▁پلگارگ	-11.9777
دانکہ	-11.9778
▁درمانے	-11.9778
▁length	-11.9779
▁conduct	-11.9779
▁اسانیں	-11.9779
▁وزبت	-11.978
پن	-11.978
▁section	-11.978
▁لوٹیتگ	-11.9781
▁reason	-11.9781
▁سدگ	-11.9782
▁ابابگر	-11.9783
▁زرناز	-11.9783
▁تنیگا	-11.9784
▁سانیٹ	-11.9784
▁ہیرو	-11.9786
me	-11.9788
▁دائرہ	-11.9788
▁بهداشتی	-11.9788
▁واہد	-11.9789
▁اتنتءُ	-11.979
کلی	-11.9791
▁ایرجنگ	-11.9792
▁دلدار	-11.9793
رحم	-11.9794
▁تلوس	-11.9795
▁جاہو	-11.9795
۔مئے	-11.9797
▁court	-11.9799
ہمیش	-11.9803
چارمی	-11.9803
دہی	-11.9806
▁جیڑه	-11.9808
▁سہمی	-11.9809
زو	-11.9812
▁نیاریت	-11.9815
▁جفا	-11.9815
▁سیپ	-11.9816
▁possible	-11.9818
▁بنگل	-11.9821
▁جہدءِ	-11.9821
▁منکر	-11.9822
گد	-11.9823
▁ھسا	-11.9824
▁location	-11.9824
▁تمرد	-11.9824
▁نویسوک	-11.9825
▁کیمتی	-11.9827
▁نتا	-11.9828
▁ہیگل	-11.9828
دارگ	-11.9829
▁ھمش	-11.9831
▁Li	-11.9831
▁سیرءُ	-11.9834
▁پوسٹے	-11.9837
پولیس	-11.9841
▁گژنگ	-11.9842
▁تھو	-11.9842
▁ورئے	-11.9843
گچین	-11.9843
▁دیتہ	-11.9844
زمانہ	-11.9846
▁گوران	-11.9847
▁چستءُ	-11.9848
▁اباتی	-11.985
▁league	-11.985
▁ولگوج	-11.9851
▁crew	-11.9851
▁جائیداد	-11.9851
▁نپرت	-11.9851
ang	-11.9851
▁مھناز	-11.9852
▁دھن	-11.9853
سیل	-11.9853
▁Paul	-11.9854
▁قدح	-11.9854
▁نتھا	-11.9856
اسل	-11.9856
▁saying	-11.9857
▁ہائیکو	-11.9857
▁زادگ	-11.9859
۔۔۔من	-11.9861
▁ھاشم	-11.9863
▁رپکاں	-11.9866
▁زانتءِ	-11.9866
▁زانتانی	-11.9872
▁درتہ	-11.9873
ک۔	-11.9873
▁گشین	-11.9874
▁عمومدار	-11.9875
▁بھنگ	-11.9876
▁پیراں	-11.9877
▁درابوت	-11.9878
▁وج	-11.9881
▁دنگ	-11.9882
▁انام	-11.9883
▁دربہ	-11.9885
▁account	-11.9886
▁competition	-11.9886
▁material	-11.9886
▁flood	-11.9886
▁فصیح	-11.9886
▁تشریح	-11.9886
▁لگے	-11.9886
▁پوزیشن	-11.9887
▁500	-11.9888
▁غزہ	-11.9888
▁دوستناک	-11.9888
▁حاموش	-11.9888
▁نیبگ	-11.9888
▁وروک	-11.989
▁مھری	-11.9893
▁شفیقہ	-11.9897
▁متن	-11.9898
▁سازگر	-11.9898
▁عطر	-11.9898
▁Pol	-11.9898
دلگوش	-11.9899
▁ٹکءِ	-11.9902
رحیم	-11.9904
▁مرتب	-11.9906
۔بلکیں	-11.9907
پھ	-11.9908
▁جنید	-11.9909
▁سیادانی	-11.9911
▁مم	-11.9916
▁باہند	-11.9916
▁working	-11.992
▁شریپ	-11.9921
▁بچکندگے	-11.9922
▁effort	-11.9922
▁international	-11.9922
▁ایڈووکیٹ	-11.9922
▁Richard	-11.9922
▁دیرو	-11.9923
▁گدے	-11.9924
▁عبدالرزاق	-11.9925
▁whom	-11.9925
▁نذیر	-11.9925
▁مانتر	-11.9925
la	-11.9926
▁قائد	-11.9929
▁کنیت	-11.9929
▁ہیومن	-11.9931
uick	-11.9932
▁سرنامگ	-11.9933
▁گلوبل	-11.9933
▁مزائیں	-11.9933
▁introduc	-11.9935
سرجم	-11.9937
▁کارکناں	-11.9937
۔گڈا	-11.9937
▁سوتانی	-11.9937
راجدپتر	-11.9937
▁round	-11.9938
▁راجداری	-11.9938
▁بئیان	-11.994
▁محکمی	-11.9941
▁برھنگ	-11.9942
▁رسمءُ	-11.9944
▁کساسیں	-11.9944
▁ساتھی	-11.9944
▁عکساں	-11.9946
more	-11.9946
▁دلسیاھی	-11.9949
▁باس	-11.995
قصہ	-11.9951
▁دنزاں	-11.9952
مانءَ	-11.9952
▁گڑتی	-11.9953
▁شپا	-11.9954
served	-11.9958
▁سنڈیمن	-11.9958
▁ولیعہد	-11.9958
▁تۆکا	-11.9958
▁ملیشیا	-11.9958
ائینت	-11.996
▁ھرروچ	-11.9961
▁مبنی	-11.9962
▁سئیمی	-11.9962
▁جنینءَ	-11.9963
▁مھلوکءِ	-11.9963
▁شؤر	-11.9963
▁گالوارانی	-11.9964
▁اسکرین	-11.9965
▁شرگدارے	-11.9965
▁سربار	-11.9968
▁بانداتءِ	-11.997
▁شھرے	-11.997
▁دران	-11.9971
▁گلگل	-11.9973
▁Most	-11.9976
▁گوستگ۔	-11.9976
▁استنت	-11.9977
ریل	-11.998
▁سنداں	-11.998
▁اسرات	-11.9981
سربوتگیں	-11.9981
▁پتہ	-11.9981
حاجی	-11.9981
▁ٹوٹ	-11.9982
۔یک	-11.9983
▁موسمءَ	-11.9984
منت	-11.9986
شھید	-11.9987
▁زانگول	-11.9987
جاگہ	-11.9988
▁پرکاری	-11.9989
▁عمرءِ	-11.9993
▁Hurricane	-11.9994
▁Missouri	-11.9994
▁poor	-11.9994
▁پریمئیر	-11.9994
▁خداوند	-11.9995
▁extend	-11.9996
▁مشرق	-11.9996
▁کرتگءُ	-11.9999
▁باروء	-11.9999
گمان	-12
▁بامسار	-12.0001
▁ناسرجمیں	-12.0002
▁اسپتیں	-12.0002
▁پاسپان	-12.0002
▁گؤن	-12.0003
▁کہدا	-12.0003
گراں	-12.0003
▁ہجری	-12.0008
▁چلہ	-12.0008
▁یقینی	-12.0008
▁گلشن	-12.0012
▁بیوی	-12.0017
▁گنجے	-12.0017
▁مکسدے	-12.0018
▁بوہگءِ	-12.0018
▁average	-12.0019
▁بندءَ	-12.0019
▁وندر	-12.0021
▁گوپگ	-12.0022
▁گیچن	-12.0024
▁سستی	-12.0026
▁سئوت	-12.0027
▁appoint	-12.0028
▁مازگ	-12.0029
▁گرگا	-12.0029
عی	-12.0029
▁2001	-12.003
▁لچہے	-12.0031
▁درزن	-12.0031
▁لیکچر	-12.0032
▁شیرزال	-12.0033
▁شرانت	-12.0033
▁شمشکار	-12.0035
▁مکرانءِ	-12.0036
▁رہیں	-12.0038
▁جھاز	-12.0039
▁ھمید	-12.004
▁کودکی	-12.0041
▁اہن	-12.0042
▁اٹھ	-12.0043
▁سیبی	-12.0045
ریش	-12.0045
▁زکر	-12.0046
▁red	-12.0048
▁مناک	-12.0051
گن	-12.0053
▁مہراب	-12.0053
▁پہازگ	-12.0055
▁تاھیری	-12.0056
اومان	-12.0059
اکہ	-12.0065
▁مکتبہ	-12.0066
▁کشے	-12.0066
▁سفارش	-12.0067
▁داعش	-12.0067
▁مصنف	-12.0067
▁لبزتکنیک	-12.0068
▁۔مئے	-12.0068
▁واپاری	-12.0076
▁خیالی	-12.0077
low	-12.0079
▁جہلءَ	-12.0082
▁زھنی	-12.0084
قومی	-12.0086
▁لوگا	-12.0087
▁هرچی	-12.009
تار	-12.009
لانی	-12.0091
▁نظریات	-12.0095
▁دپتری	-12.0096
▁بوتگت	-12.0097
▁گٹے	-12.0099
▁اگاہی	-12.0099
▁ہائوس	-12.0103
▁فروغ	-12.0104
▁نامگ	-12.0105
▁زیشان	-12.0105
ارو	-12.0106
▁روڑ	-12.0106
▁سادے	-12.0107
▁کیفے	-12.0107
▁Du	-12.0109
ساری	-12.0111
▁ابرمءِ	-12.0111
▁میوہ	-12.0113
سپر	-12.0114
لیکن	-12.0114
▁راہشون	-12.0116
وج	-12.0117
▁قندھار	-12.0118
▁کورچات	-12.0118
رت	-12.0123
▁پھلوان	-12.0124
▁ندکاراں	-12.0125
▁دروشمی	-12.0128
▁fre	-12.0128
کسان	-12.0129
پڑ	-12.0131
▁پیشتر	-12.0134
▁مھکمہ	-12.0134
▁شیڈول	-12.0137
▁نامءِ	-12.0138
▁نکرت	-12.0138
▁خوشی	-12.014
▁زندئ	-12.014
▁یاں۔	-12.014
▁سلحہ	-12.0141
▁پیچیدہ	-12.0141
▁شریان	-12.0142
▁زلوری	-12.0143
▁گویا	-12.0146
▁car	-12.0146
▁فائر	-12.0147
▁چیلک	-12.0149
▁واقف	-12.0149
▁گندیت۔	-12.0151
نل	-12.0152
▁مردماناں	-12.0153
▁نندگی	-12.0153
▁پساں	-12.0154
▁امریکن	-12.0154
▁ہاکمی	-12.0155
ney	-12.0157
▁پرینت	-12.0159
▁plann	-12.0159
▁بدبھتی	-12.016
▁اقرار	-12.016
▁درتک	-12.0161
▁چہار	-12.0162
ge	-12.0164
▁Sun	-12.0169
▁درزی	-12.0178
▁ہرنائی	-12.0179
▁گورءِ	-12.0179
▁برامدات	-12.0179
▁بڈءَ	-12.018
تانی	-12.018
▁کینیڈا	-12.0181
▁ابرار	-12.0181
▁حیدراباد	-12.0182
der	-12.0182
▁بیٹے	-12.0183
▁سفید	-12.0184
▁تمثیل	-12.0184
▁کؤش	-12.0185
▁یافتہ	-12.0185
▁And	-12.0185
▁واجھ	-12.0188
▁کشکانی	-12.0189
کارست	-12.019
▁کمٹمنٹ	-12.0191
▁بگوشیت	-12.0191
▁روہ	-12.0193
انکی	-12.0193
▁مھران	-12.0195
رژن	-12.0195
▁ریتک	-12.0196
▁سارے	-12.0196
▁گیجیت	-12.0197
پش	-12.0197
▁بازیابی	-12.0197
▁جھدکاراں	-12.0199
▁مجاھد	-12.0199
▁پروشیں	-12.02
▁روزرد	-12.02
زرد	-12.02
▁ماد	-12.0201
کول	-12.0203
زگ	-12.0204
▁تورگ	-12.0206
▁منیگ	-12.0206
▁producer	-12.021
ایرانی	-12.021
▁بیپار	-12.0211
یٰ	-12.0212
▁راستیاں	-12.0212
▁ممبئی	-12.0213
▁دارالعلوم	-12.0214
▁گریہان	-12.0216
▁اردشیر	-12.0216
▁داث	-12.0217
▁برگءَ	-12.0218
▁بگنداں	-12.0219
▁ھلیل	-12.0219
ندی	-12.0219
▁نندئے	-12.022
▁امران	-12.022
▁ماہکان	-12.022
▁پذا	-12.0221
روکیں	-12.0222
▁راستین	-12.0224
▁احتنت	-12.0225
day	-12.0226
لج	-12.0228
▁اماچی	-12.0228
▁زھیرانی	-12.0228
▁سالانہ	-12.0228
▁ball	-12.023
کوئی	-12.0232
▁دال	-12.0232
L	-12.0239
لیب	-12.024
no	-12.0243
سلام	-12.0245
▁ٹگل	-12.0245
شرگدار	-12.0245
▁پاکی	-12.0248
▁ٹیپ	-12.0248
▁Indian	-12.0248
▁magazine	-12.0251
▁مینجمنٹ	-12.0251
▁نگہداشت	-12.0251
▁stay	-12.0251
▁مرشد	-12.0251
▁وسعت	-12.0251
▁هلک	-12.0252
▁جہدکار	-12.0252
درستیں	-12.0253
▁دبستان	-12.0256
▁روتگاں	-12.0257
▁زیتون	-12.0259
نچ	-12.026
men	-12.0261
▁سمب	-12.0263
▁My	-12.0267
▁arriv	-12.0268
▁گندہ	-12.0268
▁اگاھی	-12.027
▁لاپتہ	-12.027
▁تسلی	-12.0271
اغ	-12.0271
▁سدءُ	-12.0272
▁بست۔	-12.0274
▁پشپد	-12.0274
بید	-12.0274
▁اروچ	-12.0275
▁مرہ	-12.0276
▁دراتک۔	-12.0279
▁بازانت	-12.0279
▁واش	-12.0281
▁رۆچا	-12.0281
▁سلامتیں	-12.0283
▁پھاز	-12.0285
▁learn	-12.0288
▁Great	-12.0288
▁مالا	-12.0291
▁بیت۔من	-12.0292
چپ	-12.0292
▁ہوشاپ	-12.0294
▁کبلہ	-12.0294
▁عبدالغفور	-12.0296
▁تھرے	-12.0297
▁مردا	-12.0299
▁ماہیں	-12.0299
▁بگندیت	-12.03
▁station	-12.0301
▁کارامد	-12.0302
▁گزیر	-12.0302
▁احتجاج	-12.0303
دیمرھی	-12.0304
▁شاگ	-12.0304
گنوک	-12.0308
غم	-12.0309
▁نمادار	-12.031
فضل	-12.0313
▁شتیں۔	-12.0314
▁approach	-12.0314
▁ہمگرنچی	-12.0317
▁وشدل	-12.0318
▁رانا	-12.0318
98	-12.0318
▁ساھب	-12.032
▁ترپگ	-12.0322
▁leave	-12.0323
▁ملایانی	-12.0324
▁بیوروکریسی	-12.0325
▁horse	-12.0325
▁لامحدود	-12.0325
▁First	-12.0325
▁فرنٹیئر	-12.0325
اہیں	-12.0326
▁شہادت	-12.0326
,,,	-12.0326
▁availab	-12.0326
▁رئوگ	-12.0326
▁Best	-12.033
▁افضل	-12.0334
7	-12.0334
ہرچی	-12.0335
▁نقاد	-12.0335
▁ناپگ	-12.0335
▁جنجالی	-12.0336
▁کھند	-12.0337
▁دیماارگ	-12.0337
یئے	-12.0338
▁حسابا	-12.0341
▁محاورہ	-12.0341
▁ٹویٹر	-12.0341
▁کوشی	-12.0343
▁ندکارے	-12.0343
▁دلءُ	-12.0344
▁کھل	-12.0344
▁چاند	-12.0345
شانی	-12.0345
یگی	-12.0346
.(	-12.0346
▁کوٹگ	-12.0346
▁law	-12.0349
نون	-12.035
▁travel	-12.0352
ارسطو	-12.0352
▁مروک	-12.0353
تاکبند	-12.0353
ئیر	-12.0353
حر	-12.0358
رود	-12.0358
▁cause	-12.0359
▁ھدوناکی	-12.0359
▁."	-12.0359
▁باسکی	-12.0359
▁بچگ	-12.0361
▁دستاویز	-12.0361
▁چکاریں	-12.0362
▁فخر	-12.0362
▁condition	-12.0362
▁decision	-12.0362
▁روئٹرز	-12.0362
▁1970	-12.0363
▁شیدائی	-12.0363
▁سربتگ	-12.0365
اھیں	-12.0367
▁عل	-12.0369
▁کاریزکار	-12.0372
▁بورخیس	-12.0373
▁بیدل	-12.0374
▁سرگردان	-12.0377
▁جستءُ	-12.0379
▁شہمات	-12.038
▁winds	-12.038
▁براہوی	-12.038
▁شیئری	-12.0381
▁دراه	-12.0382
▁اه	-12.0384
غیر	-12.0387
▁چنکے	-12.0388
▁قصہاں	-12.0389
ca	-12.0391
▁روبرکت	-12.0391
▁voice	-12.0393
ویے	-12.0394
▁پینل	-12.0395
ear	-12.0396
▁ماھیں	-12.0398
پدر	-12.0398
▁اوگار	-12.0398
▁محمدخان	-12.0398
▁شھزانتی	-12.0399
▁چنکہ	-12.0399
ory	-12.04
▁بکر	-12.04
▁Jack	-12.0401
▁think	-12.0401
▁چودھری	-12.0402
تءُ	-12.0403
▁نشک	-12.0405
گ۔	-12.0407
▁پاروک	-12.0408
پرچیکہ	-12.0408
▁فائل	-12.0408
▁نابلد	-12.041
▁زوراکانی	-12.0411
▁ھمساھگیں	-12.0413
▁دوستر	-12.0413
▁تہلی	-12.0415
شد	-12.0416
▁ض	-12.0418
tlantic	-12.0419
▁اڑان	-12.042
▁دراصل	-12.0422
جنگل	-12.0424
▁کائینت	-12.0427
اہے	-12.0432
▁تلوسگ	-12.0432
فا	-12.0435
uence	-12.0435
▁کلانیں	-12.0435
▁وانینت	-12.0437
▁construct	-12.0437
▁نندے	-12.0437
▁above	-12.0438
▁بکنئے	-12.0439
▁افتاب	-12.044
▁Sea	-12.044
▁اشترے	-12.044
▁گراؤنڈ	-12.0441
▁براھیم	-12.0441
▁شنزگ	-12.0442
▁مدیر	-12.0443
▁ایگءِ	-12.0443
▁اولا	-12.0445
▁تبءُ	-12.0446
▁سنگتءَ	-12.0446
▁مردینے	-12.0447
▁رسگا	-12.0449
▁جہدءُ	-12.0451
▁عنصر	-12.0451
▁تپل	-12.0455
▁زیمی	-12.0456
اشاں	-12.0457
▁سفرءِ	-12.0457
گڑ	-12.0462
▁لیڑو	-12.0462
▁کاسم	-12.0463
امریکہ	-12.0464
▁چاراہ	-12.0465
بخش	-12.0469
▁تڑ	-12.0471
▁پارٹیاں	-12.0472
▁سامراجی	-12.0472
▁کسمانکی	-12.0474
▁نظرہیہ	-12.0476
▁کانپریس	-12.0476
▁برادر	-12.0476
▁دیمروئیءِ	-12.0478
▁شول	-12.0478
▁گوازینان	-12.0481
▁درخت	-12.0482
▁ادء	-12.0486
▁زورگی	-12.0492
▁پریب	-12.0492
▁جنکءَ	-12.0492
▁سنیانلاین	-12.0492
▁اتکنت	-12.0492
▁انگتءَ	-12.0493
▁بائدیں	-12.0494
▁زبانئ	-12.0494
▁ہورءَ	-12.0494
▁گوستہ	-12.0496
▁تخلیقات	-12.0497
▁نبنت	-12.05
▁زادہ	-12.0501
▁ایتءُ	-12.0502
▁دک	-12.0502
▁بیسہی	-12.0503
▁حلب	-12.0507
▁ہمیشاں	-12.0508
▁پورس	-12.0508
▁اولسرءَ	-12.0509
ure	-12.0509
بگیری	-12.051
▁همود	-12.051
▁موسمیات	-12.0512
ذا	-12.0513
▁capital	-12.0514
▁positive	-12.0514
▁اقدار	-12.0514
▁٭٭٭٭	-12.0514
▁حیالی	-12.0515
▁soon	-12.0516
سند	-12.0517
رندءَ	-12.0518
▁جغرافیہ	-12.0518
▁Ha	-12.0518
▁نادیہ	-12.0519
انگ	-12.052
▁زپت	-12.0521
▁بنو	-12.0522
▁حقیں	-12.0524
▁چڑکہ	-12.0524
▁گراد	-12.0524
▁پراھی	-12.0524
▁نکشہ	-12.0525
▁ایرگیجگ	-12.0526
▁ہورکیں	-12.0527
▁معناءِ	-12.0527
▁اھت۔	-12.0529
▁شوانگے	-12.053
کشک	-12.0532
▁فساد	-12.0533
میل	-12.0533
▁ویتنام	-12.0533
▁رجانکانی	-12.0538
..........	-12.0539
▁نویستگ	-12.0539
91	-12.0543
▁رندان	-12.0544
▁نازانتی	-12.0544
▁اھوالکاری	-12.0544
▁بیرہ	-12.0545
▁مہرے	-12.0546
▁لائی	-12.0547
▁تربتءَ	-12.0547
▁دریگاں	-12.0548
ھد	-12.055
ard	-12.0551
▁office	-12.0551
▁گمبد	-12.0552
▁business	-12.0552
▁studio	-12.0552
▁اسٹریٹجک	-12.0553
▁لوہار	-12.0554
▁اسپیشل	-12.0555
▁ولیم	-12.0555
▁estimat	-12.0556
▁گروکیں	-12.0557
▁هچبر	-12.0558
▁روشنا	-12.056
▁پؤج	-12.0561
▁خور	-12.0564
▁دریائے	-12.0565
▁تامرانی	-12.0566
▁بارکان	-12.0567
▁واژہ	-12.0567
مالی	-12.0568
▁گجرات	-12.057
▁میگ	-12.057
▁ذہنیت	-12.0571
▁پوچ	-12.0572
▁مسیتے	-12.0574
▁چاہے	-12.0574
▁کاریانی	-12.0575
▁گرماگی	-12.0577
▁پتے	-12.0581
نود	-12.0581
▁نلی	-12.0581
▁گاراں	-12.0581
▁گیاب	-12.0584
ادگہ	-12.0584
▁منج	-12.0587
گاه	-12.0588
▁سساءِ	-12.0589
▁Africa	-12.059
▁maintain	-12.059
▁interview	-12.059
▁ثبت	-12.059
▁deal	-12.059
▁مظلوم	-12.0591
فل	-12.0591
▁سہیں	-12.0593
▁tree	-12.0593
▁ہماہانی	-12.0594
▁ہمراہداری	-12.0594
▁حمد	-12.0595
▁مھراں	-12.0596
▁گھشی	-12.0596
▁چنچک	-12.0597
▁جیمز	-12.0599
▁ماناءَ	-12.0599
▁Bay	-12.06
▁نادراہانی	-12.0605
ler	-12.0605
▁استانے	-12.0607
▁ٹاہینگ	-12.0607
▁بخشش	-12.0608
▁اوپر	-12.061
▁must	-12.061
تیر	-12.0611
▁پڑھ	-12.0612
▁پنیر	-12.0616
▁دوہیں	-12.0616
براس	-12.0618
▁say	-12.0622
چراگ	-12.0622
▁قضا	-12.0624
▁شہزاد	-12.0625
▁شمشت	-12.0625
▁پیت	-12.0626
▁Canada	-12.0629
▁تکرار	-12.063
▁letter	-12.063
▁منفی	-12.0631
▁کلاتءِ	-12.0631
▁رجحان	-12.0631
▁امریکہءِ	-12.0632
▁مسلسل	-12.0633
▁کعبہ	-12.0635
ad	-12.0636
مور	-12.0637
▁وڑوڑیں	-12.0638
▁نیش	-12.0641
▁دلیریں	-12.0641
▁کسم	-12.0643
▁شہریانی	-12.0643
▁نکال	-12.0644
▁ارواه	-12.0645
۔۔۔ءُ	-12.0648
▁همدا	-12.0648
▁دئے۔	-12.0649
▁stor	-12.065
▁نیائے	-12.0652
جہان	-12.0655
▁ہید	-12.0655
▁جہانگیر	-12.0655
▁ہفتگ	-12.0656
▁کندگاں	-12.0657
▁ربیدگاں	-12.0658
▁...............	-12.0658
▁قلمی	-12.0659
▁دراهیں	-12.0659
▁اشرپ	-12.066
▁نوشی	-12.0661
▁گوازینگی	-12.0663
▁کوٹیانی	-12.0664
▁Brown	-12.0667
▁President	-12.0667
▁سپلائی	-12.0667
▁ڈپریشن	-12.0667
▁معاشرے	-12.0667
▁لهتیں	-12.0668
یاکہ	-12.0669
▁ماڑیانی	-12.067
▁طورپر	-12.0672
▁نشتگءُ	-12.0676
▁پازلءِ	-12.0677
▁جانشو	-12.0677
▁امینی	-12.0679
▁مروچ	-12.0682
های	-12.0684
▁گرابانی	-12.0686
▁سجهێن	-12.0688
▁بنیادمءِ	-12.0689
▁لۆٹ	-12.0689
▁2000	-12.0691
▁دستءُ	-12.0692
▁بھادر	-12.0693
▁الگار	-12.0694
▁پیٹر	-12.0695
town	-12.0695
▁میرچاکر	-12.0697
▁ایسٹ	-12.0697
رب	-12.0699
▁ڈولین	-12.0699
sa	-12.07
▁ناشری	-12.0703
▁برش	-12.0704
▁۔ہمیش	-12.0705
▁گردینت	-12.0706
▁Henry	-12.0706
▁دیمھونی	-12.0706
▁رسترانی	-12.0706
▁فراموش	-12.0707
▁اکبال	-12.0707
▁Air	-12.0707
▁کودک	-12.0708
▁فزکس	-12.0708
▁کھا	-12.0709
▁چاڑی	-12.071
▁نسخہ	-12.0712
▁امدام	-12.0712
▁پندلانی	-12.0714
٭	-12.0715
▁اچانک	-12.0717
▁جھدکارانی	-12.0718
▁ریچی	-12.0718
▁اڑزان	-12.0719
▁نشتیں	-12.072
▁ریسگ	-12.072
▁referr	-12.072
۔۔۔۔۔۔۔۔	-12.0721
▁بیگاہءَ	-12.0723
▁پراھیں	-12.0724
▁سھتے	-12.0725
▁زیادتی	-12.0728
▁مریں	-12.0729
▁رنگین	-12.073
▁مشان	-12.073
▁king	-12.0731
▁زالمیں	-12.0731
▁پربندانی	-12.0732
▁همش	-12.0733
▁عرش	-12.0733
جتگ	-12.0738
▁کلیات	-12.0738
▁authorit	-12.0739
▁بوانیت	-12.074
▁India	-12.0741
▁سازش	-12.0742
▁وانت	-12.0744
uadron	-12.0745
▁transport	-12.0745
▁machine	-12.0745
▁ساؤتھ	-12.0745
درست	-12.0745
▁سجهێں	-12.0746
▁past	-12.0747
▁تکمیل	-12.0747
▁جھالاوان	-12.0747
vi	-12.0748
▁پلسپہ	-12.0748
واریں	-12.0751
▁خلیفہ	-12.0751
زال	-12.0751
▁لڑائی	-12.0751
▁راس	-12.0753
▁پیشءَ	-12.0754
▁ردے	-12.0755
پیسر	-12.0755
ویں	-12.0756
▁اڑءُ	-12.0756
بوتگ۔	-12.0758
▁سرکشی	-12.0759
▁شوھازءَ	-12.076
▁کوکر	-12.0761
▁چارینگ	-12.0763
نئے	-12.0763
rought	-12.0766
▁لڈءُ	-12.0766
ball	-12.0766
معنا	-12.0767
▁ویرانی	-12.0768
▁بحال	-12.0768
▁Con	-12.0769
الس	-12.0769
سازی	-12.077
نپ	-12.0773
وائی	-12.0774
▁زاھری	-12.0774
عزت	-12.0774
▁گۆش	-12.0776
▁شیواری	-12.0777
▁تس	-12.0778
ol	-12.0779
▁جنگلءَ	-12.0782
▁زمه	-12.0782
▁متہدہ	-12.0784
▁Oldham	-12.0784
▁1990	-12.0784
▁سالگیں	-12.0785
▁ھسابے	-12.0787
▁ھداءِ	-12.0788
▁وتسر	-12.0789
▁عروض	-12.0789
▁غسل	-12.079
▁پیمء	-12.0791
▁پیرجان	-12.0793
▁رسانکدری	-12.0793
▁کازماس	-12.0793
▁دژمنے	-12.0794
▁هل	-12.0795
▁نھنگ	-12.0796
گشئے	-12.0799
▁بروس	-12.0799
▁metre	-12.0799
▁لاس	-12.08
ھیل	-12.08
▁دراھت	-12.08
وشیں	-12.0801
▁نریان	-12.0802
▁بسے	-12.0804
▁پندلاں	-12.0805
▁شھار	-12.0806
ائیت	-12.0806
▁hold	-12.0807
▁ھونڈ	-12.0808
▁پکائی	-12.0809
▁کلر	-12.081
▁لوت	-12.0812
▁dis	-12.0813
▁لگوریں	-12.0814
les	-12.0814
▁ھبرانی	-12.0814
کسمانک	-12.0814
▁ہوس	-12.0816
▁بالادءَ	-12.0816
ائینگ	-12.0817
▁درمحمد	-12.0819
▁گیتک	-12.0819
▁ھوریں	-12.082
خیال	-12.0821
▁کنوکین	-12.0821
▁ھذمت	-12.0822
▁social	-12.0823
▁sometime	-12.0823
▁ساٹ	-12.0824
▁اہستہ	-12.0826
جاھاں	-12.0827
▁گھس	-12.0827
یٹر	-12.0828
ota	-12.0828
سرمچاراں	-12.0829
▁شاھرگ	-12.083
▁focus	-12.083
▁test	-12.083
▁Chin	-12.0831
▁جھگیر	-12.0832
لان	-12.0832
▁Wi	-12.0833
▁زوراوری	-12.0833
▁دربی	-12.0833
مع	-12.0835
▁کوراں	-12.0835
▁پیام	-12.0835
▁گواریت	-12.0836
▁استالے	-12.0837
▁۔۔۔۔۔۔۔۔۔	-12.0838
')	-12.0838
▁Times	-12.0838
▁قل	-12.0844
▁چھت	-12.0845
once	-12.0845
▁سیادے	-12.0846
▁کنوں	-12.0846
▁قمر	-12.0848
▁مہمانداری	-12.0848
رچ	-12.0849
واحد	-12.0851
▁گستائی	-12.0851
▁اسلی	-12.0853
چاریں	-12.0853
▁k	-12.0857
ادم	-12.0857
▁ٹرالنگ	-12.0863
▁standard	-12.0863
▁Olivier	-12.0863
▁الماس	-12.0865
▁برازیل	-12.0866
▁دروتے	-12.0867
P	-12.0867
▁وقار	-12.0868
▁فراق	-12.0869
▁سجئیں	-12.087
ated	-12.0873
▁thing	-12.0874
▁پوشیں	-12.0874
▁سیمینار	-12.0875
▁تنیگت	-12.0875
▁جستءِ	-12.0876
▁burn	-12.0876
▁ریپینگ	-12.0879
▁انت۔بلوچی	-12.0881
▁مرے	-12.0881
▁برامد	-12.0883
درچک	-12.0887
▁پریم	-12.0888
▁دراھاں	-12.0888
▁special	-12.0888
▁گپتاراں	-12.089
▁جمیں	-12.0893
▁goals	-12.0894
▁نادراھیں	-12.0894
▁دپترے	-12.0894
▁نہادی	-12.09
▁تراس	-12.09
▁سران	-12.0901
▁ظریف	-12.0902
▁ڈغار	-12.0902
▁western	-12.0902
▁پاند	-12.0902
▁یم	-12.0904
▁تراتگ	-12.0904
▁پتران	-12.0905
▁ارٹیکل	-12.0905
▁بدرنگ	-12.0905
▁ساہگءَ	-12.0905
▁مونجائی	-12.0905
▁تعبیر	-12.0905
دراہ	-12.0906
جھد	-12.0906
▁پیوند	-12.0906
▁usual	-12.0907
▁lower	-12.0907
▁nine	-12.0907
▁hard	-12.0908
▁کوئٹہءَ	-12.0908
▁چس	-12.0909
▁پرائیوٹ	-12.091
▁fly	-12.091
▁Ri	-12.0911
▁ہوپ	-12.0911
▁ھمکوپگ	-12.0911
دانی	-12.0911
▁شانے	-12.0914
▁پکنت	-12.0914
مسلم	-12.0915
▁گزین	-12.0915
▁ہڑ	-12.0915
▁ھنکینی	-12.0915
▁بچکنداں	-12.0917
▁ڈلگیں	-12.0919
▁لگوشت	-12.0919
▁سلوک	-12.0923
▁ھلار	-12.0926
▁نانی	-12.0926
ئغ	-12.0927
▁گشتی	-12.0928
مانی	-12.093
شاں	-12.093
▁کوہے	-12.0933
▁جندی	-12.0937
▁دتک	-12.0937
▁کیے	-12.0937
مون	-12.0937
▁ایشنت	-12.094
▁concert	-12.0942
▁response	-12.0942
▁پلانگری	-12.0942
▁چائنا	-12.0945
▁پولیسا	-12.0945
▁توسیف	-12.0946
▁اڈہ	-12.0947
▁سریچ	-12.0947
▁اسباب	-12.0948
زوریں	-12.0948
▁شینک	-12.0949
▁علامہ	-12.0949
▁دلاور	-12.0949
▁سارا	-12.095
▁وانگجاھانی	-12.0951
▁دیریگیں	-12.0952
▁Hall	-12.0952
ہرکس	-12.0953
▁کریک	-12.0954
▁علیه	-12.0954
▁زیانی	-12.0955
▁سپائی	-12.0958
▁موجودہ	-12.0958
▁ہارون	-12.0958
▁شاہو	-12.096
▁واجھی	-12.0962
▁بہرگ	-12.0963
▁کوکب	-12.0965
▁ہردک	-12.0967
▁کائنت	-12.097
▁قرنانی	-12.097
▁سکت	-12.0974
▁تاچینگ	-12.0975
▁ویئر	-12.0976
ئس	-12.098
▁استارانی	-12.0981
▁Regiment	-12.0982
▁ٹورنمنٹ	-12.0982
▁taking	-12.0982
▁mention	-12.0982
▁recent	-12.0982
▁زانان	-12.0982
▁پیدائشت	-12.0984
▁گوزنت	-12.0984
▁نشست	-12.0986
▁قدرانی	-12.0986
▁لیل	-12.0988
ہ۔	-12.0994
▁سنگی	-12.0995
ونڈ	-12.0995
B	-12.0996
▁ایرجتگ	-12.0998
▁ٹاھینگ	-12.1
▁گلگدارے	-12.1001
......!	-12.1002
تل	-12.1002
▁ایسپ	-12.1002
▁قہریں	-12.1002
▁پرچیا	-12.1002
▁تائید	-12.1002
یچ	-12.1004
▁ہیرت	-12.1009
▁جمعه	-12.101
▁پوت	-12.1013
▁اورت۔	-12.1015
بام	-12.1017
بلوچانی	-12.1017
▁ساب	-12.1019
نین	-12.102
ietnam	-12.1022
▁Mexico	-12.1022
▁School	-12.1022
▁religious	-12.1022
▁ہمینچک	-12.1022
▁broke	-12.1022
▁انحصار	-12.1022
▁مروچگیں	-12.1023
▁سازاں	-12.1023
▁Later	-12.1024
▁چارٹر	-12.1024
▁بھارگاہ	-12.1025
▁کونج	-12.1025
▁ایت۔۔۔	-12.1026
▁توپانے	-12.1029
▁حزب	-12.103
▁بھیر	-12.103
▁اکادمی	-12.1031
▁تکینک	-12.1033
▁write	-12.1034
▁کپوتے	-12.1036
▁نظامے	-12.1037
▁میلے	-12.1037
im	-12.1037
نانی	-12.104
▁fact	-12.1041
▁وسواس	-12.1041
اڑی	-12.1042
▁تھرا	-12.1042
▁مردار	-12.1043
▁زوالی	-12.1044
▁بندانت	-12.1045
▁چاگرداں	-12.1046
اٹ	-12.1047
▁مہلب	-12.1048
▁صدیقی	-12.1048
▁ہشتمی	-12.1049
em	-12.105
▁مومنءِ	-12.1056
▁کلینک	-12.1057
▁شھباز	-12.1057
▁شھزانت	-12.1058
▁پین	-12.1058
▁کپیں	-12.1061
▁Irish	-12.1062
▁اسلیں	-12.1063
▁پراسیس	-12.1063
▁کیپٹن	-12.1063
▁قر	-12.1064
▁میرگل	-12.1064
▁میڑھ	-12.1065
▁Ca	-12.1065
▁ستاشانی	-12.1065
▁اینگلز	-12.1065
▁تشکیل	-12.1066
▁جاگهے	-12.1066
بوئیگ	-12.1066
▁ایلن	-12.1066
▁ھگم	-12.1067
▁خورشید	-12.1068
▁Mark	-12.1069
▁ہفتاد	-12.1069
میار	-12.1072
▁leg	-12.1072
▁دیوانگی	-12.1073
▁اہمے	-12.1073
▁خطا	-12.1074
▁زران	-12.1075
▁دیمتری	-12.1076
▁بنایا	-12.1078
▁وژن	-12.1079
▁کجائے	-12.1079
▁ترامجا	-12.108
▁پورو	-12.108
▁پدمنتگ	-12.1083
▁parts	-12.1086
nion	-12.1087
▁ھفت	-12.1087
▁لاشعوری	-12.1088
▁تہمبل	-12.1091
▁ہریک	-12.1093
▁مہریں	-12.1094
▁سلو	-12.1094
▁سیٹلائٹ	-12.1096
▁ناکی	-12.1097
▁اخلاقیات	-12.1101
▁داستانے	-12.1102
▁foot	-12.1102
▁prevent	-12.1102
▁مداخلت	-12.1102
▁لیبارٹری	-12.1102
▁بادشاھے	-12.1102
▁دئیت	-12.1104
▁ٹکراں	-12.1104
▁نیادانی	-12.1104
▁زانشتجاہ	-12.1104
▁یتیم	-12.1105
▁پیچھے	-12.1105
▁درسی	-12.1105
▁ڈیزل	-12.1106
▁داتگین	-12.1107
▁مبوتیں	-12.1108
▁ئنت۔	-12.1108
▁تلمیح	-12.1109
▁جیکب	-12.111
▁v	-12.111
دراھیں	-12.1112
▁حکایت	-12.1113
▁ازگر	-12.1113
▁سرگوستاں	-12.1114
▁رہتے	-12.1117
▁Peter	-12.1118
▁کئیز	-12.1118
▁اولگا	-12.1121
▁سورو	-12.1125
▁وڑین	-12.1128
▁صلح	-12.1128
▁شاعرءَ	-12.1129
▁ئے۔۔۔	-12.1129
▁کاٹار	-12.113
▁ئرا	-12.113
▁ٹارچر	-12.113
▁ائیڈل	-12.1131
▁وشھال	-12.1131
▁گلین	-12.1131
▁زہیراں	-12.1132
ng	-12.1133
▁گوئشتگ	-12.1134
سرکاری	-12.1136
▁کنۆک	-12.1136
▁کرتنت۔	-12.1137
▁گڈانی	-12.1139
▁ردوبند	-12.1142
▁brother	-12.1143
▁هاشمی	-12.1143
▁مھلوکءَ	-12.1143
▁یوسپ	-12.1143
▁بووگ	-12.1151
▁حکمرانی	-12.1151
▁ڈکشن	-12.1153
▁زرک	-12.1154
▁ڈنا	-12.1154
نامی	-12.1154
▁براھندگ	-12.1155
▁کرپٹ	-12.1155
ریاست	-12.1159
▁رئوان	-12.1159
▁پادیں	-12.116
▁صحبت	-12.116
ولے	-12.1161
زے	-12.1163
▁چیپ	-12.1166
▁ئیءَ	-12.1167
روت	-12.1168
وانوک	-12.1168
..!‘‘	-12.1171
▁دربرت	-12.1171
▁رانی	-12.1171
▁Or	-12.1172
▁گلاسے	-12.1172
▁جنگلانی	-12.1175
گز	-12.1176
▁ھمسپر	-12.1179
▁بوتیناں	-12.1179
▁سنجیدگ	-12.1181
▁تمباک	-12.1181
▁flight	-12.1183
▁Canadian	-12.1183
▁Thomas	-12.1183
▁رینجرز	-12.1184
▁روءَ	-12.1184
▁بندروشم	-12.1184
▁پیمائش	-12.1185
▁ریحان	-12.1185
▁football	-12.1186
▁ایجاد	-12.1187
▁اتفاق	-12.1188
▁نگدءِ	-12.119
▁گیواری	-12.119
▁ڈائیلاگ	-12.1191
▁کھثہ	-12.1191
▁مجموعہ	-12.1191
▁زخم	-12.1192
ڑے	-12.1193
▁ہندءُ	-12.1194
lin	-12.1195
بھی	-12.1195
▁رت	-12.1199
▁یتکگ	-12.1199
باد	-12.1199
▁هیران	-12.12
▁sub	-12.1203
ence	-12.1204
▁توانمند	-12.1204
▁کھندگ	-12.1204
▁سرخ	-12.1208
جنگی	-12.1209
▁stone	-12.1209
▁امدنی	-12.121
▁بھوک	-12.1213
نیکہ	-12.1213
▁دئی	-12.1215
▁گراباں	-12.1215
▁ٹینکر	-12.1217
▁چہرگ	-12.1217
▁سوجکار	-12.1217
▁ضیاء	-12.1217
▁حقءَ	-12.1218
فکر	-12.1221
برا	-12.1221
▁سربوگ	-12.1221
▁چہرے	-12.1223
▁subject	-12.1224
▁مخاطب	-12.1224
▁عبدالحق	-12.1224
ئتگ	-12.1225
▁ترسیں	-12.1226
▁گنڈ	-12.1227
▁نمائش	-12.1227
▁سنجیدگی	-12.1229
▁چاء	-12.123
▁مبوتین	-12.1232
▁ھمنچک	-12.1232
▁ایشاناں	-12.1232
▁ھمبلاں	-12.1234
▁مفکر	-12.1235
▁تیوگی	-12.1235
▁ھوٹلے	-12.1235
▁ودگ	-12.1237
▁اتراپاں	-12.1238
▁گیمرتگیں	-12.1243
▁في	-12.1244
▁زیاد	-12.1245
▁وانند	-12.1245
نظر	-12.1245
جین	-12.1247
الف	-12.1248
▁خطر	-12.125
▁لینگ	-12.1252
▁گوئشیت	-12.1252
مھ	-12.1252
ربیت	-12.1252
▁جہتءَ	-12.1255
▁پتانی	-12.1255
ڈل	-12.1255
وڑیں	-12.1256
▁دراھ	-12.1258
ءَگوں	-12.1261
▁تہرءُ	-12.1261
▁توارانی	-12.1262
▁زیمراں	-12.1264
▁Mount	-12.1265
[...]
