<pad>	0
<unk>	0
<s>	0
</s>	0
[CLS]	0
[SEP]	0
[MASK]	0
<0x00>	0
<0x01>	0
<0x02>	0
<0x03>	0
<0x04>	0
<0x05>	0
<0x06>	0
<0x07>	0
<0x08>	0
<0x09>	0
<0x0A>	0
<0x0B>	0
<0x0C>	0
<0x0D>	0
<0x0E>	0
<0x0F>	0
<0x10>	0
<0x11>	0
<0x12>	0
<0x13>	0
<0x14>	0
<0x15>	0
<0x16>	0
<0x17>	0
<0x18>	0
<0x19>	0
<0x1A>	0
<0x1B>	0
<0x1C>	0
<0x1D>	0
<0x1E>	0
<0x1F>	0
<0x20>	0
<0x21>	0
<0x22>	0
<0x23>	0
<0x24>	0
<0x25>	0
<0x26>	0
<0x27>	0
<0x28>	0
<0x29>	0
<0x2A>	0
<0x2B>	0
<0x2C>	0
<0x2D>	0
<0x2E>	0
<0x2F>	0
<0x30>	0
<0x31>	0
<0x32>	0
<0x33>	0
<0x34>	0
<0x35>	0
<0x36>	0
<0x37>	0
<0x38>	0
<0x39>	0
<0x3A>	0
<0x3B>	0
<0x3C>	0
<0x3D>	0
<0x3E>	0
<0x3F>	0
<0x40>	0
<0x41>	0
<0x42>	0
<0x43>	0
<0x44>	0
<0x45>	0
<0x46>	0
<0x47>	0
<0x48>	0
<0x49>	0
<0x4A>	0
<0x4B>	0
<0x4C>	0
<0x4D>	0
<0x4E>	0
<0x4F>	0
<0x50>	0
<0x51>	0
<0x52>	0
<0x53>	0
<0x54>	0
<0x55>	0
<0x56>	0
<0x57>	0
<0x58>	0
<0x59>	0
<0x5A>	0
<0x5B>	0
<0x5C>	0
<0x5D>	0
<0x5E>	0
<0x5F>	0
<0x60>	0
<0x61>	0
<0x62>	0
<0x63>	0
<0x64>	0
<0x65>	0
<0x66>	0
<0x67>	0
<0x68>	0
<0x69>	0
<0x6A>	0
<0x6B>	0
<0x6C>	0
<0x6D>	0
<0x6E>	0
<0x6F>	0
<0x70>	0
<0x71>	0
<0x72>	0
<0x73>	0
<0x74>	0
<0x75>	0
<0x76>	0
<0x77>	0
<0x78>	0
<0x79>	0
<0x7A>	0
<0x7B>	0
<0x7C>	0
<0x7D>	0
<0x7E>	0
<0x7F>	0
<0x80>	0
<0x81>	0
<0x82>	0
<0x83>	0
<0x84>	0
<0x85>	0
<0x86>	0
<0x87>	0
<0x88>	0
<0x89>	0
<0x8A>	0
<0x8B>	0
<0x8C>	0
<0x8D>	0
<0x8E>	0
<0x8F>	0
<0x90>	0
<0x91>	0
<0x92>	0
<0x93>	0
<0x94>	0
<0x95>	0
<0x96>	0
<0x97>	0
<0x98>	0
<0x99>	0
<0x9A>	0
<0x9B>	0
<0x9C>	0
<0x9D>	0
<0x9E>	0
<0x9F>	0
<0xA0>	0
<0xA1>	0
<0xA2>	0
<0xA3>	0
<0xA4>	0
<0xA5>	0
<0xA6>	0
<0xA7>	0
<0xA8>	0
<0xA9>	0
<0xAA>	0
<0xAB>	0
<0xAC>	0
<0xAD>	0
<0xAE>	0
<0xAF>	0
<0xB0>	0
<0xB1>	0
<0xB2>	0
<0xB3>	0
<0xB4>	0
<0xB5>	0
<0xB6>	0
<0xB7>	0
<0xB8>	0
<0xB9>	0
<0xBA>	0
<0xBB>	0
<0xBC>	0
<0xBD>	0
<0xBE>	0
<0xBF>	0
<0xC0>	0
<0xC1>	0
<0xC2>	0
<0xC3>	0
<0xC4>	0
<0xC5>	0
<0xC6>	0
<0xC7>	0
<0xC8>	0
<0xC9>	0
<0xCA>	0
<0xCB>	0
<0xCC>	0
<0xCD>	0
<0xCE>	0
<0xCF>	0
<0xD0>	0
<0xD1>	0
<0xD2>	0
<0xD3>	0
<0xD4>	0
<0xD5>	0
<0xD6>	0
<0xD7>	0
<0xD8>	0
<0xD9>	0
<0xDA>	0
<0xDB>	0
<0xDC>	0
<0xDD>	0
<0xDE>	0
<0xDF>	0
<0xE0>	0
<0xE1>	0
<0xE2>	0
<0xE3>	0
<0xE4>	0
<0xE5>	0
<0xE6>	0
<0xE7>	0
<0xE8>	0
<0xE9>	0
<0xEA>	0
<0xEB>	0
<0xEC>	0
<0xED>	0
<0xEE>	0
<0xEF>	0
<0xF0>	0
<0xF1>	0
<0xF2>	0
<0xF3>	0
<0xF4>	0
<0xF5>	0
<0xF6>	0
<0xF7>	0
<0xF8>	0
<0xF9>	0
<0xFA>	0
<0xFB>	0
<0xFC>	0
<0xFD>	0
<0xFE>	0
<0xFF>	0
▁ء	-2.12097
▁کہ	-4.05945
▁انت	-4.15193
,	-4.31052
▁اے	-4.78347
ء	-4.87698
▁ات	-4.88058
▁,	-4.93112
▁نہ	-4.96502
▁وتی	-5.00979
▁چہ	-5.11521
▁۔	-5.21755
▁من	-5.235
▁یک	-5.29245
▁ائی	-5.2961
▁	-5.32527
▁ا	-5.38506
▁انت۔	-5.40584
▁بیت	-5.43024
▁گوں	-5.49188
▁کنگ	-5.49209
▁بہ	-5.53387
▁پہ	-5.53801
▁و	-5.54021
▁(	-5.61188
▁:	-5.62856
انی	-5.73958
▁سر	-5.78331
▁بلوچ	-5.81023
▁بوتگ	-5.81662
یں	-5.85081
اں	-5.86551
▁)	-5.90294
▁.	-5.9197
▁the	-5.95086
▁بلے	-5.98014
ی	-5.99205
۔	-5.99433
▁منی	-6.01515
▁ئے	-6.01995
ے	-6.03438
s	-6.037
▁کنت	-6.07699
▁ھم	-6.10297
▁تو	-6.11657
▁کتگ	-6.12313
▁بوت	-6.14557
▁بیتگ	-6.2047
▁بے	-6.23522
)	-6.23861
▁کن	-6.24856
▁مردم	-6.24881
▁ئ	-6.26423
:	-6.26452
.	-6.26538
▁بلوچستان	-6.26944
▁ما	-6.29798
▁تہ	-6.36794
▁تہا	-6.37836
▁ھمے	-6.38552
▁دیم	-6.38738
ا	-6.39095
▁یا	-6.41693
ed	-6.44245
▁کار	-6.4474
▁پد	-6.44969
▁"	-6.4521
▁کت	-6.45367
▁بلوچی	-6.45754
▁مئے	-6.47736
▁دگہ	-6.47822
▁گپ	-6.51982
▁ہم	-6.53646
▁ات۔	-6.54779
▁’’	-6.55114
▁وت	-6.57759
▁گڑا	-6.60647
▁روچ	-6.61215
▁تئی	-6.61543
▁سرا	-6.65639
▁دو	-6.65761
▁of	-6.67696
▁دل	-6.67776
▁رد	-6.73995
▁نام	-6.74095
▁کے	-6.74123
▁ایت	-6.76294
▁جنگ	-6.78545
▁کرتگ	-6.78668
▁بنت	-6.78669
▁and	-6.79406
▁پدا	-6.80191
▁زبان	-6.80845
▁بیت۔	-6.81344
?	-6.83146
▁ھما	-6.83236
▁باز	-6.84499
▁اگاں	-6.85432
▁گوشتگ	-6.8608
▁را	-6.86119
▁بازیں	-6.87329
▁بی	-6.89153
‘‘	-6.89606
▁چو	-6.89815
▁ہما	-6.90336
▁ہمے	-6.90606
▁پر	-6.91498
▁ایشی	-6.9163
▁دست	-6.94075
▁سے	-6.94135
▁لوٹ	-6.95198
▁اں	-6.95355
▁یے	-6.96805
▁ماں	-6.96867
▁کی	-6.98457
▁تہء	-6.9902
▁ائیء	-7.00074
▁in	-7.00268
▁to	-7.01158
▁مردمانی	-7.02208
▁مہ	-7.04731
▁نیمگ	-7.05087
▁میں	-7.06575
▁پاکستانی	-7.08258
▁ایں	-7.08744
▁a	-7.08971
▁در	-7.09312
▁چے	-7.09717
▁ھال	-7.11394
▁زند	-7.12127
▁جوڑ	-7.12598
▁کرت	-7.13167
▁دومی	-7.13893
(	-7.14063
▁نبشتہ	-7.14495
▁زانت	-7.16102
▁وھد	-7.16292
▁مزنیں	-7.17135
▁ترا	-7.17322
▁اور	-7.17409
▁دیگ	-7.17437
▁پوج	-7.17498
▁سک	-7.18421
▁‘‘	-7.18432
▁واجہ	-7.18982
ہ	-7.19388
▁نوں	-7.1974
▁دور	-7.20007
▁که	-7.20311
...	-7.20828
ان	-7.20912
▁اس	-7.21293
▁گل	-7.21952
▁داتگ	-7.23119
▁پیش	-7.23494
▁دات	-7.23797
▁چار	-7.24052
!	-7.24107
▁بند	-7.247
ن	-7.25497
▁رند	-7.25687
▁خان	-7.26751
▁ہر	-7.27955
ing	-7.29781
▁کنت۔	-7.29896
▁مردماں	-7.30132
▁ھچ	-7.30546
▁گیش	-7.30557
▁رنگ	-7.30765
▁دمگ	-7.31525
ئے	-7.31912
▁ایر	-7.32086
▁￴	-7.32325
▁نوکیں	-7.32575
▁زانگ	-7.32645
▁=	-7.32744
▁شنگ	-7.32974
▁شپ	-7.33986
▁سال	-7.34289
▁ارش	-7.3468
▁ھر	-7.34959
▁داں	-7.34966
▁جان	-7.36136
▁گوشت	-7.36647
▁سرء	-7.3713
▁مارا	-7.3781
▁کنان	-7.38117
▁اللہ	-7.38382
▁کتاب	-7.3888
▁کس	-7.39476
▁جست	-7.39928
▁کا	-7.40529
▁اپ	-7.41039
▁نیست	-7.42477
▁راج	-7.4261
▁بوتگ۔	-7.44526
▁جاہ	-7.44715
▁اوار	-7.45984
▁راہ	-7.46418
▁ہے	-7.46817
▁اش	-7.46937
▁گوش	-7.47498
”	-7.47853
▁ایش	-7.47856
▁وش	-7.47931
▁میر	-7.48304
▁ھوار	-7.49171
y	-7.50024
▁گوشگ	-7.50167
▁ایانی	-7.50186
▁گیشتر	-7.50225
’’	-7.5033
▁لوگ	-7.51522
▁لشکر	-7.51642
▁دنیا	-7.51733
▁”	-7.52797
▁کم	-7.53018
▁اتگ	-7.54363
▁توار	-7.54757
▁او	-7.56115
▁اوں	-7.5623
▁اولی	-7.56695
▁سی	-7.56755
ئ	-7.56991
▁کو	-7.57111
▁'	-7.58094
▁وھدے	-7.58269
▁مان	-7.58848
"	-7.59419
▁وڑ	-7.60203
▁گندگ	-7.60215
▁گوستگیں	-7.60838
▁بیگواہ	-7.60887
▁جتگ	-7.61532
▁“	-7.61776
▁یکے	-7.62337
▁چک	-7.648
▁بزاں	-7.65389
▁کش	-7.65591
▁بوگ	-7.65744
▁was	-7.67018
▁گشت	-7.67026
▁دوست	-7.67281
▁وڑیں	-7.67401
▁بس	-7.67677
▁گشتگ	-7.67868
▁دار	-7.68194
▁پاکستان	-7.68645
ت	-7.69415
▁لبزانک	-7.69419
▁بلئے	-7.6945
▁بلکیں	-7.69688
▁چم	-7.70661
▁برجاہ	-7.70736
وں	-7.71101
@	-7.71279
▁چیزے	-7.71331
▁گون	-7.71485
▁ماہ	-7.71838
▁@	-7.72246
▁ھست	-7.72351
▁درشان	-7.72514
▁دیما	-7.73311
▁مردمے	-7.73469
▁اچ	-7.73686
▁ابید	-7.74405
▁اتکگ	-7.74468
▁گ	-7.75118
▁مروچی	-7.75482
▁چیز	-7.75794
▁زور	-7.75982
▁وانگ	-7.76142
▁محمد	-7.76279
▁پشت	-7.77787
▁کسے	-7.78438
▁شاعری	-7.79045
▁زمین	-7.79538
▁شال	-7.79603
▁بیتگیں	-7.80064
▁بن	-7.80399
ین	-7.80511
▁چشکہ	-7.80762
▁The	-7.81019
▁ائرا	-7.81069
▁￵	-7.81429
▁بیران	-7.81782
▁سرجمیں	-7.81815
▁منا	-7.81875
▁بندات	-7.82127
▁زھرشانی	-7.82467
▁سرپد	-7.82479
▁اتک	-7.82745
▁ازمانک	-7.82782
▁سوب	-7.82889
▁بدل	-7.82907
▁دنت	-7.83528
▁راجی	-7.83743
▁ملک	-7.84231
▁اتنت	-7.84394
▁مزن	-7.84484
▁مدام	-7.84593
گ	-7.84638
▁مات	-7.85009
▁مراد	-7.85465
▁انگت	-7.85578
▁کر	-7.85892
▁مرچی	-7.85998
-	-7.86238
▁چست	-7.86342
▁ان	-7.86553
▁[...]	-7.87157
▁دارگ	-7.87337
▁ڈاکٹر	-7.87524
▁ھیال	-7.87619
▁ن	-7.87883
▁کناں	-7.87941
▁بنت۔	-7.88259
▁تر	-7.88384
▁سیاسی	-7.88536
▁برے	-7.88613
▁دی	-7.88668
▁انچیں	-7.88895
▁میان	-7.89145
▁پچ	-7.89337
▁انسان	-7.89903
▁شر	-7.90167
و	-7.90786
▁دیوان	-7.90849
▁پاد	-7.90867
▁کپتگ	-7.91265
▁نے	-7.91297
▁واب	-7.9148
▁ہچ	-7.91858
▁کدی	-7.92236
▁کشگ	-7.92325
▁تاں	-7.92363
▁بوت۔	-7.93004
▁پی	-7.93415
▁حیال	-7.93434
▁انچو	-7.93445
▁این	-7.93503
ly	-7.93626
اے	-7.93648
▁بوتگیں	-7.93756
▁ئیں	-7.94526
من	-7.94993
▁است	-7.9521
نگ	-7.95482
▁کسہ	-7.96276
▁ادا	-7.96765
▁کجام	-7.96891
▁مرد	-7.96916
▁سلاہ	-7.9737
▁رجانک	-7.97906
▁پٹ	-7.98107
▁شما	-7.98352
▁شت	-7.98676
▁ایاں	-7.98937
▁بہر	-7.99722
▁سبب	-8.00521
▁پت	-8.01169
▁زر	-8.01192
▁دروشم	-8.01353
▁پرچا	-8.01685
▁کمک	-8.02171
ک	-8.02362
▁کراچی	-8.02419
▁جتا	-8.02621
▁چی	-8.02755
▁جتائیں	-8.02928
▁جارکش	-8.04402
‘	-8.04429
▁جند	-8.05231
▁گور	-8.05445
▁سرجم	-8.05958
▁گڈا	-8.06123
▁پولیس	-8.06346
▁ملا	-8.06407
▁ایشانی	-8.06836
▁that	-8.06953
▁دپ	-8.0733
▁as	-8.07432
▁یل	-8.0745
▁اباد	-8.07511
▁چه	-8.07721
▁ایوک	-8.08093
▁گار	-8.0836
▁with	-8.08543
▁on	-8.08751
▁تران	-8.09784
ائی	-8.09834
▁پنچ	-8.09913
▁بر	-8.10615
▁گاڑی	-8.10661
▁مرگ	-8.10868
ں	-8.10878
▁کجا	-8.1088
کہ	-8.10982
▁for	-8.1116
▁زندء	-8.11167
▁حال	-8.11271
▁چاگرد	-8.11415
▁?	-8.115
▁اجوئی	-8.11636
▁بابت	-8.12047
▁برتگ	-8.12543
▁کتگ۔	-8.13795
▁کیچ	-8.14778
▁شھر	-8.14957
▁ایل	-8.15143
▁واستا	-8.15228
▁پیسر	-8.15663
▁بیان	-8.15765
▁بھر	-8.15945
▁نزیک	-8.15985
▁انسانی	-8.16019
▁کرتگ۔	-8.16064
▁اسر	-8.17537
▁دراھیں	-8.17629
▁کت۔	-8.17772
▁بیگ	-8.18074
▁پوسٹ	-8.18544
▁چیر	-8.18564
▁شاہ	-8.19234
▁ایک	-8.19494
▁راست	-8.19908
▁زندگ	-8.19921
▁کپ	-8.20292
▁اتاں	-8.20783
▁جت	-8.20861
▁الم	-8.21048
▁جھد	-8.2154
▁by	-8.21953
▁میتگ	-8.22258
▁وہد	-8.22356
▁جنین	-8.22602
▁ترس	-8.22697
▁لیکہ	-8.22709
▁!	-8.22815
▁کارمرز	-8.22818
▁سید	-8.23173
▁بیست	-8.23407
▁جن	-8.23424
▁زندگی	-8.23659
▁بکن	-8.23943
▁چریشی	-8.23961
▁گشگ	-8.2399
▁سنگت	-8.24318
▁ودی	-8.24455
▁زورانسری	-8.24999
▁روگ	-8.25249
▁پجار	-8.25272
▁چون	-8.25328
▁بیا	-8.25367
▁ھاتر	-8.25525
▁کیت	-8.2577
▁is	-8.2586
▁نا	-8.26065
▁پیم	-8.26126
▁یات	-8.26443
▁بندیں	-8.26456
▁اود	-8.26901
▁راستی	-8.26902
▁اہانی	-8.26941
▁گوادر	-8.27929
▁گپت	-8.28148
▁برز	-8.28175
▁جہد	-8.28278
▁دوئیں	-8.28706
▁تیرگواری	-8.29286
▁اشی	-8.29357
نت	-8.29393
▁واری	-8.29417
▁شہ	-8.29424
▁چارگ	-8.29429
▁کپت	-8.2955
▁کسانیں	-8.29662
▁￶	-8.29912
▁نشانگ	-8.30087
▁درد	-8.30469
▁ایم	-8.30622
▁مہر	-8.3063
▁ھالانی	-8.31092
▁وڑا	-8.314
▁گر	-8.31551
▁منء	-8.31637
▁be	-8.31666
▁وئیل	-8.31912
▁ٹی	-8.31947
▁تربت	-8.31985
▁مستریں	-8.32605
▁نشتگ	-8.32709
▁برات	-8.3277
▁ادم	-8.32773
▁ڈی	-8.32909
▁درگت	-8.3295
▁چوش	-8.33413
▁شریں	-8.33838
▁وھدیکہ	-8.33856
▁دیست	-8.33891
▁تاوان	-8.35207
▁ے	-8.36329
▁’	-8.36364
▁گرگ	-8.36582
▁شاعر	-8.36724
▁برگ	-8.36731
▁پدر	-8.3729
▁کساس	-8.37356
▁ہیں	-8.3753
▁جوانیں	-8.37554
▁په	-8.37677
▁بیتگ۔	-8.37804
“	-8.37889
م	-8.37953
’	-8.38066
ر	-8.38073
▁زمانگ	-8.38357
▁ھند	-8.38831
▁ساری	-8.3885
▁زمہ	-8.39227
▁تب	-8.39483
▁داریت	-8.39899
▁ارگ	-8.4015
▁سرکار	-8.40155
▁کنگء	-8.40253
▁نی	-8.40623
▁ملکی	-8.40816
▁ورنا	-8.41055
▁کوہ	-8.41066
▁علی	-8.4114
▁سد	-8.41634
▁بلکنا	-8.41713
▁ہے۔	-8.42039
▁وہدے	-8.4218
▁کاری	-8.42364
▁کنوکیں	-8.42408
▁داد	-8.42525
ات	-8.42541
▁؂	-8.42909
▁روان	-8.43128
▁ار	-8.43223
▁کئے	-8.43494
▁سما	-8.43688
▁یلہ	-8.44499
▁اسلام	-8.44614
e	-8.44636
▁بنی	-8.44665
▁شعر	-8.44761
▁یہ	-8.45007
▁نبشتانک	-8.45082
▁چشیں	-8.45207
▁دیر	-8.45615
▁شتگ	-8.45624
▁گپتگ	-8.45695
▁زرتگ	-8.45793
▁زان	-8.45829
▁جنت	-8.45865
▁زاناں	-8.45992
انت	-8.46083
▁کارے	-8.46175
▁چاگردی	-8.46191
۔۔۔	-8.46805
▁کتگیں	-8.4685
▁تک	-8.47115
▁جی	-8.47131
▁ناں	-8.47357
▁نیم	-8.47496
▁اد	-8.47504
▁بازار	-8.47504
▁جنک	-8.47547
▁وزیر	-8.47569
▁دلء	-8.47682
▁دلگوش	-8.47751
▁اھانی	-8.47758
▁چاپ	-8.48014
▁روچے	-8.48125
▁سیادی	-8.48227
▁لچہ	-8.48326
▁ورگ	-8.48606
▁سرمچاراں	-8.48718
▁نوک	-8.48946
▁پول	-8.48989
▁گڈی	-8.49007
▁ھبر	-8.49062
▁داشت	-8.4918
▁بھی	-8.49536
▁شش	-8.49763
▁سردار	-8.49961
▁ایس	-8.50244
▁تھا	-8.50319
d	-8.50474
▁جو	-8.50656
▁ھمک	-8.50912
▁جیڑہ	-8.50975
▁کرتگیں	-8.50983
▁پل	-8.5119
▁هم	-8.51271
▁ٹپی	-8.51331
ل	-8.51332
▁اردو	-8.51425
▁گران	-8.51481
▁جاگہ	-8.51543
▁ایت۔	-8.51566
▁کاروان	-8.51892
▁لس	-8.5275
▁from	-8.52766
▁دگ	-8.52916
▁کھول	-8.53042
▁ھمیش	-8.5316
▁نیمگا	-8.53282
▁ھلاپ	-8.5336
▁زہرشانی	-8.53586
▁بوھگ	-8.53754
▁ایرانی	-8.54242
▁دیمء	-8.54353
▁ایران	-8.54564
▁مارشت	-8.55144
▁گمان	-8.55428
▁ھاترا	-8.55641
▁چماں	-8.55686
▁شیر	-8.5594
▁اہاں	-8.55997
▁اماچ	-8.56266
▁بچار	-8.56484
▁گس	-8.56512
▁سروک	-8.56592
▁ازم	-8.5665
▁وہ	-8.56812
▁راجدپتر	-8.57084
▁ردء	-8.57454
▁کنیں	-8.57672
▁کرد	-8.57685
▁لبز	-8.57812
نہ	-8.57836
▁لہتیں	-8.5785
▁باریں	-8.57906
▁دیستگ	-8.5805
▁گش	-8.58143
▁رس	-8.58396
▁لوٹیت	-8.58682
▁مھلوک	-8.58691
▁تا	-8.58721
▁his	-8.58819
▁ھلاس	-8.58919
▁وار	-8.59181
▁دژمن	-8.59185
▁بنجاھی	-8.5956
▁گورا	-8.59986
▁گال	-8.60155
▁کور	-8.60679
▁کل	-8.60846
بلے	-8.6096
▁at	-8.6105
▁تاک	-8.61255
چہ	-8.61352
وتی	-8.61477
▁پس	-8.61484
▁درست	-8.62077
▁بوان	-8.62409
ه	-8.62411
▁دئیگ	-8.62463
▁دزگیر	-8.625
▁جاور	-8.63054
▁ڈن	-8.63307
▁درا	-8.63392
▁دہ	-8.6407
▁گوات	-8.6422
▁بیگواھیں	-8.64329
▁نیام	-8.64332
▁بار	-8.64533
▁پنجگور	-8.64535
▁رو	-8.64582
▁زدگ	-8.64788
▁بد	-8.64791
▁ہوار	-8.65091
▁لبزانکی	-8.65205
▁ایشیء	-8.65258
▁گند	-8.65772
▁رسول	-8.65866
▁ایشاں	-8.66081
▁بگیری	-8.66162
▁کشتگ	-8.66219
▁احمد	-8.66398
▁زوت	-8.66754
▁الله	-8.66755
▁پسو	-8.67002
▁واستہ	-8.67661
▁کلات	-8.67788
▁مال	-8.67919
......	-8.68209
▁کمیٹی	-8.68335
▁یکیں	-8.68465
▁وھدی	-8.68523
▁باں	-8.68712
ش	-8.68877
▁بو	-8.69182
▁لٹ	-8.69444
▁لبریش	-8.69514
▁کوش	-8.69677
▁وتا	-8.69728
▁مہلوک	-8.70515
▁لگ	-8.70749
یک	-8.70927
▁بلوچانی	-8.70972
▁شہر	-8.71409
▁نہیں	-8.71773
;	-8.71829
▁گپے	-8.71864
▁چوں	-8.71988
▁جون	-8.72058
▁جہل	-8.7207
▁کوئٹہ	-8.72526
▁were	-8.72551
▁کٹ	-8.72785
..	-8.73364
▁روچاں	-8.73539
▁بندی	-8.73759
▁ایدگہ	-8.7388
▁بکنت	-8.73936
▁ساہ	-8.74203
▁ریاست	-8.74257
ز	-8.74424
▁بخش	-8.74543
▁توک	-8.75037
▁بنجل	-8.75262
▁علم	-8.75551
تو	-8.75558
▁کنگی	-8.75602
▁المی	-8.75676
▁رنگیں	-8.75699
▁وتء	-8.75806
▁ت	-8.75977
سگ	-8.76156
▁داشتگ	-8.76195
▁نودربر	-8.76406
▁دمگاں	-8.76488
▁it	-8.76728
▁پمیشا	-8.76971
▁عمل	-8.77064
▁ساحر	-8.77218
▁شھید	-8.773
▁‘	-8.77301
▁تاکدیم	-8.77563
▁کچ	-8.77643
▁کشی	-8.7799
▁تچک	-8.7808
▁زوراکی	-8.78117
▁ایف	-8.78335
▁حکومت	-8.78369
▁زالبول	-8.78463
▁لاش	-8.78558
▁دمگی	-8.78559
▁ناشناسیں	-8.7889
س	-8.7903
▁پیداک	-8.79252
▁سرکاری	-8.79293
▁دے	-8.79353
▁رسانکدر	-8.79438
یا	-8.79579
▁نه	-8.79815
▁زرت	-8.79927
▁کاراں	-8.79964
▁اھاں	-8.80005
▁سیاہ	-8.80066
زورگریں	-8.80219
▁وشی	-8.80258
▁ک	-8.80271
▁عمر	-8.80668
▁گچین	-8.80895
▁انی	-8.80907
▁سئے	-8.81003
▁جار	-8.81473
▁کارانی	-8.81668
▁روکپتی	-8.8168
▁پمیشکا	-8.81713
▁درستیں	-8.81915
▁استاد	-8.81992
▁قوم	-8.82045
▁چمانی	-8.82069
▁بات	-8.82118
▁اودا	-8.8246
▁سیاست	-8.82499
انء	-8.82524
▁کئیت	-8.82581
▁اشانی	-8.82709
▁بال	-8.8274
▁روت	-8.82966
▁ازات	-8.82972
▁باسک	-8.8335
▁نیمگء	-8.83365
▁ئی	-8.83798
▁گیر	-8.83876
▁دنیاء	-8.83985
▁چیا	-8.84045
▁وسلم	-8.84161
▁""	-8.84183
▁مکران	-8.84289
▁درائیں	-8.84775
▁دانکہ	-8.8478
منی	-8.84881
▁بچ	-8.85175
▁ھزار	-8.85268
▁کیا	-8.85643
▁ٹک	-8.85652
▁ڈول	-8.85836
▁شمئے	-8.85934
▁مھر	-8.86077
▁فلسفہ	-8.86306
▁گدار	-8.86542
▁سرپدی	-8.86547
▁پیر	-8.8665
▁تیر	-8.86723
▁زھگ	-8.86792
▁بستگ	-8.8701
▁ہو	-8.87047
▁پریس	-8.87057
▁صاحب	-8.8719
▁سفر	-8.87274
▁شائری	-8.87432
▁درور	-8.87543
▁کہول	-8.87582
پہ	-8.87922
▁زورگ	-8.88209
▁ھدا	-8.88271
▁بل	-8.88286
▁چش	-8.8835
▁پیلو	-8.8845
▁دوستی	-8.88477
▁امیت	-8.88717
▁تاریخ	-8.88738
▁چیریں	-8.88882
▁تہنا	-8.88888
▁کسی	-8.89287
▁نند	-8.89889
▁ئے۔	-8.89943
▁واتر	-8.90051
▁In	-8.90159
▁گیشیں	-8.90204
▁ادء	-8.90229
▁شری	-8.90251
▁سنگ	-8.90285
▁وشیں	-8.90309
▁اکیڈمی	-8.9035
▁he	-8.90457
▁گشیت	-8.90798
▁کننت	-8.90953
بلوچی	-8.91051
▁دود	-8.91587
▁حق	-8.91615
▁ہست	-8.91742
▁۔۔۔	-8.91876
▁مند	-8.9195
▁an	-8.91989
▁شوھاز	-8.92235
▁نبشتگ	-8.92259
▁چپ	-8.92281
▁کسان	-8.92368
▁پروش	-8.92371
....	-8.92569
▁ہند	-8.92669
▁ھور	-8.92684
▁بزانت	-8.92725
یت	-8.92793
▁نسبت	-8.92832
▁ھساب	-8.9301
▁ایگ	-8.93144
▁ارمی	-8.93354
▁تانکہ	-8.93412
▁م	-8.9348
▁دین	-8.93553
▁بنا	-8.93896
▁بانک	-8.9391
▁بوئگ	-8.94297
▁واھگ	-8.94482
▁کنوک	-8.94495
▁اتنت۔	-8.94504
▁وارت	-8.94659
▁حدا	-8.94665
▁گوازی	-8.95013
▁استمانی	-8.9513
▁بندوک	-8.95459
▁جنان	-8.95965
▁نشان	-8.96043
▁معنا	-8.96124
▁به	-8.96335
▁مری	-8.9679
▁مچی	-8.96862
▁چونیں	-8.97055
▁حساب	-8.97078
▁پگر	-8.9756
▁بیڑ	-8.97658
▁had	-8.97711
▁چوشیں	-8.97733
▁مار	-8.9793
▁مٹ	-8.97944
▁دیمروئی	-8.9802
▁لاپ	-8.98399
▁سیمی	-8.9841
▁ہمیش	-8.98555
▁کنئگ	-8.98589
▁مانا	-8.98776
t	-8.9922
▁گم	-8.99264
▁مرتگ	-8.99298
▁ال	-8.99305
▁سپر	-8.99361
▁ہمک	-8.99367
▁;	-8.99496
ما	-8.99564
▁باروا	-8.99613
گوں	-8.99637
▁چل	-8.99767
▁درستاں	-8.99854
▁کنگا	-8.99867
▁انچش	-8.99942
▁ادارہ	-8.99969
▁برجم	-9.00101
▁ارزشت	-9.00199
▁ٹولی	-9.00307
▁مچ	-9.00347
▁ادب	-9.00389
▁which	-9.00538
▁ہی	-9.0073
▁نان	-9.00769
▁قصہ	-9.00851
▁کارمند	-9.00933
▁بگٹی	-9.00949
▁گپاں	-9.01007
▁چاران	-9.01145
▁هما	-9.01253
▁ردا	-9.01384
▁دم	-9.01524
▁پارٹی	-9.01589
▁فاضل	-9.01608
▁اف	-9.01632
▁ھشت	-9.01763
▁بگر	-9.01773
▁گوست	-9.01885
▁کماش	-9.01925
▁کشت	-9.01927
بہ	-9.01939
▁نندانک	-9.02182
▁پکر	-9.02742
▁سنگتاں	-9.03024
▁حبر	-9.03059
▁دیان	-9.03238
▁بنیاد	-9.03407
▁ازمان	-9.03618
▁ساڑی	-9.04082
▁نامیں	-9.04618
▁دنت۔	-9.04649
al	-9.0465
▁گٹ	-9.0476
▁ایں۔	-9.04877
▁برت	-9.0492
▁بیگواہیں	-9.04953
▁د	-9.05078
▁جنی	-9.05117
▁بوتیں	-9.05316
▁یکجاہ	-9.05333
▁دراج	-9.05355
ێں	-9.05586
▁ر	-9.05883
▁تراک	-9.06126
▁قاضی	-9.06129
▁بمب	-9.06149
▁کارء	-9.06203
▁روک	-9.06591
▁دستونک	-9.06899
▁فارسی	-9.07107
▁هر	-9.07343
▁همے	-9.07401
▁میجر	-9.07489
▁ہیں۔	-9.07676
▁وسیلہ	-9.079
▁منت	-9.08004
▁اھت	-9.0804
▁دروازگ	-9.08166
▁رنگے	-9.08178
▁شرگداری	-9.082
▁دمان	-9.08591
▁بئے	-9.08663
▁اودء	-9.08747
▁کمے	-9.0891
▁جھمنند	-9.08932
▁کپیت	-9.08973
▁لھتے	-9.09268
▁صل	-9.09347
▁ی	-9.09399
▁باور	-9.09521
▁نظام	-9.09591
▁غلام	-9.09618
▁دری	-9.09651
▁رستگ	-9.0994
▁میار	-9.09977
▁جنگی	-9.09991
▁چینل	-9.10208
▁باید	-9.10256
د	-9.10318
▁عليه	-9.10365
▁گپء	-9.10518
▁جندء	-9.10551
نی	-9.10624
▁پیدا	-9.10774
▁سلامتی	-9.1082
▁حمل	-9.11057
▁ناز	-9.11129
سر	-9.11306
▁وانوک	-9.11403
▁سیر	-9.11522
er	-9.11793
▁حسین	-9.11916
▁وڑے	-9.1205
▁کرا	-9.12145
▁نندوک	-9.12159
▁نشت	-9.12182
▁بستار	-9.12252
▁بادشاہ	-9.12363
▁س	-9.12665
▁حسن	-9.13083
▁دات۔	-9.13186
▁دراجیں	-9.13213
▁مکن	-9.13275
▁دراہ	-9.13353
بے	-9.13502
▁داری	-9.13735
▁ازاتی	-9.13841
▁ہزار	-9.14258
▁ایان	-9.14338
▁مں	-9.1486
▁نادراہ	-9.14897
▁وھدء	-9.15217
▁شئیر	-9.15393
▁وتارا	-9.15452
▁بیرم	-9.15825
▁ھمراہ	-9.1583
▁چاکر	-9.1587
▁یار	-9.16006
▁A	-9.16069
▁ہ	-9.16108
▁جاھے	-9.16146
▁موسم	-9.16255
▁رامین	-9.16308
▁درچک	-9.16314
▁ترندیں	-9.16376
▁دریا	-9.1645
▁تریں	-9.16501
▁بنداتی	-9.16617
▁ناکو	-9.16657
▁لوٹاں	-9.16805
▁تیاب	-9.16862
▁نیکہ	-9.17138
▁سکیں	-9.17224
▁عکس	-9.17301
▁زبانء	-9.17303
▁ڈیھ	-9.17314
▁ھپت	-9.17317
▁اثر	-9.17386
▁اجو	-9.17405
▁19	-9.17421
▁کارست	-9.17435
▁are	-9.17466
▁داتگ۔	-9.17534
▁ساز	-9.1779
▁انگریزی	-9.17813
...!	-9.17865
▁منیر	-9.17968
▁اکس	-9.18114
▁سوار	-9.18122
▁گوشیت	-9.18136
▁پوجی	-9.18247
▁بونگ	-9.18295
▁امریکہ	-9.18341
▁کوٹی	-9.18413
▁پرچے	-9.18486
▁پیما	-9.18986
▁٭	-9.19057
▁پسہ	-9.19117
▁شک	-9.19121
▁منزل	-9.19367
▁کتہ	-9.19479
▁لھتیں	-9.19602
یء	-9.19648
▁یونیورسٹی	-9.19661
▁مھمد	-9.20003
▁کرت۔	-9.2009
▁اپنے	-9.2033
ب	-9.20424
▁دز	-9.20447
▁بیگاہ	-9.20599
▁اندر	-9.20636
▁ناول	-9.20856
▁بندگ	-9.20945
▁ریاستی	-9.20979
▁سندھ	-9.21441
▁جہان	-9.21515
▁چین	-9.21626
▁شمبے	-9.21646
▁بنکی	-9.2176
▁اسکول	-9.21994
▁داتگیں	-9.2201
▁ندارگ	-9.22119
▁اں۔	-9.22452
▁بارو	-9.22498
▁نور	-9.22528
▁تھنا	-9.22615
▁جاھاں	-9.22627
▁نادراھی	-9.2274
▁کچے	-9.22807
▁مالی	-9.2285
▁مبارک	-9.22886
غ	-9.2289
▁تاب	-9.22932
▁ایشرا	-9.22935
▁دیمروی	-9.23221
n	-9.23328
▁منگ	-9.23377
▁گام	-9.23427
▁شائر	-9.23691
▁اوشتاتگ	-9.23809
▁فیصلہ	-9.23814
▁اڈ	-9.23837
▁جنز	-9.23876
▁بنگپ	-9.24011
▁دستء	-9.2413
▁ڈگار	-9.24189
▁رنگء	-9.24214
▁اول	-9.24255
▁مردے	-9.24323
▁ودار	-9.24325
▁بدلی	-9.24326
▁بندیگ	-9.24337
▁شاد	-9.24369
▁گوشاں	-9.24436
▁بدن	-9.24482
▁درچ	-9.24612
▁راستیں	-9.24719
▁ھو	-9.24726
▁دستاں	-9.2473
ےء	-9.25005
▁کاینت	-9.25115
?‘‘	-9.25321
▁پیمیں	-9.25324
▁تکنیک	-9.25358
▁پاک	-9.25385
▁مراگش	-9.25529
▁ای	-9.25558
▁بکش	-9.25622
▁گیشتریں	-9.25731
▁بست	-9.25836
▁تیار	-9.25933
▁کاروبار	-9.26069
▁نیشنل	-9.26136
▁گامگیج	-9.26369
▁اکبر	-9.26599
▁قومی	-9.26621
▁کلیں	-9.26714
▁فکر	-9.26758
th	-9.26865
▁نصیر	-9.26923
▁اگر	-9.27109
▁زرد	-9.27166
▁البت	-9.27389
▁انچوش	-9.27586
▁بلوچستانء	-9.27646
▁جوان	-9.27665
▁رھبند	-9.27675
▁جواب	-9.2771
▁درشانی	-9.27907
▁خدا	-9.27921
▁ارس	-9.28328
▁اب	-9.28626
▁داب	-9.28683
▁بالی	-9.28771
▁گشئے	-9.28842
▁ببیت	-9.28871
▁وجود	-9.28877
▁نمدی	-9.28947
▁ھون	-9.28949
تہ	-9.29078
▁سوج	-9.2912
▁مئی	-9.2939
▁شمارا	-9.29471
▁بابتء	-9.29475
▁برو	-9.29537
▁وس	-9.29624
بلوچ	-9.29848
▁their	-9.30017
▁نو	-9.30105
▁لہتے	-9.3046
▁بوہگ	-9.30627
▁سائنس	-9.30721
نا	-9.30756
▁دئے	-9.30775
▁شاری	-9.31104
▁but	-9.3139
▁اصل	-9.3141
▁وائس	-9.31549
▁خیال	-9.31564
▁پڑ	-9.31685
▁صورت	-9.31688
▁مول	-9.31698
▁پدء	-9.31704
▁نماز	-9.31883
▁کشک	-9.31912
▁روچء	-9.31922
▁not	-9.32276
‘‘(	-9.32297
▁عزت	-9.324
▁کریم	-9.32444
▁گنگ	-9.32455
▁کلب	-9.32465
es	-9.32537
ئیں	-9.32617
▁کوھنیں	-9.3268
▁تنے	-9.32797
▁مستونگ	-9.32833
▁ارواہ	-9.33082
▁مولانا	-9.33146
▁بہا	-9.33174
▁......	-9.33179
▁ئیگ	-9.33284
▁چیزانی	-9.33325
▁first	-9.3337
▁شہید	-9.3352
▁لوگء	-9.33536
▁ماس	-9.33553
▁درشانے	-9.33622
▁رسیت	-9.33801
▁تالان	-9.33888
کی	-9.33893
ار	-9.34038
▁دپتر	-9.34201
▁ھکانی	-9.3426
▁اشاں	-9.34441
▁نیست۔	-9.34517
a	-9.34548
▁پرس	-9.34928
▁پرچاکہ	-9.34967
▁ویل	-9.3497
▁پاس	-9.35248
▁سہب	-9.35458
▁عطا	-9.35525
▁نامداریں	-9.35682
▁ایپ	-9.35941
▁مارچ	-9.35981
▁بوتاں	-9.36153
▁باندا	-9.36267
▁زانتکار	-9.3631
ies	-9.36368
▁بامن	-9.36417
▁وان	-9.36468
▁نبیسگ	-9.36483
▁چٹ	-9.36584
▁امان	-9.36777
▁ھمراھی	-9.36885
▁گوستگ	-9.36896
▁بگیر	-9.37018
▁جانی	-9.37306
▁چوکہ	-9.37353
▁دورء	-9.37468
▁ارام	-9.37519
▁جھان	-9.37794
▁امیدگس	-9.37822
▁شے	-9.37829
▁لیب	-9.38
▁وی	-9.38034
▁کئی	-9.38102
▁کیس	-9.38248
▁سرمایہ	-9.38253
▁ستک	-9.38403
▁پیسلہ	-9.38573
▁باندات	-9.38693
▁رپورٹ	-9.38828
▁ازاد	-9.38961
▁کمیں	-9.38967
▁سزا	-9.39001
▁ماہی	-9.39059
▁چھاپ	-9.39149
▁ھب	-9.39234
▁با	-9.39282
▁تمپ	-9.39685
▁or	-9.39717
▁از	-9.39734
▁ادبی	-9.39887
▁...	-9.40001
▁ساچشت	-9.40001
▁گلام	-9.40097
▁انکہ	-9.40212
▁بوتنت	-9.40249
▁چاریں	-9.40303
also	-9.40304
▁بارت	-9.40348
▁وہدء	-9.40369
▁اھوالانی	-9.40377
▁سھب	-9.40407
▁ونتگ	-9.40484
▁یاد	-9.40616
▁ترقی	-9.40738
▁ھرچ	-9.40951
▁انکس	-9.40973
▁ردوم	-9.41039
▁تها	-9.41063
▁روزگار	-9.41065
▁عربی	-9.41162
▁جس	-9.41211
▁مالیات	-9.41323
▁کارندہ	-9.41409
▁اھتگ	-9.41537
▁its	-9.41555
▁نامی	-9.41982
▁her	-9.42029
▁ہلاس	-9.42175
بی	-9.42277
▁مدت	-9.42304
▁دروگ	-9.42345
▁ربیدگ	-9.42373
▁ائے	-9.42492
▁بچک	-9.42527
▁پھر	-9.42628
▁تنی	-9.42809
▁زیر	-9.42898
▁دراہیں	-9.43048
▁کردار	-9.43145
▁ندر	-9.43559
▁رست	-9.43561
▁کپگ	-9.43653
▁وارتگ	-9.43864
▁میل	-9.43887
▁سالی	-9.43977
▁درمان	-9.43987
▁گیشی	-9.441
▁بنگیج	-9.44118
▁جوانی	-9.44298
▁اپنی	-9.44305
▁دیمتر	-9.44324
▁پرچہ	-9.44335
▁غم	-9.44341
▁کمو	-9.44634
۔۔۔۔	-9.44696
▁وھداں	-9.44752
بلوچستان	-9.44825
▁جاورانی	-9.44946
▁زانتگ	-9.45057
▁ھک	-9.45116
▁بیگواہی	-9.45136
▁ذات	-9.45223
▁رھشون	-9.45428
st	-9.45688
گی	-9.45731
▁جاوراں	-9.45747
▁نسل	-9.45875
را	-9.45924
▁گراں	-9.46502
▁بولان	-9.46708
ێن	-9.46715
▁ہور	-9.46865
تگ	-9.4692
▁دشت	-9.47013
▁نمبر	-9.47247
▁اواران	-9.47248
▁چیزاں	-9.47297
▁زبانانی	-9.47546
▁رواں	-9.47617
▁ساھت	-9.47776
▁have	-9.47888
نے	-9.48026
▁ور	-9.48198
▁سلام	-9.48314
▁گرم	-9.48382
نت۔	-9.4839
▁نزور	-9.484
▁دیاں	-9.48523
▁طرح	-9.4863
▁نز	-9.48639
▁فار	-9.48732
▁مسنگ	-9.48757
▁مثال	-9.48785
▁He	-9.48918
▁سازی	-9.48942
▁شعری	-9.48946
▁زلم	-9.48967
▁ماما	-9.49031
▁نودربرانی	-9.49033
▁لیکن	-9.49066
▁زہگ	-9.49306
▁نواب	-9.49568
▁زاھدان	-9.49601
▁نھ	-9.49687
▁ورنایے	-9.49709
▁رندا	-9.49813
▁گیس	-9.49861
▁اسراتی	-9.49922
▁سند	-9.50121
▁بالاد	-9.50336
ھمے	-9.5041
▁بنشون	-9.50451
▁اگں	-9.50455
▁چراگ	-9.50487
▁کمی	-9.50493
▁اگست	-9.50534
▁جوڈ	-9.50536
▁one	-9.50592
▁ہمراہ	-9.50607
▁کچک	-9.50727
▁has	-9.50729
▁مشکل	-9.50974
▁گڈ	-9.5104
▁شکار	-9.51088
▁تلگرام	-9.51538
▁ارشانی	-9.51636
واجہ	-9.51784
▁نئے	-9.51836
▁مڈی	-9.51912
▁ایندگہ	-9.51992
▁بہرے	-9.5205
▁سیل	-9.52195
▁ڈیرہ	-9.52466
ئی	-9.52475
▁یکشل	-9.52494
▁چوکی	-9.52522
▁گپانی	-9.52638
▁باروء	-9.52671
▁۔اے	-9.52673
▁امر	-9.52721
▁پمشکا	-9.52743
▁کلدار	-9.52986
▁نظر	-9.53209
▁جنجال	-9.53227
▁مر	-9.53232
▁ارا	-9.53278
▁تامر	-9.5342
ھ	-9.53443
▁زندمان	-9.53446
▁عبداللہ	-9.53604
▁اھوالکار	-9.53723
▁جنرل	-9.53734
▁been	-9.53782
کے	-9.53787
▁روانک	-9.53793
▁تباہ	-9.53811
▁ھرکس	-9.53832
▁دیمی	-9.53834
▁ھواریں	-9.54141
کار	-9.54228
▁جنگل	-9.54241
▁two	-9.54264
▁رسانک	-9.54375
▁چنچو	-9.54411
▁اسے	-9.54585
▁زوریں	-9.54642
▁بزان	-9.54701
▁who	-9.55071
ری	-9.5527
▁ساھگ	-9.55281
▁زہر	-9.55365
▁اوتی	-9.55459
▁کنئے	-9.55468
▁رندء	-9.55539
▁ترند	-9.55545
▁پرائی	-9.55561
▁نصیب	-9.55578
▁جیڑگ	-9.55745
▁منوک	-9.55795
▁بلکہ	-9.55804
▁عشق	-9.55812
▁چنت	-9.55816
▁بلوچاں	-9.55901
▁اڑ	-9.55904
▁تی	-9.55944
▁گورء	-9.55966
▁گنوک	-9.56011
▁سرجمی	-9.56108
▁گشنت	-9.56109
▁وڑء	-9.56174
▁گو	-9.56368
▁لئے	-9.5638
▁درسیں	-9.56422
▁ارمان	-9.56444
▁جھانی	-9.56524
▁جیڑ	-9.56546
▁I	-9.56595
▁سگ	-9.56611
▁دوشی	-9.5663
▁لاچار	-9.56643
▁شور	-9.56655
▁پاھو	-9.56686
گیں	-9.56731
▁رواج	-9.57143
▁ب	-9.57255
▁عرب	-9.57263
▁گد	-9.57264
▁برزی	-9.57306
▁نویس	-9.57375
▁چاگردء	-9.57635
▁مست	-9.57787
ھم	-9.57794
▁کسانی	-9.57825
▁رندے	-9.57923
▁دگه	-9.58051
▁گوھرام	-9.58115
▁واک	-9.58118
▁گنداں	-9.5831
▁مرید	-9.58377
▁تنگ	-9.58378
▁لک	-9.58504
▁سور	-9.58504
وکیں	-9.58523
▁پتر	-9.58526
▁پری	-9.58541
▁بیار	-9.58726
▁پرسنز	-9.58748
▁مجید	-9.58857
▁دزبندی	-9.58943
▁سالاں	-9.5897
تئی	-9.59007
▁پریشان	-9.59103
ج	-9.59184
▁زال	-9.59279
▁this	-9.59327
دو	-9.59336
▁هچ	-9.59338
▁مرک	-9.59372
▁چوشکہ	-9.59475
تی	-9.59672
یے	-9.5977
▁رہبند	-9.59943
▁منصوبہ	-9.59991
▁پنجاہ	-9.60036
▁سری	-9.60135
▁دکان	-9.60282
▁وطن	-9.60376
▁چیء	-9.60385
▁مزار	-9.60402
▁بوگء	-9.60455
▁عقل	-9.60535
ال	-9.60602
▁زی	-9.60634
▁چرے	-9.60704
▁رب	-9.60716
▁چگل	-9.60881
▁دشتی	-9.609
▁بالاچ	-9.60935
▁بئیت	-9.60956
▁سہ	-9.60963
▁تہر	-9.60992
▁پوہ	-9.61092
▁مہمان	-9.61234
▁ابادی	-9.61292
پ	-9.61292
▁مینگل	-9.61399
▁سامان	-9.61563
▁سکین	-9.61628
▁دان	-9.61642
▁پمن	-9.61685
▁جم	-9.61688
▁جنگء	-9.61829
▁رژن	-9.61856
▁ھنچش	-9.61925
▁مہمد	-9.62018
▁بارہ	-9.62041
▁نندگ	-9.62061
▁سرمچار	-9.62076
▁شرتر	-9.62202
▁دوھزار	-9.62504
▁اپریشن	-9.62575
انت۔	-9.62581
▁زرمبشت	-9.62649
l	-9.6265
▁ذمہ	-9.62736
▁نامء	-9.62745
▁کمشنر	-9.62765
اگاں	-9.62819
▁منند	-9.63056
▁بشیر	-9.63076
▁چیدگ	-9.63149
▁اخر	-9.63184
▁کارمنداں	-9.63189
▁نومبر	-9.63249
..!	-9.6327
▁جا	-9.63381
▁کوئی	-9.63381
▁روس	-9.63469
▁ساتھ	-9.63564
▁تن	-9.63699
▁ایمان	-9.63893
▁اوشتوک	-9.63951
▁تل	-9.63967
▁year	-9.64015
▁ؤ	-9.64114
▁حاصل	-9.64177
▁نشہ	-9.64196
▁امام	-9.6467
▁سندھی	-9.64694
▁رحیم	-9.64842
▁بت	-9.64866
▁دعا	-9.64876
▁شکل	-9.64877
▁سنگتانی	-9.64941
ٹ	-9.65001
▁گوزگ	-9.6507
▁ٹکر	-9.65135
▁گرانیں	-9.65304
▁سوت	-9.65365
▁پاداں	-9.65392
▁زھر	-9.65552
o	-9.65649
▁نیمگے	-9.65745
▁کاگد	-9.6588
▁تیوگیں	-9.65895
▁شان	-9.65977
می	-9.66024
▁ہوا	-9.66046
▁کرونا	-9.66053
▁شرپ	-9.66097
▁براں	-9.66155
▁لبزانی	-9.66193
▁اوانی	-9.6625
▁کالج	-9.66385
▁شام	-9.66507
▁کاروائی	-9.66514
▁چاہ	-9.66525
▁داستان	-9.66669
▁غیر	-9.6676
▁1	-9.66842
▁قدیر	-9.66845
▁پمیشکہ	-9.66847
▁ھاشمی	-9.66854
▁ترک	-9.66901
▁نوشکی	-9.66964
▁کتابانی	-9.67026
▁اجازت	-9.67062
▁زبانے	-9.67119
▁کتابے	-9.67199
▁ایمنی	-9.67254
اناں	-9.6728
▁شکر	-9.67295
▁کوہنیں	-9.67462
▁مدامی	-9.67626
▁معاشی	-9.67691
▁ازمی	-9.67705
▁روڈ	-9.67739
ون	-9.67788
▁ھزدار	-9.67834
▁حد	-9.67849
▁اوشتات	-9.6801
▁تیز	-9.68081
▁امید	-9.68126
▁کنڈ	-9.68136
▁توکا	-9.68233
▁چکاس	-9.68248
▁مستر	-9.68379
▁روچی	-9.68407
▁ماڑی	-9.68464
▁گیدی	-9.68512
▁نیاد	-9.68514
▁شوہاز	-9.68516
▁پسند	-9.68536
▁دوا	-9.68551
▁انگور	-9.68602
▁یاکہ	-9.68643
▁گوناپ	-9.68659
▁پیمء	-9.68722
▁بید	-9.68881
▁خبر	-9.68982
▁دیمپان	-9.69012
▁امیر	-9.69021
▁ڈنی	-9.69079
▁گوازینگ	-9.69085
▁موجود	-9.69327
▁والا	-9.69375
▁شمے	-9.69653
▁صدر	-9.69682
▁کنائینگ	-9.69845
▁جنوری	-9.69873
▁درائینت	-9.69946
▁اشوب	-9.70258
▁کمال	-9.70289
▁بزگ	-9.70349
▁شراب	-9.70358
▁2	-9.70384
▁دسمبر	-9.70453
▁دیوال	-9.7049
▁کنوکاں	-9.7055
▁واہگ	-9.70603
▁اگن	-9.70861
▁مزنین	-9.70943
▁انوں	-9.70979
▁کوکار	-9.71139
▁ترانگ	-9.7122
▁لیویز	-9.71254
▁ممکن	-9.71453
▁نود	-9.71521
▁جب	-9.71574
▁گرد	-9.71597
▁نشتگیں	-9.71605
▁ٹپ	-9.71646
▁ورنائیں	-9.71722
▁فوج	-9.71752
اس	-9.71827
▁دزگیری	-9.71829
▁قلات	-9.71958
▁شریف	-9.72049
▁سلیم	-9.72072
▁بتل	-9.72109
▁زبانا	-9.72196
▁لال	-9.72268
▁کنٹرول	-9.72275
▁بھا	-9.72312
▁تھی	-9.72451
▁ل	-9.72462
▁@,@	-9.72571
▁جام	-9.72634
▁مذہب	-9.72731
▁فرنٹ	-9.7279
▁بان	-9.72793
▁ربیت	-9.72823
▁طاقت	-9.72951
▁after	-9.73012
▁شپء	-9.73027
▁بیگواھی	-9.73031
▁شد	-9.73053
▁ایچ	-9.73054
▁ادگہ	-9.73059
▁نودربراں	-9.73125
▁گوشان	-9.73232
▁دروت	-9.73238
ماں	-9.73363
▁پسنی	-9.73368
▁ھلک	-9.73379
▁گیری	-9.7341
▁ازمانکانی	-9.73686
▁اورتگ	-9.73752
وک	-9.73783
▁ماتی	-9.73868
▁دروگیں	-9.73908
▁سبز	-9.73989
ڈ	-9.74061
▁تیل	-9.74068
▁گلزمین	-9.7407
▁ونت	-9.74229
▁یکجھتی	-9.74286
▁زیبائی	-9.74327
▁بنجاہی	-9.74635
▁قران	-9.74716
▁سیت	-9.74772
▁دیمپانی	-9.7478
▁دؤر	-9.7493
▁گناہ	-9.75072
▁کپتگیں	-9.751
▁وائی	-9.75123
▁اشیء	-9.75123
▁اوگانستان	-9.75144
یہ	-9.75159
▁ادارھانی	-9.75201
▁برکت	-9.7524
▁عمران	-9.75259
▁تپاک	-9.75452
دی	-9.75468
▁ش	-9.75496
▁بڈ	-9.75758
▁پمشکہ	-9.75982
▁میڈیا	-9.75984
▁عہد	-9.76203
▁اسلم	-9.76269
▁اواز	-9.76283
▁حاجی	-9.76287
▁رکینگ	-9.76444
۔۔	-9.7651
▁مک	-9.76537
▁وا	-9.76616
▁نشانی	-9.76621
▁اینچو	-9.76651
▁S	-9.76822
وت	-9.7691
▁رگ	-9.76919
▁ھاسیں	-9.77031
▁سروکی	-9.7704
▁کرنے	-9.77049
▁جھل	-9.77064
تر	-9.77305
▁نپ	-9.77347
▁اھوال	-9.77371
چو	-9.77387
دل	-9.77416
▁ردی	-9.77433
▁شون	-9.77445
▁چکانی	-9.77559
▁It	-9.77603
▁الس	-9.77676
تا	-9.77718
▁ہال	-9.7772
▁شعرء	-9.7772
▁بنداں	-9.77741
▁ڈولیں	-9.77823
▁تام	-9.78057
▁اکتوبر	-9.78066
▁گول	-9.78166
▁داریں	-9.78411
▁تاج	-9.7845
▁زوراکیانی	-9.78509
▁('	-9.7851
▁چکاں	-9.78547
▁تئو	-9.78654
▁گری	-9.78829
▁ترندی	-9.78862
▁جتاجتائیں	-9.78933
▁کج	-9.78961
▁ہوئے	-9.7903
▁بعد	-9.79084
ع	-9.79154
▁کرار	-9.79523
▁time	-9.79669
▁گچکی	-9.79697
▁۔۔	-9.79725
▁سول	-9.79727
▁ایوکء	-9.79794
▁F	-9.79824
▁جل	-9.79836
۔اے	-9.79839
▁متلب	-9.80115
▁other	-9.80228
▁نیک	-9.80258
مئے	-9.80403
▁انت۔۔۔	-9.80444
▁جنیں	-9.80452
▁لوز	-9.80495
▁بہت	-9.80532
▁حضرت	-9.80546
▁چنکس	-9.80621
▁واقعہ	-9.8063
▁بود	-9.80637
ہمے	-9.8064
▁بیم	-9.80649
▁انگر	-9.80786
▁هست	-9.80838
▁چوناھا	-9.80854
▁اگہ	-9.80896
▁دامن	-9.81
▁دزکپتگ	-9.81013
▁برجاھیں	-9.81042
▁ھنکین	-9.81102
▁انگریز	-9.81288
▁سرڈگار	-9.81555
▁پنام	-9.81595
▁چیاکہ	-9.81622
▁ج	-9.8165
بیت	-9.81794
▁ہرکس	-9.81987
▁زیارت	-9.82053
▁into	-9.82061
▁لڈ	-9.82231
▁ھیل	-9.82231
▁نوشتہ	-9.82278
▁ویبجاہ	-9.82331
ف	-9.82384
▁کننت۔	-9.82402
▁لشکری	-9.82433
▁راجے	-9.82466
ہم	-9.82517
▁مرچاں	-9.82587
▁اندرء	-9.82628
▁ایرانء	-9.82683
▁بدیں	-9.8269
▁چاراں	-9.82732
▁چنڈ	-9.8281
▁کارمرد	-9.8283
▁زندان	-9.82948
▁مارگ	-9.8295
▁کمپنی	-9.82967
▁اتکگیں	-9.82967
ائیں	-9.82977
▁سہر	-9.83036
▁واجه	-9.83075
▁گندیت	-9.83098
▁رسم	-9.8325
▁ز	-9.83253
▁دشتیاری	-9.83281
▁بانگ	-9.83352
▁بله	-9.83499
▁ایوکیں	-9.83537
▁کشیت	-9.83555
▁عالم	-9.83646
▁انہی	-9.83648
▁پانزدہ	-9.83662
▁یوسف	-9.83684
▁واکدار	-9.83712
ائیء	-9.83715
▁نزوری	-9.83773
بزاں	-9.83809
▁کناں۔	-9.8386
▁شھدگ	-9.83863
▁دپء	-9.83913
▁ڈک	-9.83985
▁چد	-9.84084
یناں	-9.84093
▁کنوکانی	-9.84099
▁اسمبلی	-9.84141
▁مناں	-9.84242
▁روچانی	-9.84256
▁نزیکی	-9.84279
▁سنگر	-9.84302
▁ہوں	-9.84302
اپ	-9.84305
▁گہار	-9.84352
▁کازی	-9.84429
▁براس	-9.84474
▁بیرانی	-9.84554
▁اوپار	-9.84694
▁کشار	-9.84743
▁داروکیں	-9.84751
▁مردمان	-9.84762
'	-9.84883
▁18	-9.85018
r	-9.85019
▁کد	-9.85051
▁صد	-9.85083
▁نرم	-9.85175
▁over	-9.85189
▁ٹیم	-9.85214
▁استان	-9.85327
در	-9.854
▁فروری	-9.85436
▁B	-9.85489
▁حقیقت	-9.85558
▁واحد	-9.8562
▁بوتہ	-9.85644
▁ہشت	-9.85646
▁زندے	-9.85783
▁پ	-9.85787
▁مھکم	-9.8581
▁اتاں۔	-9.8586
▁جولائی	-9.85877
▁بگ	-9.85948
▁پروفیسر	-9.86011
پر	-9.86022
▁بک	-9.86039
▁گدان	-9.86053
▁راجانی	-9.86102
▁وانگء	-9.86138
▁ہرچی	-9.8625
▁شبین	-9.8631
▁لگت	-9.86336
▁کلوہ	-9.86351
▁وہدیکہ	-9.86421
▁تحریک	-9.86429
▁تہاری	-9.86455
▁سائنسی	-9.86462
▁صنعت	-9.86556
▁اوست	-9.86607
▁کرنا	-9.86626
یاں	-9.86665
دومی	-9.86669
▁پانگس	-9.86728
▁دشمن	-9.86751
▁would	-9.86757
ے۔	-9.86775
▁بھتام	-9.86793
▁انساپ	-9.86824
چے	-9.86843
▁more	-9.86858
▁ردانک	-9.86872
▁بلاھیں	-9.86947
▁پرے	-9.86957
▁قبیلہ	-9.87072
▁اپریل	-9.87282
▁مسیت	-9.87339
▁پیک	-9.87358
▁کرن	-9.87361
▁برجا	-9.87392
▁کیت۔	-9.87438
▁پاکستانء	-9.87523
▁دمانے	-9.87593
▁لوٹوکیں	-9.87681
▁لڑ	-9.87711
▁ستمبر	-9.87966
▁گیا	-9.87972
ق	-9.88033
▁تھے	-9.88084
▁حب	-9.88163
▁سبک	-9.88178
▁مرزی	-9.88257
▁حکم	-9.88303
▁نگد	-9.88309
▁ہاترا	-9.88326
▁علاقہ	-9.88339
▁رسگ	-9.88466
▁ادینک	-9.88492
▁پالیسیانی	-9.8852
▁شمار	-9.88773
▁اسمان	-9.88777
▁ملکاں	-9.89001
▁مرچیگیں	-9.89021
▁دستی	-9.89056
▁گچینی	-9.8906
▁یکبرے	-9.89156
▁نیٹورک	-9.89179
▁گیوار	-9.8928
▁موہ	-9.89362
▁جنکے	-9.89491
▁رنج	-9.89599
▁ادار	-9.89645
▁3	-9.8966
▁انت۔اے	-9.89662
تاکدیم	-9.89716
▁سمی	-9.89723
▁مرز	-9.89741
▁لا	-9.89785
▁لکھ	-9.8984
▁دوازدہ	-9.89891
دار	-9.89909
▁وانگی	-9.8992
▁بدئے	-9.89934
▁لبزانکء	-9.90044
▁کمیشن	-9.90051
▁افغانستان	-9.9012
▁نگ	-9.90134
▁کندگ	-9.90271
کا	-9.90296
▁مجلس	-9.90315
▁اشتر	-9.9039
▁بندش	-9.90506
▁سکی	-9.9051
▁ھاترء	-9.90614
▁دینت	-9.90668
mber	-9.90674
▁خاصیں	-9.90898
▁بستگیں	-9.90988
کو	-9.90991
▁انسانء	-9.91016
گڑا	-9.91019
▁ریل	-9.91129
▁دگر	-9.91165
▁ھنچیں	-9.91323
▁خاص	-9.91403
کن	-9.91482
▁طور	-9.91491
▁سسا	-9.91539
in	-9.91679
!‘‘	-9.91734
▁سا	-9.91767
▁کارگس	-9.9178
▁گلانی	-9.91825
▁ہونا	-9.9187
▁فوجی	-9.91874
▁ھمود	-9.91911
▁کاریت	-9.91967
▁سیمسر	-9.91971
on	-9.92045
▁شعرانی	-9.92051
▁مردء	-9.92078
▁سالے	-9.92096
▁مومن	-9.92117
se	-9.92146
▁چیئرمین	-9.92168
▁یو	-9.92276
▁شاعرے	-9.92283
دیم	-9.92413
▁دوستیں	-9.92439
▁گستا	-9.92563
ion	-9.92612
▁اسلامی	-9.92695
▁دائم	-9.92702
▁زالبولانی	-9.92718
▁نئیت	-9.92724
▁سان	-9.92727
▁all	-9.92748
▁مل	-9.92789
▁سرکماش	-9.9291
▁نزینک	-9.92926
▁نیوز	-9.93101
▁ماھتاک	-9.93114
▁تاریخی	-9.93246
▁دچار	-9.9327
▁گالوار	-9.93361
▁چکے	-9.93405
▁تواری	-9.93443
▁گونڈیں	-9.93454
▁خیر	-9.93486
▁برزیں	-9.93521
▁وتن	-9.93565
نوکیں	-9.93574
▁حیران	-9.93634
▁ہرچ	-9.93637
▁واھند	-9.93655
▁گیپت	-9.93686
▁انصاف	-9.93738
▁خود	-9.93741
▁پیریں	-9.93821
▁قدر	-9.93892
▁اسپ	-9.93947
نوں	-9.93988
▁بچکند	-9.93999
▁پادانی	-9.94213
▁بینک	-9.94262
▁سنگتے	-9.94443
▁استیں	-9.9447
▁نویسگ	-9.94488
یگ	-9.94527
▁بدی	-9.94594
▁مئیں	-9.9461
▁پژدر	-9.94614
▁پکار	-9.94616
▁اسکواڈ	-9.94664
▁ساچشتی	-9.94674
▁بور	-9.94791
▁مطلب	-9.94828
▁گندگء	-9.94872
▁کنیں۔	-9.94895
▁سپت	-9.95015
▁ھوش	-9.95072
▁ماسٹر	-9.951
▁رؤگ	-9.95115
▁ہکانی	-9.95161
▁ساجد	-9.95169
▁ھیر	-9.95172
▁نادراہی	-9.95225
▁یورپ	-9.95311
▁ساپ	-9.95532
▁چہر	-9.95535
▁جیئند	-9.95548
▁اروس	-9.95598
▁بلیدہ	-9.95652
▁چارت	-9.95827
▁لیے	-9.95833
▁اشکنگ	-9.95837
▁۔۔۔۔	-9.95883
▁تھا۔	-9.95942
▁پارسی	-9.95961
▁جمالدینی	-9.96017
▁سب	-9.96035
داں	-9.96167
▁گا	-9.96211
▁ملکء	-9.96222
▁T	-9.96267
▁راز	-9.96556
▁پہک	-9.96587
▁فائدہ	-9.96634
ھو	-9.96673
▁جاہے	-9.96728
▁بلک	-9.96794
جی	-9.96867
▁نزانت	-9.96906
▁کچھ	-9.96961
▁ایا	-9.97065
▁اسپیت	-9.97131
▁امن	-9.97136
▁اؤرتگ	-9.97265
تگیں	-9.97319
▁مردین	-9.97422
▁واست	-9.9758
▁گشاں	-9.97581
▁توامیں	-9.97603
▁کوشست	-9.97622
اد	-9.97657
▁بروت	-9.97667
▁براہ	-9.97688
▁الی	-9.9779
▁غزل	-9.97802
▁چادر	-9.97868
▁ھمگرنچ	-9.97892
▁ماہتاک	-9.97928
▁کند	-9.98005
▁یازدہ	-9.98065
▁اناں	-9.98098
▁چارمی	-9.98119
سی	-9.98173
▁نزاناں	-9.98195
▁معلوم	-9.98198
▁٭٭٭	-9.98299
▁زئی	-9.98351
▁بگش	-9.98366
▁عزیز	-9.98478
▁بیر	-9.98547
▁پاکیں	-9.98547
▁چارات	-9.98552
▁دیوانے	-9.98554
▁she	-9.98565
▁دوبر	-9.98589
▁گنج	-9.98764
▁زمانگء	-9.98768
▁پلہ	-9.98777
ور	-9.98843
▁چینی	-9.98907
▁نادراھجاہ	-9.98916
▁دراتک	-9.98966
▁اورت	-9.98966
▁کرتے	-9.9897
▁شئے	-9.99006
▁کانود	-9.99016
▁ڈپٹی	-9.99018
▁پراہ	-9.99086
▁رسانکدراں	-9.99162
▁ملکانی	-9.99173
▁گریوگ	-9.99221
▁بج	-9.99227
▁اسرائیل	-9.99304
▁کمالان	-9.99325
▁مہناز	-9.99368
▁شیخ	-9.99456
▁نقصان	-9.9946
▁اتگ۔	-9.99487
▁بام	-9.99508
باز	-9.99607
▁بگوش	-9.9961
▁زیان	-9.99682
ص	-9.99736
▁اتیں	-9.99784
▁when	-9.99785
▁لوٹت	-10.0009
خ	-10.0011
▁پھل	-10.0014
▁ھراب	-10.0019
▁موبائل	-10.002
▁دروشمے	-10.0024
▁گندئے	-10.0028
▁ناماں	-10.0032
▁ارب	-10.0037
▁مسلم	-10.0051
▁گوم	-10.0062
▁گوما	-10.0075
▁ایراد	-10.0081
▁وڈ	-10.0083
مہ	-10.0084
▁جاہاں	-10.009
▁دگنیا	-10.0093
ary	-10.0096
▁چن	-10.0099
یانی	-10.0102
▁up	-10.0104
▁راه	-10.0108
▁us	-10.0117
▁پیسرا	-10.015
▁وقت	-10.0151
▁بوگی	-10.0164
▁ہوٹل	-10.0175
▁سیاھیں	-10.0175
▁چ	-10.0177
▁یکجہتی	-10.018
▁دستیگ	-10.0183
بر	-10.0188
▁ناصر	-10.0189
▁مذہبی	-10.0198
▁حصہ	-10.0201
▁تنک	-10.0228
▁کول	-10.0232
▁راہء	-10.0241
▁سوبین	-10.0241
▁وانینگ	-10.0244
▁C	-10.0248
▁ورناہ	-10.0251
▁دلجم	-10.0255
ھر	-10.0262
▁ہبر	-10.0263
▁سارت	-10.0267
▁سوچ	-10.0271
▁ہپت	-10.0274
▁درک	-10.0279
▁نمیران	-10.028
▁وهد	-10.028
▁وفا	-10.0286
▁کورٹ	-10.0291
▁لوٹیت۔	-10.03
او	-10.0312
▁زرتگ۔	-10.0312
▁گلاں	-10.0319
▁انتزامیہ	-10.0325
▁نیت	-10.0334
▁most	-10.0334
▁ئا	-10.0336
▁سگریٹ	-10.0345
▁درس	-10.0359
▁صوبہ	-10.036
▁میڑ	-10.036
▁مقصد	-10.0364
▁شست	-10.0366
▁لوگانی	-10.0366
▁پوست	-10.0379
▁زیادہ	-10.0379
▁پنجاب	-10.038
▁ھشک	-10.0385
▁ارت	-10.0387
▁جتگ۔	-10.0388
▁سانگ	-10.0394
▁کھ	-10.0397
▁سربوتگیں	-10.0399
during	-10.0399
▁پوشاک	-10.0406
▁مردمء	-10.0409
▁سارتیں	-10.0414
▁جناں	-10.0423
▁تچکیں	-10.0425
▁ریش	-10.0426
ھما	-10.043
▁دلجمی	-10.0431
▁سوشل	-10.0458
▁اتگیں	-10.0469
▁ٹیکنالوجی	-10.047
▁برابر	-10.0471
▁نیں	-10.0471
▁احت	-10.0478
▁ھواری	-10.0491
▁تاکت	-10.0492
▁ہنچو	-10.0504
کنگ	-10.051
▁ھچبر	-10.0514
▁زیبا	-10.0514
▁نکش	-10.0516
▁گوشت۔	-10.0518
▁game	-10.0523
▁دیگر	-10.0524
ce	-10.0525
▁نیکراھی	-10.0525
▁جندئیگ	-10.0531
▁ہوتا	-10.0531
▁میری	-10.0535
▁کلی	-10.0535
▁نامہ	-10.0542
▁only	-10.0544
▁سبزیں	-10.0545
▁بیگا	-10.0546
▁زیرگ	-10.0547
▁شرف	-10.055
چی	-10.0554
▁کسمانک	-10.0576
▁ہاشمی	-10.0577
▁بلکن	-10.0579
▁اؤرت	-10.0581
▁زانتی	-10.0581
▁جتائی	-10.0587
▁پرک	-10.0592
▁بنیادم	-10.0596
▁زندگیں	-10.0614
▁شرتریں	-10.0614
▁پا	-10.0619
▁اسل	-10.0624
▁جز	-10.0626
▁رہشون	-10.0628
▁گالبند	-10.0638
▁بوہان	-10.064
▁]	-10.0641
▁ندکار	-10.0643
▁ظاہر	-10.0646
▁ھاک	-10.0647
▁کونسل	-10.0648
▁می	-10.0655
▁لیک	-10.0665
اب	-10.0666
▁گشے	-10.0669
▁out	-10.0674
▁روایت	-10.0678
▁زباناں	-10.0682
▁امریکی	-10.0686
▁کام	-10.0687
▁اوشت	-10.07
▁مسلمان	-10.0701
le	-10.0701
▁راھے	-10.0726
▁نبیس	-10.0732
▁گاڑیانی	-10.0745
▁اہوالکار	-10.0748
▁گواہ	-10.0748
▁چند	-10.0748
پد	-10.0756
▁جاه	-10.0766
▁حون	-10.0769
▁سست	-10.0776
▁مگر	-10.0776
▁وهدے	-10.0781
▁ستا	-10.0781
▁زاھر	-10.0781
▁صبا	-10.0792
تے	-10.0801
▁گوئشت	-10.0802
▁کاف	-10.0805
▁شتاں	-10.0808
▁ڪہ	-10.0815
ish	-10.0826
▁نیامء	-10.0827
▁لین	-10.0834
▁دیدگ	-10.0837
▁بدار	-10.0838
▁داراں	-10.0847
▁علاج	-10.0848
▁ھانی	-10.0852
▁نزیکیں	-10.0863
▁باری	-10.0877
▁لیگ	-10.0878
▁تمام	-10.089
▁نیکی	-10.0894
▁روگء	-10.0902
▁کینگ	-10.0902
about	-10.0902
▁لبزانت	-10.0907
tween	-10.0911
۔۔۔۔۔	-10.0913
▁ضرورت	-10.0917
▁بکنت۔	-10.0917
▁وانگجاہ	-10.0917
▁اسی	-10.0924
▁کلام	-10.0926
▁ھندی	-10.0926
▁نامدار	-10.094
اش	-10.0943
▁بوھیر	-10.0943
▁ھمدا	-10.0944
▁ارشاں	-10.0945
▁سئیں	-10.0946
پدا	-10.0948
▁دگے	-10.095
▁ھرچی	-10.0956
▁اھگ	-10.0957
▁رضا	-10.0959
▁دزی	-10.096
▁گوز	-10.0962
▁علیہ	-10.0962
لی	-10.0967
▁سوال	-10.0968
▁پیشی	-10.0971
▁جاہء	-10.0975
▁علمی	-10.0975
i	-10.0983
▁ڈیک	-10.0994
▁کتاباں	-10.0999
▁محبت	-10.1001
▁ثابت	-10.1009
▁m	-10.1012
▁مشکے	-10.1012
▁نامے	-10.1014
▁پند	-10.1019
▁نون	-10.1023
▁حاترا	-10.1025
▁شپے	-10.1037
▁سالانی	-10.104
▁ظلم	-10.1049
▁him	-10.1056
▁سرمچارانی	-10.1057
▁باج	-10.1061
▁باگ	-10.1062
▁سلامت	-10.1063
چ	-10.1067
▁حلک	-10.108
▁پالیسی	-10.1085
▁کامیاب	-10.1089
▁play	-10.1103
▁ایوب	-10.1111
▁کوپگ	-10.1114
▁پرواز	-10.1114
▁انور	-10.1114
▁یاں	-10.1115
▁گڈسر	-10.1125
!......	-10.113
▁ساعت	-10.1135
▁لانچ	-10.1138
▁گوشئے	-10.1142
▁سالء	-10.1148
▁ذاتی	-10.1156
▁راجء	-10.1165
▁","	-10.1175
▁چارگء	-10.1181
▁چاردہ	-10.1185
▁season	-10.1188
▁کوٹ	-10.1191
▁کپان	-10.1192
▁کشندہ	-10.1195
▁وکیل	-10.1201
▁پورا	-10.1202
▁ادارہانی	-10.1203
▁انگتہ	-10.1207
▁کبر	-10.1209
▁رؤت	-10.121
▁بلد	-10.1214
▁again	-10.1215
▁داریت۔	-10.1224
▁استمان	-10.1225
▁بیوکیں	-10.1229
▁ریچ	-10.123
▁ھمائی	-10.1234
▁تجربہ	-10.124
▁سلمان	-10.124
▁سنچ	-10.1245
▁زیب	-10.1245
▁ہوش	-10.1248
▁ادارھاں	-10.1248
▁دماغ	-10.125
▁ولی	-10.1254
▁رھادگ	-10.126
▁three	-10.1264
انہ	-10.1269
▁نبی	-10.1271
▁پروشگ	-10.1275
▁تچان	-10.1278
▁ورنایانی	-10.1286
▁پشتء	-10.1301
▁گیشینگ	-10.1302
▁چیک	-10.131
▁ادینگ	-10.1315
▁پونز	-10.1315
▁بران	-10.1325
کت	-10.1325
▁باپاری	-10.1329
▁گوک	-10.1331
▁زامران	-10.1337
▁عام	-10.1337
▁سعید	-10.1339
▁فضل	-10.134
▁بگل	-10.1342
▁''	-10.1343
▁زوریت	-10.1348
▁گشت۔	-10.1354
▁قول	-10.1358
▁ہائی	-10.1358
▁ادمین	-10.136
▁فکشن	-10.136
▁تہار	-10.1363
▁بکناں	-10.1366
ت۔	-10.1374
▁امین	-10.1374
▁5	-10.1378
▁دمک	-10.1379
▁تگ	-10.1383
▁۔ائی	-10.1387
▁روش	-10.1389
▁زوال	-10.139
▁زار	-10.1405
▁اسپیتیں	-10.1412
▁پترت	-10.1415
▁چھ	-10.1417
▁اؤکیں	-10.1423
▁جگر	-10.1426
▁پش	-10.1426
▁پیچ	-10.1442
▁قرار	-10.1447
▁وائرس	-10.1449
▁چوک	-10.1454
ي	-10.1454
▁گلہ	-10.1455
▁میدان	-10.1462
▁بلوچء	-10.1466
▁بلوچے	-10.1466
▁سو	-10.1466
▁رحم	-10.1476
▁دلبڈی	-10.1478
▁تئ	-10.1486
...?	-10.1486
ھی	-10.1489
▁بازینے	-10.149
▁ڈیہہ	-10.149
▁موکل	-10.1491
▁On	-10.1495
▁بئیں	-10.1498
▁قاسم	-10.1499
▁بجٹ	-10.1501
▁المیں	-10.1513
▁بہار	-10.1514
کنت	-10.1517
▁تعلیم	-10.1517
▁سمجھ	-10.1521
▁صفت	-10.1525
▁کردے	-10.1532
▁than	-10.1533
▁گی	-10.1536
▁پلانی	-10.1541
▁مرت	-10.1543
▁سیاد	-10.1546
▁اومان	-10.1551
▁گڑ	-10.1551
▁راشد	-10.1552
▁4	-10.1553
گا	-10.1558
ح	-10.158
▁سار	-10.1582
▁قبر	-10.1593
▁زرء	-10.1593
▁سسٹم	-10.1594
▁پیرک	-10.1597
▁انگہ	-10.16
▁فون	-10.16
us	-10.1602
▁بنجاہ	-10.1603
▁دوستین	-10.1604
▁شاعریء	-10.1617
▁زرباری	-10.162
▁شاعرانی	-10.1621
▁رک	-10.1622
▁ھیران	-10.1626
▁زیمر	-10.1627
▁فرق	-10.163
▁ڈس	-10.163
▁ھار	-10.1631
▁باسکاں	-10.1634
▁')	-10.1638
گوشتگ	-10.1641
▁دودمان	-10.1642
▁چر	-10.1643
▁السی	-10.1648
▁کارمرزی	-10.1649
▁سوبمند	-10.1651
▁اندیم	-10.1652
▁نظم	-10.1656
▁ھردو	-10.1656
▁M	-10.1657
▁صاف	-10.1663
▁مز	-10.1674
▁راجمان	-10.1675
▁جاتا	-10.1676
▁تم	-10.1683
▁انا	-10.1683
▁لج	-10.1684
▁ردیں	-10.169
▁حاکم	-10.1693
▁بئیگ	-10.1695
گل	-10.1697
▁دولت	-10.1705
▁گالاں	-10.1709
دگہ	-10.1723
▁ابرم	-10.1724
▁گردن	-10.1735
ترا	-10.1736
▁وانندہ	-10.1739
▁through	-10.1741
▁غنی	-10.1747
ہر	-10.1752
▁کشیں	-10.1753
▁ترکی	-10.1771
▁منظور	-10.1786
▁نبشتگیں	-10.1786
▁روسی	-10.1788
▁قانون	-10.1795
▁گوھار	-10.1802
▁وڈیں	-10.1804
▁دلیل	-10.1809
▁حانی	-10.1815
▁متاثر	-10.1817
▁ھندوستان	-10.1828
▁ام	-10.1833
▁جاگہے	-10.1834
▁تپاس	-10.1838
ھے	-10.1844
▁لبزاں	-10.1852
▁later	-10.1858
▁جنئگ	-10.1864
▁لوگاں	-10.1869
▁بری	-10.187
▁جنوک	-10.1875
▁دیا	-10.1882
▁بزگی	-10.1883
ام	-10.1886
▁لائن	-10.1888
▁عملی	-10.1904
▁رجینگ	-10.1906
▁ساد	-10.1908
▁[	-10.1911
▁چمشانک	-10.1915
▁سینگ	-10.1918
▁نظریہ	-10.1921
میر	-10.1927
▁چندے	-10.1928
▁رن	-10.1934
شپ	-10.1937
▁پہنات	-10.1937
able	-10.1942
▁زھیر	-10.1947
▁تاکہ	-10.1965
▁ہندوستان	-10.197
▁while	-10.1973
▁جوش	-10.1978
▁سرکارء	-10.1982
▁یعنی	-10.1992
▁لازم	-10.2006
▁شیئر	-10.2008
▁کمبر	-10.2012
ایشی	-10.2014
▁زالبولے	-10.2015
▁مے	-10.2018
▁مین	-10.2024
▁لوگے	-10.2029
▁درداں	-10.2042
▁کیمپ	-10.2051
▁تاکبند	-10.2052
▁دینی	-10.2054
▁کپت۔	-10.2056
▁پرمان	-10.2065
▁بگندئے	-10.2068
▁ارزان	-10.2069
▁باریگ	-10.2073
▁زہیر	-10.2074
▁زیات	-10.2076
▁چتور	-10.2077
▁ارواح	-10.2081
▁پرپٹ	-10.2084
▁نیکیں	-10.2098
▁some	-10.2102
▁پرواہ	-10.2104
▁ماتء	-10.2105
▁وزن	-10.2105
▁سوگند	-10.2108
▁مرگء	-10.2114
▁ہندی	-10.212
?”	-10.2122
▁ائید	-10.2123
▁ربیدگی	-10.2124
▁پرشت	-10.2124
ڑ	-10.2127
▁اچہ	-10.2134
▁لعل	-10.2137
▁راجمانی	-10.214
▁استال	-10.2147
▁گواچن	-10.2152
ایاں	-10.2156
made	-10.2176
ٹی	-10.218
an	-10.2184
▁پدریچ	-10.2189
▁درامد	-10.2191
▁توارے	-10.2191
▁ٹاہ	-10.2199
▁حاصیں	-10.2209
▁سرے	-10.221
▁زیبائیں	-10.2212
▁بز	-10.2213
▁گراب	-10.2214
▁کلاں	-10.2221
▁پور	-10.2224
▁نندوکیں	-10.2225
گء	-10.2226
▁گلگ	-10.2229
▁رجانکار	-10.2242
▁اگدہ	-10.2246
▁ساچ	-10.225
▁پندل	-10.2253
میں	-10.2256
▁ھمنچو	-10.2265
▁بوتین	-10.2272
▁خاران	-10.2273
رد	-10.2274
▁زات	-10.2277
▁مروچیگیں	-10.2277
▁رندی	-10.228
▁پاگ	-10.228
▁ائیا	-10.2281
▁ف	-10.2284
▁دلوت	-10.2287
▁گوشدارگ	-10.229
▁گلامی	-10.2296
▁گوشنت	-10.2298
جاہ	-10.2303
▁گہگیری	-10.2307
▁پروگرام	-10.2315
▁زرمبش	-10.2315
گر	-10.2327
▁۔من	-10.2328
”.	-10.2332
▁شت۔	-10.2332
▁ظفر	-10.2335
▁دگرے	-10.2336
▁سبی	-10.2338
▁لوٹگ	-10.2344
▁حرکت	-10.2345
▁کولواہ	-10.2346
▁دژمنیں	-10.2347
▁خاندان	-10.2348
▁پناہ	-10.2349
▁ایوکا	-10.2349
▁نوزدہ	-10.2354
▁خانہ	-10.2371
▁تچگ	-10.2374
▁چمے	-10.2377
▁جماعت	-10.2382
▁گہرام	-10.2382
ity	-10.2397
▁طرف	-10.2397
▁صرف	-10.2402
▁اتک۔	-10.2409
▁ھان	-10.2411
▁مئیل	-10.2418
▁کمپیوٹر	-10.2426
▁ورنائی	-10.2427
▁گوزان	-10.2432
▁پنت	-10.2435
▁چنگ	-10.2436
▁میڈیکل	-10.2438
▁بوئیگ	-10.244
▁گلے	-10.2443
▁چاریت	-10.2447
▁ھنچوش	-10.2449
▁بنزہ	-10.2453
▁re	-10.2454
▁چا	-10.2455
▁ھستی	-10.2457
▁زانشت	-10.246
تاکدیم۔	-10.2461
▁ھنچو	-10.2462
▁ستر	-10.2465
مراد	-10.2467
▁نواز	-10.2468
ائے	-10.2478
▁ہمرائی	-10.2482
▁دستا	-10.2483
▁قبول	-10.2494
شت	-10.2495
▁پاٹی	-10.2496
▁ڈیٹا	-10.2498
سک	-10.2499
▁کانفرنس	-10.2507
▁عابد	-10.2507
▁ری	-10.2512
▁گلیں	-10.2515
▁ات۔۔۔	-10.2517
▁دریگ	-10.2522
▁شاعراں	-10.2523
▁اسان	-10.2526
▁دیگء	-10.2528
▁سیم	-10.2529
▁یونین	-10.2538
نبشتانک	-10.2539
▁بندر	-10.2541
▁درچکانی	-10.2541
▁کہنیں	-10.2543
ever	-10.255
▁ضلع	-10.2551
▁تہاریں	-10.2551
▁رہ	-10.2553
▁تہی	-10.2563
▁شرگدار	-10.2571
▁مالک	-10.258
▁اختر	-10.2584
وا	-10.2601
▁اسحاق	-10.2605
▁امریکا	-10.2608
▁کنغ	-10.261
▁لے	-10.2612
▁روح	-10.2615
▁ساہگ	-10.262
▁گوانک	-10.2624
▁امروز	-10.2625
▁دریں	-10.2627
▁گونڈو	-10.2628
ic	-10.2632
▁اشنا	-10.2636
▁حقانی	-10.2637
▁زبہر	-10.2644
▁زانتکاری	-10.2647
دست	-10.2653
▁قلم	-10.2654
▁پائدگ	-10.2656
▁درشانداب	-10.2662
▁مردمی	-10.2663
▁پریات	-10.2664
▁ڈیتھ	-10.2667
▁اتار	-10.2672
نام	-10.2684
کس	-10.2687
▁اشک	-10.2688
▁ریڈیو	-10.2688
▁دیمترا	-10.2689
▁جیل	-10.2692
مان	-10.2693
▁کایاں	-10.2694
▁بجلی	-10.27
▁دانگ	-10.2707
▁جمبر	-10.2708
▁زمینء	-10.271
▁رم	-10.2713
▁واکداراں	-10.2713
▁e	-10.2714
▁کمتر	-10.2714
▁پرشتگ	-10.2716
▁دانک	-10.2717
▁جاری	-10.2719
▁کوچگ	-10.272
▁تہہ	-10.2721
▁درملکی	-10.2729
▁نت	-10.273
▁قدیم	-10.2733
▁دپی	-10.2733
▁بائد	-10.2735
▁ادیم	-10.2746
▁شھدربرجاہ	-10.2753
▁وران	-10.2753
▁جہاں	-10.2754
▁کاروباری	-10.2757
▁سود	-10.276
▁سرین	-10.2762
▁ادارگ	-10.2767
▁شپاں	-10.2771
▁de	-10.2774
▁ھستیں	-10.2781
▁صلی	-10.2784
▁ازادی	-10.2784
▁ارشے	-10.2788
بن	-10.2788
▁مدتے	-10.2794
▁کارمندانی	-10.2797
▁چوپ	-10.2798
▁بزگیں	-10.2798
▁میتگء	-10.2802
▁ہوئی	-10.2804
▁سنی	-10.2807
▁یوکرین	-10.281
▁گرمیں	-10.2813
▁ترین	-10.2821
▁لوٹانی	-10.2821
▁تجربت	-10.283
▁new	-10.2842
▁جد	-10.2856
▁محمود	-10.2862
▁شروع	-10.2867
▁راجدپتری	-10.2871
▁شازادگ	-10.2875
دہ	-10.2875
▁وتکشی	-10.2881
▁ھنر	-10.2882
▁where	-10.2885
▁میاں	-10.2885
▁غوث	-10.2887
رو	-10.2888
▁اندری	-10.2905
▁مکسد	-10.2905
such	-10.2909
▁برمش	-10.2913
▁تری	-10.2914
▁جنینے	-10.2914
▁نمیرانیں	-10.2916
▁حداء	-10.2924
▁درگیجگ	-10.2925
▁اہم	-10.2926
اور	-10.2927
▁استار	-10.2931
۔بلے	-10.2935
▁زھری	-10.2945
▁نیل	-10.2952
▁ہمودا	-10.2966
▁ھپتاد	-10.2966
▁بینگ	-10.2969
▁دیراں	-10.2981
▁them	-10.2983
▁اپء	-10.2994
جان	-10.2995
▁گھار	-10.3001
▁وجہ	-10.3002
▁کوھانی	-10.3004
▁مساپر	-10.3014
▁نویسی	-10.302
ٰ	-10.302
▁انوگیں	-10.3023
بند	-10.3024
▁بژن	-10.3033
▁مولوی	-10.3039
▁سرھال	-10.3045
▁number	-10.3053
▁دمب	-10.3053
▁ذکر	-10.3058
▁چیرء	-10.3059
▁ھاران	-10.3059
▁چرائی	-10.3063
▁مہرء	-10.3065
▁دوری	-10.3077
▁پلاں	-10.3091
▁بدنت	-10.3091
............	-10.3095
ھاں	-10.3098
▁ناچ	-10.3125
ڈاکٹر	-10.3127
▁گیگ	-10.3134
▁خالد	-10.3138
▁ماه	-10.3141
▁بازین	-10.3146
▁بالا	-10.3158
▁ڈرائیور	-10.3159
▁follow	-10.3162
","	-10.3163
▁دستگیر	-10.3172
▁کشان	-10.3173
▁مرتگیں	-10.3185
▁زندگانی	-10.3189
▁فقیر	-10.3194
▁ہمدا	-10.3204
▁چیرا	-10.3207
▁اشوبی	-10.3211
▁سن	-10.3214
▁درسد	-10.3217
▁نیاما	-10.3217
▁سرحال	-10.3219
▁بندوکیں	-10.3226
▁This	-10.3227
کل	-10.3236
▁ہچبر	-10.3237
▁جہدء	-10.324
تریں	-10.3244
▁وابانی	-10.3247
▁ھسپتال	-10.3253
کیں	-10.3263
▁سوسائٹی	-10.3266
▁سیاھگ	-10.3269
en	-10.3272
▁برپ	-10.328
▁ہان	-10.3282
کر	-10.3282
▁ژا	-10.3285
▁درکپت	-10.3286
بل	-10.329
▁ھمیشی	-10.3291
▁وپت	-10.3292
▁پہر	-10.3298
▁پازل	-10.33
▁رندگیری	-10.3303
▁مواد	-10.3307
▁موتک	-10.3315
▁پنچمی	-10.3319
▁زیت	-10.3322
▁قوت	-10.3329
▁film	-10.3338
▁ھکم	-10.3339
▁کلگ	-10.3354
▁بنیادی	-10.3356
▁ازار	-10.3357
▁سرزمین	-10.336
▁گژن	-10.3371
▁جنکانی	-10.3376
▁000	-10.3389
▁نسیم	-10.3391
▁being	-10.3392
▁ھشکیں	-10.3397
▁سیٹ	-10.3401
ھا	-10.3403
▁چینچو	-10.3403
▁بنیات	-10.3419
▁واکدارانی	-10.3424
▁چول	-10.3427
▁ابا	-10.3429
▁نوکی	-10.3437
▁تاکدیم۔	-10.3439
▁وام	-10.3443
▁توان	-10.3443
▁سھر	-10.3445
▁part	-10.3449
▁پتء	-10.3454
▁یعنے	-10.3455
▁record	-10.3458
▁گونڈ	-10.3458
▁song	-10.3467
▁لیاری	-10.3468
▁دا	-10.3477
▁New	-10.3479
▁چکچینی	-10.348
▁رہے	-10.3493
▁before	-10.3499
وی	-10.3501
▁کاہ	-10.3506
▁ترجمہ	-10.3521
▁بزور	-10.3534
▁وہداں	-10.3537
▁تپاوت	-10.3541
▁کورء	-10.3544
▁وانوکاں	-10.3551
▁کپیت۔	-10.3556
▁ابن	-10.3557
▁ننگ	-10.3561
▁ھوٹل	-10.3561
▁گالانی	-10.3564
▁باوست	-10.3564
▁شعور	-10.3566
▁الدین	-10.3577
▁مروچاں	-10.3577
▁پوش	-10.3579
▁ھبرے	-10.3582
▁مارشتانی	-10.3585
▁تپنگ	-10.3597
S	-10.3599
▁ازمانکے	-10.3605
▁under	-10.3609
▁راھبند	-10.361
▁ملکے	-10.3619
▁حمید	-10.3624
▁نال	-10.3633
gan	-10.3635
land	-10.3635
▁دائمی	-10.3639
▁عباس	-10.3641
▁استعمال	-10.3646
گے	-10.3649
▁بزدار	-10.3651
▁مجبور	-10.3654
▁ہوتی	-10.3655
▁پار	-10.367
▁لمب	-10.3675
سید	-10.3676
▁ڈکال	-10.3678
▁روچگ	-10.3684
▁مود	-10.3685
▁اہگ	-10.3688
▁کسء	-10.3688
▁بلوچیء	-10.3694
▁جاگہہ	-10.37
▁اھد	-10.3702
▁سیکورٹی	-10.3702
▁درکانودی	-10.3702
▁second	-10.3706
▁دن	-10.3707
▁یونانی	-10.3709
وش	-10.3727
▁هال	-10.373
نگیں	-10.373
▁پدی	-10.3735
▁شاعرء	-10.3738
▁ھ	-10.3739
▁اخلاقی	-10.3743
▁معاملہ	-10.3746
▁al	-10.3751
گپ	-10.3752
▁ایشان	-10.3762
▁بیگء	-10.3763
▁D	-10.3772
▁دنیگا	-10.3783
▁پرشتگیں	-10.3789
▁نبیت	-10.3792
▁نزوریں	-10.3794
▁فیض	-10.3798
▁گوازینتگ	-10.3802
▁جنزان	-10.3807
▁رہا	-10.3808
▁دراں	-10.3812
ات۔	-10.3815
▁جستے	-10.3823
▁سراوان	-10.3824
ملا	-10.3826
▁زد	-10.3827
▁چاچ	-10.3832
▁جنجالانی	-10.3835
▁اختیار	-10.3836
▁خلاف	-10.3844
▁بھرے	-10.3847
▁N	-10.3852
▁تنقید	-10.3859
▁work	-10.3859
رے	-10.386
▁گپتگیں	-10.3871
▁جہانی	-10.3875
یر	-10.3878
ینگ	-10.3881
▁وئیلاں	-10.3882
▁چپی	-10.3886
▁واہند	-10.3886
▁end	-10.3888
▁گنوکی	-10.389
▁پشک	-10.3895
▁اقبال	-10.3896
▁تاھیر	-10.3898
▁دلے	-10.39
▁اشکتگ	-10.3914
▁افسر	-10.3918
▁وہدی	-10.3924
▁کرتا	-10.3938
▁هبر	-10.3941
▁حکیم	-10.3944
ers	-10.3949
▁دیوانء	-10.3951
▁تبک	-10.3964
▁can	-10.3964
▁انکار	-10.3968
▁نیاں	-10.3978
▁موت	-10.3979
▁call	-10.398
▁ادمی	-10.3984
▁جرم	-10.3985
بوت	-10.3992
▁وابے	-10.3994
▁لندن	-10.3995
▁پما	-10.3998
بیا	-10.4
▁گۆں	-10.401
▁الاج	-10.4011
▁سعودی	-10.4013
▁نگاہ	-10.4019
▁مہرانی	-10.4023
▁شئر	-10.4023
▁نوکین	-10.4026
▁ایگء	-10.4028
▁سیاہیں	-10.4033
▁صدی	-10.4041
▁گشان	-10.4045
▁وشبو	-10.4047
۔من	-10.4053
بلئے	-10.4054
▁R	-10.4073
ہی	-10.4078
▁گپت۔	-10.4081
▁عدالت	-10.4083
▁بابا	-10.4084
مردم	-10.4084
▁چونائی	-10.4085
اری	-10.4085
▁حیات	-10.4086
▁قادر	-10.4086
▁سرشون	-10.4087
▁کریمہ	-10.4091
▁دیدگاں	-10.4094
▁اہمد	-10.4094
▁کلاس	-10.4098
▁دگرانی	-10.41
▁ہمگرنچ	-10.4103
▁رسیت۔	-10.4104
▁پولی	-10.4113
▁لنٹ	-10.4113
um	-10.4113
▁چوٹ	-10.4115
▁انسانے	-10.4115
▁گزر	-10.4116
▁ڈل	-10.4118
▁گھر	-10.4119
▁رمضان	-10.4122
▁مسافر	-10.4123
▁سواریں	-10.4133
est	-10.4139
▁عیب	-10.414
▁کتابء	-10.4142
▁صوبائی	-10.4144
▁وثی	-10.4146
▁روگی	-10.4152
▁جانسلامتی	-10.4157
▁شھری	-10.4165
▁مارشتاں	-10.4167
▁ڈالر	-10.4168
▁جنت۔	-10.4171
▁تمن	-10.4185
▁گماں	-10.4186
▁اسماعیل	-10.4199
▁نیمون	-10.4199
▁منافع	-10.4209
ند	-10.4219
بس	-10.4225
▁وسی	-10.4233
▁no	-10.4235
▁توسیپ	-10.4238
▁دگانی	-10.4239
▁نهانت	-10.4239
▁large	-10.4248
▁high	-10.4249
▁وتگڑیں	-10.4249
▁برانز	-10.425
ھانی	-10.4252
▁نثار	-10.4255
▁زوراک	-10.4257
▁ٹال	-10.4263
داد	-10.4267
▁حالت	-10.4268
▁سببء	-10.4282
▁زھگانی	-10.4287
▁احساس	-10.4289
▁روژنائی	-10.4297
▁area	-10.4299
▁بوتگنت	-10.4299
▁there	-10.4299
▁زنگ	-10.4307
▁زمستان	-10.4309
▁حبرے	-10.431
▁دوچار	-10.4311
▁album	-10.4312
▁ترمپ	-10.4319
▁شاھی	-10.4321
▁پن	-10.4323
▁شوربندی	-10.4323
شر	-10.4331
▁تچ	-10.4335
▁زاہر	-10.4342
▁درانگازی	-10.4342
▁series	-10.4343
▁سریں	-10.4343
چار	-10.4344
▁تعلق	-10.4346
▁توپک	-10.4349
▁کپوت	-10.435
خان	-10.4356
▁رودراتکی	-10.4357
▁کارمندے	-10.4361
▁خالق	-10.4364
▁عید	-10.4364
▁پک	-10.4365
▁ھزاراں	-10.4367
بلکیں	-10.4376
▁سلیمان	-10.4378
▁مارکیٹ	-10.4379
▁کلاک	-10.4382
▁جستانی	-10.4385
▁قبائلی	-10.4391
▁6	-10.4392
▁دراتکگ	-10.4401
▁حمزہ	-10.4404
▁ابرمی	-10.4408
▁اشارہ	-10.4408
▁دنز	-10.442
▁میزان	-10.4431
▁جتگیں	-10.4433
▁ریک	-10.4439
▁ہلک	-10.4439
▁کوشش	-10.444
▁لاہور	-10.4443
▁نودربرے	-10.4444
▁نیٹ	-10.4445
.....	-10.4457
▁اسٹوڈنٹس	-10.4458
گاں	-10.4459
▁خانء	-10.4461
▁درکار	-10.4463
▁ڈکھ	-10.4475
بازیں	-10.4476
▁مور	-10.4478
▁بیل	-10.4479
▁کرتنت	-10.4483
▁درانگاز	-10.4484
▁زیمل	-10.45
▁خون	-10.4501
out	-10.4505
▁جت۔	-10.4506
▁کستریں	-10.4507
روچ	-10.4514
▁زورگر	-10.4514
▁گئی	-10.4514
..?	-10.4515
▁گندیں	-10.4515
▁راکٹ	-10.4522
▁جیہند	-10.4526
▁ھمودا	-10.4538
▁ملامت	-10.4538
▁کتیں	-10.4543
زبان	-10.4545
▁ہمراہی	-10.4545
▁ایوکی	-10.4545
▁تصور	-10.4547
▁اتکگ۔	-10.4552
▁راگ	-10.4552
▁چات	-10.4553
▁درجہ	-10.4557
▁چاگردے	-10.4564
▁عیسیٰ	-10.4569
▁عظیم	-10.4569
▁قبضہ	-10.4575
▁ھپتگ	-10.4578
▁سرد	-10.4578
▁both	-10.4579
▁پشتی	-10.4581
▁نیا	-10.4581
▁چمان	-10.4583
▁ممتاز	-10.4584
▁سہی	-10.4584
▁تور	-10.4587
▁جاوید	-10.4598
▁بازارء	-10.4598
جو	-10.4605
▁ابد	-10.461
▁روکیں	-10.4617
▁جائے	-10.4619
▁دلی	-10.462
▁حیالانی	-10.4621
▁کھولانی	-10.4623
▁ڈنء	-10.4625
▁سوبمندی	-10.463
▁اعظم	-10.4631
▁والے	-10.4637
▁فرانس	-10.4637
▁برداشت	-10.4641
▁پیری	-10.4643
ہما	-10.4644
▁کنے	-10.4645
▁کوھی	-10.4649
▁پلاٹ	-10.4649
▁دوچ	-10.465
▁کشء	-10.4651
▁عطاشاد	-10.4656
▁ند	-10.4658
▁نک	-10.4662
▁includ	-10.4663
▁مزاحمت	-10.4668
وس	-10.4671
▁راجدوست	-10.4672
▁لفظ	-10.4673
اولی	-10.468
▁کساسے	-10.4693
▁شانک	-10.4697
▁اوگان	-10.4701
▁ہار	-10.4703
ازمانک	-10.4704
▁نوکری	-10.4717
کاری	-10.4718
▁پڑء	-10.4724
▁گریب	-10.4727
▁مشہور	-10.4729
▁سہرا	-10.4732
▁بندیت	-10.4733
▁گلاب	-10.4736
▁گوراں	-10.4736
▁کوھن	-10.4739
▁گلزار	-10.474
▁پولکاری	-10.4742
▁شار	-10.475
کم	-10.475
▁استحکام	-10.475
?......	-10.4753
▁صابر	-10.4759
▁درچکے	-10.4763
▁اناگہ	-10.4766
▁ازمکار	-10.4767
▁دیریں	-10.477
▁ہنچیں	-10.477
▁سارتی	-10.4781
▁گھگیری	-10.4782
▁show	-10.4783
▁بیرک	-10.4789
▁ضروری	-10.4793
▁بازی	-10.4798
▁ساحرء	-10.4801
▁form	-10.4806
▁ناکہ	-10.4815
▁ناہ	-10.4816
came	-10.4819
▁فارم	-10.483
وار	-10.483
▁چیزء	-10.4831
▁برزء	-10.4835
▁زمان	-10.4835
▁ھنداں	-10.4836
▁زین	-10.4836
▁حراب	-10.4839
▁سمندر	-10.4846
▁اولس	-10.4848
▁فدا	-10.4851
▁like	-10.4855
▁زالبولاں	-10.4856
▁اوان	-10.4857
▁سمو	-10.4857
▁As	-10.4858
▁then	-10.4858
man	-10.4865
▁ووٹ	-10.4869
’’(	-10.4869
▁مس	-10.487
▁تهنا	-10.487
!!	-10.4872
▁اینڈ	-10.4873
▁بندانی	-10.4874
▁بدے	-10.4876
▁ھوں	-10.4881
▁پریں	-10.4888
انا	-10.4888
▁پچیں	-10.4892
▁بزانکہ	-10.4894
▁نازک	-10.49
▁well	-10.49
پیش	-10.4902
▁بہادر	-10.4902
▁کوہء	-10.4904
▁مکہ	-10.4911
▁بریں	-10.4913
▁کست	-10.4919
▁ھاکم	-10.4924
▁پروم	-10.4937
▁جیڑھانی	-10.494
▁Brit	-10.4955
▁پشی	-10.4956
▁موومنٹ	-10.4956
▁known	-10.4956
▁اماچیں	-10.4958
▁گواری	-10.4964
▁episode	-10.4964
▁چیردستی	-10.4967
▁باسکانی	-10.4969
▁دمگانی	-10.4969
سے	-10.4971
▁گۆن	-10.4972
▁حوالہ	-10.4977
▁قرض	-10.498
▁پون	-10.4981
▁۔بلے	-10.4982
▁رزا	-10.4988
▁واھگانی	-10.4989
▁بارے	-10.4996
▁داران	-10.4997
▁گاریں	-10.4999
گو	-10.5002
▁ملور	-10.5003
▁تار	-10.5003
▁بحث	-10.5004
▁پال	-10.5007
▁کپتگ۔	-10.5016
▁گچینکاری	-10.5018
▁گشتانک	-10.5018
کگ	-10.5018
▁راجدپترء	-10.502
▁ہیال	-10.5021
▁زورگیریں	-10.5022
▁تان	-10.5023
▁قسم	-10.5024
▁لیٹ	-10.5025
▁شہرء	-10.5032
▁شہری	-10.5035
▁زری	-10.5037
▁بنگلہ	-10.504
▁انقلاب	-10.5047
▁ابراھیم	-10.5048
▁نیمگاں	-10.5052
▁تیاری	-10.5052
▁جهد	-10.5059
▁سوئی	-10.506
▁پگرء	-10.5063
▁کشکے	-10.5068
▁مسئلہ	-10.507
▁جسم	-10.5072
▁10	-10.5075
▁اپی	-10.5079
▁صبر	-10.508
▁بدلیاں	-10.5088
▁یکوارے	-10.5092
▁بادینی	-10.5101
▁جزبگ	-10.5103
▁پھ	-10.5104
▁توارء	-10.5108
▁سمین	-10.5109
ول	-10.5115
داری	-10.5117
▁مھکمیں	-10.5118
▁گیج	-10.5126
▁اھمد	-10.5132
▁چندیں	-10.5136
▁میتگے	-10.5137
▁زبیر	-10.5138
؂	-10.514
▁والی	-10.5145
▁مت	-10.5146
▁نبشتانکے	-10.5149
▁رژنائی	-10.515
▁پلو	-10.5163
▁اواں	-10.5163
▁دربرگ	-10.5165
▁جاک	-10.5166
▁بیبگر	-10.5168
▁تھے۔	-10.5172
ریں	-10.5177
▁لو	-10.5182
▁سیمسراں	-10.5186
▁موٹر	-10.5189
▁پشتون	-10.5191
▁گوہر	-10.5191
▁زندگیء	-10.52
▁ع	-10.5204
▁شات	-10.5209
▁t	-10.5221
▁رپک	-10.5223
▁پیشانی	-10.5225
▁لب	-10.5227
▁ارادہ	-10.5244
▁کرء	-10.5245
▁دردء	-10.5247
▁سوگات	-10.5249
▁سلطان	-10.526
▁دستانی	-10.527
▁بگند	-10.5272
▁ناگمان	-10.528
▁گورنر	-10.5283
▁گوازینت	-10.5292
▁many	-10.5292
▁مقام	-10.5298
یں۔	-10.5299
▁امل	-10.5302
▁ندارہ	-10.5303
▁شائریء	-10.5304
▁عبدالحمید	-10.5306
▁کوپگاں	-10.5309
▁لگتمالی	-10.533
▁زانش	-10.5332
▁ٹاور	-10.5332
▁پلیں	-10.5336
▁رجانکاری	-10.5338
دے	-10.5345
▁رئیس	-10.5351
▁میرے	-10.5351
though	-10.5353
▁جمعہ	-10.5357
▁۔۔۔۔۔	-10.5359
▁اشت	-10.5359
▁انداز	-10.5361
ڑی	-10.5362
▁تپاکی	-10.5365
▁اشتاپ	-10.5372
▁کرم	-10.5372
▁حملہ	-10.5376
▁found	-10.5377
▁پہل	-10.5382
▁ہمائی	-10.5383
▁چاڑ	-10.5385
▁فاروق	-10.5389
▁اج	-10.5392
▁گوزیت	-10.54
▁ارساں	-10.5408
۔۔۔۔۔۔۔۔۔۔۔۔۔۔۔۔	-10.5412
▁پھک	-10.5412
nited	-10.5416
▁الیکشن	-10.5417
▁اشکت	-10.5418
▁شل	-10.5419
▁جہت	-10.5421
▁مانیت	-10.5428
▁رشید	-10.5438
▁مختلف	-10.5441
▁اپس	-10.5443
▁گلء	-10.5445
▁یورپی	-10.5446
▁بانور	-10.5446
▁جدید	-10.5448
▁ایکس	-10.5459
▁دیدار	-10.546
▁ٹپاس	-10.546
▁ھد	-10.5462
▁پانی	-10.5463
▁مشین	-10.5465
▁طاہرہ	-10.5465
▁long	-10.5467
▁بیتہ	-10.5469
▁دردے	-10.5471
ایر	-10.5472
▁سراں	-10.5474
▁ازمانکار	-10.5502
▁نزر	-10.5507
▁ٹارگٹ	-10.5508
▁دروشمء	-10.5511
▁ایمن	-10.5517
▁خلیل	-10.5532
▁سهیگ	-10.5534
▁مانداشتگ	-10.5534
▁ناشرکاری	-10.5534
▁so	-10.5538
▁عارف	-10.5538
▁پکا	-10.5543
▁محنت	-10.5545
مارا	-10.5545
▁جیگ	-10.5547
▁زمانگے	-10.5548
▁ماھل	-10.5548
▁مجگ	-10.5554
▁شورو	-10.5554
▁تژن	-10.5555
▁تپ	-10.5561
▁۔ا	-10.5563
▁قیمتانی	-10.5569
▁وال	-10.5576
▁ہاں	-10.5579
▁گئے	-10.558
▁اخراجات	-10.5584
▁جیڑہانی	-10.5586
▁بزنجو	-10.5586
▁بلو	-10.5588
▁اندازہ	-10.559
▁کمار	-10.5591
▁درونت	-10.5593
▁سورت	-10.5597
ھیں	-10.5598
▁مهر	-10.5598
▁ماھیگ	-10.56
▁گشاد	-10.5602
▁بوہ	-10.5606
▁سطح	-10.5607
▁سیستان	-10.5611
▁گواچنی	-10.5621
▁تھ	-10.5621
▁فتح	-10.5624
▁لی	-10.5624
▁بیھار	-10.5626
▁یکین	-10.5627
▁تہذیب	-10.5627
▁P	-10.5631
▁سروزیر	-10.5635
▁لالا	-10.5637
▁منتگ	-10.5638
▁داتہ	-10.5643
ڪ	-10.5646
▁بلاش	-10.5646
▁پتو	-10.5649
▁فلسفی	-10.5649
▁درمیان	-10.5658
▁ٹیلی	-10.5671
▁پرچیکہ	-10.5674
▁ٹنگ	-10.5678
▁لوگی	-10.5683
u	-10.5698
▁دنتان	-10.57
▁E	-10.5708
▁چکء	-10.571
▁century	-10.5713
▁شاکر	-10.5718
▁غریب	-10.5718
▁گریت	-10.5723
▁کواس	-10.5726
▁ہونے	-10.5727
▁شم	-10.5739
▁پرستی	-10.574
▁ویران	-10.5741
▁رستگیں	-10.5741
▁جمیل	-10.5742
▁گلی	-10.5742
▁زراں	-10.5743
▁بیدار	-10.5744
▁اسد	-10.576
▁یہاں	-10.577
▁فن	-10.5771
▁پکرء	-10.5772
▁use	-10.5773
▁کروڑ	-10.5774
▁کترینا	-10.5774
▁نکنت	-10.5779
▁دگراں	-10.5782
چک	-10.5786
▁گوادرء	-10.5791
ارا	-10.5792
▁پابندی	-10.5797
▁نوکتریں	-10.5805
▁8	-10.581
▁four	-10.5816
................	-10.5826
▁گنجیں	-10.5829
▁میران	-10.5833
▁درامدیں	-10.5835
▁حیالء	-10.5835
▁پروشتگ	-10.5842
▁قائم	-10.5844
▁مطابق	-10.5844
اں۔	-10.5845
▁7	-10.5848
▁زبانی	-10.5852
▁چڑھاؤ	-10.5852
▁دلانی	-10.5853
▁مندی	-10.5854
▁مجھے	-10.5858
▁پہلے	-10.5858
▁کڈن	-10.5859
▁پڑا	-10.5862
▁گز	-10.5864
▁مه	-10.5865
▁After	-10.5869
▁تھت	-10.5871
▁کائے	-10.5875
رجانک	-10.5877
▁گراہک	-10.5878
▁سنج	-10.5881
▁بباں	-10.5883
▁کمکیں	-10.5883
▁پروشت	-10.5893
▁گمانی	-10.5894
▁کمکار	-10.5897
ڈی	-10.59
▁کشمیر	-10.59
▁تین	-10.591
▁توپان	-10.5912
اہاں	-10.5913
▁عادت	-10.5913
▁دوئمی	-10.5913
جنگ	-10.5915
▁طالبان	-10.5917
▁دوار	-10.5923
▁سودا	-10.5926
▁ھیالانی	-10.5926
▁دلگوشی	-10.593
▁شانزدہ	-10.5931
▁یے۔	-10.594
▁0	-10.5942
▁ماث	-10.5943
▁ہیل	-10.5947
▁زبھر	-10.5948
▁sever	-10.5948
▁فکری	-10.5949
▁American	-10.595
▁گرمی	-10.5951
▁کسےء	-10.5954
▁مادن	-10.5954
شہ	-10.5957
▁ماھے	-10.5963
▁دلبند	-10.5968
▁ایکشن	-10.5972
▁دلا	-10.5989
▁دئینت	-10.599
▁پسندی	-10.5991
▁وپتگ	-10.5993
▁جنگے	-10.5994
▁مندیں	-10.5994
▁واہ	-10.5997
▁وخت	-10.6003
▁ول	-10.6007
▁اہ	-10.6007
ایت	-10.6009
▁گشی	-10.6011
▁جمال	-10.6013
▁ازاتیں	-10.6014
▁عبادت	-10.6014
▁حاک	-10.6019
▁بوھگء	-10.6023
اللہ	-10.6023
▁سڑک	-10.603
▁چمگ	-10.603
▁تخلیق	-10.6035
▁ھمد	-10.6036
▁بجار	-10.6039
▁تلار	-10.6039
▁لسبیلہ	-10.604
▁دعوت	-10.6041
▁پلامرزی	-10.6043
▁کن۔	-10.6044
▁وارث	-10.6044
ہاں	-10.6047
▁گرک	-10.6048
▁ابو	-10.6057
▁کاینت۔	-10.6064
▁فلسفہء	-10.6066
▁اصف	-10.6068
بو	-10.607
▁درخواست	-10.6074
کاں	-10.6082
▁چیف	-10.6082
▁باد	-10.6085
▁ہندو	-10.6085
▁بیلٹ	-10.6088
▁الما	-10.6095
▁ادیب	-10.6102
▁ڈولدار	-10.6104
▁کرسی	-10.611
▁حیر	-10.6111
▁مسال	-10.6116
▁9	-10.6116
▁حاتم	-10.6119
▁نبشته	-10.6119
▁دیوک	-10.6123
▁ریکارڈ	-10.6124
▁اڑے	-10.6125
▁راستیء	-10.6126
▁کارستانی	-10.613
▁برا	-10.6135
▁دیوانجاه	-10.6137
▁براتاں	-10.6137
▁زھگے	-10.614
▁گروک	-10.6142
زی	-10.6143
▁مقابلہ	-10.6154
▁سرگوست	-10.6156
▁ہستی	-10.6161
▁نازرکیں	-10.6164
▁ذہن	-10.6174
▁برطانیہ	-10.6174
▁ڈگارانی	-10.6175
▁شا	-10.6178
▁عذاب	-10.618
▁درائی	-10.6191
▁پیسری	-10.6193
▁مھتل	-10.6194
▁سپاہی	-10.6194
▁تیلانک	-10.6195
▁عاشق	-10.6198
▁team	-10.6199
▁پرایمن	-10.62
▁احوال	-10.6203
زر	-10.6204
▁میراث	-10.6213
▁near	-10.6226
▁جنازہ	-10.6229
▁نگیگ	-10.623
▁پلے	-10.623
▁ہواریں	-10.6231
▁کاپر	-10.6231
▁زھگاں	-10.6235
▁16	-10.6242
▁تراکے	-10.6243
لا	-10.6245
نو	-10.6259
▁رنداں	-10.626
تاں	-10.6267
▁حمایت	-10.6268
cause	-10.6278
▁فرانسیسی	-10.6278
▁زید	-10.6281
▁خضدار	-10.6282
▁صحت	-10.6288
▁بندیگیں	-10.6288
▁محفوظ	-10.629
▁ریکی	-10.629
▁پنجابی	-10.6293
▁توجیل	-10.6294
▁علمء	-10.6296
▁شرکت	-10.6301
▁کربانی	-10.6306
▁کابل	-10.6306
▁مرگے	-10.6306
▁دربار	-10.6307
▁جہانء	-10.6308
دور	-10.631
▁دابیں	-10.6318
▁وردن	-10.6322
▁سماجی	-10.6337
▁جسٹس	-10.6337
▁اسٹیشن	-10.6347
▁کارچ	-10.6348
▁توکلی	-10.6368
▁پلگار	-10.6368
▁گسء	-10.6372
▁عجب	-10.6375
ست	-10.6376
▁بھ	-10.6376
▁ورنایاں	-10.6379
▁سیہ	-10.638
▁بجن	-10.6381
▁زوتاں	-10.6382
▁قدرتی	-10.6383
▁اظہار	-10.6384
▁شعرے	-10.6392
▁جنگانی	-10.6393
▁remain	-10.64
▁مہکم	-10.6402
▁کلمتی	-10.6405
▁دردانی	-10.6406
▁کیسگ	-10.6406
از	-10.6407
▁ھیالاں	-10.6409
▁ص	-10.6411
▁سیزدہ	-10.6412
▁ماتیں	-10.6415
ذ	-10.6418
▁دلپدردی	-10.6422
▁امیری	-10.6425
▁پاشک	-10.6432
▁جک	-10.6434
▁زلورت	-10.6436
زور	-10.6438
▁مڑ	-10.6439
▁چھبار	-10.6439
▁جاڑیگ	-10.6442
▁یاگی	-10.6443
▁محکم	-10.6455
▁ہوتے	-10.646
▁final	-10.6462
▁کرتہ	-10.6466
▁ھژدہ	-10.6466
▁تیوگ	-10.6467
▁سالونک	-10.647
▁سریاب	-10.6471
▁دوریں	-10.6476
چم	-10.6477
▁مھمان	-10.6479
▁وپا	-10.6479
▁رحمت	-10.6487
▁شتیں	-10.6488
▁ھژدری	-10.6495
محمد	-10.6497
h	-10.65
بوتگ	-10.6505
▁پارٹیء	-10.6506
▁گوشیں	-10.6512
▁گیں	-10.6514
▁براتانی	-10.6514
▁براھوئی	-10.6514
▁زھم	-10.6519
▁دستے	-10.6521
▁جاتی	-10.6529
▁مشت	-10.653
▁بوج	-10.6531
▁کارندھاں	-10.6532
▁زمینی	-10.6534
▁کتنت	-10.6535
▁زوربیگواہ	-10.6535
▁لنٹانی	-10.654
غیں	-10.654
▁پنجاپ	-10.6546
▁early	-10.6549
▁شیطان	-10.6551
▁ریس	-10.6553
▁زمانہ	-10.6554
▁could	-10.6559
▁بنپد	-10.6559
▁لوزانک	-10.6563
▁انڈیا	-10.6564
وہ	-10.657
▁شوک	-10.657
▁دوران	-10.6572
▁رھبندانی	-10.6573
▁امارات	-10.6577
▁ھڈ	-10.6584
▁لئیب	-10.6589
▁زبر	-10.6592
▁درایگ	-10.6596
▁un	-10.6599
▁جرمن	-10.6601
▁ذہنی	-10.6607
▁کئیت۔	-10.661
▁اپنا	-10.6611
▁K	-10.6613
نبشتہ	-10.6615
▁دارگء	-10.6616
▁شدت	-10.662
▁سیکرٹری	-10.6625
▁دودا	-10.6629
ation	-10.663
▁did	-10.6635
▁سمل	-10.6639
▁اخلاق	-10.6649
یت۔	-10.6656
▁تکانسر	-10.6659
اتی	-10.6659
▁گہتر	-10.6666
▁سئی	-10.6667
▁صادق	-10.6669
▁جرمنی	-10.6669
▁غالب	-10.6672
▁پئیم	-10.6672
▁پیداگ	-10.6678
▁سٹی	-10.6681
▁ساڑا	-10.6684
▁جہگیر	-10.6686
▁توانائی	-10.6686
▁ڈبلیو	-10.6693
▁ترینت	-10.6695
▁ته	-10.6695
▁یونان	-10.6698
▁شامل	-10.6699
ہے	-10.6699
▁ائیئ	-10.671
▁کارندھانی	-10.6712
▁توبہ	-10.6714
▁چمن	-10.6717
اک	-10.6724
▁w	-10.6725
▁کارکن	-10.6726
▁ہمیشی	-10.6727
▁کارمستر	-10.673
ط	-10.6733
▁تالبان	-10.6735
▁جہلی	-10.6737
▁سلاھاں	-10.6745
▁دیت	-10.6748
▁ہنر	-10.6751
▁مبارکی	-10.6758
▁اوشتگ	-10.6759
▁شود	-10.6763
ایانی	-10.6766
▁سببا	-10.6766
▁پیشدارگ	-10.6767
▁لذت	-10.6773
▁شگان	-10.6776
▁سمائی	-10.6778
▁بوتگاں	-10.678
▁زانیں	-10.6786
▁ڈرامہ	-10.6792
▁گوریچانی	-10.6794
▁12	-10.6794
زانت	-10.6794
▁اهانی	-10.6796
برے	-10.6796
▁چیل	-10.6802
▁ٹوھیں	-10.6806
▁شخصیت	-10.6813
▁معناء	-10.6824
▁along	-10.6826
▁خلافا	-10.6826
▁ذریعہ	-10.6826
▁ہا	-10.6828
▁منوگر	-10.6832
▁قیمت	-10.6838
▁جمالی	-10.6839
▁مرو	-10.6839
▁الا	-10.6843
▁جنینانی	-10.6849
▁زرے	-10.6849
▁بیانیہ	-10.6849
▁سستگ	-10.6855
▁زہری	-10.6863
▁کتابجاہ	-10.6875
▁گرنچ	-10.6877
▁ننداں	-10.6879
▁لبزء	-10.6882
روان	-10.6889
▁O	-10.6896
▁کتابی	-10.6896
▁یکجا	-10.6899
▁may	-10.6899
▁نیمروچ	-10.6902
▁نائب	-10.6905
▁تحت	-10.6909
دان	-10.691
▁راجاں	-10.6917
ؤ	-10.6917
▁دوئینانی	-10.6919
▁حفیظ	-10.6922
▁سوشلزم	-10.6923
▁روئے	-10.6925
▁دبئی	-10.6929
سا	-10.6936
▁ہواری	-10.6941
▁place	-10.6943
▁sai	-10.6948
▁بلال	-10.695
▁رۆچ	-10.6959
▁تھانہ	-10.696
▁مریت	-10.6962
▁شکاری	-10.6963
▁زاہ	-10.6965
▁بهر	-10.697
▁است۔	-10.6972
▁جھمنندیں	-10.6972
▁تچکی	-10.6973
▁گیٹ	-10.6975
▁صبور	-10.6976
▁کامریڈ	-10.6978
▁17	-10.6982
ناں	-10.6983
▁پسء	-10.6986
▁بشکھندگ	-10.6988
▁اشتاپی	-10.6989
▁داشتگیں	-10.6989
▁ساریء	-10.699
▁She	-10.6993
شاہ	-10.6999
▁مارکس	-10.7
ber	-10.7002
▁حافظ	-10.7002
▁مردمانء	-10.7014
▁پدائی	-10.7014
▁سہریں	-10.7014
▁بش	-10.7016
▁نوبت	-10.7017
بار	-10.702
▁جسمانی	-10.7022
۔ہمے	-10.7023
▁کراچیء	-10.7023
اچ	-10.7023
▁گے	-10.7026
یگیں	-10.7031
▁کمان	-10.7032
▁واباں	-10.7039
▁نزینکی	-10.7039
▁زانت۔	-10.7041
▁زنڈیں	-10.7042
▁کشاں	-10.7042
▁شخص	-10.7044
▁کٹم	-10.7046
▁شئیرانی	-10.7055
▁شبیر	-10.7057
▁ھمل	-10.7057
▁تیزی	-10.7059
▁سنت	-10.7061
▁اصلی	-10.7065
▁سنگتی	-10.7067
m	-10.7068
▁پیرا	-10.7069
▁رہادگ	-10.7072
▁نیتکگ	-10.7072
▁پہم	-10.7072
▁ایمنیں	-10.7074
▁کاردار	-10.7079
▁رنگی	-10.7084
▁جوڑشت	-10.7085
▁ارزانی	-10.709
▁پٹء	-10.7092
▁دوت	-10.7093
▁روز	-10.7094
یل	-10.7094
▁بحرین	-10.7095
▁رکھینگ	-10.7095
▁عوامی	-10.7101
▁دیگی	-10.7104
▁گیرت	-10.7113
▁بزیں	-10.7119
▁راہبند	-10.7119
▁کپتہ	-10.7122
▁ٹو	-10.7124
▁کاگدے	-10.7133
▁شو	-10.7137
ینتگ	-10.714
▁تاکاں	-10.714
▁ھست۔	-10.7141
""	-10.7143
▁وابء	-10.7145
▁عالمی	-10.7146
▁ڈرون	-10.7147
مات	-10.7148
▁ڈ	-10.7149
▁ناشرکار	-10.7152
▁جنسی	-10.7153
▁لنکک	-10.7162
▁وراک	-10.7162
▁پرنٹ	-10.7172
▁سل	-10.7177
▁درکنگ	-10.7182
▁روت۔	-10.7183
▁سپاھی	-10.7183
▁روتاک	-10.7183
▁درستانی	-10.7189
▁اسکانی	-10.719
▁بروکیں	-10.7193
▁جیونی	-10.7193
▁ببنت	-10.7196
▁مید	-10.7197
▁بوجیگ	-10.7198
▁ڈیل	-10.7206
''	-10.7207
▁پیگمبر	-10.7208
▁وسائل	-10.7209
▁کھن	-10.7209
اوں	-10.7209
▁گرانی	-10.7214
▁کارڈ	-10.7214
▁لینگویج	-10.7219
▁مرگانی	-10.722
▁جلال	-10.7229
▁باب	-10.7235
اہانی	-10.7242
گور	-10.7245
▁قدرت	-10.7245
▁ندیم	-10.7247
▁کنٹ	-10.7247
▁حلاپ	-10.7254
▁درکپتگ	-10.7255
▁انت۔۔۔۔	-10.726
▁نماسگ	-10.7264
▁توکء	-10.7268
▁اپسر	-10.7268
▁ہمنچو	-10.7272
▁روا	-10.7273
▁لیکگ	-10.7274
▁پکرانی	-10.7277
▁درء	-10.7278
▁گوار	-10.7282
▁کمزور	-10.7288
▁میانی	-10.7293
▁گروپ	-10.7293
▁شلوار	-10.7297
▁گوھر	-10.7299
▁کوہن	-10.7301
▁بنگیجی	-10.7302
▁صدیق	-10.7304
▁افلاطون	-10.7304
▁میز	-10.7307
▁سواری	-10.7309
▁داشتگ۔	-10.7312
▁مصر	-10.7321
▁بکار	-10.7323
▁شانگ	-10.7325
▁انسانیت	-10.7331
زند	-10.7333
▁ستکگ	-10.7337
▁ھلاسی	-10.7338
▁بستارے	-10.734
▁مشک	-10.7341
▁یونٹ	-10.7342
شما	-10.7343
▁ھؤر	-10.7343
▁حاکمی	-10.7346
▁تعالیٰ	-10.735
▁تاکے	-10.7351
▁لنٹاں	-10.7358
▁فلم	-10.7359
▁ھزارانی	-10.7359
▁حکمت	-10.7363
▁زگریں	-10.7366
▁تھر	-10.7368
▁بہتام	-10.7377
▁back	-10.738
▁لیڈر	-10.7382
▁انگیر	-10.7382
▁فکرء	-10.7386
▁کارا	-10.7386
▁پو	-10.7391
▁فورسز	-10.7393
▁راستے	-10.7396
▁ازت	-10.7404
▁یعقوب	-10.7405
▁رگام	-10.7406
▁زاتی	-10.7408
▁کاپٹر	-10.7412
▁unti	-10.7412
▁شھیدانی	-10.7416
▁قربان	-10.7417
▁جنس	-10.7423
round	-10.7423
▁باھوٹ	-10.7427
▁بغیر	-10.7434
▁city	-10.7435
▁براہوئی	-10.7436
▁دئیں	-10.7437
▁چئیرمین	-10.7443
▁سرباز	-10.7445
▁مشکول	-10.7448
▁میش	-10.7456
▁موسیٰ	-10.7456
▁دمانء	-10.7459
علی	-10.746
▁same	-10.7463
▁زانتء	-10.7464
▁original	-10.7465
▁بندء	-10.7466
ئیگ	-10.7468
▁کائنات	-10.7468
اشی	-10.7472
▁بلا	-10.7473
▁ٹرک	-10.7474
▁کاریں	-10.7477
▁حیثیت	-10.748
▁نئیکہ	-10.7486
▁سہت	-10.7493
▁million	-10.7493
▁زوان	-10.75
▁خ	-10.7506
یکے	-10.751
▁ہب	-10.7512
راہ	-10.7518
▁سنگین	-10.7518
▁اوگام	-10.7518
▁راہے	-10.7522
▁منٹ	-10.7525
داریں	-10.7526
▁شئیرء	-10.7528
▁نادر	-10.7534
▁داخل	-10.7535
▁قابل	-10.7536
ث	-10.7537
▁بھت	-10.7537
▁یاتانی	-10.754
▁جہاز	-10.7547
▁مرزا	-10.7548
▁اسکی	-10.7549
▁کھولاں	-10.7555
▁عاجز	-10.7557
▁اینکس	-10.7557
▁W	-10.756
▁ٹوک	-10.756
▁ارشکار	-10.7565
▁سرگ	-10.7573
▁انت۔بلے	-10.7578
▁کربان	-10.758
▁بدنء	-10.7586
▁پادا	-10.759
▁زاہد	-10.7591
▁بگندے	-10.7593
▁day	-10.7597
▁شیشگ	-10.7598
▁بچکے	-10.7606
▁پجارگ	-10.7606
▁people	-10.7607
▁گوازین	-10.7608
▁ہدا	-10.761
▁اولاک	-10.7626
▁return	-10.7628
▁نپس	-10.763
▁20	-10.7631
▁At	-10.7635
▁any	-10.7637
▁میٹر	-10.7637
▁؂۔	-10.7641
▁بستارء	-10.7641
▁مسعود	-10.7647
▁وارت۔	-10.7653
ہو	-10.7654
▁حنیف	-10.7655
▁بین	-10.7656
▁سنٹ	-10.766
▁جہہ	-10.766
▁محدود	-10.7661
▁نازء	-10.7667
▁مہری	-10.7669
▁عثمان	-10.7671
▁میتگاں	-10.7671
▁شرط	-10.7674
▁گوانکو	-10.7674
▁چاریگ	-10.7677
▁برائی	-10.7679
▁ق	-10.7681
▁پٹی	-10.7681
▁نقش	-10.7683
▁مردگ	-10.7684
▁May	-10.7685
▁جمہوریت	-10.7691
▁سربازی	-10.7694
▁km	-10.7702
▁اخری	-10.7703
▁امد	-10.7706
▁اوتاک	-10.7706
▁زانتکاریں	-10.7708
▁زانگء	-10.7709
پرچا	-10.771
▁روم	-10.771
وز	-10.7713
▁کارگشاد	-10.7714
▁گاڑیاں	-10.7723
▁صلاح	-10.7736
▁player	-10.774
▁ھشتاد	-10.7741
▁ڈیہی	-10.7742
▁دابے	-10.7743
▁main	-10.7744
▁اکرم	-10.7746
▁بیغ	-10.7747
▁نفسیات	-10.7748
▁تھاری	-10.7753
▁رہی	-10.7754
▁شہم	-10.7767
▁They	-10.7767
▁خطرہ	-10.7768
▁گوشے	-10.7771
▁شیپ	-10.7771
▁تبء	-10.7772
▁سالیں	-10.7776
▁رمگ	-10.7777
▁جنجالاں	-10.7777
▁گوستانک	-10.7782
▁مسک	-10.7784
جن	-10.7786
▁ھاں	-10.7792
سٹ	-10.7796
▁عہدی	-10.78
▁جلد	-10.7801
▁کمیونسٹ	-10.7808
▁Al	-10.7811
▁امباز	-10.7812
▁پجہ	-10.7814
▁ارتگ	-10.7814
▁بندے	-10.7815
▁ورگء	-10.7818
▁ریپبلکن	-10.782
▁گشندہ	-10.7829
▁بلند	-10.783
۔۔۔۔۔۔	-10.7834
▁ھوت	-10.7836
▁بلۆچ	-10.7838
▁ماہء	-10.7841
▁لولی	-10.7841
▁وھدا	-10.7842
▁زوراکیں	-10.7844
▁ہزاراں	-10.7845
شی	-10.7849
▁کپتاں	-10.7862
▁قربانی	-10.7864
رہ	-10.787
کش	-10.7872
▁force	-10.7877
▁August	-10.7882
▁How	-10.7884
▁how	-10.7885
اف	-10.7887
▁ششمی	-10.7892
▁ثبوت	-10.7895
▁وسیلگ	-10.7898
▁ون	-10.7899
▁بہشت	-10.79
انے	-10.79
▁درگتء	-10.7905
▁off	-10.791
▁بھار	-10.791
▁پلیٹ	-10.7911
▁اسرء	-10.7913
▁تتکگ	-10.7914
▁چت	-10.7917
▁جتیں	-10.792
▁بیسہ	-10.7922
▁انچوشکہ	-10.7922
▁John	-10.7925
▁تاگت	-10.7933
▁گواتء	-10.794
▁ایسا	-10.7946
▁جمع	-10.7949
▁الرحمن	-10.795
▁کشگء	-10.7953
▁ship	-10.7954
▁لانگ	-10.7955
▁لحاظ	-10.796
▁راھشون	-10.7961
▁اییا	-10.7967
کتگ	-10.7974
▁وڈا	-10.7979
▁North	-10.798
▁گدارء	-10.7984
▁دعویٰ	-10.7992
▁نر	-10.7995
▁releas	-10.7998
▁پان	-10.7999
▁فی	-10.7999
▁پشتو	-10.8001
لچہ	-10.8001
▁محکمہ	-10.8003
▁احتگ	-10.8005
▁دلمراد	-10.8006
▁دلپروش	-10.8007
▁سادگیں	-10.8008
▁قومانی	-10.8019
is	-10.802
▁کلو	-10.8022
▁انٹرنیٹ	-10.8024
▁جہدے	-10.8026
ایک	-10.8027
▁سراج	-10.8028
▁ازمانکاں	-10.8028
پی	-10.8035
▁South	-10.8042
لو	-10.8044
لبزانک	-10.8044
▁تکاں	-10.8052
▁مغربی	-10.8052
▁کپنت	-10.8055
▁گڑاں	-10.8057
▁بلبل	-10.8057
▁down	-10.8058
▁رؤکیں	-10.8059
▁شانی	-10.8064
اؤ	-10.8066
▁سازگ	-10.8067
▁ٹیسٹ	-10.8068
▁شعراں	-10.8079
▁دوسرے	-10.8084
مرگ	-10.8087
▁جہ	-10.8089
وئی	-10.8091
▁زوراکیاں	-10.8094
▁زانتکارانی	-10.8099
▁دیمرئی	-10.8102
▁اہمیت	-10.8103
▁دوئیناں	-10.8106
▁سٹ	-10.8109
▁اوداں	-10.8113
▁اہیء	-10.8118
▁بہرء	-10.8118
▁گالے	-10.8119
▁زحم	-10.813
▁جامگ	-10.8131
▁انہیں	-10.8132
▁پرز	-10.8134
▁پترگ	-10.8135
▁مڈیانی	-10.814
▁اکر	-10.8142
▁رے	-10.8144
▁لاچاری	-10.8146
▁حیدر	-10.8146
▁درکیت	-10.8146
▁لوگوں	-10.8147
ue	-10.8149
▁ترسینگ	-10.8149
▁پریشانی	-10.815
▁ارزی	-10.8151
▁اگوں	-10.8157
▁ڈالچار	-10.8159
▁مارشتے	-10.8164
▁پابند	-10.8164
▁name	-10.8168
▁مبیت	-10.8175
▁لوٹوک	-10.8176
ok	-10.8176
▁پریشر	-10.8178
▁یکرندے	-10.8178
▁بوچ	-10.8178
▁ڈگارء	-10.8179
▁ودان	-10.818
ئگ	-10.8182
▁معنی	-10.8183
▁ھمرائی	-10.8184
▁ایشیا	-10.8187
▁نوش	-10.819
▁رادگ	-10.8192
▁جور	-10.8192
▁مادی	-10.8193
زئی	-10.8195
▁بارگ	-10.8196
▁بلاہیں	-10.821
▁support	-10.8212
ازم	-10.8223
▁توکل	-10.8229
▁جھدکار	-10.8229
▁پانک	-10.8231
▁پھم	-10.8244
▁ادمء	-10.8245
▁پگری	-10.8245
▁ازباب	-10.8246
▁سبا	-10.825
▁11	-10.825
▁برباد	-10.8251
▁درگتا	-10.8251
▁زیکیں	-10.8254
son	-10.8255
▁گیجگ	-10.8257
▁ٹ	-10.8257
▁کشتگ۔	-10.8258
▁کماندار	-10.826
▁زاری	-10.8262
▁ساچان	-10.8265
▁قلعہ	-10.8267
▁سوراب	-10.8268
▁دمکاں	-10.8269
▁٭٭	-10.827
▁انہوں	-10.8273
▁برورد	-10.8281
▁War	-10.8282
▁بانل	-10.8283
nother	-10.8285
▁بوتاں۔	-10.8286
▁حشک	-10.8289
▁گومازی	-10.8289
ایش	-10.829
منا	-10.8293
▁حل	-10.8295
▁بچکندگ	-10.8295
دا	-10.8301
▁دہک	-10.8304
▁فاضلء	-10.8306
▁وئیلے	-10.8307
▁لینڈ	-10.8308
▁بلائیں	-10.8314
▁بارگیں	-10.8315
▁لیبی	-10.8319
ستان	-10.8322
▁نہاد	-10.8327
▁گرند	-10.8329
▁شودگ	-10.8332
ry	-10.8335
▁ھاموش	-10.8339
▁کنز	-10.8342
▁15	-10.8347
et	-10.8349
▁تمامیں	-10.8351
▁دارایت	-10.8354
▁کلچر	-10.8355
▁انتظامیہ	-10.836
▁ہفت	-10.8369
▁receiv	-10.8369
▁یکدم	-10.8373
▁حبرء	-10.8375
▁ویب	-10.8375
▁مزاحمتی	-10.838
▁نندیت	-10.8381
▁رپ	-10.8384
▁بیں	-10.8384
▁small	-10.8388
▁مدان	-10.8389
▁بوؤکیں	-10.8396
▁مستی	-10.8401
▁life	-10.8403
▁جبر	-10.8405
▁گت	-10.8406
▁لبزے	-10.8411
▁ظاھر	-10.8413
▁گاہ	-10.8413
▁نکان	-10.8414
▁مپت	-10.8417
▁پگار	-10.8421
▁گپتار	-10.8431
▁ھاس	-10.8433
▁نوجوان	-10.8438
▁منانک	-10.844
▁گشنت۔	-10.8443
▁ڈاہ	-10.8446
▁پترتگ	-10.8447
▁لائبریری	-10.8447
▁واد	-10.8455
▁lead	-10.8456
▁ہون	-10.8459
▁نگدی	-10.8462
▁گوشتی	-10.8464
▁سبزل	-10.8471
▁رپتگ	-10.8471
▁دانشور	-10.8472
پل	-10.8473
▁درجگ	-10.8475
▁زانئے	-10.8475
▁ھردوکیں	-10.8476
▁تیرانی	-10.8477
▁لرز	-10.848
▁سئیل	-10.8481
▁ہنکین	-10.8487
▁اسکور	-10.8489
▁L	-10.849
بچار	-10.8497
▁جستء	-10.8498
▁سیمسری	-10.8502
▁شہداد	-10.8502
▁ھائی	-10.8508
▁سوبی	-10.8513
g	-10.8513
▁مولاداد	-10.8513
▁دارو	-10.8514
▁ریفرنس	-10.8515
?"	-10.8518
▁group	-10.8525
▁کرنل	-10.8534
▁نعمت	-10.8538
▁لچھ	-10.8541
▁عہدء	-10.8543
▁نبیسی	-10.8543
▁ھکومت	-10.8546
▁رھشونی	-10.8546
▁start	-10.8553
▁Septe	-10.8559
▁چکر	-10.856
▁شائرے	-10.8561
▁شریک	-10.8563
▁پلان	-10.8563
▁واریں	-10.8565
▁مریم	-10.8569
تیں	-10.8571
▁سیالی	-10.8576
▁روانکے	-10.8577
▁توئے	-10.8579
▁دزگٹ	-10.8579
رند	-10.8581
پت	-10.8584
▁مدینہ	-10.859
▁مہلوکء	-10.8592
▁each	-10.8594
▁کلم	-10.8598
▁ناگت	-10.8599
ا۔	-10.8609
▁ٹل	-10.861
▁ملیر	-10.8618
وھدے	-10.8621
▁اداں	-10.8622
▁دروریں	-10.8623
▁بزگر	-10.8625
▁بیزار	-10.8633
▁ترء	-10.8635
c	-10.8636
▁گیت	-10.8639
▁صفحہ	-10.8639
▁German	-10.864
▁طارق	-10.8643
▁واہش	-10.8646
▁وتئی	-10.8649
▁مڑدم	-10.8652
ادا	-10.8655
▁البتہ	-10.866
▁شناسی	-10.866
▁علامت	-10.8662
?’’	-10.8662
▁وه	-10.8662
▁لچ	-10.8666
▁مثل	-10.8667
▁بٹ	-10.8668
▁امبازاں	-10.867
▁بوٹ	-10.8683
▁قحطانی	-10.8684
▁طبقہ	-10.8685
مرچی	-10.8685
▁خوش	-10.8688
▁حیالاں	-10.8689
واب	-10.8697
▁برتگ۔	-10.8698
▁سیاستء	-10.8699
▁اییئے	-10.8702
▁World	-10.8709
▁وداریگ	-10.871
▁سدکی	-10.8714
▁تھی۔	-10.8717
▁ترسے	-10.8719
ton	-10.8722
▁زوران	-10.8723
ینت	-10.8725
▁عطاء	-10.8727
▁دلاں	-10.8728
تک	-10.8733
▁شیرین	-10.874
▁دێما	-10.8741
▁لاھور	-10.8747
▁مقامی	-10.8749
▁ڈیم	-10.8759
▁ھزمت	-10.8762
▁ناک	-10.8766
b	-10.8772
▁میت	-10.8777
▁باھو	-10.878
گوش	-10.8787
▁شکست	-10.879
▁لانک	-10.8791
بنت	-10.8791
▁لاشانی	-10.8794
▁فٹ	-10.8794
▁تاہیر	-10.8806
▁دریاء	-10.8806
▁رات	-10.8806
▁دمے	-10.8811
ماہ	-10.8811
▁سبر	-10.8818
▁عرض	-10.8821
▁ھنچشیں	-10.8822
▁میم	-10.8824
▁لنگ	-10.8825
▁نگن	-10.8832
▁بڑی	-10.8832
▁زانشتی	-10.8836
▁بنء	-10.8841
▁یت	-10.8842
▁محراب	-10.8842
▁سقراط	-10.8849
▁کبھی	-10.8854
رنگ	-10.8857
▁برف	-10.8859
▁گسر	-10.8861
▁five	-10.8862
▁اشتگ	-10.8862
▁سروس	-10.8864
▁ٹیکی	-10.8873
▁دستان	-10.8874
▁single	-10.8876
▁انگو	-10.8878
اردو	-10.8879
▁چریشاں	-10.888
▁مزنی	-10.8881
یم	-10.8881
▁مج	-10.8882
▁مکتب	-10.8887
اھاں	-10.8889
▁بوتہ۔	-10.8889
▁سھیل	-10.889
انچو	-10.8891
▁مزدور	-10.8891
▁پھریز	-10.8895
▁متحدہ	-10.8896
▁ماتے	-10.89
▁دومیء	-10.8905
▁کستر	-10.8908
▁اہان	-10.892
▁نبوتگ	-10.8922
▁شموش	-10.8927
▁رضی	-10.893
شان	-10.8931
▁result	-10.8933
▁سینگار	-10.894
▁کافی	-10.894
گڈا	-10.8941
▁تکنیکی	-10.8945
▁اپوزیشن	-10.8959
▁ترینگ	-10.8962
▁جزم	-10.8962
▁ڈگری	-10.8969
▁دراجی	-10.8971
▁ماڈل	-10.8972
وان	-10.8976
▁سہبء	-10.8978
▁appear	-10.8981
▁یکشمبے	-10.8989
▁داتنت	-10.8994
▁افغان	-10.8994
▁پسگ	-10.8996
▁شی	-10.8999
▁فٹبال	-10.9002
▁معنائی	-10.9004
▁گورم	-10.9005
▁بانزل	-10.9005
▁describ	-10.9005
▁سواد	-10.9005
▁تنکیں	-10.9006
p	-10.9006
▁قد	-10.9011
▁مروارد	-10.9011
▁بلڈ	-10.9012
▁کڑی	-10.9015
▁اشرف	-10.9027
کسہ	-10.9028
گار	-10.9031
▁جے	-10.9037
▁ٹیبل	-10.9041
▁بنگپانی	-10.9042
▁کوچ	-10.9044
▁کیلئے	-10.9046
▁کنائینتگ	-10.905
▁عقلی	-10.9051
▁ھل	-10.9057
▁ہک	-10.9058
▁منارا	-10.9059
▁کشاری	-10.9071
▁درج	-10.9072
▁پہمگ	-10.9074
▁رپت	-10.9076
▁مو	-10.9076
▁سردارانی	-10.908
▁دارگی	-10.908
▁جنگا	-10.9081
▁مزل	-10.9082
▁ازمانء	-10.9083
▁گپتگ۔	-10.9084
▁شہباز	-10.9084
▁باقی	-10.9087
▁راھی	-10.9088
▁کمکے	-10.9092
▁لگتمال	-10.9095
ten	-10.9095
▁گلائیش	-10.9101
▁یقین	-10.9102
▁attack	-10.9103
if	-10.9104
گوشت	-10.9105
▁دوشمبے	-10.9105
▁جننت	-10.9106
▁شاه	-10.9111
▁دیمونی	-10.9112
▁ساچی	-10.9113
▁ہیر	-10.9113
▁پیپلزپارٹی	-10.9114
▁ہدایت	-10.9116
▁ح	-10.9117
▁کلاسیکل	-10.9118
▁اگاہ	-10.9123
دوست	-10.9123
▁own	-10.9128
▁مگرب	-10.9129
▁کالونی	-10.9132
▁گاماں	-10.9133
▁پہریز	-10.9134
▁زہگاں	-10.9134
▁ماھی	-10.9138
▁احسان	-10.9141
▁نوکر	-10.9142
▁قیامت	-10.9143
▁جلوہ	-10.9145
▁مدار	-10.9146
گندگ	-10.9158
▁ست	-10.9159
▁ایردستیں	-10.9161
▁نازل	-10.9161
▁تعلقداری	-10.9162
2	-10.9162
▁مگسی	-10.9164
▁music	-10.9166
▁سبزی	-10.9168
▁consider	-10.9173
نک	-10.918
▁سکا	-10.9181
▁شوق	-10.9184
or	-10.9184
▁ھرنائی	-10.9188
▁ظہور	-10.9188
▁باں۔	-10.9191
▁اینچک	-10.9192
▁کسہانی	-10.9196
▁زون	-10.9201
▁تش	-10.9201
▁ویڈیو	-10.9206
▁تکانسری	-10.9207
▁وراں	-10.9208
▁وانیت	-10.921
▁دالبندین	-10.9212
▁بورڈ	-10.9214
▁توم	-10.9217
▁کوہانی	-10.9219
▁لیکھ	-10.9219
▁رژنا	-10.922
▁سینٹر	-10.922
▁کرز	-10.9222
▁ایلیٹ	-10.9222
▁ورک	-10.9231
▁باغ	-10.9233
▁اتوں	-10.9236
▁تحقیق	-10.9241
▁سنگے	-10.9243
▁Dur	-10.9243
▁اثرات	-10.9244
مزنیں	-10.9245
▁نوٹ	-10.9245
▁سالروچ	-10.9246
▁ٹپیگ	-10.925
▁هزار	-10.9253
▁بکنیں	-10.9258
▁great	-10.9262
▁گونگیں	-10.9263
▁رزاق	-10.9265
اتنت	-10.9266
▁هدا	-10.9266
▁کوسٹ	-10.9269
یات	-10.9274
▁سدانی	-10.9276
▁یکروچے	-10.9277
▁وکٹ	-10.9279
▁مردی	-10.9283
▁پربند	-10.9284
▁June	-10.9285
▁نشنل	-10.9286
▁جسد	-10.9286
▁ورد	-10.9288
▁اتیں۔	-10.9295
▁پارلیمنٹ	-10.9296
▁کابینہ	-10.9297
▁دارے	-10.9301
▁رئیسی	-10.9302
▁دوستاں	-10.9309
وکین	-10.9309
▁گواز	-10.9311
ێ	-10.9312
▁رکین	-10.9316
▁ملین	-10.9319
▁ادریس	-10.9324
▁ونڈ	-10.9325
▁پریشی	-10.9328
▁جانے	-10.9336
▁نفس	-10.9337
▁پژدرء	-10.9339
▁میرو	-10.9339
▁بلۆچی	-10.934
▁بحر	-10.9341
▁کرکے	-10.9343
اہ	-10.9344
▁زندمانی	-10.9345
ٹک	-10.9348
کتاب	-10.935
?“	-10.9352
▁زاھد	-10.9356
اھانی	-10.9356
▁صالح	-10.9362
▁کسه	-10.9365
▁حبیب	-10.9376
▁مھروان	-10.9377
▁تھام	-10.9379
▁حالے	-10.9385
▁توری	-10.9388
▁شالء	-10.939
▁انت۔ائی	-10.939
▁زندہ	-10.9391
منء	-10.9397
▁ھوشاپ	-10.9398
▁قسمت	-10.94
▁مبارکیء	-10.9401
▁دنیگہ	-10.9402
▁دیار	-10.9403
▁شپانک	-10.941
▁تیرے	-10.9413
ive	-10.9418
▁شوانگ	-10.942
▁point	-10.9421
▁since	-10.9421
▁کبرستان	-10.9422
▁شئیرے	-10.9423
▁شاپ	-10.9424
x	-10.9427
▁نزیکء	-10.9429
سن	-10.9432
▁یکےء	-10.9436
▁ازمء	-10.9438
▁دورے	-10.9438
▁پوک	-10.9443
▁طلب	-10.9446
▁مہتل	-10.9447
▁زاکر	-10.9449
▁زانشی	-10.945
▁انسانانی	-10.9455
▁لاشاری	-10.946
▁بھٹو	-10.9461
▁ہسپتال	-10.9463
▁شعبہ	-10.9465
▁پجی	-10.9466
▁زردیں	-10.9467
age	-10.9474
▁دنیائے	-10.9475
▁دوسری	-10.9477
با	-10.9478
▁نفسیاتی	-10.9479
▁جاگھے	-10.948
▁برابری	-10.9482
▁فرض	-10.9482
▁ارزشتے	-10.9482
▁سانمند	-10.9488
▁ات۔من	-10.9489
ment	-10.9493
▁نازینک	-10.9495
▁سیکیورٹی	-10.9497
▁استت	-10.95
▁ئت	-10.9508
▁سرپ	-10.9513
▁پورٹ	-10.9513
▁order	-10.9515
▁جامی	-10.952
▁انٹرنیشنل	-10.9524
▁ٹکرے	-10.9526
▁ھسین	-10.9526
▁what	-10.9526
▁لوگبانک	-10.9527
▁ترگ	-10.9527
▁گارڈ	-10.9527
▁بنیاتی	-10.9529
▁جیسے	-10.9529
▁شوکت	-10.9529
▁بزرگ	-10.9537
▁گپان	-10.9537
▁نعیم	-10.9539
▁دوستدار	-10.9541
ملک	-10.9551
▁واھشت	-10.9552
▁رنگاں	-10.9558
▁رابطہ	-10.956
▁States	-10.9563
▁اندگہ	-10.9568
▁ژند	-10.9571
▁گندء	-10.9573
▁ہاتھ	-10.9574
uch	-10.9575
▁تراکناک	-10.9578
▁ساہت	-10.9582
species	-10.9585
▁بدلء	-10.9593
▁گیابان	-10.9596
▁سنگانی	-10.9598
▁لونجان	-10.9598
▁دیواناں	-10.9604
▁دیمترء	-10.9608
▁اماں	-10.9608
▁سنگینیں	-10.9613
▁خراب	-10.9614
▁دھکان	-10.9615
کوہ	-10.9616
▁لیکہء	-10.9617
▁مسلمانانی	-10.9618
▁گیشین	-10.9618
▁پریدہ	-10.9622
▁بھارت	-10.9624
▁زورء	-10.9627
▁دروہ	-10.9629
▁سگگ	-10.9629
▁بلی	-10.9636
▁دگری	-10.9638
▁مرکء	-10.964
▁قانود	-10.9644
▁لوپ	-10.965
▁اسلوب	-10.9652
جا	-10.9657
▁ھیالء	-10.967
▁انت۔من	-10.9674
کجام	-10.9678
▁واجکار	-10.968
▁ابیتک	-10.9682
▁چۆ	-10.969
▁شنک	-10.9705
▁گدارے	-10.9706
▁شرم	-10.9707
▁روایتی	-10.9708
▁جنکاں	-10.9715
▁چھر	-10.9718
▁پارلیمانی	-10.9722
▁بودلئیر	-10.9722
▁دودء	-10.9727
▁شپانی	-10.9728
▁جهان	-10.9728
پٹ	-10.9733
ئت	-10.9736
▁ایسے	-10.9739
▁مونجا	-10.9741
▁ماحول	-10.9742
▁ترو	-10.9754
▁بسمل	-10.9761
▁ساھتے	-10.9761
▁ریاض	-10.9763
▁اہت	-10.9765
▁ہزدار	-10.9766
▁انفارمیشن	-10.9766
▁روگن	-10.9768
▁پیسریگیں	-10.9771
▁میا	-10.9772
▁بیت۔اے	-10.9772
▁وزم	-10.9775
▁famil	-10.9778
▁کوھلو	-10.9778
▁راضی	-10.978
▁کوشت	-10.9782
▁لوار	-10.9785
▁فیصل	-10.9787
▁ڈبہ	-10.9792
▁کماشیں	-10.9793
▁جبین	-10.9797
▁درنیام	-10.9797
▁طرز	-10.9797
دگ	-10.98
!’’	-10.9807
▁will	-10.9811
▁جمبراں	-10.9812
▁state	-10.9815
▁دید	-10.9816
ٹر	-10.9817
▁late	-10.9818
▁ایجنٹ	-10.982
▁سگی۔	-10.9822
▁ترسء	-10.9823
▁جوہر	-10.9824
▁اقتصادی	-10.9825
▁Ap	-10.9828
▁مکنت	-10.9829
▁میانء	-10.9831
▁بچاں	-10.9831
▁دونوں	-10.9831
▁موسمانی	-10.9832
▁دارانی	-10.9833
▁تپاسگ	-10.9833
▁درے	-10.9838
گیر	-10.984
▁جنزگ	-10.9848
▁ھورت	-10.9849
▁جنیناں	-10.9849
▁بیچ	-10.985
▁پجاہ	-10.9851
▁گوئشان	-10.9853
▁وشیانی	-10.9858
یئ	-10.9859
▁مسکرا	-10.986
▁کان	-10.9864
▁راجدوستی	-10.9864
سال	-10.9864
▁بیماری	-10.9864
▁بخت	-10.9868
▁یکجاھی	-10.9875
▁روچا	-10.9876
▁ایجنسی	-10.9882
▁باتن	-10.9884
▁نعرہ	-10.9886
▁کوھاں	-10.9887
▁کوم	-10.9888
▁تربیت	-10.9889
▁مرکزی	-10.9891
▁علاوہ	-10.9895
▁انتظام	-10.9896
▁چوناہا	-10.9902
تاک	-10.9904
▁ٹوپ	-10.9904
k	-10.9908
▁line	-10.9912
▁کانال	-10.9914
▁ائین	-10.9915
▁دودانی	-10.992
ھچ	-10.9921
پاکستانی	-10.9922
▁شمس	-10.9925
▁تشدد	-10.9926
▁ھورانی	-10.9927
▁No	-10.9928
▁کمکی	-10.9933
▁reach	-10.9933
▁شوھازگ	-10.9936
یتگ	-10.9938
▁ارسطو	-10.9941
گشت	-10.9942
▁جیڑھے	-10.9944
▁ہنداں	-10.9946
▁دام	-10.9946
▁last	-10.9948
▁پورسز	-10.9948
▁داشت۔	-10.995
▁دلمانگ	-10.9951
▁اولاد	-10.9953
▁دژمنی	-10.9955
▁مراگشے	-10.9957
▁لیکہانی	-10.9957
▁ھوری	-10.9959
▁Octo	-10.9961
▁جتک	-10.9962
▁گوری	-10.9963
▁معنہ	-10.9964
▁چراگے	-10.9965
▁حدائی	-10.9966
▁ڈولا	-10.9969
▁منصور	-10.9977
▁پیادگ	-10.998
▁رہبندانی	-10.9985
▁ارٹ	-10.9985
▁ریسرچ	-10.9989
▁نبشتانکاں	-10.999
▁پیداوار	-10.9997
▁system	-11.0001
▁گاری	-11.0008
▁کانودی	-11.001
▁تمنی	-11.0011
▁کوریں	-11.0011
▁مضبوط	-11.0014
▁گردش	-11.0018
▁روشن	-11.0019
▁بلہ	-11.0025
▁جعفر	-11.0025
▁نزام	-11.0026
▁....	-11.0026
▁لالچ	-11.0027
▁ات۔ائی	-11.0028
ril	-11.0031
▁دھلی	-11.0033
▁لاشار	-11.0034
▁ڈوک	-11.0036
▁لہتین	-11.0037
کور	-11.004
▁week	-11.004
▁قید	-11.0041
▁کلومیٹر	-11.0042
▁عابدہ	-11.0043
▁اتکاں	-11.0043
▁گوارگ	-11.0047
▁جانء	-11.0047
▁نزء	-11.0053
▁دنیایے	-11.0056
rote	-11.0058
▁رویہ	-11.0059
▁اپہ	-11.0061
▁کیا۔	-11.0063
▁حر	-11.0064
▁اردوء	-11.0065
▁فری	-11.0065
بد	-11.0067
▁شرت	-11.0071
▁صوفی	-11.0074
▁اوتاگ	-11.0075
▁یاتاں	-11.0077
▁بولی	-11.0077
▁دہکان	-11.0087
▁ہو۔	-11.0087
▁سپاہ	-11.0092
▁اؤ	-11.0094
▁ھمنکس	-11.0099
▁مردک	-11.0109
▁امبار	-11.0112
▁پسندیں	-11.0112
▁بوتنت۔	-11.0113
▁تہرے	-11.0114
▁اسپتال	-11.0123
▁اوں۔	-11.0126
▁کسانکیں	-11.0126
▁تاکانی	-11.0127
▁کیفیت	-11.0127
▁کمرہ	-11.0128
کرت	-11.0129
▁قریش	-11.0131
▁جیڑاں	-11.0131
▁گرگء	-11.0132
▁گین	-11.0138
▁ایرانشھر	-11.0139
▁ریکانی	-11.014
▁کارستے	-11.0141
▁فرد	-11.0142
▁واھگاں	-11.0142
▁رستگ۔	-11.0146
▁رفیق	-11.015
▁سوبء	-11.0155
انسان	-11.0155
▁غ	-11.0158
شرگداری	-11.0161
▁وابی	-11.0169
▁فرمان	-11.0169
▁محسوس	-11.0169
▁منیت	-11.0179
ork	-11.018
▁مرگاں	-11.0181
▁رمب	-11.0182
ێا	-11.0184
▁ادارہاں	-11.0185
▁چپیں	-11.0186
▁رؤ	-11.0186
▁واز	-11.0196
▁جاگہاں	-11.0196
▁تنکہ	-11.0205
▁وہدا	-11.0206
▁شاہی	-11.0216
▁سازیں	-11.0217
گال	-11.0218
▁ڈان	-11.0223
کراچی	-11.0225
▁گڈاں	-11.0227
▁بیمار	-11.0228
▁war	-11.0229
▁خرچ	-11.023
▁ھوناں	-11.024
▁پولنگ	-11.0241
▁پرست	-11.0242
▁قرن	-11.0242
▁نیاتکگ	-11.0242
▁world	-11.0244
▁ماہیگ	-11.0244
▁کیں	-11.0256
▁وہاں	-11.0256
▁شالا	-11.0258
▁سوچگ	-11.0259
▁اہل	-11.0259
▁کپاں	-11.0261
▁ماہناز	-11.0263
▁راشن	-11.0265
▁شتہ	-11.0267
▁کسب	-11.0269
پس	-11.0271
▁بالگرد	-11.0271
▁همراه	-11.0271
▁عبدالواحد	-11.0272
▁یہی	-11.0274
▁زہگانی	-11.0275
۔اگاں	-11.0279
▁واقع	-11.0281
▁ششت	-11.0287
▁پے	-11.0287
▁فطرت	-11.0289
▁ردانکی	-11.029
▁برء	-11.0294
▁now	-11.0297
کسے	-11.0303
وٹ	-11.0309
▁role	-11.031
▁ادمے	-11.0312
▁لیا	-11.0315
▁............	-11.0315
▁اسء	-11.0321
▁رونت	-11.0323
نیں	-11.0323
▁خاطر	-11.0326
▁کاران	-11.0327
▁ھندء	-11.0328
▁مٹیں	-11.033
▁set	-11.0333
▁بیث	-11.0334
▁تیابدپ	-11.0334
▁لوزانی	-11.0334
▁گسانی	-11.0336
▁داروک	-11.034
▁ایسی	-11.034
▁پیغام	-11.0351
▁طریقہ	-11.0354
▁take	-11.0355
▁ارد	-11.0358
▁کنٹگ	-11.0358
▁افیسر	-11.0359
▁دروازگء	-11.036
▁ناکیں	-11.0362
▁تنت	-11.0369
▁رشتگ	-11.0369
▁چیلنج	-11.0369
▁وعدہ	-11.037
ھمیش	-11.0375
▁سوز	-11.0375
▁وبا	-11.0378
▁پلک	-11.0378
▁سامنے	-11.0379
▁won	-11.0379
▁کیلو	-11.0381
▁ارشاد	-11.0382
▁G	-11.0384
▁انٹر	-11.0384
▁St	-11.0385
▁پیسرء	-11.0391
▁بچے	-11.0392
▁بیورغ	-11.0395
▁کوٹیء	-11.0398
نز	-11.0402
▁کپتگاں	-11.0403
▁due	-11.0405
▁کسھے	-11.0407
▁اہد	-11.0409
▁ڈولء	-11.0412
▁لائق	-11.0413
▁چمشانکے	-11.0414
▁head	-11.0415
▁سیشن	-11.0418
▁اسک	-11.0421
▁ہمت	-11.0422
▁تسلا	-11.0422
ren	-11.0423
تنت	-11.043
▁منتگیں	-11.0433
▁بہادری	-11.0441
▁جاگہء	-11.0442
▁چلیم	-11.0446
▁گہتری	-11.0447
▁ونگ	-11.0448
▁واجہی	-11.045
▁الہان	-11.045
دات	-11.045
▁جر	-11.0452
▁ھیالے	-11.0452
غاں	-11.0454
▁سوری	-11.046
▁اسکولء	-11.0461
▁وانندگ	-11.0461
▁child	-11.0462
یو	-11.0463
گانی	-11.0464
▁عجبیں	-11.0467
▁بیہار	-11.0467
▁do	-11.0467
▁گرپتار	-11.0468
▁درنگ	-11.0473
very	-11.0475
▁جبران	-11.0478
▁بوہگء	-11.0479
▁قتل	-11.0479
▁مشرقی	-11.0481
واں	-11.0481
▁همک	-11.0485
▁کالم	-11.0487
▁نھاد	-11.0491
▁پہلی	-11.0491
▁وارس	-11.0496
مر	-11.0497
▁home	-11.05
▁صورتء	-11.0501
▁شومیں	-11.0502
▁کردء	-11.0504
▁داگ	-11.0507
▁ابراہیم	-11.0508
▁ہل	-11.0508
▁کنائینت	-11.0509
hose	-11.051
▁سردی	-11.0512
▁شادی	-11.0513
▁اگ	-11.0515
▁چونائیا	-11.0521
▁دیوکیں	-11.0522
▁اتحاد	-11.0522
▁نگور	-11.0524
▁اوت	-11.0526
▁اسانی	-11.0531
▁معیار	-11.0535
▁سوگہ	-11.054
▁بیگواھیانی	-11.054
▁b	-11.0542
▁ساھتاں	-11.0543
▁پورہ	-11.0544
▁اسن	-11.0545
▁افسوس	-11.0548
▁علت	-11.0553
▁ہمینچو	-11.0553
▁نل	-11.0555
ese	-11.0555
▁کلک	-11.0562
▁شرگداریء	-11.0566
▁ائ	-11.057
چون	-11.0571
▁جائیکہ	-11.0574
▁تازی	-11.0576
▁ورلڈ	-11.0577
▁هور	-11.0578
▁ساحل	-11.0581
▁direct	-11.0581
▁اسکے	-11.0583
▁di	-11.0589
▁13	-11.0589
▁عراق	-11.059
▁نوشکے	-11.0591
▁بادشاہی	-11.0595
▁نوری	-11.0596
▁allow	-11.0596
▁بودشت	-11.0598
▁کسہاں	-11.06
▁مستقبل	-11.0604
▁دوہمی	-11.0605
▁ڈولداریں	-11.0612
▁?‘‘	-11.0612
▁پکیر	-11.0613
▁ھمبل	-11.0614
▁ترتیب	-11.0614
▁بامرد	-11.0616
▁بوتن	-11.0616
لوگ	-11.0624
ty	-11.0625
▁دیں	-11.0626
▁چشین	-11.0628
▁پانکجن	-11.0628
▁دویں	-11.0634
▁شونکار	-11.0635
شاعری	-11.0635
▁سادگ	-11.0636
▁رود	-11.0638
▁کیف	-11.0641
▁قدم	-11.0641
▁تحفظ	-11.0644
▁خمار	-11.065
▁بیتگین	-11.065
▁بنگالی	-11.065
▁درساں	-11.0654
زم	-11.0655
▁زوراں	-11.0657
▁معیشت	-11.0659
▁ساه	-11.0659
▁انجمن	-11.0659
▁مدد	-11.0661
.“	-11.0668
▁death	-11.0672
▁جاتے	-11.0678
▁ڈائریکٹر	-11.0679
▁کلکشان	-11.0681
▁سبارگ	-11.0687
▁کلاگ	-11.0688
▁بیاریت	-11.0688
▁پبلی	-11.0689
▁سفرء	-11.0693
▁وهدا	-11.0696
▁اناگت	-11.0697
▁روتگ	-11.0697
▁اؤٹ	-11.0702
▁اصغر	-11.0703
▁ناگیگ	-11.0703
▁مقبول	-11.0704
▁شونگال	-11.0705
▁سکندر	-11.0706
▁کتء	-11.0706
▁دئیگا	-11.0714
▁ماسی	-11.0714
▁صائمہ	-11.0718
▁ناولٹ	-11.0719
▁پیشرد	-11.072
ایا	-11.072
▁تنظیم	-11.0727
▁گھتر	-11.0729
▁نسیب	-11.0731
▁انچۆ	-11.0731
▁بالگتر	-11.0731
el	-11.0732
▁گپتہ	-11.0733
▁چرس	-11.0735
▁تخت	-11.0739
▁پرچی	-11.0741
▁ھپتگے	-11.0741
▁لیلو	-11.0743
▁پائپ	-11.0744
▁غماں	-11.0744
▁درورے	-11.0744
▁چاری	-11.0744
▁نگاری	-11.0751
▁داخلہ	-11.0754
▁روانی	-11.0754
▁کبول	-11.0758
▁ہژدری	-11.0759
▁بھشت	-11.0763
▁نگیگیں	-11.0763
چر	-11.077
ینیت	-11.0771
نس	-11.0771
▁شگر	-11.0775
▁ساچگ	-11.0776
▁14	-11.0779
▁حدیث	-11.078
ائرا	-11.0783
▁ڈیپارٹمنٹ	-11.0786
▁نرمیں	-11.0787
▁عیسوی	-11.0787
▁نیستی	-11.0792
▁سائیکل	-11.0793
▁گن	-11.0793
▁دئور	-11.0794
▁ابیتکی	-11.0798
▁نبشتانکانی	-11.08
▁دوزہ	-11.0804
▁ختم	-11.0804
▁دینت۔	-11.0804
▁زانتکاراں	-11.0805
▁سینیٹ	-11.0805
▁سدل	-11.0809
▁سہیل	-11.0811
▁اھم	-11.0813
▁six	-11.0814
▁included	-11.0818
▁Janu	-11.0822
▁30	-11.0828
▁مرکز	-11.0829
▁اهاں	-11.083
▁انشپی	-11.0831
بیت۔	-11.0833
▁Man	-11.0841
▁پجارینگ	-11.0844
▁storm	-11.0845
▁بچاریں	-11.0861
▁گندان	-11.0862
▁سپریم	-11.0863
▁سرداری	-11.0867
▁short	-11.0872
▁پارک	-11.0878
▁زرت۔	-11.0883
یشن	-11.0884
▁کندیل	-11.0886
▁left	-11.0887
▁گورکی	-11.0888
▁کرمان	-11.0888
▁شیرکنیں	-11.0892
▁ایریں	-11.0893
▁ہاران	-11.0899
▁ٹیکس	-11.0902
▁شلی	-11.0903
▁نشتہ	-11.0909
▁پھازگی	-11.0909
▁اشان	-11.0911
▁کشتگیں	-11.0914
وہدے	-11.0916
▁England	-11.0916
▁video	-11.0916
ۆ	-11.0916
▁government	-11.0916
▁زامات	-11.0916
▁ملی	-11.0917
▁نوروز	-11.0921
▁مد	-11.0924
▁ھمینچو	-11.0925
بندی	-11.0925
▁افسانہ	-11.0927
▁کردی	-11.0928
▁H	-11.0935
▁بوگا	-11.0935
▁خدمت	-11.0937
است	-11.0938
▁صباء	-11.094
▁ترمپے	-11.0942
▁زرداری	-11.0943
▁غلامی	-11.0943
▁۔ھمیش	-11.0943
▁عمرء	-11.0944
▁بہہ	-11.0947
▁تعریف	-11.0947
▁عکسے	-11.095
▁دھک	-11.095
▁چدء	-11.0954
▁پیروک	-11.0956
▁سروکاں	-11.0956
▁کہتے	-11.096
▁پلگ	-11.0961
▁لگیت	-11.0961
▁درہیں	-11.0963
رز	-11.0968
▁شموشگ	-11.0969
▁خاموش	-11.0969
ia	-11.0971
▁اش۔	-11.0971
▁نقل	-11.0976
▁مھلوکء	-11.0978
▁ازل	-11.0979
ma	-11.0981
▁ھنی	-11.0981
وری	-11.0983
▁ڈولداری	-11.0984
▁جئیند	-11.0989
▁جاورھال	-11.099
▁position	-11.0991
▁مشن	-11.0996
زانگ	-11.0997
نڈ	-11.0997
▁پجا	-11.0998
▁چکا	-11.0999
f	-11.1
▁وغیرہ	-11.1001
وء	-11.1002
▁کرے	-11.1005
پاکستان	-11.1014
▁اسودگی	-11.1016
▁سرپدیں	-11.1018
کجا	-11.1019
▁بڑا	-11.1019
▁الفاظ	-11.1021
▁کارندھے	-11.1021
▁بھائی	-11.1022
▁ھمراھاں	-11.1023
▁لزت	-11.1023
▁تھاریں	-11.1025
▁ماریت	-11.1025
▁اوارجنی	-11.103
مرد	-11.1033
نٹ	-11.1035
▁کورونا	-11.1037
▁تئیی	-11.104
▁دێم	-11.1041
▁ملافاضل	-11.1043
بت	-11.1044
▁ھمیشانی	-11.1045
▁گرماگ	-11.1047
▁بڑے	-11.1047
▁مڑد	-11.1048
▁include	-11.1048
▁دمگے	-11.1048
شاعر	-11.1049
▁فیس	-11.1049
▁March	-11.105
▁فورس	-11.1052
▁قانونی	-11.1055
ض	-11.1055
ماہتاک	-11.1058
▁سسی	-11.1059
▁رشتہ	-11.106
▁attempt	-11.1062
▁کونڈ	-11.1065
▁شیوار	-11.1069
▁ماھکان	-11.1073
▁موقع	-11.108
▁جنکو	-11.108
▁ارسانی	-11.1081
▁جذبہ	-11.1083
▁ایوان	-11.1085
▁ملتان	-11.1088
▁گواتے	-11.109
▁راہی	-11.109
▁قومے	-11.1091
▁کیمرہ	-11.1093
▁دینا	-11.1095
▁اژدری	-11.1095
▁پچار	-11.1095
▁ه	-11.1098
▁گداں	-11.1104
▁کیو	-11.1112
▁کانٹ	-11.1112
مہر	-11.1115
پا	-11.1116
▁کاریت۔	-11.1116
▁پیل	-11.1117
▁عملء	-11.1117
▁نمونگ	-11.1119
▁کنڈے	-11.1121
تاریخ	-11.1123
▁general	-11.1126
لے	-11.1132
▁ڈب	-11.1134
▁کشکء	-11.1139
▁جتہ	-11.1141
▁گندگا	-11.1145
▁ارداد	-11.1145
▁سیدء	-11.1146
چوش	-11.1146
▁حرام	-11.1146
▁پروری	-11.1147
▁ھا	-11.1148
","","","","","	-11.1149
▁دریگتیں	-11.115
راج	-11.1151
▁Be	-11.1152
▁مکمل	-11.1153
▁میزائل	-11.1155
▁ریڈ	-11.1161
▁جگ	-11.1165
▁بشک	-11.1165
▁ڈال	-11.1165
▁third	-11.1166
▁ملاقات	-11.1168
▁شیہک	-11.1168
▁گراناز	-11.1176
ها	-11.1177
▁بیڑبرتگ	-11.1181
▁ایڈوکیٹ	-11.1182
▁سستگیں	-11.1182
شک	-11.1183
ist	-11.1184
▁موسمی	-11.1186
▁پجاروکی	-11.1187
▁open	-11.1189
راست	-11.1189
▁طالب	-11.1192
ید	-11.1199
گیش	-11.12
▁men	-11.12
▁نمب	-11.1201
▁یدار	-11.1202
▁بڑ	-11.1202
▁بیگواه	-11.1202
▁سرچمگ	-11.1204
▁bas	-11.1205
ہچ	-11.1206
▁نگار	-11.1211
▁ھیلی	-11.1211
ie	-11.1213
▁ھمگرنچیں	-11.1213
▁کارروائی	-11.1213
▁اقوام	-11.122
▁ھاش	-11.1221
▁بابو	-11.1226
▁شعوری	-11.1234
▁پشدر	-11.1235
▁الکاپیں	-11.1238
▁منیرء	-11.1241
▁تکلیف	-11.1243
▁نیاز	-11.1245
توار	-11.1253
▁کتار	-11.1254
▁نزان	-11.1256
▁مھراب	-11.1258
▁یاسر	-11.1259
▁اھان	-11.1265
▁اہمیں	-11.1267
▁ملنگ	-11.1269
▁عوام	-11.1269
▁پیسرگیں	-11.127
ارگ	-11.1271
▁سارتر	-11.1272
▁انگریزانی	-11.1274
▁ستکگیں	-11.1276
▁کون	-11.1278
▁بلاہ	-11.1279
▁قمبرانی	-11.128
▁games	-11.1281
▁school	-11.1286
▁نبوت	-11.1286
▁c	-11.1288
▁اجب	-11.1295
▁ھاموشی	-11.1298
▁previous	-11.1301
▁become	-11.1301
▁ٹکرء	-11.1301
▁وپسگ	-11.1301
▁کافر	-11.1304
▁پھناتاں	-11.1307
▁پولکار	-11.1308
▁حیالے	-11.1309
▁مھتر	-11.1311
▁ھرچیز	-11.1312
▁Nove	-11.1313
▁An	-11.1315
▁ثواب	-11.1318
▁چیخوف	-11.1329
▁نبشت	-11.1331
▁north	-11.1333
▁اجتماعی	-11.1334
▁پھازگ	-11.1342
▁اڑاند	-11.1351
باریں	-11.1356
▁جہمنند	-11.1356
▁بروبر	-11.1357
▁ہساب	-11.1363
تب	-11.1364
▁نزیر	-11.1364
▁سربوتگ	-11.1365
▁جگہ	-11.1366
▁بارت۔	-11.1369
▁سروکانی	-11.137
▁go	-11.1377
▁design	-11.138
▁شهر	-11.1384
▁ماندارگ	-11.1388
▁جنوکیں	-11.1389
▁الف	-11.1392
▁لاف	-11.1392
▁وزارت	-11.1392
▁سلطنت	-11.1395
▁ہمارے	-11.1395
▁دکی	-11.1398
▁موضوع	-11.1403
▁مڑاہ	-11.1403
▁ھبرء	-11.1403
▁پرش	-11.1405
شیر	-11.1406
▁اێر	-11.141
▁نتیجہ	-11.1411
▁دلجمیں	-11.1413
▁لشکرکشی	-11.1413
▁وڑےء	-11.1419
▁شب	-11.1422
▁شاریء	-11.1422
يں	-11.1423
▁گڈسرء	-11.1425
▁پیلوی	-11.1425
▁اھوالکارانی	-11.143
▁پریاتاں	-11.143
▁ترسناکیں	-11.1433
شریں	-11.1433
▁گہہ	-11.1437
انک	-11.1437
▁اوشتاتگیں	-11.1438
▁رکھ	-11.1438
مروچی	-11.1441
▁رومن	-11.1443
▁ھروھد	-11.1451
▁گہ	-11.1452
ژ	-11.1453
که	-11.1453
▁روژنا	-11.1454
▁باسکے	-11.1455
▁تبد	-11.1455
علم	-11.1458
▁گندیم	-11.1459
▁مزاج	-11.1461
▁شھراں	-11.1462
▁تھار	-11.1464
▁سلاھانی	-11.1465
▁جاپان	-11.1472
▁چدا	-11.1474
کان	-11.1478
▁پیماز	-11.1485
▁زوراور	-11.1489
▁پہریزگ	-11.1491
▁انگ	-11.1499
▁فراہم	-11.1499
▁ارزانیں	-11.1501
▁کوه	-11.1503
۔ھمے	-11.1508
▁االله	-11.1509
[	-11.1512
▁Dece	-11.1515
▁His	-11.1517
▁عنقا	-11.1519
▁وتاک	-11.152
▁ناجوڑی	-11.1524
▁تہنائی	-11.1525
▁غیرت	-11.153
▁حاص	-11.1531
▁ترینتگ	-11.1531
جست	-11.1533
▁مطالعہ	-11.1535
▁گردگ	-11.1536
مل	-11.154
▁پبلک	-11.1554
▁ایدگرانی	-11.1557
▁ھالے	-11.1557
▁ہاتر	-11.1561
▁چراغ	-11.1565
▁اتکہ	-11.1566
▁release	-11.1566
رگ	-11.1569
▁سھت	-11.157
▁Jul	-11.1573
▁سرہال	-11.1574
▁ھکل	-11.1575
▁سبق	-11.1576
▁افراد	-11.1578
▁باوری	-11.1579
▁ہمراہیء	-11.158
چشکہ	-11.1583
▁لہڑ	-11.1584
▁چارء	-11.1588
▁زمانگاں	-11.159
▁سرور	-11.1592
z	-11.1593
▁رھبندے	-11.1595
▁book	-11.1597
▁اپے	-11.1597
▁ابدال	-11.1609
▁major	-11.161
▁نبشتکار	-11.161
▁ادمانی	-11.1612
▁title	-11.1615
▁character	-11.1618
▁جانا	-11.1618
▁شپی	-11.1618
▁ده	-11.1622
▁زنڈ	-11.1622
▁south	-11.1623
فارسی	-11.1625
▁چارگی	-11.1626
رء	-11.1627
دیگ	-11.1629
▁یکمی	-11.1632
▁پیشگال	-11.1633
▁اصول	-11.1635
▁کرتی	-11.1635
▁جانب	-11.1648
▁نیاتک	-11.1651
▁develop	-11.1652
▁River	-11.1654
▁سجدہ	-11.1657
▁By	-11.1659
▁اند	-11.166
▁شیرانی	-11.1661
▁perform	-11.1661
▁just	-11.1664
▁جادو	-11.1667
▁ناما	-11.1667
▁جوریں	-11.1671
▁بلوچوں	-11.1672
▁ملامتی	-11.1672
▁وھدئے	-11.1672
▁اندوہ	-11.1677
▁دہمی	-11.168
▁گلباگ	-11.168
▁continu	-11.168
▁مارے	-11.1681
▁جتاھیں	-11.1682
▁پلی	-11.1685
▁سج	-11.1686
▁جدا	-11.1686
▁شہار	-11.1686
▁شاتکامی	-11.1688
▁وسیم	-11.1689
کنت۔	-11.1692
▁قریب	-11.1693
▁نین	-11.1694
▁بیغ۔	-11.1694
▁De	-11.1694
▁سپاھیگ	-11.1696
▁وپس	-11.1697
▁میتگانی	-11.1699
▁صنعتی	-11.17
▁روبرکتی	-11.1708
▁پرسی	-11.171
▁شوم	-11.171
▁ودارء	-11.171
انکہ	-11.1716
▁دس	-11.1717
▁تاوانے	-11.172
▁II	-11.172
▁فدائی	-11.1722
▁یونس	-11.1723
▁کورس	-11.1724
▁مضمون	-11.1726
ھال	-11.1727
▁شناخت	-11.1727
مار	-11.1733
▁شیدا	-11.1733
▁شہیدانی	-11.1733
▁City	-11.1734
▁کندگے	-11.1735
زمین	-11.1737
▁افریقہ	-11.1738
▁میاریگ	-11.1738
▁ضرور	-11.174
کوئٹہ	-11.174
▁ھیالداری	-11.174
▁زندانی	-11.1742
▁تباہی	-11.1742
▁مالوم	-11.1746
▁مرداں	-11.1747
▁شہرے	-11.1749
▁بچکندے	-11.1753
پمیشا	-11.1756
▁سمیر	-11.1758
▁سیف	-11.176
▁period	-11.1764
▁چارگا	-11.1768
کئے	-11.1769
▁شوکیں	-11.1769
▁گولہ	-11.177
▁تتک	-11.1776
▁پرنگی	-11.1778
▁حیا	-11.1778
▁جۆڑ	-11.1781
▁اغا	-11.1782
▁اسرے	-11.1782
▁رنگانی	-11.1784
▁چاگی	-11.1785
دپ	-11.1787
▁کرتیں	-11.1788
▁make	-11.179
▁بادشاه	-11.1791
▁buil	-11.1796
▁ملٹ	-11.1797
▁ھمت	-11.1797
▁اوشتیت	-11.1804
▁بوئگء	-11.1804
▁تند	-11.1807
▁water	-11.1807
▁ہواں	-11.1813
▁دربرتگ	-11.1813
▁سخت	-11.1813
▁گوشگء	-11.1814
▁امبر	-11.1814
▁مستاگ	-11.1815
▁پلنگ	-11.1821
▁ئنت	-11.1821
▁راھبندانی	-11.1823
▁کساں	-11.1824
▁حشکیں	-11.1824
▁باقاعدہ	-11.1828
▁ایراں	-11.1829
▁برتانیہ	-11.1829
▁نگر	-11.1832
سیمی	-11.1833
دنیا	-11.1841
لس	-11.1841
▁علاقے	-11.1846
▁باہوٹ	-11.1848
▁گیا۔	-11.1854
▁دراھگ	-11.1854
▁برت۔	-11.1854
▁ات۔اے	-11.1857
▁دژمناں	-11.1859
▁ملازم	-11.1862
▁پث	-11.1865
▁سیائیں	-11.1866
▁گوشتن	-11.1867
▁لیکہی	-11.1867
▁گوانزگ	-11.1871
▁best	-11.1874
▁بکن۔	-11.1875
▁month	-11.1876
▁When	-11.1876
▁۔چہ	-11.1877
▁لیاقت	-11.1878
▁All	-11.1879
▁h	-11.1883
چاگردی	-11.1884
▁رستر	-11.1887
▁شهید	-11.1887
▁publish	-11.1891
▁وڈھ	-11.1892
دین	-11.1892
▁version	-11.1893
راں	-11.1894
▁پیرزال	-11.1896
ness	-11.1898
▁تجربگ	-11.1898
▁سویڈن	-11.1899
▁رش	-11.1902
▁سلکاری	-11.1905
▁سندی	-11.191
▁گامے	-11.1911
▁بابل	-11.1911
▁شاھد	-11.1913
▁ڈنگ	-11.1915
▁نابود	-11.1917
▁اوستا	-11.1918
▁!!	-11.1918
▁اختلاف	-11.192
گین	-11.1924
حال	-11.1925
جنین	-11.1927
▁زن	-11.1928
▁بوتیں۔	-11.1932
▁ڪت	-11.1935
▁بستہ	-11.1936
▁دکانے	-11.194
▁استانی	-11.1941
▁کیشنز	-11.1943
▁کدیر	-11.1948
▁اتکگاں	-11.195
یش	-11.1951
▁پروجیکٹ	-11.1951
▁ماتانی	-11.1955
▁درہ	-11.1957
▁شکایت	-11.1958
کانی	-11.1959
▁local	-11.1964
▁نشتگاں	-11.1971
▁National	-11.1973
▁باوجود	-11.1973
▁برادری	-11.1973
سہ	-11.1977
▁چنڈے	-11.1978
مزن	-11.198
▁بلوچانء	-11.1981
▁عن	-11.1981
چیزے	-11.1982
▁ود	-11.1982
رانی	-11.1984
▁کبل	-11.1987
▁ناسر	-11.1989
نیم	-11.199
▁جاھمنند	-11.1992
▁یگ	-11.1992
▁جڑ	-11.1992
▁گالرد	-11.1993
▁شھیدی	-11.1994
▁گجر	-11.1995
▁اھدی	-11.1996
شن	-11.1997
الی	-11.1997
▁مزاری	-11.1998
▁واکاں	-11.2002
▁ھبراں	-11.2005
▁بارکھان	-11.2005
▁nam	-11.2006
▁طوفان	-11.2006
▁جنزء	-11.2013
▁چتگ	-11.2016
▁گولی	-11.2017
▁زرکاری	-11.2019
▁کاسگ	-11.202
▁بیلہ	-11.202
▁چکی	-11.2025
▁دربرجاہ	-11.2029
▁There	-11.2032
▁کلان	-11.2032
وئیں	-11.2032
▁بول	-11.2035
▁ھج	-11.2036
ern	-11.2037
▁2009	-11.2037
▁مدرسہ	-11.204
▁پدردی	-11.204
▁دوسد	-11.2046
▁درویش	-11.2049
کنوکیں	-11.205
▁رچ	-11.2052
▁2010	-11.2053
▁انت۔۔	-11.2055
▁پشین	-11.2055
▁مندر	-11.2059
▁کہتا	-11.2059
▁تحصیلدار	-11.2062
▁گا۔	-11.2064
▁رازی	-11.2066
▁گشتن	-11.2068
▁25	-11.2071
نان	-11.2072
▁پہلو	-11.2074
▁پنجگ	-11.2075
▁دلبر	-11.2078
▁مشکلیں	-11.2079
▁درصد	-11.208
وخ	-11.208
سو	-11.2082
▁تجارت	-11.2083
▁way	-11.2083
▁دیکھا	-11.2084
▁۔بلئے	-11.2085
اج	-11.2087
▁دیست۔	-11.2089
لوٹ	-11.2092
▁روگا	-11.2093
▁جھ	-11.2097
▁ناکام	-11.2101
▁تیراں	-11.2101
▁2008	-11.2102
▁جلسہ	-11.2105
▁اھی	-11.2109
نوک	-11.211
▁گلاس	-11.211
▁مولد	-11.211
▁گڈگ	-11.211
▁لیکہے	-11.2111
nd	-11.2112
▁واشک	-11.2113
▁ائر	-11.2115
▁واجہء	-11.2118
▁کنڈگ	-11.2119
▁اسٹیج	-11.212
▁وشیاں	-11.2127
▁بوھان	-11.2128
▁حالاں	-11.2132
▁جہاندپتر	-11.2135
▁جمہوری	-11.2136
▁کشا	-11.2136
ود	-11.2144
▁حاضر	-11.2149
ہا	-11.2149
▁ٹپانی	-11.215
ای	-11.2154
▁تواراں	-11.2156
▁ارجان	-11.2158
▁even	-11.216
▁جوزگ	-11.2167
▁جمپ	-11.2168
▁رحمان	-11.2171
▁کریں	-11.2173
▁بیتگاں	-11.2173
▁میانجی	-11.2177
▁الگ	-11.2177
گان	-11.2181
▁چری	-11.2185
▁side	-11.2186
▁حکومتی	-11.2187
▁ڈگاراں	-11.2188
▁کردانی	-11.219
▁ھالاں	-11.2192
▁کنغ۔	-11.2193
▁نیکراہ	-11.2193
▁گالریچ	-11.2194
▁وانان	-11.2198
مند	-11.2201
ھیال	-11.2202
▁تجزیہ	-11.2203
▁گساں	-11.2204
▁اگہی	-11.2205
▁گالی	-11.2209
▁جنے	-11.2215
شنگ	-11.2215
▁ابدمان	-11.2216
▁سیکریٹری	-11.2217
▁اگرچہ	-11.2218
▁شرین	-11.2223
گری	-11.2223
▁واپس	-11.2224
▁تنگی	-11.2224
▁ڈڈ	-11.2225
▁گریشگ	-11.2225
▁شتگ۔	-11.2226
▁سیاستدان	-11.2227
▁مستری	-11.2227
▁زہ	-11.2229
▁شھم	-11.223
▁محل	-11.2236
▁سوچن	-11.2236
▁نقطہ	-11.2237
▁public	-11.2241
▁ساوڑ	-11.2247
بدل	-11.2248
▁کروس	-11.2248
▁زراب	-11.2256
▁top	-11.2257
▁واھگے	-11.2259
▁ستار	-11.2261
▁مچکدگ	-11.2261
▁هو	-11.2262
▁سادہ	-11.2266
ابید	-11.2269
▁برواں	-11.2274
▁شیرکنی	-11.2275
▁مہکمیں	-11.2275
▁ٹوہیں	-11.2276
▁دیمے	-11.2277
▁اپاں	-11.2277
▁شنز	-11.2278
▁کاریز	-11.2278
▁شوہازگ	-11.228
▁ہمدردی	-11.2281
▁club	-11.2284
لٹ	-11.2284
▁مانگ	-11.2284
▁جھدے	-11.2287
▁بلین	-11.2289
▁حالات	-11.2291
▁اما	-11.2294
▁پرو	-11.2294
▁ریچگ	-11.2296
▁درکپگ	-11.2303
▁ڈولے	-11.2305
▁دینار	-11.2306
▁اژ	-11.2306
▁نفرت	-11.2312
▁J	-11.2313
▁ہردو	-11.2315
ایشانی	-11.2324
▁انتظامی	-11.2326
▁زانا	-11.233
▁راسک	-11.2333
▁اجبیں	-11.2334
▁الرحمان	-11.2334
کرتگ	-11.2335
▁ملام	-11.2335
▁سگار	-11.2335
▁سواس	-11.2335
▁باران	-11.2337
▁حبراں	-11.2338
▁شناس	-11.234
▁شنگکار	-11.2344
ou	-11.2346
▁اوکیں	-11.2351
لہ	-11.2353
▁گوشدار	-11.2357
▁اسودگ	-11.2358
جوڑ	-11.2361
▁To	-11.2362
▁اشکر	-11.2368
▁دیگا	-11.2369
▁کیونکہ	-11.2371
اتک	-11.2372
▁نما	-11.2372
▁مٹی	-11.238
پیر	-11.2381
▁بنڈ	-11.2384
▁ھسابء	-11.2385
▁اکسیجن	-11.2385
▁امکان	-11.2389
▁present	-11.2391
▁بوئگا	-11.2392
▁دماگ	-11.2393
▁جنگلے	-11.2395
▁لطیف	-11.2396
▁لٹک	-11.2397
‘‘,’’	-11.2398
▁زورگء	-11.2398
▁نپاد	-11.2399
▁لهتے	-11.2403
▁ٹاپ	-11.2403
▁گڈسرا	-11.2403
گون	-11.2408
▁لوٹیں	-11.241
ئن	-11.2411
▁شاھین	-11.2416
▁establish	-11.2417
▁ھرابیں	-11.2419
▁سین	-11.2419
▁بندن	-11.2424
▁کیل	-11.2427
▁رژنائیں	-11.2428
▁اساپ	-11.2428
▁ذاتء	-11.2431
▁سرگرمی	-11.2434
▁بداریت	-11.2435
▁بندان	-11.2435
▁دئیگء	-11.2439
▁حقیقی	-11.2439
▁جنیانی	-11.2445
▁یڪ	-11.2448
▁روئگ	-11.2448
▁دیوالانی	-11.2451
▁still	-11.2451
▁ایسوسی	-11.2453
▁گوشی	-11.2455
▁ھید	-11.2455
▁وانوکانی	-11.2458
نیمگ	-11.2458
▁پھلی	-11.2466
کریم	-11.2468
▁منگچر	-11.247
▁کامل	-11.247
▁وانندگیں	-11.247
▁دارء	-11.2472
▁ہانی	-11.2476
▁درائینت۔	-11.248
▁شادہ	-11.2482
▁کران	-11.2485
▁نفسی	-11.2487
▁کمزوری	-11.2496
▁زانگی	-11.2497
▁مردیں	-11.2499
▁پیداور	-11.2499
▁بئے۔	-11.2499
▁چیدگی	-11.2501
▁گمیگ	-11.2502
▁۔۔۔۔۔۔	-11.2504
▁کنئگی	-11.2505
کنان	-11.2507
برو	-11.2509
ism	-11.251
▁ھبدہ	-11.251
▁تھنائی	-11.251
▁امیتے	-11.2514
▁تبیں	-11.2514
▁ازیز	-11.2514
▁قال	-11.2519
▁پرتو	-11.2521
▁career	-11.2521
▁led	-11.2522
▁وانگا	-11.2527
▁کانون	-11.2529
▁ہمود	-11.2531
▁ھردوک	-11.2532
▁بلیک	-11.2533
▁history	-11.2537
▁کتہ۔	-11.2537
▁رمس	-11.2539
▁بتی	-11.2541
▁دلیری	-11.2543
▁سروز	-11.2545
▁ھردیں	-11.2548
▁لکیر	-11.2549
▁وسیں	-11.2551
▁دپا	-11.2553
▁common	-11.2554
▁کزا	-11.2554
▁اسپیکر	-11.2556
▁ورگی	-11.2557
▁ماسء	-11.2561
▁دیستگیں	-11.2562
▁اسرار	-11.2562
▁قیمتی	-11.2568
▁لڈگ	-11.2568
▁گشیت۔	-11.257
▁پیس	-11.2574
▁گوئر	-11.2574
▁جود	-11.2574
▁نازرک	-11.2581
▁رمزان	-11.2586
▁یوک	-11.2589
▁پاداتک	-11.2593
▁واتری	-11.2595
▁اکسے	-11.2595
▁بیت۔۔۔	-11.2597
▁مہلہ	-11.2598
▁کلیت	-11.2599
درد	-11.26
کیچ	-11.2602
▁اعتبار	-11.2604
▁انار	-11.2605
▁feature	-11.2605
▁old	-11.2608
▁ایشن	-11.2608
▁ادراک	-11.261
▁ایدگراں	-11.2611
▁زندگاں	-11.2613
▁شاگرد	-11.2613
▁رودراتک	-11.2617
▁زمیندار	-11.2619
▁بیس	-11.2619
▁طاہر	-11.262
uent	-11.2623
▁دوستیگیں	-11.2623
مال	-11.2623
▁غصہ	-11.2623
▁زنداناں	-11.2626
▁قومء	-11.2626
▁وتکش	-11.2627
▁پوریاگر	-11.2627
▁اریپیں	-11.2628
▁چکار	-11.2629
▁لہڑگ	-11.2635
▁گنجائش	-11.2638
▁ابدل	-11.2638
▁دربر	-11.264
▁گوہار	-11.264
▁لوڈ	-11.264
▁ایردست	-11.2642
▁اسٹیٹس	-11.2643
▁دھ	-11.2643
یار	-11.2644
وف	-11.2644
▁ظالم	-11.2645
▁اگے	-11.2645
▁زباد	-11.2649
ہند	-11.2654
▁پات	-11.2654
▁حاجت	-11.2655
▁ھجبر	-11.2659
▁شائرانی	-11.2659
▁وڑی	-11.2661
▁ڈھاڈر	-11.2662
▁جاگه	-11.2663
ڈو	-11.2666
▁کڈ	-11.2666
چوکہ	-11.2666
▁سرینت	-11.2667
▁گزار	-11.2673
▁سکھت	-11.2673
▁often	-11.2675
▁منشیات	-11.2676
کیت	-11.2676
▁سھیگ	-11.2681
▁For	-11.2682
▁100	-11.2683
▁تگرانی	-11.2684
▁زا	-11.2685
▁انہ	-11.2687
▁برنج	-11.2691
▁بلۆچانی	-11.2694
▁زیک	-11.2698
by	-11.2699
▁دارنت	-11.27
...............	-11.2701
▁سربوت	-11.2705
▁شریدار	-11.2705
سرا	-11.2706
▁مغل	-11.2706
▁site	-11.2707
▁کنائین	-11.2708
شعر	-11.2709
ch	-11.2711
▁پرکار	-11.2714
▁گشیں	-11.2715
▁شئیری	-11.2717
▁رسینت	-11.2722
▁کڈک	-11.2723
▁عبد	-11.2725
▁تہران	-11.2728
▁ورزی	-11.2728
▁واناں	-11.2729
▁اسسٹنٹ	-11.273
▁سلسلہ	-11.273
▁بیگل	-11.273
▁ویکسین	-11.2731
▁تھیوری	-11.2734
▁کرتاں	-11.2734
▁سجہیں	-11.2734
▁سھرا	-11.2736
▁دزاپ	-11.2736
▁پانگ	-11.2739
▁بحت	-11.2741
گوشگ	-11.2742
اتاں	-11.2742
▁وشتر	-11.2744
▁برگء	-11.2746
▁بکننت	-11.2747
پشت	-11.2747
ماھتاک	-11.2747
▁دشتار	-11.275
وڑ	-11.2755
▁لاپء	-11.2755
▁ھدایت	-11.2758
▁موش	-11.2759
▁اسرمند	-11.2759
▁ھاسٹل	-11.2761
▁منظر	-11.2762
▁پنچیں	-11.2764
▁دوبارہ	-11.2765
▁چتو	-11.2766
▁اک	-11.2767
▁سکتا	-11.2767
▁سرکنگ	-11.2768
▁ڈور	-11.2774
▁رویں	-11.2775
ڑو	-11.2777
▁شادء	-11.2778
ران	-11.2778
▁بیتاں	-11.2785
▁تاس	-11.2786
▁درکپ	-11.2787
▁مارکسی	-11.2796
▁جمب	-11.2798
▁ھلکء	-11.28
▁شاہد	-11.2804
▁نثر	-11.2806
▁رئیسانی	-11.2811
▁گشتے	-11.2812
▁help	-11.2814
▁few	-11.2814
ٹو	-11.2815
▁رج	-11.2819
▁دوستانی	-11.2821
▁ایات	-11.2821
▁کرکٹ	-11.2822
▁بنداتء	-11.2823
▁باث	-11.2827
▁درنیامء	-11.283
▁کسہے	-11.283
company	-11.2831
▁One	-11.2844
▁list	-11.2845
▁جرنیل	-11.2845
▁فل	-11.2846
▁لوغ	-11.2847
▁ہاؤس	-11.2847
▁سلیں	-11.2849
▁رائے	-11.2849
▁ٹوئٹر	-11.285
▁میرا	-11.2854
▁جرگہ	-11.2854
کدی	-11.2855
یان	-11.2858
▁نئی	-11.2859
▁جلیل	-11.286
▁زانتے	-11.286
▁اخبار	-11.2866
▁next	-11.2866
▁2007	-11.2866
▁داکٹر	-11.2866
▁طاقتور	-11.2869
▁کارئے	-11.2869
▁دیش	-11.2872
▁زاهدان	-11.2872
▁دیرء	-11.2873
گیشتر	-11.2875
▁شاعریئ	-11.288
جہ	-11.288
▁ہمیں	-11.2883
▁arm	-11.2884
▁دامگ	-11.2885
▁ائولی	-11.2886
▁گشگء	-11.2887
▁انو	-11.2887
▁رھبنداں	-11.289
▁ھیک	-11.289
▁کینگی	-11.2892
▁دستور	-11.2893
▁کدرت	-11.2895
▁کنین	-11.2896
▁لگور	-11.29
▁پمے	-11.29
▁دھا	-11.2901
▁بم	-11.2902
گوات	-11.2903
▁لائک	-11.2904
▁فوجء	-11.291
لگ	-11.2911
▁اجوئیں	-11.2913
یس	-11.2915
سیاسی	-11.2916
▁چرت	-11.2919
▁وومن	-11.292
▁دومیگ	-11.2921
▁ھاجی	-11.2923
دری	-11.2923
▁لوڑ	-11.2926
▁کافکا	-11.2926
▁دودمانی	-11.2926
▁شریء	-11.2927
گش	-11.2935
▁بگندات	-11.2936
▁ھرابی	-11.2937
▁بریگیڈ	-11.2937
▁English	-11.2937
▁وتیگ	-11.2939
▁حالتاک	-11.2939
▁مخلوق	-11.2939
▁بیرگ	-11.294
▁building	-11.2941
▁مہم	-11.2943
ئین	-11.2946
زہ	-11.295
▁اجکہ	-11.295
▁مھرنگ	-11.295
مبارک	-11.2951
▁مادر	-11.2952
▁ھاوند	-11.2952
▁انتظار	-11.2953
▁بیمناکیں	-11.2955
▁کوھنگیں	-11.296
▁حرف	-11.2961
▁نگرانی	-11.2962
پچ	-11.2965
▁مگ	-11.2966
▁سدک	-11.2968
▁یاسین	-11.2968
▁ھبکہ	-11.2971
▁ٹکے	-11.2971
▁French	-11.2973
لیں	-11.2973
▁تہرء	-11.2977
▁ہڈ	-11.2979
▁بادشاھی	-11.298
▁کٹگ	-11.2981
▁man	-11.2985
▁پکری	-11.2986
▁دیستگ۔	-11.299
▁درھیں	-11.2991
▁similar	-11.2991
▁عیسائی	-11.2993
نیست	-11.2993
▁پانچ	-11.2995
شتگ	-11.2995
▁درستی	-11.2997
▁fire	-11.3001
▁دانا	-11.3002
▁درپ	-11.3003
▁دیکھ	-11.3008
ھان	-11.301
جت	-11.3012
▁بروبری	-11.3012
فی	-11.3013
غی	-11.3014
??	-11.3016
▁بساک	-11.3022
▁جھدء	-11.3022
▁رنگےء	-11.3025
▁بارہء	-11.3028
▁pass	-11.3028
▁نصیحت	-11.303
▁right	-11.3031
▁نئیت۔	-11.3031
▁ھانل	-11.3031
▁خلیج	-11.3031
▁وفات	-11.3033
▁برزا	-11.3034
▁یلیں	-11.3035
▁متعلق	-11.3037
▁مرچیگ	-11.3044
سرجمیں	-11.3046
▁حدے	-11.3052
▁جال	-11.3052
▁لالہ	-11.3056
▁سوزیں	-11.3064
▁بعض	-11.3065
▁مہار	-11.3073
▁کبزہ	-11.3082
▁پشمبے	-11.3083
▁واکی	-11.3085
▁پگ	-11.3085
▁دروشماں	-11.3092
▁ساحلی	-11.3094
▁گوشتہ	-11.3095
یز	-11.3097
غا	-11.3099
فر	-11.3101
▁اشکار	-11.3101
▁ہچی	-11.3103
▁رہشوناں	-11.3106
▁دوراں	-11.3111
▁درملک	-11.3112
▁تلب	-11.3112
▁ھاکمی	-11.3113
▁سیوی	-11.3114
▁دریائی	-11.3116
▁چولانی	-11.3118
▁حامد	-11.3122
▁ردیت	-11.3125
پور	-11.3127
راستی	-11.3128
▁عاقل	-11.313
▁گلا	-11.3131
▁تاپ	-11.3135
اتگ	-11.3137
▁ٹٹ	-11.314
▁عاقبت	-11.3142
▁اثار	-11.3143
▁سلاح	-11.3144
ایوک	-11.3145
لک	-11.3147
▁رپتار	-11.3147
▁پیتی	-11.3149
▁power	-11.3151
▁کورے	-11.3152
▁ملگ	-11.3153
▁claim	-11.3153
▁دباؤ	-11.3153
▁دئیان	-11.3154
▁produc	-11.3154
▁مرادانی	-11.3155
▁وانین	-11.3156
▁اکثر	-11.3157
▁عامر	-11.3158
▁شیک	-11.3158
▁گوشانی	-11.3158
held	-11.3165
▁موٹل	-11.3166
▁انچین	-11.3166
▁قصہانی	-11.3166
▁رفتار	-11.3171
▁سرئے	-11.3171
▁ارگء	-11.3177
▁محبوبہ	-11.318
▁کھڈ	-11.318
▁دانش	-11.3181
▁ٹرانسپورٹ	-11.3181
▁حالی	-11.3182
ar	-11.3183
▁کنر	-11.3184
▁اسلء	-11.3187
▁تہرانی	-11.3193
▁مہے	-11.3193
سنگ	-11.3194
▁ھاٹیگ	-11.3197
▁came	-11.3199
▁جیڑھ	-11.3201
▁لانگو	-11.3203
▁بێگواه	-11.3204
▁لنجیں	-11.3207
▁کسہء	-11.3208
▁جاورال	-11.3209
▁روچان	-11.3215
▁ایردستی	-11.3217
▁دیوتا	-11.322
بنی	-11.3221
▁مئیگ	-11.3221
▁turn	-11.3222
▁With	-11.3227
▁کمانڈر	-11.3229
▁یورپء	-11.323
▁پھریزگ	-11.3232
▁پہناتانی	-11.3234
▁کاکڑ	-11.324
▁سماج	-11.3243
▁نپر	-11.3244
▁ھالو	-11.3244
▁سریگ	-11.3244
▁تھسیل	-11.3244
▁ارگنائزیشن	-11.3244
▁بیستمی	-11.3245
▁جلدی	-11.3245
▁برطانیا	-11.3245
▁نێست	-11.3248
▁حالء	-11.3249
▁چارشمبے	-11.3249
▁بالکل	-11.3253
▁writ	-11.3254
▁کسہی	-11.3258
▁رحمن	-11.3258
▁کوریا	-11.326
▁بکرتیں	-11.326
▁نانکہ	-11.3262
▁seven	-11.3263
▁اوتھل	-11.3263
▁هون	-11.3267
▁کدر	-11.3269
▁نرمی	-11.3269
▁سندء	-11.3271
▁ادماں	-11.3271
ڈن	-11.3272
▁رتکگ	-11.3274
▁بندہ	-11.3275
▁لم	-11.3279
▁نسیر	-11.3284
▁پردگ	-11.3285
▁امب	-11.3289
▁چارئے	-11.329
▁باپ	-11.3291
▁دوستے	-11.3292
▁ماری	-11.3293
▁سدلی	-11.3295
▁دژمنانی	-11.3297
▁you	-11.3298
▁level	-11.3299
▁جاہمنند	-11.33
▁تصویر	-11.33
▁مسجد	-11.3303
▁تبے	-11.3306
▁ڈیھاں	-11.3308
▁per	-11.3308
▁نیلیں	-11.331
▁رچگ	-11.331
▁واقعات	-11.3312
▁ھچی	-11.3316
▁رکگ	-11.3318
▁متھدہ	-11.3319
▁سنگھ	-11.3321
▁مزارء	-11.3321
▁جما	-11.3321
ؤں	-11.3323
▁پیغمبر	-11.3323
▁کارجاہ	-11.3325
▁اتا	-11.3331
▁ژ	-11.3337
ازات	-11.3339
▁half	-11.334
▁وانگجاھاں	-11.334
3	-11.334
▁سوڑگ	-11.334
▁عبدالصمد	-11.3341
▁ھورک	-11.3348
▁زہم	-11.3349
▁پهک	-11.3352
▁رھشوناں	-11.3353
▁بیک	-11.3353
▁زالے	-11.3357
▁تشے	-11.3358
▁مھروانیں	-11.3362
▁دیوانگ	-11.3364
▁چاروک	-11.3369
▁ببیت۔	-11.3369
▁ات۔بلے	-11.3371
▁جوزہ	-11.3372
۔منی	-11.3376
▁میوزک	-11.3377
▁پہلوان	-11.3378
▁ینگ	-11.3378
▁تریاک	-11.3378
▁ھمراھداری	-11.3379
▁درین	-11.3379
مین	-11.3379
▁درتکگ	-11.338
▁کپگء	-11.338
▁گرنت	-11.338
▁songs	-11.3385
▁کہدہ	-11.3391
▁Division	-11.3392
▁نیب	-11.3394
▁ہمیشانی	-11.3395
▁former	-11.3397
▁ٹور	-11.3399
▁نگیگی	-11.3401
▁گردان	-11.3404
▁ولے	-11.3404
▁contain	-11.3406
وھد	-11.3406
▁لوگواجہ	-11.3407
▁بوتگانت	-11.3407
▁هیال	-11.3408
▁یکوئی	-11.341
▁زمانے	-11.3411
▁گاڈی	-11.3411
▁ھاندان	-11.3415
▁سلاہاں	-11.3418
▁داوا	-11.3418
▁رجینتگیں	-11.3421
▁ایٹم	-11.3422
▁وفاقی	-11.3422
▁نئیں	-11.3424
▁جنوزام	-11.3424
گوادر	-11.3426
▁دئینت۔	-11.3429
spite	-11.3429
▁تحصیل	-11.343
▁حاطرا	-11.3433
مست	-11.3434
▁جنجالے	-11.3434
▁صنف	-11.3436
▁زتک	-11.3438
▁ادارانی	-11.3438
▁زالم	-11.3439
▁کچل	-11.344
▁بچارئے	-11.3441
▁though	-11.3441
▁State	-11.3443
▁للہ	-11.3444
▁سرئ	-11.3447
▁among	-11.3448
▁total	-11.3448
▁اورماڑہ	-11.345
▁ھؤ	-11.3453
▁رجینتگ	-11.3453
▁مناسب	-11.3457
▁ٹیچر	-11.3458
▁شتگیں	-11.3459
▁واراں	-11.346
شاد	-11.3462
دیوان	-11.3464
▁مسکیں	-11.3466
▁حج	-11.3466
▁الکاپ	-11.3467
▁مذھب	-11.3468
▁برطانوی	-11.3469
▁سرفراز	-11.3469
رس	-11.3471
▁بمبے	-11.3471
▁Re	-11.3473
▁full	-11.3474
▁منطق	-11.3475
▁قبائل	-11.3477
یلہ	-11.348
▁حسنی	-11.3485
▁church	-11.3485
▁کیپ	-11.3486
▁پدرد	-11.3488
چیا	-11.3489
▁اسرا	-11.349
پمشکہ	-11.3493
ھدا	-11.3493
▁حس	-11.3496
▁ترونگل	-11.3502
▁شف	-11.3504
▁چمء	-11.3508
▁دینے	-11.351
▁ترسگ	-11.3511
▁امداد	-11.3513
▁رجانکی	-11.3513
▁شہہ	-11.3513
▁سدو	-11.3515
▁ضد	-11.3518
▁هلاس	-11.3518
▁عاصم	-11.3519
▁سیرء	-11.3519
▁گرء	-11.3519
▁want	-11.3525
▁قبل	-11.3527
▁دلوتانی	-11.3528
▁درو	-11.3529
ھوں	-11.3531
▁تنا	-11.3532
▁field	-11.3533
▁ھئور	-11.3533
▁دپترء	-11.3538
▁ارپ	-11.3541
▁ساچشتانی	-11.3542
▁شعیب	-11.3542
▁جبکہ	-11.3543
▁مسیح	-11.3543
▁المیہ	-11.3544
باں	-11.3545
▁شہراں	-11.3546
▁مادہ	-11.3547
▁پرویز	-11.3547
▁کنگے	-11.355
▁اندام	-11.355
▁جج	-11.355
اریں	-11.3555
▁اربی	-11.3557
▁بلوٹ	-11.3559
▁جملہ	-11.356
▁دیدگانی	-11.3567
▁گندے	-11.3567
▁شمال	-11.3571
▁تحریر	-11.3577
▁وارتگیں	-11.3581
▁گندی	-11.3585
جنک	-11.3588
ether	-11.3589
▁قہر	-11.3594
▁ازاب	-11.3597
▁production	-11.3599
▁روحانی	-11.36
▁امیتانی	-11.3602
ous	-11.3602
ين	-11.3606
▁ھرکسی	-11.3606
کٹ	-11.361
▁چیزئے	-11.3613
▁کشگا	-11.3617
▁پشاور	-11.3619
▁ثناء	-11.3619
▁الحق	-11.3621
▁حسابء	-11.3622
▁مجن	-11.3626
تن	-11.3628
▁دیئگ	-11.363
▁زو	-11.363
▁محبوب	-11.3631
▁مچھ	-11.3634
▁شرک	-11.3634
▁پراموش	-11.364
▁ي	-11.364
ical	-11.3642
چیاکہ	-11.3643
ی۔	-11.3643
▁زرتگیں	-11.3647
▁suggest	-11.3648
▁جبری	-11.3652
ایے	-11.3653
▁محتاج	-11.3655
▁population	-11.3656
▁پادء	-11.3656
▁ملائی	-11.3657
▁ریکوڈک	-11.3657
▁حالکار	-11.3658
▁سچ	-11.3658
▁پوری	-11.3663
▁مہربان	-11.3663
▁ماحولیاتی	-11.3665
ئنت	-11.3671
▁ابی	-11.3671
انچیں	-11.3672
▁review	-11.3672
▁بالاں	-11.3675
▁اپانی	-11.3677
ایں	-11.3678
▁قبرستان	-11.368
▁چنال	-11.3683
▁اسرائیلی	-11.3687
▁یلو	-11.3688
▁جہلانکی	-11.369
▁اچار	-11.3691
▁شاہوانی	-11.3693
▁بمبگواری	-11.3695
▁نوید	-11.3696
▁قاتل	-11.3698
▁تریت	-11.37
▁گنتر	-11.3701
گند	-11.3703
▁لنک	-11.3707
▁گیران	-11.3707
▁نوخیں	-11.3711
▁درنگاز	-11.3712
▁ڈیوٹی	-11.3714
▁زردء	-11.3715
▁مسائل	-11.3716
▁اوانء	-11.3716
▁انجام	-11.3719
▁نشت۔	-11.372
▁پادان	-11.372
▁کندان	-11.372
ہانی	-11.3723
▁اوشتوکیں	-11.3727
▁سینیٹر	-11.3727
▁چونکہ	-11.373
▁further	-11.3733
▁ایئر	-11.3733
▁نیلگ	-11.3734
▁خانگ	-11.3734
▁میک	-11.3737
▁تراکانی	-11.3739
▁تماہ	-11.3739
▁پیرمرد	-11.3741
▁چارئگ	-11.3749
▁اث	-11.3749
▁2011	-11.3752
▁بارڈر	-11.3753
▁ازمانکاری	-11.3754
▁جناح	-11.3754
▁ہاسٹل	-11.3756
▁سباہ	-11.3759
▁ابدی	-11.376
▁مستیں	-11.3763
▁پچے	-11.3764
▁بلوچان	-11.3765
▁اسم	-11.378
▁اولسر	-11.3783
▁different	-11.3783
▁گواہی	-11.3784
▁نباں	-11.3785
▁نوشتانک	-11.3785
▁نوداں	-11.3788
▁چھو	-11.3788
▁کلاتء	-11.3789
▁سپا	-11.379
▁بندرء	-11.379
▁ببا	-11.379
▁ڈسٹرکٹ	-11.3791
▁لسانی	-11.3791
▁مارات	-11.3792
▁مکر	-11.3792
▁سائٹ	-11.3792
▁add	-11.3792
▁ٹیک	-11.3793
▁جنکیں	-11.3797
▁اپسوز	-11.3801
▁وحید	-11.3806
ٹا	-11.3807
چل	-11.3807
▁نزدیک	-11.3815
▁سدی	-11.3815
▁مشینری	-11.3815
▁ششتگ	-11.3827
پاد	-11.3828
▁چانگ	-11.3828
ارش	-11.3829
▁According	-11.3829
▁2006	-11.3829
▁نجیب	-11.3831
▁۔یک	-11.3834
کارے	-11.3834
▁منزلء	-11.3838
▁بها	-11.3839
▁منزلے	-11.3844
▁track	-11.3844
▁داؤد	-11.3847
▁گرا	-11.3849
▁Church	-11.3849
▁رکھا	-11.3849
الم	-11.385
▁راجکاری	-11.385
▁strong	-11.3851
▁close	-11.3851
▁نادراہجاہ	-11.3855
▁change	-11.3855
▁باند	-11.3857
▁اوور	-11.3858
▁سحر	-11.3859
▁کارکنوکیں	-11.3862
▁run	-11.3863
زاناں	-11.3865
ده	-11.3868
▁مجیب	-11.3873
▁بدواہ	-11.388
▁اگبالانی	-11.3882
▁طبی	-11.3885
▁لیکہاں	-11.3885
بتل	-11.3886
▁خط	-11.3888
▁تواریں	-11.3889
▁گروہ	-11.3889
بان	-11.389
▁زیم	-11.3893
▁ہورء	-11.39
گشگ	-11.3902
▁دیتے	-11.3902
▁ٹکٹ	-11.3903
زان	-11.3904
▁ٹولیانی	-11.3904
▁کنانء	-11.3905
▁ابوبکر	-11.3909
▁جہلیں	-11.3915
▁جنینء	-11.3915
▁لد	-11.3916
ایی	-11.3919
▁باپار	-11.392
▁دانی	-11.392
▁دمبرتگ	-11.392
▁قاصد	-11.3923
▁گونگ	-11.3932
▁days	-11.3933
▁کلہ	-11.3938
▁روشنی	-11.3938
▁قمبر	-11.394
▁روء	-11.3942
گوستگیں	-11.3944
▁نفر	-11.3944
▁بنگلزئی	-11.3947
▁militar	-11.3947
▁عبدال	-11.3948
جر	-11.3951
▁عنہ	-11.3953
▁بگٹیء	-11.3959
▁کماشاں	-11.396
▁میرین	-11.3961
سری	-11.3961
▁ھورکیں	-11.3965
▁ویروس	-11.3967
▁بائی	-11.3968
▁فلسطین	-11.3971
▁شئرانی	-11.3974
▁ڈاکٹرء	-11.3975
▁مرگی	-11.3976
▁شاباش	-11.3979
▁مانزمان	-11.3981
▁سوشلسٹ	-11.3984
▁اشارگ	-11.3985
استاد	-11.3986
▁official	-11.3986
▁particular	-11.3986
▁بوتگ۔اے	-11.3988
▁گوریچ	-11.3989
▁اناگاہ	-11.3991
▁ندارگاں	-11.3996
▁پارست	-11.3998
▁گزران	-11.4004
▁وابیں	-11.4004
▁سماء	-11.4005
▁پاہو	-11.4005
▁جھلی	-11.4006
▁نامینگ	-11.4008
ant	-11.4009
▁شفیع	-11.401
▁ئیء	-11.4012
▁توشگ	-11.4013
▁رھشونانی	-11.4013
▁ترز	-11.4014
▁ولد	-11.4016
▁دستبندی	-11.4019
لبزانکی	-11.4021
▁ازمانکء	-11.4026
▁تعداد	-11.4029
▁گمراہ	-11.403
▁رخ	-11.403
▁بامنء	-11.4032
▁کرنء	-11.4039
▁سنگینی	-11.4039
پان	-11.404
وانگ	-11.404
▁رہشونی	-11.4041
پنچ	-11.4042
▁سوتکگ	-11.4043
دیر	-11.4043
▁ساھدار	-11.4047
▁ھرجاہ	-11.4049
▁بودناکی	-11.4051
▁بناربس	-11.4052
▁کال	-11.4053
▁ورنائے	-11.4063
▁بھیسہ	-11.4065
▁ات۔۔	-11.4074
▁موم	-11.4076
▁ماپ	-11.4077
ودی	-11.4078
▁بشام	-11.4082
▁ٹریفک	-11.4085
▁human	-11.4085
▁برگی	-11.4087
▁تہل	-11.4087
▁درمانی	-11.409
▁رکینت	-11.4091
▁ٹیل	-11.4091
▁هک	-11.4092
▁باشد	-11.4093
▁حیرانی	-11.4098
▁تیری	-11.41
▁پگرے	-11.4104
▁تگرد	-11.4105
▁روچتاک	-11.4106
▁کدہ	-11.4108
▁درستان	-11.4111
▁رسائی	-11.4111
ley	-11.4112
▁ریز	-11.4112
▁یاداشت	-11.4113
▁بندگی	-11.4114
▁مارت	-11.4115
▁scor	-11.4116
▁منہ	-11.4117
▁دئیگی	-11.4118
▁پہناتاں	-11.412
▁نشتاں	-11.4125
▁مھم	-11.4127
▁عبدالمالک	-11.4127
▁سرداراں	-11.4131
▁ورناھانی	-11.4131
▁مهلوک	-11.4133
▁گیریں	-11.4134
دوئیں	-11.4137
▁نزانتگ	-11.4138
▁مانش	-11.4138
سور	-11.4138
▁دزبمب	-11.4142
▁تنیگ	-11.4144
▁واہگانی	-11.4144
▁کارگال	-11.4147
▁ہندء	-11.4149
▁انگلش	-11.4149
▁unit	-11.4152
▁دامنء	-11.4154
▁ہزارانی	-11.4155
ساحر	-11.4158
سار	-11.4159
میان	-11.4159
بری	-11.4162
▁دیبا	-11.4162
▁جانور	-11.4162
▁انساناں	-11.4163
▁گدانی	-11.4163
▁فارس	-11.4164
▁گیشینت	-11.4164
▁League	-11.4165
▁every	-11.4169
▁):	-11.4169
▁ہمیشہ	-11.417
▁وادی	-11.4171
▁گوشتانک	-11.4173
▁عیش	-11.4173
ناک	-11.4173
▁لاشے	-11.4177
تین	-11.4178
▁امانت	-11.4182
▁بجنت	-11.4183
▁دکاندار	-11.4184
▁سخی	-11.4184
▁فورم	-11.4184
▁پہنچ	-11.4185
▁increase	-11.4185
▁ورزش	-11.4185
▁ریگستان	-11.4188
▁کیشن	-11.4189
▁ملار	-11.4192
▁خیرات	-11.4193
▁شه	-11.4195
▁پیکر	-11.4198
▁وتکاریں	-11.42
▁فہم	-11.4202
N	-11.4202
▁گریبی	-11.4203
۔ائی	-11.4203
▁control	-11.4207
▁رائٹس	-11.4208
▁دنیائی	-11.4208
▁ہورت	-11.421
▁مجاں	-11.4213
▁ترسناک	-11.4216
▁تضاد	-11.4217
:’’	-11.422
▁اتھارٹی	-11.4226
▁اسٹریلیا	-11.4227
▁السلام	-11.4233
▁شدکش	-11.4234
▁real	-11.4238
▁گورے	-11.4238
▁عادل	-11.4241
▁ہردیں	-11.4242
▁عیسی	-11.4248
▁مراں	-11.4248
▁زورگری	-11.4249
▁سھریں	-11.4253
▁کچھی	-11.4254
▁چریشیء	-11.4254
▁چلی	-11.4255
▁دورانی	-11.4255
▁یمن	-11.4257
▁باطن	-11.4258
مدام	-11.4261
▁نشار	-11.4264
▁ناسرپد	-11.4264
ھمک	-11.4265
▁کؤر	-11.4267
▁گنبد	-11.4267
▁عملے	-11.427
▁واریاں	-11.427
▁جنکء	-11.4272
▁گێشتر	-11.4272
▁مڈیاں	-11.4273
ڑا	-11.4275
▁صلاحیت	-11.4277
▁مکرانء	-11.4281
▁استالاں	-11.4282
▁دروگے	-11.4282
ebru	-11.4284
▁استین	-11.4284
▁لوک	-11.4285
▁ردان	-11.4286
▁لیس	-11.4286
▁ازیت	-11.4289
▁بوته	-11.4292
ian	-11.4293
▁چندن	-11.4298
▁تؤ	-11.4298
▁مع	-11.43
▁service	-11.4307
▁میڑہ	-11.4308
▁finish	-11.4308
▁جمڑی	-11.4309
▁ڈاک	-11.4312
▁کرنچ	-11.4313
▁caus	-11.4316
ance	-11.4318
▁سامراج	-11.4319
▁وٹ	-11.432
▁مہراں	-11.432
▁we	-11.4321
▁۔منی	-11.4323
▁شہدگ	-11.4325
ٹن	-11.4328
▁لرزگ	-11.4329
▁story	-11.433
▁گنت	-11.4331
▁کامیو	-11.4332
▁پھنات	-11.4332
▁ڈر	-11.4333
▁kill	-11.4335
▁رام	-11.4338
▁گولے	-11.4341
▁انچ	-11.4341
▁ٹن	-11.4342
▁سرو	-11.4346
▁کوچگی	-11.4346
▁ذ	-11.4347
کھ	-11.4348
gave	-11.4349
▁اسٹال	-11.4354
▁کارپد	-11.4355
ایران	-11.4355
▁دمگدار	-11.4357
سرپد	-11.4359
▁ایی	-11.436
▁شاھو	-11.4361
▁جیڑھاں	-11.4361
بیل	-11.4366
▁ایگی	-11.4367
▁ماہے	-11.4367
▁defeat	-11.4368
▁project	-11.4368
▁ڈاؤن	-11.4369
▁محکمیں	-11.4372
▁ناجوڑ	-11.4372
اسلام	-11.4373
▁ترانگاں	-11.4374
▁پرمات	-11.4376
▁دلکش	-11.4377
▁چندر	-11.4381
▁شیری	-11.4383
▁ملکا	-11.4385
▁معتبر	-11.4386
▁ماناء	-11.4386
▁کری	-11.4387
▁کنوکے	-11.4388
▁کراس	-11.4388
▁زرانی	-11.4389
▁‘‘(	-11.4389
▁چہرء	-11.4392
▁بادگیر	-11.4392
▁بلیدی	-11.4392
▁گنوکیں	-11.4393
▁چلگ	-11.4398
▁معنایے	-11.4398
▁بوتگنت۔	-11.44
▁تکہ	-11.4401
▁دارانت	-11.4402
▁مہرک	-11.4404
▁مولم	-11.4404
▁سامی	-11.4405
stead	-11.4408
▁Song	-11.4408
▁بیئگ	-11.4409
▁Dylan	-11.4409
▁ٹپاں	-11.4411
▁بیگی	-11.4416
▁دردناکیں	-11.442
▁reported	-11.442
▁cover	-11.4427
▁ٹائم	-11.4432
▁بوتوں	-11.4432
▁دروغ	-11.4433
▁.....	-11.4436
▁شکلیں	-11.4442
▁شادان	-11.4443
▁دستونکئ	-11.4444
▁پیرس	-11.445
▁بنگال	-11.4451
▁گفتار	-11.4453
▁بیگہ	-11.4453
▁ھیرو	-11.4459
▁کلاسیک	-11.446
▁دف	-11.446
▁چنانچہ	-11.446
▁درچکاں	-11.4462
▁کامران	-11.4463
▁21	-11.4464
▁استادے	-11.4464
▁اداراں	-11.4464
▁اومر	-11.4466
▁جسے	-11.4466
▁گالوارے	-11.4467
▁مولا	-11.4469
▁صوت	-11.447
▁حفاظت	-11.447
▁علاقوں	-11.4472
▁نئیل	-11.4475
▁بندیک	-11.4476
▁منظم	-11.4476
▁جمھوری	-11.4477
▁کنت۔۔۔	-11.448
▁land	-11.4482
ئر	-11.4483
▁تاکء	-11.4487
▁کوہاں	-11.4488
▁گرے	-11.449
▁جندے	-11.449
▁بیثہ	-11.4495
▁بیائے	-11.4497
▁بنام	-11.4497
۔۔۔۔۔۔۔	-11.4501
▁دلجان	-11.4502
▁مرتگ۔	-11.4504
▁east	-11.4506
▁وارڈ	-11.4507
▁موسمء	-11.4507
▁جیڑہاں	-11.4508
▁ھندے	-11.4509
▁لوٹنت	-11.4511
▁لھم	-11.4512
▁ممبر	-11.4518
▁فراز	-11.4519
▁اسپین	-11.452
D	-11.4528
▁رون	-11.4529
▁اتمانء	-11.4531
▁سوبا	-11.4532
▁جنگول	-11.4534
▁2012	-11.4534
▁کشتہ	-11.4534
▁لشکرے	-11.4534
▁سماہ	-11.4534
▁ماوتی	-11.4538
▁پہکیں	-11.454
▁گيئشتر	-11.454
▁ندارگے	-11.454
▁انچوکہ	-11.454
▁بکناں۔	-11.4544
اتکگ	-11.4546
▁۔اگاں	-11.4551
re	-11.4553
▁انگریزاں	-11.4553
▁بزانتیں	-11.4554
▁پنوں	-11.4554
▁لانچر	-11.4554
▁راھاں	-11.4555
▁چاراتگ	-11.4555
▁برگیڈ	-11.4557
▁پیوست	-11.4558
▁منندیں	-11.4559
▁دروشمیں	-11.4559
▁رنجاں	-11.4562
▁تچوکیں	-11.4562
▁کنگ۔	-11.4563
▁رنگا	-11.4564
▁لاگریں	-11.4566
▁air	-11.4566
▁تخلیقی	-11.4567
اسر	-11.4567
▁ہست۔	-11.4571
moved	-11.4573
شھلچہ	-11.4575
▁ترانت	-11.4575
ہیں	-11.4578
▁ائیگ	-11.4579
▁match	-11.458
▁قریشی	-11.4582
▁گمء	-11.4582
▁body	-11.4585
▁تنیگہ	-11.4586
▁کرناں	-11.459
▁بروک	-11.4591
▁ادارے	-11.4591
▁کسو	-11.4593
ائین	-11.4594
▁لیکو	-11.4597
▁مانی	-11.4598
▁یونائیٹڈ	-11.4599
▁پیٹ	-11.4599
▁چکاسگ	-11.4599
▁low	-11.4601
▁تامربند	-11.4601
▁گوربام	-11.4604
▁بیانے	-11.4605
▁پدرائی	-11.4608
▁همیش	-11.461
▁درنجگ	-11.4611
▁ببو	-11.4612
▁شرح	-11.4612
▁لاگر	-11.4615
▁مجاہد	-11.4616
▁سئید	-11.4617
لبز	-11.4617
▁ٹہک	-11.4618
▁مہلنج	-11.4621
▁نیو	-11.4622
▁ملکیت	-11.4627
پرچے	-11.463
▁ات۔ائیء	-11.4633
▁کردہ	-11.4634
▁اوژناگ	-11.4635
نگی	-11.4635
▁لوٹائینتگ	-11.4635
وگ	-11.4638
▁چھوڑ	-11.4641
▁کسا	-11.4643
▁توانا	-11.4643
▁خو	-11.4644
▁گؤں	-11.4644
▁دیوانا	-11.4646
▁کانچ	-11.4648
▁تہلیں	-11.4649
▁ننک	-11.4657
▁ڈاکٹرے	-11.4662
▁ھمروچیگیں	-11.4665
▁نذر	-11.4666
وانی	-11.4666
▁چنڈگ	-11.4668
▁حوالے	-11.4669
گدار	-11.467
▁ھمساھگ	-11.4675
▁جیڑیت	-11.4675
▁وتواجھی	-11.4677
▁Arm	-11.4678
▁tropic	-11.4679
▁کچہ	-11.4679
▁دیستہ	-11.4679
▁مریض	-11.468
▁نسب	-11.4681
▁پیرو	-11.4681
▁لوٹے	-11.4685
▁ذرائع	-11.4685
▁مش	-11.4686
▁لوچ	-11.4686
▁ہرچیز	-11.4687
▁سوبمندیں	-11.469
▁تولگ	-11.4695
▁بیبو	-11.4695
ڈر	-11.4695
▁پشتا	-11.4695
▁ڈیہ	-11.47
▁پڑاں	-11.4701
▁General	-11.4702
▁ٹکی	-11.4702
وشی	-11.4703
▁چاریگی	-11.4703
▁نکس	-11.4704
▁کته	-11.4708
▁کرو	-11.4708
▁پراں	-11.4712
▁ڈھل	-11.4713
شے	-11.4714
▁رہبنداں	-11.4715
راجی	-11.4718
انگت	-11.4722
▁بخاری	-11.4723
▁نازاں	-11.4724
▁اشکرانی	-11.4724
▁چداں	-11.4725
▁ٹرمپ	-11.4728
▁دکتر	-11.473
اوتی	-11.4731
▁شگل	-11.4731
▁ترکیب	-11.4742
دم	-11.4745
▁بکشاتگ	-11.4746
▁گنی	-11.4747
▁سیا	-11.4751
▁جذبات	-11.4752
▁ھوشام	-11.4754
وخیں	-11.476
▁نبیسوک	-11.476
▁لوٹائینت	-11.4761
▁لیپ	-11.4763
یوں	-11.4764
اشانی	-11.4764
▁ڈویژن	-11.4766
▁بدیاں	-11.4766
▁گپی	-11.4767
▁کلاہ	-11.4767
▁انتخاب	-11.4767
▁بالادء	-11.4768
▁پہلوی	-11.4769
▁سمندری	-11.477
▁ھترہ	-11.477
▁برد	-11.477
▁حالگش	-11.4771
▁ردومء	-11.4776
▁کشوک	-11.4777
▁ابرو	-11.4778
▁موسمے	-11.4779
▁ڈلگ	-11.478
▁موسی	-11.4785
▁ھمدردی	-11.4786
▁تباھی	-11.4787
▁house	-11.4787
▁اسٹیٹ	-11.4788
▁ڈیموکریٹ	-11.479
▁region	-11.4795
▁hav	-11.4795
▁critic	-11.4797
▁تاچ	-11.4797
احمد	-11.4798
▁فیکٹری	-11.48
▁بھرام	-11.4801
▁ھتم	-11.4803
ally	-11.4807
وچ	-11.4808
▁Japan	-11.4809
سوب	-11.4809
▁سنگتء	-11.4809
▁رتک	-11.4809
▁تج	-11.481
▁برج	-11.4813
▁مرغ	-11.4814
▁برائے	-11.4814
▁ریاستء	-11.4814
▁گلگدار	-11.4814
▁پتا	-11.4816
▁کارکرد	-11.4822
▁times	-11.4831
▁بیلاں	-11.4834
▁سینزدہ	-11.4834
▁ندوی	-11.4835
▁غازی	-11.4836
▁سائنسدان	-11.4836
▁term	-11.4837
▁پاری	-11.4837
▁گیشواری	-11.4837
▁writing	-11.4838
▁گشتہ	-11.4839
▁تپر	-11.484
▁متلبے	-11.4841
▁بچاراں	-11.4843
▁دیری	-11.4843
▁بلکنہ	-11.4848
▁کشکاں	-11.4849
عربی	-11.485
▁اتراپ	-11.4851
▁کسانیء	-11.4852
▁پکراں	-11.4855
▁پرا	-11.4857
▁زہگے	-11.4859
▁روی	-11.486
▁پورم	-11.4861
▁کوکو	-11.4864
▁شمشتگ	-11.4864
▁زانتیں	-11.4865
▁کوپ	-11.487
▁جوانتریں	-11.4872
▁کمیونٹی	-11.4873
▁گسے	-11.4877
▁?”	-11.4877
▁لاطینی	-11.4878
....!	-11.4879
▁چما	-11.4879
▁creat	-11.4882
▁گیشنگ	-11.4882
▁مدگ	-11.4882
▁بئیگا	-11.4882
ہوار	-11.4883
▁members	-11.4889
حسن	-11.4891
واہ	-11.4892
da	-11.4893
▁ربیتی	-11.4893
اگر	-11.4893
▁جدگال	-11.4895
▁لوزاں	-11.4896
seen	-11.4897
چوشکہ	-11.49
▁کاپی	-11.4901
▁گواھی	-11.4902
lost	-11.4902
گپت	-11.4905
▁انڈین	-11.4905
▁دزمانجنی	-11.4906
▁ایڈیشن	-11.4908
▁اسری	-11.4909
▁west	-11.4909
▁مغرب	-11.4909
▁بہتر	-11.4912
▁چرا	-11.4912
▁باھند	-11.4915
▁پنڈوک	-11.4916
▁star	-11.4917
▁سرگوز	-11.4917
▁کارکردگی	-11.4917
▁پجیگ	-11.4919
▁گوئی	-11.492
▁23	-11.492
جگ	-11.4922
▁ساپیں	-11.4924
▁دمگء	-11.4924
▁محسن	-11.4925
▁براتی	-11.4927
▁دفتر	-11.4928
▁پرشگ	-11.4928
▁عمان	-11.4929
▁فرید	-11.4929
▁نامانی	-11.4931
▁انیگیں	-11.4934
دستونک	-11.4934
▁ملنڈ	-11.4934
▁تلک	-11.4935
▁()	-11.4935
▁اٹلی	-11.4938
▁انچائیں	-11.4939
دیما	-11.494
▁ژانگول	-11.4941
▁لبرل	-11.4943
▁زهگ	-11.4944
▁نوٹس	-11.4945
▁جوانسال	-11.4945
▁بڑھ	-11.4945
▁شانتل	-11.4946
غلام	-11.4946
▁خیبر	-11.4946
5	-11.4948
▁بیگاہء	-11.4948
▁ٹاک	-11.495
▁قلمکار	-11.495
▁پداں	-11.4952
مے	-11.4955
▁پڑی	-11.4959
▁گشگا	-11.496
▁ذریعے	-11.496
▁fee	-11.4961
▁کتگین	-11.4963
▁ہوکر	-11.4965
▁سرون	-11.4971
▁مچار	-11.4971
سد	-11.4977
▁روپ	-11.4979
▁کیوں	-11.498
▁سہتے	-11.4981
▁تقریبا	-11.4983
▁اسمائیل	-11.4983
▁base	-11.4983
▁country	-11.4984
▁عبدالکریم	-11.4985
▁ہنری	-11.4986
▁شاید	-11.4988
▁کنا	-11.4991
ادء	-11.4993
ئگا	-11.4994
▁گی۔	-11.4994
▁جاورے	-11.4999
▁America	-11.4999
گس	-11.5001
▁young	-11.5004
▁مخالف	-11.5005
▁میراس	-11.5005
▁plan	-11.5007
▁popular	-11.5007
▁کرپشن	-11.5008
▁مزید	-11.5008
▁کوشانی	-11.5011
▁کپتیں	-11.5013
▁الہ	-11.5014
بیگواہ	-11.5014
▁۔بلوچی	-11.5014
▁متاہ	-11.5014
▁مردمےء	-11.5018
▁کارایت	-11.5018
▁پرینتگ	-11.502
▁ناامیتی	-11.5022
▁mak	-11.5024
▁مسترین	-11.5024
▁کمکء	-11.5031
▁داس	-11.5033
▁ماراں	-11.5036
▁سرکارا	-11.5038
▁نامگال	-11.5038
▁بانداتء	-11.5038
▁ھیات	-11.5039
▁شکی	-11.5039
▁سچگ	-11.5041
▁کھر	-11.5042
▁راجہ	-11.5043
▁تھیں	-11.5044
▁دارئے	-11.5045
▁کلمکار	-11.5047
▁مھلب	-11.5049
▁انگریزوں	-11.505
▁برنت	-11.505
▁ھمسیادی	-11.5051
▁جنگوجانی	-11.5051
▁بیھال	-11.5054
ھار	-11.5058
▁پرزند	-11.5058
▁ھمایاں	-11.506
▁زانوگر	-11.5063
▁جین	-11.5064
▁۔ما	-11.5064
▁گبار	-11.5064
▁درشت	-11.5065
نند	-11.5066
▁کتب	-11.507
▁خواتین	-11.507
uarter	-11.5071
given	-11.5071
▁پاساں	-11.5072
▁کامیابی	-11.5072
▁ازمانکی	-11.5072
▁thought	-11.5073
▁پسوء	-11.5078
▁tour	-11.5078
▁وہم	-11.5081
▁جارج	-11.5085
رنگیں	-11.5092
▁اقتدار	-11.5093
▁ھرتال	-11.5094
مو	-11.5094
▁گارڈز	-11.5095
went	-11.5095
واری	-11.5095
▁ذیل	-11.5096
▁ھالیگ	-11.5097
▁عدم	-11.5098
چاپ	-11.51
▁باتیں	-11.5102
▁گواتانی	-11.5104
▁چٹی	-11.5104
▁West	-11.5105
▁کسھاں	-11.5112
▁پشومان	-11.5116
▁اذیت	-11.5117
▁برانت	-11.5118
▁گرئگ	-11.5119
▁نانء	-11.512
▁Whil	-11.5121
▁گوزگء	-11.5121
▁ریگی	-11.5122
▁کماندان	-11.5123
▁مسام	-11.5127
سفرخان	-11.5131
▁دانائی	-11.5135
▁2013	-11.5135
▁سینئر	-11.5136
▁توپ	-11.5142
▁لگگ	-11.5144
▁ہنچش	-11.515
▁جیڑہے	-11.5153
▁ھزانگ	-11.5154
کمے	-11.5154
▁light	-11.5155
▁رسینتگ	-11.5157
▁ایمنسٹی	-11.5158
▁اپیل	-11.5158
▁چھٹی	-11.5159
▁روٹکی	-11.5162
▁بہرانی	-11.5163
▁بیاں	-11.5163
less	-11.5164
▁غفور	-11.5164
▁ڈیوا	-11.5165
▁ریا	-11.5168
▁پجارے	-11.517
▁less	-11.5176
▁مرا	-11.5176
▁صحیح	-11.5178
▁دؤ	-11.5179
▁ضمانت	-11.518
▁بارکزئی	-11.518
▁ریاستے	-11.518
▁چرگ	-11.5182
▁گیشوار	-11.5182
▁اشعار	-11.5182
برگ	-11.5183
▁دراھی	-11.5187
▁ازاتیء	-11.5188
▁مڑا	-11.5189
▁زمینانی	-11.5191
پدء	-11.5194
▁زهر	-11.5199
▁دیاں۔	-11.52
▁واکیات	-11.5201
ne	-11.5203
▁تال	-11.5203
▁پاسپورٹ	-11.5203
▁سرتاک	-11.5205
▁operation	-11.5205
▁بچاریت	-11.5205
▁رحمدل	-11.5213
▁گشادی	-11.5214
▁۔پدا	-11.5214
te	-11.5216
▁ساہدار	-11.5217
▁یکشلی	-11.5217
▁دیوالاں	-11.5218
▁ناروے	-11.5218
اراں	-11.522
▁روزی	-11.5221
▁راھانی	-11.5223
▁ادارکی	-11.5224
ra	-11.5225
کارانی	-11.5226
▁زانتکارے	-11.5226
▁فصل	-11.5227
▁ایرجیگ	-11.5227
▁کینسر	-11.5229
گام	-11.523
▁پنج	-11.523
▁پتاتگ	-11.523
▁شائراں	-11.5231
▁ورناھاں	-11.5232
▁پیمے	-11.5235
▁مکان	-11.5235
▁وند	-11.5239
▁تربتء	-11.524
▁جنگلی	-11.5242
▁ماسکو	-11.5242
▁پیسہ	-11.5242
niversit	-11.5247
▁never	-11.5247
▁مردانی	-11.5248
▁development	-11.5248
▁ٹائپ	-11.5249
▁جاورحال	-11.525
▁جذبگ	-11.525
▁رچان	-11.5253
▁حدء	-11.5254
▁جاڑی	-11.5256
▁range	-11.5267
▁پٹگ	-11.5269
▁مراگاہ	-11.5269
▁گرو	-11.5273
▁مشورہ	-11.5273
▁p	-11.5274
▁قطار	-11.5275
▁گھ	-11.5276
ine	-11.5278
▁stated	-11.5278
▁جیڑگء	-11.5282
▁انجینئر	-11.5282
بال	-11.5285
وکی	-11.5289
▁بلاک	-11.5289
▁تاجر	-11.529
▁novel	-11.5292
▁سفیر	-11.5292
مھر	-11.5292
▁award	-11.5295
▁شاخ	-11.5296
ادی	-11.5297
▁کوڈ	-11.5297
▁ایدیم	-11.5298
▁اجزاء	-11.5298
▁اروک	-11.5299
رک	-11.5299
ur	-11.5302
▁زالکار	-11.5302
▁action	-11.5303
▁سجاد	-11.5304
▁سوا	-11.5304
▁دلسیاہ	-11.5304
▁مقرر	-11.5304
▁style	-11.5305
▁جاورء	-11.5306
▁گاڑیء	-11.531
▁تہت	-11.531
▁نہیں۔	-11.5312
فن	-11.5314
▁لینن	-11.5314
▁ناگ	-11.5316
▁سفرنامہ	-11.5317
وال	-11.5318
▁ھیروپ	-11.532
ro	-11.5326
▁دشمنی	-11.5327
▁بہرام	-11.5327
▁وشحالی	-11.5328
▁کردارانی	-11.533
▁ولید	-11.5331
▁کدیم	-11.5333
▁اتش	-11.5333
بیان	-11.5337
▁دوداں	-11.5337
▁سانتیاگونصر	-11.5339
▁دردی	-11.5343
▁راھبندے	-11.5344
▁پسانی	-11.5346
▁طائر	-11.5352
تھ	-11.5353
▁پرسیگ	-11.5354
یٹ	-11.5354
▁ہلاسی	-11.5358
▁ہوا۔	-11.5358
▁سسائی	-11.5359
▁کچکے	-11.5359
▁روایات	-11.5361
▁چنگیز	-11.5364
▁ینت	-11.5364
▁کارستاں	-11.5366
▁band	-11.5366
▁بحران	-11.5367
▁نیزگار	-11.5368
▁ڈنگر	-11.5368
▁حکمران	-11.5371
▁گرام	-11.5371
▁کمپان	-11.5375
▁نادریں	-11.5378
▁کاٹ	-11.5378
بگ	-11.5379
گم	-11.5385
▁toward	-11.5386
ئے۔	-11.5386
▁نکاح	-11.5386
▁کسٹم	-11.5387
▁کشادگ	-11.5389
▁زیراں	-11.5393
▁بدر	-11.5394
▁نکل	-11.5395
▁گندگی	-11.5396
ther	-11.5396
منٹ	-11.54
▁مختار	-11.54
▁کسھانی	-11.5401
تگ۔	-11.5403
▁اصلیں	-11.5404
▁ترسیت	-11.5405
▁ایمانداری	-11.5406
▁We	-11.5406
▁کپودر	-11.5408
▁دریافت	-11.5409
▁دپار	-11.541
▁جاھانی	-11.541
▁co	-11.5413
▁سنا	-11.5413
▁Park	-11.5415
▁کفر	-11.5418
اسی	-11.542
▁خوب	-11.5421
▁سبکیں	-11.5421
▁بحری	-11.5422
▁نشانے	-11.5422
▁لبزی	-11.5423
▁سرمچارے	-11.5423
▁اینٹی	-11.5425
ماتی	-11.5426
▁ھداء	-11.5427
▁کیچء	-11.5427
▁ہپتاد	-11.5427
▁اصطلاح	-11.5428
▁بگاوت	-11.5428
▁ھلو	-11.5429
کسی	-11.5429
ولی	-11.5433
▁Australian	-11.5434
▁کاپرء	-11.5435
▁ساعتے	-11.5435
▁شوهاز	-11.5438
▁براتے	-11.5441
▁بندری	-11.5443
تران	-11.5446
▁ماحل	-11.545
درا	-11.5451
▁پروشی	-11.5451
▁پلاسٹک	-11.5452
▁زانتاں	-11.5452
▁مومنٹ	-11.5455
▁سندگ	-11.5456
ونی	-11.5461
▁ft	-11.5461
▁complete	-11.5461
▁نکت	-11.5463
▁کسمت	-11.5463
▁زربار	-11.5464
▁مسلماناں	-11.5464
▁نمائندگی	-11.5466
▁سیاھی	-11.547
▁پردہ	-11.547
▁جارے	-11.547
self	-11.547
▁بوت۔۔۔	-11.5471
▁رزان	-11.5471
▁خر	-11.5474
▁حضور	-11.5475
▁کسارت	-11.5479
▁مصری	-11.5479
ینان	-11.5483
▁حیالداری	-11.5483
▁نکن	-11.5486
▁کشیت۔	-11.5486
▁سیاہی	-11.5488
▁پراھگ	-11.5488
▁منتوار	-11.5488
▁چمی	-11.5489
▁پێسر	-11.5492
▁فلاں	-11.5494
▁50	-11.5496
▁برس	-11.5496
▁توازن	-11.5498
▁تمبو	-11.5498
▁ساھگء	-11.5501
▁ازمون	-11.5501
نور	-11.5501
▁ابر	-11.5509
▁سعدی	-11.551
▁سورس	-11.5511
it	-11.5511
▁انگار	-11.5511
▁پرما	-11.5514
▁ٹکء	-11.5514
▁مشکت	-11.5515
▁منو	-11.5516
▁رھم	-11.5517
وم	-11.5517
▁بتلانی	-11.5517
روکپتی	-11.5518
▁پشومانی	-11.5519
▁تروتاب	-11.5519
▁گورنمنٹ	-11.5521
▁عربانی	-11.5521
coming	-11.5523
▁زیند	-11.5529
▁۔ہمے	-11.5532
▁دابء	-11.5532
▁بستگ۔	-11.5532
شال	-11.5536
▁پشل	-11.5539
▁گریں	-11.554
▁Ire	-11.5546
▁ھیالی	-11.5546
▁scene	-11.5549
گڈی	-11.5549
▁island	-11.5551
▁وجودء	-11.5553
▁خاک	-11.5554
▁وانشت	-11.5554
▁تانا	-11.5555
▁وانوکیں	-11.5557
ھور	-11.5559
▁مھکمی	-11.5561
▁واناک	-11.5561
▁ہوشام	-11.5562
▁شتنت	-11.5565
▁enter	-11.5565
▁کلا	-11.5566
▁دمانی	-11.5567
▁رستہ	-11.5567
▁توصیف	-11.5567
▁توام	-11.5568
▁نگدء	-11.5569
▁رہبندے	-11.5569
▁مزور	-11.557
تم	-11.557
▁گندایت	-11.5572
مری	-11.5574
▁دانکاں	-11.5576
▁ہرکسی	-11.5576
ither	-11.5579
▁کرچک	-11.558
یری	-11.5581
▁دریاورد	-11.5581
▁گیپت۔	-11.5584
▁پلانٹ	-11.5585
▁ببر	-11.5589
▁نمونہ	-11.559
▁ایرموش	-11.5591
▁ھمدپ	-11.5592
A	-11.5599
▁chart	-11.5601
▁سیٹھ	-11.5602
▁دانگے	-11.5604
▁گیگان	-11.5608
▁مفتی	-11.561
▁28	-11.561
▁hour	-11.5612
▁انگلینڈ	-11.5612
وھدیکہ	-11.5614
▁پاور	-11.5616
...!‘‘	-11.5616
▁شیرے	-11.5618
▁انلاین	-11.5618
بانک	-11.5619
▁پنڈگ	-11.5622
▁دوھیں	-11.5628
▁ہاسیں	-11.563
,’’	-11.5633
▁سہن	-11.5633
▁لوٹتگ	-11.5635
▁دیئے	-11.5636
▁پروردگار	-11.5637
تربت	-11.5638
▁تسلسل	-11.5638
▁ڈیجیٹل	-11.5638
مردماں	-11.5643
سٹر	-11.5645
ve	-11.5648
▁کیامت	-11.5649
▁ھمودء	-11.5652
▁چکیں	-11.5653
▁ھوراں	-11.5654
▁نرس	-11.5654
▁join	-11.5655
▁سلہ	-11.5655
▁رسینگ	-11.5655
▁میاریں	-11.5656
شیا	-11.5658
▁earlie	-11.5658
▁بوتک	-11.5662
▁مولابخش	-11.5665
ورگ	-11.5666
▁شاھر	-11.5667
▁داتیں	-11.5668
عطا	-11.5669
."	-11.5669
▁کرشی	-11.567
▁white	-11.5672
▁ھول	-11.5672
▁اصلء	-11.5675
▁ھیرات	-11.5675
▁ورناہانی	-11.5676
▁نگدکاری	-11.5677
کنئگ	-11.5678
▁زیل	-11.5679
▁لگا	-11.568
▁کمانچر	-11.5682
▁جنئک	-11.5683
▁سیال	-11.5683
▁رول	-11.5684
▁تعالی	-11.5684
▁town	-11.5688
▁گوگل	-11.5691
▁ھپتمی	-11.5692
▁جدل	-11.5693
▁مردان	-11.5694
▁ذگریں	-11.5696
▁بنگپے	-11.5696
▁پرینگ	-11.5696
▁منظوری	-11.5697
▁سوبیں	-11.5698
...‘‘	-11.5698
▁حرچ	-11.5699
▁وفاق	-11.57
▁وشھالی	-11.5701
▁ھانزا	-11.5703
▁کلیر	-11.5703
▁یہودی	-11.5704
▁Black	-11.5705
▁سینہ	-11.5707
▁نارشت	-11.571
▁مھرانی	-11.571
▁الکاپی	-11.5713
▁زروان	-11.5713
▁جنینی	-11.5714
▁چارایت	-11.5715
▁غمانی	-11.572
▁چوگان	-11.5724
▁ارادگ	-11.5725
▁یله	-11.5726
▁اگه	-11.5727
▁پمێشکا	-11.5729
ain	-11.573
▁کشمیری	-11.5732
▁میریں	-11.5733
▁صغیر	-11.5734
▁نوہ	-11.5738
▁منشی	-11.5738
▁22	-11.5739
▁وہی	-11.5739
▁اسپر	-11.5739
نیت	-11.5739
▁ھونانی	-11.5742
▁جنگلء	-11.5742
▁بگو	-11.5743
▁برئے	-11.5744
▁ابادیں	-11.5746
▁writer	-11.575
▁کرشن	-11.5751
line	-11.5752
▁پئیمیں	-11.5752
▁چتکان	-11.5756
▁اشانء	-11.5756
ظ	-11.5757
▁کشنت	-11.5757
▁موسماں	-11.5758
▁لگام	-11.5759
▁اتحادی	-11.576
▁هرکس	-11.5762
▁پدانک	-11.5764
ابا	-11.5764
نشتگ	-11.5766
▁ھمگرنچی	-11.5766
▁اید	-11.5768
▁نجات	-11.577
▁اثرمند	-11.5771
▁جلی	-11.5772
▁شزار	-11.5773
۔پدا	-11.5773
▁بوشت	-11.5775
▁element	-11.5776
لہتیں	-11.5776
▁نائک	-11.5777
▁ناگتی	-11.5779
غنی	-11.578
▁درگیج	-11.5781
▁گارء	-11.5781
▁ضمیر	-11.5784
▁گلامیں	-11.5786
▁ارمانی	-11.5786
▁ازلی	-11.5788
▁پچی	-11.5788
▁ٹپاسگ	-11.579
▁سات	-11.5791
▁چونا	-11.5792
▁ناتپاکی	-11.5793
عمر	-11.5796
▁نێمگا	-11.5796
▁ہشک	-11.5797
سئے	-11.58
▁درپشوکیں	-11.5801
▁son	-11.5802
▁24	-11.5803
▁عبدالحکیم	-11.5805
▁مجھ	-11.5805
▁پنڈ	-11.5808
اگ	-11.5809
▁ط	-11.5809
شا	-11.5811
▁وسوسگ	-11.5814
▁دائما	-11.5815
▁sign	-11.5817
▁نندگء	-11.582
▁شھرء	-11.582
▁ورناہاں	-11.5822
▁چڑ	-11.5822
felt	-11.5823
▁ھمیشاں	-11.5823
▁رتکگیں	-11.5823
▁بزیر	-11.5825
▁الیاس	-11.5831
▁issue	-11.5831
▁امیدوار	-11.5832
▁ڪ	-11.5833
▁تماشا	-11.5834
▁noted	-11.5834
▁ماھاں	-11.5834
▁سرحد	-11.5835
یکیں	-11.584
▁وردی	-11.5843
▁London	-11.5847
▁مراقبہ	-11.5847
▁عبید	-11.5847
گرد	-11.5848
▁مہربانی	-11.5848
▁زاننت	-11.5848
▁مذھبی	-11.5849
▁پیپلز	-11.5849
▁انگه	-11.5851
▁کێنگء	-11.5851
حق	-11.5851
▁بلاول	-11.5851
▁بوپ	-11.5856
▁گیشگیواری	-11.5856
▁برمشے	-11.5858
▁ابرمء	-11.586
میتگ	-11.5863
across	-11.5865
▁کیوبا	-11.5865
▁چیدگے	-11.5865
▁ابات	-11.5868
▁پیژگاہ	-11.587
▁ائوکیں	-11.5874
▁ہمراہاں	-11.588
▁دانکے	-11.5881
▁عدل	-11.5882
▁ہوری	-11.5882
▁نالگ	-11.5883
▁پہمئن	-11.5884
▁چادرے	-11.5884
▁درہائ	-11.5884
▁دیغ	-11.5885
▁route	-11.5888
▁وارے	-11.589
▁گج	-11.589
▁خدائی	-11.589
▁ہاک	-11.5894
▁اصلاح	-11.5894
▁ژوب	-11.5895
▁اہدی	-11.5895
▁کلانچ	-11.5896
▁منڈ	-11.5899
▁ات۔ا	-11.5901
▁نگران	-11.5901
▁رازاں	-11.5902
away	-11.5903
▁چلا	-11.5904
ندہ	-11.5906
روگ	-11.5908
▁پٹان	-11.5908
▁عومر	-11.5908
▁ھمداں	-11.5909
▁ناگتیں	-11.591
▁کائی	-11.5911
▁حبرانی	-11.5913
▁درتگیں	-11.5915
▁ایجوکیشن	-11.5916
▁ریسکیو	-11.5918
▁بندرگاہ	-11.5919
▁get	-11.592
▁کفن	-11.5923
▁انعام	-11.5927
▁ھردوئیں	-11.593
▁ارزش	-11.593
یکہ	-11.5934
▁جبزگ	-11.5939
▁دلگران	-11.594
▁پکرے	-11.5941
▁featur	-11.5942
▁good	-11.5942
▁win	-11.5943
▁himself	-11.5943
▁جوڑی	-11.5948
▁رؤف	-11.5949
▁واکب	-11.5949
▁حلقہ	-11.5953
▁بقول	-11.5953
▁ایپلی	-11.5962
▁چھوٹ	-11.5962
▁بیاراں	-11.5966
▁پھول	-11.5966
▁جناور	-11.5967
▁اشترء	-11.5968
▁سنگء	-11.5968
▁زگر	-11.597
یث	-11.597
▁سیاه	-11.597
▁پادے	-11.5972
▁مڈل	-11.5972
▁دگرء	-11.5973
▁پلگاریں	-11.5974
▁بندگء	-11.5979
▁فنا	-11.5984
▁واہشت	-11.5987
▁کچکانی	-11.5988
▁لازمی	-11.599
▁black	-11.599
▁تجابان	-11.599
▁شموشتگ	-11.5993
▁ایکسپریس	-11.5993
▁بنگ	-11.5999
▁!!!	-11.6
▁ابیتکیں	-11.6001
▁جاپانی	-11.6003
▁گوادری	-11.6004
▁جوھر	-11.6004
▁ten	-11.6007
▁ندیستگ	-11.6011
▁پیلہ	-11.6013
▁رست۔	-11.6015
▁تچکء	-11.6017
▁ڈیلہ	-11.6017
▁شیراں	-11.602
▁ڪنت	-11.6021
ائن	-11.6023
▁پروشیت	-11.6023
▁بکشیت	-11.6024
▁دوستء	-11.6026
▁جامعہ	-11.6027
▁ایاز	-11.603
▁زہرگ	-11.6031
ھک	-11.6034
▁تیوک	-11.6035
▁جاؤ	-11.6037
▁وهدی	-11.6037
▁قصہی	-11.6038
▁امریکہء	-11.6039
‘,’	-11.6039
▁پٹھان	-11.6042
سنگت	-11.6043
▁بربادی	-11.6047
▁کاش	-11.6048
▁گوشداران	-11.6051
▁چمدار	-11.6058
▁گوئشگ	-11.6059
▁شیریں	-11.606
▁پژم	-11.6064
سریں	-11.6064
▁اگل	-11.6064
▁شاہین	-11.6065
▁ارڈر	-11.6066
▁ہستیں	-11.6066
▁دیوالء	-11.6067
▁سخن	-11.6067
▁پیمانہ	-11.6076
▁شوندات	-11.6077
▁Australia	-11.6081
▁تچیت	-11.6081
▁اہی	-11.6081
▁درگ	-11.6083
▁وپتگیں	-11.6083
▁تبدیلی	-11.6083
▁see	-11.6086
▁درانی	-11.6087
▁بندوبست	-11.6087
زہرشانی	-11.6088
چیر	-11.6088
▁significant	-11.6088
▁وریں	-11.6089
▁چیری	-11.6093
▁الزام	-11.6094
بیگ	-11.6098
▁یکسد	-11.61
▁26	-11.6101
چیء	-11.6103
حیال	-11.6104
▁اہتگ	-11.6104
▁روزگاری	-11.6105
▁عبدالغفار	-11.6105
داتگ	-11.6107
▁سلاحبند	-11.6109
▁کمیونزم	-11.6109
▁تکء	-11.6111
بات	-11.6112
▁رکھتے	-11.6113
▁راہاں	-11.6113
▁خواہ	-11.6114
▁کئور	-11.6114
▁باپشت	-11.6115
▁ورنت	-11.6115
▁فعل	-11.6116
▁نیز	-11.6117
▁کرزیت	-11.6118
▁بیدے	-11.6118
حمل	-11.6119
کپ	-11.6123
▁کاڑ	-11.6123
▁سادگی	-11.6123
▁ٹہل	-11.6125
▁ہنی	-11.6129
▁نادرا	-11.6129
▁تانہ	-11.613
▁کھور	-11.6131
▁مرضی	-11.6132
▁ھدائی	-11.6136
▁دادء	-11.6137
▁ھاؤس	-11.6139
▁انس	-11.6139
▁انچشیں	-11.6139
▁عبدالرحمن	-11.6139
▁سنسکرت	-11.6142
▁مفت	-11.6142
▁زمینے	-11.6142
▁کباب	-11.6144
▁سوداگر	-11.6146
▁ہوت	-11.6147
▁تیابء	-11.6148
بہر	-11.6148
▁ساہتے	-11.6153
▁مکی	-11.6158
▁ساچشتے	-11.6159
▁important	-11.6161
▁زریں	-11.6162
بالاچ	-11.6164
▁گناھیں	-11.6165
▁ازمکاری	-11.6165
▁مشکلات	-11.6166
▁منئ	-11.6166
▁مسلہ	-11.6168
ثہ	-11.6168
▁رستری	-11.6171
▁جائز	-11.6174
▁عالی	-11.6174
▁لاشعور	-11.6177
I	-11.6179
▁ہماری	-11.6181
▁جمعی	-11.6181
▁زهیر	-11.6182
بکش	-11.6183
▁age	-11.6184
▁ملوری	-11.6184
▁یکپارگی	-11.6185
▁initial	-11.6185
▁تؤکا	-11.6186
▁ٹاؤن	-11.6187
▁شیعہ	-11.6188
▁ساگر	-11.619
▁حمیدہ	-11.619
▁وردنی	-11.6196
▁ھشتمی	-11.62
▁شاتو	-11.6206
اخر	-11.6207
▁داکتر	-11.6207
▁ازگ	-11.6208
▁تعمیر	-11.6209
▁father	-11.621
اصل	-11.621
▁ائن	-11.6211
▁تعاون	-11.6212
▁سدھ	-11.6214
▁سرجمء	-11.6219
▁کمبل	-11.6221
▁لشکرء	-11.6222
زیر	-11.6222
▁کڑ	-11.6225
ادب	-11.6226
▁ھسن	-11.623
تء	-11.6231
اول	-11.6234
▁بیلی	-11.6235
▁ترکگ	-11.6238
▁گنوکے	-11.6238
ۆک	-11.6241
▁کیسے	-11.6241
way	-11.6244
▁جہلء	-11.6244
▁واڑ	-11.6245
▁باتاں	-11.6247
▁ناامیت	-11.6247
▁act	-11.6248
▁جرمکار	-11.6251
لین	-11.6252
▁King	-11.6258
▁female	-11.6259
▁modern	-11.6259
▁television	-11.626
▁منڈی	-11.6261
▁بدلا	-11.6262
▁بڈا	-11.6262
بے۔	-11.6264
▁miles	-11.6266
▁سیارہ	-11.6268
▁وتئ	-11.627
▁واهگ	-11.627
▁تھریک	-11.6271
▁نیار	-11.6274
▁ائیر	-11.6275
▁ربیدگانی	-11.6277
▁تے	-11.6279
▁لیوس	-11.6279
اہی	-11.628
▁سانکل	-11.6283
▁eight	-11.6284
▁کردگالی	-11.6285
▁عبدالمجید	-11.6287
▁موج	-11.629
▁ھندانی	-11.629
▁پاچن	-11.6291
▁هوار	-11.6292
▁ناھدا	-11.6294
▁ریشاں	-11.6297
▁واسطہ	-11.63
uir	-11.6306
▁عورت	-11.6307
چشیں	-11.6308
▁various	-11.6309
▁interest	-11.6309
▁پسے	-11.631
▁پیدائش	-11.6312
▁چربی	-11.6313
▁اخرت	-11.6313
▁بیتاں۔	-11.6314
▁انلائن	-11.6314
▁پمپ	-11.6315
▁باہر	-11.6317
▁یکتنا	-11.6318
▁فنڈ	-11.6319
ter	-11.6319
سل	-11.632
▁کٹی	-11.6323
▁راھا	-11.6323
▁گلستان	-11.6324
ینی	-11.6325
▁چرچ	-11.6327
باید	-11.6329
▁تعلیمی	-11.633
▁چمپل	-11.6332
▁اشکنگء	-11.6332
▁سکھ	-11.6333
▁minute	-11.6334
▁ہوارانت۔	-11.6335
▁جوہان	-11.6336
▁یکدار	-11.6339
▁بیچار	-11.634
▁ناظم	-11.634
▁سالا	-11.634
▁پرشیت	-11.6341
▁صحب	-11.6342
▁ھدے	-11.6343
▁روکپت	-11.635
▁الماری	-11.635
▁اسمی	-11.6353
▁دیستیں	-11.6356
کناں	-11.6357
▁۔تو	-11.6357
▁مئیت	-11.636
کائی	-11.6361
▁ازر	-11.6363
ھیر	-11.6364
▁ادیرہ	-11.6365
▁نادراھیانی	-11.6366
▁ردیاں	-11.6368
▁ادت	-11.6371
▁بنجلے	-11.6372
ڑہ	-11.6373
مچ	-11.6373
اگن	-11.6375
▁گشتگ۔	-11.6376
▁مثلا	-11.6377
غ۔	-11.6378
▁live	-11.6378
▁اندازگ	-11.6379
مک	-11.6379
▁موڑ	-11.638
▁ماش	-11.6381
▁زیروک	-11.6383
▁James	-11.6384
▁تسلہ	-11.6386
▁امروہی	-11.6386
▁ازادیء	-11.6389
ارے	-11.639
▁استا	-11.6394
جار	-11.6395
▁مصیبت	-11.6397
▁لیگار	-11.6398
▁ھالی	-11.6398
▁stage	-11.6402
▁شھریاں	-11.6402
▁کلانی	-11.6404
سرء	-11.6404
▁اینگو	-11.6407
▁look	-11.6409
▁باعث	-11.6409
▁احترام	-11.641
▁موداں	-11.641
▁زبانوں	-11.6414
▁تسلیم	-11.6415
▁نواں	-11.6415
اماں	-11.6416
▁کندیت	-11.6417
اوار	-11.6418
▁گهتر	-11.6425
▁شفیق	-11.643
▁پہوال	-11.643
چوشیں	-11.6433
▁لوڑی	-11.6435
دنت	-11.6435
▁عبدالرحیم	-11.6436
بکن	-11.6437
▁سلاه	-11.6437
پمیشکا	-11.6441
شل	-11.6443
▁سربیت	-11.6445
▁نسر	-11.6445
▁دزکش	-11.6445
دز	-11.6445
▁گزرانی	-11.6451
▁منصب	-11.6451
▁برزگ	-11.6452
وے	-11.6455
▁بانء	-11.6455
مب	-11.6457
▁ملاء	-11.6458
▁زمزیل	-11.6459
▁اسٹور	-11.646
▁امریکائی	-11.646
▁جھاؤ	-11.646
▁کھڑکی	-11.646
▁مراگہ	-11.646
▁need	-11.6466
▁سکول	-11.6468
▁damage	-11.6476
▁شہد	-11.6481
▁تگران	-11.6482
▁success	-11.6483
▁بیوس	-11.6483
▁ھڑتال	-11.6485
▁successful	-11.6485
▁کوئٹہء	-11.6485
▁case	-11.6485
▁does	-11.6487
هر	-11.6488
▁یکجائی	-11.6489
▁شاھگان	-11.6489
▁پنتء	-11.6489
▁انت۔۔۔۔۔	-11.649
▁سنگاں	-11.649
▁نبیل	-11.6491
دود	-11.6491
▁اروہی	-11.6492
▁ایٹمی	-11.6493
اپی	-11.6494
▁برکش	-11.6495
▁فر	-11.6496
▁وصف	-11.6498
▁میکسم	-11.6499
▁پاچ	-11.65
سان	-11.65
ship	-11.65
▁امیتان	-11.6501
▁events	-11.6503
▁زیملی	-11.6504
▁کید	-11.6508
کین	-11.6508
▁ھمایانی	-11.6508
▁مسکرہ	-11.6512
▁road	-11.6514
4	-11.6516
▁تلو	-11.6516
ent	-11.6516
سردار	-11.6519
▁ساچشتاں	-11.6522
▁ٹہینگ	-11.6522
▁زینت	-11.6524
▁برئگ	-11.6525
ought	-11.6525
▁بندیگی	-11.6526
▁میس	-11.6527
▁اشکن	-11.6529
▁ہد	-11.653
▁پتار	-11.6533
▁موسیقی	-11.6536
▁peak	-11.6536
▁لیو	-11.6537
▁رھوت	-11.6538
ورنا	-11.6541
▁بلوٹیت	-11.6544
▁نوبل	-11.6546
▁یوں	-11.6546
▁ملوک	-11.6553
one	-11.6553
▁ترانے	-11.6553
▁پکنک	-11.6558
▁گرگی	-11.6559
▁تما	-11.6561
▁بکرتین	-11.6563
▁discover	-11.6563
▁political	-11.6565
▁مجرم	-11.6566
▁بہرگاں	-11.6566
ینے	-11.6566
▁ملکموت	-11.6566
▁جیڑگانی	-11.6569
▁گشتگیں	-11.6571
▁ہلاپ	-11.6575
▁بروان	-11.6578
▁شتر	-11.6578
▁نوشیروانی	-11.6583
▁دزکشی	-11.6583
▁کٹیت	-11.6585
▁گیشینتگ	-11.6586
▁کمب	-11.6586
▁بات۔	-11.6587
▁سرمگ	-11.6588
▁تقسیم	-11.6589
▁تفسیر	-11.659
▁امنی	-11.659
▁بتلے	-11.6592
▁مادنیں	-11.6595
▁نگرہ	-11.6599
▁تیغ	-11.6601
▁حملء	-11.6602
▁بچہ	-11.6604
▁نازرکی	-11.6607
▁ثمر	-11.6609
▁دہلی	-11.6611
▁announc	-11.6613
▁دلیر	-11.6613
▁معاہدہ	-11.6617
▁مالاں	-11.6618
▁ہن	-11.6619
▁فائنل	-11.6619
▁چۆن	-11.6619
▁دوسال	-11.662
▁بوتت	-11.6621
▁تامدار	-11.6622
▁استادانی	-11.6623
▁mm	-11.6625
▁تنگیں	-11.6628
▁درورء	-11.6628
▁تلاہ	-11.6629
▁سنٹر	-11.6633
▁لمبر	-11.6633
▁art	-11.6638
▁پائیدگ	-11.6639
▁دیووند	-11.664
▁الحاق	-11.6642
حدا	-11.6642
▁برزتر	-11.6643
▁گنجی	-11.6644
ایان	-11.6645
▁سپرے	-11.6646
▁جنێن	-11.6646
▁وشیء	-11.6646
▁دھر	-11.6647
▁بیدء	-11.6648
▁دیتا	-11.6649
▁پولیسء	-11.665
▁روشنائی	-11.6654
▁استاداں	-11.6656
▁میزاں	-11.6658
▁چینء	-11.6662
▁مہتر	-11.6663
▁ابداللہ	-11.6665
lo	-11.6665
▁نمائندہ	-11.6668
▁منگی	-11.6671
▁لیکیت	-11.6672
▁رنجانی	-11.6672
▁پسیل	-11.6677
▁کپٹن	-11.6677
▁جهل	-11.6678
▁میاری	-11.6678
▁ایرکنگ	-11.6689
▁poem	-11.669
ائع	-11.669
▁پجاروک	-11.6691
▁پاگواجہ	-11.6693
▁جاو	-11.6693
▁مشاہدہ	-11.6694
دروشم	-11.6694
▁چیزان	-11.6694
▁کلوھے	-11.6695
▁ثنا	-11.6695
▁ابکہ	-11.6696
چونیں	-11.6697
ll	-11.6699
▁میرء	-11.6699
▁mid	-11.67
▁درتگ	-11.6703
▁وھم	-11.6703
ہان	-11.6706
▁تالہ	-11.6707
▁هند	-11.6708
▁شوہازء	-11.671
▁کماشے	-11.6711
▁شررنگی	-11.6711
▁لوٹئے	-11.6712
▁too	-11.6713
▁پڑے	-11.6713
▁پولگ	-11.6714
▁میوزیم	-11.6716
▁پیشکان	-11.6718
▁پرانی	-11.6718
▁performance	-11.6718
▁ھیلکاری	-11.672
▁برٹش	-11.672
▁سردارء	-11.672
▁بجائے	-11.6722
▁سوتے	-11.6725
ھوار	-11.6728
▁لکھا	-11.6728
▁انت۔ائیء	-11.6731
ham	-11.6733
▁درشتگ	-11.6734
▁نگدکار	-11.6735
▁ثقافت	-11.6736
▁ائیگا	-11.6737
▁بازارے	-11.6739
انچش	-11.6739
▁دراجکش	-11.6742
▁example	-11.6742
▁چارمکنڈ	-11.6742
▁چونین	-11.6743
▁County	-11.6743
▁پرکے	-11.6743
▁اھوالکاراں	-11.6745
▁کی۔	-11.6747
▁نویساں	-11.6747
▁کاگدانی	-11.6753
▁دکھ	-11.6753
▁پربستگ	-11.6757
اؤں	-11.676
▁نابودی	-11.6766
▁leas	-11.6767
▁sent	-11.6768
▁گلو	-11.6769
▁گپا	-11.6769
▁پولیٹیکل	-11.677
▁اکبت	-11.677
▁ٹائمز	-11.6771
اه	-11.6771
▁انت۔چہ	-11.6773
▁پیالہ	-11.6774
بادشاہ	-11.6776
▁کین	-11.6776
▁خوبصورت	-11.6777
▁کارانت	-11.678
▁بچکاں	-11.6782
▁جرات	-11.6783
ھت	-11.6784
▁بژنیگ	-11.6793
▁گپتیں	-11.6793
▁کنت۔اے	-11.6794
▁مبارکیں	-11.6794
▁سداں	-11.6796
▁محض	-11.6797
▁دیا۔	-11.6798
▁شوھازء	-11.6803
▁گونڈل	-11.6803
▁جوک	-11.6804
▁رشت	-11.6805
کء	-11.6807
▁زانے	-11.6807
▁مارگء	-11.6809
▁عرفان	-11.6811
▁غور	-11.6811
▁جاهے	-11.6812
الہ	-11.6812
▁بہائیں	-11.6813
▁انت۔ھمے	-11.6813
▁پندے	-11.6818
▁Road	-11.682
▁influence	-11.682
▁مخصوص	-11.6822
▁ٹھینگ	-11.6822
▁درابیت	-11.6823
ڈا	-11.6825
▁مثالے	-11.6826
▁رودینتگ	-11.6827
▁لڑے	-11.6831
▁انوگ	-11.6831
▁ماتاں	-11.6831
▁واکان	-11.6831
▁۔ایشی	-11.6833
سیاہ	-11.6833
▁سیکس	-11.6834
▁کہنا	-11.6834
▁ناموس	-11.6835
▁ٹالسٹائی	-11.6838
▁ائیڈیل	-11.6838
چاکر	-11.6838
▁ٹھک	-11.6841
▁should	-11.6844
▁ذاتے	-11.6845
▁ھورء	-11.6846
▁ندار	-11.6846
iz	-11.6846
▁جنیادم	-11.6848
▁مالدار	-11.6849
▁سانکلاں	-11.685
▁معلومات	-11.685
▁نامداری	-11.6853
▁ماہر	-11.6853
▁مقدمہ	-11.6855
▁نکتہ	-11.6856
▁ڈیھانی	-11.6856
جل	-11.686
▁ارواہء	-11.686
اق	-11.6861
▁پادری	-11.6861
▁تھران	-11.6861
▁فوٹو	-11.6862
▁لچه	-11.6862
▁locat	-11.6866
▁دژمنء	-11.687
▁effect	-11.6872
▁بانی	-11.6873
▁چوہدری	-11.6873
▁بئیت۔	-11.6873
▁پرائمری	-11.6875
▁حطرہ	-11.6875
▁سرمگیں	-11.6876
▁بشارت	-11.6877
▁عبدالقادر	-11.6877
▁ساچشتکار	-11.6879
▁پچگرگ	-11.689
▁زگری	-11.6891
▁مٹھا	-11.6893
▁هئیال	-11.6895
▁لسٹ	-11.6897
▁شدید	-11.6899
▁ویکاریو	-11.6899
▁الخط	-11.69
▁رازے	-11.6901
▁ننگار	-11.6901
▁نزیکا	-11.6902
▁structure	-11.6902
▁حساس	-11.6903
▁بختاور	-11.6903
▁ارسطوء	-11.6905
چارگ	-11.6905
سم	-11.6906
▁ولا	-11.6907
▁شانیں	-11.6908
▁کرام	-11.6909
▁ادارگاں	-11.691
▁سکتے	-11.6912
▁ماضی	-11.6915
▁نادان	-11.6916
▁دوزواہ	-11.6922
as	-11.6922
انگریزی	-11.6923
▁اسنائپر	-11.6925
▁نیکراہی	-11.6926
ودار	-11.6926
▁حوصلہ	-11.6927
ساچشت	-11.6933
▁شتاں۔	-11.6935
▁سیمسرانی	-11.6937
▁گچک	-11.6939
▁ماشین	-11.6939
▁نبشتہی	-11.694
▁لوٹاں۔	-11.6943
هم	-11.6945
ھست	-11.6947
▁دیمروئیء	-11.6947
▁سم	-11.6948
▁eventual	-11.6949
▁پدمنتگیں	-11.6951
▁چکان	-11.6952
▁ھاجت	-11.6953
▁درکرت	-11.6954
▁بئیگء	-11.6954
▁ائینی	-11.696
▁ویرانیں	-11.6962
▁ندی	-11.6963
▁یکشلہ	-11.6964
▁گزی	-11.6966
▁ھمگام	-11.6966
بندات	-11.6969
گرگ	-11.697
▁ریاضی	-11.6971
کاراں	-11.6972
تان	-11.6974
اباد	-11.6974
▁حالا	-11.6975
▁دۆست	-11.6977
hind	-11.6978
▁شیرء	-11.6978
▁ہورک	-11.6978
▁استونک	-11.6979
▁انان	-11.698
▁گوٹھ	-11.6981
▁دوزحہ	-11.6982
▁تنگو	-11.6983
▁اغاز	-11.6984
▁جاگاہ	-11.6985
چاگرد	-11.6988
▁جائزہ	-11.699
▁وحدت	-11.6991
▁ٹیکسی	-11.6992
وڈ	-11.6993
▁ناگتء	-11.6993
▁سربر	-11.6996
یب	-11.6997
▁منتء	-11.6999
▁براتء	-11.6999
▁ہژدہ	-11.6999
▁زورے	-11.7
برجاہ	-11.7
▁ھرچے	-11.7001
▁افس	-11.7002
▁بھرتی	-11.7003
اجوئی	-11.7005
▁ground	-11.7005
▁چھرگ	-11.7006
▁ساہء	-11.7008
▁اجازہ	-11.7008
▁یانی	-11.7012
▁اطلاعات	-11.7014
▁زم	-11.7015
▁ھمدء	-11.7015
▁پکائیں	-11.7017
۔۔۔بلے	-11.7018
▁لوٹائینگ	-11.7018
▁سرجمیء	-11.7018
▁se	-11.7022
▁ایشانء	-11.7023
▁جیڑہء	-11.7025
▁بابر	-11.7029
▁گواش	-11.7029
▁خلق	-11.703
▁2004	-11.7032
▁لوزانت	-11.7032
▁وختے	-11.7035
▁معمولی	-11.7036
▁شرو	-11.7038
▁Me	-11.7038
▁الو	-11.7038
▁سهر	-11.7039
▁حرماگ	-11.704
▁کدیں	-11.704
▁مبات	-11.7041
▁عین	-11.7044
▁تیزیں	-11.7045
▁سروکے	-11.7045
▁اگان	-11.7046
بشکن	-11.7046
▁characters	-11.7046
▁کالب	-11.7049
▁گزشت	-11.7053
▁بازاراں	-11.7053
▁ساربان	-11.7054
چکہ	-11.7054
▁ھنگت	-11.7056
▁قصہے	-11.7057
▁entire	-11.7059
▁2005	-11.7059
▁پروٹین	-11.7059
▁construction	-11.7059
▁مانیت۔	-11.7062
گٹ	-11.7063
▁گولڈ	-11.7064
▁ڑ	-11.7064
▁جنوبی	-11.7064
▁ورگا	-11.7066
▁سون	-11.7067
▁نمک	-11.7069
▁کمبرانی	-11.7069
▁وشنود	-11.7072
ترس	-11.7073
▁ماہور	-11.7073
بلکنا	-11.7076
وب	-11.7076
▁کمر	-11.7077
▁بوک	-11.7078
▁بگلء	-11.7078
▁ابے	-11.7081
▁گوج	-11.7082
▁سرام	-11.7082
▁گرکی	-11.7084
▁انکلاب	-11.7085
▁دوستیء	-11.7086
مئی	-11.7086
▁ابھی	-11.7087
▁کنڈی	-11.709
▁حذمت	-11.709
▁انٹیلی	-11.709
▁وتاس	-11.7091
▁باتیل	-11.7091
▁شھ	-11.7092
▁ٹھ	-11.7101
▁بیگانگ	-11.7103
جنت	-11.7104
▁کوہی	-11.7104
اڑ	-11.7106
▁سوچیت	-11.7107
▁کودکیں	-11.7108
▁خشک	-11.7111
▁اکسانی	-11.7111
▁چریک	-11.7113
▁راھبنداں	-11.7113
ld	-11.7113
▁مشگ	-11.7116
K	-11.7118
▁قسمے	-11.712
▁چارتگ	-11.7122
▁دیوار	-11.7122
▁نادراھانی	-11.7123
▁Le	-11.7128
▁ھجالت	-11.7129
▁کہیر	-11.7131
شہر	-11.7132
▁جنزے	-11.7137
▁represent	-11.7137
برز	-11.7138
سندھی	-11.7138
▁قندیل	-11.714
▁انٹرویو	-11.7141
▁پیشہ	-11.7146
▁شیشہ	-11.7148
▁رومان	-11.7148
▁سیاہگ	-11.7148
▁کپوک	-11.715
▁گمے	-11.7151
جام	-11.7151
▁اوشتات۔	-11.7151
▁ذی	-11.7151
▁پازلء	-11.7152
▁زیریت	-11.7153
▁مراداں	-11.7158
▁شماری	-11.716
▁27	-11.7161
▁لہ	-11.7161
▁ہندے	-11.7161
▁شاہگان	-11.7164
▁انونیں	-11.7166
▁رائی	-11.7167
▁ازمانگ	-11.7169
▁ریشگ	-11.717
▁دفاع	-11.7171
▁امت	-11.7171
▁ازماں	-11.7174
▁گئیں	-11.7174
▁اورتگ۔	-11.7174
▁ڈگارے	-11.7175
▁نورل	-11.7176
▁انجن	-11.7178
▁دراہگ	-11.718
▁حسد	-11.7181
▁٭۔	-11.7185
شرف	-11.7188
▁نظریاتی	-11.7189
▁۔کہ	-11.7192
پرچاکہ	-11.7192
▁السء	-11.7193
▁تامور	-11.7198
▁ھدیس	-11.7201
▁دیمرہی	-11.7201
▁جاہی	-11.7201
▁بانزلاں	-11.7204
▁اوٹ	-11.7206
جاه	-11.7209
مردمانی	-11.7211
هے	-11.7211
▁ھندو	-11.7213
▁ازاتء	-11.7214
▁پتی	-11.7219
▁صبیحہ	-11.7221
▁رویش	-11.7222
▁ہشتاد	-11.7222
▁سمالانی	-11.7223
زا	-11.7228
▁بوجگ	-11.723
▁شادمانی	-11.7231
▁بنیں	-11.7232
ناکیں	-11.7235
▁انتہائی	-11.7238
▁کھندان	-11.7238
▁ہم۔	-11.7238
▁دلکشیں	-11.7239
▁پادگ	-11.724
▁حالرسانی	-11.7241
ساز	-11.7242
▁میڑے	-11.7243
▁سگریٹے	-11.7244
شم	-11.7245
▁چور	-11.7246
at	-11.7248
▁comment	-11.7249
▁گمسار	-11.7249
▁مرادساحر	-11.725
▁provid	-11.7251
▁مملکت	-11.7252
▁خواہش	-11.7256
▁گہتریں	-11.7256
▁زینب	-11.7257
▁کشش	-11.7259
▁سبزگ	-11.7259
▁national	-11.7261
زندء	-11.7261
▁لہر	-11.7265
▁مدئے	-11.7265
▁کنڈء	-11.7266
▁برجاه	-11.7266
▁بانداتے	-11.727
▁سیری	-11.727
▁..	-11.7273
▁وھدان	-11.7274
▁حقاں	-11.7274
▁جگا	-11.7277
▁رازیگ	-11.7277
▁یےء	-11.7278
▁بنند	-11.7279
▁ھدامرزی	-11.7279
▁تاگ	-11.7281
خدا	-11.7282
ندر	-11.7282
ts	-11.7283
▁تراں	-11.7283
▁پرین	-11.7284
▁سوداگری	-11.7285
▁پاھار	-11.7285
▁زورگیر	-11.7285
▁ندات	-11.7286
▁پئیما	-11.7287
▁بیچارگ	-11.7288
▁وہاب	-11.7288
▁بالشت	-11.7291
▁تبی	-11.7292
▁ادبیات	-11.7293
▁ریگزار	-11.7293
▁نار	-11.7294
▁ہندوستانی	-11.7294
▁مرادساحرء	-11.7294
▁come	-11.7294
▁کاملیں	-11.7295
▁غار	-11.7296
▁ماھانی	-11.7297
▁دزاں	-11.7299
▁دشمنیں	-11.7299
▁چارلس	-11.7301
▁عقلء	-11.7302
▁ہمگرنچیں	-11.7303
▁others	-11.7303
txt	-11.7303
▁رکشہ	-11.7306
▁گناھے	-11.7307
ینتہ	-11.7309
▁خیل	-11.7311
زندگی	-11.7311
کمیں	-11.7314
گرمیں	-11.7319
▁سوک	-11.732
▁نمائندگ	-11.7321
▁person	-11.7325
▁تاریخء	-11.733
سیر	-11.733
▁ڈاکٹردیدگ	-11.7332
▁گرنیڈ	-11.7333
▁زبریں	-11.7333
▁راجمانء	-11.7334
▁ناسرجم	-11.7334
▁کاؤنٹر	-11.7335
▁چیئر	-11.7336
▁اکرء	-11.7338
▁ندارگانی	-11.7341
▁کشتی	-11.7341
▁ھاکاں	-11.7342
▁سورء	-11.7342
▁دنیگت	-11.7343
شور	-11.7348
▁گرانت	-11.7348
.......	-11.735
ate	-11.7351
▁جنزاں	-11.7353
▁المء	-11.7353
▁پدریں	-11.7353
▁pre	-11.7355
▁اںت	-11.7356
▁نگاہاں	-11.7356
▁پوائنٹ	-11.7357
▁بدھ	-11.7358
▁شامء	-11.7359
▁ہجبر	-11.7359
w	-11.7362
▁زردار	-11.7364
▁شہدیں	-11.7365
یج	-11.7365
▁ہمہ	-11.7365
▁روشے	-11.7368
چن	-11.7368
▁date	-11.7369
▁رخشانی	-11.737
▁شپک	-11.7374
ھند	-11.7375
▁بداں	-11.7377
▁اباں	-11.7378
کہول	-11.7378
▁مردینانی	-11.7383
▁تئیگ	-11.7384
▁کوارٹر	-11.7385
▁غلط	-11.7387
▁مارء	-11.7388
▁ترپ	-11.7388
▁رہبندء	-11.7388
▁کوڑی	-11.7388
▁پھمگ	-11.7391
▁ئین	-11.7393
▁ھندوستانی	-11.7398
▁چولاں	-11.7399
زن	-11.7399
▁کپئگ	-11.7402
▁جاگھاں	-11.7404
▁ریں	-11.7406
▁منطقی	-11.7406
▁تنقیدی	-11.7413
▁hurricane	-11.7414
▁نندیں	-11.7416
ایشاں	-11.7416
▁چاک	-11.7417
▁عصا	-11.7418
▁کیمت	-11.7421
▁بژنی	-11.7421
▁صدا	-11.7423
▁تیں	-11.7428
▁فردوسی	-11.7431
▁بیبرگ	-11.7431
▁ھدیسے	-11.7438
▁بھتی	-11.7438
▁والد	-11.7439
▁جوابی	-11.7445
▁اکتر	-11.7446
▁مکھیں	-11.7447
▁کمپین	-11.7447
▁بوتگاں۔	-11.7448
▁بندیگجاہ	-11.7449
▁جمبرانی	-11.745
ھل	-11.7452
▁برتگیں	-11.7459
▁پارٹیانی	-11.7459
▁یاتگیری	-11.7461
▁سرمچاری	-11.7461
▁پائے	-11.7463
▁عبدالعزیز	-11.7463
▁مادگ	-11.7464
▁ڪن	-11.7465
ابی	-11.7469
▁میچ	-11.7469
▁debut	-11.747
os	-11.747
▁ریموٹ	-11.747
▁نوعیت	-11.747
▁اصحاب	-11.7472
▁پائیدار	-11.7472
▁ڈیمز	-11.7472
▁پجارء	-11.7473
▁کویت	-11.7473
▁کائیگر	-11.7474
▁داشتہ	-11.7475
ul	-11.7478
▁خیالات	-11.7479
▁گونی	-11.7482
▁پنجاپی	-11.7484
▁ھمراھانی	-11.7485
▁میارباری	-11.7486
▁ڈیھی	-11.7486
▁گیتکگ	-11.7487
▁زاد	-11.749
▁ھرام	-11.749
▁عیبے	-11.7491
▁لنککاں	-11.7493
▁liv	-11.7493
▁ڈبی	-11.7493
▁گرین	-11.7494
▁کتبی	-11.7495
▁difficult	-11.7498
▁Kingdom	-11.7498
▁حقوق	-11.7498
▁حاندان	-11.7499
▁گورگیج	-11.7499
▁مہروانیں	-11.75
▁پٹرول	-11.75
▁نقشہ	-11.7502
▁ازمے	-11.7502
▁رخصت	-11.7505
▁نیادی	-11.7507
▁جاپر	-11.7508
▁مائی	-11.7509
▁ئیت	-11.7511
▁استاراں	-11.7511
▁گدارانی	-11.7513
▁سرریچ	-11.7514
▁سیدھاشمی	-11.7516
▁رہوت	-11.7518
▁لانس	-11.7519
وہد	-11.752
▁جستاں	-11.7521
▁تشبیہ	-11.7522
▁rest	-11.7522
▁اشیا	-11.7523
▁کانونی	-11.7523
▁بارء	-11.7524
▁wide	-11.7525
▁campaign	-11.7526
▁واشنگٹن	-11.7526
▁Island	-11.7527
▁چیروکائی	-11.7527
▁چاغی	-11.7529
▁کردارے	-11.753
نبشتگ	-11.7531
▁مارٹر	-11.7533
▁پاہار	-11.7534
▁نوشت	-11.7534
▁غرض	-11.7535
▁دوسرا	-11.7535
▁ھجالتی	-11.7537
مٹ	-11.7539
▁نیمونے	-11.7543
ير	-11.7544
▁شیراز	-11.7546
▁انے	-11.755
ترین	-11.7551
▁گردی	-11.7554
▁Grand	-11.7554
▁کنئگا	-11.7555
▁ریلوے	-11.7555
▁گریڈ	-11.7555
▁Cup	-11.7556
▁سوٹ	-11.7559
▁works	-11.7559
▁کرگ	-11.756
▁view	-11.7562
▁گوہرام	-11.7562
▁سائنسداناں	-11.7563
▁سازء	-11.7564
▁شکے	-11.7565
▁واجہیں	-11.7565
غوث	-11.7566
▁واجہاں	-11.7566
▁complet	-11.7567
am	-11.7568
▁دلوں	-11.7568
▁ہوگا	-11.7568
▁دھکانء	-11.7569
ٹس	-11.757
خیر	-11.757
▁عنبر	-11.7571
▁ہمدپ	-11.7571
ach	-11.7571
▁رندانی	-11.7574
▁ٹیکسٹ	-11.7574
▁جہلانکیں	-11.7578
▁کنڈاں	-11.7581
گاڑی	-11.7582
▁چاپء	-11.7582
▁victor	-11.7582
▁کدء	-11.7583
▁سرینگ	-11.7584
▁سوویت	-11.7585
▁امجد	-11.7585
▁وین	-11.7588
▁سچکان	-11.7589
▁ازگار	-11.759
▁رژناہ	-11.7591
▁اثرے	-11.7594
▁ننگر	-11.7595
▁کپن	-11.7597
▁وابجاہ	-11.7599
▁دادے	-11.76
شعرء	-11.76
▁جپت	-11.7601
▁کلاکاں	-11.7603
▁ستون	-11.7603
▁انیس	-11.7603
▁دوز	-11.7603
▁believ	-11.7605
▁گرز	-11.7606
▁درپش	-11.7609
▁ودینگ	-11.7612
▁دلیں	-11.7613
▁واجھیں	-11.7613
▁بچکانی	-11.7614
▁سردیں	-11.7615
▁ھش	-11.7615
منیر	-11.7617
▁جات	-11.7619
▁addition	-11.7621
▁زورایت	-11.7622
▁ڈیوڈ	-11.7622
▁اشوبے	-11.7626
▁سساء	-11.7629
گران	-11.763
ti	-11.7633
▁بچانی	-11.7635
▁موں	-11.7637
▁کدو	-11.7638
▁بابتا	-11.7638
▁give	-11.7639
▁مڑگ	-11.7639
▁سرپراز	-11.7639
▁الطاف	-11.7641
▁گلائش	-11.7642
▁دورہ	-11.7643
▁انت۔منی	-11.7644
ہہ	-11.7645
▁night	-11.7645
▁شھداد	-11.7646
▁انکاری	-11.7655
▁کلاتے	-11.7655
▁شانتگ	-11.7657
وکے	-11.7658
مت	-11.7659
▁guns	-11.766
▁۔۔۔۔۔۔۔	-11.766
▁لہڑی	-11.7661
▁ھے	-11.7661
▁بلۆچستان	-11.7661
▁گاں	-11.7662
▁باکس	-11.7662
▁fight	-11.7663
▁بٹن	-11.7663
▁کنات	-11.7665
▁بینت	-11.7666
▁فیروز	-11.7667
▁Company	-11.7668
▁فیلڈ	-11.7668
▁نوشتگ	-11.767
▁پرمائیت	-11.7673
▁پندلے	-11.7673
▁بیزن	-11.7674
زندگ	-11.7675
▁کوهن	-11.7675
جب	-11.7676
▁بستر	-11.768
▁انت۔یک	-11.768
عمل	-11.768
▁ترانگ۔۔۔	-11.7684
▁کب	-11.7685
▁موز	-11.7689
▁سینٹ	-11.7691
▁کنزگ	-11.7691
▁سیما	-11.7691
▁سنگیں	-11.7692
▁نہایت	-11.7694
اھی	-11.7695
▁process	-11.7696
▁کولیسٹرول	-11.7696
▁شائرء	-11.7699
زاں	-11.7699
▁عبدالنبی	-11.77
▁پتھر	-11.7701
بک	-11.7704
▁ساسانی	-11.7705
▁انسٹی	-11.7707
▁وشتریں	-11.771
▁گوشیت۔	-11.771
▁ریم	-11.7711
▁offer	-11.7713
▁شارء	-11.7715
▁بنگپی	-11.7716
▁لیں	-11.7716
▁کڑک	-11.7717
▁فعال	-11.7721
▁زمستانی	-11.7722
▁بهار	-11.7723
▁me	-11.7724
▁exist	-11.7726
▁انگیں	-11.7728
▁چیرمین	-11.773
▁شھزاد	-11.7733
▁گرفتار	-11.7735
▁بوھگی	-11.7735
▁highway	-11.774
▁حقء	-11.774
▁رپتگیں	-11.7743
▁بڈء	-11.7744
▁لاک	-11.7745
▁پدمنتگی	-11.7749
▁ٹکانی	-11.7749
▁وانوکے	-11.7751
▁کوالٹی	-11.7754
▁حرابی	-11.7754
▁مودانی	-11.7755
▁بہراں	-11.7755
▁گوازینگء	-11.7759
بنت۔	-11.7759
▁سوغات	-11.776
▁ملان	-11.7763
بیتگ	-11.7765
▁نیلیت	-11.7765
▁تاریک	-11.7766
▁ہونا۔	-11.7766
ارت	-11.7766
▁تامرے	-11.7767
▁روئیں	-11.7771
▁بیراں	-11.7771
▁چاڑے	-11.7772
مگ	-11.7773
▁پیز	-11.7774
ford	-11.778
!!!	-11.7782
▁stars	-11.7785
▁ڈوھدار	-11.7785
▁گندوک	-11.7787
▁شکیل	-11.7789
▁اتکیں	-11.779
اگہ	-11.779
▁کوہلو	-11.7792
▁کوچگاں	-11.7794
▁La	-11.7794
▁visit	-11.7796
انوں	-11.7799
▁litt	-11.7801
▁کارکنانی	-11.7802
tic	-11.7802
▁زھیراں	-11.7803
▁جماز	-11.7803
▁رودینگ	-11.7804
▁خواب	-11.7804
▁زابل	-11.7804
▁Some	-11.7811
▁اچکزئی	-11.7812
▁اشکی	-11.7814
▁گرئے	-11.7815
▁دراتکگیں	-11.7816
▁لہجہ	-11.7818
▁درامدانی	-11.782
▁ھونی	-11.782
▁سالار	-11.7825
▁گرداں	-11.7825
▁فاروقی	-11.783
امان	-11.7831
▁جوانیء	-11.7833
▁میچل	-11.7834
▁اہو	-11.7836
▁Love	-11.7837
دریا	-11.7837
▁جھلانکی	-11.7838
▁کنک	-11.7838
جتا	-11.7838
▁figure	-11.784
▁بادشاہء	-11.7842
▁جرمے	-11.7843
▁نیشنلزم	-11.7845
▁نیوگ	-11.7846
▁ڈا	-11.785
▁پدرا	-11.785
▁خالی	-11.785
تہا	-11.7854
اوانی	-11.7859
▁پاسداری	-11.7859
▁برق	-11.7859
▁class	-11.786
▁جھدا	-11.7863
▁ابانی	-11.7865
▁سرھالانی	-11.7865
▁رحمٰن	-11.7869
▁لقب	-11.787
▁male	-11.787
صل	-11.7871
▁کنئے۔	-11.7872
اخ	-11.7874
▁شپاد	-11.7876
ایشیء	-11.7877
▁دریکگ	-11.7879
▁گڈسری	-11.7882
▁بوٹگ	-11.7883
تری	-11.7883
▁جزباتی	-11.7883
▁جمعیت	-11.7884
▁کلیم	-11.7884
▁نادراهی	-11.7884
▁نیامی	-11.7884
▁تاثر	-11.7889
▁بکال	-11.7889
▁ھی	-11.789
▁سرپر	-11.7898
▁Battalion	-11.7898
▁ناکوزتک	-11.7899
▁بندئے	-11.7899
▁کاروائیاں	-11.7899
▁نظیر	-11.7903
▁تہاریء	-11.7906
▁ناہک	-11.7906
▁چورہ	-11.7906
▁نجی	-11.7906
▁ذاکر	-11.7906
▁born	-11.7909
▁سهب	-11.791
▁گندک	-11.7911
▁ڈو	-11.7912
▁پھرہ	-11.7916
بیر	-11.7918
▁کھں	-11.7922
▁دیتگ	-11.7922
▁زیور	-11.7925
▁نزوریاں	-11.7926
▁David	-11.7928
▁wife	-11.7928
▁چاکرء	-11.7928
▁southern	-11.7928
ium	-11.7933
▁افسانے	-11.7933
▁پہنچا	-11.7937
▁تالاں	-11.7938
▁coast	-11.794
▁ماڈی	-11.7941
کرد	-11.7942
▁اندرا	-11.7944
ٹری	-11.7944
نج	-11.7945
کپتگ	-11.7945
▁جاڑیں	-11.7946
▁ھزاریں	-11.7946
▁ھیرانی	-11.7949
▁مروشی	-11.795
بوگ	-11.7951
▁تئوار	-11.7951
▁میلانک	-11.7952
▁ترہ	-11.7955
▁France	-11.7955
▁ازمکارے	-11.7955
چش	-11.7956
▁ہیران	-11.7956
▁ماڈرن	-11.7956
▁گریتگ	-11.7957
▁ھرچنت	-11.7958
▁ساخت	-11.7958
▁پرگ	-11.7959
▁mi	-11.796
▁نوکنڈی	-11.7961
▁صبح	-11.7962
▁کلگی	-11.7962
▁خواجہ	-11.7963
▁ترانگء	-11.7964
▁گھنٹہ	-11.7964
▁اکل	-11.7964
▁چاھے	-11.7969
▁post	-11.797
▁دازن	-11.7971
▁ناکۆ	-11.7971
جتائیں	-11.7975
▁بیمناک	-11.7978
▁wh	-11.7978
▁چال	-11.798
▁بلور	-11.7981
کچک	-11.7982
▁درکئیت	-11.7983
▁بوء	-11.7983
▁گپتء	-11.7983
▁جہانے	-11.7984
▁women	-11.7986
▁وٹامن	-11.7987
▁پبلشرز	-11.7987
▁حدود	-11.7989
▁mother	-11.799
▁مشترکہ	-11.7993
▁سلوات	-11.7993
▁ڈیھء	-11.7995
▁کوھے	-11.7996
▁ائیوکیں	-11.7996
▁ناسرپدی	-11.7997
▁داغ	-11.8
▁سببے	-11.8
▁دریاب	-11.8001
▁مادری	-11.8004
▁چرپ	-11.8007
▁ستارہ	-11.8007
▁ٹیوٹ	-11.8008
▁کاگدء	-11.8008
▁زھن	-11.8009
▁مچانی	-11.801
▁love	-11.8011
▁سکتی	-11.8014
▁Music	-11.8014
▁شورہاں	-11.8015
▁Brigade	-11.8016
▁ٹھاٹھ	-11.8016
▁پێش	-11.8016
▁study	-11.8016
▁نصراللہ	-11.8016
▁عکسء	-11.8017
▁ہڑتال	-11.8018
▁داوت	-11.8018
▁وصیت	-11.8018
▁اشکنوک	-11.802
▁تالانی	-11.8021
روسی	-11.8021
95	-11.8022
▁هں	-11.8022
▁مہروان	-11.8023
▁رستم	-11.8024
▁بٹاک	-11.8025
▁سراپ	-11.8027
▁سچیت	-11.8027
▁loss	-11.8028
▁لڑء	-11.803
▁جندئے	-11.8037
▁المین	-11.804
▁کک	-11.8041
▁اوزار	-11.8041
سین	-11.8043
لاں	-11.8043
▁چوھدری	-11.8046
▁مھرنھاد	-11.8046
▁بغاوت	-11.8046
▁پرسن	-11.8046
▁لورالائی	-11.8047
▁بیزاری	-11.805
▁بگوشاں	-11.8051
▁سیکنڈ	-11.8051
▁بدنام	-11.8051
▁اعجاز	-11.8052
▁ناس	-11.8052
▁command	-11.8053
▁put	-11.8056
▁ساھگے	-11.8056
▁ہیڈ	-11.8059
اچہ	-11.806
▁جائیں	-11.806
▁شہیدی	-11.806
▁report	-11.806
▁مانشانتگ	-11.8062
▁سائیٹ	-11.8063
▁ہپتگ	-11.8063
▁مقابل	-11.8069
▁بیٹ	-11.807
▁جواز	-11.8074
”?	-11.8074
عر	-11.8075
▁نمای	-11.8077
▁تندجاہ	-11.8077
▁داستانانی	-11.8081
▁نورخان	-11.8082
▁زوتیں	-11.8082
▁فرشتہ	-11.8084
▁بگشاں	-11.8084
▁دارئگ	-11.8085
▁Robert	-11.8086
۔بزاں	-11.8087
تھا	-11.8087
ling	-11.8088
▁حالانکہ	-11.8093
جس	-11.8095
▁جیڑت	-11.8095
▁چراگاں	-11.8096
▁رسین	-11.8099
▁کادر	-11.8101
▁رہیم	-11.8103
▁Ma	-11.8103
▁ازمءگوازی	-11.8105
▁eastern	-11.8105
▁ٹھوس	-11.8106
▁Roman	-11.8107
▁اکوام	-11.8107
▁کچی	-11.8108
▁یاسمین	-11.8109
▁مارشل	-11.811
کاف	-11.8111
▁اعلیٰ	-11.8112
▁پیلویں	-11.8112
▁کپے	-11.8116
▁قطر	-11.812
▁نشانیاں	-11.8123
▁جوانین	-11.8124
این	-11.8133
▁provide	-11.8133
▁relationship	-11.8135
▁اھر	-11.8136
▁ھاکمانی	-11.8136
ناکو	-11.8137
▁الودگی	-11.8138
▁وٹس	-11.8139
▁پپ	-11.8141
▁ایڈ	-11.8141
▁انہاں	-11.8142
▁East	-11.8143
▁ماتو	-11.8145
▁عمری	-11.815
▁جواں	-11.815
▁روپگ	-11.8151
▁cell	-11.8152
▁انقلابی	-11.8152
be	-11.8153
▁انفرادی	-11.8156
▁رودین	-11.8157
▁گوشداروک	-11.8157
▁گیشتری	-11.8159
▁بزھگ	-11.816
ناز	-11.816
▁بیت۔بلے	-11.8163
▁وڈے	-11.8163
▁2015	-11.8165
▁2003	-11.8165
▁داروگہ	-11.8165
▁شیرگ	-11.8165
▁قالب	-11.8167
▁علاقائی	-11.8168
▁f	-11.8169
▁ھدابند	-11.817
▁ہپتگے	-11.817
▁گالبندانی	-11.817
▁نگاھاں	-11.8171
▁نصر	-11.8172
co	-11.8172
▁واھگء	-11.8174
دن	-11.8174
▁اوبادگ	-11.8174
▁توپانی	-11.8174
▁اؤرت۔	-11.8175
مانا	-11.8176
▁کردگار	-11.8179
▁گوئستگیں	-11.8183
▁لنج	-11.8183
زرت	-11.8185
▁ویلے	-11.8187
بھر	-11.8187
▁گوئش	-11.819
▁ناشریں	-11.819
▁پنگ	-11.819
▁بانوری	-11.8191
▁ایمرجنسی	-11.8195
1	-11.8196
▁مزد	-11.8196
چین	-11.8196
▁گیڑھ	-11.8197
▁نکسان	-11.8197
▁مرکب	-11.8198
▁مانگیش	-11.8198
▁دلپروشی	-11.8199
▁روانبد	-11.82
▁پہمئنء	-11.82
▁سحب	-11.8201
چوں	-11.8201
▁غفار	-11.8201
▁امبری	-11.8202
▁عاشقی	-11.8204
▁سویت	-11.8205
▁image	-11.8205
▁سرائیکی	-11.8206
▁40	-11.8207
شری	-11.8208
▁کندگانی	-11.8208
کت۔	-11.8209
▁دودے	-11.8211
▁دوم	-11.8212
▁رۆچے	-11.8214
▁وانیں	-11.8216
▁دزانی	-11.8217
▁گے۔	-11.8218
▁وائے	-11.8218
▁نوبتاں	-11.822
▁افزائش	-11.8225
▁سیندک	-11.8225
▁گرامر	-11.8226
▁کرامات	-11.823
▁چاکری	-11.8231
نازک	-11.8232
کسانیں	-11.8235
▁نمازء	-11.8239
▁سلاماں	-11.8244
▁جیک	-11.8245
▁وامدار	-11.8245
▁ماہل	-11.825
▁ہاترء	-11.8252
F	-11.8252
▁کورانی	-11.8252
▁Other	-11.8255
▁دیوالے	-11.8257
▁بنھشت	-11.8257
▁ھئیال	-11.826
▁مران	-11.826
▁جاورھالانی	-11.8261
▁race	-11.8261
▁انون	-11.8264
▁کثہ	-11.8271
▁non	-11.8271
▁ہسین	-11.8272
▁پیرکی	-11.8273
اسپ	-11.8274
▁نیمگی	-11.8275
▁گوست۔	-11.828
▁نیزگاری	-11.8281
▁بوس	-11.8282
▁g	-11.8284
.........	-11.8286
▁زندئے	-11.8287
▁جاندراھی	-11.8287
?!	-11.8289
▁ساعتاں	-11.8291
▁پیگام	-11.8291
▁گولا	-11.8292
▁جمبور	-11.8295
▁حوری	-11.8295
▁continue	-11.8295
▁فائدگ	-11.8295
▁اصطلاحات	-11.8301
جوانیں	-11.8302
▁ٹر	-11.8302
▁مختصر	-11.8302
▁اسراتیاں	-11.8303
▁حور	-11.8304
▁کالجء	-11.8305
جند	-11.8305
▁دارگا	-11.8305
▁مہرنگ	-11.8307
یگاں	-11.8307
▁اهد	-11.8309
▁غریبی	-11.8309
▁دوارگ	-11.8311
▁شدیگ	-11.8312
........	-11.8312
▁زوراوریں	-11.8314
▁عاروس	-11.8314
▁لچہانی	-11.8315
اڈ	-11.8317
▁ارگنائزر	-11.8318
▁کلمت	-11.8318
▁taken	-11.8318
▁شاہدی	-11.8319
▁اۆدا	-11.8319
▁fourth	-11.8319
▁سرداروں	-11.8319
▁مرشی	-11.832
▁مسقط	-11.832
▁سوزمان	-11.8322
▁ڈنک	-11.8323
▁الھان	-11.8324
▁کپتنت	-11.8324
▁move	-11.8325
rd	-11.8326
▁حیوان	-11.8327
▁زیبائیء	-11.8328
▁اسکولے	-11.8328
بچک	-11.8329
ارس	-11.8331
▁رئوت	-11.8336
▁کماشانی	-11.834
▁Her	-11.834
▁ملگزار	-11.834
▁سہل	-11.834
▁Per	-11.8347
▁کلاسیکی	-11.8348
▁لٹریچر	-11.8349
▁کسھی	-11.8352
▁چگ	-11.8355
▁لینا	-11.8356
▁شومک	-11.8358
▁زرتہ	-11.8358
▁جزماں	-11.836
▁میرانی	-11.8361
▁کاھان	-11.8362
▁ثقافتی	-11.8362
▁فا	-11.8366
▁تناظر	-11.8369
▁خوار	-11.837
اکی	-11.8375
▁Europe	-11.8376
▁European	-11.8378
کشگ	-11.8379
▁رکھتا	-11.8379
چه	-11.8382
ting	-11.8383
▁چینکس	-11.8384
▁گورگ	-11.8384
▁واقعی	-11.8384
▁ناراض	-11.8386
▁چادرء	-11.8386
▁گب	-11.839
لال	-11.8391
▁ہلاک	-11.8391
ھن	-11.8393
اولس	-11.8395
▁سربیتگیں	-11.8396
▁گریو	-11.8397
▁کسانین	-11.8402
▁چشمک	-11.8402
▁کردستان	-11.8402
ak	-11.8402
ایم	-11.8404
ته	-11.8404
▁ابدمانیں	-11.8405
▁دھکاں	-11.8406
▁مہرانکی	-11.8406
▁تفصیل	-11.8416
▁goal	-11.8417
▁امیتی	-11.8417
▁کھیر	-11.8417
▁ماھو	-11.8418
▁نبشتانکء	-11.842
▁شاہگانی	-11.8421
▁چڑو	-11.8422
▁کما	-11.8423
▁کراں	-11.8423
بور	-11.8425
▁بھاگ	-11.8426
▁ملکان	-11.843
▁کاریاں	-11.8434
▁consist	-11.8438
▁پتلون	-11.8439
▁زلف	-11.8441
▁پٹک	-11.8441
▁خدائیداد	-11.8441
▁کاروانے	-11.8441
il	-11.8443
▁دزکپتگ۔	-11.8444
▁ڈولی	-11.8444
▁درچکء	-11.8444
▁مالانی	-11.8445
کلات	-11.8445
▁افسرے	-11.8445
▁ساهگ	-11.8446
▁دیدگء	-11.8446
کمک	-11.8446
▁میاربار	-11.8448
▁اسکا	-11.8452
▁ہرجاہ	-11.8452
▁ارامی	-11.8454
▁چرک	-11.8454
▁بوؤگء	-11.8458
▁ایشیئ	-11.846
▁ساجو	-11.846
▁نانے	-11.8464
مس	-11.8465
انسانی	-11.8465
▁lack	-11.8469
▁دوچگ	-11.847
▁God	-11.847
▁وسء	-11.847
وند	-11.8472
اڑے	-11.8472
▁decided	-11.8472
▁اجز	-11.8473
▁پھزدار	-11.8474
▁بیتہ۔	-11.8474
جم	-11.8474
cy	-11.8475
▁بؤکیں	-11.8476
▁بستی	-11.8477
▁دریگء	-11.8478
دئیگ	-11.8479
▁ترات	-11.8479
▁ٹاپار	-11.8482
▁idea	-11.8482
▁متھ	-11.8482
▁کنزان	-11.8483
▁سوبے	-11.8486
ns	-11.8487
▁لہم	-11.8488
▁نوان	-11.849
▁مجتی	-11.8491
ئیت	-11.8491
▁بدلہ	-11.8491
▁Port	-11.8493
امی	-11.8495
▁شانت	-11.8495
بچ	-11.8496
▁نکناں	-11.8498
▁سرگوستے	-11.8498
▁heavy	-11.85
▁عوض	-11.85
▁امیج	-11.8501
▁دکانء	-11.8501
▁ککڑ	-11.8503
▁کؤل	-11.8504
▁پج	-11.8507
ینانی	-11.8508
یف	-11.8508
نزیک	-11.851
▁شئیراں	-11.8511
▁ھمراھے	-11.8513
▁سدء	-11.8515
▁اروسی	-11.8516
▁دزرس	-11.8518
اسحاق	-11.8519
▁باگیں	-11.8519
▁وترا	-11.8522
▁گزل	-11.8522
▁ہیک	-11.8522
▁گامگیجے	-11.8523
▁سنگتان	-11.8523
den	-11.8524
▁بتایا	-11.8524
▁face	-11.8526
▁ارٹس	-11.8527
▁نداتگ	-11.8527
▁gun	-11.8527
ir	-11.853
▁اکیڈیمی	-11.8531
▁بانکیں	-11.8531
▁سکریٹری	-11.8533
هی	-11.8533
▁ٹرین	-11.8536
▁لبنان	-11.854
▁زوریت۔	-11.854
▁لاشاں	-11.8541
▁ملٹری	-11.8541
▁نزارگ	-11.8543
▁چکگ	-11.8545
وہدیکہ	-11.8547
دیں	-11.8548
▁پولیو	-11.8549
▁چگین	-11.855
▁نمیرانی	-11.8552
▁رسانکجاھ	-11.8552
▁ارسی	-11.8553
▁گوستگال	-11.8553
▁دلچسپی	-11.8553
▁گذر	-11.8555
جہل	-11.8555
▁فلیٹ	-11.8555
▁مومنء	-11.8555
▁سرگوات	-11.8556
▁ویسٹ	-11.8557
▁گردیں	-11.8562
▁problem	-11.8562
▁condom	-11.8562
▁Royal	-11.8563
▁گوشتے	-11.8565
▁White	-11.8565
▁امشپی	-11.8565
▁sold	-11.8565
▁دمکے	-11.8566
▁program	-11.8568
▁دوہ	-11.8569
▁سیریں	-11.8569
▁شریعت	-11.8573
▁درامدے	-11.8579
▁ناں۔	-11.8581
رم	-11.8581
▁اہر	-11.8583
▁رستیں	-11.8584
▁مریء	-11.8585
▁نوائے	-11.8586
▁داز	-11.8586
ڑیں	-11.8588
▁ra	-11.8588
▁ضلعی	-11.8589
کپت	-11.859
▁پشکپتگیں	-11.859
▁توجہ	-11.8594
na	-11.8595
▁مارشتء	-11.8595
▁شموشت	-11.8597
ities	-11.8597
▁دیدانک	-11.8599
▁دیو	-11.86
▁ساچشتء	-11.8604
▁وشاتک	-11.8605
▁ات۔۔۔۔	-11.8605
بست	-11.8606
▁بشکھندگی	-11.861
▁گناه	-11.8613
▁باھوٹی	-11.8614
▁بچی	-11.8614
▁لوکل	-11.8615
▁گورانی	-11.8616
نڑ	-11.8618
▁بکشگ	-11.8618
▁ببات	-11.8619
▁اوستانی	-11.862
▁ریھان	-11.8624
▁نازی	-11.8624
▁شورہ	-11.8624
▁فرقہ	-11.8625
▁individual	-11.8625
▁پرشتہ	-11.8627
▁ٹریک	-11.8628
▁اھوگ	-11.863
لیکہ	-11.863
sh	-11.8632
نمدی	-11.8634
▁وانوکء	-11.8635
▁کسانسال	-11.8636
کوش	-11.8636
▁far	-11.8638
▁گھڑی	-11.8639
▁تلوار	-11.8641
▁میڑاں	-11.8642
▁سرک	-11.8642
▁مارشتی	-11.8642
▁گندات	-11.8644
▁ترجمان	-11.8645
▁جاھی	-11.8646
▁شیرکن	-11.8646
▁۔ائیء	-11.8648
▁خوف	-11.865
▁tog	-11.8653
▁جنگاں	-11.8655
▁لۆگ	-11.8657
▁ھرجان	-11.8657
▁ہمد	-11.8657
▁shot	-11.866
▁جزیرہ	-11.866
▁کچء	-11.8664
عبداللہ	-11.8671
▁زاھدہ	-11.8675
قاضی	-11.8678
▁ناوشیں	-11.8678
جون	-11.8679
▁اژناگ	-11.868
▁درباری	-11.8684
▁ٹویٹ	-11.8686
▁پژ	-11.8687
▁گڑی	-11.869
▁فقط	-11.8691
▁ایشر	-11.8691
▁بشی	-11.8691
▁کمپ	-11.8694
▁ٹھیکہ	-11.8695
▁سمبل	-11.8696
▁سرکتگ	-11.8696
▁کدین	-11.8696
▁راھ	-11.8698
▁پارٹیز	-11.8702
▁زہیرانی	-11.8704
▁رزق	-11.8706
▁رواجی	-11.8709
▁واپار	-11.8713
▁limit	-11.8714
▁rule	-11.8714
▁احوالکار	-11.8716
▁دلوش	-11.8716
▁امیتء	-11.8716
▁بلیت	-11.8717
▁شاھگانی	-11.8717
▁گرانڈ	-11.8718
▁زریت	-11.8718
▁my	-11.8719
کئی	-11.8719
▁Earl	-11.872
ویل	-11.872
▁Carey	-11.872
▁هساب	-11.8722
▁عبدالرحمان	-11.8722
▁درخانی	-11.8722
▁ٹریننگ	-11.8723
▁نویسے	-11.8725
▁بوتل	-11.8725
▁ستاہ	-11.8726
▁ہوٹلء	-11.8726
▁جہگیری	-11.8727
کند	-11.8729
ینک	-11.873
▁کاسد	-11.873
ٹے	-11.8731
▁پلیت	-11.8733
▁جبل	-11.8736
▁گودی	-11.8739
چست	-11.8742
▁وشال	-11.8745
▁ساهت	-11.8746
▁غذائی	-11.8749
▁ٹا	-11.8751
▁تاپگ	-11.8752
▁افسوز	-11.8752
▁تصدیق	-11.8752
▁ہوں۔	-11.8756
▁center	-11.8757
▁گوزوکیں	-11.8758
▁بیپاری	-11.8759
▁بسم	-11.876
▁منزور	-11.876
▁تخیل	-11.876
▁سینما	-11.8761
▁29	-11.8761
▁اچھا	-11.8761
▁محرم	-11.8762
▁براث	-11.8763
▁سرکش	-11.8763
▁ارزشتی	-11.8766
مثال	-11.8767
▁بیگاه	-11.8767
▁مکرانی	-11.8768
▁ابادء	-11.8769
▁بالو	-11.877
▁سیلاب	-11.8771
▁گيئش	-11.8773
▁Ka	-11.8774
نتا	-11.8776
▁دروشمانی	-11.8778
▁گوریچان	-11.8779
▁وشین	-11.8782
▁مدافعت	-11.8783
▁چانسلر	-11.8784
▁برقرار	-11.8784
▁accept	-11.8785
▁شدہ	-11.8786
▁کارہندہ	-11.8787
▁انٹیلیجنس	-11.8788
▁معراج	-11.8788
▁وتساچیں	-11.8788
▁چریشانی	-11.8788
شئیر	-11.8788
▁جٹ	-11.8793
▁نورمحمد	-11.8798
▁روژنائیں	-11.8799
▁کرداں	-11.8799
▁شیرازی	-11.8799
▁دلوتاں	-11.8802
▁شیتان	-11.8802
فکشن	-11.8805
▁اغہ	-11.8807
▁بالیچہ	-11.8808
▁چیٹ	-11.8808
▁رپورٹس	-11.8809
▁Red	-11.8811
▁گٹی	-11.8812
▁begin	-11.8815
▁گڑھ	-11.8816
▁ساھیل	-11.8817
▁پیڑ	-11.8817
▁دراز	-11.8818
▁زامرانی	-11.8819
▁مافیا	-11.882
▁ھوالگ	-11.882
▁نیمء	-11.8821
▁ےء	-11.8821
▁کانی	-11.8823
▁ادینکے	-11.8825
▁communit	-11.8827
▁کوھیں	-11.8828
ab	-11.883
▁سلیمانی	-11.883
▁سلا	-11.8836
▁نادینت	-11.8837
▁مشرف	-11.8837
▁ھمائیء	-11.8838
▁مزھب	-11.8839
▁بناء	-11.8839
▁عصر	-11.8841
▁باطنی	-11.8841
▁واھش	-11.8844
▁تھل	-11.8845
▁زنگی	-11.8847
▁سافٹ	-11.8848
▁بئیں۔	-11.885
لاپ	-11.8851
مپ	-11.8859
▁village	-11.886
▁ایماندار	-11.8863
▁تلاش	-11.8863
▁کماشء	-11.8865
▁Co	-11.8868
▁پڈ	-11.887
▁mov	-11.887
▁قوتانی	-11.887
▁کوار	-11.8871
▁لاری	-11.8872
▁anti	-11.8873
field	-11.8875
▁ارسے	-11.8878
▁بگرد	-11.8878
▁ٹول	-11.8878
▁درشانتگ	-11.888
▁گندئگ	-11.888
▁پچاں	-11.888
▁کنڈیرا	-11.8881
▁درگاہ	-11.8881
▁انکھوں	-11.8881
▁طالع	-11.8883
▁سروسز	-11.8885
▁وارتگ۔	-11.8886
▁بینجو	-11.8886
▁بدنت۔	-11.8886
▁ها	-11.8888
▁چلشت	-11.889
▁سورج	-11.8892
▁گداری	-11.8893
▁گشینگ	-11.8896
▁گئے۔	-11.8898
▁پوره	-11.89
▁تعلقات	-11.89
ہمک	-11.8901
▁قاضیء	-11.8902
▁جاں	-11.8902
دوستی	-11.8905
ائل	-11.8908
▁جنگلات	-11.891
▁Federer	-11.8912
▁protein	-11.8912
▁اکانومی	-11.8912
▁جھینگا	-11.8912
▁اکساں	-11.8912
▁رخشان	-11.8915
ways	-11.8917
▁البرٹ	-11.8919
▁ڈاچی	-11.892
▁بارش	-11.892
گاہ	-11.8925
▁مودی	-11.8925
▁زورگپت	-11.8927
▁ارز	-11.8928
▁بھائیں	-11.8929
۔ائیء	-11.8932
▁زیردستیں	-11.8932
▁ناوشی	-11.8933
▁بینر	-11.8934
▁تحقیقی	-11.8937
side	-11.8937
اینت	-11.8939
▁کپی	-11.8941
ھبر	-11.8942
▁رودپتر	-11.8944
۔بلئے	-11.8945
▁سؤب	-11.8947
▁عبدالصبور	-11.8952
▁کارل	-11.8953
▁رژنے	-11.8953
▁اپسرے	-11.8955
▁fall	-11.8955
▁نزار	-11.8956
▁تیگ	-11.8956
▁کیچی	-11.8959
▁احمدان	-11.8959
▁بٹے	-11.8961
▁شرتگ	-11.8963
▁جدیدیت	-11.8963
▁مہروانی	-11.8964
▁حاکمانی	-11.8965
گیری	-11.8966
▁پروشان	-11.8967
▁لیبیاں	-11.8969
▁گوشتگیں	-11.8969
▁کوشکار	-11.8969
▁انیگ	-11.897
جہد	-11.897
نر	-11.8971
▁پٹاں	-11.8972
▁مشہوریں	-11.8972
▁ڈاکٹرانی	-11.8973
▁سالیگیں	-11.8973
▁source	-11.8976
▁نادانی	-11.8977
▁کدم	-11.8977
▁Hero	-11.8978
▁ڈنگی	-11.8978
▁رکھنے	-11.8978
▁حسی	-11.8979
▁پرنسپل	-11.898
▁دھمی	-11.8981
▁لپرزگ	-11.8982
▁مشھد	-11.8982
▁کربلا	-11.8985
▁رسمء	-11.8987
▁ask	-11.8988
▁director	-11.8989
▁چابک	-11.8989
▁پتینکاں	-11.899
▁روانت	-11.899
▁اشکانی	-11.899
▁گورکوپ	-11.8991
▁ہالو	-11.8991
رندء	-11.8991
▁ترانگانی	-11.8992
▁زوم	-11.8993
▁تبلیغ	-11.8994
▁ہردوئیں	-11.8995
▁گرپتاری	-11.8997
▁بحالی	-11.8997
▁پائی	-11.8998
▁شناست	-11.8998
▁رجانکارء	-11.8999
دیست	-11.9
▁front	-11.9001
▁مڑدے	-11.9001
▁ربیتے	-11.9001
لیٹ	-11.9002
▁کوت	-11.9003
▁ریپ	-11.9003
▁اسراتیانی	-11.9005
▁سوالی	-11.9006
6	-11.9008
▁کندن	-11.9008
▁International	-11.9009
▁ڈپارٹمنٹ	-11.9009
▁شموشکار	-11.901
▁نیکشھر	-11.901
▁George	-11.901
▁قیاس	-11.901
▁کردیا	-11.9011
▁ہاجی	-11.9011
▁گرمائشت	-11.9011
▁William	-11.9012
▁گانی	-11.9012
▁شرپی	-11.9013
▁ابتدائی	-11.9014
▁manager	-11.9014
▁طاھر	-11.9015
▁جمر	-11.9016
▁جیسا	-11.9018
▁سرپرہ	-11.9018
▁بھارتی	-11.9023
▁دوئم	-11.9024
شگ	-11.9025
▁چیدگانی	-11.9027
امیت	-11.9028
▁کمیت	-11.903
▁نهات	-11.903
▁چدو	-11.9033
▁پتاں	-11.9034
▁جیسی	-11.9034
▁ملگور	-11.9036
▁بوهگ	-11.9037
▁نندان	-11.9038
▁میٹرک	-11.9038
▁involv	-11.9039
II	-11.904
▁هاتر	-11.9041
▁تفتان	-11.9042
▁واهند	-11.9042
▁عکسانی	-11.9043
▁اسٹاپ	-11.9044
▁مہنگائی	-11.9045
▁نبیستگ	-11.9048
▁بانگواہ	-11.9048
▁ہکل	-11.9051
▁لنککانی	-11.9051
▁ہاشم	-11.9051
▁باجی	-11.9054
▁خوبی	-11.9055
ناصر	-11.9055
▁چھاپء	-11.9055
▁بێ	-11.9057
۔بلوچی	-11.9057
بیست	-11.9058
▁دیوی	-11.906
▁استعارہ	-11.9061
▁activit	-11.9063
id	-11.9064
ha	-11.9066
▁پشکپتگ	-11.9066
▁سرنگ	-11.9067
انہی	-11.9068
▁دلار	-11.9069
▁رہتا	-11.907
▁تهار	-11.9071
نیک	-11.9071
▁language	-11.9074
▁Wales	-11.9075
▁مھناز	-11.9076
▁دوائی	-11.9077
▁subse	-11.9077
▁مالء	-11.9077
▁hand	-11.9079
nder	-11.9079
▁"","	-11.9079
▁گہیں	-11.9079
▁شاھگانیں	-11.9082
▁مورے	-11.9084
▁member	-11.9084
▁ااے	-11.9085
ینیت۔	-11.9086
▁مصرعہ	-11.9087
سیت	-11.9087
▁هوش	-11.9089
▁جنوب	-11.9089
▁شاپی	-11.9089
▁عشقی	-11.9091
▁گالوارء	-11.9091
▁جول	-11.9092
▁فکرے	-11.9092
▁رکست	-11.9094
▁بداتیں	-11.9097
▁گهار	-11.9098
▁نشتگ۔	-11.9099
▁هنچو	-11.9102
▁نودی	-11.9104
▁زبانےء	-11.9106
▁ڈھانچہ	-11.9107
▁launch	-11.9107
▁کانپرنس	-11.9107
▁مشکلے	-11.9108
▁مشق	-11.9111
دک	-11.9113
▁دزگ	-11.9115
▁بیشک	-11.912
▁opening	-11.9122
▁دروازگے	-11.9123
▁بنیادمء	-11.9127
کساس	-11.9127
امین	-11.9128
▁بنچ	-11.9128
▁گوٹ	-11.9129
▁نزانتکاری	-11.9133
▁کبرانی	-11.9135
▁free	-11.9135
پرچہ	-11.9138
▁تمردی	-11.9138
▁دھوت	-11.914
▁current	-11.914
▁regular	-11.914
▁بشکندگ	-11.9141
▁سومری	-11.9143
▁Day	-11.9143
▁صفائی	-11.9144
فت	-11.9145
▁واضح	-11.9145
▁نیما	-11.9145
▁دہقان	-11.9145
▁قلندر	-11.9147
▁wall	-11.9148
▁قاری	-11.9153
▁طبیب	-11.9155
▁جدلیات	-11.9156
▁زاهر	-11.9159
▁con	-11.9161
فاضل	-11.9162
▁مڑائی	-11.9164
▁اتکء	-11.9167
▁شربت	-11.9168
▁زیرک	-11.9169
li	-11.9169
▁لعنت	-11.9169
▁دمکانی	-11.917
▁رھیم	-11.917
▁House	-11.9174
دارگ	-11.9177
▁مشیر	-11.9178
mph	-11.918
▁برین	-11.918
▁ایدا	-11.918
▁بلکین	-11.918
الوں	-11.9181
▁انکی	-11.9181
▁تصوف	-11.9181
▁جدائی	-11.9181
▁تھئی	-11.9183
▁میدانی	-11.9184
.”	-11.9187
▁گورتگ	-11.9189
▁نیزگاریں	-11.9191
جارکش	-11.9192
▁ever	-11.9193
▁اچے	-11.9193
▁destroy	-11.9195
دژمن	-11.9196
▁گردہ	-11.9198
▁درکپان	-11.9199
▁ہمبل	-11.9199
▁پروا	-11.92
▁ازمانی	-11.92
▁پٹے	-11.9201
▁زریات	-11.9202
▁شکلے	-11.9202
▁مادنی	-11.9203
لشکر	-11.9205
▁جذباتی	-11.9205
▁امنہ	-11.9206
▁عبدالقیوم	-11.9207
▁بائیکاٹ	-11.9207
▁راولپنڈی	-11.9207
▁رھبندء	-11.921
▁کیگد	-11.9211
▁اسٹاف	-11.9212
▁شن	-11.9213
▁ریزمانک	-11.9214
▁شمسی	-11.9219
▁لبزیات	-11.9219
ircraft	-11.922
▁پیشدار	-11.9221
▁چوری	-11.9222
▁تلگ	-11.9223
▁سفرے	-11.9224
نومبر	-11.9225
▁پتن	-11.9226
▁اون	-11.9229
۔ما	-11.923
▁ناروائی	-11.9232
▁پسگاں	-11.9232
ۆکێں	-11.9235
پری	-11.924
▁مانچسٹر	-11.924
پو	-11.9241
▁رؤت۔	-11.9241
▁زہن	-11.9243
▁پرماتگ	-11.9248
▁El	-11.9249
▁ہول	-11.9249
▁کارنت	-11.925
▁اریائی	-11.925
▁تازہ	-11.9251
▁اسٹار	-11.9253
▁کسهے	-11.9254
۔مئے	-11.9257
▁Nav	-11.9258
▁صورتے	-11.9258
▁شدیک	-11.9258
▁میلان	-11.9259
▁موکہ	-11.926
▁واھگدار	-11.9261
▁چیھال	-11.9264
▁روباہ	-11.9266
▁San	-11.9267
▁prais	-11.9269
▁سنگار	-11.9269
▁صف	-11.927
▁داناں	-11.9272
▁خداء	-11.9273
▁clear	-11.9273
▁ہمائیء	-11.9274
▁خلیات	-11.9274
▁size	-11.9274
▁طویل	-11.9274
▁مارکسزم	-11.9274
▁کانگریس	-11.9274
▁contract	-11.9275
خی	-11.9278
▁سپرء	-11.9279
▁زرورت	-11.928
▁درونتاں	-11.9283
▁اداره	-11.9284
▁دانے	-11.9284
▁اعلان	-11.9284
▁کوری	-11.9286
▁برگا	-11.9286
▁تورات	-11.9287
▁اچھی	-11.9287
▁بلڈنگ	-11.9288
▁ڈوبر	-11.9289
سکیں	-11.9291
▁شھمیر	-11.9292
▁نبشتگ۔	-11.9294
▁grow	-11.9297
▁central	-11.9298
▁Part	-11.93
▁موڈ	-11.9301
▁فوک	-11.9302
۔چہ	-11.9303
ial	-11.9303
▁زندمانء	-11.9303
▁سالہ	-11.9306
▁پرشان	-11.9306
▁Street	-11.9307
▁مھ	-11.9308
▁یوٹیوب	-11.9309
▁ھالتاک	-11.9309
انکی	-11.931
شش	-11.931
▁افیشل	-11.931
▁کساسء	-11.9311
▁لۆگئے	-11.9314
▁نمی	-11.9317
▁سھی	-11.9317
▁هاک	-11.9319
▁درشانگ	-11.932
▁بہتامے	-11.932
▁مارتگ	-11.932
▁کامی	-11.9321
▁دلئ	-11.9323
▁ارگی	-11.9324
بز	-11.9324
الو	-11.9324
▁زھیروک	-11.9326
▁والہ	-11.933
▁انت۔ا	-11.9332
▁کتکار	-11.9333
▁sea	-11.9334
▁رودینی	-11.9334
▁توجیلے	-11.9335
▁ھزارہ	-11.9335
▁ھردوکانی	-11.9338
▁کپات	-11.9339
▁hit	-11.934
▁recording	-11.934
▁Championship	-11.9341
▁صابرء	-11.9342
▁مھلہ	-11.9342
▁نیر	-11.9343
▁تز	-11.9343
▁فاطمہ	-11.9348
▁لکانی	-11.9348
▁باراں	-11.9349
▁ورناء	-11.9349
▁رومی	-11.9352
بازار	-11.9352
▁دیتی	-11.9354
▁کارمرزگ	-11.9355
▁انجیر	-11.9358
▁چیار	-11.9359
۔پمیشکہ	-11.9359
یلی	-11.936
ہار	-11.936
زار	-11.9361
▁پیرین	-11.9367
▁زیبدار	-11.9367
▁بڑگ	-11.9369
▁پکن	-11.9369
▁نزوریانی	-11.9372
▁کاریء	-11.9372
تاب	-11.9373
▁مجبوری	-11.9374
▁دستونکء	-11.9374
▁artist	-11.9374
▁Follow	-11.9375
▁رکاوٹ	-11.9375
▁کوپگانی	-11.9378
الله	-11.9378
▁ٹائر	-11.938
▁ماشکیل	-11.938
▁ترست	-11.9381
▁find	-11.9381
▁مظہر	-11.9382
▁پترت۔	-11.9382
▁موجودگی	-11.9382
▁زلمانی	-11.9384
پگ	-11.9385
▁پہلا	-11.9386
▁شمالی	-11.9388
▁شکور	-11.9388
▁مہماناں	-11.9391
▁شاھوانی	-11.9394
▁ملیں	-11.9395
▁اھدء	-11.9398
▁سیپ	-11.9398
▁نیادے	-11.9399
▁دہر	-11.9401
رام	-11.9401
▁draw	-11.9402
▁باتنء	-11.9402
▁ڈؤل	-11.9403
▁چاتے	-11.9404
▁چلو	-11.9404
▁سچان	-11.9405
▁پھزداری	-11.9405
▁Jordan	-11.9408
▁تمردیں	-11.9409
▁یاری	-11.9411
▁جیڑگاں	-11.9411
▁سحار	-11.9411
▁دفعہ	-11.9412
▁سرکپت	-11.9414
▁گوستء	-11.9415
▁بانڑی	-11.9415
▁گرائمر	-11.9415
▁اوشتاتگ۔	-11.9419
▁appearance	-11.9419
▁عمرے	-11.942
▁ہاتھوں	-11.942
▁براں۔	-11.9426
▁درانڈیھ	-11.9427
▁مھنت	-11.9428
▁بیاات	-11.9431
▁واہگاں	-11.9433
▁پوریا	-11.9434
▁سمیت	-11.9435
اتے	-11.9435
▁mix	-11.9436
▁مسل	-11.9437
▁ٹینک	-11.9437
لڈ	-11.9437
▁امرے	-11.9438
سندھ	-11.9439
▁مردیناں	-11.944
▁regard	-11.9442
▁evidence	-11.9442
▁commercial	-11.9442
▁From	-11.9442
▁معشیت	-11.9442
▁فلسطینی	-11.9443
▁عبدالقدوس	-11.9444
▁ث	-11.9445
▁ھوس	-11.9447
▁cast	-11.9448
▁وسیع	-11.9449
▁کپتان	-11.945
2014	-11.945
وپ	-11.9452
de	-11.9452
▁ببارت	-11.9453
▁چینچک	-11.9454
ٹل	-11.9456
رات	-11.9457
روس	-11.9458
▁yard	-11.946
▁ھلوت	-11.946
تہ۔	-11.9462
▁مہرگ	-11.9463
▁لیٹر	-11.9465
ایس	-11.9467
▁دیھ	-11.947
۔تو	-11.947
▁ھالتران	-11.9472
ائز	-11.9475
▁پورے	-11.9476
▁Michael	-11.9477
▁gain	-11.9477
▁سوگاتے	-11.9477
▁عشقء	-11.9478
▁غزہ	-11.9478
▁لہڑئگ	-11.9478
▁بیرگیری	-11.9479
upon	-11.948
▁سیمک	-11.9481
▁کلاکے	-11.9481
پول	-11.9481
▁قبرء	-11.9483
▁کوشاں	-11.9484
▁بیچارگیں	-11.9484
▁نویسانی	-11.9484
▁فرعون	-11.9485
کتہ	-11.9486
▁پلگاری	-11.9487
زمانگ	-11.9489
▁Christian	-11.9491
▁Tw	-11.9491
▁واگ	-11.9492
▁river	-11.9494
لانی	-11.9498
▁جمالیاتی	-11.9498
۔نوں	-11.9498
▁ناٹک	-11.9499
▁مبو	-11.95
▁اوپن	-11.95
شتہ	-11.9502
▁رچیت	-11.9502
شام	-11.9503
▁ریت	-11.9505
▁کھنت	-11.9505
▁بہارگاہ	-11.9508
برات	-11.951
▁فیل	-11.951
▁break	-11.9511
▁سہولت	-11.9511
▁Rock	-11.9511
▁یورش	-11.9511
▁سوزش	-11.9515
▁ساہگء	-11.9517
▁بیٹھ	-11.9517
▁تیس	-11.9518
▁فطری	-11.952
▁لائکی	-11.952
▁rock	-11.9521
▁وانگیانی	-11.9522
▁جوڑینگ	-11.9524
▁بغداد	-11.9526
▁سپاہیگ	-11.9527
▁مرتبہ	-11.9529
▁تہراں	-11.953
▁کٹوکیں	-11.9531
▁مکہیں	-11.9533
مز	-11.9536
▁توکی	-11.9537
▁پسگانی	-11.9539
▁گریوان	-11.9539
جوان	-11.954
ful	-11.9541
▁بندین	-11.9541
▁بچوں	-11.9543
▁نبا	-11.9543
▁agree	-11.9544
▁اولسرء	-11.9544
شمے	-11.9545
▁گشوک	-11.9546
▁کیک	-11.9547
▁بیتگینانی	-11.9548
▁ہجرت	-11.9548
▁مشتمل	-11.9549
▁کوتاہ	-11.9552
▁گوستگین	-11.9552
▁مرادے	-11.9553
▁شخصی	-11.9553
▁سدگ	-11.9553
▁لکھوڑ	-11.9555
۔پرچاکہ	-11.9558
▁پکی	-11.9559
▁31	-11.9559
▁چتر	-11.9561
▁پوشاکاں	-11.9563
▁سرکچ	-11.9567
بزانت	-11.957
▁200	-11.957
99	-11.957
▁بوہگا	-11.9571
▁دروراں	-11.9576
▁کدام	-11.9577
▁شہرانی	-11.9577
▁جونے	-11.9578
مکران	-11.9579
▁جہتء	-11.958
▁تقدیر	-11.9583
▁ھوالہ	-11.9584
▁ییں	-11.9584
▁چاچے	-11.9585
▁دراہی	-11.9585
▁saw	-11.9588
تغیں	-11.9588
)"	-11.959
بوان	-11.9592
▁ورناھے	-11.9593
▁ھیبتان	-11.9593
▁مهمان	-11.9594
..."	-11.9594
کاریں	-11.9599
ta	-11.9604
▁مرادجان	-11.9606
▁وجودی	-11.9606
▁راگے	-11.9611
▁کرنانی	-11.9611
روک	-11.9612
▁پچگ	-11.9613
▁اومیت	-11.9614
▁گراک	-11.9615
▁ٹیچنگ	-11.9615
▁ذال	-11.9615
▁براھوی	-11.9618
▁نیویارک	-11.9618
▁Mary	-11.962
la	-11.9621
▁دگاں	-11.9624
▁بندنت	-11.9625
▁کدرتی	-11.9625
▁نپت	-11.9626
▁حقدار	-11.9627
▁پتریت	-11.9628
read	-11.9629
▁ساماناں	-11.9629
▁استی	-11.9629
▁نامرد	-11.9631
▁یکمشت	-11.9631
▁پزور	-11.9632
زانی	-11.9632
▁قدیمی	-11.9633
▁ہمساہگ	-11.9634
▁مھربان	-11.9635
▁ہتم	-11.9636
▁کمکین	-11.9637
ves	-11.9638
▁وج	-11.9639
▁مرتگاں	-11.9639
▁تاہم	-11.9639
▁ات۔کہ	-11.9639
▁بکشات	-11.9643
▁گٹء	-11.9644
▁جیڑه	-11.9647
▁reveal	-11.9649
▁ازمائش	-11.965
▁ھدوناک	-11.9651
▁جوانتر	-11.9652
▁ایرجنگ	-11.9653
▁لپ	-11.9654
▁دیگری	-11.9654
▁سواراں	-11.9654
▁مالداری	-11.9654
▁معاف	-11.9657
▁جھاز	-11.9657
▁replac	-11.9659
▁وشان	-11.9659
▁خاصیت	-11.966
▁استالانی	-11.9662
جاھے	-11.9662
▁بایدیں	-11.9663
▁کرنا۔	-11.9664
مکن	-11.967
بید	-11.9671
▁ڈوبار	-11.9671
▁نیچے	-11.9672
▁چمروک	-11.9672
اسک	-11.9672
ونگ	-11.9675
▁ھرمردم	-11.9676
▁راجداری	-11.9676
▁الت	-11.9678
▁نکہ	-11.968
▁score	-11.9682
▁الاقوامی	-11.9684
▁دوئین	-11.9684
▁outside	-11.9684
▁درشاندابے	-11.9686
▁troops	-11.9687
▁ھلیل	-11.9689
▁عقیدہ	-11.969
▁بوارت	-11.969
▁تمرد	-11.9693
▁فرزند	-11.9693
▁فریاد	-11.9693
▁برجمیں	-11.9693
▁لڈء	-11.9693
پش	-11.9694
▁battle	-11.9695
▁پگرانی	-11.9695
▁ترمیم	-11.9696
قوم	-11.9697
▁ہجری	-11.9698
▁کائیں	-11.9699
▁دزگہار	-11.9699
▁پتات	-11.97
???	-11.97
▁اجل	-11.97
▁ہیت	-11.97
▁ہشکیں	-11.97
▁توکہ	-11.9701
▁event	-11.9701
▁دہل	-11.9702
ted	-11.9703
بین	-11.9703
▁معاشرتی	-11.9704
▁چالاک	-11.9704
▁اران	-11.9704
▁مجاھد	-11.9704
▁دگء	-11.9706
wood	-11.9706
▁تھو	-11.9707
گہ	-11.9709
قران	-11.9709
▁وسیلہء	-11.971
▁منٹو	-11.9712
▁لچہی	-11.9714
▁مکسک	-11.9715
ھون	-11.9716
زو	-11.9717
▁northern	-11.9719
uest	-11.972
▁هاترا	-11.972
▁افتاب	-11.9721
▁عنایت	-11.9723
▁زوربیگواہی	-11.9724
▁لنکا	-11.9725
▁هار	-11.9726
▁پارس	-11.9728
▁معصوم	-11.9728
▁اشترانی	-11.9728
▁Game	-11.973
اھیں	-11.9733
▁سرجمین	-11.9733
▁خراسان	-11.9734
▁فش	-11.9734
پن	-11.9734
▁ماجد	-11.9738
▁زدگیں	-11.9745
▁سیادانی	-11.9745
▁دیمروہی	-11.9751
▁نسلی	-11.9751
▁سوجے	-11.9751
▁rank	-11.9752
▁اگا	-11.9752
▁جنئے	-11.9753
▁ہیومن	-11.9754
▁روئٹرز	-11.9754
▁پریمئیر	-11.9754
▁Tech	-11.9754
▁امتحان	-11.9754
▁ٹہشت	-11.9754
▁دیمااہتگ	-11.9755
پک	-11.9755
▁نادرائی	-11.9758
▁اھتک	-11.9759
▁رفت	-11.9759
▁وحی	-11.9761
مستریں	-11.9762
▁تلوس	-11.9762
▁اسکرین	-11.9762
▁دوہزار	-11.9765
▁درمانے	-11.9766
پار	-11.9767
▁ارباب	-11.9767
▁جامع	-11.9769
▁پھکیں	-11.9771
▁زھنی	-11.9771
▁mean	-11.9771
▁کچکول	-11.9772
ell	-11.978
▁پہناد	-11.9781
▁نپرت	-11.9789
▁درزن	-11.979
▁دوستناک	-11.979
▁cit	-11.979
▁ابابگر	-11.9792
▁لوٹیتگ	-11.9792
▁ھکیکت	-11.9794
▁دائرہ	-11.9797
اکہ	-11.9798
کماش	-11.98
▁زانگول	-11.9801
▁بریت	-11.9803
▁مزھبی	-11.9804
ائینت	-11.9805
باری	-11.9806
▁درجنگ	-11.9806
lorida	-11.9807
▁ستم	-11.9808
ن۔	-11.9811
▁yards	-11.9814
یٰ	-11.9815
پولیس	-11.9816
▁تھرو	-11.9819
▁جنئگء	-11.9819
illa	-11.982
▁ایکٹ	-11.9822
▁پوزیشن	-11.9822
▁مھری	-11.9822
▁نصیرء	-11.9823
▁نیاریت	-11.9823
▁شھرے	-11.9824
▁conduct	-11.9824
▁length	-11.9824
▁ولگوج	-11.9824
▁اسانیں	-11.9825
▁وزبت	-11.9825
▁ملیشیا	-11.9825
▁section	-11.9825
▁پاگاس	-11.9825
پھ	-11.9826
▁experience	-11.9826
▁reason	-11.9826
▁عبدالرزاق	-11.9827
▁پلگارگ	-11.9828
▁بیٹا	-11.9828
▁زرناز	-11.9828
▁بنگل	-11.9829
▁جاہو	-11.9829
▁حیدراباد	-11.9829
▁سانیٹ	-11.9829
▁تنیگا	-11.983
دانکہ	-11.983
رحم	-11.983
▁مارکیز	-11.9831
▁بهداشتی	-11.9833
▁ہیرو	-11.9833
▁واہد	-11.9834
▁زادگ	-11.9835
▁سازگر	-11.9835
ka	-11.9838
▁کیمتی	-11.9843
▁court	-11.9843
▁بچکندگے	-11.9847
ہمیش	-11.9848
چارمی	-11.985
▁پوسٹے	-11.985
men	-11.9851
▁وشدل	-11.9853
شھید	-11.9853
▁سہمی	-11.9854
▁منکر	-11.9855
▁ھسا	-11.9855
▁انگلستان	-11.9856
▁جفا	-11.986
▁سئوت	-11.986
▁ہروہد	-11.9862
▁possible	-11.9863
▁شریپ	-11.9863
▁location	-11.9869
▁نویسوک	-11.9869
▁گدے	-11.987
▁شفیقہ	-11.987
▁اي	-11.9872
▁عطر	-11.9873
▁ہیگل	-11.9875
▁رپکاں	-11.9875
۔۔۔من	-11.9876
دہی	-11.9879
فقیر	-11.988
▁درتہ	-11.9881
زمانہ	-11.9882
▁رکینگء	-11.9882
▁جنید	-11.9882
▁عطاشادء	-11.9883
▁گژنگ	-11.9884
اسل	-11.9887
▁ورئے	-11.9887
me	-11.9888
▁پیراں	-11.9889
▁دھن	-11.9889
گچین	-11.989
▁رسگء	-11.9892
▁دیتہ	-11.9893
▁شھادت	-11.9893
▁دنگ	-11.9894
▁اباتی	-11.9895
▁league	-11.9895
▁crew	-11.9896
▁داعش	-11.9896
▁جائیداد	-11.9896
▁دلدار	-11.9897
▁قدح	-11.9897
۔گڈا	-11.9897
کلی	-11.9897
▁وروک	-11.9897
▁Paul	-11.9898
کیا	-11.99
▁بامسار	-11.9901
▁نتھا	-11.9901
▁مکسدے	-11.9901
▁saying	-11.9902
ٹھ	-11.9902
▁ہائیکو	-11.9902
▁قائد	-11.9902
▁سرنامگ	-11.9906
▁ھاشم	-11.9911
▁سنداں	-11.9913
دلگوش	-11.9913
▁زانتانی	-11.9916
بھ	-11.9917
▁لوگا	-11.9917
▁ھمش	-11.9917
▁شپا	-11.9918
سرجم	-11.9919
▁عمومدار	-11.9919
▁پرکاری	-11.992
سیل	-11.9921
▁بھنگ	-11.9921
▁دلسیاھی	-11.9922
▁درابوت	-11.9923
قصہ	-11.9925
▁مانتر	-11.9926
▁کنیت	-11.9927
▁دربہ	-11.9929
▁رجانکء	-11.993
▁Li	-11.9931
▁account	-11.9931
▁competition	-11.9931
▁material	-11.9931
▁flood	-11.9931
▁فصیح	-11.9931
▁تشریح	-11.9931
▁گشین	-11.9931
▁۔۔۔۔۔۔۔۔	-11.9933
▁زیشان	-11.9933
▁حاموش	-11.9933
▁لگے	-11.9934
▁نذیر	-11.9934
ad	-11.9934
▁سئیمی	-11.9935
▁500	-11.9937
▁رہیں	-11.9938
▁ناسرجمیں	-11.9939
قی	-11.9939
ڈول	-11.9939
دلی	-11.994
▁کودکی	-11.9941
▁پاسپان	-11.9942
۔بلکیں	-11.9943
▁نیبگ	-11.9945
▁کارکناں	-11.9946
▁گلشن	-11.9948
▁مسیتء	-11.995
رحیم	-11.9951
▁مرتب	-11.9952
▁برھنگ	-11.9952
▁نتا	-11.9954
حاجی	-11.9955
▁دنزاں	-11.9956
▁ماد	-11.996
▁انام	-11.996
▁باہند	-11.9962
▁مھکمہ	-11.9962
▁دران	-11.9962
▁گڑتی	-11.9964
▁working	-11.9965
▁گوستگ۔	-11.9966
▁effort	-11.9967
▁international	-11.9967
▁ایڈووکیٹ	-11.9967
▁سنڈیمن	-11.9967
▁Richard	-11.9967
▁ھرروچ	-11.9968
▁خداوند	-11.9968
▁مشرق	-11.9969
▁whom	-11.997
▁عکساں	-11.997
▁گرگا	-11.9971
سما	-11.9971
▁سربار	-11.9974
▁گلگل	-11.9977
uick	-11.9977
گراں	-11.9977
گ۔	-11.9977
▁گلوبل	-11.9978
▁مزائیں	-11.9978
▁round	-11.9978
▁introduc	-11.9978
▁سوتانی	-11.9979
▁واپاری	-11.9979
گمان	-11.998
▁محکمی	-11.998
▁اڑء	-11.9982
▁اسرات	-11.9983
▁ساتھی	-11.9984
▁بدبھتی	-11.9984
▁رژنء	-11.9988
ره	-11.999
ریل	-11.9991
▁شرگدارے	-11.9994
more	-11.9995
جاگہ	-11.9996
▁دیرو	-11.9996
▁کساسیں	-11.9997
گد	-11.9997
▁بئیان	-12.0001
▁ولیعہد	-12.0003
▁تۆکا	-12.0003
▁گالوارانی	-12.0004
▁شیرزال	-12.0005
▁مبنی	-12.0007
▁شؤر	-12.0008
مہلوک	-12.0009
▁مم	-12.0009
ونک	-12.0011
فا	-12.0014
ure	-12.0016
▁ھمید	-12.0016
▁باس	-12.0016
▁کشے	-12.002
▁تاھیری	-12.0021
▁استنت	-12.0022
قومی	-12.0025
▁Most	-12.0026
▁پتہ	-12.0027
سربوتگیں	-12.0027
▁رگء	-12.0028
▁وندر	-12.0031
ریش	-12.0035
▁کرتء	-12.0035
۔یک	-12.0036
▁ٹوٹ	-12.0036
▁واجھ	-12.0036
▁ماھان	-12.0036
▁Hurricane	-12.0039
▁Missouri	-12.0039
▁ممبئی	-12.0039
▁poor	-12.0039
ونڈ	-12.0039
▁گوران	-12.004
▁extend	-12.0041
▁شمشکار	-12.0044
▁اسپتیں	-12.0047
▁گؤن	-12.0047
▁چلہ	-12.0049
▁کشکانی	-12.0051
▁اماچی	-12.0051
▁نندگی	-12.0051
▁گنجے	-12.0053
▁یقینی	-12.0054
▁سادے	-12.0056
▁پھلوان	-12.006
گن	-12.006
▁بیوی	-12.0062
▁جھدکاراں	-12.0062
▁average	-12.0066
▁بکتیں	-12.0066
served	-12.0068
▁گیچن	-12.0069
▁زکر	-12.007
▁شرانت	-12.0073
▁مازگ	-12.0073
▁appoint	-12.0073
▁اه	-12.0074
▁سستی	-12.0074
▁لیکچر	-12.0075
▁ظریف	-12.0075
▁2001	-12.0075
▁فروغ	-12.0076
▁لچہے	-12.0077
▁مہلونک	-12.0081
ایرانی	-12.0081
▁فائر	-12.0082
▁گندیت۔	-12.0083
▁red	-12.0087
▁روڑ	-12.0087
▁ہیالء	-12.0089
▁سیبی	-12.009
▁اہن	-12.0091
▁مناک	-12.0094
▁پروشیں	-12.0097
▁دپتری	-12.0098
▁مہراب	-12.0098
چا	-12.0098
▁پہازگ	-12.0102
اومان	-12.0102
▁گویا	-12.0109
▁مکتبہ	-12.0109
▁کیفے	-12.011
▁مینجمنٹ	-12.0112
▁مصنف	-12.0112
▁لبزتکنیک	-12.0113
▁ہرنائی	-12.0114
▁۔مئے	-12.0115
▁اٹھا	-12.0116
سلام	-12.0116
▁دروشمی	-12.0117
▁ادبء	-12.0119
▁متن	-12.012
▁زرتء	-12.012
▁افضل	-12.012
ک۔	-12.0121
▁کاریزکار	-12.0122
روکیں	-12.0122
▁گٹے	-12.0126
▁ندکاراں	-12.0126
▁قندھار	-12.0126
▁اہدء	-12.0128
▁مصرء	-12.0129
▁نامگ	-12.013
▁روہ	-12.013
▁تپل	-12.0134
▁هرچی	-12.0135
▁گوشدارگء	-12.0139
▁نظریات	-12.0139
منت	-12.014
▁پھاز	-12.0143
▁جنء	-12.0143
▁پیشتر	-12.0143
▁اگاہی	-12.0145
low	-12.0146
▁ملایانی	-12.0147
▁ہائوس	-12.0148
▁یاں۔	-12.0149
▁کوٹگ	-12.015
ساری	-12.0152
▁زیمرء	-12.0153
▁میوہ	-12.0157
▁پرینت	-12.0162
▁راہشون	-12.0162
▁احتجاج	-12.0162
لیکن	-12.0163
▁پساں	-12.0164
▁ٹویٹر	-12.0168
ڑے	-12.0168
▁خیالی	-12.0169
▁بوتگت	-12.0169
اہے	-12.0172
کوئی	-12.0173
▁روبرکت	-12.0176
▁شیڈول	-12.0182
▁منیگ	-12.0182
▁ریتک	-12.0182
▁واقف	-12.0183
یڈ	-12.0183
▁خوشی	-12.0184
▁شریان	-12.0184
L	-12.0184
▁سلحہ	-12.0186
▁پیچیدہ	-12.0186
▁زلوری	-12.0188
▁کینیڈا	-12.0189
▁زندئ	-12.0189
▁درزی	-12.0189
▁ابرار	-12.0189
▁پیشء	-12.0191
▁جہدکار	-12.0193
▁چیلک	-12.0194
کسان	-12.0196
▁راستین	-12.0197
▁احتنت	-12.0197
▁ھمساھگیں	-12.0198
▁امریکن	-12.0199
▁car	-12.0199
انگ	-12.0199
کارست	-12.0199
▁مردماناں	-12.02
▁ہاکمی	-12.02
▁met	-12.0202
▁plann	-12.0204
▁لاپتہ	-12.0204
▁جنجالی	-12.0204
▁اقرار	-12.0206
گز	-12.0206
▁درتک	-12.0208
یگی	-12.021
▁گراد	-12.0212
▁کستء	-12.0215
▁سلامتیں	-12.0218
▁ٹگل	-12.0219
▁فرنٹیئر	-12.0222
▁موسمیات	-12.0223
▁راستیاں	-12.0224
▁برامدات	-12.0224
▁گراؤنڈ	-12.0225
▁نوار	-12.0225
▁زپت	-12.0225
▁بیٹے	-12.0228
▁سفید	-12.0228
▁تمثیل	-12.0229
▁یافتہ	-12.023
▁کؤش	-12.0232
▁And	-12.0232
▁مردا	-12.0233
▁فائل	-12.0233
▁بگوشیت	-12.0233
▁بیت۔من	-12.0233
▁سہرء	-12.0234
▁کمٹمنٹ	-12.0236
▁دال	-12.0239
▁سارے	-12.024
تار	-12.024
▁گیجیت	-12.0241
▁بازیابی	-12.0242
▁گوپگ	-12.0243
▁جنتر	-12.0243
▁تسلی	-12.0243
▁روزرد	-12.0244
▁مھران	-12.0245
▁تلوسگ	-12.0245
رژن	-12.0252
تانی	-12.0253
▁بیپار	-12.0254
▁producer	-12.0254
▁Sun	-12.0256
▁ہسابء	-12.0258
▁سمب	-12.0259
دء	-12.0259
▁دارالعلوم	-12.0259
▁داث	-12.026
▁اردشیر	-12.0261
▁گریہان	-12.0262
▁مروک	-12.0263
▁امران	-12.0263
▁نندئے	-12.0265
▁بگنداں	-12.0265
▁روتگاں	-12.0266
▁عبدالغفور	-12.0266
▁پذا	-12.0267
▁ماہکان	-12.0268
▁پاکی	-12.0269
لیب	-12.027
▁ball	-12.0272
▁سالانہ	-12.0273
▁قدرء	-12.0275
▁زھیرانی	-12.0277
▁پشپد	-12.0285
▁مردینے	-12.0286
▁چہار	-12.0288
▁Du	-12.0288
▁هلک	-12.0289
زرد	-12.029
▁کہدا	-12.0291
غم	-12.0291
▁Indian	-12.0293
بلک	-12.0294
▁کبلہ	-12.0295
▁magazine	-12.0296
▁stay	-12.0296
▁نگہداشت	-12.0296
▁چکاریں	-12.0296
▁مرشد	-12.0296
▁وسعت	-12.0296
لج	-12.0297
▁ٹیپ	-12.0298
درستیں	-12.0299
لان	-12.0299
▁دبستان	-12.0301
▁تھرے	-12.0301
▁زیتون	-12.0304
ge	-12.0304
▁بگندیت	-12.0307
▁زوراکانی	-12.0307
▁سرگردان	-12.0309
▁کارامد	-12.0309
▁arriv	-12.031
▁My	-12.031
شانی	-12.031
▁بازانت	-12.0311
▁اٹھ	-12.0312
▁dis	-12.0312
▁گندہ	-12.0313
▁رۆچا	-12.0315
▁تامرانی	-12.0315
چپ	-12.0316
▁نندء	-12.0318
▁مرہ	-12.0318
▁تپد	-12.0318
▁ہمگرنچی	-12.0319
▁اروچ	-12.0322
▁دراتک۔	-12.0324
▁پورس	-12.0325
▁مالا	-12.0332
▁learn	-12.0333
▁Great	-12.0333
▁بالیگراب	-12.0333
▁اوگار	-12.0335
▁بچگ	-12.0335
▁رانا	-12.0336
,,,	-12.0337
▁واش	-12.0339
▁ہوشاپ	-12.0339
ندی	-12.0341
▁رئوگ	-12.0341
▁ماہیں	-12.0342
▁ناپگ	-12.0343
C	-12.0344
▁station	-12.0346
▁گزیر	-12.0347
پرچیکہ	-12.0347
▁باسکی	-12.0348
▁گرماگی	-12.035
▁نندے	-12.0351
▁بھادر	-12.0352
.(	-12.0353
▁نمادار	-12.0353
▁پین	-12.0355
گنوک	-12.0355
▁شاگ	-12.0356
▁کوشی	-12.0357
▁ولیم	-12.0357
▁approach	-12.0357
▁اشترے	-12.0358
▁بست۔	-12.0359
جنگل	-12.036
فضل	-12.036
▁جاوران	-12.0365
▁جہلگ	-12.0365
▁کلانیں	-12.0368
▁leave	-12.0368
98	-12.037
▁بیوروکریسی	-12.037
▁سپلائی	-12.037
▁horse	-12.037
▁لامحدود	-12.037
▁First	-12.037
▁ترپگ	-12.0371
▁شہادت	-12.0371
▁availab	-12.0371
رود	-12.0372
▁دوستر	-12.0373
▁Best	-12.0375
▁بنو	-12.0375
نون	-12.0379
▁ندکارے	-12.038
▁نقاد	-12.038
▁حسابا	-12.038
▁درامدی	-12.0382
▁دیماارگ	-12.0383
▁مہلب	-12.0385
▁دراه	-12.0385
اہیں	-12.0385
▁محاورہ	-12.0385
▁شتیں۔	-12.0386
▁چاند	-12.0387
▁کھند	-12.0388
▁شول	-12.0389
▁کھل	-12.0393
▁travel	-12.0394
▁law	-12.0394
▁سامراجی	-12.0395
امریکہ	-12.0397
▁."	-12.0397
▁اڑان	-12.0398
تاکبند	-12.0399
day	-12.04
▁ماھیں	-12.0403
▁ھدوناکی	-12.0405
▁شیئری	-12.0405
▁cause	-12.0405
▁دستاویز	-12.0406
غیر	-12.0407
▁کوٹیانی	-12.0407
▁condition	-12.0407
▁decision	-12.0407
▁1970	-12.0408
▁شیدائی	-12.0408
▁سربتگ	-12.041
▁فخر	-12.0416
▁بورخیس	-12.0417
▁نکرت	-12.0418
▁چڑکہ	-12.0418
▁نابلد	-12.0418
▁دک	-12.0423
▁قصہاں	-12.0423
شد	-12.0425
▁winds	-12.0425
▁براہوی	-12.0425
▁شہمات	-12.0426
▁جوھان	-12.0428
▁پادمال	-12.0431
sa	-12.0431
▁چنکے	-12.0433
▁کائینت	-12.0433
گڈ	-12.0435
▁حقیں	-12.0435
▁شھزانتی	-12.0437
▁اھوالکاری	-12.0441
▁پینل	-12.0441
▁voice	-12.0442
▁محمدخان	-12.0442
▁منفی	-12.0443
▁چنکہ	-12.0445
▁دیمھونی	-12.0445
▁think	-12.0446
▁نشک	-12.0446
▁چودھری	-12.0447
▁رسترانی	-12.0447
▁براھیم	-12.0448
▁گروکیں	-12.0448
چیز	-12.0451
▁عل	-12.0451
▁Sea	-12.0452
▁ضیا	-12.0452
▁پاروک	-12.0453
وج	-12.0454
▁استانے	-12.0454
tlantic	-12.0454
no	-12.0456
حر	-12.0456
▁داتء	-12.0463
ney	-12.0463
▁بائدیں	-12.0465
▁پونزء	-12.0465
اشاں	-12.0466
▁اولا	-12.0467
▁دراصل	-12.0467
▁Pol	-12.0468
▁چاراہ	-12.0472
der	-12.0473
▁وانینت	-12.0477
نل	-12.0477
▁تہلی	-12.0478
uence	-12.0479
▁construct	-12.0482
ear	-12.0483
▁above	-12.0483
▁رسگا	-12.0485
▁اسپیشل	-12.0485
▁کوشء	-12.0485
▁کاسم	-12.0485
▁بکنئے	-12.0486
▁جغرافیہ	-12.0487
▁برادر	-12.0487
▁نادیہ	-12.0488
▁شنزگ	-12.0488
▁بکر	-12.0493
▁صفتء	-12.0494
▁مدیر	-12.0495
▁عنصر	-12.0496
▁دلیریں	-12.0496
▁زیمی	-12.0499
▁زورگی	-12.0503
▁تیرء	-12.0507
▁اتکنت	-12.0508
ory	-12.0508
▁کسمانکی	-12.0509
▁نلی	-12.0512
▁روشنا	-12.0514
سپر	-12.0514
▁حلب	-12.0515
▁فساد	-12.0515
اڑی	-12.0517
بخش	-12.0517
▁تڑ	-12.0517
▁ذہنیت	-12.0519
▁گمبد	-12.052
▁نظرہیہ	-12.0521
▁کانپریس	-12.0521
▁لهتیں	-12.0521
▁پارٹیاں	-12.0522
▁پراھی	-12.0525
▁اھت۔	-12.0525
▁درخت	-12.0526
▁شوانگے	-12.0528
▁ھنکینی	-12.0528
▁پؤج	-12.0529
▁مھراں	-12.053
7	-12.053
پدر	-12.0531
▁امینی	-12.0531
▁نکشہ	-12.0532
▁پریب	-12.0532
▁ایرجتگ	-12.0536
▁سنیانلاین	-12.0537
▁گوازینان	-12.0538
▁بخشش	-12.0538
▁گوستہ	-12.0542
▁زبانئ	-12.0542
▁تخلیقات	-12.0543
▁ویتنام	-12.0544
▁زادہ	-12.0545
▁پوچ	-12.0545
▁نویستگ	-12.0546
▁نبنت	-12.0547
مالی	-12.0548
▁بیسہی	-12.0549
دیمرھی	-12.0552
▁ہمیشاں	-12.0554
ard	-12.0555
▁گوازینگی	-12.0555
بگیری	-12.0556
▁گیاب	-12.0557
▁capital	-12.0559
▁positive	-12.0559
▁اقدار	-12.0559
▁Jack	-12.0559
▁٭٭٭٭	-12.0559
▁اکبال	-12.056
▁استادء	-12.0561
▁soon	-12.0561
▁سہیں	-12.0563
▁تنء	-12.0564
ہور	-12.0567
91	-12.0568
▁ھمکوپگ	-12.057
▁ربیدگاں	-12.0571
اود	-12.0571
یئے	-12.0571
▁ہورکیں	-12.0571
▁جھدکارانی	-12.0575
▁رجانکانی	-12.0577
▁پتے	-12.0577
▁کاریانی	-12.0581
▁نیائے	-12.0582
..........	-12.0583
▁حیالی	-12.0584
▁دوہیں	-12.0584
▁اشرپ	-12.0585
▁گزین	-12.0585
▁بیرہ	-12.0585
▁خور	-12.0585
براس	-12.0587
▁مہرے	-12.0587
▁مینگلء	-12.0588
ادگہ	-12.0588
▁نازانتی	-12.0589
▁قلمی	-12.0589
▁ڈولین	-12.059
▁دریگاں	-12.0593
v	-12.0594
▁office	-12.0596
▁business	-12.0597
▁studio	-12.0597
▁اسٹریٹجک	-12.0598
▁estimat	-12.0598
▁ماڑیانی	-12.0599
▁لوہار	-12.0599
▁ہمراہداری	-12.06
▁امدام	-12.0602
▁هچبر	-12.0604
▁جیمز	-12.0605
▁پندلانی	-12.0607
▁بارکان	-12.0609
▁سیمینار	-12.0609
▁leg	-12.0609
▁دریائے	-12.0609
▁واژہ	-12.0612
▁گرابانی	-12.0612
▁میگ	-12.0613
▁گجرات	-12.0617
▁ریچی	-12.0617
▁زیادتی	-12.0618
یاکہ	-12.0618
▁چاہے	-12.0618
▁کندگاں	-12.0619
▁رندان	-12.0621
▁ساڑ	-12.0624
نود	-12.0626
▁وتسر	-12.0627
▁پیٹر	-12.0627
▁استالے	-12.0627
▁منج	-12.0629
▁شمشت	-12.063
▁حمد	-12.0632
جاھاں	-12.0634
▁Africa	-12.0635
▁maintain	-12.0635
▁interview	-12.0635
▁ثبت	-12.0635
▁deal	-12.0635
▁مظلوم	-12.0636
زال	-12.0638
▁tree	-12.0638
▁ہماہانی	-12.0639
▁گاراں	-12.0639
ler	-12.064
▁چنچک	-12.0643
▁جانشو	-12.0644
▁وڑوڑیں	-12.0644
▁گھشی	-12.0644
▁حرکتء	-12.0645
▁Bay	-12.0646
۔۔۔۔۔۔۔۔	-12.0647
▁سفارت	-12.0648
▁دگنیاء	-12.0649
▁اگاھی	-12.0649
▁شہریانی	-12.065
▁نکال	-12.0651
▁نادراہانی	-12.0652
▁ٹاہینگ	-12.0653
▁پراھیں	-12.0654
تیر	-12.0655
▁پڑھ	-12.0655
▁شھار	-12.0655
▁must	-12.0655
▁الگار	-12.0657
▁بسے	-12.0659
▁شاہء	-12.0659
▁مریں	-12.066
▁پنیر	-12.0661
▁زالمیں	-12.0661
▁say	-12.0667
چراگ	-12.0668
▁نوشی	-12.0669
▁چاڑی	-12.0669
▁سائنسء	-12.0669
▁شہزاد	-12.067
▁وانت	-12.0672
سٹل	-12.0672
▁ھذمت	-12.0672
▁Canada	-12.0674
▁دژمنے	-12.0674
▁k	-12.0674
▁تکرار	-12.0675
عی	-12.0675
فل	-12.0675
▁letter	-12.0675
▁رجحان	-12.0676
ھیل	-12.0676
▁پیت	-12.0677
▁پلسپہ	-12.0677
▁سالگیں	-12.0677
▁مسلسل	-12.0678
▁دروتے	-12.068
▁سیاھگء	-12.068
▁لائی	-12.0682
▁ٹریکٹر	-12.0684
▁ناشری	-12.0685
▁جھگیر	-12.0685
▁قر	-12.0686
▁اڑزان	-12.0686
▁دئے۔	-12.069
▁همدا	-12.0691
▁زوراوری	-12.0692
▁جہانگیر	-12.0692
▁چرائیء	-12.0695
▁...............	-12.0695
▁stor	-12.0696
تل	-12.0696
رب	-12.0698
▁ہید	-12.0699
▁ویرانی	-12.0702
▁ہفتگ	-12.0704
▁دراهیں	-12.0705
▁عیسیٰء	-12.0705
▁پکائی	-12.0706
▁نشتیں	-12.0709
جہان	-12.0709
ang	-12.071
▁کسم	-12.0711
▁گردینت	-12.0712
▁Brown	-12.0712
▁President	-12.0712
▁ڈپریشن	-12.0712
▁معاشرے	-12.0712
ویے	-12.0713
▁فزکس	-12.0715
▁طورپر	-12.0717
▁مروچ	-12.0718
▁ایرگیجگ	-12.0719
▁سھتے	-12.0721
▁رسانکدری	-12.0722
▁وڑین	-12.0723
▁راس	-12.0724
▁کھا	-12.0726
▁ایسٹ	-12.0727
های	-12.0727
سازی	-12.0727
▁نھنگ	-12.0727
▁کندگء	-12.073
▁سروکیء	-12.0731
▁سجهێن	-12.0733
▁پندلاں	-12.0735
▁لۆٹ	-12.0736
▁2000	-12.0737
▁رنگین	-12.0738
▁ہوس	-12.0739
▁مشان	-12.074
مانی	-12.074
▁بوانیت	-12.074
town	-12.0741
▁برش	-12.0743
بوتگ۔	-12.0743
▁زاھری	-12.0743
ade	-12.0744
واریں	-12.0744
▁ھسابے	-12.0746
▁اوپر	-12.0749
▁سازش	-12.0749
▁Henry	-12.0751
▁ساؤتھ	-12.0751
▁Air	-12.0752
▁فراموش	-12.0752
▁ھوریں	-12.0753
▁تکمیل	-12.0753
▁۔ہمیش	-12.0753
▁جھالاوان	-12.0753
▁کودک	-12.0754
▁کیے	-12.0755
▁نسخہ	-12.0757
▁اچانک	-12.0757
▁میرچاکر	-12.0758
▁چارٹر	-12.0759
▁پرائیوٹ	-12.0759
▁پیرجان	-12.076
٭	-12.0764
▁ریسگ	-12.0766
▁referr	-12.0766
▁لگوشت	-12.0766
▁ردے	-12.0767
▁بحال	-12.0774
▁چھت	-12.0775
▁سیادے	-12.0776
▁king	-12.0776
rought	-12.0777
درچک	-12.0777
▁پربندانی	-12.0777
▁شانے	-12.0779
نئے	-12.078
▁شیواری	-12.0781
درست	-12.0783
▁authorit	-12.0784
▁کلیات	-12.0784
▁درمحمد	-12.0786
▁India	-12.0786
▁کنوکین	-12.0789
uadron	-12.079
▁transport	-12.079
▁machine	-12.079
▁سجهێں	-12.0791
▁گھس	-12.0792
▁past	-12.0792
▁لڑائی	-12.0794
▁وقار	-12.0795
▁خلیفہ	-12.0796
▁همش	-12.0797
▁هل	-12.0799
▁پوشیں	-12.0801
مور	-12.0801
▁ساٹ	-12.0802
ارو	-12.0802
مد	-12.0803
▁پیام	-12.0803
▁سرکشی	-12.0805
▁تنیگت	-12.0806
▁دراھت	-12.0808
▁زوالی	-12.0808
دنیاء	-12.081
جتگ	-12.0813
ball	-12.0813
▁لاس	-12.0814
▁بروس	-12.0814
▁ٹارچر	-12.0815
▁ضیاء	-12.0815
▁کوکر	-12.0816
▁میڈیاء	-12.0816
▁Wi	-12.0819
▁تورگ	-12.0819
▁گۆش	-12.0819
▁جمیں	-12.0819
▁لگوریں	-12.082
▁نادراھیں	-12.082
عزت	-12.082
▁نیش	-12.0823
▁کارکنگ	-12.0826
▁سریچ	-12.0826
▁زمه	-12.0827
▁گیتک	-12.0829
▁Oldham	-12.0829
▁ڈغار	-12.0829
▁عبدالغنی	-12.0829
▁متہدہ	-12.0829
▁1990	-12.0829
▁پلانگری	-12.083
▁کیپٹن	-12.083
▁Con	-12.0832
▁گشتی	-12.0832
▁چپء	-12.0833
▁عروض	-12.0834
▁غسل	-12.0835
▁شاھرگ	-12.0836
سرمچاراں	-12.0836
▁کازماس	-12.0838
▁پورو	-12.0839
▁پکنت	-12.084
▁تراس	-12.084
ائینگ	-12.0842
▁کوراں	-12.0842
▁ھونڈ	-12.0842
▁metre	-12.0843
گشئے	-12.0846
▁دپترے	-12.0846
▁نہادی	-12.0847
▁نریان	-12.0847
میل	-12.0847
وشیں	-12.085
اٹ	-12.085
▁مہمانداری	-12.0852
▁hold	-12.0852
▁ورئگ	-12.0852
▁وشھال	-12.0855
شاں	-12.0856
▁تس	-12.0857
زوریں	-12.0857
▁ھبرانی	-12.0857
ota	-12.0857
▁دتک	-12.0861
▁گستائی	-12.0861
کسمانک	-12.0861
▁لوت	-12.0865
▁مرادء	-12.0866
▁Ha	-12.0867
▁کلر	-12.0867
خیال	-12.0867
▁social	-12.0868
▁sometime	-12.0868
▁ہمینچک	-12.0868
▁اہستہ	-12.0871
▁ستاشانی	-12.0871
▁پیدائشت	-12.0871
▁برازیل	-12.0871
جھد	-12.0872
▁قل	-12.0872
▁مونجائی	-12.0872
▁دربی	-12.0872
▁focus	-12.0873
نچ	-12.0873
▁test	-12.0875
مون	-12.0875
▁حزب	-12.0876
▁ٹکراں	-12.0876
ائیت	-12.0879
▁Chin	-12.0879
▁گواریت	-12.0879
▁بچکنداں	-12.0881
ئس	-12.0881
▁نانی	-12.0883
▁Times	-12.0883
')	-12.0884
▁۔۔۔۔۔۔۔۔۔	-12.0885
▁ریپینگ	-12.0885
زگ	-12.0886
▁ہردک	-12.0887
نپ	-12.0887
▁اورت۔	-12.089
▁تائید	-12.089
بلوچانی	-12.0891
▁کائنت	-12.0893
واحد	-12.0894
▁قمر	-12.0895
ذا	-12.0895
دراہ	-12.0897
▁“”	-12.0899
▁v	-12.09
lin	-12.0901
▁سباء	-12.0901
▁شھباز	-12.0903
▁پاند	-12.0904
چاریں	-12.0905
▁شاہو	-12.0906
▁انت۔بلوچی	-12.0906
▁کنوں	-12.0906
▁اسلی	-12.0907
▁ٹرالنگ	-12.0908
▁standard	-12.0908
▁عبدالستار	-12.0908
▁Olivier	-12.0908
▁سازاں	-12.0908
▁سکت	-12.0909
▁پیوند	-12.0911
▁الماس	-12.0912
▁فراق	-12.0913
فکر	-12.0915
▁سجئیں	-12.0915
▁اڈہ	-12.0916
▁وانگجاھانی	-12.0917
▁thing	-12.0917
▁burn	-12.092
▁قرنانی	-12.0922
یٹر	-12.0922
▁ترامجا	-12.0924
▁بالیگ	-12.0924
▁سپائی	-12.0925
▁ڈلگیں	-12.0925
▁برامد	-12.0927
▁پریم	-12.0927
▁مرے	-12.0927
▁زیانی	-12.0927
▁گلین	-12.0931
▁special	-12.0932
▁ھلار	-12.0934
▁دراھاں	-12.0934
▁کوہے	-12.0934
▁گپتاراں	-12.0935
▁goals	-12.0938
▁یم	-12.0941
▁ساب	-12.0946
▁ایشنت	-12.0947
▁western	-12.0947
▁ارٹیکل	-12.095
▁تعبیر	-12.095
▁ترامجاھاں	-12.095
▁سوجکار	-12.0952
▁usual	-12.0952
▁lower	-12.0952
▁hard	-12.0952
▁ھگم	-12.0953
▁nine	-12.0953
▁بدرنگ	-12.0953
▁کریک	-12.0954
▁علامہ	-12.0954
▁دلاور	-12.0954
▁fly	-12.0956
▁ہوپ	-12.0956
ازمان	-12.0956
نین	-12.0958
مسلم	-12.0959
▁شینک	-12.0961
▁تراتگ	-12.0965
▁گلگدارے	-12.0966
▁چس	-12.0967
▁سلوک	-12.0967
▁ہڑ	-12.0968
▁واجھی	-12.097
▁پولیسا	-12.0972
بام	-12.0973
▁پتران	-12.0973
▁جندی	-12.0975
▁لیل	-12.0975
▁سران	-12.0978
▁concert	-12.0987
▁response	-12.0987
▁Hall	-12.0988
▁ایت۔۔۔	-12.0989
▁قابض	-12.099
▁بہرگ	-12.099
▁چائنا	-12.099
▁توسیف	-12.0991
▁سرگوستاں	-12.0991
▁گوزنت	-12.0991
▁چاء	-12.0991
▁اسباب	-12.0993
▁دیریگیں	-12.0997
▁علیه	-12.0998
شاعرء	-12.0998
▁دیوانگی	-12.0998
دراھیں	-12.1
▁موجودہ	-12.1001
▁ہارون	-12.1001
▁مردار	-12.1009
▁گڈانی	-12.1009
▁ارتقاء	-12.1011
▁ہشتمی	-12.1014
▁پوت	-12.1015
▁سنگی	-12.1015
▁ویئر	-12.102
▁ره	-12.1021
▁تاچینگ	-12.1021
▁کوکب	-12.1022
▁بندانت	-12.1022
▁سنجیدگی	-12.1023
▁گؤر	-12.1025
▁استارانی	-12.1025
▁Regiment	-12.1027
▁ٹورنمنٹ	-12.1027
▁زانان	-12.1027
▁taking	-12.1027
▁recent	-12.1027
▁mention	-12.1027
نانی	-12.1027
دانی	-12.1027
▁قدرانی	-12.1027
▁اسلیں	-12.1028
B	-12.1028
▁نیادانی	-12.1028
▁هرچ	-12.1028
once	-12.1029
زے	-12.1029
پیسر	-12.1029
▁شھزانت	-12.103
▁نشست	-12.1031
ہ۔	-12.1035
▁اکادمی	-12.1036
▁تھری	-12.104
وانوک	-12.104
▁وژن	-12.1043
▁هیران	-12.1043
▁وسواس	-12.1045
▁گیمرتگیں	-12.1045
▁کجائے	-12.1045
▁کاٹار	-12.1046
▁ٹاھینگ	-12.1046
▁پرچیا	-12.1046
▁قہریں	-12.1047
▁صدیقی	-12.1047
▁ایسپ	-12.1049
▁دیمیگ	-12.1049
▁ئرا	-12.105
اغ	-12.105
......!	-12.1052
▁گوئشیت	-12.1053
▁نظامے	-12.1054
▁ہیرت	-12.1055
▁امرء	-12.1058
▁داستانے	-12.1059
جین	-12.1061
▁چاگرداں	-12.1062
▁توپانے	-12.1064
ietnam	-12.1067
▁Mexico	-12.1067
▁School	-12.1067
▁religious	-12.1067
▁broke	-12.1067
گڑ	-12.1067
▁انحصار	-12.1067
▁مروچگیں	-12.1067
▁بوتیناں	-12.1068
▁Later	-12.1069
▁زانشتجاہ	-12.1069
▁بھارگاہ	-12.107
▁اینگلز	-12.1072
▁کپوتے	-12.1072
▁میڑھ	-12.1074
▁ڈنا	-12.1077
▁ہفتاد	-12.1077
▁کونج	-12.1078
▁دیمتری	-12.108
▁write	-12.108
▁ض	-12.1081
▁میلے	-12.1081
▁یتکگ	-12.1081
▁داتگین	-12.1084
▁تھرا	-12.1085
▁fact	-12.1087
ated	-12.1089
▁مچء	-12.1092
▁ئے۔۔۔	-12.1092
کشک	-12.1092
▁لاشعوری	-12.1092
▁ایلن	-12.1097
▁تکینک	-12.1098
▁زبانزانت	-12.11
▁کلینک	-12.1102
▁پھریزی	-12.1104
▁گیواری	-12.1105
▁Irish	-12.1107
▁پراسیس	-12.1108
▁میرگل	-12.1108
▁پیمائش	-12.1109
▁همود	-12.1109
▁تشکیل	-12.1111
▁مبوتیں	-12.1112
▁خورشید	-12.1113
بوئیگ	-12.1113
▁Mark	-12.1113
▁سنجیدگ	-12.1114
les	-12.1114
▁خطا	-12.1115
▁ھفت	-12.1115
▁گوئشتگ	-12.1116
▁Ca	-12.1117
▁امیدگسی	-12.1117
▁ئنت۔	-12.1117
▁براھندگ	-12.1119
▁کپیں	-12.112
میار	-12.112
▁اہمے	-12.112
▁مردےء	-12.1123
▁پدمنتگ	-12.1126
nion	-12.1129
▁سرخ	-12.113
▁parts	-12.113
▁زران	-12.1131
▁بووگ	-12.1132
برا	-12.1133
▁زہیراں	-12.1133
▁تہمبل	-12.1136
شین	-12.1138
▁رسمی	-12.1138
▁کوکارء	-12.1139
▁ہریک	-12.1141
▁سیٹلائٹ	-12.1141
▁ھمسپر	-12.1142
نامی	-12.1145
un	-12.1145
▁پیرء	-12.1145
▁املی	-12.1146
▁اخلاقیات	-12.1147
▁foot	-12.1147
▁prevent	-12.1147
▁مداخلت	-12.1147
▁لیبارٹری	-12.1147
▁بادشاھے	-12.1147
▁عبدالحق	-12.1147
▁مہریں	-12.1148
▁دئیت	-12.1148
ویں	-12.1149
▁یتیم	-12.115
▁ناکی	-12.115
▁پیچھے	-12.115
▁ڈیزل	-12.1151
رچ	-12.1152
▁درسی	-12.1152
ڈل	-12.1153
▁مبوتین	-12.1154
▁بنایا	-12.1154
▁جیکب	-12.1154
▁تلمیح	-12.1154
▁تکانی	-12.1158
▁لل	-12.1158
▁حکایت	-12.1158
▁ھمبلاں	-12.1158
ایگ	-12.1161
▁رہتے	-12.1161
▁اولگا	-12.1166
▁ازگر	-12.1166
▁جاگهے	-12.1166
▁توانمند	-12.1167
▁ھوٹلے	-12.1168
▁پادیں	-12.1169
▁کئیز	-12.1172
▁ایشاناں	-12.1172
شو	-12.1173
▁صلح	-12.1174
▁بھیر	-12.1175
▁سورو	-12.1175
سرکاری	-12.1175
▁اوہد	-12.1176
▁ٹینکر	-12.1177
▁ائیڈل	-12.1178
▁ناگیگی	-12.118
بندیں	-12.1182
▁کنۆک	-12.1182
▁ترسیں	-12.1182
▁کرتنت۔	-12.1184
▁امروزء	-12.1184
▁سفارش	-12.1185
▁ردوبند	-12.1187
▁fre	-12.1187
▁brother	-12.1188
▁هاشمی	-12.1188
▁یوسپ	-12.1188
▁رینجرز	-12.1188
▁ریحان	-12.1189
▁راؤنڈ	-12.119
▁رازء	-12.1191
بھی	-12.1191
▁اتفاق	-12.1192
▁توارانی	-12.1193
▁ھمنچک	-12.1195
▁حکمرانی	-12.1196
▁رت	-12.1196
▁ارسیگ	-12.1197
▁ڈکشن	-12.1198
ربیت	-12.1205
▁چیپ	-12.1205
▁صحبت	-12.1205
ریاست	-12.1206
باد	-12.1206
▁رئوان	-12.1206
ence	-12.1207
▁اشارت	-12.1207
▁Peter	-12.1208
▁سارا	-12.1211
▁گراباں	-12.1212
▁رانی	-12.1214
▁دربرت	-12.1214
mo	-12.1215
..!‘‘	-12.1215
▁واٹر	-12.1216
▁ودگ	-12.1216
▁گلاسے	-12.1216
▁جنگلانی	-12.1218
شبین	-12.1222
▁وشھالیں	-12.1224
▁ونتگ۔	-12.1226
▁تمباک	-12.1226
ئتگ	-12.1227
▁flight	-12.1228
▁باگی	-12.1228
▁Canadian	-12.1228
▁Thomas	-12.1228
▁football	-12.1231
▁نمائش	-12.1231
▁دیوانانی	-12.1231
▁ایجاد	-12.1232
em	-12.1232
▁سرجاہ	-12.1232
▁زرک	-12.1233
▁ڈائیلاگ	-12.1236
▁وانند	-12.1236
▁کھثہ	-12.1236
▁اھوالاں	-12.1236
▁شدء	-12.1236
▁مجموعہ	-12.1236
▁زخم	-12.1237
▁بندروشم	-12.1237
نصیر	-12.1238
▁اتراپاں	-12.1241
▁نیٹو	-12.1241
ئو	-12.1243
جنگی	-12.1244
▁ٹاس	-12.1245
▁sub	-12.1246
▁دراھ	-12.1247
▁شنبہ	-12.1248
▁Ri	-12.1249
▁کھندگ	-12.1249
▁اقا	-12.1251
▁stone	-12.1254
▁امدنی	-12.1254
▁نادلگوشی	-12.1255
▁دئی	-12.1256
▁ذمواری	-12.1256
▁بھوک	-12.1259
▁اکاؤنٹ	-12.1261
▁لاگ	-12.1262
▁رمیز	-12.1264
زات	-12.1264
▁پتانی	-12.1265
▁زوراکاں	-12.1265
پال	-12.1267
▁subject	-12.1269
▁مخاطب	-12.1269
▁چشم	-12.1271
▁ٹیلیفون	-12.1271
▁انجینئرنگ	-12.1275
▁چہرے	-12.1278
▁مفکر	-12.1278
▁خطر	-12.1278
ig	-12.1279
گیدی	-12.1283
▁وانینتگ	-12.1283
▁تیوگی	-12.1284
▁زیاد	-12.1288
▁في	-12.1289
▁سلو	-12.1289
▁کاه	-12.129
وڑیں	-12.1292
نظر	-12.1293
▁امیدگساں	-12.1297
رت	-12.1297
▁چارینگ	-12.1299
▁کارگرگ	-12.1304
[...]
