{
  "version": "1.0",
  "truncation": null,
  "padding": null,
  "added_tokens": [
    {
      "id": 0,
      "content": "[PAD]",
      "single_word": false,
      "lstrip": false,
      "rstrip": false,
      "normalized": false,
      "special": true
    },
    {
      "id": 1,
      "content": "[UNK]",
      "single_word": false,
      "lstrip": false,
      "rstrip": false,
      "normalized": false,
      "special": true
    },
    {
      "id": 2,
      "content": "[CLS]",
      "single_word": false,
      "lstrip": false,
      "rstrip": false,
      "normalized": false,
      "special": true
    },
    {
      "id": 3,
      "content": "[SEP]",
      "single_word": false,
      "lstrip": false,
      "rstrip": false,
      "normalized": false,
      "special": true
    },
    {
      "id": 4,
      "content": "[MASK]",
      "single_word": false,
      "lstrip": false,
      "rstrip": false,
      "normalized": false,
      "special": true
    }
  ],
  "normalizer": {
    "type": "NFKC"
  },
  "pre_tokenizer": {
    "type": "Sequence",
    "pretokenizers": [
      {
        "type": "Whitespace"
      },
      {
        "type": "Punctuation",
        "behavior": "Isolated"
      },
      {
        "type": "Digits",
        "individual_digits": true
      }
    ]
  },
  "post_processor": null,
  "decoder": null,
  "model": {
    "type": "BPE",
    "dropout": null,
    "unk_token": "[UNK]",
    "continuing_subword_prefix": null,
    "end_of_word_suffix": null,
    "fuse_unk": false,
    "byte_fallback": false,
    "ignore_merges": false,
    "vocab": {
      "[PAD]": 0,
      "[UNK]": 1,
      "[CLS]": 2,
      "[SEP]": 3,
      "[MASK]": 4,
      "\u0004": 5,
      "\b": 6,
      "!": 7,
      "\"": 8,
      "#": 9,
      "$": 10,
      "%": 11,
      "&": 12,
      "'": 13,
      "(": 14,
      ")": 15,
      "*": 16,
      "+": 17,
      ",": 18,
      "-": 19,
      ".": 20,
      "/": 21,
      "0": 22,
      "1": 23,
      "2": 24,
      "3": 25,
      "4": 26,
      "5": 27,
      "6": 28,
      "7": 29,
      "8": 30,
      "9": 31,
      ":": 32,
      ";": 33,
      "<": 34,
      "=": 35,
      ">": 36,
      "?": 37,
      "@": 38,
      "A": 39,
      "B": 40,
      "C": 41,
      "D": 42,
      "E": 43,
      "F": 44,
      "G": 45,
      "H": 46,
      "I": 47,
      "J": 48,
      "K": 49,
      "L": 50,
      "M": 51,
      "N": 52,
      "O": 53,
      "P": 54,
      "Q": 55,
      "R": 56,
      "S": 57,
      "T": 58,
      "U": 59,
      "V": 60,
      "W": 61,
      "X": 62,
      "Y": 63,
      "Z": 64,
      "[": 65,
      "\\": 66,
      "]": 67,
      "^": 68,
      "_": 69,
      "`": 70,
      "a": 71,
      "b": 72,
      "c": 73,
      "d": 74,
      "e": 75,
      "f": 76,
      "g": 77,
      "h": 78,
      "i": 79,
      "j": 80,
      "k": 81,
      "l": 82,
      "m": 83,
      "n": 84,
      "o": 85,
      "p": 86,
      "q": 87,
      "r": 88,
      "s": 89,
      "t": 90,
      "u": 91,
      "v": 92,
      "w": 93,
      "x": 94,
      "y": 95,
      "z": 96,
      "|": 97,
      "}": 98,
      "~": 99,
      "": 100,
      "": 101,
      "¡": 102,
      "¢": 103,
      "£": 104,
      "¥": 105,
      "§": 106,
      "°": 107,
      "±": 108,
      "·": 109,
      "¿": 110,
      "Á": 111,
      "Ä": 112,
      "Å": 113,
      "Æ": 114,
      "Ç": 115,
      "É": 116,
      "Í": 117,
      "Î": 118,
      "Ñ": 119,
      "Ó": 120,
      "Ö": 121,
      "×": 122,
      "Ø": 123,
      "Ú": 124,
      "Ü": 125,
      "Þ": 126,
      "ß": 127,
      "à": 128,
      "á": 129,
      "â": 130,
      "ã": 131,
      "ä": 132,
      "å": 133,
      "æ": 134,
      "ç": 135,
      "è": 136,
      "é": 137,
      "ê": 138,
      "ë": 139,
      "ì": 140,
      "í": 141,
      "î": 142,
      "ï": 143,
      "ð": 144,
      "ñ": 145,
      "ò": 146,
      "ó": 147,
      "ô": 148,
      "ö": 149,
      "ø": 150,
      "ù": 151,
      "ú": 152,
      "û": 153,
      "ü": 154,
      "ý": 155,
      "þ": 156,
      "Ā": 157,
      "ā": 158,
      "ă": 159,
      "ą": 160,
      "ć": 161,
      "Č": 162,
      "č": 163,
      "Đ": 164,
      "đ": 165,
      "Ē": 166,
      "ē": 167,
      "Ĕ": 168,
      "ĕ": 169,
      "ė": 170,
      "ę": 171,
      "ğ": 172,
      "ħ": 173,
      "ī": 174,
      "İ": 175,
      "ı": 176,
      "Ľ": 177,
      "Ł": 178,
      "ł": 179,
      "ń": 180,
      "Ō": 181,
      "ō": 182,
      "œ": 183,
      "ř": 184,
      "Ś": 185,
      "ś": 186,
      "Ş": 187,
      "ş": 188,
      "Š": 189,
      "š": 190,
      "ţ": 191,
      "ũ": 192,
      "ū": 193,
      "ů": 194,
      "ų": 195,
      "ź": 196,
      "Ż": 197,
      "ż": 198,
      "Ž": 199,
      "ž": 200,
      "ơ": 201,
      "ư": 202,
      "ǎ": 203,
      "ǔ": 204,
      "Ș": 205,
      "ș": 206,
      "ț": 207,
      "ȯ": 208,
      "ɐ": 209,
      "ɑ": 210,
      "ɒ": 211,
      "ɔ": 212,
      "ə": 213,
      "ɛ": 214,
      "ɜ": 215,
      "ɡ": 216,
      "ɢ": 217,
      "ɪ": 218,
      "ɫ": 219,
      "ɬ": 220,
      "ɳ": 221,
      "ɽ": 222,
      "ɾ": 223,
      "ʁ": 224,
      "ʃ": 225,
      "ʊ": 226,
      "ʋ": 227,
      "ʒ": 228,
      "ʔ": 229,
      "ʕ": 230,
      "ʻ": 231,
      "ʼ": 232,
      "ʾ": 233,
      "ʿ": 234,
      "ˈ": 235,
      "ˌ": 236,
      "ː": 237,
      "˳": 238,
      "́": 239,
      "̃": 240,
      "̋": 241,
      "̍": 242,
      "̤": 243,
      "̥": 244,
      "̯": 245,
      "͍": 246,
      "Α": 247,
      "Δ": 248,
      "Κ": 249,
      "Ν": 250,
      "Π": 251,
      "Τ": 252,
      "Φ": 253,
      "Χ": 254,
      "Ω": 255,
      "ά": 256,
      "έ": 257,
      "ή": 258,
      "ί": 259,
      "α": 260,
      "β": 261,
      "γ": 262,
      "δ": 263,
      "ε": 264,
      "η": 265,
      "θ": 266,
      "ι": 267,
      "κ": 268,
      "λ": 269,
      "μ": 270,
      "ν": 271,
      "ξ": 272,
      "ο": 273,
      "π": 274,
      "ρ": 275,
      "ς": 276,
      "σ": 277,
      "τ": 278,
      "υ": 279,
      "χ": 280,
      "ψ": 281,
      "ω": 282,
      "ό": 283,
      "ύ": 284,
      "ώ": 285,
      "А": 286,
      "Б": 287,
      "В": 288,
      "Г": 289,
      "И": 290,
      "К": 291,
      "Л": 292,
      "П": 293,
      "Р": 294,
      "С": 295,
      "Т": 296,
      "У": 297,
      "Х": 298,
      "Э": 299,
      "Я": 300,
      "а": 301,
      "б": 302,
      "в": 303,
      "г": 304,
      "д": 305,
      "е": 306,
      "ж": 307,
      "з": 308,
      "и": 309,
      "й": 310,
      "к": 311,
      "л": 312,
      "м": 313,
      "н": 314,
      "о": 315,
      "п": 316,
      "р": 317,
      "с": 318,
      "т": 319,
      "у": 320,
      "х": 321,
      "ц": 322,
      "ч": 323,
      "ш": 324,
      "щ": 325,
      "ъ": 326,
      "ы": 327,
      "ь": 328,
      "ю": 329,
      "я": 330,
      "є": 331,
      "ֵ": 332,
      "ֶ": 333,
      "ָ": 334,
      "ֹ": 335,
      "ּ": 336,
      "א": 337,
      "ב": 338,
      "ג": 339,
      "ד": 340,
      "ה": 341,
      "ו": 342,
      "ז": 343,
      "ח": 344,
      "י": 345,
      "ל": 346,
      "ם": 347,
      "מ": 348,
      "ן": 349,
      "נ": 350,
      "ס": 351,
      "ף": 352,
      "פ": 353,
      "צ": 354,
      "ר": 355,
      "ש": 356,
      "ת": 357,
      "؁": 358,
      "؂": 359,
      "؍": 360,
      "؎": 361,
      "؏": 362,
      "ء": 363,
      "ؤ": 364,
      "ئ": 365,
      "ا": 366,
      "ب": 367,
      "ة": 368,
      "ت": 369,
      "ث": 370,
      "ج": 371,
      "ح": 372,
      "خ": 373,
      "د": 374,
      "ذ": 375,
      "ر": 376,
      "ز": 377,
      "س": 378,
      "ش": 379,
      "ص": 380,
      "ض": 381,
      "ط": 382,
      "ظ": 383,
      "ع": 384,
      "غ": 385,
      "ف": 386,
      "ق": 387,
      "ك": 388,
      "ل": 389,
      "م": 390,
      "ن": 391,
      "ه": 392,
      "و": 393,
      "ى": 394,
      "ي": 395,
      "٠": 396,
      "١": 397,
      "٢": 398,
      "٣": 399,
      "٤": 400,
      "٥": 401,
      "٦": 402,
      "٧": 403,
      "٨": 404,
      "٩": 405,
      "٪": 406,
      "٫": 407,
      "٬": 408,
      "٭": 409,
      "ٰ": 410,
      "ٲ": 411,
      "ٳ": 412,
      "ٴ": 413,
      "ٹ": 414,
      "ٻ": 415,
      "ټ": 416,
      "ٽ": 417,
      "پ": 418,
      "ٿ": 419,
      "ڀ": 420,
      "ځ": 421,
      "ڃ": 422,
      "ڄ": 423,
      "څ": 424,
      "چ": 425,
      "ڇ": 426,
      "ڈ": 427,
      "ډ": 428,
      "ڊ": 429,
      "ڋ": 430,
      "ڌ": 431,
      "ڍ": 432,
      "ڏ": 433,
      "ڑ": 434,
      "ړ": 435,
      "ڕ": 436,
      "ږ": 437,
      "ڗ": 438,
      "ژ": 439,
      "ڙ": 440,
      "ښ": 441,
      "ڥ": 442,
      "ک": 443,
      "ڪ": 444,
      "ګ": 445,
      "گ": 446,
      "ڰ": 447,
      "ڱ": 448,
      "ڳ": 449,
      "ڷ": 450,
      "ں": 451,
      "ڻ": 452,
      "ھ": 453,
      "ۀ": 454,
      "ہ": 455,
      "ۂ": 456,
      "ۃ": 457,
      "ۆ": 458,
      "ۉ": 459,
      "ی": 460,
      "ۍ": 461,
      "ێ": 462,
      "ۏ": 463,
      "ې": 464,
      "ے": 465,
      "ۓ": 466,
      "۔": 467,
      "۝": 468,
      "۞": 469,
      "۟": 470,
      "۠": 471,
      "ۡ": 472,
      "ۤ": 473,
      "۩": 474,
      "۪": 475,
      "۫": 476,
      "ۯ": 477,
      "۰": 478,
      "۱": 479,
      "۲": 480,
      "۳": 481,
      "۴": 482,
      "۵": 483,
      "۶": 484,
      "۷": 485,
      "۸": 486,
      "۹": 487,
      "۽": 488,
      "۾": 489,
      "ܐ": 490,
      "ܕ": 491,
      "ܗ": 492,
      "ܝ": 493,
      "ܠ": 494,
      "ܢ": 495,
      "ܬ": 496,
      "ܲ": 497,
      "ܵ": 498,
      "ݔ": 499,
      "ހ": 500,
      "ނ": 501,
      "ވ": 502,
      "ދ": 503,
      "ި": 504,
      "ް": 505,
      "ࢨ": 506,
      "ࣿ": 507,
      "ं": 508,
      "अ": 509,
      "ई": 510,
      "क": 511,
      "ग": 512,
      "ण": 513,
      "त": 514,
      "द": 515,
      "न": 516,
      "प": 517,
      "ब": 518,
      "भ": 519,
      "म": 520,
      "य": 521,
      "र": 522,
      "ल": 523,
      "व": 524,
      "स": 525,
      "ह": 526,
      "ा": 527,
      "ि": 528,
      "ी": 529,
      "ु": 530,
      "ू": 531,
      "े": 532,
      "ै": 533,
      "्": 534,
      "আ": 535,
      "ঝ": 536,
      "ত": 537,
      "প": 538,
      "ল": 539,
      "হ": 540,
      "া": 541,
      "্": 542,
      "ਅ": 543,
      "ਲ": 544,
      "ਹ": 545,
      "ਾ": 546,
      "ੁ": 547,
      "ੱ": 548,
      "അ": 549,
      "ള": 550,
      "ഹ": 551,
      "ാ": 552,
      "്": 553,
      "ก": 554,
      "ค": 555,
      "ง": 556,
      "ช": 557,
      "ซ": 558,
      "ญ": 559,
      "ฐ": 560,
      "ณ": 561,
      "ด": 562,
      "ต": 563,
      "น": 564,
      "บ": 565,
      "ป": 566,
      "พ": 567,
      "ภ": 568,
      "ม": 569,
      "ย": 570,
      "ร": 571,
      "ล": 572,
      "ว": 573,
      "ศ": 574,
      "ษ": 575,
      "ส": 576,
      "ห": 577,
      "อ": 578,
      "ฮ": 579,
      "ะ": 580,
      "ั": 581,
      "า": 582,
      "ิ": 583,
      "ี": 584,
      "ึ": 585,
      "เ": 586,
      "แ": 587,
      "ไ": 588,
      "็": 589,
      "่": 590,
      "้": 591,
      "๊": 592,
      "์": 593,
      "Ⴀ": 594,
      "Ⴂ": 595,
      "Ⴃ": 596,
      "Ⴈ": 597,
      "Ⴌ": 598,
      "Ⴕ": 599,
      "Ⴟ": 600,
      "ა": 601,
      "ბ": 602,
      "გ": 603,
      "დ": 604,
      "ე": 605,
      "ვ": 606,
      "ზ": 607,
      "თ": 608,
      "ი": 609,
      "კ": 610,
      "ლ": 611,
      "მ": 612,
      "ნ": 613,
      "ო": 614,
      "პ": 615,
      "ჟ": 616,
      "რ": 617,
      "ს": 618,
      "ტ": 619,
      "უ": 620,
      "ფ": 621,
      "ქ": 622,
      "ღ": 623,
      "ყ": 624,
      "შ": 625,
      "ჩ": 626,
      "ც": 627,
      "ძ": 628,
      "წ": 629,
      "ჭ": 630,
      "ხ": 631,
      "ჯ": 632,
      "ჰ": 633,
      "ჱ": 634,
      "ჲ": 635,
      "ჳ": 636,
      "ჴ": 637,
      "ჵ": 638,
      "ჶ": 639,
      "ჷ": 640,
      "ჸ": 641,
      "ჹ": 642,
      "ჺ": 643,
      "჻": 644,
      "ᵻ": 645,
      "ḍ": 646,
      "ḏ": 647,
      "Ḥ": 648,
      "ḥ": 649,
      "ḷ": 650,
      "ṃ": 651,
      "ṅ": 652,
      "ṇ": 653,
      "ṛ": 654,
      "ṣ": 655,
      "ṭ": 656,
      "ṯ": 657,
      "ạ": 658,
      "ả": 659,
      "ấ": 660,
      "ầ": 661,
      "ậ": 662,
      "ắ": 663,
      "ễ": 664,
      "ệ": 665,
      "ị": 666,
      "ọ": 667,
      "ỏ": 668,
      "ỗ": 669,
      "ộ": 670,
      "ớ": 671,
      "ứ": 672,
      "ử": 673,
      "ữ": 674,
      "ỳ": 675,
      "ỹ": 676,
      "ἀ": 677,
      "ἰ": 678,
      "ὀ": 679,
      "ὁ": 680,
      "ὑ": 681,
      "​": 682,
      "‎": 683,
      "‐": 684,
      "–": 685,
      "—": 686,
      "―": 687,
      "‘": 688,
      "’": 689,
      "“": 690,
      "”": 691,
      "„": 692,
      "†": 693,
      "‡": 694,
      "•": 695,
      "‪": 696,
      "‫": 697,
      "‬": 698,
      "′": 699,
      "‹": 700,
      "›": 701,
      "※": 702,
      "⁄": 703,
      "⁠": 704,
      "⁦": 705,
      "⁨": 706,
      "⁩": 707,
      "₣": 708,
      "₤": 709,
      "€": 710,
      "₹": 711,
      "⃣": 712,
      "↑": 713,
      "→": 714,
      "↔": 715,
      "↘": 716,
      "↪": 717,
      "⇦": 718,
      "⇨": 719,
      "⇩": 720,
      "∆": 721,
      "−": 722,
      "∗": 723,
      "√": 724,
      "∴": 725,
      "∵": 726,
      "≈": 727,
      "≡": 728,
      "≤": 729,
      "≥": 730,
      "⏪": 731,
      "⏰": 732,
      "⏲": 733,
      "⏳": 734,
      "⏺": 735,
      "─": 736,
      "█": 737,
      "▓": 738,
      "■": 739,
      "▪": 740,
      "▫": 741,
      "▶": 742,
      "◀": 743,
      "◄": 744,
      "○": 745,
      "●": 746,
      "◻": 747,
      "◼": 748,
      "◽": 749,
      "◾": 750,
      "☀": 751,
      "☄": 752,
      "★": 753,
      "☆": 754,
      "☉": 755,
      "☘": 756,
      "☜": 757,
      "☝": 758,
      "☫": 759,
      "♀": 760,
      "♂": 761,
      "♡": 762,
      "♢": 763,
      "♣": 764,
      "♥": 765,
      "♦": 766,
      "♨": 767,
      "♭": 768,
      "♯": 769,
      "♻": 770,
      "⚓": 771,
      "⚔": 772,
      "⚛": 773,
      "⚠": 774,
      "⚡": 775,
      "⚫": 776,
      "⚳": 777,
      "⛅": 778,
      "⛈": 779,
      "⛔": 780,
      "⛰": 781,
      "⛲": 782,
      "✄": 783,
      "✅": 784,
      "✋": 785,
      "✌": 786,
      "✍": 787,
      "✎": 788,
      "✏": 789,
      "✒": 790,
      "✓": 791,
      "✔": 792,
      "✘": 793,
      "✨": 794,
      "✳": 795,
      "✴": 796,
      "❀": 797,
      "❄": 798,
      "❇": 799,
      "❊": 800,
      "❌": 801,
      "❎": 802,
      "❓": 803,
      "❖": 804,
      "❗": 805,
      "❣": 806,
      "❤": 807,
      "❶": 808,
      "❷": 809,
      "❸": 810,
      "❹": 811,
      "❺": 812,
      "➏": 813,
      "➐": 814,
      "➖": 815,
      "➡": 816,
      "➣": 817,
      "⦿": 818,
      "⩽": 819,
      "⬅": 820,
      "⬇": 821,
      "⬛": 822,
      "⭐": 823,
      "⭕": 824,
      "、": 825,
      "。": 826,
      "〆": 827,
      "〇": 828,
      "〈": 829,
      "〉": 830,
      "《": 831,
      "》": 832,
      "〜": 833,
      "〰": 834,
      "あ": 835,
      "い": 836,
      "う": 837,
      "お": 838,
      "か": 839,
      "が": 840,
      "き": 841,
      "ぎ": 842,
      "く": 843,
      "ぐ": 844,
      "け": 845,
      "こ": 846,
      "ご": 847,
      "さ": 848,
      "し": 849,
      "す": 850,
      "ず": 851,
      "ぜ": 852,
      "た": 853,
      "だ": 854,
      "ち": 855,
      "っ": 856,
      "つ": 857,
      "と": 858,
      "な": 859,
      "に": 860,
      "の": 861,
      "は": 862,
      "ば": 863,
      "ひ": 864,
      "ふ": 865,
      "ほ": 866,
      "ま": 867,
      "み": 868,
      "め": 869,
      "も": 870,
      "ゃ": 871,
      "ゆ": 872,
      "ょ": 873,
      "ら": 874,
      "り": 875,
      "る": 876,
      "れ": 877,
      "わ": 878,
      "を": 879,
      "ん": 880,
      "ァ": 881,
      "ア": 882,
      "ィ": 883,
      "イ": 884,
      "ゥ": 885,
      "ェ": 886,
      "エ": 887,
      "ォ": 888,
      "オ": 889,
      "カ": 890,
      "ガ": 891,
      "キ": 892,
      "ク": 893,
      "グ": 894,
      "ゲ": 895,
      "コ": 896,
      "サ": 897,
      "シ": 898,
      "ジ": 899,
      "ス": 900,
      "ズ": 901,
      "セ": 902,
      "タ": 903,
      "ダ": 904,
      "チ": 905,
      "ッ": 906,
      "ツ": 907,
      "テ": 908,
      "デ": 909,
      "ト": 910,
      "ド": 911,
      "ナ": 912,
      "ニ": 913,
      "ネ": 914,
      "ノ": 915,
      "ハ": 916,
      "バ": 917,
      "パ": 918,
      "フ": 919,
      "ブ": 920,
      "プ": 921,
      "ヘ": 922,
      "ベ": 923,
      "マ": 924,
      "ミ": 925,
      "ム": 926,
      "モ": 927,
      "ャ": 928,
      "ュ": 929,
      "ョ": 930,
      "ラ": 931,
      "リ": 932,
      "ル": 933,
      "レ": 934,
      "ロ": 935,
      "ン": 936,
      "ヴ": 937,
      "・": 938,
      "ー": 939,
      "一": 940,
      "七": 941,
      "下": 942,
      "世": 943,
      "丙": 944,
      "中": 945,
      "主": 946,
      "乃": 947,
      "之": 948,
      "乙": 949,
      "九": 950,
      "乡": 951,
      "二": 952,
      "云": 953,
      "人": 954,
      "今": 955,
      "付": 956,
      "作": 957,
      "侗": 958,
      "依": 959,
      "信": 960,
      "備": 961,
      "傳": 962,
      "儚": 963,
      "充": 964,
      "光": 965,
      "全": 966,
      "兵": 967,
      "其": 968,
      "具": 969,
      "円": 970,
      "再": 971,
      "出": 972,
      "判": 973,
      "前": 974,
      "剛": 975,
      "劇": 976,
      "劉": 977,
      "動": 978,
      "化": 979,
      "北": 980,
      "华": 981,
      "厂": 982,
      "去": 983,
      "古": 984,
      "可": 985,
      "台": 986,
      "史": 987,
      "同": 988,
      "名": 989,
      "君": 990,
      "吳": 991,
      "周": 992,
      "命": 993,
      "和": 994,
      "咲": 995,
      "善": 996,
      "四": 997,
      "國": 998,
      "園": 999,
      "圣": 1000,
      "在": 1001,
      "坂": 1002,
      "堤": 1003,
      "場": 1004,
      "塘": 1005,
      "夕": 1006,
      "大": 1007,
      "天": 1008,
      "夫": 1009,
      "女": 1010,
      "妙": 1011,
      "姚": 1012,
      "子": 1013,
      "孟": 1014,
      "守": 1015,
      "安": 1016,
      "宋": 1017,
      "完": 1018,
      "宗": 1019,
      "宝": 1020,
      "宫": 1021,
      "寝": 1022,
      "寺": 1023,
      "小": 1024,
      "少": 1025,
      "尾": 1026,
      "山": 1027,
      "岳": 1028,
      "川": 1029,
      "州": 1030,
      "巳": 1031,
      "市": 1032,
      "師": 1033,
      "平": 1034,
      "广": 1035,
      "庆": 1036,
      "府": 1037,
      "座": 1038,
      "廬": 1039,
      "延": 1040,
      "建": 1041,
      "式": 1042,
      "張": 1043,
      "彌": 1044,
      "彩": 1045,
      "彼": 1046,
      "後": 1047,
      "御": 1048,
      "德": 1049,
      "思": 1050,
      "愛": 1051,
      "憑": 1052,
      "憶": 1053,
      "應": 1054,
      "懷": 1055,
      "战": 1056,
      "戦": 1057,
      "扈": 1058,
      "技": 1059,
      "拉": 1060,
      "拳": 1061,
      "挑": 1062,
      "揺": 1063,
      "攻": 1064,
      "放": 1065,
      "政": 1066,
      "散": 1067,
      "斯": 1068,
      "方": 1069,
      "日": 1070,
      "旦": 1071,
      "旭": 1072,
      "昌": 1073,
      "明": 1074,
      "星": 1075,
      "春": 1076,
      "晋": 1077,
      "景": 1078,
      "曦": 1079,
      "月": 1080,
      "望": 1081,
      "未": 1082,
      "本": 1083,
      "李": 1084,
      "村": 1085,
      "杜": 1086,
      "束": 1087,
      "来": 1088,
      "林": 1089,
      "桜": 1090,
      "梶": 1091,
      "棘": 1092,
      "椎": 1093,
      "楊": 1094,
      "楚": 1095,
      "榮": 1096,
      "橘": 1097,
      "機": 1098,
      "正": 1099,
      "殻": 1100,
      "殿": 1101,
      "母": 1102,
      "水": 1103,
      "汉": 1104,
      "沂": 1105,
      "沙": 1106,
      "河": 1107,
      "泗": 1108,
      "波": 1109,
      "泣": 1110,
      "洪": 1111,
      "淹": 1112,
      "清": 1113,
      "湯": 1114,
      "漢": 1115,
      "澄": 1116,
      "澤": 1117,
      "火": 1118,
      "灯": 1119,
      "灵": 1120,
      "灼": 1121,
      "焼": 1122,
      "熱": 1123,
      "物": 1124,
      "狐": 1125,
      "狸": 1126,
      "玄": 1127,
      "王": 1128,
      "玩": 1129,
      "珂": 1130,
      "珙": 1131,
      "球": 1132,
      "理": 1133,
      "琦": 1134,
      "琪": 1135,
      "瓊": 1136,
      "生": 1137,
      "田": 1138,
      "畢": 1139,
      "番": 1140,
      "瘡": 1141,
      "白": 1142,
      "皮": 1143,
      "真": 1144,
      "砲": 1145,
      "礮": 1146,
      "祈": 1147,
      "神": 1148,
      "祠": 1149,
      "秋": 1150,
      "空": 1151,
      "立": 1152,
      "精": 1153,
      "約": 1154,
      "絵": 1155,
      "織": 1156,
      "義": 1157,
      "翠": 1158,
      "者": 1159,
      "耕": 1160,
      "肖": 1161,
      "胡": 1162,
      "膀": 1163,
      "臂": 1164,
      "興": 1165,
      "良": 1166,
      "花": 1167,
      "芳": 1168,
      "芽": 1169,
      "若": 1170,
      "英": 1171,
      "藕": 1172,
      "藥": 1173,
      "蘄": 1174,
      "蘇": 1175,
      "行": 1176,
      "裁": 1177,
      "規": 1178,
      "覺": 1179,
      "观": 1180,
      "解": 1181,
      "記": 1182,
      "誓": 1183,
      "誡": 1184,
      "誰": 1185,
      "謎": 1186,
      "许": 1187,
      "谭": 1188,
      "豪": 1189,
      "豫": 1190,
      "費": 1191,
      "贵": 1192,
      "赤": 1193,
      "趙": 1194,
      "足": 1195,
      "跡": 1196,
      "転": 1197,
      "辛": 1198,
      "逆": 1199,
      "遇": 1200,
      "運": 1201,
      "過": 1202,
      "遠": 1203,
      "選": 1204,
      "邦": 1205,
      "邱": 1206,
      "部": 1207,
      "郭": 1208,
      "都": 1209,
      "酈": 1210,
      "里": 1211,
      "野": 1212,
      "金": 1213,
      "銃": 1214,
      "鋼": 1215,
      "錄": 1216,
      "錡": 1217,
      "鍵": 1218,
      "鐵": 1219,
      "钱": 1220,
      "铁": 1221,
      "關": 1222,
      "防": 1223,
      "阿": 1224,
      "陈": 1225,
      "陳": 1226,
      "陽": 1227,
      "隊": 1228,
      "階": 1229,
      "集": 1230,
      "雪": 1231,
      "雲": 1232,
      "霖": 1233,
      "霹": 1234,
      "靂": 1235,
      "韓": 1236,
      "願": 1237,
      "顯": 1238,
      "颜": 1239,
      "马": 1240,
      "高": 1241,
      "龍": 1242,
      "대": 1243,
      "독": 1244,
      "라": 1245,
      "립": 1246,
      "병": 1247,
      "보": 1248,
      "부": 1249,
      "알": 1250,
      "연": 1251,
      "제": 1252,
      "": 1253,
      "": 1254,
      "": 1255,
      "": 1256,
      "": 1257,
      "": 1258,
      "": 1259,
      "": 1260,
      "": 1261,
      "": 1262,
      "": 1263,
      "": 1264,
      "﴾": 1265,
      "﴿": 1266,
      "﷽": 1267,
      "️": 1268,
      "﻿": 1269,
      "￴": 1270,
      "￵": 1271,
      "￶": 1272,
      "￷": 1273,
      "￸": 1274,
      "�": 1275,
      "𑹄": 1276,
      "🆔": 1277,
      "🇦": 1278,
      "🇧": 1279,
      "🇨": 1280,
      "🇪": 1281,
      "🇱": 1282,
      "🌅": 1283,
      "🌈": 1284,
      "🌎": 1285,
      "🌐": 1286,
      "🌓": 1287,
      "🌙": 1288,
      "🌚": 1289,
      "🌟": 1290,
      "🌠": 1291,
      "🌧": 1292,
      "🌨": 1293,
      "🌱": 1294,
      "🌲": 1295,
      "🌳": 1296,
      "🌴": 1297,
      "🌵": 1298,
      "🌶": 1299,
      "🌷": 1300,
      "🌸": 1301,
      "🌹": 1302,
      "🌺": 1303,
      "🌻": 1304,
      "🌼": 1305,
      "🌾": 1306,
      "🌿": 1307,
      "🍀": 1308,
      "🍁": 1309,
      "🍂": 1310,
      "🍃": 1311,
      "🍅": 1312,
      "🎀": 1313,
      "🎄": 1314,
      "🎇": 1315,
      "🎉": 1316,
      "🎋": 1317,
      "🎓": 1318,
      "🎤": 1319,
      "🎥": 1320,
      "🎧": 1321,
      "🎮": 1322,
      "🎴": 1323,
      "🎵": 1324,
      "🏃": 1325,
      "🏙": 1326,
      "🏝": 1327,
      "🏞": 1328,
      "🏠": 1329,
      "🏴": 1330,
      "🏻": 1331,
      "🏼": 1332,
      "🏽": 1333,
      "🐉": 1334,
      "🐍": 1335,
      "🐑": 1336,
      "🐓": 1337,
      "🐪": 1338,
      "👀": 1339,
      "👆": 1340,
      "👇": 1341,
      "👈": 1342,
      "👉": 1343,
      "👌": 1344,
      "👍": 1345,
      "👏": 1346,
      "👑": 1347,
      "👗": 1348,
      "👤": 1349,
      "👦": 1350,
      "👧": 1351,
      "👨": 1352,
      "👲": 1353,
      "👳": 1354,
      "💀": 1355,
      "💊": 1356,
      "💌": 1357,
      "💎": 1358,
      "💐": 1359,
      "💓": 1360,
      "💔": 1361,
      "💕": 1362,
      "💖": 1363,
      "💗": 1364,
      "💘": 1365,
      "💝": 1366,
      "💞": 1367,
      "💟": 1368,
      "💠": 1369,
      "💡": 1370,
      "💥": 1371,
      "💦": 1372,
      "💧": 1373,
      "💫": 1374,
      "💬": 1375,
      "💭": 1376,
      "📃": 1377,
      "📇": 1378,
      "📋": 1379,
      "📌": 1380,
      "📍": 1381,
      "📎": 1382,
      "📑": 1383,
      "📒": 1384,
      "📓": 1385,
      "📔": 1386,
      "📕": 1387,
      "📖": 1388,
      "📗": 1389,
      "📘": 1390,
      "📙": 1391,
      "📚": 1392,
      "📜": 1393,
      "📝": 1394,
      "📞": 1395,
      "📡": 1396,
      "📢": 1397,
      "📣": 1398,
      "📤": 1399,
      "📥": 1400,
      "📦": 1401,
      "📮": 1402,
      "📰": 1403,
      "📲": 1404,
      "🔁": 1405,
      "🔃": 1406,
      "🔄": 1407,
      "🔅": 1408,
      "🔆": 1409,
      "🔊": 1410,
      "🔍": 1411,
      "🔖": 1412,
      "🔗": 1413,
      "🔘": 1414,
      "🔥": 1415,
      "🔦": 1416,
      "🔭": 1417,
      "🔮": 1418,
      "🔰": 1419,
      "🔲": 1420,
      "🔴": 1421,
      "🔵": 1422,
      "🔶": 1423,
      "🔷": 1424,
      "🔸": 1425,
      "🔹": 1426,
      "🔺": 1427,
      "🔻": 1428,
      "🕋": 1429,
      "🕌": 1430,
      "🕴": 1431,
      "🕵": 1432,
      "🖊": 1433,
      "🖋": 1434,
      "🖌": 1435,
      "🖤": 1436,
      "🗓": 1437,
      "🗣": 1438,
      "🗯": 1439,
      "😀": 1440,
      "😁": 1441,
      "😂": 1442,
      "😄": 1443,
      "😇": 1444,
      "😉": 1445,
      "😊": 1446,
      "😍": 1447,
      "😎": 1448,
      "😏": 1449,
      "😔": 1450,
      "😜": 1451,
      "😢": 1452,
      "😥": 1453,
      "😨": 1454,
      "😭": 1455,
      "😰": 1456,
      "😳": 1457,
      "🙏": 1458,
      "🚀": 1459,
      "🚌": 1460,
      "🚍": 1461,
      "🚢": 1462,
      "🚨": 1463,
      "🚫": 1464,
      "🚶": 1465,
      "🛌": 1466,
      "🛑": 1467,
      "🤐": 1468,
      "🤔": 1469,
      "🤖": 1470,
      "🤝": 1471,
      "🤣": 1472,
      "🤪": 1473,
      "🤫": 1474,
      "🤲": 1475,
      "🥀": 1476,
      "🥗": 1477,
      "🦅": 1478,
      "🦜": 1479,
      "🧐": 1480,
      "🧙": 1481,
      "🧠": 1482,
      "🧿": 1483,
      "🩷": 1484,
      "🩸": 1485,
      "🩹": 1486,
      "🪒": 1487,
      "🫀": 1488,
      "ان": 1489,
      "ار": 1490,
      "یں": 1491,
      "انت": 1492,
      "اں": 1493,
      "تگ": 1494,
      "کہ": 1495,
      "ات": 1496,
      "انی": 1497,
      "بی": 1498,
      "ست": 1499,
      "را": 1500,
      "کن": 1501,
      "گو": 1502,
      "ئی": 1503,
      "ال": 1504,
      "وت": 1505,
      "ند": 1506,
      "بل": 1507,
      "من": 1508,
      "دی": 1509,
      "ای": 1510,
      "ری": 1511,
      "وچ": 1512,
      "می": 1513,
      "سر": 1514,
      "ور": 1515,
      "ما": 1516,
      "رد": 1517,
      "اے": 1518,
      "نگ": 1519,
      "نی": 1520,
      "ائی": 1521,
      "یک": 1522,
      "شت": 1523,
      "در": 1524,
      "ئے": 1525,
      "بلوچ": 1526,
      "نہ": 1527,
      "ام": 1528,
      "از": 1529,
      "بو": 1530,
      "وتی": 1531,
      "اہ": 1532,
      "کار": 1533,
      "بر": 1534,
      "اد": 1535,
      "چہ": 1536,
      "سی": 1537,
      "وک": 1538,
      "بیت": 1539,
      "گی": 1540,
      "ھم": 1541,
      "کر": 1542,
      "نت": 1543,
      "اک": 1544,
      "بہ": 1545,
      "او": 1546,
      "تہ": 1547,
      "پی": 1548,
      "کی": 1549,
      "لی": 1550,
      "دو": 1551,
      "اس": 1552,
      "چی": 1553,
      "شی": 1554,
      "دا": 1555,
      "مرد": 1556,
      "کنگ": 1557,
      "پہ": 1558,
      "رو": 1559,
      "اب": 1560,
      "گوں": 1561,
      "اھ": 1562,
      "دار": 1563,
      "لو": 1564,
      "بوتگ": 1565,
      "مان": 1566,
      "مردم": 1567,
      "تو": 1568,
      "تر": 1569,
      "اگ": 1570,
      "کو": 1571,
      "چو": 1572,
      "th": 1573,
      "ستان": 1574,
      "کت": 1575,
      "دگ": 1576,
      "بند": 1577,
      "کنت": 1578,
      "مر": 1579,
      "کس": 1580,
      "پر": 1581,
      "جو": 1582,
      "شتگ": 1583,
      "ہم": 1584,
      "منی": 1585,
      "بوت": 1586,
      "ھر": 1587,
      "انگ": 1588,
      "ائ": 1589,
      "دیم": 1590,
      "دل": 1591,
      "بلے": 1592,
      "ھی": 1593,
      "اری": 1594,
      "in": 1595,
      "کتگ": 1596,
      "نا": 1597,
      "جی": 1598,
      "گپ": 1599,
      "نو": 1600,
      "باز": 1601,
      "انک": 1602,
      "گر": 1603,
      "پو": 1604,
      "بیتگ": 1605,
      "چار": 1606,
      "پد": 1607,
      "بز": 1608,
      "اپ": 1609,
      "تی": 1610,
      "وا": 1611,
      "ٹی": 1612,
      "er": 1613,
      "زی": 1614,
      "مہ": 1615,
      "بے": 1616,
      "سو": 1617,
      "مگ": 1618,
      "an": 1619,
      "وھ": 1620,
      "مل": 1621,
      "کش": 1622,
      "the": 1623,
      "اش": 1624,
      "بلوچستان": 1625,
      "لہ": 1626,
      "بان": 1627,
      "کم": 1628,
      "روچ": 1629,
      "جہ": 1630,
      "زند": 1631,
      "یا": 1632,
      "on": 1633,
      "ھمے": 1634,
      "جن": 1635,
      "ھو": 1636,
      "جاہ": 1637,
      "کے": 1638,
      "نام": 1639,
      "ڑا": 1640,
      "گوش": 1641,
      "مئے": 1642,
      "گل": 1643,
      "مار": 1644,
      "ایت": 1645,
      "مز": 1646,
      "مو": 1647,
      "راج": 1648,
      "ڈی": 1649,
      "نب": 1650,
      "کپ": 1651,
      "دگہ": 1652,
      "ed": 1653,
      "پاک": 1654,
      "جنگ": 1655,
      "است": 1656,
      "کل": 1657,
      "میں": 1658,
      "بلوچی": 1659,
      "راہ": 1660,
      "کرتگ": 1661,
      "وھد": 1662,
      "کا": 1663,
      "وکیں": 1664,
      "بنت": 1665,
      "دست": 1666,
      "چک": 1667,
      "ہر": 1668,
      "بار": 1669,
      "وش": 1670,
      "اور": 1671,
      "ون": 1672,
      "سل": 1673,
      "زبان": 1674,
      "re": 1675,
      "مد": 1676,
      "گڑا": 1677,
      "زور": 1678,
      "شر": 1679,
      "at": 1680,
      "تہا": 1681,
      "تئی": 1682,
      "سرا": 1683,
      "وان": 1684,
      "ران": 1685,
      "نبشت": 1686,
      "شانی": 1687,
      "ستگ": 1688,
      "لوٹ": 1689,
      "ماں": 1690,
      "گند": 1691,
      "زر": 1692,
      "or": 1693,
      "en": 1694,
      "سا": 1695,
      "زانت": 1696,
      "اتک": 1697,
      "نیمگ": 1698,
      "وڑ": 1699,
      "بن": 1700,
      "ھال": 1701,
      "ھما": 1702,
      "شن": 1703,
      "گء": 1704,
      "جت": 1705,
      "نیں": 1706,
      "st": 1707,
      "al": 1708,
      "شا": 1709,
      "انس": 1710,
      "اگاں": 1711,
      "ar": 1712,
      "ٹر": 1713,
      "ایشی": 1714,
      "مین": 1715,
      "پت": 1716,
      "سال": 1717,
      "کیں": 1718,
      "جھ": 1719,
      "چے": 1720,
      "بد": 1721,
      "گا": 1722,
      "ترا": 1723,
      "رنگ": 1724,
      "گش": 1725,
      "سنگ": 1726,
      "ہی": 1727,
      "سے": 1728,
      "ئیں": 1729,
      "لا": 1730,
      "دہ": 1731,
      "ایں": 1732,
      "وار": 1733,
      "جان": 1734,
      "چیز": 1735,
      "and": 1736,
      "رند": 1737,
      "of": 1738,
      "دات": 1739,
      "شان": 1740,
      "پدا": 1741,
      "کرت": 1742,
      "as": 1743,
      "زان": 1744,
      "لبز": 1745,
      "گوشتگ": 1746,
      "وہ": 1747,
      "بازیں": 1748,
      "یے": 1749,
      "ین": 1750,
      "ایر": 1751,
      "ھل": 1752,
      "درا": 1753,
      "ہمے": 1754,
      "داں": 1755,
      "ائیء": 1756,
      "گیں": 1757,
      "چش": 1758,
      "ڑی": 1759,
      "سک": 1760,
      "گار": 1761,
      "بیگو": 1762,
      "ستانی": 1763,
      "دور": 1764,
      "داتگ": 1765,
      "es": 1766,
      "الی": 1767,
      "عر": 1768,
      "که": 1769,
      "is": 1770,
      "پن": 1771,
      "ing": 1772,
      "جم": 1773,
      "ہما": 1774,
      "جا": 1775,
      "جار": 1776,
      "کاری": 1777,
      "نز": 1778,
      "ریں": 1779,
      "to": 1780,
      "نبشتہ": 1781,
      "گور": 1782,
      "نے": 1783,
      "بت": 1784,
      "نیا": 1785,
      "چا": 1786,
      "ہے": 1787,
      "شپ": 1788,
      "it": 1789,
      "دومی": 1790,
      "تھ": 1791,
      "جوڑ": 1792,
      "واجہ": 1793,
      "مح": 1794,
      "پیش": 1795,
      "سٹ": 1796,
      "مردمانی": 1797,
      "گیش": 1798,
      "با": 1799,
      "اتگ": 1800,
      "خان": 1801,
      "دوست": 1802,
      "میر": 1803,
      "کتاب": 1804,
      "رس": 1805,
      "دمگ": 1806,
      "وی": 1807,
      "دیگ": 1808,
      "تاک": 1809,
      "نوں": 1810,
      "ول": 1811,
      "دپ": 1812,
      "ایش": 1813,
      "گوشت": 1814,
      "ou": 1815,
      "پاکستانی": 1816,
      "تہء": 1817,
      "حی": 1818,
      "اف": 1819,
      "مارا": 1820,
      "اتی": 1821,
      "مانی": 1822,
      "داری": 1823,
      "ھچ": 1824,
      "ائیں": 1825,
      "ic": 1826,
      "دان": 1827,
      "تاں": 1828,
      "مزنیں": 1829,
      "ارش": 1830,
      "مت": 1831,
      "نیست": 1832,
      "مند": 1833,
      "مرا": 1834,
      "پل": 1835,
      "وال": 1836,
      "راست": 1837,
      "لوگ": 1838,
      "دے": 1839,
      "پرو": 1840,
      "ازمان": 1841,
      "پوج": 1842,
      "انیں": 1843,
      "شتر": 1844,
      "وں": 1845,
      "میش": 1846,
      "سیا": 1847,
      "فر": 1848,
      "چاگ": 1849,
      "دز": 1850,
      "کان": 1851,
      "اللہ": 1852,
      "توار": 1853,
      "پاد": 1854,
      "مش": 1855,
      "جست": 1856,
      "ion": 1857,
      "گشت": 1858,
      "نوکیں": 1859,
      "مات": 1860,
      "شنگ": 1861,
      "ھوار": 1862,
      "قی": 1863,
      "فی": 1864,
      "تے": 1865,
      "وانگ": 1866,
      "بیگواہ": 1867,
      "امی": 1868,
      "دنیا": 1869,
      "زار": 1870,
      "زانگ": 1871,
      "لش": 1872,
      "مردماں": 1873,
      "سرء": 1874,
      "رہ": 1875,
      "اوار": 1876,
      "اح": 1877,
      "نڈ": 1878,
      "مست": 1879,
      "he": 1880,
      "پس": 1881,
      "le": 1882,
      "ro": 1883,
      "کنان": 1884,
      "ایانی": 1885,
      "جاھ": 1886,
      "چوش": 1887,
      "زمین": 1888,
      "اچ": 1889,
      "جیڑ": 1890,
      "چیں": 1891,
      "نند": 1892,
      "اوں": 1893,
      "ستگیں": 1894,
      "مے": 1895,
      "ماہ": 1896,
      "کانی": 1897,
      "بال": 1898,
      "لس": 1899,
      "پاکستان": 1900,
      "مع": 1901,
      "برے": 1902,
      "دء": 1903,
      "تیں": 1904,
      "تا": 1905,
      "کھ": 1906,
      "کرا": 1907,
      "بس": 1908,
      "دری": 1909,
      "ازی": 1910,
      "کپتگ": 1911,
      "ھست": 1912,
      "شاہ": 1913,
      "پشت": 1914,
      "پری": 1915,
      "شہ": 1916,
      "درشان": 1917,
      "ابی": 1918,
      "گیر": 1919,
      "واست": 1920,
      "ھات": 1921,
      "این": 1922,
      "یکے": 1923,
      "ارگ": 1924,
      "دنت": 1925,
      "یل": 1926,
      "وھدے": 1927,
      "لم": 1928,
      "زو": 1929,
      "لشکر": 1930,
      "تک": 1931,
      "سب": 1932,
      "جتگ": 1933,
      "مروچ": 1934,
      "لگ": 1935,
      "جنی": 1936,
      "رء": 1937,
      "پار": 1938,
      "اتکگ": 1939,
      "کناں": 1940,
      "سرج": 1941,
      "ہو": 1942,
      "اولی": 1943,
      "گال": 1944,
      "جند": 1945,
      "اتنت": 1946,
      "گیشتر": 1947,
      "پٹ": 1948,
      "ھیال": 1949,
      "چین": 1950,
      "سوب": 1951,
      "گڈ": 1952,
      "سگ": 1953,
      "نوک": 1954,
      "بندی": 1955,
      "واب": 1956,
      "دم": 1957,
      "ھگ": 1958,
      "ملک": 1959,
      "گوشگ": 1960,
      "دیوان": 1961,
      "گشتگ": 1962,
      "راجی": 1963,
      "اتاں": 1964,
      "جام": 1965,
      "مرچی": 1966,
      "حال": 1967,
      "جر": 1968,
      "ھن": 1969,
      "گہ": 1970,
      "بلکیں": 1971,
      "باب": 1972,
      "چم": 1973,
      "ناں": 1974,
      "بزاں": 1975,
      "اجو": 1976,
      "ایاں": 1977,
      "بوگ": 1978,
      "سرپد": 1979,
      "گندگ": 1980,
      "عری": 1981,
      "اص": 1982,
      "انء": 1983,
      "کرد": 1984,
      "بول": 1985,
      "برجاہ": 1986,
      "ac": 1987,
      "درست": 1988,
      "بھ": 1989,
      "وڑیں": 1990,
      "ڈاک": 1991,
      "زھر": 1992,
      "il": 1993,
      "گون": 1994,
      "لبزانک": 1995,
      "ent": 1996,
      "مروچی": 1997,
      "رے": 1998,
      "زال": 1999,
      "کسے": 2000,
      "یر": 2001,
      "گری": 2002,
      "گوستگیں": 2003,
      "سن": 2004,
      "پرچا": 2005,
      "سرم": 2006,
      "دارگ": 2007,
      "بلئے": 2008,
      "ad": 2009,
      "se": 2010,
      "ئیگ": 2011,
      "الم": 2012,
      "چون": 2013,
      "چیزے": 2014,
      "am": 2015,
      "زیر": 2016,
      "ناد": 2017,
      "مراد": 2018,
      "محمد": 2019,
      "ٹو": 2020,
      "گیری": 2021,
      "ڈاکٹر": 2022,
      "مب": 2023,
      "دیما": 2024,
      "سنگت": 2025,
      "سرجمیں": 2026,
      "رانی": 2027,
      "چاگرد": 2028,
      "نک": 2029,
      "بیگ": 2030,
      "بنی": 2031,
      "کور": 2032,
      "بندات": 2033,
      "ابید": 2034,
      "میان": 2035,
      "رھ": 2036,
      "اشی": 2037,
      "منا": 2038,
      "شال": 2039,
      "دروش": 2040,
      "مردمے": 2041,
      "بھر": 2042,
      "تب": 2043,
      "شیت": 2044,
      "نس": 2045,
      "اسر": 2046,
      "انسان": 2047,
      "om": 2048,
      "دربر": 2049,
      "درو": 2050,
      "ھند": 2051,
      "ئیل": 2052,
      "درد": 2053,
      "مدام": 2054,
      "کوہ": 2055,
      "داد": 2056,
      "سیاسی": 2057,
      "تء": 2058,
      "ایوک": 2059,
      "برا": 2060,
      "ھیں": 2061,
      "پوسٹ": 2062,
      "بدل": 2063,
      "لام": 2064,
      "وس": 2065,
      "زمان": 2066,
      "پچ": 2067,
      "گاں": 2068,
      "مزن": 2069,
      "جاور": 2070,
      "ادار": 2071,
      "چست": 2072,
      "مال": 2073,
      "بری": 2074,
      "ودی": 2075,
      "انگت": 2076,
      "نزیک": 2077,
      "be": 2078,
      "انچو": 2079,
      "ادی": 2080,
      "ly": 2081,
      "وھدی": 2082,
      "شاعری": 2083,
      "چه": 2084,
      "میتگ": 2085,
      "ازمانک": 2086,
      "کسہ": 2087,
      "نبشتانک": 2088,
      "رج": 2089,
      "جھد": 2090,
      "شون": 2091,
      "جاگ": 2092,
      "سہ": 2093,
      "حیال": 2094,
      "بچ": 2095,
      "ہیں": 2096,
      "بوتگیں": 2097,
      "ch": 2098,
      "زورا": 2099,
      "زھرشانی": 2100,
      "سد": 2101,
      "رین": 2102,
      "کمی": 2103,
      "اھگ": 2104,
      "قو": 2105,
      "اج": 2106,
      "شما": 2107,
      "ادر": 2108,
      "کدی": 2109,
      "تیر": 2110,
      "انچیں": 2111,
      "اوشت": 2112,
      "ورن": 2113,
      "کیت": 2114,
      "باد": 2115,
      "گاڑی": 2116,
      "ur": 2117,
      "جل": 2118,
      "برز": 2119,
      "بیتگیں": 2120,
      "ئگ": 2121,
      "was": 2122,
      "for": 2123,
      "کجام": 2124,
      "مھ": 2125,
      "یت": 2126,
      "ئیت": 2127,
      "ملا": 2128,
      "عبد": 2129,
      "پولی": 2130,
      "دپتر": 2131,
      "اجوئی": 2132,
      "سرمچار": 2133,
      "کشگ": 2134,
      "مرگ": 2135,
      "ناز": 2136,
      "اھیں": 2137,
      "جتا": 2138,
      "ےء": 2139,
      "نشتگ": 2140,
      "لیکہ": 2141,
      "جتائیں": 2142,
      "بہر": 2143,
      "de": 2144,
      "تران": 2145,
      "ادا": 2146,
      "کپت": 2147,
      "دژ": 2148,
      "سم": 2149,
      "ve": 2150,
      "کراچی": 2151,
      "شو": 2152,
      "مرز": 2153,
      "نٹ": 2154,
      "چشکہ": 2155,
      "ہچ": 2156,
      "ساب": 2157,
      "نگی": 2158,
      "راب": 2159,
      "بیران": 2160,
      "شیر": 2161,
      "گام": 2162,
      "اق": 2163,
      "شاعر": 2164,
      "کٹ": 2165,
      "عی": 2166,
      "اباد": 2167,
      "اھی": 2168,
      "علی": 2169,
      "ردی": 2170,
      "ائرا": 2171,
      "ناک": 2172,
      "ایشانی": 2173,
      "راھ": 2174,
      "هم": 2175,
      "کمک": 2176,
      "بکن": 2177,
      "اض": 2178,
      "رجانک": 2179,
      "فار": 2180,
      "شھر": 2181,
      "دروشم": 2182,
      "سرجم": 2183,
      "اما": 2184,
      "سلاہ": 2185,
      "پنچ": 2186,
      "تگیں": 2187,
      "The": 2188,
      "عل": 2189,
      "سبب": 2190,
      "کری": 2191,
      "گپت": 2192,
      "مری": 2193,
      "ol": 2194,
      "دژمن": 2195,
      "سند": 2196,
      "ژن": 2197,
      "په": 2198,
      "ir": 2199,
      "دیر": 2200,
      "واری": 2201,
      "زل": 2202,
      "شک": 2203,
      "بیا": 2204,
      "شعر": 2205,
      "پیسر": 2206,
      "نظ": 2207,
      "یات": 2208,
      "اخ": 2209,
      "چیر": 2210,
      "چری": 2211,
      "ہند": 2212,
      "دین": 2213,
      "پجار": 2214,
      "ھار": 2215,
      "ریاست": 2216,
      "کجا": 2217,
      "نج": 2218,
      "رسانک": 2219,
      "منء": 2220,
      "اؤ": 2221,
      "پور": 2222,
      "رام": 2223,
      "باس": 2224,
      "واہ": 2225,
      "هر": 2226,
      "جارکش": 2227,
      "روان": 2228,
      "گے": 2229,
      "نودربر": 2230,
      "im": 2231,
      "بست": 2232,
      "برتگ": 2233,
      "گس": 2234,
      "گڈا": 2235,
      "کارے": 2236,
      "نش": 2237,
      "توک": 2238,
      "اوان": 2239,
      "ھانی": 2240,
      "روک": 2241,
      "ترس": 2242,
      "ایل": 2243,
      "شائ": 2244,
      "پول": 2245,
      "بیر": 2246,
      "زندگ": 2247,
      "سما": 2248,
      "برات": 2249,
      "انسانی": 2250,
      "شری": 2251,
      "شھی": 2252,
      "تام": 2253,
      "اول": 2254,
      "پیم": 2255,
      "زندگی": 2256,
      "درگ": 2257,
      "کاں": 2258,
      "ازم": 2259,
      "واستا": 2260,
      "ig": 2261,
      "ver": 2262,
      "ونی": 2263,
      "ھزار": 2264,
      "ow": 2265,
      "روگ": 2266,
      "چھ": 2267,
      "دیست": 2268,
      "پولیس": 2269,
      "رائی": 2270,
      "عہ": 2271,
      "تل": 2272,
      "جنین": 2273,
      "ایک": 2274,
      "راستی": 2275,
      "زالبول": 2276,
      "شم": 2277,
      "بگ": 2278,
      "wh": 2279,
      "کما": 2280,
      "سید": 2281,
      "لھ": 2282,
      "زہ": 2283,
      "بیان": 2284,
      "ڈول": 2285,
      "سروک": 2286,
      "حر": 2287,
      "سلام": 2288,
      "ادم": 2289,
      "ھاتر": 2290,
      "باں": 2291,
      "ساہ": 2292,
      "بابت": 2293,
      "سری": 2294,
      "کوش": 2295,
      "شتی": 2296,
      "سیت": 2297,
      "سین": 2298,
      "مبر": 2299,
      "un": 2300,
      "پنج": 2301,
      "بیست": 2302,
      "ter": 2303,
      "اھانی": 2304,
      "پان": 2305,
      "پا": 2306,
      "ایران": 2307,
      "دمان": 2308,
      "کساس": 2309,
      "زاناں": 2310,
      "پدر": 2311,
      "چن": 2312,
      "ھول": 2313,
      "ith": 2314,
      "کیچ": 2315,
      "چر": 2316,
      "واک": 2317,
      "کین": 2318,
      "پھ": 2319,
      "ود": 2320,
      "کنوک": 2321,
      "انسری": 2322,
      "کارانی": 2323,
      "یہ": 2324,
      "جنت": 2325,
      "لان": 2326,
      "کارمرز": 2327,
      "راھی": 2328,
      "اہانی": 2329,
      "جاگہ": 2330,
      "گوادر": 2331,
      "ڈن": 2332,
      "ھور": 2333,
      "مھر": 2334,
      "ay": 2335,
      "امری": 2336,
      "ایم": 2337,
      "شھ": 2338,
      "کاراں": 2339,
      "پیر": 2340,
      "ce": 2341,
      "کنیں": 2342,
      "گدار": 2343,
      "اود": 2344,
      "سرکار": 2345,
      "مہر": 2346,
      "سار": 2347,
      "قص": 2348,
      "گشگ": 2349,
      "بندیں": 2350,
      "بلکن": 2351,
      "بات": 2352,
      "دراھیں": 2353,
      "اه": 2354,
      "زندء": 2355,
      "شھید": 2356,
      "جہد": 2357,
      "چریشی": 2358,
      "چارگ": 2359,
      "پمیش": 2360,
      "عبدال": 2361,
      "لے": 2362,
      "ساچ": 2363,
      "سردار": 2364,
      "گران": 2365,
      "مھل": 2366,
      "گواری": 2367,
      "وئیل": 2368,
      "داشت": 2369,
      "مارشت": 2370,
      "زوراکی": 2371,
      "کنگء": 2372,
      "سائ": 2373,
      "لٹ": 2374,
      "شریں": 2375,
      "انکہ": 2376,
      "خی": 2377,
      "زہر": 2378,
      "گان": 2379,
      "ڈگار": 2380,
      "ation": 2381,
      "زرتگ": 2382,
      "جیڑہ": 2383,
      "نبی": 2384,
      "con": 2385,
      "داریت": 2386,
      "نه": 2387,
      "گانی": 2388,
      "اھاں": 2389,
      "ھاں": 2390,
      "بچار": 2391,
      "گوازی": 2392,
      "تاوان": 2393,
      "ێن": 2394,
      "گپتگ": 2395,
      "لء": 2396,
      "زورانسری": 2397,
      "مستریں": 2398,
      "کتگیں": 2399,
      "وری": 2400,
      "پاس": 2401,
      "منند": 2402,
      "ترند": 2403,
      "وزیر": 2404,
      "بخ": 2405,
      "داشتگ": 2406,
      "that": 2407,
      "دیمرو": 2408,
      "چشیں": 2409,
      "with": 2410,
      "ٹیت": 2411,
      "زھگ": 2412,
      "ag": 2413,
      "وب": 2414,
      "بازار": 2415,
      "ct": 2416,
      "گرگ": 2417,
      "تھا": 2418,
      "کھول": 2419,
      "دوئیں": 2420,
      "کسانیں": 2421,
      "وشی": 2422,
      "ایس": 2423,
      "ھبر": 2424,
      "وھدیکہ": 2425,
      "ملکی": 2426,
      "رح": 2427,
      "کشی": 2428,
      "له": 2429,
      "ٹہ": 2430,
      "نشانگ": 2431,
      "نیام": 2432,
      "id": 2433,
      "کء": 2434,
      "جه": 2435,
      "بنگ": 2436,
      "تربت": 2437,
      "گیج": 2438,
      "ئر": 2439,
      "ارا": 2440,
      "مھلوک": 2441,
      "برگ": 2442,
      "بھی": 2443,
      "کماش": 2444,
      "ورنا": 2445,
      "اسلام": 2446,
      "ھمک": 2447,
      "ساری": 2448,
      "عمر": 2449,
      "گریں": 2450,
      "زا": 2451,
      "وہد": 2452,
      "us": 2453,
      "te": 2454,
      "جوانیں": 2455,
      "کارمند": 2456,
      "نوی": 2457,
      "حق": 2458,
      "نیم": 2459,
      "قل": 2460,
      "داریں": 2461,
      "by": 2462,
      "گرد": 2463,
      "گوات": 2464,
      "شل": 2465,
      "پروش": 2466,
      "روچے": 2467,
      "لاش": 2468,
      "ورت": 2469,
      "بلی": 2470,
      "درگت": 2471,
      "اہاں": 2472,
      "اھوال": 2473,
      "ارز": 2474,
      "گڈی": 2475,
      "انگری": 2476,
      "وسی": 2477,
      "به": 2478,
      "مج": 2479,
      "ھمیش": 2480,
      "تاکدیم": 2481,
      "زمہ": 2482,
      "کنوکیں": 2483,
      "وڑا": 2484,
      "پیت": 2485,
      "وز": 2486,
      "ازگ": 2487,
      "ھلاپ": 2488,
      "ھالانی": 2489,
      "شش": 2490,
      "چیا": 2491,
      "وتا": 2492,
      "کچ": 2493,
      "چاگردی": 2494,
      "دراج": 2495,
      "تریں": 2496,
      "کئے": 2497,
      "ھا": 2498,
      "ورگ": 2499,
      "لوک": 2500,
      "کول": 2501,
      "لچہ": 2502,
      "انکی": 2503,
      "اردو": 2504,
      "جنک": 2505,
      "el": 2506,
      "نص": 2507,
      "ul": 2508,
      "راجدپتر": 2509,
      "نر": 2510,
      "ندہ": 2511,
      "شہر": 2512,
      "ri": 2513,
      "سول": 2514,
      "یکیں": 2515,
      "اسیں": 2516,
      "زگ": 2517,
      "ot": 2518,
      "ere": 2519,
      "زمانگ": 2520,
      "باریں": 2521,
      "تح": 2522,
      "ادء": 2523,
      "ساھ": 2524,
      "لوٹیت": 2525,
      "بانی": 2526,
      "ھے": 2527,
      "سیادی": 2528,
      "وہدے": 2529,
      "تیرگواری": 2530,
      "فو": 2531,
      "اناں": 2532,
      "زوت": 2533,
      "سرمچاراں": 2534,
      "مپ": 2535,
      "کال": 2536,
      "چاپ": 2537,
      "ھب": 2538,
      "روت": 2539,
      "اث": 2540,
      "بوھگ": 2541,
      "تاری": 2542,
      "تن": 2543,
      "یلہ": 2544,
      "تال": 2545,
      "ھاترا": 2546,
      "ھان": 2547,
      "ته": 2548,
      "سیاہ": 2549,
      "ٹری": 2550,
      "ap": 2551,
      "دود": 2552,
      "مالی": 2553,
      "مس": 2554,
      "سیاست": 2555,
      "دلگوش": 2556,
      "دراہ": 2557,
      "ٹک": 2558,
      "اڈ": 2559,
      "تچک": 2560,
      "زم": 2561,
      "اڑ": 2562,
      "فلس": 2563,
      "ٹپی": 2564,
      "ھلاس": 2565,
      "سرپ": 2566,
      "ہوار": 2567,
      "جاھی": 2568,
      "منٹ": 2569,
      "وانی": 2570,
      "دیستگ": 2571,
      "نما": 2572,
      "کشتگ": 2573,
      "کلات": 2574,
      "پسو": 2575,
      "اکی": 2576,
      "اتر": 2577,
      "اریں": 2578,
      "اماچ": 2579,
      "بکنت": 2580,
      "سیم": 2581,
      "استاد": 2582,
      "داک": 2583,
      "هی": 2584,
      "res": 2585,
      "ٹل": 2586,
      "دلء": 2587,
      "وکی": 2588,
      "شور": 2589,
      "ماس": 2590,
      "et": 2591,
      "گوئ": 2592,
      "گمان": 2593,
      "فہ": 2594,
      "ردء": 2595,
      "گوست": 2596,
      "تری": 2597,
      "کاروان": 2598,
      "ربی": 2599,
      "جال": 2600,
      "op": 2601,
      "کرتگیں": 2602,
      "چماں": 2603,
      "ھمد": 2604,
      "ساز": 2605,
      "رسانکدر": 2606,
      "گچین": 2607,
      "عت": 2608,
      "ain": 2609,
      "لک": 2610,
      "لاپ": 2611,
      "پارٹی": 2612,
      "com": 2613,
      "ارت": 2614,
      "بانک": 2615,
      "دیمء": 2616,
      "چل": 2617,
      "ئیر": 2618,
      "بلکنا": 2619,
      "rom": 2620,
      "وٹ": 2621,
      "کنگی": 2622,
      "بور": 2623,
      "کننت": 2624,
      "المی": 2625,
      "کومت": 2626,
      "ers": 2627,
      "روز": 2628,
      "دھ": 2629,
      "ازات": 2630,
      "درور": 2631,
      "نور": 2632,
      "ریچ": 2633,
      "بگیری": 2634,
      "pl": 2635,
      "um": 2636,
      "زرت": 2637,
      "عمل": 2638,
      "گیشی": 2639,
      "کوئ": 2640,
      "چوں": 2641,
      "پگر": 2642,
      "ایرانی": 2643,
      "دوستی": 2644,
      "ێں": 2645,
      "صو": 2646,
      "جنز": 2647,
      "بین": 2648,
      "انہ": 2649,
      "بیگواھیں": 2650,
      "ut": 2651,
      "نشت": 2652,
      "برو": 2653,
      "پڑ": 2654,
      "پتر": 2655,
      "داب": 2656,
      "نبشتگ": 2657,
      "اء": 2658,
      "وه": 2659,
      "بلوچانی": 2660,
      "ab": 2661,
      "بوہ": 2662,
      "پمیشکا": 2663,
      "ئو": 2664,
      "ارس": 2665,
      "کسی": 2666,
      "چاری": 2667,
      "سپر": 2668,
      "اہی": 2669,
      "احمد": 2670,
      "all": 2671,
      "نہیں": 2672,
      "oun": 2673,
      "سفر": 2674,
      "شاد": 2675,
      "ھیر": 2676,
      "گپے": 2677,
      "گورا": 2678,
      "سبز": 2679,
      "بوان": 2680,
      "ایشیء": 2681,
      "وتء": 2682,
      "مہلوک": 2683,
      "الله": 2684,
      "مکر": 2685,
      "his": 2686,
      "دئیگ": 2687,
      "نیمگا": 2688,
      "نم": 2689,
      "حد": 2690,
      "مکن": 2691,
      "ایشاں": 2692,
      "ھدا": 2693,
      "واھگ": 2694,
      "پکر": 2695,
      "بنجاھی": 2696,
      "پیلو": 2697,
      "زہرشانی": 2698,
      "کوئٹہ": 2699,
      "لہتیں": 2700,
      "مق": 2701,
      "ردو": 2702,
      "پانی": 2703,
      "جہل": 2704,
      "گٹ": 2705,
      "ادارہ": 2706,
      "رنگیں": 2707,
      "مٹ": 2708,
      "کمیٹی": 2709,
      "ورس": 2710,
      "mo": 2711,
      "فا": 2712,
      "برت": 2713,
      "زیب": 2714,
      "پنجگور": 2715,
      "رست": 2716,
      "اشانی": 2717,
      "بنجل": 2718,
      "رت": 2719,
      "گن": 2720,
      "جود": 2721,
      "جون": 2722,
      "بزانت": 2723,
      "سلم": 2724,
      "کارء": 2725,
      "باری": 2726,
      "ist": 2727,
      "کئیت": 2728,
      "ڈو": 2729,
      "بگر": 2730,
      "امیت": 2731,
      "زورگریں": 2732,
      "کارو": 2733,
      "ہست": 2734,
      "ہن": 2735,
      "لبزانکی": 2736,
      "یار": 2737,
      "شنل": 2738,
      "شوھ": 2739,
      "بستگ": 2740,
      "su": 2741,
      "ادگ": 2742,
      "تچ": 2743,
      "نیت": 2744,
      "are": 2745,
      "شد": 2746,
      "ہور": 2747,
      "سپ": 2748,
      "نادراہ": 2749,
      "نان": 2750,
      "لبری": 2751,
      "ایگ": 2752,
      "اپری": 2753,
      "لیک": 2754,
      "علم": 2755,
      "کند": 2756,
      "لین": 2757,
      "وانوک": 2758,
      "دزگیر": 2759,
      "لبریشن": 2760,
      "قوم": 2761,
      "بارو": 2762,
      "ایے": 2763,
      "پرس": 2764,
      "ھشت": 2765,
      "پتی": 2766,
      "مول": 2767,
      "اتء": 2768,
      "پیدا": 2769,
      "قر": 2770,
      "رھبند": 2771,
      "پیداک": 2772,
      "اید": 2773,
      "ھساب": 2774,
      "فت": 2775,
      "وڈ": 2776,
      "بخش": 2777,
      "زاھ": 2778,
      "لب": 2779,
      "سرپدی": 2780,
      "بکش": 2781,
      "عط": 2782,
      "واستہ": 2783,
      "from": 2784,
      "زدگ": 2785,
      "ایف": 2786,
      "pe": 2787,
      "ارزشت": 2788,
      "نیٹ": 2789,
      "pro": 2790,
      "پش": 2791,
      "حکومت": 2792,
      "صل": 2793,
      "نتگ": 2794,
      "وارت": 2795,
      "درچک": 2796,
      "گم": 2797,
      "سئے": 2798,
      "هما": 2799,
      "اشت": 2800,
      "راں": 2801,
      "سان": 2802,
      "قہ": 2803,
      "جد": 2804,
      "شمبے": 2805,
      "دانکہ": 2806,
      "پمی": 2807,
      "میار": 2808,
      "زدہ": 2809,
      "درستیں": 2810,
      "کشت": 2811,
      "نچ": 2812,
      "یونی": 2813,
      "ھپت": 2814,
      "لاں": 2815,
      "اندر": 2816,
      "اکس": 2817,
      "پریس": 2818,
      "روچاں": 2819,
      "اینت": 2820,
      "رؤ": 2821,
      "شائری": 2822,
      "پورٹ": 2823,
      "بستار": 2824,
      "In": 2825,
      "sh": 2826,
      "چرا": 2827,
      "کیا": 2828,
      "پتگ": 2829,
      "پمیشا": 2830,
      "رسول": 2831,
      "دمگاں": 2832,
      "ندی": 2833,
      "لڈ": 2834,
      "واھ": 2835,
      "سرکاری": 2836,
      "ne": 2837,
      "گونڈ": 2838,
      "جنگی": 2839,
      "جاه": 2840,
      "li": 2841,
      "مبار": 2842,
      "مچ": 2843,
      "شہی": 2844,
      "چمانی": 2845,
      "شمئے": 2846,
      "کنگا": 2847,
      "نء": 2848,
      "چپ": 2849,
      "کسان": 2850,
      "امان": 2851,
      "واتر": 2852,
      "کمیں": 2853,
      "درس": 2854,
      "ٹولی": 2855,
      "tr": 2856,
      "نشان": 2857,
      "ونک": 2858,
      "تاریخ": 2859,
      "کنڈ": 2860,
      "لال": 2861,
      "کپیت": 2862,
      "پالی": 2863,
      "اراں": 2864,
      "لیں": 2865,
      "ate": 2866,
      "مرتگ": 2867,
      "تاب": 2868,
      "همے": 2869,
      "کوھ": 2870,
      "صر": 2871,
      "حدا": 2872,
      "سیک": 2873,
      "cl": 2874,
      "پمش": 2875,
      "پرا": 2876,
      "کندگ": 2877,
      "اگر": 2878,
      "گڑ": 2879,
      "اثر": 2880,
      "ہزار": 2881,
      "گھ": 2882,
      "چینی": 2883,
      "نسل": 2884,
      "فلسفہ": 2885,
      "گشیت": 2886,
      "ایدگہ": 2887,
      "وائ": 2888,
      "باسک": 2889,
      "مذ": 2890,
      "بمب": 2891,
      "ودار": 2892,
      "درچ": 2893,
      "os": 2894,
      "کارست": 2895,
      "شوھاز": 2896,
      "بنا": 2897,
      "حمل": 2898,
      "ڈر": 2899,
      "جاھاں": 2900,
      "بائ": 2901,
      "بوتیں": 2902,
      "نیمگء": 2903,
      "امر": 2904,
      "وشیں": 2905,
      "شے": 2906,
      "سنگتاں": 2907,
      "کوٹی": 2908,
      "ther": 2909,
      "جنجال": 2910,
      "ستی": 2911,
      "بادشاہ": 2912,
      "پند": 2913,
      "راز": 2914,
      "art": 2915,
      "ارمی": 2916,
      "دنی": 2917,
      "ساحر": 2918,
      "دلی": 2919,
      "استمانی": 2920,
      "مڑ": 2921,
      "حبر": 2922,
      "ائے": 2923,
      "ies": 2924,
      "رک": 2925,
      "علا": 2926,
      "em": 2927,
      "صاح": 2928,
      "اودا": 2929,
      "دیں": 2930,
      "دمگی": 2931,
      "تیار": 2932,
      "زرد": 2933,
      "مث": 2934,
      "دیمروئی": 2935,
      "درائیں": 2936,
      "سیمی": 2937,
      "انچوش": 2938,
      "چونیں": 2939,
      "اصل": 2940,
      "چند": 2941,
      "مچی": 2942,
      "ناکو": 2943,
      "کہول": 2944,
      "زورگ": 2945,
      "مء": 2946,
      "ھاک": 2947,
      "مکران": 2948,
      "دنیاء": 2949,
      "لائ": 2950,
      "منزل": 2951,
      "جہان": 2952,
      "ناشن": 2953,
      "کلو": 2954,
      "ہار": 2955,
      "کنائی": 2956,
      "مئی": 2957,
      "چیریں": 2958,
      "رستگ": 2959,
      "بگٹی": 2960,
      "مانا": 2961,
      "دانی": 2962,
      "چوشیں": 2963,
      "روکپتی": 2964,
      "گداری": 2965,
      "ہمیش": 2966,
      "ابر": 2967,
      "بیڑ": 2968,
      "حساب": 2969,
      "باید": 2970,
      "یور": 2971,
      "ڈیھ": 2972,
      "یء": 2973,
      "لھتے": 2974,
      "اتیں": 2975,
      "کینگ": 2976,
      "سور": 2977,
      "پالیسی": 2978,
      "درستاں": 2979,
      "منگ": 2980,
      "وگ": 2981,
      "سلامتی": 2982,
      "کوپ": 2983,
      "رژن": 2984,
      "دع": 2985,
      "میران": 2986,
      "سیر": 2987,
      "بندوک": 2988,
      "صاحب": 2989,
      "عد": 2990,
      "ھک": 2991,
      "معنا": 2992,
      "were": 2993,
      "od": 2994,
      "ندارگ": 2995,
      "ong": 2996,
      "ex": 2997,
      "igh": 2998,
      "est": 2999,
      "مه": 3000,
      "تھنا": 3001,
      "برجم": 3002,
      "oc": 3003,
      "جوان": 3004,
      "اکیڈ": 3005,
      "ak": 3006,
      "سلہ": 3007,
      "شام": 3008,
      "شگ": 3009,
      "بگند": 3010,
      "درشانی": 3011,
      "تھی": 3012,
      "پک": 3013,
      "سلی": 3014,
      "شتہ": 3015,
      "بج": 3016,
      "ریک": 3017,
      "ناشناسیں": 3018,
      "ساچشت": 3019,
      "بئے": 3020,
      "اوشتاتگ": 3021,
      "ابد": 3022,
      "کاینت": 3023,
      "ئینت": 3024,
      "لھتیں": 3025,
      "اترا": 3026,
      "منت": 3027,
      "لانی": 3028,
      "زئی": 3029,
      "کاگ": 3030,
      "کمے": 3031,
      "جاھے": 3032,
      "جھمنند": 3033,
      "گلام": 3034,
      "فاض": 3035,
      "گنوک": 3036,
      "بدلی": 3037,
      "ill": 3038,
      "ہمراہ": 3039,
      "بنیاد": 3040,
      "ard": 3041,
      "قاض": 3042,
      "گپاں": 3043,
      "ہل": 3044,
      "نیشنل": 3045,
      "خت": 3046,
      "اشمی": 3047,
      "براں": 3048,
      "ld": 3049,
      "ich": 3050,
      "اکیڈمی": 3051,
      "دینی": 3052,
      "شاھ": 3053,
      "ast": 3054,
      "دشتی": 3055,
      "قصہ": 3056,
      "رھشون": 3057,
      "چاکر": 3058,
      "کلیں": 3059,
      "بوتاں": 3060,
      "تہنا": 3061,
      "یکجاہ": 3062,
      "شرگداری": 3063,
      "گیشیں": 3064,
      "جنان": 3065,
      "زرمب": 3066,
      "ھون": 3067,
      "ساڑی": 3068,
      "داراں": 3069,
      "زبانء": 3070,
      "غلام": 3071,
      "کلی": 3072,
      "ھمراہ": 3073,
      "ادب": 3074,
      "امریکہ": 3075,
      "مھمد": 3076,
      "اوست": 3077,
      "ایا": 3078,
      "نزور": 3079,
      "وسلم": 3080,
      "تانکہ": 3081,
      "فکر": 3082,
      "اند": 3083,
      "میل": 3084,
      "باور": 3085,
      "دیان": 3086,
      "ish": 3087,
      "کنئگ": 3088,
      "عکس": 3089,
      "ٹیک": 3090,
      "اسم": 3091,
      "نگیں": 3092,
      "سوار": 3093,
      "دیاں": 3094,
      "di": 3095,
      "سلمان": 3096,
      "انچش": 3097,
      "سوچ": 3098,
      "کام": 3099,
      "ہمک": 3100,
      "ber": 3101,
      "جز": 3102,
      "انا": 3103,
      "ant": 3104,
      "کئی": 3105,
      "تور": 3106,
      "کاریں": 3107,
      "ستک": 3108,
      "سائنس": 3109,
      "تنی": 3110,
      "بام": 3111,
      "gh": 3112,
      "کنیک": 3113,
      "بح": 3114,
      "نامیں": 3115,
      "بود": 3116,
      "مراگش": 3117,
      "سوج": 3118,
      "گپء": 3119,
      "کنٹ": 3120,
      "بالی": 3121,
      "ادہ": 3122,
      "لوٹاں": 3123,
      "فارسی": 3124,
      "ندر": 3125,
      "گیشت": 3126,
      "بیگواہیں": 3127,
      "نھ": 3128,
      "جس": 3129,
      "رز": 3130,
      "ارے": 3131,
      "ity": 3132,
      "ame": 3133,
      "ort": 3134,
      "ؤر": 3135,
      "یم": 3136,
      "ated": 3137,
      "دروازگ": 3138,
      "بندیگ": 3139,
      "حا": 3140,
      "ماہی": 3141,
      "بچک": 3142,
      "گرا": 3143,
      "دئے": 3144,
      "باندات": 3145,
      "دکان": 3146,
      "بران": 3147,
      "پدء": 3148,
      "گوشیت": 3149,
      "سکیں": 3150,
      "نین": 3151,
      "پیما": 3152,
      "رنگے": 3153,
      "per": 3154,
      "ھد": 3155,
      "ونگ": 3156,
      "میڈ": 3157,
      "نادراھی": 3158,
      "ولی": 3159,
      "شین": 3160,
      "کتہ": 3161,
      "نندانک": 3162,
      "man": 3163,
      "کمان": 3164,
      "باروا": 3165,
      "گوستگ": 3166,
      "ess": 3167,
      "ive": 3168,
      "ویل": 3169,
      "حسین": 3170,
      "یون": 3171,
      "مڈی": 3172,
      "تیاب": 3173,
      "qu": 3174,
      "نات": 3175,
      "ment": 3176,
      "بلوچستانء": 3177,
      "پوش": 3178,
      "وڑے": 3179,
      "ازاتی": 3180,
      "غیر": 3181,
      "نظام": 3182,
      "شہید": 3183,
      "ورک": 3184,
      "صلہ": 3185,
      "ایان": 3186,
      "als": 3187,
      "بنجاہ": 3188,
      "مک": 3189,
      "اسکول": 3190,
      "ربیدگ": 3191,
      "out": 3192,
      "انگریزی": 3193,
      "نامی": 3194,
      "کمال": 3195,
      "نگء": 3196,
      "fe": 3197,
      "اوت": 3198,
      "گواز": 3199,
      "حسن": 3200,
      "نسبت": 3201,
      "سپت": 3202,
      "بیگاہ": 3203,
      "خیال": 3204,
      "تجر": 3205,
      "بارت": 3206,
      "نمدی": 3207,
      "دستی": 3208,
      "میجر": 3209,
      "قاضی": 3210,
      "عز": 3211,
      "ردا": 3212,
      "جانی": 3213,
      "سکی": 3214,
      "جب": 3215,
      "اہر": 3216,
      "لگت": 3217,
      "یاد": 3218,
      "تکنیک": 3219,
      "پوجی": 3220,
      "رسیت": 3221,
      "کوچ": 3222,
      "گوشاں": 3223,
      "منوک": 3224,
      "اھت": 3225,
      "قت": 3226,
      "ملی": 3227,
      "گوز": 3228,
      "دستونک": 3229,
      "ورسٹی": 3230,
      "ناول": 3231,
      "نندوک": 3232,
      "ماھ": 3233,
      "اوگان": 3234,
      "دش": 3235,
      "نار": 3236,
      "چاران": 3237,
      "مط": 3238,
      "داتگیں": 3239,
      "اھو": 3240,
      "بنگی": 3241,
      "چٹ": 3242,
      "نوش": 3243,
      "اکبر": 3244,
      "وگیں": 3245,
      "موسم": 3246,
      "جھان": 3247,
      "وسیلہ": 3248,
      "وھدء": 3249,
      "قومی": 3250,
      "زام": 3251,
      "الو": 3252,
      "شئیر": 3253,
      "حاک": 3254,
      "البت": 3255,
      "منیر": 3256,
      "اودء": 3257,
      "بنگپ": 3258,
      "بندگ": 3259,
      "ack": 3260,
      "کیس": 3261,
      "فاضل": 3262,
      "ریاستی": 3263,
      "گامگیج": 3264,
      "ھیل": 3265,
      "انگریز": 3266,
      "ازاد": 3267,
      "وف": 3268,
      "قدر": 3269,
      "end": 3270,
      "vi": 3271,
      "پرچاکہ": 3272,
      "شمارا": 3273,
      "had": 3274,
      "دراجیں": 3275,
      "ارء": 3276,
      "ھرچ": 3277,
      "سیل": 3278,
      "سندھ": 3279,
      "شاری": 3280,
      "صوبہ": 3281,
      "one": 3282,
      "ترندیں": 3283,
      "سوت": 3284,
      "جنو": 3285,
      "گراں": 3286,
      "یونیورسٹی": 3287,
      "ناگ": 3288,
      "دائ": 3289,
      "سمی": 3290,
      "ear": 3291,
      "تکگ": 3292,
      "ازدہ": 3293,
      "ریت": 3294,
      "قان": 3295,
      "ہء": 3296,
      "جواب": 3297,
      "کریم": 3298,
      "خلی": 3299,
      "پیک": 3300,
      "زیت": 3301,
      "دیوال": 3302,
      "نف": 3303,
      "مجی": 3304,
      "انتء": 3305,
      "اشاں": 3306,
      "جندء": 3307,
      "بنداتی": 3308,
      "کرو": 3309,
      "تپاک": 3310,
      "پسہ": 3311,
      "مذہ": 3312,
      "tw": 3313,
      "over": 3314,
      "گرنچ": 3315,
      "اتے": 3316,
      "سینگ": 3317,
      "بء": 3318,
      "گنگ": 3319,
      "اسے": 3320,
      "براہ": 3321,
      "چاہ": 3322,
      "دیمتر": 3323,
      "راستیں": 3324,
      "مبارک": 3325,
      "ough": 3326,
      "ببیت": 3327,
      "کپگ": 3328,
      "نماز": 3329,
      "دن": 3330,
      "بوئگ": 3331,
      "گنج": 3332,
      "نیکہ": 3333,
      "صاف": 3334,
      "رپورٹ": 3335,
      "جوانی": 3336,
      "نویس": 3337,
      "our": 3338,
      "ha": 3339,
      "بنکی": 3340,
      "نمیران": 3341,
      "چاریں": 3342,
      "which": 3343,
      "شع": 3344,
      "مرک": 3345,
      "وتارا": 3346,
      "اقت": 3347,
      "ٹکر": 3348,
      "ترانگ": 3349,
      "کشن": 3350,
      "خاص": 3351,
      "رہبند": 3352,
      "بلوچاں": 3353,
      "مردے": 3354,
      "ord": 3355,
      "دیمروی": 3356,
      "اع": 3357,
      "ھز": 3358,
      "ra": 3359,
      "تراک": 3360,
      "تما": 3361,
      "پرچے": 3362,
      "دستء": 3363,
      "اسٹ": 3364,
      "يه": 3365,
      "تاج": 3366,
      "ستا": 3367,
      "رجان": 3368,
      "واق": 3369,
      "امیدگ": 3370,
      "مارچ": 3371,
      "نگل": 3372,
      "فیصلہ": 3373,
      "خدا": 3374,
      "یب": 3375,
      "روچء": 3376,
      "ارواہ": 3377,
      "لوز": 3378,
      "اگہ": 3379,
      "دشت": 3380,
      "ایپ": 3381,
      "ساھگ": 3382,
      "دستاں": 3383,
      "گیشتریں": 3384,
      "ساد": 3385,
      "رنگء": 3386,
      "زانتگ": 3387,
      "صورت": 3388,
      "ھمراھی": 3389,
      "بوتنت": 3390,
      "ھکانی": 3391,
      "ge": 3392,
      "برکت": 3393,
      "واجه": 3394,
      "گز": 3395,
      "کسانی": 3396,
      "مخ": 3397,
      "ound": 3398,
      "دیدگ": 3399,
      "ازت": 3400,
      "ہال": 3401,
      "مں": 3402,
      "بش": 3403,
      "پیمیں": 3404,
      "رندے": 3405,
      "زلم": 3406,
      "ٹا": 3407,
      "not": 3408,
      "رگ": 3409,
      "تها": 3410,
      "پژ": 3411,
      "ضل": 3412,
      "کمو": 3413,
      "اپنے": 3414,
      "نصیر": 3415,
      "کشک": 3416,
      "ساھت": 3417,
      "درمان": 3418,
      "نواب": 3419,
      "چوکہ": 3420,
      "چنڈ": 3421,
      "سراں": 3422,
      "ine": 3423,
      "دریا": 3424,
      "سھب": 3425,
      "پرچہ": 3426,
      "رواں": 3427,
      "راه": 3428,
      "پھر": 3429,
      "چینل": 3430,
      "ڑے": 3431,
      "گشئے": 3432,
      "کچے": 3433,
      "متی": 3434,
      "ۆچ": 3435,
      "فری": 3436,
      "دگه": 3437,
      "عليه": 3438,
      "دوچ": 3439,
      "روانک": 3440,
      "rit": 3441,
      "سوبمند": 3442,
      "صلى": 3443,
      "هچ": 3444,
      "مشکل": 3445,
      "زندمان": 3446,
      "درامد": 3447,
      "but": 3448,
      "زانتکار": 3449,
      "تنگ": 3450,
      "ایمان": 3451,
      "دیمی": 3452,
      "یع": 3453,
      "مولان": 3454,
      "لیٹ": 3455,
      "ally": 3456,
      "جھل": 3457,
      "باندا": 3458,
      "نائی": 3459,
      "مید": 3460,
      "روس": 3461,
      "نبیسگ": 3462,
      "بیلہ": 3463,
      "وارتگ": 3464,
      "تع": 3465,
      "نانی": 3466,
      "صد": 3467,
      "مرزی": 3468,
      "ass": 3469,
      "اسراتی": 3470,
      "وستان": 3471,
      "یو": 3472,
      "بالاد": 3473,
      "لکھ": 3474,
      "تامر": 3475,
      "لائی": 3476,
      "gr": 3477,
      "کامی": 3478,
      "ڈال": 3479,
      "کچک": 3480,
      "امیدگس": 3481,
      "ایند": 3482,
      "رض": 3483,
      "رل": 3484,
      "بالاچ": 3485,
      "اتھ": 3486,
      "نق": 3487,
      "رول": 3488,
      "دینت": 3489,
      "رب": 3490,
      "شرپ": 3491,
      "عش": 3492,
      "مدا": 3493,
      "ونتگ": 3494,
      "کردار": 3495,
      "ud": 3496,
      "پسند": 3497,
      "نیاد": 3498,
      "شائر": 3499,
      "کوھنیں": 3500,
      "بیار": 3501,
      "تالان": 3502,
      "ردیں": 3503,
      "ڈیو": 3504,
      "مثال": 3505,
      "ارام": 3506,
      "اپی": 3507,
      "لوگء": 3508,
      "ٹے": 3509,
      "ڑیں": 3510,
      "if": 3511,
      "ip": 3512,
      "کست": 3513,
      "تپ": 3514,
      "act": 3515,
      "ریش": 3516,
      "سالی": 3517,
      "پیسلہ": 3518,
      "چیدگ": 3519,
      "روری": 3520,
      "iv": 3521,
      "اسٹی": 3522,
      "its": 3523,
      "ڈک": 3524,
      "بابتء": 3525,
      "اسکو": 3526,
      "لہتے": 3527,
      "مسا": 3528,
      "سائی": 3529,
      "Ch": 3530,
      "سرے": 3531,
      "مستر": 3532,
      "وھداں": 3533,
      "رامین": 3534,
      "اگں": 3535,
      "ian": 3536,
      "لئے": 3537,
      "str": 3538,
      "ارہ": 3539,
      "دشمن": 3540,
      "روزگار": 3541,
      "وائس": 3542,
      "گد": 3543,
      "گشنت": 3544,
      "ایشرا": 3545,
      "دئی": 3546,
      "دگی": 3547,
      "مولانا": 3548,
      "چکاس": 3549,
      "جاوراں": 3550,
      "امن": 3551,
      "ادبی": 3552,
      "نیٹورک": 3553,
      "غان": 3554,
      "رم": 3555,
      "بیرم": 3556,
      "عربی": 3557,
      "بزان": 3558,
      "برد": 3559,
      "بہا": 3560,
      "چھاپ": 3561,
      "لیب": 3562,
      "ھرکس": 3563,
      "داستان": 3564,
      "ight": 3565,
      "بدن": 3566,
      "یاں": 3567,
      "چنت": 3568,
      "کبر": 3569,
      "مستونگ": 3570,
      "ٹپ": 3571,
      "چیزانی": 3572,
      "تان": 3573,
      "مہم": 3574,
      "پالیسیانی": 3575,
      "گۆ": 3576,
      "روچی": 3577,
      "بڈ": 3578,
      "استان": 3579,
      "ایہ": 3580,
      "ٹھ": 3581,
      "نسی": 3582,
      "اھا": 3583,
      "بک": 3584,
      "خلا": 3585,
      "فائ": 3586,
      "اتا": 3587,
      "نامداریں": 3588,
      "جنگل": 3589,
      "عطا": 3590,
      "سرڈگار": 3591,
      "کلب": 3592,
      "سنگتانی": 3593,
      "ary": 3594,
      "کلاس": 3595,
      "چمش": 3596,
      "وہدی": 3597,
      "دروگ": 3598,
      "کلدار": 3599,
      "اپریشن": 3600,
      "مردمان": 3601,
      "دراتک": 3602,
      "سازی": 3603,
      "بونگ": 3604,
      "پائ": 3605,
      "her": 3606,
      "بنگیج": 3607,
      "جیڑگ": 3608,
      "شئی": 3609,
      "دورء": 3610,
      "واکدار": 3611,
      "زرمبشت": 3612,
      "شوہ": 3613,
      "طر": 3614,
      "فران": 3615,
      "نائ": 3616,
      "ٹس": 3617,
      "بیں": 3618,
      "سرجمی": 3619,
      "du": 3620,
      "عزت": 3621,
      "fir": 3622,
      "لامی": 3623,
      "سھ": 3624,
      "گلزمین": 3625,
      "شکار": 3626,
      "جنرل": 3627,
      "بیگواھی": 3628,
      "چاں": 3629,
      "لڑ": 3630,
      "بنداں": 3631,
      "مجید": 3632,
      "بگیر": 3633,
      "اسپی": 3634,
      "ہاں": 3635,
      "چراگ": 3636,
      "طی": 3637,
      "کپتگیں": 3638,
      "own": 3639,
      "مہمان": 3640,
      "سہر": 3641,
      "وجود": 3642,
      "مسلمان": 3643,
      "جاورانی": 3644,
      "نودربرانی": 3645,
      "کارندہ": 3646,
      "باگ": 3647,
      "شتاں": 3648,
      "انے": 3649,
      "بازین": 3650,
      "ناپ": 3651,
      "امیں": 3652,
      "زین": 3653,
      "af": 3654,
      "نامہ": 3655,
      "درشانے": 3656,
      "پنام": 3657,
      "کاروبار": 3658,
      "گرم": 3659,
      "av": 3660,
      "هست": 3661,
      "اگست": 3662,
      "تین": 3663,
      "میت": 3664,
      "نپ": 3665,
      "نمبر": 3666,
      "ارشانی": 3667,
      "ربیت": 3668,
      "صور": 3669,
      "حقی": 3670,
      "اریت": 3671,
      "ماتی": 3672,
      "زبانانی": 3673,
      "مون": 3674,
      "سوشل": 3675,
      "تیل": 3676,
      "ارمان": 3677,
      "تمپ": 3678,
      "منظ": 3679,
      "پمشکا": 3680,
      "ھوش": 3681,
      "بئیت": 3682,
      "خال": 3683,
      "گوازین": 3684,
      "up": 3685,
      "زوریں": 3686,
      "ڈیرہ": 3687,
      "ous": 3688,
      "سزا": 3689,
      "بولان": 3690,
      "موک": 3691,
      "نود": 3692,
      "لنٹ": 3693,
      "گپانی": 3694,
      "ابو": 3695,
      "افغان": 3696,
      "بئی": 3697,
      "بوہگ": 3698,
      "تنے": 3699,
      "گرو": 3700,
      "دوستیں": 3701,
      "گالوار": 3702,
      "وائی": 3703,
      "چوشکہ": 3704,
      "کاروائی": 3705,
      "الب": 3706,
      "موت": 3707,
      "بیم": 3708,
      "po": 3709,
      "رواج": 3710,
      "چیزاں": 3711,
      "حکم": 3712,
      "گنداں": 3713,
      "ائیا": 3714,
      "نل": 3715,
      "لاچار": 3716,
      "گورء": 3717,
      "اوشتات": 3718,
      "ھواریں": 3719,
      "سہب": 3720,
      "درائینت": 3721,
      "چمشانک": 3722,
      "اواران": 3723,
      "رحی": 3724,
      "اشوب": 3725,
      "چیء": 3726,
      "بیگواہی": 3727,
      "کنئے": 3728,
      "bl": 3729,
      "اسی": 3730,
      "ore": 3731,
      "تباہ": 3732,
      "ھمی": 3733,
      "comp": 3734,
      "port": 3735,
      "St": 3736,
      "نگد": 3737,
      "چنچو": 3738,
      "land": 3739,
      "ابادی": 3740,
      "ew": 3741,
      "کمپ": 3742,
      "رندا": 3743,
      "تواری": 3744,
      "اپنی": 3745,
      "بارہ": 3746,
      "ترک": 3747,
      "اسلم": 3748,
      "der": 3749,
      "نئے": 3750,
      "گول": 3751,
      "سالاں": 3752,
      "فوج": 3753,
      "نامء": 3754,
      "ev": 3755,
      "تم": 3756,
      "ڑو": 3757,
      "پرائی": 3758,
      "جندئیگ": 3759,
      "ایندگہ": 3760,
      "وام": 3761,
      "ach": 3762,
      "یکشل": 3763,
      "ہلاس": 3764,
      "انوں": 3765,
      "ردوم": 3766,
      "جوڈ": 3767,
      "اوگانستان": 3768,
      "پٹی": 3769,
      "si": 3770,
      "جنگء": 3771,
      "ونت": 3772,
      "درسیں": 3773,
      "شاں": 3774,
      "ریٹ": 3775,
      "کوٹ": 3776,
      "طن": 3777,
      "شکل": 3778,
      "عرب": 3779,
      "اوانی": 3780,
      "وہدء": 3781,
      "سکین": 3782,
      "دیت": 3783,
      "their": 3784,
      "رکینگ": 3785,
      "اکیں": 3786,
      "مناں": 3787,
      "باپ": 3788,
      "خیر": 3789,
      "ماما": 3790,
      "مود": 3791,
      "تھے": 3792,
      "ep": 3793,
      "مدامی": 3794,
      "ھاشمی": 3795,
      "دراہیں": 3796,
      "ریل": 3797,
      "انیہ": 3798,
      "شتگیں": 3799,
      "گیا": 3800,
      "رندء": 3801,
      "بزگ": 3802,
      "اشتر": 3803,
      "یکل": 3804,
      "جیگ": 3805,
      "چوکی": 3806,
      "بید": 3807,
      "وث": 3808,
      "تیز": 3809,
      "ھرام": 3810,
      "رائ": 3811,
      "دروت": 3812,
      "لوم": 3813,
      "رنج": 3814,
      "جمال": 3815,
      "ابل": 3816,
      "نزوری": 3817,
      "اواز": 3818,
      "کاف": 3819,
      "شعری": 3820,
      "گیس": 3821,
      "دوھزار": 3822,
      "زاہ": 3823,
      "رحیم": 3824,
      "شمو": 3825,
      "نیک": 3826,
      "شمے": 3827,
      "پرے": 3828,
      "چکی": 3829,
      "زہی": 3830,
      "سامان": 3831,
      "کشیں": 3832,
      "دانک": 3833,
      "انچ": 3834,
      "ical": 3835,
      "اھتگ": 3836,
      "لیکن": 3837,
      "غی": 3838,
      "میڑ": 3839,
      "کالج": 3840,
      "پمیشکہ": 3841,
      "ماڑی": 3842,
      "ترقی": 3843,
      "سرمایہ": 3844,
      "first": 3845,
      "غم": 3846,
      "مدت": 3847,
      "عبداللہ": 3848,
      "سنگتے": 3849,
      "wor": 3850,
      "براس": 3851,
      "مینگل": 3852,
      "ذات": 3853,
      "جمہ": 3854,
      "ازہ": 3855,
      "الس": 3856,
      "تئو": 3857,
      "ارانی": 3858,
      "بلک": 3859,
      "توان": 3860,
      "دزبندی": 3861,
      "ould": 3862,
      "دوشی": 3863,
      "چرے": 3864,
      "انکس": 3865,
      "ریز": 3866,
      "زانتی": 3867,
      "بامن": 3868,
      "جما": 3869,
      "وانگی": 3870,
      "کج": 3871,
      "اورتگ": 3872,
      "age": 3873,
      "نبیس": 3874,
      "دگنیا": 3875,
      "ریا": 3876,
      "ہمی": 3877,
      "ہان": 3878,
      "خص": 3879,
      "عید": 3880,
      "عشق": 3881,
      "ڈنی": 3882,
      "ایی": 3883,
      "ڈل": 3884,
      "ia": 3885,
      "pr": 3886,
      "جھانی": 3887,
      "ll": 3888,
      "مص": 3889,
      "ستیں": 3890,
      "مگر": 3891,
      "گواچ": 3892,
      "شرتر": 3893,
      "گھار": 3894,
      "بله": 3895,
      "جنیں": 3896,
      "bo": 3897,
      "راد": 3898,
      "ئند": 3899,
      "اسرا": 3900,
      "اکر": 3901,
      "ایمنی": 3902,
      "نندگ": 3903,
      "وریں": 3904,
      "au": 3905,
      "پریشان": 3906,
      "گوازینگ": 3907,
      "نومبر": 3908,
      "راجے": 3909,
      "صح": 3910,
      "طرح": 3911,
      "مسنگ": 3912,
      "اوتی": 3913,
      "ده": 3914,
      "ساس": 3915,
      "بشیر": 3916,
      "ڈس": 3917,
      "رجی": 3918,
      "وڑء": 3919,
      "چیاکہ": 3920,
      "اھے": 3921,
      "گیپت": 3922,
      "برزی": 3923,
      "بوگء": 3924,
      "سمبر": 3925,
      "بلوچء": 3926,
      "نیمگے": 3927,
      "اھوالانی": 3928,
      "واحد": 3929,
      "جاری": 3930,
      "بنجاہی": 3931,
      "بلکہ": 3932,
      "تیوگیں": 3933,
      "پنجاہ": 3934,
      "ition": 3935,
      "امت": 3936,
      "گیریں": 3937,
      "بوتہ": 3938,
      "اسپ": 3939,
      "بندانی": 3940,
      "ھراب": 3941,
      "سندھی": 3942,
      "ترین": 3943,
      "نظر": 3944,
      "تلگ": 3945,
      "نشہ": 3946,
      "سنی": 3947,
      "اہے": 3948,
      "بہرے": 3949,
      "لت": 3950,
      "مھکم": 3951,
      "گوما": 3952,
      "وم": 3953,
      "دریں": 3954,
      "ازمی": 3955,
      "گرانیں": 3956,
      "also": 3957,
      "روش": 3958,
      "tim": 3959,
      "خط": 3960,
      "چاراں": 3961,
      "low": 3962,
      "اشیء": 3963,
      "اگن": 3964,
      "ction": 3965,
      "چاگردء": 3966,
      "میڈیا": 3967,
      "رکھ": 3968,
      "مزار": 3969,
      "ننگ": 3970,
      "ساح": 3971,
      "راجانی": 3972,
      "ورنایے": 3973,
      "ضر": 3974,
      "ماسٹر": 3975,
      "ھمن": 3976,
      "pt": 3977,
      "پژدر": 3978,
      "چگل": 3979,
      "دائی": 3980,
      "lo": 3981,
      "گوھار": 3982,
      "نادراھ": 3983,
      "مکس": 3984,
      "form": 3985,
      "قدیر": 3986,
      "پاداں": 3987,
      "پمشکہ": 3988,
      "sc": 3989,
      "ater": 3990,
      "کاریت": 3991,
      "کوئی": 3992,
      "ادگہ": 3993,
      "چکانی": 3994,
      "بازی": 3995,
      "ign": 3996,
      "ھژ": 3997,
      "گیدی": 3998,
      "روڈ": 3999,
      "احت": 4000,
      "چوک": 4001,
      "نشانی": 4002,
      "کارند": 4003,
      "ھمو": 4004,
      "بانگ": 4005,
      "گوھرام": 4006,
      "برء": 4007,
      "دسمبر": 4008,
      "کد": 4009,
      "شریف": 4010,
      "زہگ": 4011,
      "شوہاز": 4012,
      "اخر": 4013,
      "has": 4014,
      "کیم": 4015,
      "شاه": 4016,
      "نئی": 4017,
      "عمران": 4018,
      "ser": 4019,
      "ویب": 4020,
      "زن": 4021,
      "زاھدان": 4022,
      "سریں": 4023,
      "انٹر": 4024,
      "صدر": 4025,
      "گوزگ": 4026,
      "مرید": 4027,
      "ازادی": 4028,
      "شکر": 4029,
      "کتابے": 4030,
      "چوناھا": 4031,
      "ساپ": 4032,
      "نال": 4033,
      "دروگیں": 4034,
      "یاکہ": 4035,
      "ure": 4036,
      "درانگ": 4037,
      "بریں": 4038,
      "ke": 4039,
      "چیئر": 4040,
      "میرا": 4041,
      "att": 4042,
      "شپء": 4043,
      "جیل": 4044,
      "میز": 4045,
      "نشتگیں": 4046,
      "کاگد": 4047,
      "اخلا": 4048,
      "عقل": 4049,
      "زبانے": 4050,
      "ایرد": 4051,
      "ہشت": 4052,
      "کرونا": 4053,
      "دیا": 4054,
      "دلج": 4055,
      "کتابانی": 4056,
      "چکاں": 4057,
      "ھنکین": 4058,
      "جاو": 4059,
      "صف": 4060,
      "وانند": 4061,
      "گاریں": 4062,
      "دیمپان": 4063,
      "مور": 4064,
      "وتن": 4065,
      "ناشر": 4066,
      "پوہ": 4067,
      "بلاھیں": 4068,
      "گشاں": 4069,
      "نوشکی": 4070,
      "کنائینگ": 4071,
      "int": 4072,
      "نزانت": 4073,
      "دوا": 4074,
      "نودربراں": 4075,
      "ہوا": 4076,
      "ذمہ": 4077,
      "زھ": 4078,
      "ابیت": 4079,
      "اران": 4080,
      "بھا": 4081,
      "اھوالکار": 4082,
      "بعد": 4083,
      "شراب": 4084,
      "پاھو": 4085,
      "علق": 4086,
      "میری": 4087,
      "سیاد": 4088,
      "ہائی": 4089,
      "باروء": 4090,
      "گلانی": 4091,
      "ial": 4092,
      "مرو": 4093,
      "حص": 4094,
      "مھم": 4095,
      "rec": 4096,
      "پانگ": 4097,
      "قران": 4098,
      "زوراکیانی": 4099,
      "play": 4100,
      "سلیم": 4101,
      "وئی": 4102,
      "چان": 4103,
      "پراہ": 4104,
      "کشیت": 4105,
      "جنوری": 4106,
      "گوناپ": 4107,
      "لبزانی": 4108,
      "موجود": 4109,
      "پرسنز": 4110,
      "ھنچش": 4111,
      "ھوں": 4112,
      "اؤر": 4113,
      "صدی": 4114,
      "گوان": 4115,
      "سیمسر": 4116,
      "پئی": 4117,
      "بنشون": 4118,
      "سالے": 4119,
      "حاجی": 4120,
      "حض": 4121,
      "هال": 4122,
      "اسلامی": 4123,
      "have": 4124,
      "بیرانی": 4125,
      "وق": 4126,
      "والا": 4127,
      "other": 4128,
      "دگر": 4129,
      "صن": 4130,
      "ها": 4131,
      "کنوکاں": 4132,
      "صبا": 4133,
      "دما": 4134,
      "He": 4135,
      "اشک": 4136,
      "ویز": 4137,
      "مجلس": 4138,
      "مہمد": 4139,
      "سھر": 4140,
      "پسنی": 4141,
      "امیر": 4142,
      "پمن": 4143,
      "لشکری": 4144,
      "پنت": 4145,
      "کوکار": 4146,
      "گلامی": 4147,
      "ساتھ": 4148,
      "بلۆچ": 4149,
      "ماہتاک": 4150,
      "منصوبہ": 4151,
      "استال": 4152,
      "جگ": 4153,
      "کاپ": 4154,
      "چادر": 4155,
      "who": 4156,
      "نئیت": 4157,
      "سروکی": 4158,
      "اسل": 4159,
      "دیمپانی": 4160,
      "گناہ": 4161,
      "دربرجاہ": 4162,
      "بتل": 4163,
      "جاھیں": 4164,
      "یگ": 4165,
      "ادت": 4166,
      "یورپ": 4167,
      "طان": 4168,
      "کازی": 4169,
      "وهدے": 4170,
      "فوجی": 4171,
      "کگ": 4172,
      "تلگرام": 4173,
      "ایمن": 4174,
      "مزنین": 4175,
      "ھلک": 4176,
      "علاقہ": 4177,
      "مغ": 4178,
      "کوہنیں": 4179,
      "ہوش": 4180,
      "ok": 4181,
      "کمپنی": 4182,
      "ماھی": 4183,
      "فٹ": 4184,
      "بچکند": 4185,
      "اجازت": 4186,
      "ran": 4187,
      "جھتی": 4188,
      "رن": 4189,
      "عزی": 4190,
      "اشو": 4191,
      "ئت": 4192,
      "دید": 4193,
      "اغ": 4194,
      "باھ": 4195,
      "گدان": 4196,
      "امیہ": 4197,
      "کارمنداں": 4198,
      "تئ": 4199,
      "انگر": 4200,
      "کمشن": 4201,
      "طب": 4202,
      "گوئشت": 4203,
      "وطن": 4204,
      "قول": 4205,
      "اینچو": 4206,
      "معاشی": 4207,
      "بدار": 4208,
      "شکیں": 4209,
      "یوس": 4210,
      "ورنائیں": 4211,
      "لوی": 4212,
      "ome": 4213,
      "دزگیری": 4214,
      "یکجھتی": 4215,
      "بدیں": 4216,
      "اوپار": 4217,
      "نون": 4218,
      "زندان": 4219,
      "ھرد": 4220,
      "دوئی": 4221,
      "part": 4222,
      "سہی": 4223,
      "ڈنگ": 4224,
      "ence": 4225,
      "اسمبلی": 4226,
      "ایچ": 4227,
      "سنگر": 4228,
      "ھاسیں": 4229,
      "وتے": 4230,
      "ھزدار": 4231,
      "شانت": 4232,
      "انصاف": 4233,
      "لنگ": 4234,
      "اوشتوک": 4235,
      "واھند": 4236,
      "gu": 4237,
      "کشان": 4238,
      "کلوہ": 4239,
      "مردین": 4240,
      "زیشن": 4241,
      "پگ": 4242,
      "been": 4243,
      "فرنٹ": 4244,
      "امام": 4245,
      "شمار": 4246,
      "گواہ": 4247,
      "ہپت": 4248,
      "تہاری": 4249,
      "دمانے": 4250,
      "two": 4251,
      "ھام": 4252,
      "کارمرد": 4253,
      "ابت": 4254,
      "بروت": 4255,
      "اکتو": 4256,
      "ree": 4257,
      "رئی": 4258,
      "پھل": 4259,
      "ادارھانی": 4260,
      "قلات": 4261,
      "نیل": 4262,
      "اروس": 4263,
      "کارگس": 4264,
      "گوری": 4265,
      "مرچاں": 4266,
      "شرف": 4267,
      "اتکگیں": 4268,
      "ملکاں": 4269,
      "cont": 4270,
      "انتظ": 4271,
      "اٹ": 4272,
      "پروفی": 4273,
      "دریگ": 4274,
      "طور": 4275,
      "پلی": 4276,
      "ماھتاک": 4277,
      "سام": 4278,
      "مسک": 4279,
      "ترندی": 4280,
      "ساجد": 4281,
      "فرنس": 4282,
      "ہہ": 4283,
      "یوک": 4284,
      "ادری": 4285,
      "حہ": 4286,
      "شه": 4287,
      "pres": 4288,
      "باہ": 4289,
      "ڈولیں": 4290,
      "تہر": 4291,
      "وانگء": 4292,
      "شاھی": 4293,
      "چیئرمین": 4294,
      "سسا": 4295,
      "ایوکیں": 4296,
      "پیمء": 4297,
      "شخص": 4298,
      "چد": 4299,
      "سانگ": 4300,
      "کرار": 4301,
      "جنکے": 4302,
      "شات": 4303,
      "الوجی": 4304,
      "پرد": 4305,
      "aw": 4306,
      "زیمر": 4307,
      "گندیت": 4308,
      "زیبائی": 4309,
      "ائل": 4310,
      "زالبولانی": 4311,
      "بدی": 4312,
      "بائل": 4313,
      "سانی": 4314,
      "عزیز": 4315,
      "ھواری": 4316,
      "پانزدہ": 4317,
      "دام": 4318,
      "وانگجاہ": 4319,
      "uring": 4320,
      "توکا": 4321,
      "لیویز": 4322,
      "یکبرے": 4323,
      "یکی": 4324,
      "کمشنر": 4325,
      "گیوار": 4326,
      "ile": 4327,
      "انڈ": 4328,
      "پاکستانء": 4329,
      "ادینک": 4330,
      "خبر": 4331,
      "انساپ": 4332,
      "off": 4333,
      "گین": 4334,
      "سج": 4335,
      "dis": 4336,
      "حم": 4337,
      "نصیب": 4338,
      "واں": 4339,
      "پادانی": 4340,
      "ory": 4341,
      "گیجگ": 4342,
      "ٹال": 4343,
      "سپتال": 4344,
      "ہرکس": 4345,
      "اتگیں": 4346,
      "بیگا": 4347,
      "ہوں": 4348,
      "کسمان": 4349,
      "نزیکی": 4350,
      "حاصل": 4351,
      "نظری": 4352,
      "اورت": 4353,
      "وء": 4354,
      "پیو": 4355,
      "دعا": 4356,
      "حمید": 4357,
      "زبانا": 4358,
      "اکتوبر": 4359,
      "کلاک": 4360,
      "مردمء": 4361,
      "بڑ": 4362,
      "کرنے": 4363,
      "this": 4364,
      "دشتیاری": 4365,
      "بکناں": 4366,
      "بندے": 4367,
      "افغانستان": 4368,
      "بہت": 4369,
      "کرن": 4370,
      "ائر": 4371,
      "sp": 4372,
      "عظ": 4373,
      "کمبر": 4374,
      "ترکی": 4375,
      "مارگ": 4376,
      "رپ": 4377,
      "اؤرتگ": 4378,
      "حاص": 4379,
      "زندے": 4380,
      "me": 4381,
      "مقص": 4382,
      "سع": 4383,
      "گئے": 4384,
      "فن": 4385,
      "گوشان": 4386,
      "ایرانء": 4387,
      "مرچیگیں": 4388,
      "چکے": 4389,
      "کنٹرول": 4390,
      "جناں": 4391,
      "عہد": 4392,
      "برمش": 4393,
      "بھتام": 4394,
      "پیشی": 4395,
      "نزاناں": 4396,
      "ھمائی": 4397,
      "دپء": 4398,
      "بدئے": 4399,
      "پوری": 4400,
      "ٹن": 4401,
      "گچکی": 4402,
      "اپریل": 4403,
      "ازمانکانی": 4404,
      "پاگ": 4405,
      "زمی": 4406,
      "روچانی": 4407,
      "It": 4408,
      "ئگا": 4409,
      "کوشست": 4410,
      "رہشون": 4411,
      "امید": 4412,
      "ہانی": 4413,
      "وکاں": 4414,
      "تپاس": 4415,
      "گچینی": 4416,
      "des": 4417,
      "ہون": 4418,
      "ade": 4419,
      "انگور": 4420,
      "طاقت": 4421,
      "ھنچیں": 4422,
      "حب": 4423,
      "تحریک": 4424,
      "پارسی": 4425,
      "گہار": 4426,
      "فل": 4427,
      "امین": 4428,
      "ہوئے": 4429,
      "شونی": 4430,
      "ضی": 4431,
      "جتاجتائیں": 4432,
      "کنوکانی": 4433,
      "استیں": 4434,
      "شئے": 4435,
      "شعرء": 4436,
      "ult": 4437,
      "ره": 4438,
      "زری": 4439,
      "واج": 4440,
      "مزاح": 4441,
      "وهد": 4442,
      "ثہ": 4443,
      "فروری": 4444,
      "ماه": 4445,
      "پارلی": 4446,
      "وہدیکہ": 4447,
      "کارڈ": 4448,
      "ite": 4449,
      "پیریں": 4450,
      "پنجاب": 4451,
      "برجاھیں": 4452,
      "pos": 4453,
      "اسمان": 4454,
      "سوال": 4455,
      "عام": 4456,
      "وے": 4457,
      "گلاں": 4458,
      "کائی": 4459,
      "سرکماش": 4460,
      "year": 4461,
      "نکش": 4462,
      "گراب": 4463,
      "تانی": 4464,
      "زه": 4465,
      "مشت": 4466,
      "مردی": 4467,
      "کمیشن": 4468,
      "دؤر": 4469,
      "دچار": 4470,
      "they": 4471,
      "جاہء": 4472,
      "لیگ": 4473,
      "سیٰ": 4474,
      "مردء": 4475,
      "سبک": 4476,
      "ممکن": 4477,
      "ردانک": 4478,
      "لنک": 4479,
      "لبزانکء": 4480,
      "متلب": 4481,
      "comm": 4482,
      "اسکواڈ": 4483,
      "راھے": 4484,
      "حانی": 4485,
      "چمگ": 4486,
      "ساه": 4487,
      "دێ": 4488,
      "داروکیں": 4489,
      "پوشاک": 4490,
      "سوز": 4491,
      "ھچبر": 4492,
      "cre": 4493,
      "ریء": 4494,
      "ستمبر": 4495,
      "بستگیں": 4496,
      "دانگ": 4497,
      "شار": 4498,
      "اسٹو": 4499,
      "جولائی": 4500,
      "vel": 4501,
      "An": 4502,
      "حضرت": 4503,
      "Th": 4504,
      "دامن": 4505,
      "ell": 4506,
      "رحم": 4507,
      "شبین": 4508,
      "منو": 4509,
      "چارمی": 4510,
      "کانودی": 4511,
      "رال": 4512,
      "دلوت": 4513,
      "after": 4514,
      "فظ": 4515,
      "ایوکء": 4516,
      "we": 4517,
      "یوسف": 4518,
      "غیں": 4519,
      "ans": 4520,
      "وشبو": 4521,
      "چارت": 4522,
      "fin": 4523,
      "گشاد": 4524,
      "سالء": 4525,
      "مسیت": 4526,
      "ھیران": 4527,
      "دوازدہ": 4528,
      "ren": 4529,
      "کونسل": 4530,
      "مذہب": 4531,
      "ناہ": 4532,
      "بلوچے": 4533,
      "ارزان": 4534,
      "تعلق": 4535,
      "چنکس": 4536,
      "نیکرا": 4537,
      "موہ": 4538,
      "انہی": 4539,
      "ہرچی": 4540,
      "cent": 4541,
      "og": 4542,
      "واہگ": 4543,
      "چڑ": 4544,
      "مرت": 4545,
      "اپء": 4546,
      "جنسی": 4547,
      "گاہ": 4548,
      "لۆ": 4549,
      "نرم": 4550,
      "ہا": 4551,
      "کوپگ": 4552,
      "دگے": 4553,
      "نیامء": 4554,
      "ارب": 4555,
      "وفا": 4556,
      "ٹیلی": 4557,
      "ھپتگ": 4558,
      "نیوز": 4559,
      "کشار": 4560,
      "اسرائیل": 4561,
      "پلو": 4562,
      "ملکء": 4563,
      "کاہ": 4564,
      "حل": 4565,
      "دارے": 4566,
      "زیارت": 4567,
      "ved": 4568,
      "وکیل": 4569,
      "سنت": 4570,
      "کورٹ": 4571,
      "ھمدا": 4572,
      "رسگ": 4573,
      "مندیں": 4574,
      "غنی": 4575,
      "بگوش": 4576,
      "الیک": 4577,
      "تار": 4578,
      "کرنا": 4579,
      "پکار": 4580,
      "پتری": 4581,
      "منتگ": 4582,
      "لوٹوکیں": 4583,
      "ملکانی": 4584,
      "اؤرت": 4585,
      "سپاھی": 4586,
      "پال": 4587,
      "ئور": 4588,
      "افی": 4589,
      "بوگی": 4590,
      "کپان": 4591,
      "بیل": 4592,
      "گوشی": 4593,
      "فون": 4594,
      "br": 4595,
      "وکانی": 4596,
      "نفسی": 4597,
      "قبیلہ": 4598,
      "ائین": 4599,
      "کیل": 4600,
      "گریوگ": 4601,
      "سکت": 4602,
      "عار": 4603,
      "زات": 4604,
      "incl": 4605,
      "ترمپ": 4606,
      "مومن": 4607,
      "عالم": 4608,
      "پروفیسر": 4609,
      "سائنسی": 4610,
      "پنجا": 4611,
      "ایڈ": 4612,
      "میدان": 4613,
      "سئی": 4614,
      "ورا": 4615,
      "ations": 4616,
      "حقیقت": 4617,
      "ئا": 4618,
      "ورناہ": 4619,
      "کمر": 4620,
      "ھاترء": 4621,
      "وانینگ": 4622,
      "سء": 4623,
      "ناصر": 4624,
      "ھشک": 4625,
      "غزل": 4626,
      "واقعہ": 4627,
      "ھرچی": 4628,
      "فرا": 4629,
      "پاکیں": 4630,
      "شپی": 4631,
      "پدریچ": 4632,
      "اسپیت": 4633,
      "حاق": 4634,
      "ue": 4635,
      "پیسرا": 4636,
      "سوبین": 4637,
      "سٹی": 4638,
      "طال": 4639,
      "ھمگرنچ": 4640,
      "بندء": 4641,
      "گستا": 4642,
      "یازدہ": 4643,
      "ادارگ": 4644,
      "شید": 4645,
      "گرانی": 4646,
      "ازل": 4647,
      "پاب": 4648,
      "گلی": 4649,
      "روایت": 4650,
      "بزگی": 4651,
      "برزیں": 4652,
      "شوک": 4653,
      "بگش": 4654,
      "رون": 4655,
      "دگانی": 4656,
      "دارانی": 4657,
      "able": 4658,
      "برجا": 4659,
      "تعلی": 4660,
      "جذ": 4661,
      "دستگ": 4662,
      "ٹنگ": 4663,
      "جے": 4664,
      "زانشت": 4665,
      "دزکپتگ": 4666,
      "بڈی": 4667,
      "الہ": 4668,
      "رسم": 4669,
      "ice": 4670,
      "work": 4671,
      "کنالوجی": 4672,
      "انسانء": 4673,
      "شرو": 4674,
      "بندش": 4675,
      "ھندوستان": 4676,
      "بلیدہ": 4677,
      "خل": 4678,
      "گؤ": 4679,
      "ہونا": 4680,
      "urn": 4681,
      "گونڈیں": 4682,
      "وتگ": 4683,
      "پوست": 4684,
      "زھیر": 4685,
      "ھندی": 4686,
      "وران": 4687,
      "راجء": 4688,
      "بئیں": 4689,
      "موش": 4690,
      "پے": 4691,
      "پلہ": 4692,
      "سودا": 4693,
      "گندئے": 4694,
      "ever": 4695,
      "تھر": 4696,
      "نزی": 4697,
      "وراں": 4698,
      "گندگء": 4699,
      "سرمچارانی": 4700,
      "نوشتہ": 4701,
      "راہء": 4702,
      "حیران": 4703,
      "ہوٹل": 4704,
      "دوبر": 4705,
      "no": 4706,
      "ace": 4707,
      "ڈیک": 4708,
      "سگریٹ": 4709,
      "لانچ": 4710,
      "امریکی": 4711,
      "جائے": 4712,
      "لائن": 4713,
      "لیت": 4714,
      "پرچی": 4715,
      "کانود": 4716,
      "اندرء": 4717,
      "اشکنگ": 4718,
      "دیوانے": 4719,
      "بلد": 4720,
      "میٹر": 4721,
      "لیل": 4722,
      "الت": 4723,
      "لوگانی": 4724,
      "خود": 4725,
      "قبر": 4726,
      "گزر": 4727,
      "pre": 4728,
      "ناکیں": 4729,
      "ورد": 4730,
      "امباز": 4731,
      "مسلم": 4732,
      "راجمان": 4733,
      "بلوچیء": 4734,
      "دروشمے": 4735,
      "ric": 4736,
      "بائی": 4737,
      "حوال": 4738,
      "شیخ": 4739,
      "ark": 4740,
      "لاح": 4741,
      "جین": 4742,
      "رؤت": 4743,
      "جاہاں": 4744,
      "اناگ": 4745,
      "شنا": 4746,
      "سرو": 4747,
      "اپس": 4748,
      "زمانگء": 4749,
      "جاہے": 4750,
      "رھادگ": 4751,
      "جبر": 4752,
      "تاریخی": 4753,
      "شست": 4754,
      "جیئند": 4755,
      "ویبجاہ": 4756,
      "پہنات": 4757,
      "بگل": 4758,
      "دودمان": 4759,
      "مردمی": 4760,
      "تاکت": 4761,
      "سیاھیں": 4762,
      "پاٹی": 4763,
      "گرام": 4764,
      "دیگر": 4765,
      "بوھ": 4766,
      "دائم": 4767,
      "دارء": 4768,
      "ہاترا": 4769,
      "ید": 4770,
      "کولو": 4771,
      "mer": 4772,
      "زندگیں": 4773,
      "فور": 4774,
      "زباناں": 4775,
      "حرکت": 4776,
      "کرتے": 4777,
      "درک": 4778,
      "ارد": 4779,
      "دگرانی": 4780,
      "ایشان": 4781,
      "رچ": 4782,
      "بلو": 4783,
      "گرن": 4784,
      "iz": 4785,
      "ثر": 4786,
      "زاھر": 4787,
      "نامے": 4788,
      "چہر": 4789,
      "تچکیں": 4790,
      "بوتی": 4791,
      "سالانی": 4792,
      "نیکراھی": 4793,
      "قرار": 4794,
      "اسما": 4795,
      "چارات": 4796,
      "کھند": 4797,
      "time": 4798,
      "فقی": 4799,
      "لبزانت": 4800,
      "پونز": 4801,
      "تپنگ": 4802,
      "لیے": 4803,
      "Un": 4804,
      "شتیں": 4805,
      "دلجم": 4806,
      "پورا": 4807,
      "ہمو": 4808,
      "ارشاں": 4809,
      "انور": 4810,
      "سڑ": 4811,
      "سنچ": 4812,
      "قری": 4813,
      "گوک": 4814,
      "کیمپ": 4815,
      "ff": 4816,
      "کنے": 4817,
      "سرھال": 4818,
      "چۆ": 4819,
      "کتیں": 4820,
      "مدی": 4821,
      "پدی": 4822,
      "ens": 4823,
      "معلوم": 4824,
      "طہ": 4825,
      "ابا": 4826,
      "گشے": 4827,
      "co": 4828,
      "روانی": 4829,
      "نامدار": 4830,
      "پلانی": 4831,
      "spe": 4832,
      "سعید": 4833,
      "ھردو": 4834,
      "سارتیں": 4835,
      "ئن": 4836,
      "ڈا": 4837,
      "ہکانی": 4838,
      "تہار": 4839,
      "توسی": 4840,
      "ناماں": 4841,
      "ھمراھ": 4842,
      "گت": 4843,
      "ندکار": 4844,
      "نیاں": 4845,
      "سمجھ": 4846,
      "ڈائ": 4847,
      "گوم": 4848,
      "پیسری": 4849,
      "استع": 4850,
      "ائید": 4851,
      "ance": 4852,
      "لینڈ": 4853,
      "موبائل": 4854,
      "ہرچ": 4855,
      "دستیگ": 4856,
      "جمالدینی": 4857,
      "into": 4858,
      "پتء": 4859,
      "غاں": 4860,
      "شھدگ": 4861,
      "مالیات": 4862,
      "کاس": 4863,
      "ions": 4864,
      "دنز": 4865,
      "شاعرے": 4866,
      "قیمت": 4867,
      "شھری": 4868,
      "قب": 4869,
      "کمیون": 4870,
      "رسانکدراں": 4871,
      "more": 4872,
      "ship": 4873,
      "ظفر": 4874,
      "ہبر": 4875,
      "سوگ": 4876,
      "شنز": 4877,
      "کسء": 4878,
      "صنعت": 4879,
      "لیا": 4880,
      "زیرگ": 4881,
      "خاصیں": 4882,
      "دزی": 4883,
      "پہک": 4884,
      "گالاں": 4885,
      "سرین": 4886,
      "قید": 4887,
      "ضہ": 4888,
      "شعرانی": 4889,
      "زوال": 4890,
      "زوریت": 4891,
      "اشوبی": 4892,
      "ایکس": 4893,
      "اژ": 4894,
      "روژن": 4895,
      "کچھ": 4896,
      "حون": 4897,
      "چیل": 4898,
      "بنیادم": 4899,
      "ڈپٹی": 4900,
      "ھاس": 4901,
      "کنغ": 4902,
      "چاردہ": 4903,
      "قلم": 4904,
      "گشی": 4905,
      "ھینگ": 4906,
      "ساچشتی": 4907,
      "ذی": 4908,
      "نویسگ": 4909,
      "لاسی": 4910,
      "اتکی": 4911,
      "اومان": 4912,
      "دلجمی": 4913,
      "لاہ": 4914,
      "سئیں": 4915,
      "نواز": 4916,
      "چیت": 4917,
      "any": 4918,
      "گیگ": 4919,
      "ترو": 4920,
      "ورنایانی": 4921,
      "ount": 4922,
      "حاترا": 4923,
      "ces": 4924,
      "ھنر": 4925,
      "جک": 4926,
      "نقص": 4927,
      "لوٹت": 4928,
      "ئنت": 4929,
      "اروا": 4930,
      "قوت": 4931,
      "ٹیکنالوجی": 4932,
      "گوا": 4933,
      "سست": 4934,
      "ph": 4935,
      "کایاں": 4936,
      "most": 4937,
      "ath": 4938,
      "چتور": 4939,
      "برابر": 4940,
      "نێ": 4941,
      "زرء": 4942,
      "باج": 4943,
      "ced": 4944,
      "مارکی": 4945,
      "کندی": 4946,
      "inter": 4947,
      "she": 4948,
      "هء": 4949,
      "نزیکیں": 4950,
      "امرزی": 4951,
      "کردے": 4952,
      "نمیرانیں": 4953,
      "لج": 4954,
      "گوریچ": 4955,
      "tem": 4956,
      "سبزیں": 4957,
      "گوار": 4958,
      "پیرک": 4959,
      "خو": 4960,
      "چیک": 4961,
      "گلے": 4962,
      "تج": 4963,
      "ہد": 4964,
      "امل": 4965,
      "دگرے": 4966,
      "بوتگاں": 4967,
      "سوی": 4968,
      "توامیں": 4969,
      "گلہ": 4970,
      "سسٹ": 4971,
      "محبت": 4972,
      "تاھ": 4973,
      "ason": 4974,
      "کیء": 4975,
      "رجانکار": 4976,
      "اط": 4977,
      "درنگ": 4978,
      "شرگدار": 4979,
      "لز": 4980,
      "red": 4981,
      "چنگ": 4982,
      "جمع": 4983,
      "نیادی": 4984,
      "نادراہی": 4985,
      "شپے": 4986,
      "گیاب": 4987,
      "روگء": 4988,
      "رحمن": 4989,
      "زاد": 4990,
      "تاگ": 4991,
      "سلامت": 4992,
      "مہناز": 4993,
      "would": 4994,
      "ظاہر": 4995,
      "راشد": 4996,
      "کتاباں": 4997,
      "Al": 4998,
      "ذہ": 4999,
      "cond": 5000,
      "ڈرائی": 5001,
      "هے": 5002,
      "گوانک": 5003,
      "گالبند": 5004,
      "سٹر": 5005,
      "رپت": 5006,
      "him": 5007,
      "دیکھ": 5008,
      "کربانی": 5009,
      "رابی": 5010,
      "old": 5011,
      "amp": 5012,
      "تنک": 5013,
      "فضل": 5014,
      "غری": 5015,
      "نادراھجاہ": 5016,
      "بارگ": 5017,
      "یناں": 5018,
      "اہم": 5019,
      "اہوال": 5020,
      "زنگ": 5021,
      "سبی": 5022,
      "اندیم": 5023,
      "گرمی": 5024,
      "پرواز": 5025,
      "ماتء": 5026,
      "پیچ": 5027,
      "گھگیری": 5028,
      "سربوتگیں": 5029,
      "مزہ": 5030,
      "سارت": 5031,
      "تلو": 5032,
      "تپا": 5033,
      "شرتریں": 5034,
      "زامران": 5035,
      "رودر": 5036,
      "گڈسر": 5037,
      "رسی": 5038,
      "کڑ": 5039,
      "رؤگ": 5040,
      "ann": 5041,
      "ایراد": 5042,
      "سرزمین": 5043,
      "ang": 5044,
      "used": 5045,
      "main": 5046,
      "سیٹ": 5047,
      "پھاز": 5048,
      "زد": 5049,
      "راجد": 5050,
      "جہتی": 5051,
      "مف": 5052,
      "گئی": 5053,
      "مائی": 5054,
      "چیرد": 5055,
      "موس": 5056,
      "بلہ": 5057,
      "گوشدار": 5058,
      "باوست": 5059,
      "زیبا": 5060,
      "ٹین": 5061,
      "باسکاں": 5062,
      "ٹاہ": 5063,
      "روسی": 5064,
      "علمی": 5065,
      "فورس": 5066,
      "قانون": 5067,
      "مذہبی": 5068,
      "بگندئے": 5069,
      "ited": 5070,
      "پندل": 5071,
      "بٹ": 5072,
      "استمان": 5073,
      "مدتے": 5074,
      "ڈنٹ": 5075,
      "ریڈیو": 5076,
      "پشتء": 5077,
      "cted": 5078,
      "ire": 5079,
      "پرک": 5080,
      "چاریت": 5081,
      "مطلب": 5082,
      "مساپر": 5083,
      "فائدہ": 5084,
      "مئیں": 5085,
      "جمبر": 5086,
      "انتز": 5087,
      "پترت": 5088,
      "بینگ": 5089,
      "اشر": 5090,
      "بازینے": 5091,
      "سوگند": 5092,
      "ings": 5093,
      "جنزان": 5094,
      "بئیگ": 5095,
      "تش": 5096,
      "بینک": 5097,
      "هبر": 5098,
      "بیوکیں": 5099,
      "دیمر": 5100,
      "اؤکیں": 5101,
      "بم": 5102,
      "تخلی": 5103,
      "لئی": 5104,
      "پاں": 5105,
      "پرپٹ": 5106,
      "گاڑیانی": 5107,
      "بجار": 5108,
      "رندی": 5109,
      "میتگء": 5110,
      "نبشتگیں": 5111,
      "سه": 5112,
      "ased": 5113,
      "مرتگیں": 5114,
      "کنز": 5115,
      "رضا": 5116,
      "بێ": 5117,
      "قاسم": 5118,
      "انگہ": 5119,
      "فرق": 5120,
      "خلاف": 5121,
      "بدو": 5122,
      "روی": 5123,
      "بندر": 5124,
      "وڈیں": 5125,
      "وقت": 5126,
      "لوٹگ": 5127,
      "پنڈ": 5128,
      "کریمہ": 5129,
      "fl": 5130,
      "اہیں": 5131,
      "گیت": 5132,
      "ie": 5133,
      "مض": 5134,
      "کشندہ": 5135,
      "fore": 5136,
      "ورء": 5137,
      "شہری": 5138,
      "bec": 5139,
      "ابرم": 5140,
      "بابا": 5141,
      "کدر": 5142,
      "زیمل": 5143,
      "برانز": 5144,
      "گوشنت": 5145,
      "باو": 5146,
      "ھستیں": 5147,
      "جرم": 5148,
      "دوری": 5149,
      "انکیں": 5150,
      "ہاشمی": 5151,
      "min": 5152,
      "وخ": 5153,
      "دپی": 5154,
      "قدیم": 5155,
      "بوٹ": 5156,
      "پرشت": 5157,
      "نودر": 5158,
      "جائی": 5159,
      "کلام": 5160,
      "mon": 5161,
      "توں": 5162,
      "یکجہتی": 5163,
      "دیگء": 5164,
      "چارگء": 5165,
      "اسپیتیں": 5166,
      "ہوتا": 5167,
      "مشکے": 5168,
      "فکشن": 5169,
      "مسی": 5170,
      "گرمیں": 5171,
      "درونت": 5172,
      "وپس": 5173,
      "کسمانک": 5174,
      "پانگس": 5175,
      "زیان": 5176,
      "تاکہ": 5177,
      "دمک": 5178,
      "پروشگ": 5179,
      "المیں": 5180,
      "علاج": 5181,
      "موکل": 5182,
      "مکت": 5183,
      "بزگیں": 5184,
      "پھم": 5185,
      "قد": 5186,
      "پھن": 5187,
      "ادارھاں": 5188,
      "بچکندگ": 5189,
      "زیادہ": 5190,
      "جتائی": 5191,
      "سپاہی": 5192,
      "کمالان": 5193,
      "خانہ": 5194,
      "includ": 5195,
      "اسحاق": 5196,
      "ٹیم": 5197,
      "شھدربرجاہ": 5198,
      "ہنچو": 5199,
      "though": 5200,
      "جنگو": 5201,
      "گوشدارگ": 5202,
      "ates": 5203,
      "ہندوستان": 5204,
      "تمام": 5205,
      "ئگی": 5206,
      "رکی": 5207,
      "عاش": 5208,
      "ڪہ": 5209,
      "بدنت": 5210,
      "ایوب": 5211,
      "ریگ": 5212,
      "گه": 5213,
      "ذاتی": 5214,
      "گچینکاری": 5215,
      "والی": 5216,
      "دلبڈی": 5217,
      "اخلاقی": 5218,
      "کلاں": 5219,
      "ئش": 5220,
      "درداں": 5221,
      "رہے": 5222,
      "گوشئے": 5223,
      "کوھانی": 5224,
      "سط": 5225,
      "ہمن": 5226,
      "توارے": 5227,
      "Ar": 5228,
      "اواں": 5229,
      "عث": 5230,
      "گلیں": 5231,
      "قادر": 5232,
      "ict": 5233,
      "قات": 5234,
      "پرمان": 5235,
      "لبزاں": 5236,
      "لوگاں": 5237,
      "وکے": 5238,
      "ھستی": 5239,
      "پون": 5240,
      "پلاں": 5241,
      "جیک": 5242,
      "حکیم": 5243,
      "ظم": 5244,
      "لوٹانی": 5245,
      "ھزاراں": 5246,
      "air": 5247,
      "ملکے": 5248,
      "چکچینی": 5249,
      "وپت": 5250,
      "ڈیتھ": 5251,
      "نوبت": 5252,
      "تنت": 5253,
      "وع": 5254,
      "لاف": 5255,
      "سیاھگ": 5256,
      "way": 5257,
      "ناچ": 5258,
      "پرشتگ": 5259,
      "مقصد": 5260,
      "میاں": 5261,
      "خانء": 5262,
      "زھی": 5263,
      "منظور": 5264,
      "اهانی": 5265,
      "چاڑ": 5266,
      "ضرورت": 5267,
      "نیکی": 5268,
      "پہم": 5269,
      "شبیر": 5270,
      "ھمیشی": 5271,
      "new": 5272,
      "دراں": 5273,
      "Au": 5274,
      "row": 5275,
      "vers": 5276,
      "نزینک": 5277,
      "انتزامیہ": 5278,
      "عملی": 5279,
      "شاعریء": 5280,
      "پائی": 5281,
      "ھنچو": 5282,
      "ظلم": 5283,
      "ترء": 5284,
      "ٹائ": 5285,
      "فدا": 5286,
      "کلم": 5287,
      "بوہان": 5288,
      "vis": 5289,
      "ورٹی": 5290,
      "سنگی": 5291,
      "نقصان": 5292,
      "اگدہ": 5293,
      "گوازینتگ": 5294,
      "پانک": 5295,
      "الف": 5296,
      "موٹر": 5297,
      "دژمنیں": 5298,
      "تہی": 5299,
      "گلاب": 5300,
      "چندے": 5301,
      "چمے": 5302,
      "لون": 5303,
      "نوزدہ": 5304,
      "گیشینگ": 5305,
      "مانیت": 5306,
      "زھری": 5307,
      "ail": 5308,
      "کواس": 5309,
      "حصہ": 5310,
      "مشین": 5311,
      "اسد": 5312,
      "وائرس": 5313,
      "rough": 5314,
      "ood": 5315,
      "ft": 5316,
      "گلء": 5317,
      "ووٹ": 5318,
      "رنگی": 5319,
      "جاڑی": 5320,
      "ھمود": 5321,
      "پشتون": 5322,
      "دگراں": 5323,
      "اریء": 5324,
      "ake": 5325,
      "bu": 5326,
      "درء": 5327,
      "طانی": 5328,
      "چرائی": 5329,
      "مندی": 5330,
      "ثابت": 5331,
      "دوت": 5332,
      "سوس": 5333,
      "درائی": 5334,
      "جلو": 5335,
      "بہار": 5336,
      "ۆک": 5337,
      "زرمبش": 5338,
      "خاندان": 5339,
      "ھمین": 5340,
      "زرباری": 5341,
      "ob": 5342,
      "اچہ": 5343,
      "سرگوست": 5344,
      "انگتہ": 5345,
      "ase": 5346,
      "ویک": 5347,
      "دلے": 5348,
      "ry": 5349,
      "گوزان": 5350,
      "گوی": 5351,
      "روں": 5352,
      "ھنچوش": 5353,
      "امروز": 5354,
      "جاگہے": 5355,
      "زید": 5356,
      "ick": 5357,
      "لوگے": 5358,
      "کھی": 5359,
      "وتگڑیں": 5360,
      "مهر": 5361,
      "انو": 5362,
      "گلگ": 5363,
      "ents": 5364,
      "تچان": 5365,
      "عطاش": 5366,
      "باپاری": 5367,
      "جگر": 5368,
      "ساعت": 5369,
      "قائ": 5370,
      "جاتا": 5371,
      "درخ": 5372,
      "تاکبند": 5373,
      "کانفرنس": 5374,
      "cess": 5375,
      "زانی": 5376,
      "song": 5377,
      "لن": 5378,
      "کمتر": 5379,
      "ild": 5380,
      "تجربہ": 5381,
      "بوتین": 5382,
      "زمینء": 5383,
      "امریکا": 5384,
      "only": 5385,
      "باریگ": 5386,
      "غوث": 5387,
      "لرز": 5388,
      "لوں": 5389,
      "ربیدگی": 5390,
      "ذکر": 5391,
      "کوک": 5392,
      "ونڈ": 5393,
      "when": 5394,
      "جنا": 5395,
      "دردی": 5396,
      "پلا": 5397,
      "arch": 5398,
      "شیں": 5399,
      "بوتگنت": 5400,
      "درچکانی": 5401,
      "کاپر": 5402,
      "gan": 5403,
      "ھوری": 5404,
      "اوند": 5405,
      "جمہوری": 5406,
      "دولت": 5407,
      "نویسی": 5408,
      "امد": 5409,
      "مھکمیں": 5410,
      "سز": 5411,
      "نسیم": 5412,
      "مرگء": 5413,
      "مکسد": 5414,
      "پنجابی": 5415,
      "زنڈ": 5416,
      "چات": 5417,
      "گالانی": 5418,
      "لند": 5419,
      "under": 5420,
      "چکء": 5421,
      "نبیت": 5422,
      "مروچیگیں": 5423,
      "ubl": 5424,
      "پرما": 5425,
      "تجربت": 5426,
      "حات": 5427,
      "انوگیں": 5428,
      "زاری": 5429,
      "پدائی": 5430,
      "شروع": 5431,
      "پائدگ": 5432,
      "کولواہ": 5433,
      "پیں": 5434,
      "وو": 5435,
      "یمن": 5436,
      "reg": 5437,
      "ساحرء": 5438,
      "بارے": 5439,
      "زمستان": 5440,
      "جائ": 5441,
      "دوستین": 5442,
      "درشانداب": 5443,
      "درملکی": 5444,
      "ڑہ": 5445,
      "سمند": 5446,
      "غر": 5447,
      "iss": 5448,
      "عذ": 5449,
      "ڈرا": 5450,
      "ble": 5451,
      "پیشانی": 5452,
      "them": 5453,
      "کورء": 5454,
      "ھوٹل": 5455,
      "سرکارء": 5456,
      "میڈیکل": 5457,
      "لازم": 5458,
      "جنئگ": 5459,
      "ہندی": 5460,
      "دوز": 5461,
      "les": 5462,
      "جوڑی": 5463,
      "مصر": 5464,
      "عیب": 5465,
      "ادارہانی": 5466,
      "دماغ": 5467,
      "ors": 5468,
      "وارے": 5469,
      "مالک": 5470,
      "یعنی": 5471,
      "ژنا": 5472,
      "مناف": 5473,
      "کارمرزی": 5474,
      "ادینگ": 5475,
      "ھمنچو": 5476,
      "نندوکیں": 5477,
      "گۆن": 5478,
      "سوبمندی": 5479,
      "شپاں": 5480,
      "ارشے": 5481,
      "col": 5482,
      "ڈکھ": 5483,
      "نوکی": 5484,
      "بژن": 5485,
      "تکان": 5486,
      "بیتاں": 5487,
      "کپوت": 5488,
      "ہیال": 5489,
      "قط": 5490,
      "بجٹ": 5491,
      "انگو": 5492,
      "السی": 5493,
      "دیمترا": 5494,
      "بھرے": 5495,
      "دستا": 5496,
      "تچگ": 5497,
      "کوچگ": 5498,
      "ose": 5499,
      "ندار": 5500,
      "روشن": 5501,
      "ویران": 5502,
      "En": 5503,
      "انٹ": 5504,
      "گپتگیں": 5505,
      "مکہ": 5506,
      "ind": 5507,
      "کامیاب": 5508,
      "during": 5509,
      "day": 5510,
      "حاصیں": 5511,
      "کوه": 5512,
      "ینتگ": 5513,
      "مسل": 5514,
      "اسان": 5515,
      "ڈین": 5516,
      "تاھیر": 5517,
      "عجب": 5518,
      "گوستان": 5519,
      "بائد": 5520,
      "kn": 5521,
      "صی": 5522,
      "نجو": 5523,
      "گیڈ": 5524,
      "افری": 5525,
      "پێ": 5526,
      "راجمانی": 5527,
      "ret": 5528,
      "جتگیں": 5529,
      "درواز": 5530,
      "اختر": 5531,
      "مئیل": 5532,
      "مھمان": 5533,
      "game": 5534,
      "زالبولے": 5535,
      "جنینے": 5536,
      "کلگ": 5537,
      "رحمان": 5538,
      "انداز": 5539,
      "اڑے": 5540,
      "اسٹوڈنٹ": 5541,
      "درہ": 5542,
      "ساہگ": 5543,
      "Re": 5544,
      "خد": 5545,
      "نیکیں": 5546,
      "چینچو": 5547,
      "son": 5548,
      "کائ": 5549,
      "بیتہ": 5550,
      "راھبند": 5551,
      "الح": 5552,
      "پیغ": 5553,
      "کپتاں": 5554,
      "جهد": 5555,
      "ھپتاد": 5556,
      "چوٹ": 5557,
      "ڈکال": 5558,
      "ered": 5559,
      "زوراک": 5560,
      "پنچمی": 5561,
      "گوازینت": 5562,
      "سرباز": 5563,
      "براھو": 5564,
      "ilm": 5565,
      "ڈیہہ": 5566,
      "زیبائیں": 5567,
      "پریات": 5568,
      "ھبرے": 5569,
      "اماں": 5570,
      "شوربندی": 5571,
      "درکپت": 5572,
      "دؤ": 5573,
      "کرز": 5574,
      "راہی": 5575,
      "ھکم": 5576,
      "پناہ": 5577,
      "اهاں": 5578,
      "اندری": 5579,
      "ہوئی": 5580,
      "بچکن": 5581,
      "کڈ": 5582,
      "پرستی": 5583,
      "وکیٹ": 5584,
      "پروگرام": 5585,
      "ایوکا": 5586,
      "ماتیں": 5587,
      "اھر": 5588,
      "ھنی": 5589,
      "اشکتگ": 5590,
      "بیگء": 5591,
      "ward": 5592,
      "سرحال": 5593,
      "ھیرو": 5594,
      "روتاک": 5595,
      "جماعت": 5596,
      "een": 5597,
      "مولوی": 5598,
      "گنت": 5599,
      "ادمین": 5600,
      "gen": 5601,
      "ذری": 5602,
      "نظم": 5603,
      "گہگیری": 5604,
      "جنوک": 5605,
      "ستر": 5606,
      "بنزہ": 5607,
      "بوؤ": 5608,
      "گوراں": 5609,
      "راجدپتری": 5610,
      "کشء": 5611,
      "اشنا": 5612,
      "کرتنت": 5613,
      "سسٹم": 5614,
      "اتار": 5615,
      "ادمی": 5616,
      "رہا": 5617,
      "ارواح": 5618,
      "نکنت": 5619,
      "دیراں": 5620,
      "صیل": 5621,
      "صابر": 5622,
      "لمب": 5623,
      "یونین": 5624,
      "کیر": 5625,
      "مروچاں": 5626,
      "تف": 5627,
      "ھمبل": 5628,
      "ٹمنٹ": 5629,
      "اھد": 5630,
      "ru": 5631,
      "تعلیم": 5632,
      "can": 5633,
      "ہمرائی": 5634,
      "مواد": 5635,
      "شاعرانی": 5636,
      "ھاران": 5637,
      "پیگ": 5638,
      "علیہ": 5639,
      "خاران": 5640,
      "کارا": 5641,
      "محمود": 5642,
      "بجلی": 5643,
      "سعودی": 5644,
      "مانگ": 5645,
      "واه": 5646,
      "پدردی": 5647,
      "ھؤ": 5648,
      "ھائی": 5649,
      "بندوکیں": 5650,
      "سوبی": 5651,
      "زیات": 5652,
      "ollow": 5653,
      "ٹپاس": 5654,
      "لہڑ": 5655,
      "گہرام": 5656,
      "پیرا": 5657,
      "پیری": 5658,
      "مسافر": 5659,
      "شتء": 5660,
      "روح": 5661,
      "واہند": 5662,
      "پشک": 5663,
      "فرانس": 5664,
      "وجہ": 5665,
      "ناکہ": 5666,
      "outh": 5667,
      "صرف": 5668,
      "جنگے": 5669,
      "ide": 5670,
      "about": 5671,
      "نزوریں": 5672,
      "چیرا": 5673,
      "مھروان": 5674,
      "علاق": 5675,
      "پیوٹر": 5676,
      "باتی": 5677,
      "نیز": 5678,
      "کہنیں": 5679,
      "میزان": 5680,
      "دئینت": 5681,
      "علام": 5682,
      "پین": 5683,
      "خالق": 5684,
      "کرء": 5685,
      "زھگانی": 5686,
      "ضلع": 5687,
      "فقیر": 5688,
      "ھشکیں": 5689,
      "ہیل": 5690,
      "بیتء": 5691,
      "لوٹائی": 5692,
      "ts": 5693,
      "صوب": 5694,
      "پریں": 5695,
      "انسانے": 5696,
      "قبول": 5697,
      "سرانی": 5698,
      "season": 5699,
      "واقع": 5700,
      "ورنائی": 5701,
      "کتء": 5702,
      "احوال": 5703,
      "کارمندانی": 5704,
      "مسئ": 5705,
      "دھکان": 5706,
      "than": 5707,
      "حقانی": 5708,
      "گردن": 5709,
      "ٹران": 5710,
      "یز": 5711,
      "صلی": 5712,
      "چونائی": 5713,
      "nor": 5714,
      "وانندہ": 5715,
      "گژن": 5716,
      "ادو": 5717,
      "بدے": 5718,
      "نزان": 5719,
      "ہمدا": 5720,
      "جہاں": 5721,
      "طرف": 5722,
      "جیڑھانی": 5723,
      "ten": 5724,
      "عابد": 5725,
      "امار": 5726,
      "دران": 5727,
      "جوش": 5728,
      "lar": 5729,
      "oy": 5730,
      "عق": 5731,
      "پرواہ": 5732,
      "ڈگارانی": 5733,
      "نجی": 5734,
      "شیئر": 5735,
      "جنگانی": 5736,
      "گندیں": 5737,
      "صبور": 5738,
      "پء": 5739,
      "چھو": 5740,
      "ازار": 5741,
      "الدین": 5742,
      "گواچن": 5743,
      "گرما": 5744,
      "بندیت": 5745,
      "some": 5746,
      "ern": 5747,
      "مجھ": 5748,
      "نث": 5749,
      "char": 5750,
      "اہوالکار": 5751,
      "حلک": 5752,
      "جستے": 5753,
      "اعت": 5754,
      "جسٹ": 5755,
      "حان": 5756,
      "لیم": 5757,
      "writ": 5758,
      "شکاری": 5759,
      "وابانی": 5760,
      "دف": 5761,
      "sy": 5762,
      "ترام": 5763,
      "شانگ": 5764,
      "طو": 5765,
      "اوہ": 5766,
      "کمپیوٹر": 5767,
      "زانتکاری": 5768,
      "طبی": 5769,
      "پلگار": 5770,
      "میگ": 5771,
      "بوئیگ": 5772,
      "روگی": 5773,
      "ناکی": 5774,
      "مقابل": 5775,
      "لر": 5776,
      "ھالی": 5777,
      "یوکرین": 5778,
      "بیغ": 5779,
      "دیوانء": 5780,
      "پشی": 5781,
      "ائش": 5782,
      "انج": 5783,
      "while": 5784,
      "وتئی": 5785,
      "اقبال": 5786,
      "again": 5787,
      "چاچ": 5788,
      "معام": 5789,
      "عیسیٰ": 5790,
      "اناگہ": 5791,
      "وامی": 5792,
      "جہدء": 5793,
      "فرد": 5794,
      "ابن": 5795,
      "چاگردے": 5796,
      "بنیادی": 5797,
      "لعل": 5798,
      "ساڑ": 5799,
      "رازی": 5800,
      "چیرء": 5801,
      "روانیں": 5802,
      "three": 5803,
      "بزور": 5804,
      "حاکم": 5805,
      "stru": 5806,
      "عاق": 5807,
      "پیپل": 5808,
      "سہرا": 5809,
      "ational": 5810,
      "سیکورٹی": 5811,
      "Com": 5812,
      "On": 5813,
      "حفی": 5814,
      "اسک": 5815,
      "دلیل": 5816,
      "اھان": 5817,
      "بزانکہ": 5818,
      "ular": 5819,
      "شانک": 5820,
      "نتی": 5821,
      "ty": 5822,
      "تهنا": 5823,
      "لچ": 5824,
      "ماھل": 5825,
      "جنجالانی": 5826,
      "پرشتگیں": 5827,
      "ابدل": 5828,
      "so": 5829,
      "رندگیری": 5830,
      "نصی": 5831,
      "اندو": 5832,
      "کوھی": 5833,
      "مجبور": 5834,
      "رشید": 5835,
      "سائٹی": 5836,
      "شعور": 5837,
      "اپو": 5838,
      "دوئ": 5839,
      "جنس": 5840,
      "اسٹوڈنٹس": 5841,
      "پشتی": 5842,
      "تیاری": 5843,
      "موتک": 5844,
      "پات": 5845,
      "ڈیل": 5846,
      "متاثر": 5847,
      "روا": 5848,
      "کاٹ": 5849,
      "تند": 5850,
      "کتابء": 5851,
      "وزن": 5852,
      "نظریہ": 5853,
      "کربان": 5854,
      "ful": 5855,
      "هیگ": 5856,
      "عظیم": 5857,
      "ھسپتال": 5858,
      "دربرگ": 5859,
      "وتکشی": 5860,
      "تہاریں": 5861,
      "جمالی": 5862,
      "ڈرائیور": 5863,
      "حفیظ": 5864,
      "الع": 5865,
      "دابے": 5866,
      "ارتگ": 5867,
      "واریں": 5868,
      "Wh": 5869,
      "وزی": 5870,
      "داران": 5871,
      "رگام": 5872,
      "عیل": 5873,
      "ریس": 5874,
      "سوسائٹی": 5875,
      "تبک": 5876,
      "tween": 5877,
      "دراتکگ": 5878,
      "چیزء": 5879,
      "لوار": 5880,
      "between": 5881,
      "ڈنء": 5882,
      "واکداراں": 5883,
      "ذا": 5884,
      "توپک": 5885,
      "بزنجو": 5886,
      "نیاما": 5887,
      "همرا": 5888,
      "میانی": 5889,
      "جنکانی": 5890,
      "گشان": 5891,
      "num": 5892,
      "ممت": 5893,
      "اینڈ": 5894,
      "کرسی": 5895,
      "اولس": 5896,
      "صوبائی": 5897,
      "جستانی": 5898,
      "حالی": 5899,
      "اہگ": 5900,
      "وابے": 5901,
      "دائمی": 5902,
      "تپاوت": 5903,
      "produ": 5904,
      "کستریں": 5905,
      "دوار": 5906,
      "سلیمان": 5907,
      "زہیر": 5908,
      "نوکین": 5909,
      "شاعراں": 5910,
      "record": 5911,
      "حنی": 5912,
      "عباس": 5913,
      "گشتانک": 5914,
      "شاعرء": 5915,
      "زانش": 5916,
      "قبائ": 5917,
      "لیاری": 5918,
      "بالا": 5919,
      "زالبولاں": 5920,
      "رخ": 5921,
      "دمب": 5922,
      "ron": 5923,
      "انکار": 5924,
      "درگیجگ": 5925,
      "اوتاک": 5926,
      "خالد": 5927,
      "رجینگ": 5928,
      "تپاکی": 5929,
      "سمو": 5930,
      "شیک": 5931,
      "شئر": 5932,
      "تہہ": 5933,
      "افت": 5934,
      "سوئی": 5935,
      "گلزار": 5936,
      "قبضہ": 5937,
      "مارکس": 5938,
      "دوچار": 5939,
      "بامرد": 5940,
      "لاہور": 5941,
      "through": 5942,
      "جلال": 5943,
      "As": 5944,
      "رزا": 5945,
      "ونا": 5946,
      "سنج": 5947,
      "بنیات": 5948,
      "اتح": 5949,
      "جہانی": 5950,
      "یکین": 5951,
      "اداں": 5952,
      "وارث": 5953,
      "ہمائی": 5954,
      "دمگانی": 5955,
      "ومنٹ": 5956,
      "احساس": 5957,
      "بھار": 5958,
      "نازک": 5959,
      "ted": 5960,
      "سبا": 5961,
      "لذ": 5962,
      "ating": 5963,
      "where": 5964,
      "ابدال": 5965,
      "یونانی": 5966,
      "دک": 5967,
      "پلیں": 5968,
      "وباری": 5969,
      "گریت": 5970,
      "کنی": 5971,
      "سارتی": 5972,
      "الاج": 5973,
      "ماد": 5974,
      "فلسفی": 5975,
      "معاملہ": 5976,
      "صفت": 5977,
      "مہرء": 5978,
      "تالبان": 5979,
      "ھنگ": 5980,
      "نگاہ": 5981,
      "بادینی": 5982,
      "حدی": 5983,
      "زراں": 5984,
      "ماح": 5985,
      "پہلو": 5986,
      "ied": 5987,
      "بہادر": 5988,
      "باسکانی": 5989,
      "راکٹ": 5990,
      "کرتیں": 5991,
      "درانگازی": 5992,
      "زبھر": 5993,
      "توپان": 5994,
      "کامری": 5995,
      "پرچیکہ": 5996,
      "نودربرے": 5997,
      "کہا": 5998,
      "بوھیر": 5999,
      "پہر": 6000,
      "رودراتکی": 6001,
      "حداء": 6002,
      "لالا": 6003,
      "later": 6004,
      "زبہر": 6005,
      "بلند": 6006,
      "ابرمی": 6007,
      "rele": 6008,
      "پیپلز": 6009,
      "بزدار": 6010,
      "رۆ": 6011,
      "انقل": 6012,
      "ھیالانی": 6013,
      "زء": 6014,
      "شئ": 6015,
      "شاگ": 6016,
      "ترجمہ": 6017,
      "گاری": 6018,
      "گۆں": 6019,
      "درسد": 6020,
      "دلبند": 6021,
      "کائے": 6022,
      "مقام": 6023,
      "spec": 6024,
      "اوشتگ": 6025,
      "سود": 6026,
      "گونڈو": 6027,
      "view": 6028,
      "زورگیریں": 6029,
      "الیکشن": 6030,
      "بانزل": 6031,
      "کامریڈ": 6032,
      "پچیں": 6033,
      "ames": 6034,
      "لفظ": 6035,
      "درکپ": 6036,
      "توارء": 6037,
      "برداشت": 6038,
      "ہمودا": 6039,
      "film": 6040,
      "درکانودی": 6041,
      "پازل": 6042,
      "اختیار": 6043,
      "ستہ": 6044,
      "اون": 6045,
      "دھمی": 6046,
      "ton": 6047,
      "اھمد": 6048,
      "ازمانکے": 6049,
      "چمشانکے": 6050,
      "دلانی": 6051,
      "ممتاز": 6052,
      "پہن": 6053,
      "cons": 6054,
      "چپی": 6055,
      "رمض": 6056,
      "ele": 6057,
      "اسء": 6058,
      "فیض": 6059,
      "شھیدانی": 6060,
      "واز": 6061,
      "اشکت": 6062,
      "تنا": 6063,
      "کارکن": 6064,
      "ھمودا": 6065,
      "ہک": 6066,
      "کھولانی": 6067,
      "زبانی": 6068,
      "درچکے": 6069,
      "rel": 6070,
      "انقلاب": 6071,
      "مظ": 6072,
      "وانوکاں": 6073,
      "ef": 6074,
      "ناو": 6075,
      "چول": 6076,
      "جزبگ": 6077,
      "عاشق": 6078,
      "ck": 6079,
      "چمان": 6080,
      "ust": 6081,
      "رمگ": 6082,
      "قا": 6083,
      "گوزیت": 6084,
      "Af": 6085,
      "خواہ": 6086,
      "ضروری": 6087,
      "تمن": 6088,
      "سیکر": 6089,
      "ished": 6090,
      "گوھر": 6091,
      "گرند": 6092,
      "جاوید": 6093,
      "لندن": 6094,
      "ھمل": 6095,
      "کیو": 6096,
      "ھین": 6097,
      "عارف": 6098,
      "میا": 6099,
      "جاورھال": 6100,
      "کشاں": 6101,
      "بیث": 6102,
      "کاروباری": 6103,
      "پاہ": 6104,
      "ھاؤ": 6105,
      "نیمگاں": 6106,
      "رات": 6107,
      "کشکے": 6108,
      "موں": 6109,
      "set": 6110,
      "بیرک": 6111,
      "شاپ": 6112,
      "نمو": 6113,
      "لوگی": 6114,
      "made": 6115,
      "طری": 6116,
      "دستانی": 6117,
      "پرست": 6118,
      "جمعہ": 6119,
      "سرد": 6120,
      "بیھار": 6121,
      "قبائلی": 6122,
      "مشر": 6123,
      "اتکاں": 6124,
      "Le": 6125,
      "هن": 6126,
      "سراوان": 6127,
      "مارشتانی": 6128,
      "sub": 6129,
      "قس": 6130,
      "بادشاه": 6131,
      "درانگاز": 6132,
      "بیور": 6133,
      "ڈیٹا": 6134,
      "شپانک": 6135,
      "والے": 6136,
      "ury": 6137,
      "بهر": 6138,
      "ہوتی": 6139,
      "جاک": 6140,
      "گماں": 6141,
      "کاریء": 6142,
      "مارشتاں": 6143,
      "چور": 6144,
      "رہی": 6145,
      "تژن": 6146,
      "سرشون": 6147,
      "فیق": 6148,
      "پیروک": 6149,
      "چیف": 6150,
      "وہداں": 6151,
      "مشہور": 6152,
      "ہندو": 6153,
      "ترینت": 6154,
      "my": 6155,
      "ایٹ": 6156,
      "ایگء": 6157,
      "ئگء": 6158,
      "نادر": 6159,
      "میتگے": 6160,
      "گنوکی": 6161,
      "New": 6162,
      "وپتگ": 6163,
      "then": 6164,
      "درکار": 6165,
      "وھیں": 6166,
      "برزء": 6167,
      "واکدارانی": 6168,
      "وثی": 6169,
      "الکاپ": 6170,
      "دودا": 6171,
      "گریو": 6172,
      "مریت": 6173,
      "بوج": 6174,
      "پرز": 6175,
      "بانور": 6176,
      "led": 6177,
      "ێا": 6178,
      "ملام": 6179,
      "راجاں": 6180,
      "قین": 6181,
      "کوہء": 6182,
      "بخت": 6183,
      "سمین": 6184,
      "قابل": 6185,
      "گرے": 6186,
      "نوکری": 6187,
      "ایوکی": 6188,
      "جاگہہ": 6189,
      "جانسلامتی": 6190,
      "دابیں": 6191,
      "do": 6192,
      "کون": 6193,
      "طالبان": 6194,
      "وپ": 6195,
      "پجاری": 6196,
      "شود": 6197,
      "کرتا": 6198,
      "سیاہیں": 6199,
      "پڑا": 6200,
      "نع": 6201,
      "سببء": 6202,
      "عدالت": 6203,
      "یعنے": 6204,
      "جور": 6205,
      "زاہر": 6206,
      "بیبگر": 6207,
      "دلا": 6208,
      "کوپگاں": 6209,
      "aid": 6210,
      "اسماعیل": 6211,
      "نزر": 6212,
      "موومنٹ": 6213,
      "استار": 6214,
      "مٹی": 6215,
      "صاد": 6216,
      "گارڈ": 6217,
      "برجاہیں": 6218,
      "قسم": 6219,
      "ادیم": 6220,
      "روکیں": 6221,
      "ساں": 6222,
      "شلی": 6223,
      "قبل": 6224,
      "میم": 6225,
      "پریم": 6226,
      "پروشت": 6227,
      "زندگانی": 6228,
      "جرمنی": 6229,
      "مزاحمت": 6230,
      "هزار": 6231,
      "پھک": 6232,
      "یورپی": 6233,
      "meric": 6234,
      "Americ": 6235,
      "ببنت": 6236,
      "تصور": 6237,
      "فتح": 6238,
      "کتنت": 6239,
      "اجز": 6240,
      "عطاشاد": 6241,
      "شگان": 6242,
      "اتانی": 6243,
      "الما": 6244,
      "دنیگا": 6245,
      "کساسے": 6246,
      "درامدیں": 6247,
      "اماچیں": 6248,
      "بازارء": 6249,
      "اشتاپ": 6250,
      "لگتمالی": 6251,
      "bum": 6252,
      "حمزہ": 6253,
      "ہچبر": 6254,
      "اوتاگ": 6255,
      "دیدار": 6256,
      "ock": 6257,
      "ناشرکاری": 6258,
      "عرا": 6259,
      "ins": 6260,
      "ورنایاں": 6261,
      "حملہ": 6262,
      "ماری": 6263,
      "ھیالاں": 6264,
      "sel": 6265,
      "جمیل": 6266,
      "خض": 6267,
      "دبئی": 6268,
      "رۆچ": 6269,
      "ٹوک": 6270,
      "دلمراد": 6271,
      "ریپ": 6272,
      "ھنداں": 6273,
      "گوانکو": 6274,
      "ma": 6275,
      "بھت": 6276,
      "اسو": 6277,
      "منے": 6278,
      "رھم": 6279,
      "سئ": 6280,
      "نبشته": 6281,
      "صدیق": 6282,
      "دارگء": 6283,
      "رژنائی": 6284,
      "دستگیر": 6285,
      "کشمیر": 6286,
      "گوشیں": 6287,
      "ھاکم": 6288,
      "سیکرٹری": 6289,
      "دنتان": 6290,
      "توسیپ": 6291,
      "دال": 6292,
      "نیمون": 6293,
      "برپ": 6294,
      "افظ": 6295,
      "چوپ": 6296,
      "سنگتی": 6297,
      "appe": 6298,
      "سیمسراں": 6299,
      "مارکیٹ": 6300,
      "پلاٹ": 6301,
      "وجو": 6302,
      "نماسگ": 6303,
      "میراث": 6304,
      "sing": 6305,
      "وئیلاں": 6306,
      "تیلانک": 6307,
      "استعمال": 6308,
      "اشکر": 6309,
      "حت": 6310,
      "خون": 6311,
      "فرانسی": 6312,
      "شیا": 6313,
      "حیات": 6314,
      "ters": 6315,
      "چندیں": 6316,
      "شوانگ": 6317,
      "اہرہ": 6318,
      "ترسن": 6319,
      "سواریں": 6320,
      "کسےء": 6321,
      "نبشتانکے": 6322,
      "go": 6323,
      "کابل": 6324,
      "براھوئی": 6325,
      "Jo": 6326,
      "follow": 6327,
      "عتی": 6328,
      "چھر": 6329,
      "ھڈ": 6330,
      "بیتیں": 6331,
      "واجھ": 6332,
      "high": 6333,
      "نکان": 6334,
      "روای": 6335,
      "گرء": 6336,
      "پداں": 6337,
      "دیریں": 6338,
      "ریزگ": 6339,
      "دربار": 6340,
      "گڑاں": 6341,
      "عن": 6342,
      "ھلاسی": 6343,
      "ٹیبل": 6344,
      "شہم": 6345,
      "ہژ": 6346,
      "چکیں": 6347,
      "دئیں": 6348,
      "second": 6349,
      "بلۆ": 6350,
      "واھشت": 6351,
      "such": 6352,
      "چگ": 6353,
      "گوادرء": 6354,
      "کوھن": 6355,
      "rop": 6356,
      "زھگاں": 6357,
      "تکاں": 6358,
      "نادرا": 6359,
      "اعظم": 6360,
      "جاپ": 6361,
      "ٹہی": 6362,
      "ving": 6363,
      "زبیر": 6364,
      "گمانی": 6365,
      "گزار": 6366,
      "داتہ": 6367,
      "تھاری": 6368,
      "four": 6369,
      "کمہ": 6370,
      "ari": 6371,
      "یاگی": 6372,
      "لانکی": 6373,
      "cap": 6374,
      "زاں": 6375,
      "اسٹری": 6376,
      "مسئلہ": 6377,
      "راس": 6378,
      "اشارہ": 6379,
      "انچوشکہ": 6380,
      "دردے": 6381,
      "ارٹ": 6382,
      "توری": 6383,
      "تاکاں": 6384,
      "عال": 6385,
      "کبز": 6386,
      "مدان": 6387,
      "دراھی": 6388,
      "زندگیء": 6389,
      "خلیل": 6390,
      "رپک": 6391,
      "اصف": 6392,
      "رمضان": 6393,
      "ایکشن": 6394,
      "دروشمء": 6395,
      "publ": 6396,
      "میرے": 6397,
      "عذاب": 6398,
      "پلے": 6399,
      "پڑء": 6400,
      "بحث": 6401,
      "حیالانی": 6402,
      "پما": 6403,
      "ناگمان": 6404,
      "تعالی": 6405,
      "تکگیں": 6406,
      "ہمگرنچ": 6407,
      "ہیر": 6408,
      "گوشتی": 6409,
      "je": 6410,
      "زاتی": 6411,
      "ازباب": 6412,
      "براتاں": 6413,
      "زانتء": 6414,
      "مانداشتگ": 6415,
      "تھت": 6416,
      "بنگلہ": 6417,
      "زاہد": 6418,
      "چیردستی": 6419,
      "پابندی": 6420,
      "اوداں": 6421,
      "اتوں": 6422,
      "بغ": 6423,
      "وداری": 6424,
      "med": 6425,
      "بیب": 6426,
      "جانء": 6427,
      "ics": 6428,
      "ریاض": 6429,
      "ابدمان": 6430,
      "براتانی": 6431,
      "well": 6432,
      "واد": 6433,
      "دیدگاں": 6434,
      "اێ": 6435,
      "الا": 6436,
      "درج": 6437,
      "دیمونی": 6438,
      "ارساں": 6439,
      "ڈالر": 6440,
      "ٹوھیں": 6441,
      "چکر": 6442,
      "ارادہ": 6443,
      "دستے": 6444,
      "شانزدہ": 6445,
      "رئ": 6446,
      "دارو": 6447,
      "ڈیم": 6448,
      "جیت": 6449,
      "شاہی": 6450,
      "کارمندے": 6451,
      "زھم": 6452,
      "نیمروچ": 6453,
      "بندین": 6454,
      "پرسی": 6455,
      "back": 6456,
      "iel": 6457,
      "ڈے": 6458,
      "بہتام": 6459,
      "پیداگ": 6460,
      "تگی": 6461,
      "At": 6462,
      "mus": 6463,
      "رکیں": 6464,
      "زوری": 6465,
      "سوگات": 6466,
      "دگیں": 6467,
      "پولکاری": 6468,
      "گوستانک": 6469,
      "De": 6470,
      "مێ": 6471,
      "چئیر": 6472,
      "دیگی": 6473,
      "زانیں": 6474,
      "افسر": 6475,
      "ily": 6476,
      "جھدکار": 6477,
      "زلورت": 6478,
      "گلو": 6479,
      "دردء": 6480,
      "روژنائی": 6481,
      "نثار": 6482,
      "This": 6483,
      "ماھکان": 6484,
      "اذ": 6485,
      "کوت": 6486,
      "کارستانی": 6487,
      "روم": 6488,
      "انڈیا": 6489,
      "شہرء": 6490,
      "واھگانی": 6491,
      "زمینی": 6492,
      "ual": 6493,
      "باش": 6494,
      "جاتی": 6495,
      "ific": 6496,
      "ہمین": 6497,
      "مہرانی": 6498,
      "لیء": 6499,
      "زندانی": 6500,
      "اظ": 6501,
      "تسل": 6502,
      "برج": 6503,
      "درخواست": 6504,
      "call": 6505,
      "ابراھی": 6506,
      "ملور": 6507,
      "لاگ": 6508,
      "بیدار": 6509,
      "کوم": 6510,
      "تنقید": 6511,
      "ٹیکل": 6512,
      "هیں": 6513,
      "پروم": 6514,
      "پروشتگ": 6515,
      "ven": 6516,
      "ہنر": 6517,
      "ہمیشی": 6518,
      "هاں": 6519,
      "گروک": 6520,
      "ائیئ": 6521,
      "بباں": 6522,
      "رکین": 6523,
      "نازین": 6524,
      "کنائینتگ": 6525,
      "مقابلہ": 6526,
      "دلگوشی": 6527,
      "دردانی": 6528,
      "رھبندانی": 6529,
      "خوف": 6530,
      "نوشت": 6531,
      "رئو": 6532,
      "ائن": 6533,
      "جیہند": 6534,
      "روچگ": 6535,
      "album": 6536,
      "بگندے": 6537,
      "لیبی": 6538,
      "لیڈر": 6539,
      "راجدپترء": 6540,
      "ہمراہی": 6541,
      "لنج": 6542,
      "عطاء": 6543,
      "رود": 6544,
      "روئے": 6545,
      "ٹانی": 6546,
      "درجہ": 6547,
      "بلیو": 6548,
      "کبرستان": 6549,
      "mi": 6550,
      "شاز": 6551,
      "کہن": 6552,
      "حراب": 6553,
      "ماھے": 6554,
      "نڈر": 6555,
      "غا": 6556,
      "کیسگ": 6557,
      "before": 6558,
      "گي": 6559,
      "شادی": 6560,
      "مطاب": 6561,
      "ناھ": 6562,
      "ارگنائ": 6563,
      "ھدی": 6564,
      "جاھانی": 6565,
      "خوش": 6566,
      "دمے": 6567,
      "ہات": 6568,
      "زمانہ": 6569,
      "cri": 6570,
      "اہمد": 6571,
      "جہاندپتر": 6572,
      "cur": 6573,
      "کٹی": 6574,
      "کیف": 6575,
      "ھزارانی": 6576,
      "fer": 6577,
      "رستگیں": 6578,
      "کنڈی": 6579,
      "هانی": 6580,
      "پتو": 6581,
      "hel": 6582,
      "بچاں": 6583,
      "مھتل": 6584,
      "راھشون": 6585,
      "ازمء": 6586,
      "پسندی": 6587,
      "یاتانی": 6588,
      "تلف": 6589,
      "دوریں": 6590,
      "کھن": 6591,
      "گنجیں": 6592,
      "ڈوک": 6593,
      "ars": 6594,
      "urch": 6595,
      "ارو": 6596,
      "ھمرائی": 6597,
      "باھو": 6598,
      "کردی": 6599,
      "ارزانی": 6600,
      "خیں": 6601,
      "sup": 6602,
      "ابراھیم": 6603,
      "گرک": 6604,
      "found": 6605,
      "صادق": 6606,
      "بیانیہ": 6607,
      "پگرء": 6608,
      "Eng": 6609,
      "سستگ": 6610,
      "تاکے": 6611,
      "being": 6612,
      "فاظ": 6613,
      "No": 6614,
      "هل": 6615,
      "سنٹ": 6616,
      "ماھیگ": 6617,
      "اۆ": 6618,
      "قرا": 6619,
      "میاری": 6620,
      "گلائی": 6621,
      "گیرت": 6622,
      "ھژدہ": 6623,
      "کمکار": 6624,
      "رنداں": 6625,
      "ھژدری": 6626,
      "کنتء": 6627,
      "کوشش": 6628,
      "ub": 6629,
      "فاروق": 6630,
      "گھر": 6631,
      "طاق": 6632,
      "ہاک": 6633,
      "there": 6634,
      "پٹء": 6635,
      "اہا": 6636,
      "سواری": 6637,
      "زمانگے": 6638,
      "حکام": 6639,
      "بشکھند": 6640,
      "years": 6641,
      "دلیں": 6642,
      "سوری": 6643,
      "ملامت": 6644,
      "ative": 6645,
      "اؤن": 6646,
      "اموش": 6647,
      "درکپتگ": 6648,
      "مہکم": 6649,
      "داشتگیں": 6650,
      "ہونے": 6651,
      "sur": 6652,
      "ھرو": 6653,
      "کروڑ": 6654,
      "پئیم": 6655,
      "معن": 6656,
      "گواچنی": 6657,
      "پگری": 6658,
      "ھاموش": 6659,
      "بوھگء": 6660,
      "برٹ": 6661,
      "arri": 6662,
      "راستے": 6663,
      "ازمکار": 6664,
      "زھگے": 6665,
      "سمائی": 6666,
      "خضدار": 6667,
      "نهانت": 6668,
      "اشتاپی": 6669,
      "عباد": 6670,
      "inn": 6671,
      "کلمتی": 6672,
      "par": 6673,
      "طانیہ": 6674,
      "پید": 6675,
      "ale": 6676,
      "دومیء": 6677,
      "زانگء": 6678,
      "غنت": 6679,
      "مانء": 6680,
      "owever": 6681,
      "یہاں": 6682,
      "جیڑہانی": 6683,
      "مختلف": 6684,
      "use": 6685,
      "مردیں": 6686,
      "جنینانی": 6687,
      "رپتگ": 6688,
      "دیوک": 6689,
      "باھوٹ": 6690,
      "نفر": 6691,
      "گواجہ": 6692,
      "جسٹس": 6693,
      "ھت": 6694,
      "وات": 6695,
      "ٹارگ": 6696,
      "راگ": 6697,
      "کونڈ": 6698,
      "اییئے": 6699,
      "سالیں": 6700,
      "مپت": 6701,
      "زوراکیں": 6702,
      "ٹیگ": 6703,
      "رحمت": 6704,
      "شرکت": 6705,
      "قربانی": 6706,
      "پشو": 6707,
      "تیزی": 6708,
      "کراچیء": 6709,
      "پارلیمنٹ": 6710,
      "بوچ": 6711,
      "نوکتریں": 6712,
      "حبرے": 6713,
      "بولی": 6714,
      "کاپی": 6715,
      "الگ": 6716,
      "کرتہ": 6717,
      "ane": 6718,
      "شاکر": 6719,
      "ساو": 6720,
      "پجی": 6721,
      "منانک": 6722,
      "ھمگرن": 6723,
      "ہنچیں": 6724,
      "بژ": 6725,
      "درستانی": 6726,
      "ازمانکار": 6727,
      "جرمن": 6728,
      "بحرین": 6729,
      "رئیس": 6730,
      "جدید": 6731,
      "شھم": 6732,
      "اسکی": 6733,
      "تخلیق": 6734,
      "درپش": 6735,
      "مجھے": 6736,
      "حافظ": 6737,
      "ایجن": 6738,
      "add": 6739,
      "تحقی": 6740,
      "گورنر": 6741,
      "نگیگ": 6742,
      "many": 6743,
      "حنیف": 6744,
      "جری": 6745,
      "ڈیہی": 6746,
      "کپنت": 6747,
      "known": 6748,
      "نگا": 6749,
      "side": 6750,
      "ٹھی": 6751,
      "اییا": 6752,
      "جتیں": 6753,
      "پلان": 6754,
      "فارم": 6755,
      "ہز": 6756,
      "مجگ": 6757,
      "منوگر": 6758,
      "نبوتگ": 6759,
      "اسانی": 6760,
      "حوالہ": 6761,
      "شازادگ": 6762,
      "ہفت": 6763,
      "بیتگاں": 6764,
      "ماتے": 6765,
      "ینت": 6766,
      "برطانیہ": 6767,
      "سیستان": 6768,
      "سانک": 6769,
      "متھ": 6770,
      "یان": 6771,
      "کارگشاد": 6772,
      "ڈولدار": 6773,
      "long": 6774,
      "دس": 6775,
      "ٹاں": 6776,
      "وھدا": 6777,
      "جڑ": 6778,
      "ستار": 6779,
      "تحصیل": 6780,
      "جسم": 6781,
      "کبل": 6782,
      "منتگیں": 6783,
      "شیپ": 6784,
      "وپا": 6785,
      "معنی": 6786,
      "تنظ": 6787,
      "کڈن": 6788,
      "گوہر": 6789,
      "سلطان": 6790,
      "اہیء": 6791,
      "دانشور": 6792,
      "انسانیت": 6793,
      "منافع": 6794,
      "ارزی": 6795,
      "کارچ": 6796,
      "کلچر": 6797,
      "کھولاں": 6798,
      "ازاتیں": 6799,
      "دیار": 6800,
      "شیش": 6801,
      "جہاز": 6802,
      "برائی": 6803,
      "ایردستیں": 6804,
      "مطابق": 6805,
      "پلامرزی": 6806,
      "حیالء": 6807,
      "پرنٹ": 6808,
      "لاط": 6809,
      "like": 6810,
      "قح": 6811,
      "ریکارڈ": 6812,
      "کتابی": 6813,
      "سالونک": 6814,
      "سینٹر": 6815,
      "number": 6816,
      "سیزدہ": 6817,
      "تاپ": 6818,
      "کڑی": 6819,
      "کوار": 6820,
      "پادا": 6821,
      "مردمانء": 6822,
      "loc": 6823,
      "درمیان": 6824,
      "ave": 6825,
      "ٹاور": 6826,
      "منشی": 6827,
      "مڈیانی": 6828,
      "امارات": 6829,
      "Nor": 6830,
      "شائریء": 6831,
      "ڈان": 6832,
      "حدہ": 6833,
      "فدائی": 6834,
      "لسبیلہ": 6835,
      "xt": 6836,
      "هدا": 6837,
      "point": 6838,
      "تئیی": 6839,
      "ird": 6840,
      "ٹارگٹ": 6841,
      "ورانی": 6842,
      "نپر": 6843,
      "ہرد": 6844,
      "ورے": 6845,
      "ities": 6846,
      "پیشدارگ": 6847,
      "اسکانی": 6848,
      "ros": 6849,
      "وابء": 6850,
      "series": 6851,
      "کمار": 6852,
      "کلہ": 6853,
      "اسٹیشن": 6854,
      "velop": 6855,
      "عالمی": 6856,
      "بلا": 6857,
      "اسپت": 6858,
      "پکا": 6859,
      "مرگے": 6860,
      "ہدا": 6861,
      "زوران": 6862,
      "تاکانی": 6863,
      "پرایمن": 6864,
      "بجن": 6865,
      "دستان": 6866,
      "انار": 6867,
      "ندارہ": 6868,
      "olog": 6869,
      "عوامی": 6870,
      "بکنیں": 6871,
      "ause": 6872,
      "سکا": 6873,
      "لاک": 6874,
      "ساڑا": 6875,
      "زیرد": 6876,
      "سلاھاں": 6877,
      "رھشونی": 6878,
      "ہواریں": 6879,
      "پاری": 6880,
      "ھیم": 6881,
      "reat": 6882,
      "دیش": 6883,
      "دروہ": 6884,
      "جستء": 6885,
      "رزاق": 6886,
      "mber": 6887,
      "دیک": 6888,
      "بنگالی": 6889,
      "یانی": 6890,
      "سرپدیں": 6891,
      "تاہ": 6892,
      "تلار": 6893,
      "لگتمال": 6894,
      "ince": 6895,
      "راستیء": 6896,
      "لنٹانی": 6897,
      "رجانکاری": 6898,
      "دلو": 6899,
      "صبر": 6900,
      "اخراج": 6901,
      "دلاں": 6902,
      "زرے": 6903,
      "unt": 6904,
      "قمبر": 6905,
      "پہل": 6906,
      "جوز": 6907,
      "ناء": 6908,
      "جانے": 6909,
      "ویر": 6910,
      "ننداں": 6911,
      "گشندہ": 6912,
      "زوراکیاں": 6913,
      "پہلے": 6914,
      "جنکو": 6915,
      "حالت": 6916,
      "وئیلانی": 6917,
      "شاھگ": 6918,
      "فکری": 6919,
      "سٹری": 6920,
      "cept": 6921,
      "چال": 6922,
      "کپتہ": 6923,
      "orn": 6924,
      "دوران": 6925,
      "سمل": 6926,
      "ریڈ": 6927,
      "line": 6928,
      "فتگ": 6929,
      "سرگ": 6930,
      "زوتاں": 6931,
      "لیف": 6932,
      "گوشے": 6933,
      "یکےء": 6934,
      "فتار": 6935,
      "افس": 6936,
      "گوریچانی": 6937,
      "لانک": 6938,
      "مسال": 6939,
      "تحری": 6940,
      "Con": 6941,
      "ماث": 6942,
      "بندیگیں": 6943,
      "گدارے": 6944,
      "ines": 6945,
      "ایشیا": 6946,
      "پھریز": 6947,
      "رینا": 6948,
      "مرہ": 6949,
      "cho": 6950,
      "سماجی": 6951,
      "زاکر": 6952,
      "زگریں": 6953,
      "both": 6954,
      "sever": 6955,
      "گێ": 6956,
      "کہی": 6957,
      "بودی": 6958,
      "سلاح": 6959,
      "ادیب": 6960,
      "میتگاں": 6961,
      "حمی": 6962,
      "واس": 6963,
      "اپے": 6964,
      "ڈرون": 6965,
      "استحکام": 6966,
      "eng": 6967,
      "مرگانی": 6968,
      "بلاش": 6969,
      "لاچاری": 6970,
      "حیث": 6971,
      "هئی": 6972,
      "عبدالم": 6973,
      "پنجاپ": 6974,
      "کالونی": 6975,
      "ایمنیں": 6976,
      "ژند": 6977,
      "تراکے": 6978,
      "گالے": 6979,
      "فرانسیسی": 6980,
      "توبہ": 6981,
      "تکانسر": 6982,
      "وچی": 6983,
      "ؤں": 6984,
      "سروزیر": 6985,
      "گیٹ": 6986,
      "گالی": 6987,
      "کرے": 6988,
      "شف": 6989,
      "ھری": 6990,
      "دارایت": 6991,
      "دانش": 6992,
      "پارٹیء": 6993,
      "چئیرمین": 6994,
      "hn": 6995,
      "نگے": 6996,
      "سیہ": 6997,
      "ماہء": 6998,
      "زیل": 6999,
      "ٹکی": 7000,
      "سینی": 7001,
      "محنت": 7002,
      "سھی": 7003,
      "چکان": 7004,
      "dire": 7005,
      "دارگی": 7006,
      "بادی": 7007,
      "pop": 7008,
      "مشک": 7009,
      "بدلیاں": 7010,
      "غالب": 7011,
      "قع": 7012,
      "سروس": 7013,
      "گسء": 7014,
      "طاہرہ": 7015,
      "رداں": 7016,
      "کشگء": 7017,
      "ذیب": 7018,
      "پکرء": 7019,
      "اپوزیشن": 7020,
      "درے": 7021,
      "ise": 7022,
      "فورسز": 7023,
      "وخت": 7024,
      "فرمان": 7025,
      "Brit": 7026,
      "جنازہ": 7027,
      "پیکر": 7028,
      "ٹرا": 7029,
      "میشن": 7030,
      "ماش": 7031,
      "افلاط": 7032,
      "اندازہ": 7033,
      "مستری": 7034,
      "epis": 7035,
      "بیسہ": 7036,
      "ments": 7037,
      "including": 7038,
      "ذریعہ": 7039,
      "گہتر": 7040,
      "اولاک": 7041,
      "زاھد": 7042,
      "کھر": 7043,
      "کابی": 7044,
      "atch": 7045,
      "نازرکیں": 7046,
      "سهیگ": 7047,
      "گست": 7048,
      "روبرکت": 7049,
      "مالیاتی": 7050,
      "فراز": 7051,
      "igin": 7052,
      "گدارء": 7053,
      "خلافا": 7054,
      "down": 7055,
      "شودگ": 7056,
      "قرض": 7057,
      "بکر": 7058,
      "سیء": 7059,
      "تون": 7060,
      "باقی": 7061,
      "نوجوان": 7062,
      "ٹیسٹ": 7063,
      "زانتکاریں": 7064,
      "امیری": 7065,
      "اہل": 7066,
      "منیت": 7067,
      "دستون": 7068,
      "شوق": 7069,
      "against": 7070,
      "ode": 7071,
      "مبیت": 7072,
      "ڈالچار": 7073,
      "کارندھاں": 7074,
      "ویت": 7075,
      "هیال": 7076,
      "سمندر": 7077,
      "ذہن": 7078,
      "ٹرک": 7079,
      "فیک": 7080,
      "ژا": 7081,
      "بیمن": 7082,
      "کنگے": 7083,
      "ہمیں": 7084,
      "became": 7085,
      "هو": 7086,
      "ھمت": 7087,
      "بزیں": 7088,
      "میرانی": 7089,
      "کاگدے": 7090,
      "Sh": 7091,
      "تص": 7092,
      "ھزمت": 7093,
      "uary": 7094,
      "oup": 7095,
      "ایج": 7096,
      "charac": 7097,
      "ورگء": 7098,
      "پریشانی": 7099,
      "واباں": 7100,
      "کوھاں": 7101,
      "ہلک": 7102,
      "وابی": 7103,
      "دوئیناں": 7104,
      "ظہور": 7105,
      "یکوارے": 7106,
      "کمکیں": 7107,
      "تاوانانی": 7108,
      "جع": 7109,
      "تہذیب": 7110,
      "سدانی": 7111,
      "غل": 7112,
      "میرو": 7113,
      "وردن": 7114,
      "پارٹمنٹ": 7115,
      "توکلی": 7116,
      "بنگیجی": 7117,
      "ندات": 7118,
      "سربازی": 7119,
      "سببا": 7120,
      "براہوئی": 7121,
      "سراج": 7122,
      "ھتر": 7123,
      "شکست": 7124,
      "ress": 7125,
      "سطح": 7126,
      "چت": 7127,
      "درکیت": 7128,
      "دیمرئی": 7129,
      "جات": 7130,
      "اوگام": 7131,
      "مزنی": 7132,
      "راجدوستی": 7133,
      "II": 7134,
      "بلائیں": 7135,
      "عادت": 7136,
      "ہواری": 7137,
      "فوظ": 7138,
      "شهی": 7139,
      "صہ": 7140,
      "جسمانی": 7141,
      "گیء": 7142,
      "کارندھانی": 7143,
      "دوئینانی": 7144,
      "سڑک": 7145,
      "اظہار": 7146,
      "زون": 7147,
      "سرچ": 7148,
      "تھانہ": 7149,
      "کماندار": 7150,
      "کافکا": 7151,
      "وراک": 7152,
      "شتے": 7153,
      "دلپروش": 7154,
      "ساچان": 7155,
      "feat": 7156,
      "اپہ": 7157,
      "ident": 7158,
      "لنکک": 7159,
      "زنڈیں": 7160,
      "ci": 7161,
      "توجیل": 7162,
      "پسء": 7163,
      "اشتگ": 7164,
      "جہانء": 7165,
      "گلائیش": 7166,
      "افلاطون": 7167,
      "ێت": 7168,
      "ندگ": 7169,
      "تیرانی": 7170,
      "توکء": 7171,
      "تچکی": 7172,
      "اخلاق": 7173,
      "شرط": 7174,
      "فلسفہء": 7175,
      "یونان": 7176,
      "تؤ": 7177,
      "لبزء": 7178,
      "شاب": 7179,
      "کومتی": 7180,
      "محکم": 7181,
      "مرزا": 7182,
      "کمیونسٹ": 7183,
      "cer": 7184,
      "ek": 7185,
      "اوی": 7186,
      "وین": 7187,
      "گیشین": 7188,
      "خا": 7189,
      "بلاشبہ": 7190,
      "ھکومت": 7191,
      "دێما": 7192,
      "سیاھ": 7193,
      "اگبال": 7194,
      "شعرے": 7195,
      "رکھینگ": 7196,
      "پرایمنیں": 7197,
      "ریکی": 7198,
      "قدرتی": 7199,
      "دوئمی": 7200,
      "ائیت": 7201,
      "دویں": 7202,
      "یاسر": 7203,
      "ond": 7204,
      "ہوتے": 7205,
      "موسی": 7206,
      "دزمان": 7207,
      "علمء": 7208,
      "مادن": 7209,
      "برورد": 7210,
      "جلس": 7211,
      "خر": 7212,
      "گجر": 7213,
      "ئین": 7214,
      "ایرا": 7215,
      "ھونی": 7216,
      "حاکمی": 7217,
      "tain": 7218,
      "ield": 7219,
      "ped": 7220,
      "سنگین": 7221,
      "بچکے": 7222,
      "ساریء": 7223,
      "Be": 7224,
      "نمب": 7225,
      "چمن": 7226,
      "کپاں": 7227,
      "راہبند": 7228,
      "زہری": 7229,
      "لوری": 7230,
      "موض": 7231,
      "اصلی": 7232,
      "نائب": 7233,
      "لاھ": 7234,
      "descri": 7235,
      "ریٹری": 7236,
      "بنء": 7237,
      "انہیں": 7238,
      "ندیم": 7239,
      "ڈرامہ": 7240,
      "دھی": 7241,
      "درکنگ": 7242,
      "باران": 7243,
      "داتنت": 7244,
      "بلال": 7245,
      "وکین": 7246,
      "شائرے": 7247,
      "گرپت": 7248,
      "ost": 7249,
      "ششمی": 7250,
      "جهان": 7251,
      "یعقو": 7252,
      "زیک": 7253,
      "محکمہ": 7254,
      "سریاب": 7255,
      "عثمان": 7256,
      "سجه": 7257,
      "زانشتی": 7258,
      "ڑیت": 7259,
      "محفوظ": 7260,
      "کاپٹر": 7261,
      "appear": 7262,
      "زیکیں": 7263,
      "بیمار": 7264,
      "گولی": 7265,
      "مغربی": 7266,
      "چکا": 7267,
      "تبء": 7268,
      "ژناگ": 7269,
      "دعوی": 7270,
      "Ro": 7271,
      "cle": 7272,
      "کینی": 7273,
      "پراں": 7274,
      "تھار": 7275,
      "حاتم": 7276,
      "زاه": 7277,
      "ہساب": 7278,
      "پسگ": 7279,
      "گواتء": 7280,
      "ژی": 7281,
      "اتکہ": 7282,
      "توپ": 7283,
      "گاماں": 7284,
      "United": 7285,
      "غریب": 7286,
      "میانء": 7287,
      "شخصیت": 7288,
      "مدینہ": 7289,
      "قیمتانی": 7290,
      "پاچ": 7291,
      "لیکگ": 7292,
      "گاڈی": 7293,
      "حدیث": 7294,
      "فیس": 7295,
      "عراق": 7296,
      "چاک": 7297,
      "راہے": 7298,
      "ڈبلیو": 7299,
      "جنگا": 7300,
      "ised": 7301,
      "ذہنی": 7302,
      "سورت": 7303,
      "بوجیگ": 7304,
      "بروکیں": 7305,
      "team": 7306,
      "ھوشاپ": 7307,
      "گاڑیاں": 7308,
      "ھسین": 7309,
      "ابے": 7310,
      "سقرا": 7311,
      "دلپدردی": 7312,
      "دروریں": 7313,
      "John": 7314,
      "ڑگ": 7315,
      "اینکس": 7316,
      "dec": 7317,
      "پیرزال": 7318,
      "بڑی": 7319,
      "منط": 7320,
      "یکرندے": 7321,
      "سائیکل": 7322,
      "نزین": 7323,
      "گراہ": 7324,
      "روتگ": 7325,
      "کترینا": 7326,
      "محبو": 7327,
      "باغ": 7328,
      "دعوت": 7329,
      "قائم": 7330,
      "hy": 7331,
      "ures": 7332,
      "پرانی": 7333,
      "ابیتک": 7334,
      "جہلی": 7335,
      "متحدہ": 7336,
      "شہباز": 7337,
      "کنائینت": 7338,
      "شئیرانی": 7339,
      "اخراجات": 7340,
      "run": 7341,
      "نیتکگ": 7342,
      "ترسے": 7343,
      "بستارے": 7344,
      "جنجالاں": 7345,
      "جھمنندیں": 7346,
      "پاشک": 7347,
      "نگر": 7348,
      "ھالے": 7349,
      "تھاریں": 7350,
      "سنجی": 7351,
      "سہریں": 7352,
      "وانیت": 7353,
      "دۆ": 7354,
      "پگار": 7355,
      "جیونی": 7356,
      "ھالاں": 7357,
      "suc": 7358,
      "مسکرا": 7359,
      "انگیر": 7360,
      "زانو": 7361,
      "دنیائے": 7362,
      "پشتو": 7363,
      "توکل": 7364,
      "درگتء": 7365,
      "وسیم": 7366,
      "bed": 7367,
      "زوان": 7368,
      "نبوت": 7369,
      "کرنل": 7370,
      "نازء": 7371,
      "مادی": 7372,
      "یکروچے": 7373,
      "تخ": 7374,
      "اخت": 7375,
      "عبدالحمید": 7376,
      "لوزانک": 7377,
      "سیشن": 7378,
      "شء": 7379,
      "hist": 7380,
      "لغ": 7381,
      "مانت": 7382,
      "توئے": 7383,
      "develop": 7384,
      "peri": 7385,
      "کارمستر": 7386,
      "تھام": 7387,
      "ساھتے": 7388,
      "حمایت": 7389,
      "یکجا": 7390,
      "پلگ": 7391,
      "بالگ": 7392,
      "چھبار": 7393,
      "مسع": 7394,
      "دگری": 7395,
      "شهر": 7396,
      "کرم": 7397,
      "اپسر": 7398,
      "دیوانجاه": 7399,
      "ہستی": 7400,
      "century": 7401,
      "نھاد": 7402,
      "داو": 7403,
      "پلیٹ": 7404,
      "show": 7405,
      "نئیکہ": 7406,
      "After": 7407,
      "پوک": 7408,
      "کتابجاہ": 7409,
      "lead": 7410,
      "پیگمبر": 7411,
      "mem": 7412,
      "الرحمن": 7413,
      "حالانی": 7414,
      "شئیرء": 7415,
      "شانتگ": 7416,
      "بیلٹ": 7417,
      "لوگوں": 7418,
      "contin": 7419,
      "جبین": 7420,
      "نگال": 7421,
      "واکی": 7422,
      "ھموداں": 7423,
      "پارلیمانی": 7424,
      "uch": 7425,
      "ناب": 7426,
      "ھؤر": 7427,
      "نندیت": 7428,
      "نشنل": 7429,
      "پہریز": 7430,
      "گریب": 7431,
      "وڈا": 7432,
      "جاں": 7433,
      "جلی": 7434,
      "اہان": 7435,
      "دمانء": 7436,
      "اجت": 7437,
      "ردان": 7438,
      "پیٹ": 7439,
      "ودگی": 7440,
      "trans": 7441,
      "حکمت": 7442,
      "پابند": 7443,
      "ٹڈ": 7444,
      "گھو": 7445,
      "origin": 7446,
      "stor": 7447,
      "کٹم": 7448,
      "بع": 7449,
      "لنٹاں": 7450,
      "رہادگ": 7451,
      "زبر": 7452,
      "هور": 7453,
      "کافر": 7454,
      "یونٹ": 7455,
      "ماتانی": 7456,
      "چڑھاؤ": 7457,
      "ڈری": 7458,
      "کاران": 7459,
      "کارکرد": 7460,
      "سس": 7461,
      "کمکے": 7462,
      "مہلوکء": 7463,
      "فکرء": 7464,
      "اسرء": 7465,
      "ترسینگ": 7466,
      "بیتگین": 7467,
      "ہزاراں": 7468,
      "معناء": 7469,
      "هند": 7470,
      "head": 7471,
      "لاپء": 7472,
      "lan": 7473,
      "mill": 7474,
      "pol": 7475,
      "شیطان": 7476,
      "سواس": 7477,
      "شالا": 7478,
      "مبارکی": 7479,
      "لئیب": 7480,
      "بلبل": 7481,
      "موسمی": 7482,
      "حیر": 7483,
      "شامل": 7484,
      "نعمت": 7485,
      "گراہکانی": 7486,
      "فک": 7487,
      "قانود": 7488,
      "تمامیں": 7489,
      "کاک": 7490,
      "امبر": 7491,
      "let": 7492,
      "ھشتاد": 7493,
      "عبادت": 7494,
      "مدر": 7495,
      "بہرء": 7496,
      "امبازاں": 7497,
      "west": 7498,
      "ناس": 7499,
      "ھوت": 7500,
      "تگرانی": 7501,
      "اتہ": 7502,
      "ھوناں": 7503,
      "ste": 7504,
      "oper": 7505,
      "دوک": 7506,
      "وحی": 7507,
      "گورم": 7508,
      "ایڈوکیٹ": 7509,
      "dam": 7510,
      "سگار": 7511,
      "برباد": 7512,
      "جہہ": 7513,
      "سلط": 7514,
      "پهک": 7515,
      "کبزہ": 7516,
      "شیئ": 7517,
      "بھٹو": 7518,
      "اتین": 7519,
      "اشان": 7520,
      "مزدور": 7521,
      "ley": 7522,
      "بیماری": 7523,
      "بیگواه": 7524,
      "بھتی": 7525,
      "راھاں": 7526,
      "چاریگ": 7527,
      "حیثیت": 7528,
      "شکی": 7529,
      "کێ": 7530,
      "درپ": 7531,
      "بدہ": 7532,
      "مستاگ": 7533,
      "صحت": 7534,
      "ٹء": 7535,
      "دوستاں": 7536,
      "انٹرنیٹ": 7537,
      "ہب": 7538,
      "دانء": 7539,
      "تواراں": 7540,
      "اخری": 7541,
      "نوروز": 7542,
      "سوشلزم": 7543,
      "sign": 7544,
      "سکن": 7545,
      "ھڑ": 7546,
      "دمکاں": 7547,
      "قومانی": 7548,
      "ball": 7549,
      "جدا": 7550,
      "ترگ": 7551,
      "جنزگ": 7552,
      "واجھی": 7553,
      "سگی": 7554,
      "پیل": 7555,
      "جننت": 7556,
      "نزیکء": 7557,
      "سادگیں": 7558,
      "قال": 7559,
      "سواد": 7560,
      "ساچی": 7561,
      "ves": 7562,
      "road": 7563,
      "قربان": 7564,
      "شپانی": 7565,
      "دزگٹ": 7566,
      "وداریگ": 7567,
      "سفی": 7568,
      "ارق": 7569,
      "پجارگ": 7570,
      "البتہ": 7571,
      "لانگ": 7572,
      "ہنگ": 7573,
      "پیپلزپارٹی": 7574,
      "سازگ": 7575,
      "عین": 7576,
      "یےء": 7577,
      "حیدر": 7578,
      "کابینہ": 7579,
      "sm": 7580,
      "حج": 7581,
      "سوراب": 7582,
      "سیاستء": 7583,
      "several": 7584,
      "مائ": 7585,
      "امبار": 7586,
      "نزء": 7587,
      "مھراب": 7588,
      "هان": 7589,
      "زیاد": 7590,
      "بورڈ": 7591,
      "ہسپتال": 7592,
      "گواه": 7593,
      "ہمنچو": 7594,
      "ڈگری": 7595,
      "گژ": 7596,
      "ارسی": 7597,
      "اداد": 7598,
      "مھروانیں": 7599,
      "diff": 7600,
      "همراه": 7601,
      "ارسطو": 7602,
      "قند": 7603,
      "ڈاہ": 7604,
      "نیاتک": 7605,
      "بوتگء": 7606,
      "نوری": 7607,
      "جوڑشت": 7608,
      "نمائند": 7609,
      "may": 7610,
      "انہوں": 7611,
      "ودان": 7612,
      "کوسٹ": 7613,
      "زوراں": 7614,
      "شالء": 7615,
      "ایسا": 7616,
      "کود": 7617,
      "چارء": 7618,
      "ھاموشی": 7619,
      "تاگت": 7620,
      "زانتکارانی": 7621,
      "شھیدی": 7622,
      "ہنکین": 7623,
      "جێ": 7624,
      "began": 7625,
      "همک": 7626,
      "چدء": 7627,
      "پرنس": 7628,
      "بستارء": 7629,
      "اکرم": 7630,
      "دراجی": 7631,
      "ادمء": 7632,
      "انچۆ": 7633,
      "اشرف": 7634,
      "ریپبلکن": 7635,
      "ئس": 7636,
      "عو": 7637,
      "کیلو": 7638,
      "کیشن": 7639,
      "تکانسری": 7640,
      "شمس": 7641,
      "جہدے": 7642,
      "جانا": 7643,
      "زانئے": 7644,
      "ually": 7645,
      "دیوانگ": 7646,
      "لبزے": 7647,
      "جیڑاں": 7648,
      "She": 7649,
      "واناں": 7650,
      "نکاں": 7651,
      "لونجان": 7652,
      "پجہ": 7653,
      "مزاحمتی": 7654,
      "اگوں": 7655,
      "تشد": 7656,
      "لولی": 7657,
      "eral": 7658,
      "سدکی": 7659,
      "نزام": 7660,
      "عاد": 7661,
      "مشکول": 7662,
      "نیاتکگ": 7663,
      "جانب": 7664,
      "زگاری": 7665,
      "ٹرانس": 7666,
      "وادی": 7667,
      "رژنا": 7668,
      "سؤ": 7669,
      "موسیٰ": 7670,
      "جاگھے": 7671,
      "بوؤکیں": 7672,
      "بژنی": 7673,
      "درگتا": 7674,
      "توانائی": 7675,
      "مسعود": 7676,
      "بلاہیں": 7677,
      "رنگاں": 7678,
      "une": 7679,
      "طبقہ": 7680,
      "سقراط": 7681,
      "Br": 7682,
      "az": 7683,
      "کؤ": 7684,
      "زیں": 7685,
      "شیرین": 7686,
      "سائنسدان": 7687,
      "روزی": 7688,
      "دیمے": 7689,
      "زورء": 7690,
      "چریشاں": 7691,
      "تتکگ": 7692,
      "سخ": 7693,
      "فیصل": 7694,
      "کوہن": 7695,
      "مریم": 7696,
      "ject": 7697,
      "حکمر": 7698,
      "دھر": 7699,
      "عوام": 7700,
      "remain": 7701,
      "شہداد": 7702,
      "cord": 7703,
      "بکار": 7704,
      "گونگیں": 7705,
      "جیڑھے": 7706,
      "شدت": 7707,
      "نقش": 7708,
      "بوتء": 7709,
      "بنگل": 7710,
      "لینگوی": 7711,
      "صلاح": 7712,
      "ٹاپ": 7713,
      "بانل": 7714,
      "عرض": 7715,
      "عہدی": 7716,
      "Se": 7717,
      "war": 7718,
      "کیفی": 7719,
      "گرگء": 7720,
      "کسانکیں": 7721,
      "شونگال": 7722,
      "لذت": 7723,
      "هاز": 7724,
      "گسر": 7725,
      "near": 7726,
      "early": 7727,
      "present": 7728,
      "crit": 7729,
      "ھبی": 7730,
      "بیچار": 7731,
      "لاشاری": 7732,
      "سبزل": 7733,
      "ستکگ": 7734,
      "جاس": 7735,
      "پروشی": 7736,
      "met": 7737,
      "nam": 7738,
      "پھازگ": 7739,
      "پہمگ": 7740,
      "اپنا": 7741,
      "زندمانی": 7742,
      "ریفرنس": 7743,
      "اگاہ": 7744,
      "پرنگی": 7745,
      "جہگیر": 7746,
      "کائنات": 7747,
      "شوکیں": 7748,
      "فض": 7749,
      "گوہ": 7750,
      "احتگ": 7751,
      "اتکگاں": 7752,
      "ھیالء": 7753,
      "دژمنانی": 7754,
      "ڈگارء": 7755,
      "طیف": 7756,
      "ئٹر": 7757,
      "یکجاھی": 7758,
      "ادمے": 7759,
      "نفسیات": 7760,
      "cy": 7761,
      "cover": 7762,
      "کمکی": 7763,
      "برابری": 7764,
      "ended": 7765,
      "رضی": 7766,
      "کاسگ": 7767,
      "متھدہ": 7768,
      "could": 7769,
      "واجہء": 7770,
      "صفحہ": 7771,
      "شگر": 7772,
      "چؤ": 7773,
      "تربیت": 7774,
      "تیوگ": 7775,
      "ازمانکاں": 7776,
      "did": 7777,
      "زتک": 7778,
      "هون": 7779,
      "ڈھا": 7780,
      "ایجنسی": 7781,
      "بدلء": 7782,
      "شناسی": 7783,
      "Mar": 7784,
      "نگور": 7785,
      "مالوم": 7786,
      "صباء": 7787,
      "ms": 7788,
      "رمب": 7789,
      "سیالی": 7790,
      "بہہ": 7791,
      "کسه": 7792,
      "جلد": 7793,
      "قدرت": 7794,
      "سپی": 7795,
      "پترگ": 7796,
      "called": 7797,
      "ڈڈ": 7798,
      "برف": 7799,
      "جمہوریت": 7800,
      "کردانی": 7801,
      "try": 7802,
      "مهلوک": 7803,
      "Wor": 7804,
      "یکء": 7805,
      "بارک": 7806,
      "گروپ": 7807,
      "episode": 7808,
      "طارق": 7809,
      "ایوان": 7810,
      "ازن": 7811,
      "رسین": 7812,
      "سلو": 7813,
      "گمن": 7814,
      "بیزار": 7815,
      "درگیج": 7816,
      "داخل": 7817,
      "معی": 7818,
      "پیسرگیں": 7819,
      "سیمسری": 7820,
      "گھتر": 7821,
      "لائبری": 7822,
      "سئیل": 7823,
      "کمزور": 7824,
      "ماسی": 7825,
      "مدار": 7826,
      "نگدی": 7827,
      "ائینگ": 7828,
      "مڑد": 7829,
      "سکتا": 7830,
      "جئی": 7831,
      "ہپتگ": 7832,
      "جوانت": 7833,
      "گوئش": 7834,
      "io": 7835,
      "دژمنی": 7836,
      "کۆ": 7837,
      "بارگیں": 7838,
      "leg": 7839,
      "سوبء": 7840,
      "وشیانی": 7841,
      "ib": 7842,
      "حمد": 7843,
      "شیشگ": 7844,
      "ساع": 7845,
      "دہکان": 7846,
      "جنیناں": 7847,
      "چرس": 7848,
      "بزر": 7849,
      "For": 7850,
      "وژ": 7851,
      "واپ": 7852,
      "کریں": 7853,
      "کاریاں": 7854,
      "por": 7855,
      "ash": 7856,
      "وسائل": 7857,
      "dep": 7858,
      "ople": 7859,
      "self": 7860,
      "بغیر": 7861,
      "نعر": 7862,
      "محدود": 7863,
      "فرض": 7864,
      "لینگویج": 7865,
      "پیژ": 7866,
      "rece": 7867,
      "گندء": 7868,
      "along": 7869,
      "بدنء": 7870,
      "طینی": 7871,
      "مگرب": 7872,
      "جاڑیگ": 7873,
      "aking": 7874,
      "vid": 7875,
      "بوتن": 7876,
      "بیاں": 7877,
      "لوٹیں": 7878,
      "وڑی": 7879,
      "انسانانی": 7880,
      "large": 7881,
      "دودء": 7882,
      "توم": 7883,
      "شریک": 7884,
      "جنکاں": 7885,
      "انتظامیہ": 7886,
      "نێست": 7887,
      "پیسرء": 7888,
      "Is": 7889,
      "اکسی": 7890,
      "اپاں": 7891,
      "دیواناں": 7892,
      "صوص": 7893,
      "پکرانی": 7894,
      "یعقوب": 7895,
      "dist": 7896,
      "عات": 7897,
      "مکنت": 7898,
      "ھاش": 7899,
      "دوسرے": 7900,
      "مانہ": 7901,
      "فاضلء": 7902,
      "دئور": 7903,
      "يں": 7904,
      "ایلیٹ": 7905,
      "ترسء": 7906,
      "نبیسی": 7907,
      "کماشیں": 7908,
      "gg": 7909,
      "رونت": 7910,
      "کسھے": 7911,
      "لوگبانک": 7912,
      "جامگ": 7913,
      "کندیل": 7914,
      "val": 7915,
      "ملین": 7916,
      "فرو": 7917,
      "اندگہ": 7918,
      "اسلو": 7919,
      "روائی": 7920,
      "ناما": 7921,
      "ٹیکی": 7922,
      "عے": 7923,
      "پاکی": 7924,
      "سبزی": 7925,
      "تعالیٰ": 7926,
      "mil": 7927,
      "یکشمبے": 7928,
      "May": 7929,
      "ملاز": 7930,
      "شرت": 7931,
      "pass": 7932,
      "ورہ": 7933,
      "کران": 7934,
      "وئیلے": 7935,
      "لاشانی": 7936,
      "بتی": 7937,
      "درھیں": 7938,
      "برتانیہ": 7939,
      "مثل": 7940,
      "روانکے": 7941,
      "said": 7942,
      "هساب": 7943,
      "ہوت": 7944,
      "نگن": 7945,
      "دورے": 7946,
      "press": 7947,
      "American": 7948,
      "ink": 7949,
      "ساھتاں": 7950,
      "نہاد": 7951,
      "ese": 7952,
      "بھائی": 7953,
      "باتن": 7954,
      "حاظ": 7955,
      "دعویٰ": 7956,
      "حشک": 7957,
      "مشن": 7958,
      "ہاتھ": 7959,
      "یہو": 7960,
      "ہمت": 7961,
      "کبھی": 7962,
      "بیاریت": 7963,
      "سینیٹ": 7964,
      "مہری": 7965,
      "بسمل": 7966,
      "gust": 7967,
      "غفار": 7968,
      "گپتیں": 7969,
      "مارشتے": 7970,
      "erson": 7971,
      "حلاپ": 7972,
      "سفار": 7973,
      "ششت": 7974,
      "success": 7975,
      "عاجز": 7976,
      "نپاد": 7977,
      "کٹر": 7978,
      "راہاں": 7979,
      "شنبہ": 7980,
      "دیمترء": 7981,
      "ھمینچو": 7982,
      "ڈبہ": 7983,
      "ھکل": 7984,
      "موضوع": 7985,
      "tow": 7986,
      "سردارانی": 7987,
      "سبر": 7988,
      "دوشمبے": 7989,
      "رسانی": 7990,
      "ایردستی": 7991,
      "ized": 7992,
      "تیرے": 7993,
      "these": 7994,
      "دریاء": 7995,
      "تحت": 7996,
      "قحطانی": 7997,
      "مگسی": 7998,
      "کےء": 7999,
      "مالانی": 8000,
      "وسیلگ": 8001,
      "اکسے": 8002,
      "زانتے": 8003,
      "طالب": 8004,
      "غلامی": 8005,
      "لچھ": 8006,
      "وبا": 8007,
      "ادرا": 8008,
      "داخ": 8009,
      "کاڑ": 8010,
      "شعراں": 8011,
      "now": 8012,
      "غفور": 8013,
      "مچک": 8014,
      "کاھان": 8015,
      "یکدم": 8016,
      "روف": 8017,
      "اردوء": 8018,
      "دنیگہ": 8019,
      "خار": 8020,
      "محراب": 8021,
      "رؤکیں": 8022,
      "لالچ": 8023,
      "لوپ": 8024,
      "جہت": 8025,
      "open": 8026,
      "سران": 8027,
      "ہردو": 8028,
      "کشاری": 8029,
      "بچاریں": 8030,
      "مولاداد": 8031,
      "روچا": 8032,
      "ازمانء": 8033,
      "امیتی": 8034,
      "عمو": 8035,
      "رویں": 8036,
      "بساک": 8037,
      "قلعہ": 8038,
      "ھمیشانی": 8039,
      "گیابان": 8040,
      "قاف": 8041,
      "بہشت": 8042,
      "بزگر": 8043,
      "grap": 8044,
      "نفسیاتی": 8045,
      "نپس": 8046,
      "رافی": 8047,
      "زندہ": 8048,
      "موٹ": 8049,
      "ca": 8050,
      "tri": 8051,
      "شفی": 8052,
      "لحاظ": 8053,
      "بشکھندگ": 8054,
      "Ger": 8055,
      "طلب": 8056,
      "پروجیک": 8057,
      "کستر": 8058,
      "stem": 8059,
      "پترتگ": 8060,
      "fam": 8061,
      "سات": 8062,
      "الاں": 8063,
      "راجدوستیں": 8064,
      "سگگ": 8065,
      "بنگپانی": 8066,
      "ah": 8067,
      "جۆ": 8068,
      "انٹیلی": 8069,
      "راء": 8070,
      "گوہار": 8071,
      "چوناہا": 8072,
      "درایگ": 8073,
      "ردے": 8074,
      "کلان": 8075,
      "جدی": 8076,
      "اصط": 8077,
      "سہبء": 8078,
      "ثبوت": 8079,
      "انجین": 8080,
      "دیری": 8081,
      "دلمانگ": 8082,
      "نوشی": 8083,
      "واجہی": 8084,
      "للہ": 8085,
      "پوت": 8086,
      "میکس": 8087,
      "بکننت": 8088,
      "rist": 8089,
      "مسلمانانی": 8090,
      "British": 8091,
      "ظاھر": 8092,
      "پجا": 8093,
      "ارگء": 8094,
      "بیورغ": 8095,
      "جزم": 8096,
      "سھیل": 8097,
      "بودل": 8098,
      "پولکار": 8099,
      "نزینکی": 8100,
      "کلاگ": 8101,
      "پسندیں": 8102,
      "ھمراھاں": 8103,
      "دالبندین": 8104,
      "music": 8105,
      "until": 8106,
      "city": 8107,
      "وشت": 8108,
      "منہ": 8109,
      "رودین": 8110,
      "start": 8111,
      "overn": 8112,
      "خطرہ": 8113,
      "یاتاں": 8114,
      "دریگتیں": 8115,
      "دێم": 8116,
      "پجاہ": 8117,
      "سیدء": 8118,
      "بھارت": 8119,
      "شئیرے": 8120,
      "ross": 8121,
      "صوفی": 8122,
      "comple": 8123,
      "released": 8124,
      "کرتی": 8125,
      "سنگے": 8126,
      "پریشی": 8127,
      "فٹبال": 8128,
      "ترینگ": 8129,
      "بلوچوں": 8130,
      "دگء": 8131,
      "پریشر": 8132,
      "لیکہء": 8133,
      "حبرء": 8134,
      "بلڈ": 8135,
      "گومازی": 8136,
      "پہنچ": 8137,
      "تاچی": 8138,
      "Gr": 8139,
      "نازی": 8140,
      "سردی": 8141,
      "گلامیں": 8142,
      "less": 8143,
      "سپریم": 8144,
      "مطال": 8145,
      "ابیتکی": 8146,
      "حاض": 8147,
      "مخت": 8148,
      "الک": 8149,
      "دینا": 8150,
      "itt": 8151,
      "روایتی": 8152,
      "خدائی": 8153,
      "الے": 8154,
      "نیو": 8155,
      "same": 8156,
      "خوب": 8157,
      "ہرو": 8158,
      "کتا": 8159,
      "پرش": 8160,
      "زانہ": 8161,
      "گسانی": 8162,
      "دارانت": 8163,
      "تنکیں": 8164,
      "نتہ": 8165,
      "ماریت": 8166,
      "دودانی": 8167,
      "شہیدانی": 8168,
      "لائق": 8169,
      "فتہ": 8170,
      "ڈؤ": 8171,
      "راشن": 8172,
      "لیڈ": 8173,
      "کوہانی": 8174,
      "ارزشتے": 8175,
      "thern": 8176,
      "نکن": 8177,
      "نعی": 8178,
      "ank": 8179,
      "جہمنند": 8180,
      "کافی": 8181,
      "حیالاں": 8182,
      "جاهے": 8183,
      "ived": 8184,
      "بلۆچی": 8185,
      "vol": 8186,
      "مینگ": 8187,
      "ملکا": 8188,
      "معت": 8189,
      "شوھازگ": 8190,
      "مراگشے": 8191,
      "جنوزام": 8192,
      "اڑی": 8193,
      "زباد": 8194,
      "اہت": 8195,
      "سامنے": 8196,
      "اہمیت": 8197,
      "سہت": 8198,
      "مردگ": 8199,
      "زانشی": 8200,
      "درساں": 8201,
      "پیسریگیں": 8202,
      "ئیء": 8203,
      "جاگہء": 8204,
      "ists": 8205,
      "سنگینیں": 8206,
      "ious": 8207,
      "فان": 8208,
      "جامی": 8209,
      "sim": 8210,
      "ذر": 8211,
      "رانء": 8212,
      "زانتیں": 8213,
      "ولے": 8214,
      "اصغر": 8215,
      "دادء": 8216,
      "عہدء": 8217,
      "ناسر": 8218,
      "احسان": 8219,
      "لاھور": 8220,
      "jor": 8221,
      "بریگیڈ": 8222,
      "ضرور": 8223,
      "اجتما": 8224,
      "کھو": 8225,
      "بیس": 8226,
      "ایڈی": 8227,
      "سالروچ": 8228,
      "وہدا": 8229,
      "ھاجی": 8230,
      "return": 8231,
      "سچ": 8232,
      "شکا": 8233,
      "وند": 8234,
      "دارنت": 8235,
      "پربند": 8236,
      "جمبراں": 8237,
      "plac": 8238,
      "شموش": 8239,
      "یقین": 8240,
      "انل": 8241,
      "ارین": 8242,
      "km": 8243,
      "انفار": 8244,
      "کپتگاں": 8245,
      "They": 8246,
      "کلاسیکل": 8247,
      "ھردوکیں": 8248,
      "پولنگ": 8249,
      "کوشت": 8250,
      "ائنٹ": 8251,
      "state": 8252,
      "ہین": 8253,
      "عقلی": 8254,
      "سستگیں": 8255,
      "کرکے": 8256,
      "انگیں": 8257,
      "read": 8258,
      "سلطنت": 8259,
      "درنج": 8260,
      "وارس": 8261,
      "مستی": 8262,
      "گہتری": 8263,
      "نگیگیں": 8264,
      "اباں": 8265,
      "area": 8266,
      "design": 8267,
      "اتان": 8268,
      "سروز": 8269,
      "موقع": 8270,
      "گڈاں": 8271,
      "تکنیکی": 8272,
      "ملیر": 8273,
      "لائبریری": 8274,
      "امکان": 8275,
      "زیہ": 8276,
      "وہاں": 8277,
      "گشتے": 8278,
      "کسہانی": 8279,
      "دہمی": 8280,
      "دربرتگ": 8281,
      "سروکاں": 8282,
      "درورے": 8283,
      "شوکت": 8284,
      "اتن": 8285,
      "افاض": 8286,
      "کارستے": 8287,
      "oci": 8288,
      "شئرانی": 8289,
      "کہانی": 8290,
      "اہد": 8291,
      "نادی": 8292,
      "بنڈ": 8293,
      "چپیں": 8294,
      "سھت": 8295,
      "million": 8296,
      "تشدد": 8297,
      "نئیل": 8298,
      "بیٹ": 8299,
      "کارروائی": 8300,
      "ouse": 8301,
      "نبشتانکاں": 8302,
      "fect": 8303,
      "formed": 8304,
      "ہڑ": 8305,
      "پیرو": 8306,
      "شیدا": 8307,
      "انسال": 8308,
      "جھدء": 8309,
      "باه": 8310,
      "کردء": 8311,
      "men": 8312,
      "عاب": 8313,
      "رفیق": 8314,
      "هیر": 8315,
      "منارا": 8316,
      "راجکاری": 8317,
      "because": 8318,
      "oot": 8319,
      "گڑی": 8320,
      "دیگا": 8321,
      "ھرنائی": 8322,
      "ھیالے": 8323,
      "مرکزی": 8324,
      "نازینک": 8325,
      "جادو": 8326,
      "سپا": 8327,
      "گوج": 8328,
      "ایردست": 8329,
      "لاحی": 8330,
      "زردیں": 8331,
      "صمد": 8332,
      "ینگ": 8333,
      "بوگا": 8334,
      "ہیرو": 8335,
      "ہنداں": 8336,
      "مٹیں": 8337,
      "نازل": 8338,
      "la": 8339,
      "وانت": 8340,
      "پبل": 8341,
      "گوشگء": 8342,
      "ویڈیو": 8343,
      "نیستی": 8344,
      "کوریں": 8345,
      "ower": 8346,
      "انٹرنیشنل": 8347,
      "each": 8348,
      "ٹوہ": 8349,
      "کروس": 8350,
      "اوانء": 8351,
      "لابی": 8352,
      "War": 8353,
      "اسکور": 8354,
      "سیاستدان": 8355,
      "چراگے": 8356,
      "offic": 8357,
      "ڈیز": 8358,
      "لوٹوک": 8359,
      "تواریں": 8360,
      "شعبہ": 8361,
      "بلۆچستان": 8362,
      "اھم": 8363,
      "جمل": 8364,
      "فق": 8365,
      "گونگ": 8366,
      "ایریں": 8367,
      "ٹکرے": 8368,
      "Car": 8369,
      "che": 8370,
      "انگی": 8371,
      "کاردار": 8372,
      "ترانت": 8373,
      "کوری": 8374,
      "کوٹیء": 8375,
      "موداں": 8376,
      "enn": 8377,
      "سنگانی": 8378,
      "جنیانی": 8379,
      "August": 8380,
      "انجمن": 8381,
      "شهید": 8382,
      "ایئر": 8383,
      "جوہر": 8384,
      "جاھمنند": 8385,
      "اجب": 8386,
      "نعیم": 8387,
      "مرگاں": 8388,
      "کھان": 8389,
      "باسکے": 8390,
      "سازیں": 8391,
      "انگریزانی": 8392,
      "coun": 8393,
      "ازیت": 8394,
      "بوجی": 8395,
      "اجوئیں": 8396,
      "عیسائی": 8397,
      "ھاکمی": 8398,
      "vide": 8399,
      "پخ": 8400,
      "بلوٹ": 8401,
      "معاش": 8402,
      "زہگاں": 8403,
      "تاوانے": 8404,
      "come": 8405,
      "کلومیٹر": 8406,
      "Sep": 8407,
      "کسہی": 8408,
      "استانی": 8409,
      "وهدا": 8410,
      "اختلاف": 8411,
      "ھیک": 8412,
      "کنین": 8413,
      "تراکن": 8414,
      "پریدہ": 8415,
      "life": 8416,
      "ریکٹر": 8417,
      "serv": 8418,
      "dr": 8419,
      "طرز": 8420,
      "کبول": 8421,
      "انون": 8422,
      "اتون": 8423,
      "رائے": 8424,
      "شعوری": 8425,
      "يٴ": 8426,
      "اوٹ": 8427,
      "مراں": 8428,
      "شھراں": 8429,
      "ھپتگے": 8430,
      "جء": 8431,
      "ڈار": 8432,
      "ایسے": 8433,
      "کوھلو": 8434,
      "زحم": 8435,
      "ماڈل": 8436,
      "نیر": 8437,
      "اینچک": 8438,
      "east": 8439,
      "چلی": 8440,
      "گوارگ": 8441,
      "ھید": 8442,
      "ملافاض": 8443,
      "ھنچشیں": 8444,
      "people": 8445,
      "افریقہ": 8446,
      "کساں": 8447,
      "کشا": 8448,
      "گندگا": 8449,
      "ھردیں": 8450,
      "رادگ": 8451,
      "پیشگال": 8452,
      "وانگجاھاں": 8453,
      "لسانی": 8454,
      "غیرہ": 8455,
      "chool": 8456,
      "دھا": 8457,
      "سمیر": 8458,
      "پاھ": 8459,
      "دونوں": 8460,
      "ترتی": 8461,
      "کندگے": 8462,
      "نوشکے": 8463,
      "ple": 8464,
      "قتل": 8465,
      "نکا": 8466,
      "انجی": 8467,
      "بوط": 8468,
      "دوسری": 8469,
      "جیسے": 8470,
      "داریء": 8471,
      "میانجی": 8472,
      "مکتب": 8473,
      "بچے": 8474,
      "حو": 8475,
      "سمب": 8476,
      "صالح": 8477,
      "لٰ": 8478,
      "ایسی": 8479,
      "دوستانی": 8480,
      "سندی": 8481,
      "چنان": 8482,
      "car": 8483,
      "کالم": 8484,
      "جھدے": 8485,
      "رنگانی": 8486,
      "شلوار": 8487,
      "national": 8488,
      "عنہ": 8489,
      "پکی": 8490,
      "درجگ": 8491,
      "ھالو": 8492,
      "میتگانی": 8493,
      "دلیری": 8494,
      "book": 8495,
      "پھازگی": 8496,
      "سیکیور": 8497,
      "قسمت": 8498,
      "بوھان": 8499,
      "سرینت": 8500,
      "ومن": 8501,
      "پیس": 8502,
      "زمانگاں": 8503,
      "اہدہ": 8504,
      "کیلئے": 8505,
      "ھندو": 8506,
      "شرگداریء": 8507,
      "لیو": 8508,
      "ڈیہ": 8509,
      "کلا": 8510,
      "زانتاں": 8511,
      "زانتکاراں": 8512,
      "رئیسی": 8513,
      "ris": 8514,
      "جبری": 8515,
      "رر": 8516,
      "نغ": 8517,
      "گوزی": 8518,
      "دیستگیں": 8519,
      "نیب": 8520,
      "بابو": 8521,
      "کنڈے": 8522,
      "bod": 8523,
      "ہری": 8524,
      "ایراں": 8525,
      "ویش": 8526,
      "مقامی": 8527,
      "رمز": 8528,
      "روء": 8529,
      "افراد": 8530,
      "rote": 8531,
      "شومیں": 8532,
      "چیلنج": 8533,
      "گندے": 8534,
      "stral": 8535,
      "light": 8536,
      "six": 8537,
      "تاہیر": 8538,
      "تتک": 8539,
      "ين": 8540,
      "ھرابی": 8541,
      "ارینگ": 8542,
      "قیامت": 8543,
      "ڈولا": 8544,
      "افسانہ": 8545,
      "بچی": 8546,
      "لگیت": 8547,
      "ہڈ": 8548,
      "کنک": 8549,
      "قریب": 8550,
      "سیکیورٹی": 8551,
      "Eu": 8552,
      "اوکیں": 8553,
      "زادہ": 8554,
      "بارء": 8555,
      "ہدایت": 8556,
      "support": 8557,
      "field": 8558,
      "بلوچانء": 8559,
      "کاریز": 8560,
      "معنائی": 8561,
      "جاگہاں": 8562,
      "کمرہ": 8563,
      "جعفر": 8564,
      "بودلئیر": 8565,
      "تراکناکیں": 8566,
      "رش": 8567,
      "ائیگ": 8568,
      "گندی": 8569,
      "لیکہانی": 8570,
      "مھلوکء": 8571,
      "Ju": 8572,
      "تمنی": 8573,
      "برگیڈ": 8574,
      "گپتہ": 8575,
      "زانگی": 8576,
      "نوکر": 8577,
      "برواں": 8578,
      "باھند": 8579,
      "Col": 8580,
      "خمار": 8581,
      "ارسانی": 8582,
      "group": 8583,
      "داخلہ": 8584,
      "ather": 8585,
      "ورلڈ": 8586,
      "وانین": 8587,
      "اقتص": 8588,
      "iver": 8589,
      "کپی": 8590,
      "around": 8591,
      "top": 8592,
      "ured": 8593,
      "مڑدم": 8594,
      "ext": 8595,
      "Fe": 8596,
      "تکی": 8597,
      "جاتے": 8598,
      "فین": 8599,
      "قاع": 8600,
      "بندن": 8601,
      "اتکیں": 8602,
      "دہک": 8603,
      "بالگرد": 8604,
      "ھورانی": 8605,
      "واھگاں": 8606,
      "تحقیق": 8607,
      "پوچ": 8608,
      "ision": 8609,
      "گامے": 8610,
      "نرمیں": 8611,
      "بوں": 8612,
      "لوق": 8613,
      "کسا": 8614,
      "شاء": 8615,
      "شیرکنیں": 8616,
      "انفارمیشن": 8617,
      "However": 8618,
      "Pl": 8619,
      "vent": 8620,
      "تازی": 8621,
      "سیاھی": 8622,
      "چارگا": 8623,
      "ارشاد": 8624,
      "مروارد": 8625,
      "یہی": 8626,
      "درگی": 8627,
      "ھندء": 8628,
      "اسکولء": 8629,
      "dom": 8630,
      "sol": 8631,
      "گٹی": 8632,
      "گشند": 8633,
      "پلنگ": 8634,
      "گناھیں": 8635,
      "پائپ": 8636,
      "ءرا": 8637,
      "طوف": 8638,
      "کاریانی": 8639,
      "mark": 8640,
      "کپتیں": 8641,
      "دمگے": 8642,
      "ڈولء": 8643,
      "چنڈی": 8644,
      "سسی": 8645,
      "لیاقت": 8646,
      "گپان": 8647,
      "پروری": 8648,
      "پیداوار": 8649,
      "مکی": 8650,
      "سرمگ": 8651,
      "چیدگی": 8652,
      "اگہی": 8653,
      "کولی": 8654,
      "علاوہ": 8655,
      "نری": 8656,
      "prote": 8657,
      "کمانڈر": 8658,
      "پجارینگ": 8659,
      "نگہ": 8660,
      "ادمانی": 8661,
      "جنے": 8662,
      "شاتکامی": 8663,
      "north": 8664,
      "ءے": 8665,
      "ڑھ": 8666,
      "فلم": 8667,
      "تبیں": 8668,
      "رابطہ": 8669,
      "کشتگیں": 8670,
      "زرداری": 8671,
      "consid": 8672,
      "character": 8673,
      "جێڑ": 8674,
      "جتہ": 8675,
      "سدی": 8676,
      "ٹوی": 8677,
      "منصور": 8678,
      "ھمگام": 8679,
      "رویہ": 8680,
      "ترینتگ": 8681,
      "attack": 8682,
      "لھم": 8683,
      "اپانی": 8684,
      "سوچگ": 8685,
      "زامات": 8686,
      "تنکہ": 8687,
      "ریکانی": 8688,
      "یکت": 8689,
      "بنداتء": 8690,
      "ساوڑ": 8691,
      "اگبالانی": 8692,
      "ہاس": 8693,
      "بہادری": 8694,
      "ابان": 8695,
      "گلا": 8696,
      "ales": 8697,
      "حرف": 8698,
      "بیگواھیانی": 8699,
      "برتگیں": 8700,
      "ٹیو": 8701,
      "ھوٹ": 8702,
      "سینگار": 8703,
      "tember": 8704,
      "September": 8705,
      "will": 8706,
      "وارڈ": 8707,
      "روبرکتی": 8708,
      "continu": 8709,
      "small": 8710,
      "ھمساھگ": 8711,
      "حدائی": 8712,
      "get": 8713,
      "لپ": 8714,
      "درانی": 8715,
      "بلوچیں": 8716,
      "نامانی": 8717,
      "بنیاتی": 8718,
      "مھتر": 8719,
      "لهتے": 8720,
      "موسمانی": 8721,
      "Bl": 8722,
      "صائ": 8723,
      "دیوکیں": 8724,
      "پوشی": 8725,
      "ڈیپارٹمنٹ": 8726,
      "شرم": 8727,
      "واراں": 8728,
      "قوام": 8729,
      "روگن": 8730,
      "جنزء": 8731,
      "position": 8732,
      "کز": 8733,
      "گنا": 8734,
      "الحق": 8735,
      "rest": 8736,
      "محسوس": 8737,
      "پھناتاں": 8738,
      "تق": 8739,
      "عقی": 8740,
      "قہر": 8741,
      "گپی": 8742,
      "مہتل": 8743,
      "تھنائی": 8744,
      "گہہ": 8745,
      "ناگت": 8746,
      "بلۆچانی": 8747,
      "following": 8748,
      "اقتصادی": 8749,
      "لگور": 8750,
      "بچکندے": 8751,
      "بالگتر": 8752,
      "اقوام": 8753,
      "خور": 8754,
      "لگا": 8755,
      "گداں": 8756,
      "باراں": 8757,
      "بوہگء": 8758,
      "رودی": 8759,
      "اپیں": 8760,
      "نبشتانکانی": 8761,
      "گردان": 8762,
      "ground": 8763,
      "اناگت": 8764,
      "World": 8765,
      "oth": 8766,
      "خراب": 8767,
      "عص": 8768,
      "انشپی": 8769,
      "گردی": 8770,
      "الکاپیں": 8771,
      "US": 8772,
      "سدو": 8773,
      "ٹم": 8774,
      "وانگا": 8775,
      "وسیں": 8776,
      "گاه": 8777,
      "عبدالواحد": 8778,
      "نسیب": 8779,
      "جلوہ": 8780,
      "fun": 8781,
      "کہہ": 8782,
      "مرداں": 8783,
      "لوٹی": 8784,
      "استت": 8785,
      "stud": 8786,
      "اوشتیت": 8787,
      "ڈولداریں": 8788,
      "دروازگء": 8789,
      "پکیر": 8790,
      "کارئے": 8791,
      "گشگء": 8792,
      "ادارہاں": 8793,
      "قانونی": 8794,
      "contro": 8795,
      "Austral": 8796,
      "سیں": 8797,
      "گھن": 8798,
      "سیف": 8799,
      "ابانی": 8800,
      "چارگی": 8801,
      "دوستدار": 8802,
      "دمگء": 8803,
      "سرک": 8804,
      "ina": 8805,
      "کورے": 8806,
      "very": 8807,
      "سفرء": 8808,
      "دئیگا": 8809,
      "وغیرہ": 8810,
      "منڈ": 8811,
      "مردک": 8812,
      "کنانء": 8813,
      "بھشت": 8814,
      "ہزدار": 8815,
      "ھھ": 8816,
      "کنر": 8817,
      "ریکو": 8818,
      "برانی": 8819,
      "گپتار": 8820,
      "پورہ": 8821,
      "گواتے": 8822,
      "ڈائریکٹر": 8823,
      "lish": 8824,
      "طل": 8825,
      "ولا": 8826,
      "وتیگ": 8827,
      "شیری": 8828,
      "معنہ": 8829,
      "پژدرء": 8830,
      "جاپان": 8831,
      "درصد": 8832,
      "مرکء": 8833,
      "ستکگیں": 8834,
      "درہیں": 8835,
      "چیخوف": 8836,
      "گالرد": 8837,
      "عمرء": 8838,
      "دلجمیں": 8839,
      "اژدری": 8840,
      "ivers": 8841,
      "requ": 8842,
      "معیار": 8843,
      "وشیاں": 8844,
      "Her": 8845,
      "رشتگ": 8846,
      "سرئے": 8847,
      "کشکء": 8848,
      "ural": 8849,
      "ھورت": 8850,
      "مقبول": 8851,
      "five": 8852,
      "لکی": 8853,
      "کاش": 8854,
      "نیار": 8855,
      "یکش": 8856,
      "برگء": 8857,
      "اوری": 8858,
      "اسمی": 8859,
      "بحری": 8860,
      "کسہاں": 8861,
      "زوراور": 8862,
      "تہرے": 8863,
      "stand": 8864,
      "گوئشان": 8865,
      "اثرات": 8866,
      "ماحول": 8867,
      "سمار": 8868,
      "نعرہ": 8869,
      "قاعدہ": 8870,
      "ional": 8871,
      "ساہت": 8872,
      "مشرقی": 8873,
      "نکت": 8874,
      "ریسرچ": 8875,
      "اساں": 8876,
      "اسکے": 8877,
      "پہلی": 8878,
      "میرء": 8879,
      "دژمناں": 8880,
      "result": 8881,
      "بروبری": 8882,
      "پشدر": 8883,
      "aim": 8884,
      "tit": 8885,
      "خاموش": 8886,
      "بیچ": 8887,
      "ایڈو": 8888,
      "یکم": 8889,
      "بوک": 8890,
      "سبق": 8891,
      "حبیب": 8892,
      "شرا": 8893,
      "ردانکی": 8894,
      "روایر": 8895,
      "لوڈ": 8896,
      "جنوکیں": 8897,
      "قومے": 8898,
      "باوری": 8899,
      "پیغام": 8900,
      "bers": 8901,
      "ٹائی": 8902,
      "انفرا": 8903,
      "میریں": 8904,
      "وکر": 8905,
      "تاکء": 8906,
      "دھک": 8907,
      "صورتء": 8908,
      "ہمینچو": 8909,
      "زبرد": 8910,
      "atter": 8911,
      "کورونا": 8912,
      "track": 8913,
      "ھدایت": 8914,
      "اسلوب": 8915,
      "gy": 8916,
      "بداریت": 8917,
      "سرداری": 8918,
      "پدرد": 8919,
      "سھرا": 8920,
      "حکومتی": 8921,
      "نامگ": 8922,
      "گارء": 8923,
      "سیاه": 8924,
      "miss": 8925,
      "راپ": 8926,
      "وکائی": 8927,
      "سروکانی": 8928,
      "ague": 8929,
      "لزت": 8930,
      "بمبے": 8931,
      "ctor": 8932,
      "pon": 8933,
      "چمی": 8934,
      "یکمی": 8935,
      "جنگول": 8936,
      "نشتگاں": 8937,
      "def": 8938,
      "what": 8939,
      "ھرابیں": 8940,
      "پوریاگ": 8941,
      "سپاھیگ": 8942,
      "رسینت": 8943,
      "پیغمبر": 8944,
      "name": 8945,
      "فط": 8946,
      "رھبندے": 8947,
      "تعلقداری": 8948,
      "چتگ": 8949,
      "کف": 8950,
      "سرگرمی": 8951,
      "رومن": 8952,
      "داروک": 8953,
      "کوں": 8954,
      "مونجا": 8955,
      "گوانزگ": 8956,
      "علامت": 8957,
      "cording": 8958,
      "ترسناکیں": 8959,
      "bre": 8960,
      "سجہ": 8961,
      "ھج": 8962,
      "ھیلی": 8963,
      "دپا": 8964,
      "زہگانی": 8965,
      "نورء": 8966,
      "سپاہ": 8967,
      "Me": 8968,
      "زورگر": 8969,
      "ism": 8970,
      "لشکرکشی": 8971,
      "نادل": 8972,
      "لیکہی": 8973,
      "aged": 8974,
      "ہاران": 8975,
      "North": 8976,
      "اجتماعی": 8977,
      "Gu": 8978,
      "لطیف": 8979,
      "راباد": 8980,
      "اجبیں": 8981,
      "چریشیء": 8982,
      "عجبیں": 8983,
      "دوس": 8984,
      "کلک": 8985,
      "تیراں": 8986,
      "رھشوناں": 8987,
      "مکمل": 8988,
      "Fran": 8989,
      "ضیا": 8990,
      "کئو": 8991,
      "ابراہ": 8992,
      "report": 8993,
      "جتاھیں": 8994,
      "اصول": 8995,
      "ایرانشھر": 8996,
      "ھبرء": 8997,
      "مبارکیء": 8998,
      "ھمنکس": 8999,
      "تاھی": 9000,
      "پہاز": 9001,
      "اؤں": 9002,
      "پورسز": 9003,
      "ٹیکس": 9004,
      "gun": 9005,
      "ڈیلہ": 9006,
      "ٹپیگ": 9007,
      "قومء": 9008,
      "ھمگرنچیں": 9009,
      "نٹی": 9010,
      "راضی": 9011,
      "سلاھانی": 9012,
      "باؤ": 9013,
      "برادری": 9014,
      "ired": 9015,
      "دنیایے": 9016,
      "شاھد": 9017,
      "لٰہ": 9018,
      "ئول": 9019,
      "تض": 9020,
      "لیس": 9021,
      "پدمنتگ": 9022,
      "کلکشان": 9023,
      "لاشار": 9024,
      "ریچگ": 9025,
      "Wil": 9026,
      "چشین": 9027,
      "دگاں": 9028,
      "گورن": 9029,
      "بخاری": 9030,
      "cr": 9031,
      "cut": 9032,
      "یڪ": 9033,
      "سرت": 9034,
      "ملکت": 9035,
      "گشیں": 9036,
      "تالی": 9037,
      "لق": 9038,
      "یادا": 9039,
      "ناگی": 9040,
      "زورگیر": 9041,
      "لوزانی": 9042,
      "اتحاد": 9043,
      "اصطلاح": 9044,
      "سبارگ": 9045,
      "پبلی": 9046,
      "بیہار": 9047,
      "رودراتک": 9048,
      "زوربیگواہیں": 9049,
      "ھانل": 9050,
      "سہیل": 9051,
      "ملافاضل": 9052,
      "خدمت": 9053,
      "تپر": 9054,
      "زادگ": 9055,
      "وزار": 9056,
      "کپو": 9057,
      "بندان": 9058,
      "ملٹ": 9059,
      "ony": 9060,
      "زانا": 9061,
      "ارزانیں": 9062,
      "prom": 9063,
      "چائ": 9064,
      "کانء": 9065,
      "پجاروکی": 9066,
      "گراناز": 9067,
      "اوشتاتگیں": 9068,
      "تجربگ": 9069,
      "played": 9070,
      "June": 9071,
      "مانگی": 9072,
      "سلیں": 9073,
      "کسہء": 9074,
      "allow": 9075,
      "cour": 9076,
      "tal": 9077,
      "تعری": 9078,
      "مارے": 9079,
      "ساچیں": 9080,
      "چدا": 9081,
      "لیلو": 9082,
      "ترجم": 9083,
      "ask": 9084,
      "دراھ": 9085,
      "سارتر": 9086,
      "نشتہ": 9087,
      "ھسابء": 9088,
      "انتظام": 9089,
      "وعدہ": 9090,
      "یکشلیں": 9091,
      "week": 9092,
      "ھروھد": 9093,
      "govern": 9094,
      "گنی": 9095,
      "واڑ": 9096,
      "ڈیھی": 9097,
      "متل": 9098,
      "ابراہیم": 9099,
      "late": 9100,
      "بڑے": 9101,
      "کتر": 9102,
      "زیند": 9103,
      "زرانی": 9104,
      "ages": 9105,
      "ham": 9106,
      "تگاں": 9107,
      "نگار": 9108,
      "نشتاں": 9109,
      "ئشتر": 9110,
      "کدیم": 9111,
      "ورزی": 9112,
      "نیاز": 9113,
      "درشت": 9114,
      "دوہمی": 9115,
      "oman": 9116,
      "بها": 9117,
      "عملء": 9118,
      "بختاور": 9119,
      "کوارٹر": 9120,
      "اربی": 9121,
      "گندان": 9122,
      "Oc": 9123,
      "پیتی": 9124,
      "بوتوں": 9125,
      "مہکمیں": 9126,
      "ویژن": 9127,
      "افسوس": 9128,
      "ختم": 9129,
      "care": 9130,
      "ys": 9131,
      "روژنا": 9132,
      "ینانی": 9133,
      "اولاد": 9134,
      "رہبندانی": 9135,
      "افیسر": 9136,
      "هلاس": 9137,
      "کیمرہ": 9138,
      "گلباگ": 9139,
      "رژنائیں": 9140,
      "اوباد": 9141,
      "اسن": 9142,
      "روگا": 9143,
      "وانان": 9144,
      "چاگی": 9145,
      "کردہ": 9146,
      "ادین": 9147,
      "سھریں": 9148,
      "final": 9149,
      "vision": 9150,
      "طریقہ": 9151,
      "مدرسہ": 9152,
      "Man": 9153,
      "cast": 9154,
      "بشک": 9155,
      "عالی": 9156,
      "سرون": 9157,
      "ورگی": 9158,
      "چمء": 9159,
      "مچھ": 9160,
      "کث": 9161,
      "داؤ": 9162,
      "سالا": 9163,
      "گساں": 9164,
      "Jan": 9165,
      "رشتہ": 9166,
      "منان": 9167,
      "کرمان": 9168,
      "مزاری": 9169,
      "شامی": 9170,
      "یلیں": 9171,
      "نوٹ": 9172,
      "زرکاری": 9173,
      "جلدی": 9174,
      "dra": 9175,
      "کہتے": 9176,
      "کیون": 9177,
      "جھلی": 9178,
      "public": 9179,
      "جلسہ": 9180,
      "اشا": 9181,
      "جنگاں": 9182,
      "جتک": 9183,
      "تھیں": 9184,
      "پلک": 9185,
      "رھبنداں": 9186,
      "ately": 9187,
      "تپاسگ": 9188,
      "جذبہ": 9189,
      "گولہ": 9190,
      "کسب": 9191,
      "گرانت": 9192,
      "ناکام": 9193,
      "پاساں": 9194,
      "وانندگیں": 9195,
      "صائمہ": 9196,
      "since": 9197,
      "تجار": 9198,
      "ٹرین": 9199,
      "States": 9200,
      "شموشگ": 9201,
      "Ac": 9202,
      "Cl": 9203,
      "جلگ": 9204,
      "لہتین": 9205,
      "بستہ": 9206,
      "پھریزگ": 9207,
      "دکی": 9208,
      "الرحمان": 9209,
      "شیوار": 9210,
      "لوٹنت": 9211,
      "دہی": 9212,
      "ڈائی": 9213,
      "ھدے": 9214,
      "شیرانی": 9215,
      "ined": 9216,
      "نوع": 9217,
      "پادء": 9218,
      "ime": 9219,
      "اطلا": 9220,
      "گرماگ": 9221,
      "species": 9222,
      "major": 9223,
      "نتگیں": 9224,
      "کیک": 9225,
      "ارجان": 9226,
      "شیہک": 9227,
      "ڈیھاں": 9228,
      "reach": 9229,
      "سکندر": 9230,
      "سادگ": 9231,
      "خاطر": 9232,
      "انلاین": 9233,
      "count": 9234,
      "ling": 9235,
      "ذمت": 9236,
      "چلیم": 9237,
      "ھجال": 9238,
      "بیک": 9239,
      "ained": 9240,
      "یونس": 9241,
      "Mon": 9242,
      "south": 9243,
      "دوزہ": 9244,
      "تراں": 9245,
      "راجدوست": 9246,
      "نیمگی": 9247,
      "بادشاہی": 9248,
      "تنظیم": 9249,
      "received": 9250,
      "تمہ": 9251,
      "مناس": 9252,
      "ہمارے": 9253,
      "ماہین": 9254,
      "South": 9255,
      "نزیر": 9256,
      "داگ": 9257,
      "ھرکسی": 9258,
      "واتری": 9259,
      "بؤ": 9260,
      "اسرے": 9261,
      "عابدہ": 9262,
      "اومر": 9263,
      "کتگء": 9264,
      "child": 9265,
      "app": 9266,
      "کنڈگ": 9267,
      "سیکریٹری": 9268,
      "even": 9269,
      "build": 9270,
      "list": 9271,
      "last": 9272,
      "نخ": 9273,
      "took": 9274,
      "بابل": 9275,
      "اجکہ": 9276,
      "appro": 9277,
      "class": 9278,
      "پیماز": 9279,
      "partic": 9280,
      "اسودگی": 9281,
      "جمپ": 9282,
      "شوم": 9283,
      "مولاب": 9284,
      "رھشونانی": 9285,
      "اغا": 9286,
      "زروان": 9287,
      "ھاوند": 9288,
      "سرچمگ": 9289,
      "برگی": 9290,
      "مران": 9291,
      "کلانی": 9292,
      "گوشتن": 9293,
      "دئیگی": 9294,
      "batt": 9295,
      "won": 9296,
      "صنف": 9297,
      "درنیام": 9298,
      "گیواری": 9299,
      "ڈاکٹرء": 9300,
      "سھیگ": 9301,
      "ڈم": 9302,
      "کات": 9303,
      "دوزو": 9304,
      "منیرء": 9305,
      "گڈسرء": 9306,
      "مضبوط": 9307,
      "ایجنٹ": 9308,
      "just": 9309,
      "عاص": 9310,
      "وسو": 9311,
      "کارہند": 9312,
      "بزرگ": 9313,
      "موج": 9314,
      "استین": 9315,
      "سلاھ": 9316,
      "کھیں": 9317,
      "ility": 9318,
      "رائیلی": 9319,
      "ھبراں": 9320,
      "Christ": 9321,
      "وپسگ": 9322,
      "قمبرانی": 9323,
      "وحید": 9324,
      "رتکگ": 9325,
      "عنق": 9326,
      "ھجبر": 9327,
      "الانی": 9328,
      "شیرء": 9329,
      "مانش": 9330,
      "ماندارگ": 9331,
      "گرنت": 9332,
      "ایتء": 9333,
      "مدد": 9334,
      "star": 9335,
      "ودارء": 9336,
      "بگندات": 9337,
      "نگاری": 9338,
      "اھدی": 9339,
      "وائے": 9340,
      "وڑےء": 9341,
      "کانون": 9342,
      "قیدی": 9343,
      "مستقبل": 9344,
      "ساچگ": 9345,
      "لاشع": 9346,
      "ھاٹیگ": 9347,
      "system": 9348,
      "ہژدری": 9349,
      "تعریف": 9350,
      "وشھال": 9351,
      "جیڑھاں": 9352,
      "تباہی": 9353,
      "تحفظ": 9354,
      "دئیگء": 9355,
      "ئشت": 9356,
      "رمس": 9357,
      "ضا": 9358,
      "یاس": 9359,
      "ملنگ": 9360,
      "ڈگاراں": 9361,
      "کنٹگ": 9362,
      "پمے": 9363,
      "بلاہ": 9364,
      "امداد": 9365,
      "ٹیل": 9366,
      "واریاں": 9367,
      "ڈولداری": 9368,
      "مڈیاں": 9369,
      "ھیروپ": 9370,
      "King": 9371,
      "gre": 9372,
      "دکھ": 9373,
      "الفاظ": 9374,
      "ڈیموک": 9375,
      "organ": 9376,
      "زالم": 9377,
      "بسی": 9378,
      "ork": 9379,
      "ماہیگ": 9380,
      "چھاپء": 9381,
      "wards": 9382,
      "ائولی": 9383,
      "چونائیا": 9384,
      "کدیر": 9385,
      "اؤٹ": 9386,
      "بودشت": 9387,
      "ساک": 9388,
      "ریچی": 9389,
      "اساپ": 9390,
      "اگل": 9391,
      "کسھاں": 9392,
      "جہلانکی": 9393,
      "گوشانی": 9394,
      "روچیگیں": 9395,
      "پروجیکٹ": 9396,
      "ھئی": 9397,
      "کنا": 9398,
      "ایسو": 9399,
      "سربوتگ": 9400,
      "سینز": 9401,
      "ملتان": 9402,
      "oss": 9403,
      "کارندھے": 9404,
      "ویکسین": 9405,
      "ترتیب": 9406,
      "قریش": 9407,
      "ڑاں": 9408,
      "دیرء": 9409,
      "سوڑگ": 9410,
      "مزاج": 9411,
      "زورگری": 9412,
      "راھبندانی": 9413,
      "دیوالانی": 9414,
      "فطرت": 9415,
      "vari": 9416,
      "inc": 9417,
      "کرتاں": 9418,
      "ilt": 9419,
      "described": 9420,
      "Par": 9421,
      "بوه": 9422,
      "مگا": 9423,
      "کمپان": 9424,
      "دوراں": 9425,
      "ہوارانت": 9426,
      "ains": 9427,
      "پیلوی": 9428,
      "world": 9429,
      "named": 9430,
      "town": 9431,
      "band": 9432,
      "تکہ": 9433,
      "تقری": 9434,
      "گوریں": 9435,
      "place": 9436,
      "جئیند": 9437,
      "giv": 9438,
      "هد": 9439,
      "پؤ": 9440,
      "چکار": 9441,
      "باث": 9442,
      "بکشاتگ": 9443,
      "ards": 9444,
      "ھونانی": 9445,
      "کنات": 9446,
      "برنج": 9447,
      "نابود": 9448,
      "زنداناں": 9449,
      "tober": 9450,
      "جاگه": 9451,
      "پھلی": 9452,
      "ہمراہیء": 9453,
      "October": 9454,
      "ثناء": 9455,
      "پبلک": 9456,
      "درکپگ": 9457,
      "بوری": 9458,
      "بوئگء": 9459,
      "سالون": 9460,
      "جمھوری": 9461,
      "ساحل": 9462,
      "جگہ": 9463,
      "گمیگ": 9464,
      "اتکء": 9465,
      "moved": 9466,
      "بحر": 9467,
      "زهر": 9468,
      "سربوت": 9469,
      "سماء": 9470,
      "غیرت": 9471,
      "عب": 9472,
      "پشن": 9473,
      "ھچی": 9474,
      "میوز": 9475,
      "اہمیں": 9476,
      "بارکھان": 9477,
      "مڑاہ": 9478,
      "رائع": 9479,
      "اسودگ": 9480,
      "All": 9481,
      "pri": 9482,
      "تنگی": 9483,
      "نقل": 9484,
      "هاک": 9485,
      "پچی": 9486,
      "ery": 9487,
      "گڈسرا": 9488,
      "واھگے": 9489,
      "ترمپے": 9490,
      "ایڈووکیٹ": 9491,
      "زراب": 9492,
      "سرور": 9493,
      "امیتے": 9494,
      "ازمانکء": 9495,
      "شونکار": 9496,
      "مرکز": 9497,
      "ute": 9498,
      "یدار": 9499,
      "بلوچان": 9500,
      "پرور": 9501,
      "constru": 9502,
      "گردگ": 9503,
      "رستر": 9504,
      "liam": 9505,
      "کنائین": 9506,
      "تاچ": 9507,
      "جدگ": 9508,
      "کاز": 9509,
      "وھدئے": 9510,
      "water": 9511,
      "تبلی": 9512,
      "تخت": 9513,
      "چتو": 9514,
      "ازاب": 9515,
      "گورکی": 9516,
      "ماتاں": 9517,
      "جۆڑ": 9518,
      "incre": 9519,
      "بھائیں": 9520,
      "شھرء": 9521,
      "دوستیگیں": 9522,
      "ابض": 9523,
      "حالاں": 9524,
      "گردش": 9525,
      "ude": 9526,
      "تبد": 9527,
      "جبران": 9528,
      "دزر": 9529,
      "ارک": 9530,
      "اسپیکر": 9531,
      "ترسی": 9532,
      "زالے": 9533,
      "حیالے": 9534,
      "ets": 9535,
      "وٹس": 9536,
      "vious": 9537,
      "باہوٹ": 9538,
      "ropical": 9539,
      "ڈھاڈر": 9540,
      "aur": 9541,
      "عامر": 9542,
      "کدو": 9543,
      "اسلء": 9544,
      "بادشاھی": 9545,
      "لالہ": 9546,
      "ants": 9547,
      "بلین": 9548,
      "دوبارہ": 9549,
      "ھرچیز": 9550,
      "زندگاں": 9551,
      "زورگء": 9552,
      "سنٹر": 9553,
      "شریء": 9554,
      "چنڈے": 9555,
      "kill": 9556,
      "قدم": 9557,
      "نکل": 9558,
      "مانزمان": 9559,
      "زرتگیں": 9560,
      "مھکمی": 9561,
      "مھرنگ": 9562,
      "ھبکہ": 9563,
      "تھیوری": 9564,
      "غماں": 9565,
      "ٹار": 9566,
      "چدو": 9567,
      "ھبدہ": 9568,
      "بیزن": 9569,
      "سینہ": 9570,
      "میاریگ": 9571,
      "عکسے": 9572,
      "ٹکے": 9573,
      "کلاتء": 9574,
      "لشکریانی": 9575,
      "حرام": 9576,
      "فنڈ": 9577,
      "نہہ": 9578,
      "پینگ": 9579,
      "پرتو": 9580,
      "بوته": 9581,
      "حسنی": 9582,
      "نائیں": 9583,
      "بوئگی": 9584,
      "اہتگ": 9585,
      "sequ": 9586,
      "ھمراھداری": 9587,
      "روحانی": 9588,
      "واشک": 9589,
      "گورے": 9590,
      "ماہناز": 9591,
      "شاباش": 9592,
      "wrote": 9593,
      "جوریں": 9594,
      "گوئی": 9595,
      "ایات": 9596,
      "اسرائیلی": 9597,
      "سریگ": 9598,
      "مقد": 9599,
      "ماحولی": 9600,
      "همیش": 9601,
      "اگے": 9602,
      "ارگاہ": 9603,
      "بھرام": 9604,
      "مرادانی": 9605,
      "اؤس": 9606,
      "گرپتار": 9607,
      "York": 9608,
      "پچار": 9609,
      "گزی": 9610,
      "تہنائی": 9611,
      "ہمگرن": 9612,
      "حالء": 9613,
      "راللہ": 9614,
      "طاہر": 9615,
      "وپاد": 9616,
      "انانی": 9617,
      "انگریزاں": 9618,
      "تحریر": 9619,
      "July": 9620,
      "hand": 9621,
      "شدی": 9622,
      "چٹی": 9623,
      "الء": 9624,
      "ایدگرانی": 9625,
      "نیکراہ": 9626,
      "اێر": 9627,
      "Can": 9628,
      "ix": 9629,
      "شرین": 9630,
      "نکس": 9631,
      "نیلیں": 9632,
      "روپ": 9633,
      "تیابد": 9634,
      "جرگہ": 9635,
      "اھوالکارانی": 9636,
      "خش": 9637,
      "صحی": 9638,
      "صغیر": 9639,
      "قاص": 9640,
      "زینت": 9641,
      "پھز": 9642,
      "شاھین": 9643,
      "نجیب": 9644,
      "مطالعہ": 9645,
      "camp": 9646,
      "سخی": 9647,
      "نٹر": 9648,
      "تکلیف": 9649,
      "پارست": 9650,
      "دودمانی": 9651,
      "درپشوکیں": 9652,
      "خرچ": 9653,
      "صلاحی": 9654,
      "پیشرد": 9655,
      "شوهاز": 9656,
      "رجینتگ": 9657,
      "یہودی": 9658,
      "بڑا": 9659,
      "پنچیں": 9660,
      "حالگش": 9661,
      "ماسء": 9662,
      "رکینت": 9663,
      "سف": 9664,
      "بیگہ": 9665,
      "لشکرء": 9666,
      "تکء": 9667,
      "بئیگا": 9668,
      "ارگنائزیشن": 9669,
      "ae": 9670,
      "درملک": 9671,
      "بوانی": 9672,
      "کتی": 9673,
      "ھیات": 9674,
      "نامین": 9675,
      "ہوٹ": 9676,
      "ادیرہ": 9677,
      "لٹری": 9678,
      "منطق": 9679,
      "تھل": 9680,
      "گوشتہ": 9681,
      "due": 9682,
      "جائیکہ": 9683,
      "تسلا": 9684,
      "West": 9685,
      "رتکگیں": 9686,
      "منڈی": 9687,
      "ریلو": 9688,
      "کینگی": 9689,
      "جوزگ": 9690,
      "سلاه": 9691,
      "ats": 9692,
      "گریشگ": 9693,
      "عیسوی": 9694,
      "منظر": 9695,
      "هک": 9696,
      "ایشن": 9697,
      "ored": 9698,
      "بالاں": 9699,
      "بیگی": 9700,
      "مزل": 9701,
      "لشکرے": 9702,
      "ہواں": 9703,
      "مھرانی": 9704,
      "مکرانء": 9705,
      "منشیات": 9706,
      "تیابدپی": 9707,
      "پھی": 9708,
      "بیہ": 9709,
      "بلیک": 9710,
      "ھیالداری": 9711,
      "دمبرتگ": 9712,
      "شاگرد": 9713,
      "کیونکہ": 9714,
      "پکری": 9715,
      "کدہ": 9716,
      "دول": 9717,
      "انسٹی": 9718,
      "پراموش": 9719,
      "rown": 9720,
      "ium": 9721,
      "جغ": 9722,
      "کتار": 9723,
      "گشتن": 9724,
      "During": 9725,
      "much": 9726,
      "سانت": 9727,
      "وتاک": 9728,
      "سیائیں": 9729,
      "کشگا": 9730,
      "گندیم": 9731,
      "راھانی": 9732,
      "علاقے": 9733,
      "بگا": 9734,
      "پیشن": 9735,
      "کاؤ": 9736,
      "مشکلیں": 9737,
      "سوبیں": 9738,
      "بیستمی": 9739,
      "واکاں": 9740,
      "اکہ": 9741,
      "واپس": 9742,
      "پرچ": 9743,
      "گنجائش": 9744,
      "fur": 9745,
      "power": 9746,
      "ممبر": 9747,
      "ماء": 9748,
      "زریں": 9749,
      "مرچیگ": 9750,
      "سرمچارے": 9751,
      "تریاک": 9752,
      "قبرستان": 9753,
      "ایجوکی": 9754,
      "رمزان": 9755,
      "جسد": 9756,
      "درین": 9757,
      "سدک": 9758,
      "ملاقات": 9759,
      "اگرچہ": 9760,
      "Apr": 9761,
      "توجی": 9762,
      "سٹنٹ": 9763,
      "پریاتاں": 9764,
      "مجمو": 9765,
      "single": 9766,
      "نوشتانک": 9767,
      "April": 9768,
      "بگی": 9769,
      "کردیا": 9770,
      "کتاں": 9771,
      "جنگلے": 9772,
      "گڑھ": 9773,
      "هنچو": 9774,
      "بدیاں": 9775,
      "نسیر": 9776,
      "یلو": 9777,
      "امانت": 9778,
      "ادماں": 9779,
      "نورا": 9780,
      "بانء": 9781,
      "چراغ": 9782,
      "نفس": 9783,
      "پشومان": 9784,
      "ٹپانی": 9785,
      "ently": 9786,
      "تبدی": 9787,
      "سلاہاں": 9788,
      "شکایت": 9789,
      "مسام": 9790,
      "تریت": 9791,
      "وڈھ": 9792,
      "گھڑی": 9793,
      "مذھب": 9794,
      "ذہنیت": 9795,
      "hum": 9796,
      "طین": 9797,
      "لوچ": 9798,
      "ڈکشن": 9799,
      "برانت": 9800,
      "برطانی": 9801,
      "اورما": 9802,
      "دپترء": 9803,
      "تلب": 9804,
      "کہولاں": 9805,
      "سجدہ": 9806,
      "hal": 9807,
      "ویں": 9808,
      "گذ": 9809,
      "کہدہ": 9810,
      "ریزی": 9811,
      "سرہال": 9812,
      "رومان": 9813,
      "ons": 9814,
      "ature": 9815,
      "ital": 9816,
      "پارک": 9817,
      "جندے": 9818,
      "چوناھی": 9819,
      "tempt": 9820,
      "مچکدگ": 9821,
      "ically": 9822,
      "نڈا": 9823,
      "death": 9824,
      "مسکیں": 9825,
      "differ": 9826,
      "گمنامیں": 9827,
      "ذرائع": 9828,
      "میرین": 9829,
      "لیپ": 9830,
      "دروشمیں": 9831,
      "نمونگ": 9832,
      "Euro": 9833,
      "رژ": 9834,
      "ظر": 9835,
      "ھدو": 9836,
      "بیثہ": 9837,
      "دارئے": 9838,
      "تولگ": 9839,
      "مردمےء": 9840,
      "پاگواجہ": 9841,
      "اوستا": 9842,
      "order": 9843,
      "بیمناکیں": 9844,
      "شب": 9845,
      "دوستے": 9846,
      "باوجود": 9847,
      "ove": 9848,
      "نن": 9849,
      "دیء": 9850,
      "یکوئی": 9851,
      "نوان": 9852,
      "دومیگ": 9853,
      "ٹوئٹر": 9854,
      "دروگے": 9855,
      "ملاء": 9856,
      "شہرے": 9857,
      "بیڑبرتگ": 9858,
      "نیء": 9859,
      "گنجی": 9860,
      "شئیری": 9861,
      "فوجء": 9862,
      "تجزیہ": 9863,
      "Mc": 9864,
      "زخ": 9865,
      "وشتر": 9866,
      "ہاتر": 9867,
      "کیشنز": 9868,
      "چوہ": 9869,
      "کھڑ": 9870,
      "رؤف": 9871,
      "tra": 9872,
      "انتظامی": 9873,
      "مضمون": 9874,
      "gener": 9875,
      "لوٹائینت": 9876,
      "German": 9877,
      "بدر": 9878,
      "زے": 9879,
      "سخت": 9880,
      "میٹ": 9881,
      "دلجان": 9882,
      "another": 9883,
      "لانگو": 9884,
      "داکٹر": 9885,
      "رچگ": 9886,
      "ships": 9887,
      "ترسگ": 9888,
      "جنکء": 9889,
      "مستیں": 9890,
      "ھورک": 9891,
      "سفرخان": 9892,
      "short": 9893,
      "شاریء": 9894,
      "مخلوق": 9895,
      "included": 9896,
      "وومن": 9897,
      "نانکہ": 9898,
      "ٹکٹ": 9899,
      "ڈء": 9900,
      "شتنت": 9901,
      "موٹل": 9902,
      "arm": 9903,
      "سٹائی": 9904,
      "ادارے": 9905,
      "ement": 9906,
      "رئیسانی": 9907,
      "Sc": 9908,
      "ٹکرء": 9909,
      "حدے": 9910,
      "وج": 9911,
      "ہت": 9912,
      "مونج": 9913,
      "پرویز": 9914,
      "زیرک": 9915,
      "وانوکانی": 9916,
      "اوتھل": 9917,
      "event": 9918,
      "Ste": 9919,
      "ؤنڈ": 9920,
      "اپسوز": 9921,
      "گامی": 9922,
      "سنس": 9923,
      "نتیجہ": 9924,
      "ٹوہیں": 9925,
      "person": 9926,
      "right": 9927,
      "ادے": 9928,
      "چیری": 9929,
      "پرسن": 9930,
      "کماشاں": 9931,
      "گزران": 9932,
      "سینیٹر": 9933,
      "January": 9934,
      "سادہ": 9935,
      "باند": 9936,
      "امنی": 9937,
      "چنگی": 9938,
      "لوٹے": 9939,
      "رنگےء": 9940,
      "مندر": 9941,
      "گڈگ": 9942,
      "estab": 9943,
      "دکانے": 9944,
      "مئیگ": 9945,
      "ٰی": 9946,
      "کہتا": 9947,
      "کارپد": 9948,
      "روض": 9949,
      "ابدی": 9950,
      "دروشماں": 9951,
      "akes": 9952,
      "ناولٹ": 9953,
      "مجیب": 9954,
      "وزارت": 9955,
      "رسو": 9956,
      "امہ": 9957,
      "کرزیت": 9958,
      "بندرء": 9959,
      "شاع": 9960,
      "دانا": 9961,
      "بالکل": 9962,
      "سنگتء": 9963,
      "within": 9964,
      "سامراج": 9965,
      "England": 9966,
      "پچے": 9967,
      "سرپر": 9968,
      "دربی": 9969,
      "کته": 9970,
      "نباں": 9971,
      "ورناھانی": 9972,
      "pect": 9973,
      "ians": 9974,
      "رتک": 9975,
      "غازی": 9976,
      "چارئے": 9977,
      "شناس": 9978,
      "ڈولے": 9979,
      "پرائ": 9980,
      "صنعتی": 9981,
      "sent": 9982,
      "اداری": 9983,
      "ارینت": 9984,
      "جنینء": 9985,
      "دامگ": 9986,
      "سجہیں": 9987,
      "اسری": 9988,
      "اشار": 9989,
      "جنکیں": 9990,
      "left": 9991,
      "وابیں": 9992,
      "نگیگی": 9993,
      "طانوی": 9994,
      "دکتر": 9995,
      "گێشتر": 9996,
      "based": 9997,
      "cas": 9998,
      "ٰن": 9999,
      "ھلو": 10000,
      "زانے": 10001,
      "مسترین": 10002,
      "ردیت": 10003,
      "کمانڈ": 10004,
      "حقیقی": 10005,
      "built": 10006,
      "اندوہ": 10007,
      "ڈیموکری": 10008,
      "fall": 10009,
      "لول": 10010,
      "سوگہ": 10011,
      "ملائی": 10012,
      "قیمتی": 10013,
      "beli": 10014,
      "نامینگ": 10015,
      "ڈسٹر": 10016,
      "ھسن": 10017,
      "اروچ": 10018,
      "انیگیں": 10019,
      "سرفراز": 10020,
      "سلسلہ": 10021,
      "ملامتی": 10022,
      "اونٹ": 10023,
      "اریپیں": 10024,
      "مہار": 10025,
      "claim": 10026,
      "لائک": 10027,
      "Ge": 10028,
      "حشکیں": 10029,
      "کہنگیں": 10030,
      "ایگی": 10031,
      "لوگواجہ": 10032,
      "کسہے": 10033,
      "although": 10034,
      "درستی": 10035,
      "رکھی": 10036,
      "تنیگ": 10037,
      "اسٹال": 10038,
      "وانندگ": 10039,
      "االله": 10040,
      "تشے": 10041,
      "شۆ": 10042,
      "کک": 10043,
      "انگلش": 10044,
      "مہے": 10045,
      "بارہء": 10046,
      "attempt": 10047,
      "داتء": 10048,
      "مریض": 10049,
      "ified": 10050,
      "family": 10051,
      "حامد": 10052,
      "صب": 10053,
      "پڑی": 10054,
      "بوئیں": 10055,
      "نوید": 10056,
      "March": 10057,
      "تبے": 10058,
      "خاب": 10059,
      "چاب": 10060,
      "ڈہ": 10061,
      "وتواجھی": 10062,
      "کرپشن": 10063,
      "ھرجاہ": 10064,
      "بنتء": 10065,
      "نبشتکار": 10066,
      "ورناھاں": 10067,
      "قرن": 10068,
      "خرا": 10069,
      "کارانت": 10070,
      "سیرء": 10071,
      "مردانی": 10072,
      "ناجوڑی": 10073,
      "بنار": 10074,
      "کمکء": 10075,
      "اوژناگ": 10076,
      "اسسٹنٹ": 10077,
      "چارشمبے": 10078,
      "شانیں": 10079,
      "کرتء": 10080,
      "گشتگیں": 10081,
      "شائرانی": 10082,
      "کنوکے": 10083,
      "گنتر": 10084,
      "home": 10085,
      "کمزوری": 10086,
      "دراھگ": 10087,
      "سانمند": 10088,
      "games": 10089,
      "غذ": 10090,
      "بیء": 10091,
      "منئ": 10092,
      "درویش": 10093,
      "برطانوی": 10094,
      "گپا": 10095,
      "استی": 10096,
      "دزاپ": 10097,
      "حالات": 10098,
      "تربتء": 10099,
      "گیشینت": 10100,
      "اسپتال": 10101,
      "حیا": 10102,
      "رکش": 10103,
      "لبر": 10104,
      "مکھیں": 10105,
      "مادر": 10106,
      "third": 10107,
      "یاسین": 10108,
      "مارکسی": 10109,
      "دھلیء": 10110,
      "جنجالے": 10111,
      "que": 10112,
      "شناخت": 10113,
      "رسال": 10114,
      "گدانی": 10115,
      "امب": 10116,
      "پٹگ": 10117,
      "سائل": 10118,
      "کندان": 10119,
      "ense": 10120,
      "درنگاز": 10121,
      "پاز": 10122,
      "نیوی": 10123,
      "لونک": 10124,
      "کپگء": 10125,
      "سوزیں": 10126,
      "زدھمی": 10127,
      "کرشی": 10128,
      "بنپد": 10129,
      "باقاعدہ": 10130,
      "ہوگا": 10131,
      "وسء": 10132,
      "کیفیت": 10133,
      "jo": 10134,
      "ءوتی": 10135,
      "ذاتء": 10136,
      "پشین": 10137,
      "مولا": 10138,
      "شنک": 10139,
      "دورانی": 10140,
      "گورانی": 10141,
      "منزلء": 10142,
      "اسٹیج": 10143,
      "خواتین": 10144,
      "turn": 10145,
      "پئو": 10146,
      "گیراں": 10147,
      "سوشلسٹ": 10148,
      "معیشت": 10149,
      "هوار": 10150,
      "زیار": 10151,
      "رنگا": 10152,
      "best": 10153,
      "گاڑیء": 10154,
      "school": 10155,
      "ٹاہی": 10156,
      "بیگل": 10157,
      "اباز": 10158,
      "لبزپہ": 10159,
      "لیکہے": 10160,
      "dest": 10161,
      "Nove": 10162,
      "ting": 10163,
      "ریھان": 10164,
      "previous": 10165,
      "چانگ": 10166,
      "میک": 10167,
      "بنیں": 10168,
      "پلس": 10169,
      "roy": 10170,
      "دریاور": 10171,
      "دردناکیں": 10172,
      "کیچء": 10173,
      "بێگواه": 10174,
      "ax": 10175,
      "شادء": 10176,
      "وہی": 10177,
      "پھو": 10178,
      "چما": 10179,
[...]
