<pad>	0
<unk>	0
<s>	0
</s>	0
[CLS]	0
[SEP]	0
[MASK]	0
<0x00>	0
<0x01>	0
<0x02>	0
<0x03>	0
<0x04>	0
<0x05>	0
<0x06>	0
<0x07>	0
<0x08>	0
<0x09>	0
<0x0A>	0
<0x0B>	0
<0x0C>	0
<0x0D>	0
<0x0E>	0
<0x0F>	0
<0x10>	0
<0x11>	0
<0x12>	0
<0x13>	0
<0x14>	0
<0x15>	0
<0x16>	0
<0x17>	0
<0x18>	0
<0x19>	0
<0x1A>	0
<0x1B>	0
<0x1C>	0
<0x1D>	0
<0x1E>	0
<0x1F>	0
<0x20>	0
<0x21>	0
<0x22>	0
<0x23>	0
<0x24>	0
<0x25>	0
<0x26>	0
<0x27>	0
<0x28>	0
<0x29>	0
<0x2A>	0
<0x2B>	0
<0x2C>	0
<0x2D>	0
<0x2E>	0
<0x2F>	0
<0x30>	0
<0x31>	0
<0x32>	0
<0x33>	0
<0x34>	0
<0x35>	0
<0x36>	0
<0x37>	0
<0x38>	0
<0x39>	0
<0x3A>	0
<0x3B>	0
<0x3C>	0
<0x3D>	0
<0x3E>	0
<0x3F>	0
<0x40>	0
<0x41>	0
<0x42>	0
<0x43>	0
<0x44>	0
<0x45>	0
<0x46>	0
<0x47>	0
<0x48>	0
<0x49>	0
<0x4A>	0
<0x4B>	0
<0x4C>	0
<0x4D>	0
<0x4E>	0
<0x4F>	0
<0x50>	0
<0x51>	0
<0x52>	0
<0x53>	0
<0x54>	0
<0x55>	0
<0x56>	0
<0x57>	0
<0x58>	0
<0x59>	0
<0x5A>	0
<0x5B>	0
<0x5C>	0
<0x5D>	0
<0x5E>	0
<0x5F>	0
<0x60>	0
<0x61>	0
<0x62>	0
<0x63>	0
<0x64>	0
<0x65>	0
<0x66>	0
<0x67>	0
<0x68>	0
<0x69>	0
<0x6A>	0
<0x6B>	0
<0x6C>	0
<0x6D>	0
<0x6E>	0
<0x6F>	0
<0x70>	0
<0x71>	0
<0x72>	0
<0x73>	0
<0x74>	0
<0x75>	0
<0x76>	0
<0x77>	0
<0x78>	0
<0x79>	0
<0x7A>	0
<0x7B>	0
<0x7C>	0
<0x7D>	0
<0x7E>	0
<0x7F>	0
<0x80>	0
<0x81>	0
<0x82>	0
<0x83>	0
<0x84>	0
<0x85>	0
<0x86>	0
<0x87>	0
<0x88>	0
<0x89>	0
<0x8A>	0
<0x8B>	0
<0x8C>	0
<0x8D>	0
<0x8E>	0
<0x8F>	0
<0x90>	0
<0x91>	0
<0x92>	0
<0x93>	0
<0x94>	0
<0x95>	0
<0x96>	0
<0x97>	0
<0x98>	0
<0x99>	0
<0x9A>	0
<0x9B>	0
<0x9C>	0
<0x9D>	0
<0x9E>	0
<0x9F>	0
<0xA0>	0
<0xA1>	0
<0xA2>	0
<0xA3>	0
<0xA4>	0
<0xA5>	0
<0xA6>	0
<0xA7>	0
<0xA8>	0
<0xA9>	0
<0xAA>	0
<0xAB>	0
<0xAC>	0
<0xAD>	0
<0xAE>	0
<0xAF>	0
<0xB0>	0
<0xB1>	0
<0xB2>	0
<0xB3>	0
<0xB4>	0
<0xB5>	0
<0xB6>	0
<0xB7>	0
<0xB8>	0
<0xB9>	0
<0xBA>	0
<0xBB>	0
<0xBC>	0
<0xBD>	0
<0xBE>	0
<0xBF>	0
<0xC0>	0
<0xC1>	0
<0xC2>	0
<0xC3>	0
<0xC4>	0
<0xC5>	0
<0xC6>	0
<0xC7>	0
<0xC8>	0
<0xC9>	0
<0xCA>	0
<0xCB>	0
<0xCC>	0
<0xCD>	0
<0xCE>	0
<0xCF>	0
<0xD0>	0
<0xD1>	0
<0xD2>	0
<0xD3>	0
<0xD4>	0
<0xD5>	0
<0xD6>	0
<0xD7>	0
<0xD8>	0
<0xD9>	0
<0xDA>	0
<0xDB>	0
<0xDC>	0
<0xDD>	0
<0xDE>	0
<0xDF>	0
<0xE0>	0
<0xE1>	0
<0xE2>	0
<0xE3>	0
<0xE4>	0
<0xE5>	0
<0xE6>	0
<0xE7>	0
<0xE8>	0
<0xE9>	0
<0xEA>	0
<0xEB>	0
<0xEC>	0
<0xED>	0
<0xEE>	0
<0xEF>	0
<0xF0>	0
<0xF1>	0
<0xF2>	0
<0xF3>	0
<0xF4>	0
<0xF5>	0
<0xF6>	0
<0xF7>	0
<0xF8>	0
<0xF9>	0
<0xFA>	0
<0xFB>	0
<0xFC>	0
<0xFD>	0
<0xFE>	0
<0xFF>	0
▁ءَ	-3.01607
▁ءِ	-3.34272
▁ءُ	-3.61415
▁کہ	-4.05492
▁انت	-4.15411
,	-4.30493
▁ء	-4.71729
▁اے	-4.77893
▁ات	-4.88714
▁,	-4.92399
▁نہ	-4.96109
▁وتی	-5.00548
▁چہ	-5.11059
▁۔	-5.21866
▁من	-5.23543
▁یک	-5.29028
▁	-5.2909
▁ائی	-5.29359
▁ا	-5.39186
▁انت۔	-5.40225
▁بیت	-5.43262
▁گوں	-5.48581
▁کنگ	-5.4901
▁بہ	-5.53297
▁پہ	-5.53303
▁و	-5.54519
▁(	-5.60249
▁:	-5.62586
ءِ	-5.68269
انی	-5.77554
▁سر	-5.79638
▁بلوچ	-5.81778
▁بوتگ	-5.8201
ءَ	-5.87974
▁)	-5.89321
یں	-5.90509
▁.	-5.9106
▁the	-5.93958
اں	-5.95915
▁بلے	-5.97675
▁منی	-6.00976
▁ئے	-6.01528
s	-6.02827
۔	-6.03735
▁کنت	-6.08163
▁ھم	-6.10671
▁تو	-6.11627
▁کتگ	-6.12809
▁بوت	-6.14775
ے	-6.16358
ی	-6.1655
▁بیتگ	-6.2081
▁بے	-6.23053
)	-6.23078
▁مردم	-6.2475
▁کن	-6.25208
▁ئ	-6.25653
.	-6.2573
:	-6.25759
▁بلوچستان	-6.27519
▁ما	-6.30254
ءُ	-6.33452
▁تہا	-6.37295
▁تہ	-6.37359
▁ھمے	-6.38416
▁دیم	-6.3868
▁یا	-6.41202
ed	-6.42996
▁"	-6.44063
▁کار	-6.44973
▁بلوچی	-6.45171
▁پد	-6.45409
▁کت	-6.45776
▁مئے	-6.47365
▁دگہ	-6.475
▁گپ	-6.51691
ا	-6.52851
▁ہم	-6.53466
▁’’	-6.54158
▁ات۔	-6.54535
▁وت	-6.58049
▁گڑا	-6.60336
▁تئی	-6.61068
▁روچ	-6.61262
▁سرا	-6.65614
▁of	-6.66533
▁دو	-6.66927
▁دل	-6.67675
▁کے	-6.73196
▁نام	-6.74078
▁رد	-6.74383
▁ایت	-6.76579
▁and	-6.78243
▁جنگ	-6.788
▁بنت	-6.79185
▁کرتگ	-6.79242
▁پدا	-6.79505
▁زبان	-6.80671
▁بیت۔	-6.81066
?	-6.82921
▁ھما	-6.83407
▁باز	-6.84574
▁اگاں	-6.85126
▁گوشتگ	-6.86524
▁را	-6.86539
▁بازیں	-6.86936
‘‘	-6.88557
▁ہما	-6.89835
▁ہمے	-6.89841
▁بی	-6.90383
▁چو	-6.90629
▁ایشی	-6.91015
▁پر	-6.93057
▁سے	-6.9356
▁دست	-6.94099
▁اں	-6.95218
▁لوٹ	-6.9525
▁یے	-6.96142
▁ماں	-6.96296
▁کی	-6.98503
▁in	-6.99323
▁to	-7.00191
▁مردمانی	-7.0246
▁تہءَ	-7.03489
▁مہ	-7.05067
▁نیمگ	-7.05193
▁میں	-7.05531
▁a	-7.0802
▁پاکستانی	-7.08152
▁ایں	-7.08452
▁چے	-7.08971
▁در	-7.10299
▁زند	-7.11887
▁جوڑ	-7.12471
▁ھال	-7.12531
(	-7.13244
▁کرت	-7.13551
▁دومی	-7.13555
▁نبشتہ	-7.14439
▁زانت	-7.15257
▁وھد	-7.16508
▁مزنیں	-7.16577
▁اور	-7.1697
▁ترا	-7.17331
▁دیگ	-7.17358
▁‘‘	-7.17559
▁پوج	-7.18127
▁واجہ	-7.18392
▁سک	-7.18526
▁نوں	-7.18967
▁که	-7.19485
...	-7.19998
▁دور	-7.20336
▁اس	-7.20993
▁داتگ	-7.23378
▁گل	-7.23443
!	-7.23714
▁پیش	-7.24126
▁دات	-7.2442
▁چار	-7.2529
▁بند	-7.25339
▁رند	-7.25678
▁خان	-7.26167
ہ	-7.28233
▁ہر	-7.28531
ing	-7.29019
▁مردماں	-7.29786
▁کنت۔	-7.30092
▁رنگ	-7.30349
▁گیش	-7.30528
▁ھچ	-7.30531
▁￴	-7.31303
ن	-7.31364
▁=	-7.31581
▁دمگ	-7.31897
▁نوکیں	-7.31943
▁زانگ	-7.32298
▁ایر	-7.32928
▁شنگ	-7.32974
▁شپ	-7.33739
▁سال	-7.3462
▁داں	-7.34658
▁ارش	-7.34783
▁ھر	-7.35797
▁جان	-7.36027
▁گوشت	-7.36742
ء	-7.36937
ئے	-7.3727
▁مارا	-7.37459
▁کنان	-7.37769
▁اللہ	-7.38103
▁کتاب	-7.38316
▁کس	-7.39115
ان	-7.39174
▁جست	-7.39471
▁کا	-7.41405
▁اپ	-7.41475
▁نیست	-7.42563
▁راج	-7.4332
▁بوتگ۔	-7.44003
▁جاہ	-7.4433
▁ہے	-7.45707
▁اوار	-7.46241
▁راہ	-7.46507
▁ایش	-7.46869
▁اش	-7.47016
▁گوش	-7.47271
”	-7.47289
▁میر	-7.4775
▁وش	-7.48522
’’	-7.49235
▁گیشتر	-7.49757
▁ھوار	-7.49928
▁ایانی	-7.49943
y	-7.50024
▁گوشگ	-7.5003
▁سرءَ	-7.50721
▁لوگ	-7.51483
▁دنیا	-7.51511
▁لشکر	-7.51726
▁”	-7.52041
▁کم	-7.53225
▁اتگ	-7.54433
▁توار	-7.54821
▁اوں	-7.55673
▁اولی	-7.56204
▁'	-7.56936
▁کو	-7.57848
▁او	-7.58154
▁وھدے	-7.58249
▁سی	-7.58319
"	-7.58532
▁مان	-7.59604
▁گندگ	-7.60013
▁وڑ	-7.6031
▁گوستگیں	-7.61192
▁بیگواہ	-7.61203
▁“	-7.61274
▁یکے	-7.61516
▁جتگ	-7.62219
▁ائیءِ	-7.62782
▁بزاں	-7.64718
▁چک	-7.65048
▁was	-7.65854
▁بوگ	-7.65878
▁کش	-7.66225
▁دوست	-7.66687
▁گشت	-7.66786
▁وڑیں	-7.6715
▁گشتگ	-7.67943
▁دار	-7.68255
▁بلئے	-7.68457
▁لبزانک	-7.68501
▁بس	-7.68505
ئ	-7.68681
▁پاکستان	-7.68947
▁بلکیں	-7.69198
@	-7.701
▁چیزے	-7.70691
▁برجاہ	-7.70856
▁@	-7.711
▁چم	-7.71467
▁ماہ	-7.71494
▁گون	-7.72777
▁ھست	-7.72851
▁درشان	-7.72863
▁مردمے	-7.72991
▁دیما	-7.73036
▁اچ	-7.73653
▁ابید	-7.74611
▁گ	-7.75208
▁چیز	-7.75323
▁مروچی	-7.75506
▁اتکگ	-7.7557
▁محمد	-7.76049
▁وانگ	-7.76061
▁زور	-7.76131
وں	-7.77042
▁پشت	-7.77107
▁کسے	-7.7767
▁شاعری	-7.77802
▁زمین	-7.79132
▁ائیءَ	-7.79704
▁The	-7.79888
▁چشکہ	-7.79948
▁بیتگیں	-7.79988
▁￵	-7.80382
▁بن	-7.80447
▁ائرا	-7.8047
ت	-7.80694
▁شال	-7.80841
▁منا	-7.80989
▁سرجمیں	-7.81628
▁بندات	-7.82084
▁ازمانک	-7.82145
▁بیران	-7.82353
▁بدل	-7.82586
▁سرپد	-7.82804
▁اتک	-7.82991
▁دنت	-7.83671
▁راجی	-7.83788
▁ملک	-7.8401
▁زھرشانی	-7.84118
▁مدام	-7.84154
▁اتنت	-7.84336
▁سوب	-7.84351
▁مزن	-7.84986
-	-7.85076
▁مات	-7.85289
▁مراد	-7.85374
▁مرچی	-7.85668
▁ڈاکٹر	-7.85717
▁انگت	-7.85737
▁چست	-7.86534
▁کر	-7.86873
▁دارگ	-7.87302
▁ان	-7.87525
▁کناں	-7.87578
▁[...]	-7.87839
▁ھیال	-7.87892
▁بنت۔	-7.8808
▁برے	-7.88086
▁سیاسی	-7.88174
▁انچیں	-7.88241
▁میان	-7.89366
▁انسان	-7.89787
▁ن	-7.90166
▁نے	-7.90331
▁پچ	-7.90738
▁دیوان	-7.90751
▁شر	-7.90805
▁تر	-7.9084
▁پاد	-7.91152
▁واب	-7.91307
▁دی	-7.91308
▁ہچ	-7.91485
▁کپتگ	-7.91774
▁تاں	-7.91937
اے	-7.92135
▁کدی	-7.92144
▁کشگ	-7.92287
▁بوت۔	-7.92486
▁حیال	-7.92749
ly	-7.92785
▁انچو	-7.93392
▁ئیں	-7.93791
▁این	-7.94033
▁بوتگیں	-7.94178
▁پی	-7.95281
▁است	-7.95597
▁ادا	-7.96021
▁کسہ	-7.96043
ین	-7.96411
من	-7.9656
▁مرد	-7.96939
▁کجام	-7.96959
▁رجانک	-7.97351
▁سلاہ	-7.97494
▁شما	-7.97937
▁ایاں	-7.98896
▁پٹ	-7.98941
▁بہر	-7.98991
نگ	-7.99618
▁سبب	-8.00298
▁دروشم	-8.00461
▁شت	-8.00826
▁کمک	-8.01184
▁پت	-8.01302
▁پرچا	-8.01534
▁زر	-8.02005
▁کراچی	-8.02438
▁جتائیں	-8.02631
‘	-8.0359
▁چی	-8.0372
▁جتا	-8.04071
گ	-8.04655
▁جارکش	-8.04803
▁جند	-8.05142
▁پولیس	-8.05245
▁ملا	-8.05708
▁سرجم	-8.05727
▁that	-8.05791
▁گڈا	-8.05878
▁گور	-8.06499
▁as	-8.06591
▁اباد	-8.06636
▁ایشانی	-8.06645
▁چه	-8.06847
▁دپ	-8.06909
▁with	-8.07381
ں	-8.07685
▁on	-8.07691
▁ایوک	-8.08146
▁یل	-8.0841
▁حال	-8.09002
▁گار	-8.09003
▁تران	-8.09585
▁for	-8.09962
▁پنچ	-8.10213
▁گاڑی	-8.10489
▁مرگ	-8.10511
و	-8.10724
▁کجا	-8.10774
▁چاگرد	-8.11111
▁?	-8.11251
▁اجوئی	-8.11369
▁بابت	-8.11581
▁برتگ	-8.12757
▁کتگ۔	-8.13584
▁کیچ	-8.14787
▁بر	-8.14967
▁بیان	-8.1533
▁شھر	-8.15379
▁واستا	-8.15404
▁نزیک	-8.15404
▁پیسر	-8.15414
▁کرتگ۔	-8.15473
▁ایل	-8.15782
▁انسانی	-8.16169
کہ	-8.16301
▁بھر	-8.16739
▁دراھیں	-8.16947
▁کت۔	-8.17258
▁اسر	-8.18033
ک	-8.18289
▁ایک	-8.18616
▁بیگ	-8.18706
▁راست	-8.19475
▁شاہ	-8.19694
▁اتاں	-8.20288
▁زندگ	-8.20306
ائی	-8.20357
▁چیر	-8.20441
▁by	-8.20789
▁پوسٹ	-8.20954
▁کپ	-8.21314
▁وہد	-8.21673
▁جت	-8.21844
▁الم	-8.22033
▁جھد	-8.22105
▁جنین	-8.22129
▁ترس	-8.22409
▁!	-8.22542
▁لیکہ	-8.2266
▁میتگ	-8.2271
▁کارمرز	-8.2293
▁سید	-8.23052
▁زندگی	-8.23431
▁گشگ	-8.23525
▁جن	-8.23679
▁ودی	-8.23959
▁بکن	-8.24035
▁سنگت	-8.24448
▁بیست	-8.24484
▁چریشی	-8.2451
▁is	-8.24697
▁روگ	-8.24916
▁بیا	-8.25176
▁پجار	-8.2523
▁چون	-8.25245
▁راستی	-8.25978
▁اہانی	-8.26003
▁کیت	-8.26201
▁پیم	-8.26202
▁بندیں	-8.26357
▁یات	-8.26705
▁زورانسری	-8.26722
▁ھاتر	-8.26834
▁اود	-8.27195
▁گوادر	-8.27489
▁دوئیں	-8.28034
▁جہد	-8.28037
▁برز	-8.28503
▁￶	-8.28892
▁کسانیں	-8.29005
▁نا	-8.2907
▁چارگ	-8.29163
▁تیرگواری	-8.29581
▁اشی	-8.2971
▁گپت	-8.29735
▁واری	-8.29994
▁مہر	-8.30112
▁نشانگ	-8.30185
▁درد	-8.30628
▁منءَ	-8.30677
▁وڑا	-8.30679
▁شہ	-8.30716
▁کپت	-8.30779
▁ھالانی	-8.31065
▁ایم	-8.31184
▁be	-8.31244
▁ادم	-8.31643
▁مستریں	-8.32219
▁تربت	-8.32422
▁ٹی	-8.32949
▁چوش	-8.33154
▁شریں	-8.33226
▁نشتگ	-8.33302
▁برات	-8.33309
▁وئیل	-8.33373
▁درگت	-8.33802
▁دیست	-8.34035
▁گر	-8.34331
▁وھدیکہ	-8.3443
▁ڈی	-8.34576
▁تاوان	-8.3514
▁ے	-8.35417
▁’	-8.35443
▁گرگ	-8.36033
▁برگ	-8.36037
▁ہیں	-8.36429
▁په	-8.36818
▁جوانیں	-8.37175
▁کساس	-8.37203
▁زمانگ	-8.37418
’	-8.37428
▁بیتگ۔	-8.37575
▁شاعر	-8.37587
“	-8.37595
▁ساری	-8.38082
▁پدر	-8.38641
▁ھند	-8.38916
▁داریت	-8.38925
▁زمہ	-8.39322
▁ارگ	-8.39547
▁تب	-8.39995
▁ورنا	-8.40128
▁علی	-8.40318
▁بلکنا	-8.4078
▁کاری	-8.41078
▁کوہ	-8.41334
▁ہے۔	-8.41354
▁وہدے	-8.41386
▁ملکی	-8.41559
▁؂	-8.41674
▁کنوکیں	-8.41776
▁سرکار	-8.41804
▁نی	-8.42012
▁روان	-8.42621
▁سد	-8.428
▁داد	-8.43277
▁سما	-8.43445
▁کئے	-8.43633
▁یلہ	-8.43882
▁یہ	-8.43963
▁شعر	-8.43995
▁بنی	-8.44588
▁چشیں	-8.44623
▁ار	-8.44665
نت	-8.44921
▁اسلام	-8.44981
▁کارے	-8.45429
▁زاناں	-8.45448
▁جنت	-8.4568
▁چاگردی	-8.46007
▁نبشتانک	-8.46243
▁شتگ	-8.4626
▁زان	-8.46279
▁دیر	-8.46332
▁زرتگ	-8.46442
▁گپتگ	-8.46595
▁چاپ	-8.46636
▁جنک	-8.46771
▁وزیر	-8.46812
▁ناں	-8.47053
▁کتگیں	-8.47108
▁نیم	-8.47158
▁بازار	-8.47339
▁روچے	-8.47472
▁لچہ	-8.47559
▁تک	-8.47596
▁سیادی	-8.47657
▁اد	-8.47687
▁دلگوش	-8.47976
▁ورگ	-8.48127
▁اھانی	-8.48283
▁نوک	-8.4859
▁پول	-8.48637
▁سرمچاراں	-8.49116
▁جی	-8.49397
▁بھی	-8.4943
▁داشت	-8.49571
▁سردار	-8.49876
▁ھبر	-8.49901
▁زندءِ	-8.49942
▁گڈی	-8.49943
▁اردو	-8.5022
ر	-8.50324
▁جیڑہ	-8.50531
▁تھا	-8.50617
▁کرتگیں	-8.50658
▁ایس	-8.50819
▁جاگہ	-8.50929
▁پل	-8.51126
▁ھمک	-8.51192
▁کاروان	-8.51203
▁گران	-8.51285
▁ایت۔	-8.51292
▁from	-8.51603
▁شش	-8.517
▁زہرشانی	-8.52424
▁ٹپی	-8.52456
▁هم	-8.5256
▁نیمگا	-8.5263
▁دگ	-8.52715
▁ھمیش	-8.52882
e	-8.52942
▁لس	-8.53137
▁بوھگ	-8.53272
▁جو	-8.53328
d	-8.5346
▁ایران	-8.5387
۔۔۔	-8.541
▁کھول	-8.54197
▁ھلاپ	-8.54203
▁ایرانی	-8.54269
▁اہاں	-8.5505
▁ھاترا	-8.55072
▁مارشت	-8.55097
▁چماں	-8.5512
▁گمان	-8.55221
م	-8.55428
▁شیر	-8.55841
▁راجدپتر	-8.56495
▁وہ	-8.56495
▁ازم	-8.56574
▁لہتیں	-8.56912
▁گس	-8.57045
▁باریں	-8.57174
▁کنیں	-8.57221
▁بچار	-8.57281
▁اماچ	-8.57395
▁سروک	-8.57598
▁his	-8.57695
▁رس	-8.58307
▁لبز	-8.58473
▁گش	-8.58556
انت	-8.58592
▁دیستگ	-8.58741
▁لوٹیت	-8.58771
▁ھلاس	-8.58916
▁دژمن	-8.5944
▁مھلوک	-8.59484
▁گال	-8.59622
بلے	-8.59641
▁گورا	-8.59821
▁at	-8.59889
▁کرد	-8.59921
▁بنجاھی	-8.60307
ات	-8.60435
▁تا	-8.60438
▁کور	-8.60832
▁وار	-8.61379
▁دئیگ	-8.61656
▁درست	-8.61695
▁پس	-8.62018
▁کل	-8.62113
▁تاک	-8.62242
▁بوان	-8.62325
▁جاور	-8.63186
▁دزگیر	-8.63205
▁ڈن	-8.63562
▁گوات	-8.63714
▁درا	-8.63768
نہ	-8.63994
▁ہوار	-8.64147
▁پنجگور	-8.64247
▁لبزانکی	-8.64295
وتی	-8.64306
▁بار	-8.64372
▁دیمءَ	-8.64508
▁رسول	-8.64735
▁نیام	-8.6481
چہ	-8.65159
▁رو	-8.65192
▁زدگ	-8.65255
▁ایشاں	-8.65306
▁احمد	-8.65592
▁الله	-8.65733
▁دہ	-8.66075
▁کشتگ	-8.66708
▁بیگواھیں	-8.66731
▁بگیری	-8.6697
▁زوت	-8.66971
▁گند	-8.67067
▁کلات	-8.67141
▁یکیں	-8.67469
......	-8.67603
▁پسو	-8.67636
▁بد	-8.67757
▁مال	-8.67862
▁واستہ	-8.6796
ل	-8.6804
▁وھدی	-8.68273
▁باں	-8.68788
▁وتا	-8.68801
▁کمیٹی	-8.68848
▁لٹ	-8.69181
▁کوش	-8.69781
▁ریاست	-8.69895
▁نہیں	-8.69962
▁مہلوک	-8.69999
▁لبریش	-8.70019
▁گپے	-8.70904
▁بلوچانی	-8.7104
▁بو	-8.71065
▁جہل	-8.7125
▁چوں	-8.71289
▁were	-8.71389
▁شہر	-8.714
▁لگ	-8.71686
▁جون	-8.71866
;	-8.71912
▁کوئٹہ	-8.7203
▁بندی	-8.72491
..	-8.73087
▁روچاں	-8.73338
▁کٹ	-8.7341
▁ایدگہ	-8.73494
▁ردءَ	-8.73649
▁بخش	-8.74144
▁کنگی	-8.7419
▁بکنت	-8.74307
▁ساہ	-8.74679
▁المی	-8.74848
▁رنگیں	-8.75004
▁علم	-8.75286
▁it	-8.75653
▁بنجل	-8.7575
▁ساحر	-8.75863
▁پمیشا	-8.76156
▁‘	-8.76414
سگ	-8.76544
▁عمل	-8.76751
▁توک	-8.76763
یک	-8.7677
▁دمگاں	-8.76871
▁وتءَ	-8.76937
▁حکومت	-8.76952
ه	-8.77009
▁کشی	-8.7722
▁نودربر	-8.77442
▁تچک	-8.78019
▁تاکدیم	-8.78172
▁داشتگ	-8.78184
▁زوراکی	-8.78354
▁لاش	-8.78406
▁ناشناسیں	-8.78631
▁زالبول	-8.7864
▁رسانکدر	-8.78647
▁شھید	-8.78666
▁ایف	-8.78724
زورگریں	-8.78752
▁دے	-8.78773
▁کاراں	-8.79007
▁سرکاری	-8.79104
▁دمگی	-8.79134
▁وشی	-8.79591
▁کچ	-8.79603
▁سیاہ	-8.79661
تو	-8.79969
▁اھاں	-8.7999
▁نه	-8.80091
▁زرت	-8.8013
▁عمر	-8.80168
▁سئے	-8.8025
▁ک	-8.80282
▁پیداک	-8.80347
▁ت	-8.80473
▁روکپتی	-8.81008
▁پمیشکا	-8.81018
▁کارانی	-8.81024
▁گچین	-8.81115
▁سیاست	-8.81118
▁فلسفہ	-8.8114
▁جار	-8.81309
▁درستیں	-8.81317
▁چمانی	-8.81463
▁اودا	-8.81672
▁قوم	-8.81675
▁انی	-8.81839
▁بات	-8.8198
▁ازات	-8.82216
▁اشانی	-8.82286
▁استاد	-8.82338
▁مکران	-8.82946
▁وسلم	-8.8309
یا	-8.8329
▁بال	-8.83315
▁چیا	-8.83412
▁ئی	-8.83429
▁""	-8.83472
▁روت	-8.83631
▁کئیت	-8.83866
▁باسک	-8.84146
▁درائیں	-8.84193
ش	-8.84257
▁دانکہ	-8.84746
▁ڈول	-8.85239
▁شمئے	-8.85349
▁ٹک	-8.85485
منی	-8.85503
▁گیر	-8.85511
▁کیا	-8.85539
▁سرپدی	-8.85707
▁مھر	-8.85754
▁شائری	-8.8606
▁گدار	-8.86082
▁ھزار	-8.86111
▁کہول	-8.86337
▁درور	-8.86362
▁بچ	-8.8659
▁زھگ	-8.87162
▁تیر	-8.87379
▁سفر	-8.87384
▁ھدا	-8.87422
▁صاحب	-8.87437
▁بستگ	-8.87557
▁پریس	-8.87583
▁تاریخ	-8.87744
▁پیر	-8.87797
▁دوستی	-8.87921
▁زورگ	-8.87936
▁تہنا	-8.88193
▁ہو	-8.88287
▁پیلو	-8.88397
▁کسی	-8.88434
▁امیت	-8.88464
▁نیمگءَ	-8.88526
▁چیریں	-8.88765
▁چش	-8.89111
▁In	-8.89224
▁مند	-8.89288
▁ئے۔	-8.89413
▁اکیڈمی	-8.89432
▁وشیں	-8.89579
▁he	-8.89744
▁بل	-8.89798
▁شری	-8.90088
▁گیشیں	-8.9019
▁گشیت	-8.90334
ز	-8.90639
بلوچی	-8.90881
▁سنگ	-8.91113
▁ہست	-8.91226
▁an	-8.91232
▁نند	-8.91426
▁واتر	-8.91427
▁ہند	-8.91501
▁شوھاز	-8.91557
▁کننت	-8.91574
▁حق	-8.91643
▁نسبت	-8.91726
▁بزانت	-8.91802
▁دود	-8.91919
پہ	-8.91954
▁پروش	-8.92093
....	-8.9215
▁کسان	-8.92325
▁کنوک	-8.92379
▁ھور	-8.9242
▁ھساب	-8.92604
▁تانکہ	-8.93007
▁ایگ	-8.93344
▁نبشتگ	-8.93485
▁اتنت۔	-8.93797
▁بوئگ	-8.93822
▁واھگ	-8.9383
▁۔۔۔	-8.93926
▁ارمی	-8.94128
▁دین	-8.94354
▁وارت	-8.946
▁حدا	-8.9461
▁بندوک	-8.94861
▁نشان	-8.94896
▁جنان	-8.94962
▁چپ	-8.95312
▁بنا	-8.9539
▁استمانی	-8.95503
س	-8.95569
▁بانک	-8.95765
▁معنا	-8.96095
▁بگٹی	-8.96146
▁مری	-8.96203
▁چونیں	-8.96289
▁مچی	-8.96321
▁حساب	-8.96328
▁had	-8.96548
▁گوازی	-8.96591
▁به	-8.96858
▁چوشیں	-8.97133
▁دیمروئی	-8.97139
▁پگر	-8.97174
▁حبر	-8.97308
▁کنئگ	-8.9741
▁سیمی	-8.9786
▁لاپ	-8.98171
▁بیڑ	-8.9819
▁مانا	-8.98252
▁ہمک	-8.98356
▁ہمیش	-8.98504
▁مار	-8.98529
▁;	-8.98604
▁کنگا	-8.98605
▁ادارہ	-8.9869
▁ادب	-8.98821
▁باروا	-8.99044
▁درستاں	-8.99171
▁پکر	-8.99208
▁ارزشت	-8.99229
▁انچش	-8.99232
▁which	-8.99375
▁مچ	-8.99395
▁قصہ	-8.99481
▁گم	-8.99563
▁چل	-8.99674
▁م	-8.99714
▁دلءَ	-8.99949
▁گپاں	-9.00102
▁ٹولی	-9.00104
▁فاضل	-9.0016
▁مٹ	-9.00189
▁سپر	-9.0029
▁ردا	-9.00312
گوں	-9.00439
▁دم	-9.00466
▁چاران	-9.00597
▁برجم	-9.0063
▁مرتگ	-9.00632
▁ادءَ	-9.00832
▁پارٹی	-9.00916
▁کارمند	-9.01174
▁هما	-9.01175
▁کماش	-9.01494
▁نان	-9.01534
▁کنگءَ	-9.02408
▁سنگتاں	-9.02519
▁دیان	-9.02606
▁ھشت	-9.0266
▁بگر	-9.02819
▁ہی	-9.02871
▁ازمان	-9.03075
▁نندانک	-9.03082
▁گوست	-9.03609
▁اف	-9.03698
▁بیگواہیں	-9.03726
▁کشت	-9.03764
▁بوتیں	-9.04076
▁دنت۔	-9.04077
▁فارسی	-9.04337
▁نامیں	-9.04358
▁نظام	-9.04359
▁ایں۔	-9.04431
t	-9.0463
▁بنیاد	-9.04742
▁ساڑی	-9.05243
▁حمل	-9.05324
▁دستونک	-9.05365
▁گٹ	-9.05461
بہ	-9.05809
▁یکجاہ	-9.05939
▁قاضی	-9.05943
▁دراج	-9.05947
▁تراک	-9.05983
▁بمب	-9.06141
▁جنی	-9.0644
▁شرگداری	-9.06515
▁روک	-9.06802
▁رنگے	-9.06813
▁برت	-9.06889
▁میجر	-9.07029
▁همے	-9.07259
▁ر	-9.07459
▁اھت	-9.0751
▁ہیں۔	-9.07641
▁بئے	-9.07688
▁منت	-9.07794
▁هر	-9.07919
▁کمے	-9.08093
▁وسیلہ	-9.08153
▁دمان	-9.08203
ێں	-9.08312
al	-9.08385
▁دروازگ	-9.08387
▁د	-9.08688
▁میار	-9.08916
▁جھمنند	-9.08992
▁عليه	-9.09301
▁ی	-9.09321
▁جنگی	-9.09329
▁لھتے	-9.09432
▁ال	-9.09514
▁صل	-9.09551
▁کپیت	-9.09558
▁چینل	-9.09843
▁باید	-9.09991
▁غلام	-9.10166
▁وانوک	-9.10254
▁پیدا	-9.10278
▁سلامتی	-9.1032
▁دری	-9.10608
▁حسن	-9.10835
▁ناز	-9.10897
▁رستگ	-9.10999
▁حسین	-9.11102
▁باور	-9.11452
▁سیر	-9.11522
▁نندوک	-9.11607
▁بادشاہ	-9.117
ما	-9.117
▁وڑے	-9.11811
▁بستار	-9.12542
▁دراجیں	-9.12583
▁کرا	-9.12605
▁دراہ	-9.12643
▁ازاتی	-9.12644
▁عکس	-9.1286
▁نشت	-9.13011
▁دات۔	-9.13013
▁مکن	-9.13083
▁ایان	-9.13154
▁داری	-9.13245
▁مں	-9.13881
▁نادراہ	-9.14451
▁ہزار	-9.14565
▁شئیر	-9.14582
▁بیرم	-9.14725
▁موسم	-9.15003
▁رامین	-9.15227
▁ایشیءِ	-9.15369
▁اثر	-9.15577
▁تریں	-9.15681
▁ناکو	-9.15682
▁ھمراہ	-9.15694
▁وتارا	-9.15715
▁لوٹاں	-9.15926
▁بنداتی	-9.1594
▁دریا	-9.16025
▁س	-9.16041
▁نیکہ	-9.16073
▁چاکر	-9.161
▁جاھے	-9.16202
▁are	-9.16338
▁داتگ۔	-9.16575
▁سکیں	-9.16636
▁درچک	-9.16636
▁تیاب	-9.16671
بے	-9.16675
...!	-9.16684
▁منیر	-9.16692
▁انگریزی	-9.16742
▁چین	-9.1677
▁اکس	-9.16965
▁ترندیں	-9.17012
▁کارست	-9.17035
▁گوشیت	-9.17113
▁بونگ	-9.17171
▁ڈیھ	-9.17692
▁ھپت	-9.17713
▁A	-9.17906
▁٭	-9.17916
▁کوٹی	-9.1797
▁19	-9.18158
▁ہ	-9.18208
▁کتہ	-9.18281
▁شک	-9.18368
▁دنیاءِ	-9.18412
▁پوجی	-9.18513
▁یار	-9.18538
▁پرچے	-9.18686
▁سندھ	-9.18709
▁پیما	-9.18732
▁لھتیں	-9.19119
▁امریکہ	-9.19159
▁ساز	-9.19188
▁سوار	-9.19311
▁بندگ	-9.19381
▁یونیورسٹی	-9.19406
▁اپنے	-9.1945
نی	-9.19515
▁اجو	-9.19605
▁بیگاہ	-9.19754
▁بدلی	-9.19978
▁پسہ	-9.20036
▁ندارگ	-9.20246
▁ڈگار	-9.20342
▁منزل	-9.20414
▁مھمد	-9.20429
er	-9.20458
▁دز	-9.20716
▁اندر	-9.20931
▁کرت۔	-9.20955
▁اسکول	-9.20983
▁داتگیں	-9.21186
▁بنکی	-9.21351
د	-9.21461
▁شمبے	-9.21522
▁نادراھی	-9.21689
▁ریاستی	-9.2184
▁مبارک	-9.2197
▁تاب	-9.22173
▁ایشرا	-9.22255
▁بدن	-9.2237
▁دیمروی	-9.22396
▁جہان	-9.22396
▁مالی	-9.22572
▁تکنیک	-9.22578
سر	-9.22629
▁بارو	-9.22648
▁ناول	-9.22699
▁فیصلہ	-9.22717
▁منگ	-9.22743
▁اں۔	-9.2283
▁جاھاں	-9.22935
▁تھنا	-9.22984
▁گام	-9.23091
یت	-9.23116
▁مردے	-9.23243
▁نور	-9.23516
▁کچے	-9.23656
▁بنگپ	-9.23748
▁گوشاں	-9.2379
▁شائر	-9.23932
▁ودار	-9.24011
▁دستاں	-9.24018
▁خدا	-9.24068
▁جنز	-9.24086
▁راستیں	-9.24107
?‘‘	-9.24195
▁اول	-9.24264
▁شاد	-9.24372
▁بندیگ	-9.24439
▁ای	-9.24481
▁پیمیں	-9.24502
▁اودءَ	-9.24998
▁اوشتاتگ	-9.25124
▁گیشتریں	-9.25208
▁مراگش	-9.25275
▁درچ	-9.25331
▁اڈ	-9.25337
▁قومی	-9.25833
▁کاروبار	-9.26023
n	-9.26028
▁فکر	-9.26176
▁تیار	-9.26191
▁اکبر	-9.26211
▁نصیر	-9.26236
▁کلیں	-9.26259
▁ھو	-9.26433
▁نیشنل	-9.2645
▁کاینت	-9.26607
▁وجود	-9.26633
▁پاک	-9.26684
▁جواب	-9.26723
▁بکش	-9.26728
▁جوان	-9.26925
▁انچوش	-9.27145
▁البت	-9.27211
▁جندءِ	-9.27341
▁اگر	-9.27375
▁ارس	-9.275
▁گامگیج	-9.27701
▁ببیت	-9.2775
▁گشئے	-9.2791
▁رھبند	-9.28137
▁داب	-9.28207
▁سوج	-9.28301
▁سائنس	-9.28416
▁شمارا	-9.28725
▁their	-9.2885
▁ھون	-9.28913
▁درشانی	-9.29
th	-9.29042
▁نمدی	-9.29068
▁زرد	-9.29203
▁بالی	-9.29261
▁لہتے	-9.29493
▁بوہگ	-9.29497
▁خیال	-9.29689
▁صورت	-9.29775
بلوچ	-9.29943
▁دئے	-9.30107
▁but	-9.30369
▁شاری	-9.30379
▁اصل	-9.30586
▁برو	-9.30805
▁بست	-9.30821
▁وس	-9.30991
▁کشک	-9.31013
‘‘(	-9.31126
▁not	-9.31127
▁مئی	-9.31148
▁بہا	-9.31225
▁عزت	-9.31298
▁اب	-9.31305
▁کوھنیں	-9.31911
▁گنگ	-9.31981
▁نو	-9.32133
▁تنے	-9.32203
▁first	-9.32207
▁مول	-9.3222
▁وائس	-9.32299
▁......	-9.32367
▁مولانا	-9.32509
▁چیزانی	-9.32593
▁ئیگ	-9.32636
▁کلب	-9.32699
▁کریم	-9.32855
▁شہید	-9.32907
a	-9.33076
▁رسیت	-9.33131
▁نماز	-9.33169
▁پڑ	-9.33227
▁دپتر	-9.33346
▁مستونگ	-9.33556
▁پرس	-9.33585
▁تالان	-9.33613
▁نیست۔	-9.33829
▁سہب	-9.33907
▁ویل	-9.3401
▁اشاں	-9.34178
▁مارچ	-9.34264
▁درشانے	-9.34326
انءِ	-9.34393
▁عطا	-9.34398
▁پاس	-9.346
▁پرچاکہ	-9.34822
ب	-9.34858
ies	-9.34899
▁ارواہ	-9.34992
▁بامن	-9.35211
▁نامداریں	-9.35329
▁زانتکار	-9.35511
▁ماس	-9.35565
▁ایپ	-9.35749
▁باندا	-9.35917
▁پدءَ	-9.35947
ئیں	-9.36181
▁گوستگ	-9.36333
▁چوکہ	-9.3637
▁ھکانی	-9.36371
▁نبیسگ	-9.36542
▁ستک	-9.36569
▁جانی	-9.36657
▁چٹ	-9.36666
▁کنگءِ	-9.36698
▁بگیر	-9.37001
▁امیدگس	-9.37018
▁ارام	-9.37163
▁سرمایہ	-9.37223
▁شے	-9.37261
▁امان	-9.37339
▁وی	-9.37346
▁بوتاں	-9.37467
▁وان	-9.3755
▁کئی	-9.37608
▁ازاد	-9.37673
▁ماہی	-9.37962
▁پیسلہ	-9.37992
▁کمیں	-9.38025
▁تمپ	-9.38147
▁ربیدگ	-9.38261
▁بابتءَ	-9.38296
▁لیب	-9.38317
▁ھمراھی	-9.38526
▁چھاپ	-9.38565
▁ادبی	-9.38812
▁ساچشت	-9.39074
▁عربی	-9.39095
تہ	-9.39097
▁کیس	-9.39101
also	-9.39119
▁or	-9.39133
▁باندات	-9.39139
▁...	-9.39185
▁مدت	-9.39377
▁اھوالانی	-9.39527
▁چاریں	-9.39534
▁سزا	-9.39538
▁روزگار	-9.39698
▁گلام	-9.39727
▁ترقی	-9.39736
▁جھان	-9.39793
▁انکہ	-9.39794
▁ھب	-9.4008
▁ردوم	-9.40125
▁مالیات	-9.40212
▁تها	-9.40213
▁its	-9.40395
▁انکس	-9.40547
▁اھتگ	-9.40568
▁سھب	-9.40594
▁رپورٹ	-9.40952
▁دروگ	-9.40986
▁ونتگ	-9.40993
▁بوتنت	-9.41025
▁یاد	-9.41083
▁ہلاس	-9.41131
▁نامی	-9.41202
▁ھرچ	-9.41263
▁her	-9.41441
▁ائے	-9.41631
▁کردار	-9.41904
▁کپگ	-9.41929
▁کارندہ	-9.42109
▁دراہیں	-9.42138
▁بچک	-9.4225
▁بیگواہی	-9.42281
▁بارت	-9.42323
▁جوانی	-9.42392
▁از	-9.42393
▁تنی	-9.42536
▁جس	-9.42718
▁میل	-9.42833
▁سالی	-9.43224
▁اپنی	-9.4333
▁وارتگ	-9.43518
▁زیر	-9.437
▁غم	-9.43845
▁گیشی	-9.43872
▁پرچہ	-9.43906
▁دیمتر	-9.44054
بلوچستان	-9.44057
▁دشت	-9.44125
▁درمان	-9.44151
▁ہور	-9.44153
▁وھداں	-9.44179
▁جاورانی	-9.4431
▁زانتگ	-9.44408
▁کمو	-9.44603
▁ذات	-9.44723
▁بنگیج	-9.44865
▁سازی	-9.44876
▁پھر	-9.44958
▁ھک	-9.45046
▁نسل	-9.45211
▁جاوراں	-9.45227
▁مثال	-9.45339
▁ندر	-9.4542
غ	-9.45554
▁رست	-9.45724
▁گراں	-9.45787
es	-9.46269
▁چیزاں	-9.46498
▁زبانانی	-9.46549
▁نمبر	-9.46576
▁رھشون	-9.46625
▁اواران	-9.46674
▁have	-9.46724
▁بولان	-9.46859
▁رواں	-9.47433
▁طرح	-9.47468
▁زہگ	-9.47571
▁با	-9.47592
▁شعری	-9.47752
▁وھدءَ	-9.47769
▁لیکن	-9.47905
▁گرم	-9.4803
▁ساھت	-9.48242
▁دیاں	-9.48299
▁زلم	-9.48424
▁سلام	-9.48503
▁کمی	-9.48869
▁رندا	-9.49004
▁ماما	-9.49158
▁ورنایے	-9.49166
ھمے	-9.49324
▁بنشون	-9.49407
▁one	-9.4942
نا	-9.49539
▁مسنگ	-9.49539
▁نزور	-9.49565
▁کچک	-9.49576
▁has	-9.49577
▁مڈی	-9.49691
▁شکار	-9.49704
▁اگں	-9.49707
▁بالاد	-9.49801
▁چراگ	-9.49861
▁ہمراہ	-9.49877
▁اسراتی	-9.50047
▁فار	-9.50067
▁سند	-9.50082
▁He	-9.50172
▁مشکل	-9.50238
کی	-9.50325
st	-9.50418
▁نواب	-9.50419
▁نودربرانی	-9.50593
▁کلدار	-9.5062
▁تلگرام	-9.50646
▁گیس	-9.50659
▁گڈ	-9.50726
▁نئے	-9.50892
▁دلءِ	-9.50912
▁اتءُ	-9.50997
▁بہرے	-9.51013
▁اگست	-9.51082
▁زاھدان	-9.51206
▁نز	-9.51269
ار	-9.51538
▁جنجال	-9.51559
نے	-9.5167
▁ایندگہ	-9.51708
▁دستءَ	-9.51758
▁جوڈ	-9.518
▁گپانی	-9.51849
▁۔اے	-9.51997
▁چوکی	-9.52007
۔۔۔۔	-9.52009
▁پمشکا	-9.52062
▁مزار	-9.52114
▁ور	-9.52138
▁ڈیرہ	-9.52613
▁been	-9.52619
▁دیمی	-9.52628
▁ساھگ	-9.52808
▁two	-9.53101
▁زندمان	-9.53138
▁زندءَ	-9.53141
▁گد	-9.53192
▁ارشانی	-9.53264
▁ھرکس	-9.53291
▁اسے	-9.53317
▁یکشل	-9.53386
واجہ	-9.53432
▁عبداللہ	-9.53522
▁نظر	-9.53539
▁چنچو	-9.53554
▁زوریں	-9.53568
▁نھ	-9.53588
▁جنگل	-9.53641
ێن	-9.53645
▁سیل	-9.53946
▁who	-9.53948
▁بلوچاں	-9.54066
بی	-9.54111
▁اھوالکار	-9.54166
▁تباہ	-9.54258
▁ھواریں	-9.5427
▁کنئے	-9.54276
▁ارمان	-9.54332
▁عشق	-9.54428
▁پرائی	-9.54428
▁روانک	-9.54498
▁اوتی	-9.54541
▁تامر	-9.54607
▁امر	-9.54971
▁بلکہ	-9.54978
▁رسانک	-9.55047
▁سرجمی	-9.55171
▁جیڑگ	-9.55217
▁لئے	-9.55243
▁ارا	-9.55249
▁چنت	-9.5527
▁جنرل	-9.55422
▁ٹکر	-9.55613
▁گشنت	-9.55617
▁واک	-9.5564
▁بزان	-9.55662
▁عرب	-9.55911
▁پری	-9.55939
▁مر	-9.56102
▁گنوک	-9.56386
▁ترند	-9.56458
▁وطن	-9.56493
▁دوشی	-9.56522
▁عقل	-9.56529
▁کسانی	-9.56635
▁درسیں	-9.56737
▁جھانی	-9.56817
▁رواج	-9.56854
▁رندے	-9.56872
▁انتءُ	-9.56889
▁برزی	-9.56904
▁دگه	-9.56977
▁نویس	-9.57266
▁گنداں	-9.57469
▁ب	-9.5747
▁پاھو	-9.57591
▁نصیب	-9.57728
▁گوھرام	-9.57758
▁لاچار	-9.57798
▁I	-9.5788
▁سری	-9.5799
▁شور	-9.58119
▁this	-9.58165
▁منوک	-9.58268
▁اڑ	-9.58329
تئی	-9.58402
کے	-9.58656
▁رہبند	-9.5881
▁منصوبہ	-9.5886
▁چوشکہ	-9.58862
▁هچ	-9.58865
▁مجید	-9.58945
▁دکان	-9.59186
▁تی	-9.5923
▁مرید	-9.59307
▁مست	-9.59333
▁سالاں	-9.59382
▁زہر	-9.59426
▁بیار	-9.59435
▁سگ	-9.59463
▁پتر	-9.59578
▁بالاچ	-9.59686
▁لک	-9.59688
▁زال	-9.59704
▁پرسنز	-9.59705
▁دشتی	-9.59722
▁چرے	-9.59756
▁دزبندی	-9.59785
▁جیڑ	-9.59791
▁پریشان	-9.59841
▁باروءَ	-9.59865
▁مرک	-9.59988
▁گو	-9.60081
▁امام	-9.60122
▁ابادی	-9.60152
▁رنگءَ	-9.60331
▁سور	-9.60392
▁پنجاہ	-9.60489
▁تنگ	-9.60493
▁مہمان	-9.60514
▁تہر	-9.60596
▁نندگ	-9.60651
▁سکین	-9.60769
▁مہمد	-9.60852
▁مینگل	-9.60895
▁بارہ	-9.61026
▁چگل	-9.61144
▁ھنچش	-9.61315
▁نشہ	-9.61345
اگاں	-9.61347
▁اپریشن	-9.61362
▁پمن	-9.61609
▁سامان	-9.61709
▁گوزگ	-9.6186
▁کمشنر	-9.61871
▁ذمہ	-9.61875
▁کوئی	-9.62229
▁سرمچار	-9.62247
▁زرمبشت	-9.62329
▁دعا	-9.62365
▁بئیت	-9.62378
▁دان	-9.62398
▁ساتھ	-9.62644
▁year	-9.62851
▁کارمنداں	-9.6292
▁روس	-9.6293
▁زی	-9.62963
▁بشیر	-9.62998
▁دوھزار	-9.6303
▁جم	-9.63036
▁ایشیءَ	-9.63073
▁رژن	-9.63087
▁رب	-9.63277
▁اخر	-9.63285
▁نومبر	-9.63379
▁حاصل	-9.63529
▁اوشتوک	-9.6357
▁پوہ	-9.63595
▁شرتر	-9.63683
▁ؤ	-9.63769
▁سندھی	-9.63814
..!	-9.63929
▁چیدگ	-9.63957
▁ایمان	-9.64245
▁سہ	-9.64316
▁رحیم	-9.64335
▁شرپ	-9.64544
▁شکل	-9.64676
یے	-9.64711
▁گرانیں	-9.6481
▁پاداں	-9.64855
▁ایمنی	-9.65013
▁براں	-9.65103
▁سنگتانی	-9.65128
▁کتابے	-9.65154
▁جا	-9.65165
▁اوانی	-9.65177
▁تیوگیں	-9.65244
▁نیمگے	-9.65255
▁ہوا	-9.65295
▁زبانے	-9.65375
نت۔	-9.65411
▁لبزانی	-9.65467
▁سوت	-9.65639
▁کاگد	-9.65808
▁غیر	-9.65871
▁کرونا	-9.6589
▁پمیشکہ	-9.65896
▁داستان	-9.65921
▁منند	-9.66038
▁کتابانی	-9.66116
▁ھاشمی	-9.66176
▁چاہ	-9.66207
▁کوہنیں	-9.66441
▁کاروائی	-9.66465
▁شام	-9.6653
▁کالج	-9.66607
▁ازمی	-9.66644
▁اجازت	-9.66673
▁معاشی	-9.66741
▁چیءَ	-9.66748
▁شکر	-9.66935
▁روڈ	-9.66967
▁زھر	-9.66992
▁صدر	-9.67019
▁پسند	-9.67057
▁دوا	-9.67088
▁مدامی	-9.67089
▁روچی	-9.67109
▁مستر	-9.67113
▁ترک	-9.67274
▁قدیر	-9.67305
▁ماڑی	-9.67386
▁تن	-9.67463
▁تیز	-9.67481
▁شان	-9.67485
▁گیدی	-9.67519
▁توکا	-9.67586
▁انگور	-9.67625
▁نوشکی	-9.67675
ری	-9.67682
▁رندءَ	-9.67798
▁کنڈ	-9.67958
▁یاکہ	-9.68078
▁بت	-9.68171
▁فوج	-9.68248
▁گوازینگ	-9.6838
▁ڈنی	-9.68397
▁خبر	-9.6846
▁گوناپ	-9.68542
▁دیوال	-9.68571
▁شمے	-9.68801
▁بلوچستانءِ	-9.68868
▁اشوب	-9.68929
▁موجود	-9.68957
o	-9.68973
کار	-9.68994
▁گرد	-9.69028
▁نیاد	-9.69037
▁ھزدار	-9.69104
▁ترانگ	-9.69285
▁اوشتات	-9.69307
▁تل	-9.69345
▁جنوری	-9.69362
▁حد	-9.69427
▁طاقت	-9.6952
ج	-9.69548
گی	-9.69592
▁گورءَ	-9.69658
▁والا	-9.69662
▁دسمبر	-9.69697
ئی	-9.69741
▁لال	-9.69772
▁بزگ	-9.69841
▁چکاس	-9.69905
▁بید	-9.69921
اناں	-9.69973
▁واہگ	-9.70089
▁دؤر	-9.70119
وکیں	-9.70199
▁مزنین	-9.703
▁ممکن	-9.70325
▁شراب	-9.7039
▁شوہاز	-9.70392
▁کوکار	-9.70429
▁درائینت	-9.70432
▁انوں	-9.70445
▁قلات	-9.70564
▁گناہ	-9.70599
▁امید	-9.70651
▁زبانا	-9.70711
▁دیمپان	-9.70721
▁کمال	-9.7077
▁کنوکاں	-9.70833
▁نود	-9.7097
▁ربیت	-9.70977
▁الس	-9.70998
▁سلیم	-9.70999
▁ورنائیں	-9.71001
▁بتل	-9.71037
▁لیویز	-9.7112
▁جام	-9.71141
▁@,@	-9.71409
▁گیری	-9.71608
▁کنائینگ	-9.71621
▁میڈیا	-9.71625
دو	-9.71652
ھم	-9.71774
▁after	-9.7185
▁امیر	-9.71851
▁شریف	-9.71942
▁نشتگیں	-9.71942
گیں	-9.71954
تگ	-9.72038
▁دزگیری	-9.72101
▁گوشان	-9.72169
▁مذہب	-9.72247
▁قران	-9.72369
▁ادگہ	-9.72484
▁2	-9.72486
▁پسنی	-9.7249
تی	-9.72561
▁اگن	-9.72568
▁ایچ	-9.72633
▁کنٹرول	-9.72769
▁جب	-9.7277
▁فرنٹ	-9.72786
l	-9.72823
▁نودربراں	-9.72889
▁ازمانکانی	-9.73071
▁1	-9.73241
▁بان	-9.73285
▁وہدءَ	-9.73473
▁گلزمین	-9.73549
▁بنجاہی	-9.73561
▁سیت	-9.73827
▁ٹپ	-9.73846
▁دروت	-9.74012
▁ماتی	-9.74192
▁ھلک	-9.74363
▁اکتوبر	-9.74515
▁برکت	-9.74554
▁تیل	-9.74646
▁گری	-9.74686
▁بیگواھی	-9.74823
▁اوگانستان	-9.74884
▁دروگیں	-9.74965
▁زیبائی	-9.75032
▁کپتگیں	-9.75049
▁اواز	-9.75158
▁پمشکہ	-9.75207
▁گپءَ	-9.75209
▁عمران	-9.75364
▁سروکی	-9.75377
▁دیمپانی	-9.75484
▁تپاک	-9.75485
▁سبز	-9.75609
▁شد	-9.75769
▁نپ	-9.75784
▁اسلم	-9.75796
▁اینچو	-9.75825
▁وڑءَ	-9.75826
ال	-9.75937
▁تاج	-9.75993
▁بھا	-9.76023
▁رکینگ	-9.76041
▁کرنے	-9.76131
▁تھی	-9.76203
▁یکجھتی	-9.76264
▁It	-9.76445
▁اورتگ	-9.76467
▁ل	-9.76532
▁بنداں	-9.7671
▁جھل	-9.76773
▁وائی	-9.76776
▁ردی	-9.76782
▁ھاسیں	-9.76797
▁پیمءَ	-9.76805
▁چکانی	-9.76883
▁ادارھانی	-9.76896
▁نشانی	-9.76964
▁ڈولیں	-9.77122
▁لوز	-9.7715
▁ونت	-9.77185
▁کارءَ	-9.77221
▁اھوال	-9.77274
▁بیم	-9.77331
▁('	-9.7735
▁تام	-9.77532
▁بڈ	-9.77542
▁رگ	-9.77707
▁داریں	-9.778
▁ہال	-9.77963
▁لوگءَ	-9.78166
▁ہوئے	-9.78184
▁شون	-9.78191
▁بعد	-9.78198
▁چکاں	-9.78202
ماں	-9.78316
▁کشار	-9.78401
▁بود	-9.78475
▁زوراکیانی	-9.7853
ھ	-9.78603
▁ترندی	-9.78612
▁تئو	-9.78706
▁عہد	-9.78801
▁متلب	-9.78821
مئے	-9.79025
▁other	-9.79063
▁time	-9.79106
▁گچکی	-9.79189
▁ھنکین	-9.79325
▁۔۔	-9.79449
انت۔	-9.79476
▁وا	-9.79482
▁واقعہ	-9.79519
▁حضرت	-9.79582
▁بہت	-9.79614
ہمے	-9.79803
▁اگہ	-9.79973
▁جنیں	-9.80055
▁حاجی	-9.80091
▁چوناھا	-9.80205
▁عالم	-9.80234
▁کج	-9.80533
پ	-9.80561
▁جتاجتائیں	-9.80615
▁نزیکی	-9.80624
▁انگریز	-9.80713
▁کرار	-9.80742
▁دزکپتگ	-9.80753
▁گول	-9.80829
▁مناں	-9.80871
▁into	-9.80903
▁چنکس	-9.80915
▁انت۔۔۔	-9.80951
▁شبین	-9.80989
▁نوشتہ	-9.81155
▁ش	-9.81255
▁ویبجاہ	-9.81291
▁رسم	-9.81314
ٹ	-9.81347
▁چیاکہ	-9.81394
▁روچءَ	-9.81428
▁کننت۔	-9.81435
▁دشتیاری	-9.81443
▁چاراں	-9.8145
▁هست	-9.81476
▁ہرکس	-9.81614
▁راجے	-9.81661
▁مرچاں	-9.81711
▁برجاھیں	-9.81795
▁پنام	-9.81861
▁نزوری	-9.81868
▁لشکری	-9.81868
▁زیارت	-9.81904
▁دامن	-9.8193
▁سہر	-9.82019
▁بدیں	-9.8214
▁مارگ	-9.82184
▁چد	-9.82193
▁سرڈگار	-9.82235
▁بله	-9.82328
اس	-9.82699
▁اتکگیں	-9.82761
▁گہار	-9.82811
▁کناں۔	-9.829
▁کارمرد	-9.83053
▁انہی	-9.83137
▁زبانءِ	-9.8315
▁ہوں	-9.8319
بزاں	-9.83248
▁واجه	-9.83268
▁اوپار	-9.83329
▁بیرانی	-9.8333
▁انگر	-9.83432
▁حقیقت	-9.83459
▁گندیت	-9.83547
▁ایوکیں	-9.83548
▁زندان	-9.83552
▁اسمبلی	-9.83602
▁علاقہ	-9.83613
▁پانزدہ	-9.83625
'	-9.83738
▁صد	-9.83881
ون	-9.83888
▁دشمن	-9.83916
▁روچانی	-9.83957
▁کمپنی	-9.8397
▁واکدار	-9.84067
▁F	-9.84098
▁نیک	-9.84123
▁ج	-9.8421
▁گدان	-9.8425
▁کازی	-9.84293
▁سنگر	-9.84353
دی	-9.84364
▁S	-9.8441
▁کشیت	-9.84411
▁کنوکانی	-9.84457
▁شھدگ	-9.84501
▁زندے	-9.84669
▁مردمان	-9.84687
▁بوتہ	-9.84697
▁براس	-9.84746
▁تہاری	-9.84776
▁حکم	-9.84785
▁ھیل	-9.84804
▁جولائی	-9.8481
▁اتاں۔	-9.84873
▁جل	-9.84973
▁یوسف	-9.84994
▁نرم	-9.85045
▁ایوکءَ	-9.85108
▁اوست	-9.85231
▁استان	-9.85327
▁ہرچی	-9.85346
▁داروکیں	-9.85349
▁کد	-9.8544
▁فروری	-9.85461
▁صنعت	-9.85467
۔۔	-9.85469
▁واحد	-9.85551
▁سول	-9.8557
▁would	-9.85595
▁تہء	-9.85781
▁چنڈ	-9.8588
▁دمانے	-9.85883
▁مھکم	-9.85898
▁وہدیکہ	-9.85942
▁مسیت	-9.85945
▁پرے	-9.85946
▁قبیلہ	-9.85959
▁سائنسی	-9.85985
▁پروفیسر	-9.86023
▁کرنا	-9.86044
▁جنکے	-9.8606
▁کرن	-9.86106
▁ہشت	-9.86113
چو	-9.86127
▁اپریل	-9.86168
▁پ	-9.86292
▁راجانی	-9.86372
▁بانگ	-9.86449
▁مک	-9.86476
▁سبک	-9.86544
▁more	-9.86635
چے	-9.86683
▁کلوہ	-9.86696
▁over	-9.86712
▁ستمبر	-9.86719
▁رسگ	-9.86723
▁پانگس	-9.86813
۔اے	-9.86852
▁لگت	-9.86852
▁بلاھیں	-9.86858
▁انساپ	-9.87014
▁ردانک	-9.87112
دل	-9.8716
▁لوٹوکیں	-9.87228
▁نامءَ	-9.87328
▁تھے	-9.8742
▁کیت۔	-9.87477
▁لڈ	-9.87521
▁مرزی	-9.87586
▁ٹیم	-9.87623
▁ڈک	-9.87683
▁ہاترا	-9.87727
▁بھتام	-9.87737
وت	-9.87759
▁دستی	-9.8794
▁حب	-9.88027
▁شمار	-9.88112
▁مرچیگیں	-9.88239
▁مجلس	-9.88242
▁18	-9.88288
▁کندگ	-9.8829
دومی	-9.88307
▁برجا	-9.88373
می	-9.88426
ےءَ	-9.88445
▁گیوار	-9.8849
▁گیا	-9.88521
تاکدیم	-9.88549
▁تحریک	-9.88739
▁گچینی	-9.88811
▁پیک	-9.88825
▁اسمان	-9.88858
▁یکبرے	-9.88862
▁انت۔اے	-9.88948
▁ملکاں	-9.88978
▁سکی	-9.89038
ڈ	-9.89547
mber	-9.89555
▁نگد	-9.8956
▁کمیشن	-9.89726
▁دینت	-9.89833
ہم	-9.89868
▁خاصیں	-9.89934
▁اشتر	-9.90016
▁بدئے	-9.90034
یہ	-9.9026
▁چکے	-9.90299
▁دوازدہ	-9.90329
▁لکھ	-9.90462
▁بستگیں	-9.90475
▁سسا	-9.9048
گڑا	-9.90497
in	-9.90511
▁شاعرے	-9.90556
!‘‘	-9.90575
▁سیمسر	-9.9067
▁وانگی	-9.90738
▁ادینک	-9.90746
▁پالیسیانی	-9.90747
▁مرز	-9.90753
▁لڑ	-9.90756
▁بدی	-9.90764
▁ز	-9.9077
▁انصاف	-9.90772
▁بک	-9.9081
▁شعرانی	-9.9083
▁3	-9.90869
▁ہونا	-9.90906
▁سالے	-9.90943
r	-9.90991
▁بندش	-9.91008
▁نیٹورک	-9.91265
▁B	-9.91267
▁ھنچیں	-9.91285
▁رنج	-9.91442
▁بگ	-9.91601
▁طور	-9.9169
▁مومن	-9.91794
on	-9.91844
▁فوجی	-9.91893
▁اسلامی	-9.91979
▁اندرءَ	-9.92014
▁گلانی	-9.92042
▁تواری	-9.92057
▁دوستیں	-9.92058
▁تاریخی	-9.92084
▁چیئرمین	-9.92093
▁ماھتاک	-9.92123
▁نزینک	-9.92169
▁موہ	-9.9218
▁کاریت	-9.92257
▁گالوار	-9.92278
▁نئیت	-9.92317
▁کارگس	-9.92346
▁ھاترءَ	-9.9238
▁دائم	-9.92532
▁all	-9.92563
▁نیوز	-9.92614
▁اشکنگ	-9.92661
را	-9.92666
▁ادار	-9.92708
▁قدر	-9.92754
▁دگر	-9.92776
▁ماسٹر	-9.92935
▁برزیں	-9.92943
▁ریل	-9.92953
▁گونڈیں	-9.92967
▁سمی	-9.92971
▁اسپ	-9.92972
▁نویسگ	-9.9303
▁زالبولانی	-9.93104
▁پیریں	-9.93183
▁پارسی	-9.93204
▁استیں	-9.93324
▁مئیں	-9.93443
▁خیر	-9.93461
▁ہرچ	-9.93485
▁نادراہی	-9.93515
▁خاص	-9.93573
▁نگ	-9.93665
▁ساچشتی	-9.93668
▁پادانی	-9.93702
▁گستا	-9.93788
▁بچکند	-9.93839
▁سرکماش	-9.93858
نوکیں	-9.93892
نوں	-9.93932
▁وتن	-9.93939
▁ہکانی	-9.93995
▁پژدر	-9.94105
▁یورپ	-9.94123
▁افغانستان	-9.94155
▁ساجد	-9.943
▁سنگتے	-9.94315
▁رؤگ	-9.94396
▁ھمود	-9.94429
▁امن	-9.9449
▁گنج	-9.94538
▁راز	-9.94587
▁خود	-9.94652
▁جاہے	-9.9467
▁کنیں۔	-9.9479
▁تھا۔	-9.94796
▁لیے	-9.94834
▁دچار	-9.94933
▁مہناز	-9.94989
▁ساپ	-9.94991
▁بینک	-9.95197
▁پہک	-9.95199
▁چہر	-9.95245
▁حیران	-9.95348
▁چادر	-9.95499
▁فائدہ	-9.95565
▁گیپت	-9.95576
▁سان	-9.95624
▁جمالدینی	-9.95653
▁بلیدہ	-9.95757
▁اروس	-9.95823
▁بلک	-9.95849
▁سپت	-9.96009
▁جیئند	-9.96031
▁ایا	-9.96042
▁مل	-9.96055
ion	-9.96063
تر	-9.9607
▁کمالان	-9.96155
ع	-9.96179
▁مردین	-9.96447
▁۔۔۔۔	-9.96464
▁یو	-9.96489
▁کچھ	-9.96501
▁چارت	-9.96525
بیت	-9.9662
▁بیر	-9.96663
▁توامیں	-9.96672
▁دیوانے	-9.96764
▁مطلب	-9.96859
▁براہ	-9.96872
▁واھند	-9.96922
▁سا	-9.96986
▁گشاں	-9.97072
▁٭٭٭	-9.97136
▁ماہتاک	-9.97177
▁پکار	-9.97213
▁معلوم	-9.9728
▁اتیں	-9.97302
▁ھوش	-9.97325
▁اسپیت	-9.97332
▁ھیر	-9.97385
▁اناں	-9.97388
▁گریوگ	-9.97482
▁زئی	-9.97546
▁پاکیں	-9.97625
▁کوشست	-9.97627
▁اسکواڈ	-9.97639
▁she	-9.97675
▁اؤرتگ	-9.97697
▁بور	-9.97709
▁نزاناں	-9.97826
▁چارمی	-9.9785
▁پلہ	-9.98016
▁ھمگرنچ	-9.98098
▁سب	-9.98143
▁بوگءَ	-9.98156
▁یازدہ	-9.98251
▁نزانت	-9.98254
▁شئے	-9.98267
▁نقصان	-9.98302
▁ڈپٹی	-9.9834
▁بام	-9.98392
▁واست	-9.98457
▁بگوش	-9.98599
▁when	-9.98622
▁T	-9.98644
داں	-9.98649
▁کرتے	-9.98661
▁بروت	-9.9871
▁گا	-9.98718
▁ملکانی	-9.98752
ھو	-9.98775
دیم	-9.98841
▁بگش	-9.98902
▁اتگ۔	-9.98942
▁ہبر	-9.98948
▁اورت	-9.98975
se	-9.99005
▁غزل	-9.99128
یءَ	-9.99297
▁گندئے	-9.99357
▁زیان	-9.99362
▁جاہاں	-9.99427
▁ناماں	-9.99475
▁موبائل	-9.99477
یاں	-9.99571
▁کسمانک	-9.99576
▁دوبر	-9.99664
▁سانگ	-9.99686
▁پراہ	-9.99691
یناں	-9.99739
▁لا	-9.99758
▁سوال	-9.9976
▁راه	-9.99833
▁رسانکدراں	-9.99862
▁اسرائیل	-9.99929
وک	-10.0003
▁ھراب	-10.0004
▁ہوٹل	-10.0015
▁دگنیا	-10.0038
▁دروشمے	-10.0043
▁نادراھجاہ	-10.0044
▁ہاشمی	-10.0044
▁پیسرا	-10.0047
▁صفت	-10.0052
▁وقت	-10.006
ف	-10.0062
▁ایراد	-10.0067
▁چارات	-10.007
▁گالبند	-10.0074
اپ	-10.0075
▁چینی	-10.008
▁مذہبی	-10.0081
▁شیخ	-10.0082
▁یکجہتی	-10.0084
▁وڈ	-10.0089
▁بوگی	-10.0092
▁حصہ	-10.0094
▁بج	-10.0101
▁مسلم	-10.0102
▁us	-10.0104
▁دپءَ	-10.0112
▁up	-10.0113
▁الی	-10.0114
▁ارب	-10.0115
▁وانینگ	-10.0115
▁ناصر	-10.0118
▁ئا	-10.0128
▁سیاھیں	-10.0133
▁پھل	-10.0138
در	-10.0143
▁ہپت	-10.0164
▁میری	-10.0165
▁دراتک	-10.0166
▁لوٹت	-10.0184
▁پنجاب	-10.0191
▁زرتگ۔	-10.0195
تا	-10.02
▁گوما	-10.0201
ary	-10.0202
▁most	-10.0218
▁وفا	-10.0225
▁کند	-10.0228
▁درک	-10.0229
▁کانود	-10.0233
▁سوبین	-10.0234
▁سوچ	-10.025
▁ریش	-10.0253
▁دلجم	-10.0256
▁نمیران	-10.0267
▁زیادہ	-10.0269
▁دلجمی	-10.027
▁سگریٹ	-10.0273
▁تنک	-10.0277
▁C	-10.0277
▁دستیگ	-10.0278
▁زانتی	-10.0279
▁صوبہ	-10.0281
during	-10.0283
▁ورناہ	-10.0284
▁عزیز	-10.0285
▁ھشک	-10.0289
▁پوست	-10.029
ائیں	-10.0296
▁ارت	-10.03
▁کورٹ	-10.0302
▁جتگ۔	-10.0305
▁گلاں	-10.0309
▁مقصد	-10.0321
▁دیگر	-10.0333
▁پوشاک	-10.0348
▁انتزامیہ	-10.0351
▁شست	-10.0352
▁لوگانی	-10.0359
▁لوٹیت۔	-10.037
▁تچکیں	-10.0373
▁سارتیں	-10.0388
▁جناں	-10.0388
▁برابر	-10.0389
▁چن	-10.0405
▁game	-10.0407
▁اتگیں	-10.0411
▁نامہ	-10.0422
▁گندگءَ	-10.0423
▁ندکار	-10.0427
▁only	-10.0428
▁احت	-10.043
▁وهد	-10.043
▁زیرگ	-10.0435
▁نیکراھی	-10.0437
▁سوشل	-10.0445
▁سارت	-10.0445
▁بنیادم	-10.0445
▁ٹیکنالوجی	-10.045
▁سبزیں	-10.0451
▁سربوتگیں	-10.0452
▁پرک	-10.0454
▁ہنچو	-10.0463
▁جتائی	-10.0483
▁ہوتا	-10.0484
▁وکیل	-10.0489
▁بیگا	-10.049
پر	-10.0491
▁گوشت۔	-10.0495
▁زندگیں	-10.0513
▁درس	-10.0541
▁ھچبر	-10.0546
▁شرتریں	-10.0546
▁نیں	-10.0551
▁شرف	-10.0556
▁رہشون	-10.0558
▁اسل	-10.0559
▁زباناں	-10.0559
ce	-10.056
▁کول	-10.0563
▁گوم	-10.0564
▁بوہان	-10.0567
▁روایت	-10.0584
▁ھواری	-10.0596
▁میڑ	-10.0597
▁گشے	-10.06
▁جز	-10.0605
▁مسلمان	-10.0621
▁نکش	-10.0626
▁زیبا	-10.0627
▁اہوالکار	-10.0631
▁تاکت	-10.0634
▁راھے	-10.0637
▁باری	-10.0657
▁لین	-10.0661
▁]	-10.0661
▁چ	-10.0667
▁امریکی	-10.068
▁حون	-10.0684
▁کاف	-10.0696
▁زاھر	-10.0697
▁ڈیہہ	-10.0702
▁کام	-10.0711
جی	-10.0715
مہ	-10.0722
▁چند	-10.0726
▁نیت	-10.0733
▁کونسل	-10.0739
▁علاج	-10.0746
▁وهدے	-10.0746
▁شتاں	-10.0748
▁ستا	-10.075
▁گاڑیانی	-10.0751
▁اؤرت	-10.0757
▁بلکن	-10.076
▁ھاک	-10.0762
▁دماغ	-10.0763
▁رضا	-10.0766
▁جندئیگ	-10.0781
▁پا	-10.0781
دار	-10.0784
▁تمام	-10.0786
▁پروشگ	-10.0789
▁صبا	-10.0789
▁داراں	-10.079
▁out	-10.0795
tween	-10.0795
▁ڪہ	-10.0798
▁ھانی	-10.0806
ق	-10.0813
▁کلام	-10.0815
▁جاه	-10.083
▁گوئشت	-10.0832
▁نزیکیں	-10.0836
▁محبت	-10.0847
▁اسی	-10.0849
▁علیہ	-10.0851
▁علمی	-10.0852
▁کلی	-10.0857
▁دزی	-10.0861
▁بئیگ	-10.0867
▁بدار	-10.0871
about	-10.0871
▁نبیس	-10.0872
تگیں	-10.0874
▁ظلم	-10.0878
▁وانگجاہ	-10.0882
▁دگے	-10.0883
▁ھندی	-10.0886
▁ظاہر	-10.0891
▁پرواز	-10.0892
▁ھمدا	-10.0893
▁کتاباں	-10.0895
▁نامے	-10.0898
▁سئیں	-10.0899
▁گواہ	-10.0903
▁ھرچی	-10.0903
▁شپے	-10.0907
▁مگر	-10.0907
▁لیگ	-10.0907
▁دیدگ	-10.0908
▁کوپگ	-10.0916
▁گلہ	-10.0919
▁نیکی	-10.0922
▁پند	-10.0935
▁کینگ	-10.0939
▁him	-10.094
پد	-10.0952
▁اوشت	-10.0956
▁قول	-10.0957
▁حاترا	-10.0957
ے۔	-10.0959
▁لبزانت	-10.0968
▁کوٹ	-10.0975
▁ارشاں	-10.0977
کن	-10.0988
▁کامیاب	-10.1001
▁استمان	-10.1002
▁ضرورت	-10.1002
▁سلامت	-10.1004
▁یاں	-10.1007
▁لیک	-10.1012
▁سالانی	-10.1012
▁مشکے	-10.1014
▁ایوب	-10.1014
▁بوھیر	-10.102
▁گوشئے	-10.103
▁نون	-10.1037
▁باگ	-10.104
▁ساعت	-10.1043
▁پیشی	-10.1052
▁می	-10.1057
▁","	-10.106
!......	-10.1061
▁play	-10.1062
▁ڈیک	-10.1066
▁سرمچارانی	-10.1069
▁باج	-10.1079
▁بکنت۔	-10.1081
▁ثابت	-10.1083
▁حرکت	-10.1087
▁ادارہانی	-10.1089
▁کپان	-10.1089
▁انگتہ	-10.1089
▁again	-10.1098
باز	-10.1104
▁کشندہ	-10.1117
▁بگل	-10.1124
▁ھمائی	-10.1127
▁سلمان	-10.113
▁کبر	-10.1133
▁حلک	-10.1137
▁اھگ	-10.1138
▁ولی	-10.1138
▁three	-10.1148
▁نامدار	-10.1148
▁زار	-10.1148
▁انور	-10.1161
ish	-10.1163
▁ہوش	-10.1164
▁پالیسی	-10.1166
سی	-10.1167
▁پورا	-10.1173
▁ذاتی	-10.1174
▁فکشن	-10.1174
▁داریت۔	-10.1174
▁تچان	-10.1177
▁بلوچے	-10.1194
▁دمک	-10.1195
کا	-10.1203
▁رؤت	-10.1204
▁season	-10.1215
▁نبی	-10.1221
یانی	-10.1223
▁''	-10.1227
▁ورنایانی	-10.1241
▁رھادگ	-10.1249
▁گشت۔	-10.1263
▁گوز	-10.1264
▁m	-10.1264
▁ادمین	-10.1268
▁بنجاہ	-10.1271
▁بکناں	-10.1277
▁عام	-10.1281
▁فضل	-10.1287
▁بیوکیں	-10.1288
▁بران	-10.1299
▁اومان	-10.1306
▁چاردہ	-10.131
▁۔ائی	-10.1311
▁چر	-10.1317
▁چیک	-10.1323
▁زامران	-10.1326
▁ادارھاں	-10.1327
▁گیشینگ	-10.1332
چی	-10.1333
▁گڑ	-10.1335
▁پترت	-10.1338
▁سعید	-10.1345
▁گوک	-10.1347
یگ	-10.135
▁روش	-10.1352
▁تگ	-10.1357
▁On	-10.1358
▁سنچ	-10.1359
او	-10.1359
▁5	-10.136
▁قاسم	-10.136
▁دولت	-10.1363
▁دلیل	-10.137
▁پونز	-10.1375
▁فون	-10.1376
▁راجمان	-10.1377
▁تجربہ	-10.1378
▁سست	-10.138
▁المیں	-10.1382
▁شیئر	-10.1382
▁سسٹم	-10.1384
...?	-10.1385
▁اؤکیں	-10.1386
▁دلبڈی	-10.139
▁اسپیتیں	-10.14
اد	-10.1402
▁وائرس	-10.1406
▁ھندوستان	-10.1409
▁کمبر	-10.1411
کنگ	-10.1413
▁باپاری	-10.1415
▁بجٹ	-10.1418
▁سمجھ	-10.1419
▁ابرم	-10.1421
▁گڈسر	-10.1422
▁than	-10.1422
▁موکل	-10.143
▁زیب	-10.1432
ھما	-10.144
▁ہائی	-10.1442
▁پیچ	-10.1445
▁دودمان	-10.1449
▁جگر	-10.1454
▁تعلیم	-10.1457
▁قرار	-10.1459
▁لانچ	-10.1463
▁پلانی	-10.1471
▁کھ	-10.1475
▁امین	-10.148
▁بئیں	-10.1481
▁ام	-10.1482
▁کردے	-10.1483
▁راجمانی	-10.1488
کو	-10.149
▁دوستین	-10.1491
▁قبر	-10.1492
▁انگہ	-10.1494
▁نظم	-10.1498
▁شاعرانی	-10.1511
i	-10.1512
▁بازینے	-10.1519
▁میدان	-10.152
▁')	-10.1524
▁بہار	-10.1526
▁السی	-10.1528
▁کارمرزی	-10.1545
▁قانون	-10.1546
ھر	-10.1551
▁زیمر	-10.1553
▁تہار	-10.1553
▁رحم	-10.1564
▁اندیم	-10.1573
▁بزگی	-10.1578
▁گی	-10.1584
▁تئ	-10.1585
▁سیاد	-10.1588
▁ردیں	-10.1591
▁باسکاں	-10.1615
▁through	-10.1624
▁جاتا	-10.1624
▁ادینگ	-10.1635
▁زرباری	-10.1635
▁4	-10.1635
▁حاکم	-10.1639
▁زوریت	-10.1645
▁پیرک	-10.1645
اش	-10.1647
▁گالاں	-10.1661
▁غنی	-10.1666
▁جنئگ	-10.1668
▁نبشتگیں	-10.1674
▁کشیں	-10.1678
▁بلد	-10.1682
▁فرق	-10.1684
▁جاگہے	-10.1688
▁حانی	-10.1694
▁سوبمند	-10.1698
▁متاثر	-10.1701
▁پہنات	-10.1703
▁ترکی	-10.1708
▁راشد	-10.1709
▁ریچ	-10.1719
▁انا	-10.1721
▁پش	-10.1733
▁رک	-10.1736
▁منظور	-10.1738
▁later	-10.1741
گوشتگ	-10.1744
▁استال	-10.1771
▁لوگے	-10.1774
▁زبانءَ	-10.1774
able	-10.1776
▁لوگاں	-10.1787
▁صاف	-10.1789
▁رجینگ	-10.1789
▁دیا	-10.1794
▁[	-10.1795
▁ارواح	-10.1796
▁چھ	-10.1803
▁نظریہ	-10.1805
۔۔۔۔۔	-10.1805
▁ھیران	-10.1809
▁سینگ	-10.1811
▁ہندوستان	-10.1813
▁لبزاں	-10.1815
▁رجانکار	-10.1815
▁درامد	-10.1821
▁بز	-10.1821
▁عملی	-10.1822
▁ھستی	-10.1822
▁سار	-10.1828
خ	-10.1828
▁چمشانک	-10.1849
▁چندے	-10.1856
▁while	-10.1857
le	-10.1862
▁نیامءَ	-10.1863
▁لائن	-10.1866
▁باریگ	-10.1879
▁ھردو	-10.1882
▁مے	-10.1891
▁یعنی	-10.1894
▁وڈیں	-10.1903
یءِ	-10.1905
▁سو	-10.1906
▁لازم	-10.1907
▁تاکہ	-10.1909
▁چوک	-10.1913
▁سرے	-10.1919
▁جوش	-10.1925
▁گوھار	-10.1926
▁ائیا	-10.1931
▁تپاس	-10.1932
▁M	-10.1933
▁زوال	-10.1935
▁دینی	-10.1939
▁خاندان	-10.1939
▁درداں	-10.1942
دگہ	-10.1943
▁پور	-10.1947
▁مرت	-10.1947
▁روسی	-10.1948
▁جنوک	-10.1973
▁بگندئے	-10.1981
▁some	-10.1986
▁لج	-10.199
▁کیمپ	-10.199
▁زالبولے	-10.1993
ص	-10.1994
▁گلے	-10.1999
▁کپت۔	-10.201
▁زیات	-10.2014
▁پرواہ	-10.2014
▁گردن	-10.2016
?”	-10.2021
▁اچہ	-10.2024
▁ہندی	-10.2025
▁نیکیں	-10.2031
▁ائید	-10.2032
▁ارزان	-10.2034
▁شعرءِ	-10.2035
▁ڈس	-10.2052
made	-10.2054
▁تاکبند	-10.2055
▁چتور	-10.2058
▁مز	-10.2061
▁پرپٹ	-10.2061
▁زرمبش	-10.2063
▁وانندہ	-10.2069
▁سوگند	-10.2078
▁وزن	-10.2086
▁زانشت	-10.2098
▁گلامی	-10.2099
▁کلاں	-10.21
ترا	-10.2101
▁ربیدگی	-10.2107
▁زہیر	-10.2112
▁لوٹگ	-10.2113
▁حاصیں	-10.2117
▁زیبائیں	-10.212
▁لعل	-10.2129
▁مکسد	-10.2131
▁فقیر	-10.2133
پدا	-10.2134
▁سرء	-10.2137
▁رندی	-10.2143
▁ھار	-10.2157
▁نندوکیں	-10.2158
▁گلگ	-10.2161
▁ساد	-10.2162
▁گراب	-10.2162
▁گوشدارگ	-10.2168
▁ریڈیو	-10.2177
▁ظفر	-10.2177
▁پشتءَ	-10.2179
▁زھیر	-10.2187
▁تم	-10.2188
▁گہگیری	-10.2191
▁گوشنت	-10.2191
▁گواچن	-10.2192
▁اگدہ	-10.2197
▁خاران	-10.2206
▁شت۔	-10.2208
▁دلوت	-10.2209
▁دگرے	-10.2225
▁بوتین	-10.2229
us	-10.2234
▁تچگ	-10.2236
▁تہی	-10.2242
▁مروچیگیں	-10.2251
▁پرشت	-10.2253
”.	-10.2253
▁ھمنچو	-10.2253
▁ازادی	-10.2255
▁ٹاہ	-10.2257
ity	-10.2258
▁پریات	-10.2261
▁گہرام	-10.2266
▁ایشان	-10.2267
▁خانہ	-10.227
▁ایوکا	-10.2278
▁طرف	-10.228
▁صرف	-10.2285
▁ورنائی	-10.2288
▁بری	-10.2296
▁چنگ	-10.2299
انہ	-10.23
▁اتک۔	-10.2303
▁جماعت	-10.2304
▁پندل	-10.2304
▁کمپیوٹر	-10.2309
میں	-10.2319
▁بوئیگ	-10.2324
▁توارے	-10.233
▁گوزان	-10.2339
تاکدیم۔	-10.2341
▁پنت	-10.2356
▁دژمنیں	-10.2357
▁ہمرائی	-10.2357
▁مئیل	-10.2359
▁بنزہ	-10.2362
▁زات	-10.2367
▁دستا	-10.2367
شپ	-10.2374
▁سبی	-10.2376
▁۔من	-10.2382
▁ھنچوش	-10.2383
▁تجربت	-10.2384
▁شاعراں	-10.2392
▁نوزدہ	-10.2392
▁دریگ	-10.2394
ےءِ	-10.2396
▁پروگرام	-10.2396
▁گلیں	-10.2406
▁اسان	-10.2413
▁درشانداب	-10.2417
▁مردمی	-10.2421
بر	-10.2433
▁ساچ	-10.2433
▁روح	-10.2437
▁تہاریں	-10.2445
▁مدتے	-10.2449
▁تہہ	-10.2451
▁چمے	-10.2454
▁کہنیں	-10.2458
▁درچکانی	-10.2458
▁مالک	-10.2466
▁گونڈو	-10.2484
تے	-10.2485
▁ڈیٹا	-10.2489
▁نواز	-10.249
▁ھنچو	-10.249
▁ضلع	-10.2504
▁اتار	-10.2505
ever	-10.2507
▁دریں	-10.2515
▁ھنر	-10.2517
▁لے	-10.2524
▁کوچگ	-10.2525
▁ھان	-10.2527
▁میڈیکل	-10.253
▁چاریت	-10.2548
▁ستر	-10.2549
▁پاگ	-10.2551
▁اسحاق	-10.2552
an	-10.2554
▁کانفرنس	-10.2566
▁قبول	-10.2566
▁اختر	-10.2569
میر	-10.2571
▁اشیءِ	-10.2582
▁ادارگ	-10.2582
▁درگیجگ	-10.2583
ور	-10.2588
▁پدریچ	-10.2589
▁زانتکاری	-10.259
▁کولواہ	-10.2593
▁یونین	-10.2599
▁حقانی	-10.2603
▁مین	-10.2606
▁عابد	-10.2611
▁دیمترا	-10.2612
▁دپی	-10.2612
کنت	-10.2614
▁قدیم	-10.2629
▁جہاں	-10.2634
▁کاروباری	-10.2636
▁رہ	-10.2639
▁کایاں	-10.2639
▁شپاں	-10.2641
▁بجلی	-10.2647
▁پرمان	-10.2647
نبشتانک	-10.2649
▁وران	-10.2652
▁صلی	-10.2654
▁پرشتگ	-10.2665
▁شرگدار	-10.2667
▁امروز	-10.2668
▁ساہگ	-10.267
▁کنغ	-10.2671
▁بندر	-10.2672
▁درملکی	-10.2682
ت۔	-10.2687
▁محمود	-10.269
▁ات۔۔۔	-10.2698
▁ہوئی	-10.27
▁گرمیں	-10.2713
▁سرین	-10.2718
▁جمبر	-10.2724
▁دانک	-10.2727
▁برمش	-10.273
▁واکداراں	-10.274
▁new	-10.274
▁ارشے	-10.2752
▁پناہ	-10.2758
▁شروع	-10.2758
ایاں	-10.2758
▁پاٹی	-10.2761
▁بائد	-10.2763
▁رن	-10.2764
▁شازادگ	-10.2764
▁نویسی	-10.2766
▁راجدپتری	-10.277
▁کارمندانی	-10.2772
▁کلگ	-10.2778
▁where	-10.278
▁غوث	-10.2784
▁جیل	-10.2788
▁ترین	-10.279
such	-10.2792
▁زبہر	-10.2793
▁سرحال	-10.2793
▁ھستیں	-10.28
▁بزگیں	-10.2802
▁ڈیتھ	-10.2802
▁جاری	-10.281
رد	-10.282
▁اہم	-10.2824
ہر	-10.2826
▁کمتر	-10.2828
▁لوٹانی	-10.2838
▁دورءِ	-10.2839
▁ھسپتال	-10.2841
▁استار	-10.2846
▁ناچ	-10.2846
▁جنینے	-10.2849
▁اندری	-10.285
▁دوری	-10.2854
▁میاں	-10.2854
▁اشنا	-10.2858
▁ہمودا	-10.2861
▁ذکر	-10.2862
▁یوکرین	-10.2863
▁them	-10.2866
▁قوت	-10.2868
کت	-10.2872
▁چا	-10.2874
▁چوپ	-10.2881
▁ادیم	-10.2882
▁سود	-10.289
▁قلم	-10.2902
▁دورءَ	-10.2903
▁دیراں	-10.2912
▁کوھانی	-10.2912
▁وجہ	-10.2915
▁چاگردءِ	-10.2919
▁سنی	-10.2921
▁اشک	-10.293
▁دانگ	-10.293
▁number	-10.2936
▁شھدربرجاہ	-10.2943
▁چرائی	-10.2951
ایشی	-10.2956
▁سرھال	-10.2956
............	-10.296
▁انوگیں	-10.2966
▁e	-10.2968
▁مولوی	-10.2968
▁نت	-10.297
▁بینگ	-10.2977
▁سیٹ	-10.2977
▁دنیاءَ	-10.2982
▁دمب	-10.2988
▁ماه	-10.2988
▁بدنت	-10.2991
▁پائدگ	-10.2996
▁پلاں	-10.301
▁نمیرانیں	-10.3015
▁سیم	-10.3024
ي	-10.3025
▁گوانک	-10.3029
▁جاہءَ	-10.3033
جاہ	-10.3041
","	-10.3041
▁کشان	-10.3057
مراد	-10.3061
▁follow	-10.3067
▁سھر	-10.3074
اب	-10.3075
۔بلے	-10.3086
▁گژن	-10.3086
▁خالد	-10.3089
▁ھپتاد	-10.3089
▁زھری	-10.3091
▁ھاران	-10.3092
▁لیاری	-10.3093
▁نیاما	-10.3094
▁کاہ	-10.3098
▁مرتگیں	-10.31
▁زندگانی	-10.3105
▁اہگ	-10.3106
▁سیاھگ	-10.3108
▁This	-10.311
▁ہمدا	-10.3111
▁بازین	-10.3112
▁وتکشی	-10.3126
▁re	-10.3128
▁رم	-10.3134
▁تپاوت	-10.3138
▁چیرا	-10.3147
▁وابانی	-10.315
▁ہچبر	-10.3153
▁ڈرائیور	-10.3163
▁بزدار	-10.3168
▁دستگیر	-10.3171
▁ھمیشی	-10.3178
ھی	-10.3179
▁اشوبی	-10.318
ٹی	-10.319
▁امریکا	-10.3193
▁رندگیری	-10.3204
▁بژن	-10.3211
▁مواد	-10.3216
▁پنچمی	-10.3221
▁film	-10.3222
▁نیل	-10.3226
▁گھار	-10.3229
▁مساپر	-10.3232
▁باوست	-10.3238
▁بنیادی	-10.3241
▁تری	-10.3246
▁موتک	-10.3252
▁سوسائٹی	-10.3255
▁جد	-10.3257
گل	-10.3273
▁being	-10.3276
▁ژا	-10.3278
▁بنیات	-10.3283
▁درسد	-10.3284
▁پازل	-10.329
▁درکپت	-10.3291
▁جنکانی	-10.3292
▁شعور	-10.3299
▁ھشکیں	-10.3299
▁سرزمین	-10.3305
▁تاکدیم۔	-10.3317
▁نوکی	-10.332
ڈاکٹر	-10.3321
▁چینچو	-10.3321
▁بندوکیں	-10.3326
▁ھکم	-10.3326
▁000	-10.333
▁part	-10.3334
▁record	-10.3341
▁ننگ	-10.3346
▁New	-10.3351
▁song	-10.3351
▁یعنے	-10.3359
▁گیگ	-10.337
▁ری	-10.3381
▁before	-10.3383
▁ترجمہ	-10.3405
▁گونڈ	-10.3405
▁انسانءِ	-10.3406
▁شپءَ	-10.3416
▁ابا	-10.3416
▁زیت	-10.3417
▁پشک	-10.3417
▁تپنگ	-10.342
▁وام	-10.3425
▁رہے	-10.3436
▁وانوکاں	-10.344
▁افسر	-10.3446
▁پدی	-10.3447
▁ھبرے	-10.3448
▁تبک	-10.345
▁پہر	-10.3451
▁شئر	-10.3457
دست	-10.3458
▁گالانی	-10.346
▁نسیم	-10.3469
▁ملکے	-10.347
▁کپیت۔	-10.3471
▁de	-10.3473
▁وہداں	-10.3482
▁ابن	-10.3486
ائے	-10.3488
▁موت	-10.3488
▁ھوٹل	-10.3494
▁ف	-10.3499
▁ہان	-10.35
▁ازار	-10.3501
▁واکدارانی	-10.3506
▁جاگہہ	-10.3507
▁گنوکی	-10.3516
▁مارشتانی	-10.3516
▁مروچاں	-10.3516
▁برپ	-10.352
▁حمید	-10.3524
gan	-10.353
▁چکچینی	-10.3531
▁چول	-10.3532
▁راھبند	-10.3535
▁استعمال	-10.3537
چ	-10.3537
▁ہوتی	-10.3537
▁لندن	-10.3554
▁چارگءَ	-10.3556
▁دائمی	-10.3557
▁بالا	-10.3559
▁ایرانءِ	-10.3568
▁سن	-10.3568
▁یونانی	-10.3587
▁second	-10.359
▁under	-10.36
▁عباس	-10.3601
تریں	-10.363
▁دراں	-10.3633
▁نبیت	-10.3665
▁زد	-10.3668
▁اخلاقی	-10.3686
▁معاملہ	-10.3686
▁دلے	-10.3694
▁al	-10.3694
▁توان	-10.3697
▁دنیگا	-10.37
▁پرشتگیں	-10.3713
▁درکانودی	-10.3714
▁ازمانکے	-10.3718
▁چاچ	-10.3724
▁نزوریں	-10.3737
▁سراوان	-10.3738
▁جہانی	-10.3743
▁هبر	-10.3747
▁رہا	-10.375
▁گوازینتگ	-10.3755
▁چات	-10.3758
▁اختیار	-10.376
▁work	-10.3762
▁وانگءَ	-10.3764
ٰ	-10.377
▁لاہور	-10.3779
▁دوچ	-10.3781
▁خلاف	-10.3783
▁سیکورٹی	-10.3785
▁الدین	-10.3792
▁اقبال	-10.3801
▁جنزان	-10.3808
▁جنجالانی	-10.381
▁مجبور	-10.3818
▁end	-10.3819
▁واہند	-10.3823
گا	-10.3827
land	-10.3827
▁وہدی	-10.383
▁وپت	-10.3833
▁کرتا	-10.3844
▁ادمی	-10.3845
▁ڈکال	-10.385
▁ہار	-10.3851
▁درانگازی	-10.3852
دہ	-10.3854
▁روچگ	-10.3856
▁فیض	-10.386
▁can	-10.386
▁حکیم	-10.3864
▁وابے	-10.3869
▁نگاہ	-10.3873
▁تاھیر	-10.3877
ملا	-10.3882
▁مود	-10.3884
▁اشکتگ	-10.3884
▁گۆں	-10.3894
ح	-10.3895
▁پوش	-10.3898
▁call	-10.39
▁بزور	-10.3909
▁گپتگیں	-10.391
سک	-10.3919
▁وسی	-10.3924
▁گشان	-10.3926
▁سیاہیں	-10.3929
▁اھد	-10.393
▁صدی	-10.3931
▁پما	-10.3931
▁نیاں	-10.3934
▁توسیپ	-10.3935
▁لمب	-10.3936
▁مہرانی	-10.3953
بن	-10.3953
▁انسانے	-10.3954
▁نال	-10.3958
ام	-10.397
▁چپی	-10.3974
بلئے	-10.3979
▁اہمد	-10.398
▁ھ	-10.3989
▁بھرے	-10.3989
▁تنقید	-10.3991
▁رسیت۔	-10.3995
▁سرشون	-10.3996
▁عدالت	-10.4
کس	-10.4004
S	-10.4004
▁کارءُ	-10.4008
▁سریں	-10.4012
▁دیدگاں	-10.4017
▁الاج	-10.4019
▁ہمگرنچ	-10.4021
ic	-10.4029
▁وثی	-10.4029
▁حیات	-10.4035
en	-10.4036
▁انکار	-10.4039
سید	-10.4039
▁نازک	-10.4042
▁چونائی	-10.4042
▁روگی	-10.4043
▁نوکین	-10.4045
▁بابا	-10.4046
▁جستے	-10.4046
▁دن	-10.405
▁لنٹ	-10.4053
▁قادر	-10.4055
اور	-10.4057
جان	-10.4059
▁سلیمان	-10.4061
▁رمضان	-10.4068
▁دگرانی	-10.4068
▁مارشتاں	-10.4069
▁گپت۔	-10.4087
▁منافع	-10.4093
▁صوبائی	-10.4094
▁کریمہ	-10.4105
▁سواریں	-10.4113
▁نهانت	-10.4119
▁گماں	-10.4124
▁جنت۔	-10.4128
▁زاہر	-10.4133
▁high	-10.4133
▁هال	-10.4139
▁large	-10.4142
▁اسماعیل	-10.4148
▁کسءَ	-10.415
▁پولی	-10.4157
▁بوتگنت	-10.416
▁نثار	-10.4161
▁area	-10.417
▁گھر	-10.4174
▁حبرے	-10.4184
▁there	-10.4185
▁مبارکی	-10.4193
▁وئیلاں	-10.4194
▁گپءُ	-10.4194
▁album	-10.4195
▁سعودی	-10.4202
▁حالت	-10.4207
▁ڈالر	-10.4207
مان	-10.4208
▁زیمل	-10.422
▁پشی	-10.4225
▁series	-10.4227
▁نوکری	-10.4227
▁جرم	-10.4238
▁روژنائی	-10.424
▁تمن	-10.4242
ڑ	-10.4242
▁زھگانی	-10.4245
▁چوٹ	-10.4252
▁تعلق	-10.4253
▁لبزانکءِ	-10.4258
▁زمستان	-10.4259
▁زوراک	-10.4261
▁شاھی	-10.4269
▁مکہ	-10.4276
▁no	-10.4278
▁جستانی	-10.4278
▁کلاس	-10.4282
▁ایوکی	-10.4282
▁گزر	-10.4283
▁ترمپ	-10.4284
▁زمانگءَ	-10.4287
▁خالق	-10.4293
▁اشارہ	-10.43
▁قبائلی	-10.4305
▁کلاک	-10.4307
▁جنگءَ	-10.4314
▁ہلک	-10.4319
▁رودراتکی	-10.4321
▁دا	-10.4324
▁جانسلامتی	-10.4325
بند	-10.4327
▁کنے	-10.4331
▁سببءَ	-10.4332
▁کپوت	-10.4334
▁وتگڑیں	-10.4337
▁دلی	-10.4339
▁حمزہ	-10.4341
▁کوشش	-10.4345
▁عیب	-10.4351
▁دگانی	-10.4353
▁کارمندے	-10.4353
▁پار	-10.4356
▁بیل	-10.4357
▁دنز	-10.4361
نگیں	-10.4362
▁مسافر	-10.4362
لی	-10.4363
▁سوبمندی	-10.4363
▁ابرمی	-10.4369
نام	-10.4373
▁کتیں	-10.4373
▁دراتکگ	-10.4377
▁توپک	-10.4377
مردم	-10.4378
▁D	-10.4379
▁شوربندی	-10.4381
▁عطاشاد	-10.4383
▁شھری	-10.4389
▁6	-10.4394
▁جتگیں	-10.4394
▁ہمراہی	-10.4396
▁نودربرے	-10.4404
بلکیں	-10.4404
▁اولس	-10.4406
▁جیہند	-10.441
▁گندیں	-10.441
▁کرتنت	-10.4416
▁بازی	-10.4418
▁احساس	-10.4419
▁نیمون	-10.4425
ھاں	-10.4426
▁راگ	-10.4426
▁درکار	-10.4428
▁ھمودا	-10.4432
بیا	-10.4433
▁کستریں	-10.4435
▁عیسیٰ	-10.4435
▁پشتی	-10.4437
▁برانز	-10.4453
▁وشبو	-10.4454
▁عظیم	-10.4455
▁پولکاری	-10.4455
▁both	-10.4463
▁انقلاب	-10.4465
..?	-10.4468
▁چمان	-10.447
▁ھزاراں	-10.4473
▁ملامت	-10.4477
▁ممتاز	-10.4483
▁جت۔	-10.4484
▁نیٹ	-10.4484
▁گلاب	-10.449
▁چاگردءَ	-10.4498
▁چاگردے	-10.4502
out	-10.4505
▁گریب	-10.451
▁حیالانی	-10.4511
وش	-10.4517
est	-10.4517
▁تور	-10.4518
▁نبشتانکے	-10.4521
▁روگءَ	-10.4522
▁ووٹ	-10.4522
▁اسٹوڈنٹس	-10.4526
▁قبضہ	-10.4528
▁گئی	-10.4533
▁مارکیٹ	-10.4539
کیں	-10.4545
▁پلاٹ	-10.4547
▁درانگاز	-10.4548
گر	-10.455
▁اتکگ۔	-10.4553
زبان	-10.4556
▁جائے	-10.4556
▁میزان	-10.4556
▁ٹال	-10.4557
▁بیبگر	-10.4559
▁والے	-10.4562
▁includ	-10.4562
▁درجہ	-10.4563
▁دربرگ	-10.4575
▁شار	-10.4575
▁روکیں	-10.4577
▁برداشت	-10.4579
▁مزاحمت	-10.458
▁جاوید	-10.4582
.....	-10.4583
▁راکٹ	-10.4584
▁کوھی	-10.459
▁لفظ	-10.4601
▁شانک	-10.4605
بازیں	-10.4609
▁خون	-10.4614
شت	-10.4617
▁کساسے	-10.4618
▁سہی	-10.4619
▁سارتی	-10.462
▁اوان	-10.4621
بس	-10.4621
▁دوچار	-10.4621
▁N	-10.4622
▁ناہ	-10.4624
▁ھپتگ	-10.4627
▁لوگءِ	-10.4629
▁عید	-10.4631
▁استحکام	-10.4634
▁ہیال	-10.4635
▁بندیت	-10.4644
▁درچکے	-10.4648
▁فرانس	-10.4655
▁ڈکھ	-10.4659
▁show	-10.4667
▁دیریں	-10.4667
▁کوھن	-10.4668
▁ہنچیں	-10.4669
▁form	-10.4672
▁ڈل	-10.4678
▁صابر	-10.4678
▁فارم	-10.4681
▁ضروری	-10.4698
came	-10.4702
▁زنگ	-10.4706
?......	-10.4709
▁گلزار	-10.471
▁گوراں	-10.471
▁سرد	-10.471
▁سمندر	-10.4734
▁حراب	-10.4736
▁بیرک	-10.4739
▁بحث	-10.4742
▁کست	-10.4743
▁then	-10.4748
▁اعظم	-10.4749
’’(	-10.4753
▁پریں	-10.4756
▁بدے	-10.4761
▁تچ	-10.4762
▁تهنا	-10.4766
▁ناگمان	-10.4772
▁روچءِ	-10.4774
▁ازمکار	-10.4778
▁well	-10.4784
▁کشکے	-10.4786
▁بندانی	-10.4808
▁زمان	-10.4811
▁رژنائی	-10.4812
▁بریں	-10.4812
▁تصور	-10.4819
روچ	-10.4821
▁پچیں	-10.4824
ھے	-10.4831
▁پیری	-10.4832
▁ھوں	-10.4836
▁known	-10.4841
▁بزانکہ	-10.4841
▁ھنداں	-10.4847
▁حوالہ	-10.4847
▁episode	-10.4848
▁گۆن	-10.4856
▁موومنٹ	-10.4856
▁سمو	-10.4856
▁جسم	-10.4856
▁پاکستانءِ	-10.4858
ائیءَ	-10.4859
▁کپتگ۔	-10.4861
▁قرض	-10.4865
▁R	-10.4866
▁قسم	-10.4868
وا	-10.4874
▁As	-10.4875
خان	-10.4891
▁بارے	-10.4891
▁زری	-10.4892
▁like	-10.4897
▁پن	-10.4898
▁اماچیں	-10.4898
!!	-10.4902
▁دمگانی	-10.4902
▁کھولانی	-10.4904
▁گاریں	-10.4905
▁زالبولاں	-10.4908
▁ناکہ	-10.4912
▁ریک	-10.4915
▁ھاکم	-10.4917
▁داران	-10.4921
▁واھگانی	-10.4924
um	-10.4929
▁چیرءَ	-10.4932
▁چاڑ	-10.4933
ات۔	-10.4937
▁۔بلے	-10.4939
▁بنگلہ	-10.494
▁فدا	-10.4944
؂	-10.4945
▁گھگیری	-10.4945
▁اپی	-10.4948
▁نیمگاں	-10.495
▁مشہور	-10.4957
▁جیڑھانی	-10.496
▁گچینکاری	-10.4969
▁زورگیریں	-10.4969
▁اینڈ	-10.497
▁تیاری	-10.4972
▁بدلیاں	-10.4972
▁ہنر	-10.4973
▁اناگہ	-10.4975
سے	-10.498
▁جمعہ	-10.4984
▁نیا	-10.4987
▁اوگان	-10.4988
▁سہرا	-10.499
▁جهد	-10.4991
▁اواں	-10.4993
▁گواری	-10.5008
▁مسئلہ	-10.5011
▁باسکانی	-10.5012
▁یکوارے	-10.5015
▁سمین	-10.5018
▁ابراھیم	-10.5021
▁بادینی	-10.5021
پیش	-10.5023
▁مادن	-10.5025
▁پروم	-10.5029
▁سراں	-10.5029
▁جزبگ	-10.5048
▁دیدار	-10.5049
▁ند	-10.505
▁گشتانک	-10.5052
▁تھے۔	-10.5055
▁پیشانی	-10.5062
▁رزا	-10.5062
کر	-10.5063
▁تان	-10.5064
▁چیردستی	-10.5065
▁چندیں	-10.5074
▁والی	-10.5087
▁شہری	-10.5094
▁بہادر	-10.5098
▁جاک	-10.5099
▁پون	-10.5104
▁زبیر	-10.5105
ہما	-10.5109
بل	-10.511
ھا	-10.5111
▁نک	-10.5123
گپ	-10.5128
▁ملور	-10.5132
▁مھکمیں	-10.5137
▁سیمسراں	-10.5138
▁انداز	-10.5145
▁10	-10.5147
▁رپک	-10.5148
▁صبر	-10.5149
▁زین	-10.5151
▁زانش	-10.5156
▁دستانی	-10.5156
وی	-10.5164
▁میتگے	-10.5165
▁سلطان	-10.5172
▁میرے	-10.5173
▁many	-10.5176
▁ارادہ	-10.518
▁رجانکاری	-10.5185
▁سوگات	-10.5187
ائیءِ	-10.52
▁سوئی	-10.5206
▁مقام	-10.521
▁بیتہ	-10.5216
▁پلو	-10.5224
کگ	-10.523
▁گیج	-10.5234
though	-10.5234
▁مور	-10.5238
▁پشتون	-10.5239
▁پلیں	-10.5247
▁ندارہ	-10.5262
▁found	-10.5266
▁موٹر	-10.527
▁کوپگاں	-10.5272
▁شات	-10.5273
▁ٹاور	-10.5274
▁پک	-10.5274
▁لوگی	-10.5276
▁پہل	-10.5278
▁تار	-10.528
▁عادت	-10.5282
▁گوزیت	-10.5287
▁ہمائی	-10.5288
▁رئیس	-10.529
nited	-10.5299
▁گوازینت	-10.53
▁اشکت	-10.5307
▁ارساں	-10.5309
▁تژن	-10.5309
▁فاروق	-10.5311
▁راجدوست	-10.5323
▁تپاکی	-10.5323
▁بانور	-10.5326
▁الیکشن	-10.5327
▁ابد	-10.5331
▁مختلف	-10.5333
▁عبدالحمید	-10.5334
▁گرمی	-10.5336
ھانی	-10.5339
۔۔۔۔۔۔۔۔۔۔۔۔۔۔۔۔	-10.535
▁long	-10.5351
▁دردے	-10.5353
▁زمانگے	-10.5355
▁مندی	-10.5357
ازمانک	-10.5369
▁مانیت	-10.5375
▁جدید	-10.5376
▁ھد	-10.5381
▁مس	-10.5394
▁۔۔۔۔۔	-10.5396
▁مارکس	-10.5398
▁طاہرہ	-10.54
▁سورت	-10.54
▁لگتمالی	-10.5402
▁درمیان	-10.5422
▁رشید	-10.5423
▁محنت	-10.5428
▁گشاد	-10.5431
▁سهیگ	-10.5435
▁بگند	-10.5439
▁بزنجو	-10.5441
▁عارف	-10.5441
▁ہاں	-10.5442
▁مشین	-10.5446
▁یورپی	-10.5449
▁قیمتانی	-10.5451
▁جیڑہانی	-10.5459
▁مانداشتگ	-10.5462
▁گئے	-10.5465
▁اخراجات	-10.5468
▁یکین	-10.5468
▁شورو	-10.5469
▁اھمد	-10.5475
▁ایمن	-10.5478
بوت	-10.5479
▁جنگے	-10.5486
▁بیدار	-10.5486
کم	-10.5487
▁زورگر	-10.5488
▁جہت	-10.5499
▁ناشرکاری	-10.5506
▁داتہ	-10.5506
▁so	-10.5512
▁سطح	-10.5512
▁اندازہ	-10.5518
▁درونت	-10.5518
انء	-10.5522
▁خلیل	-10.5527
▁جیگ	-10.5528
▁کمار	-10.5528
▁فلسفی	-10.5534
▁سڑک	-10.5535
▁پتو	-10.5539
▁توپان	-10.5539
▁چمگ	-10.5545
▁پرستی	-10.5549
▁ٹارگٹ	-10.5554
▁حملہ	-10.5558
۔من	-10.5559
▁بلو	-10.5561
▁نزر	-10.5562
▁زبانی	-10.5576
▁اکر	-10.5583
▁دنتان	-10.5583
▁منتگ	-10.5584
▁فتح	-10.5585
▁میراث	-10.5594
▁century	-10.5597
man	-10.5599
▁ماھیگ	-10.5599
▁گورنر	-10.5605
▁بلاش	-10.5605
▁رستگیں	-10.5614
▁ٹپاس	-10.5617
▁۔ا	-10.5619
▁شاکر	-10.5619
▁زراں	-10.5622
▁دربار	-10.5624
▁ازمانکار	-10.5627
▁تھت	-10.5628
▁کرم	-10.5632
▁ہونے	-10.5635
▁پرچیکہ	-10.5635
▁یہاں	-10.564
▁اشتاپ	-10.5648
▁پھک	-10.5656
▁کشمیر	-10.5656
▁کترینا	-10.5658
▁سنج	-10.5662
▁شل	-10.5664
▁جمیل	-10.567
▁دلانی	-10.5672
یر	-10.5679
▁شاعریءِ	-10.5679
................	-10.5685
رو	-10.5685
▁use	-10.5687
گاں	-10.5688
▁پسندی	-10.5699
▁four	-10.5699
▁مجگ	-10.5701
▁مرگے	-10.5701
▁ماھل	-10.5705
▁اج	-10.5708
▁نکنت	-10.5714
▁کروڑ	-10.5718
▁t	-10.5718
▁دگراں	-10.5719
▁میران	-10.573
▁مطابق	-10.5733
▁مسال	-10.5735
▁چڑھاؤ	-10.5735
گے	-10.5736
▁گنجیں	-10.5738
▁ڈیہی	-10.5742
▁سیستان	-10.5744
▁اپس	-10.5745
▁پہلے	-10.5745
رے	-10.5747
▁پھ	-10.5749
▁After	-10.5753
▁پانی	-10.5753
▁کواس	-10.5754
▁گراہک	-10.5762
▁قائم	-10.5763
▁مجھے	-10.5767
▁ٹیلی	-10.5774
▁کمکیں	-10.5779
▁لالا	-10.5782
▁پکا	-10.5783
▁بباں	-10.5786
▁تپ	-10.5788
▁تہذیب	-10.579
▁توکلی	-10.5792
▁نوکتریں	-10.5793
▁یے۔	-10.5794
▁درامدیں	-10.5797
▁دوار	-10.5806
▁دلگوشی	-10.5807
▁توجیل	-10.5808
شر	-10.5809
▁پروشتگ	-10.5815
▁بیھار	-10.5817
▁تین	-10.5818
▁کرسی	-10.5824
▁گواچنی	-10.5824
▁sever	-10.5832
▁پڑا	-10.5832
▁American	-10.5833
▁کڈن	-10.5835
▁ملکءِ	-10.5836
▁کن۔	-10.5837
▁فکری	-10.5839
▁امیری	-10.5839
▁ماث	-10.5843
▁مهر	-10.5844
▁ایکس	-10.5848
▁Brit	-10.5848
▁پابندی	-10.585
▁سپاہی	-10.585
▁پال	-10.5854
▁اسد	-10.5865
چار	-10.5869
▁ویران	-10.5873
▁گمانی	-10.5875
▁0	-10.5879
▁گوہر	-10.5883
▁وخت	-10.5899
▁ھیالانی	-10.5901
▁مندیں	-10.5905
▁بوہ	-10.5918
▁گروک	-10.592
اولی	-10.5926
▁دعوت	-10.5927
▁لو	-10.5928
▁ازاتیں	-10.5933
دے	-10.5935
▁دوئمی	-10.5938
▁دئینت	-10.5941
▁واہ	-10.5943
▁زید	-10.5946
▁پروشت	-10.5948
▁شانزدہ	-10.5948
▁سرءُ	-10.5952
▁حاک	-10.5952
▁ایکشن	-10.5953
▁کارچ	-10.5956
▁ڈنءَ	-10.5956
ers	-10.5957
▁درخواست	-10.5958
▁غریب	-10.5958
▁شم	-10.5962
▁کاینت۔	-10.5967
رجانک	-10.5971
▁جمال	-10.5976
▁دلا	-10.5976
▁گریت	-10.5978
▁کمکار	-10.5981
▁ہستی	-10.5982
▁تخلیق	-10.5982
▁زبھر	-10.5987
▁ھمد	-10.6001
▁لی	-10.6003
▁حاتم	-10.6003
▁براتاں	-10.6009
▁بیلٹ	-10.6016
▁سودا	-10.6021
▁سرگوست	-10.6021
▁لسبیلہ	-10.6022
▁7	-10.6023
▁چیف	-10.6028
▁نبشته	-10.6032
▁ماھے	-10.6035
▁دیوانجاه	-10.6038
انءَ	-10.604
▁مقابلہ	-10.6044
▁سروزیر	-10.6044
▁بلوچءِ	-10.6047
▁ادیب	-10.6047
▁خضدار	-10.605
▁گز	-10.6053
▁باد	-10.6055
▁نازرکیں	-10.6056
▁بیتءُ	-10.6058
▁لب	-10.606
▁کارستانی	-10.6062
▁اڑے	-10.6066
داد	-10.6067
▁مردءَ	-10.6073
▁ڈولدار	-10.6075
▁لیٹ	-10.6079
▁team	-10.6083
▁ڈگارانی	-10.6085
▁دیوک	-10.6085
▁جرمنی	-10.6091
▁امل	-10.6091
▁اوشتگ	-10.6092
▁زھگے	-10.6094
▁احوال	-10.6095
▁رنداں	-10.6096
▁الما	-10.6096
▁8	-10.6098
▁ہواریں	-10.6103
▁درائی	-10.6103
▁near	-10.611
▁کائے	-10.6113
ند	-10.6119
▁پڑءَ	-10.6121
▁اشت	-10.6126
▁کابل	-10.613
▁تلار	-10.6132
▁E	-10.6133
▁گرک	-10.6138
▁تیلانک	-10.6148
▁گلی	-10.6156
▁تراکے	-10.6156
▁حمایت	-10.6156
▁پلامرزی	-10.6157
cause	-10.616
▁پیسری	-10.616
▁شخصیت	-10.6163
▁راجءِ	-10.6168
▁فرانسیسی	-10.6171
▁صحت	-10.6171
▁محفوظ	-10.6174
▁گشی	-10.6174
▁مڑ	-10.6177
▁پلے	-10.6179
▁دلبند	-10.6182
▁مھتل	-10.6183
▁زھگاں	-10.6183
▁برطانیہ	-10.6185
▁جنازہ	-10.6186
▁شرکت	-10.62
▁ع	-10.6208
▁عبادت	-10.621
▁اصف	-10.6215
▁ہندو	-10.6224
▁سماجی	-10.6226
جو	-10.6236
کل	-10.6248
▁جسٹس	-10.6258
▁ریکی	-10.6261
▁عجب	-10.6261
▁نگیگ	-10.6261
▁شعرے	-10.6263
▁دابیں	-10.6269
▁یاگی	-10.627
▁دستے	-10.6274
▁ذہن	-10.6277
چک	-10.6283
▁remain	-10.6284
▁کلمتی	-10.6287
▁فن	-10.6289
▁ہدا	-10.629
▁ہیل	-10.6291
▁لذت	-10.6292
▁اظہار	-10.6296
▁بندیگیں	-10.63
▁مہکم	-10.6304
▁دردانی	-10.631
▁وپتگ	-10.631
▁وردن	-10.6318
▁دوریں	-10.6327
▁کرتہ	-10.6329
▁قدرتی	-10.6329
▁قدرت	-10.6332
▁P	-10.6333
▁بوتگاں	-10.6336
▁ماتیں	-10.6338
▁کیسگ	-10.6339
▁مت	-10.6344
▁final	-10.6346
▁اہ	-10.6346
▁سنت	-10.6349
▁پرایمن	-10.635
ہی	-10.6351
▁9	-10.6353
▁پاشک	-10.6353
▁امارات	-10.6353
▁محکم	-10.6357
▁زلورت	-10.6358
▁بجار	-10.6363
▁ھیالاں	-10.6368
▁طالبان	-10.6371
▁زوتاں	-10.6374
▁وارث	-10.638
▁عاشق	-10.6387
▁ورنایاں	-10.6392
▁جنگانی	-10.6396
▁چھبار	-10.6398
▁برا	-10.6399
▁کربانی	-10.64
▁مه	-10.6401
اللہ	-10.6412
▁رحمت	-10.6413
▁عذاب	-10.6419
جنگ	-10.642
▁ھژدری	-10.6426
▁early	-10.6433
▁زمانہ	-10.6437
▁could	-10.6442
▁گوشیں	-10.6447
▁لوزانک	-10.6451
▁انسانیت	-10.6453
▁ائیئ	-10.6458
▁جاتی	-10.646
▁زوربیگواہ	-10.6465
▁سریاب	-10.6466
▁شتیں	-10.6467
▁لنٹانی	-10.6468
اہاں	-10.647
▁جاڑیگ	-10.6478
▁کئیت۔	-10.649
▁دلپدردی	-10.6492
▁ریکارڈ	-10.6493
▁زھم	-10.6493
▁پیشدارگ	-10.6495
▁پنجابی	-10.6495
▁ذہنی	-10.6497
▁راہبند	-10.6505
▁دوران	-10.6508
▁روتاک	-10.6509
▁did	-10.6519
▁انڈیا	-10.6521
▁براتانی	-10.6522
انا	-10.6523
▁غالب	-10.6524
▁ھژدہ	-10.6529
▁سمل	-10.6532
▁درایگ	-10.6537
▁کوہن	-10.6547
▁براھوئی	-10.6549
▁زمینی	-10.6549
▁ھڈ	-10.655
▁پلگار	-10.6551
▁ہمیشی	-10.6554
▁گہتر	-10.6557
▁کاپر	-10.6563
▁سنگتی	-10.6564
▁مھمان	-10.6565
▁سیہ	-10.6567
▁اخلاق	-10.6567
▁توانائی	-10.6569
▁سئی	-10.6578
ھیں	-10.6579
▁شامل	-10.6582
▁گیں	-10.6593
▁یونان	-10.6603
مارا	-10.6606
▁جہلی	-10.6607
▁سیزدہ	-10.6613
▁ٹنگ	-10.6616
▁صادق	-10.6619
▁کارندھاں	-10.6624
▁سببا	-10.6624
▁16	-10.6631
▁سیکرٹری	-10.6633
▁جوڑشت	-10.6645
▁تکانسر	-10.6645
▁تھ	-10.6647
▁ترینت	-10.6648
▁ول	-10.6649
▁بجن	-10.6649
▁ڈبلیو	-10.6653
چم	-10.6655
▁کارکن	-10.6655
▁دبئی	-10.6656
▁رھبندانی	-10.6661
▁ابو	-10.6665
▁ہوتے	-10.6666
▁ہواری	-10.6667
▁توبہ	-10.6672
▁رنگی	-10.6674
▁پیداگ	-10.6683
▁نماسگ	-10.6684
▁سمائی	-10.6691
▁اپنا	-10.6693
▁ڈرامہ	-10.6695
▁شگان	-10.6698
▁وال	-10.6703
▁along	-10.6709
▁شیطان	-10.671
▁کتنت	-10.6713
▁تاکے	-10.6713
▁خلافا	-10.6715
▁اهانی	-10.6717
▁جنینانی	-10.672
▁زرے	-10.6727
▁ذریعہ	-10.673
▁ایگءَ	-10.673
▁شوک	-10.674
▁پنجاپ	-10.6741
▁اسٹیشن	-10.6742
ارا	-10.6749
▁زانیں	-10.6749
▁گرنچ	-10.6753
▁کتابجاہ	-10.676
▁بیانیہ	-10.6761
▁بوج	-10.6764
▁کتابی	-10.6764
تاں	-10.6765
▁دودا	-10.6769
▁ته	-10.6769
▁جرمن	-10.6777
کاری	-10.678
▁درکنگ	-10.6781
▁may	-10.6784
▁تیوگ	-10.6785
▁سلاھاں	-10.6791
▁سستگ	-10.6795
▁ڈیل	-10.6796
▁لنکک	-10.6802
▁حیر	-10.6803
▁ٹوھیں	-10.6807
▁کارندھانی	-10.6808
▁نوبت	-10.6808
▁وپا	-10.6817
▁راجاں	-10.6817
▁دوئینانی	-10.6821
دور	-10.6823
▁نیمروچ	-10.6824
▁place	-10.6827
▁است۔	-10.683
▁یکجا	-10.6832
▁نائب	-10.6837
▁تیزی	-10.6838
▁sai	-10.684
▁جمالی	-10.6844
▁گوریچانی	-10.6848
▁12	-10.6853
▁چیل	-10.686
▁زہری	-10.6863
▁کتءُ	-10.6866
▁صبور	-10.6869
▁اشتاپی	-10.687
▁روئے	-10.6873
▁واباں	-10.6876
▁گے	-10.6877
▁بشکھندگ	-10.6878
▁درجگ	-10.6882
▁بهر	-10.6883
▁شکاری	-10.6885
▁حافظ	-10.6887
ایانی	-10.6889
محمد	-10.6892
▁حفیظ	-10.6894
▁سہریں	-10.6894
▁سٹی	-10.6898
▁w	-10.6898
▁بلال	-10.6901
نبشتہ	-10.6908
برے	-10.6912
▁کامریڈ	-10.6913
▁جھمنندیں	-10.6914
▁دیگی	-10.6928
اری	-10.6935
▁شخص	-10.6937
▁تحت	-10.6938
u	-10.6938
▁جہاز	-10.6938
▁زانت۔	-10.6941
▁شئیرانی	-10.6942
▁منوگر	-10.6946
▁ارزانی	-10.695
▁تچکی	-10.6953
▁مردمءَ	-10.6953
▁داشتگیں	-10.6955
▁ھمل	-10.6961
▁کشاں	-10.6962
▁جہگیر	-10.6966
▁تھانہ	-10.6971
▁پدائی	-10.6971
▁جسمانی	-10.6973
▁بلوچستانءَ	-10.698
▁un	-10.698
▁اصلی	-10.6981
▁رہادگ	-10.6985
▁گوھر	-10.6986
اتی	-10.6986
▁بحرین	-10.6987
▁زنڈیں	-10.6993
▁دیت	-10.6995
▁شبیر	-10.6996
▁ص	-10.6996
▁رکھینگ	-10.6998
▁نزینکی	-10.7003
▁کپتہ	-10.7006
ناں	-10.7014
▁گیٹ	-10.7014
▁کارءِ	-10.7019
▁بوجیگ	-10.7019
▁جک	-10.7025
▁ایمنیں	-10.7025
▁عالمی	-10.7027
▁She	-10.7036
▁چمن	-10.7041
▁عوامی	-10.7041
▁گروپ	-10.7045
▁پہم	-10.7046
▁کاگدے	-10.7047
▁لئیب	-10.705
▁بزیں	-10.7051
▁ساڑا	-10.7055
▁تاکاں	-10.7058
▁روم	-10.7059
▁قیمت	-10.7061
▁گرانی	-10.7061
▁رۆچ	-10.7066
۔ہمے	-10.7069
زور	-10.7076
ینگ	-10.7076
▁پرنٹ	-10.708
▁ببنت	-10.7082
▁ھست۔	-10.709
▁سالونک	-10.7099
▁سوشلزم	-10.71
▁راہءَ	-10.71
▁مرگانی	-10.7104
▁بلۆچ	-10.7107
▁روز	-10.7115
کاں	-10.7116
▁کاردار	-10.7117
زانت	-10.7117
▁سپاھی	-10.7124
▁دوت	-10.713
▁درستانی	-10.713
▁نادر	-10.7132
▁منٹ	-10.7133
▁وسائل	-10.7133
▁کٹم	-10.7139
▁اسکانی	-10.7141
زر	-10.7143
بوتگ	-10.7145
▁مشک	-10.7154
▁ہمنچو	-10.7156
▁کارا	-10.7158
▁روت۔	-10.7158
▁پکرانی	-10.7158
▁ننداں	-10.7162
▁درکپتگ	-10.7169
▁رمگ	-10.7176
""	-10.7177
▁جلال	-10.7177
▁زبر	-10.7179
▁بروکیں	-10.7185
▁حلاپ	-10.7186
▁افلاطون	-10.7188
▁باب	-10.7192
▁مریت	-10.7196
▁ندیم	-10.7201
▁بنگیجی	-10.7201
▁گیرت	-10.7203
▁بکار	-10.7206
▁17	-10.7207
▁بھ	-10.7209
▁عاجز	-10.7212
▁جیونی	-10.7218
▁پئیم	-10.7219
▁تالبان	-10.7219
▁سواری	-10.7228
▁بش	-10.7231
▁صدیق	-10.7232
▁لیکگ	-10.7235
ایت	-10.7237
▁کمزور	-10.724
▁شلوار	-10.724
▁مرو	-10.7243
▁حاکمی	-10.7249
▁وراک	-10.7252
''	-10.7254
▁حکمت	-10.7257
▁میانی	-10.7259
▁unti	-10.7263
▁back	-10.7263
▁لیڈر	-10.7263
▁داشتگ۔	-10.7266
▁کائنات	-10.7274
▁تعالیٰ	-10.7275
▁مید	-10.7277
▁بستارے	-10.7277
▁لنٹاں	-10.7279
▁راستے	-10.7279
▁شدت	-10.728
▁شود	-10.7283
اوں	-10.7296
▁کاریں	-10.7297
▁کارمستر	-10.7297
▁ھلاسی	-10.7302
▁لینگویج	-10.7304
round	-10.7306
▁بہشت	-10.7317
▁city	-10.7319
▁براہوئی	-10.732
▁راہے	-10.7321
▁ائیء	-10.7321
▁شا	-10.7331
▁چئیرمین	-10.7337
▁میش	-10.7337
▁فورسز	-10.7338
▁اوتاک	-10.734
▁same	-10.7346
▁original	-10.7348
▁شیپ	-10.7352
▁بھت	-10.7355
▁مشکول	-10.7358
▁موسیٰ	-10.736
▁انت۔۔۔۔	-10.7365
▁دئیں	-10.7366
▁حیثیت	-10.7367
▁زگریں	-10.7371
▁ستکگ	-10.7375
ہاں	-10.7375
▁جنگءِ	-10.7379
▁یعقوب	-10.7381
▁تاگت	-10.7382
اہانی	-10.7385
▁زوان	-10.7388
یں۔	-10.7393
گو	-10.7402
▁جنس	-10.7412
▁کھن	-10.7413
▁کارڈ	-10.7417
▁نیتکگ	-10.7417
▁فلم	-10.7419
▁پیرا	-10.7424
▁حنیف	-10.7425
▁سنگین	-10.743
▁زاتی	-10.743
▁مصر	-10.744
▁قابل	-10.744
▁گوار	-10.7445
▁نئیکہ	-10.7453
▁داخل	-10.7453
▁شیشگ	-10.7453
داری	-10.7455
▁لاچاری	-10.7455
▁سرباز	-10.7456
▁تھر	-10.7463
▁سرگ	-10.7467
▁جنسی	-10.7474
▁انت۔بلے	-10.7477
▁million	-10.7481
▁day	-10.7481
▁ازت	-10.7484
▁people	-10.7491
▁اینکس	-10.7492
▁ڈرون	-10.7492
▁بچکے	-10.75
▁پجارگ	-10.7501
▁ریس	-10.7501
▁زاہد	-10.7503
▁بگندے	-10.7504
▁جبر	-10.7507
▁اوگام	-10.7507
▁return	-10.7512
▁انگیر	-10.7513
▁اسکی	-10.7517
▁دلمراد	-10.7519
▁any	-10.752
▁شانگ	-10.7521
▁بلا	-10.7522
یکے	-10.7524
▁ارشکار	-10.7528
▁ناشرکار	-10.7541
▁جہہ	-10.7543
▁اولاک	-10.755
ڑی	-10.7556
▁یاتانی	-10.756
▁میز	-10.7562
▁برائی	-10.7564
▁بغیر	-10.7564
▁ھزارانی	-10.7572
▁زاہ	-10.7573
▁اخری	-10.7574
▁K	-10.7581
▁km	-10.7586
▁مردگ	-10.7586
▁At	-10.7586
▁محدود	-10.7587
▁کنٹ	-10.7587
ber	-10.7587
▁مسعود	-10.7591
▁گوشے	-10.7593
▁گوازین	-10.7595
▁ٹوک	-10.7598
▁میتگاں	-10.7601
▁player	-10.7604
▁عثمان	-10.7604
▁کمان	-10.7605
▁شھیدانی	-10.7608
▁ڈ	-10.7608
▁ایشیا	-10.761
▁الا	-10.7613
▁بندے	-10.7614
▁زانتکاریں	-10.7615
▁امد	-10.7616
▁مرزا	-10.7618
▁رگام	-10.7621
▁سنٹ	-10.7627
▁main	-10.7628
▁یونٹ	-10.763
▁ہا	-10.7632
از	-10.7635
▁نفسیات	-10.7635
علی	-10.7636
▁قربان	-10.7636
▁وارت۔	-10.7638
▁پترگ	-10.7644
لا	-10.7648
▁مشت	-10.7648
▁کرءَ	-10.7649
▁They	-10.765
▁خطرہ	-10.7652
▁کارگشاد	-10.7659
▁May	-10.7664
شہ	-10.7664
▁؂۔	-10.7666
▁عہدی	-10.7668
▁سازگ	-10.7669
▁بہتام	-10.7672
▁پٹی	-10.7677
▁نکان	-10.7678
روان	-10.7684
▁میٹر	-10.7691
▁شرط	-10.7693
ایر	-10.7695
زند	-10.7696
▁نپس	-10.7697
▁وھدا	-10.7698
▁گاڑیاں	-10.7704
▁ہب	-10.7705
▁دابے	-10.7706
▁پجہ	-10.7707
▁کنتءُ	-10.7709
▁شپءِ	-10.7717
▁How	-10.7721
▁جلد	-10.7722
▁سل	-10.7725
▁ہزاراں	-10.7725
▁ھاں	-10.7726
▁اکرم	-10.7727
▁پادا	-10.7728
▁کاپٹر	-10.7732
ہے	-10.7732
▁دروشمءَ	-10.7736
▁تھاری	-10.7744
▁force	-10.7753
▁کمیونسٹ	-10.7761
▁سربازی	-10.7763
▁August	-10.7766
▁how	-10.7768
شما	-10.7778
▁جنجالاں	-10.7781
▁چاریگ	-10.7781
▁بلند	-10.7783
▁گوانکو	-10.7788
▁باھوٹ	-10.7788
▁سہت	-10.779
▁چت	-10.7794
▁پو	-10.7799
▁سالیں	-10.7799
▁ایسا	-10.7808
ول	-10.7812
▁کپتاں	-10.7812
▁دیمرئی	-10.7813
▁پیگمبر	-10.7814
▁شہداد	-10.7815
▁ھؤر	-10.7816
▁John	-10.7822
▁شو	-10.7825
یل	-10.7835
▁بیسہ	-10.7841
ation	-10.7842
▁لحاظ	-10.7843
▁زوراکیں	-10.7843
▁ship	-10.7846
▁جتیں	-10.7846
▁انچوشکہ	-10.7848
▁پٹءُ	-10.7851
▁ریپبلکن	-10.7854
▁سبزل	-10.7861
▁اپسر	-10.7862
▁North	-10.7863
وار	-10.7864
▁نقش	-10.7866
▁الرحمن	-10.7866
▁شودگ	-10.7867
▁releas	-10.7867
▁جمہوریت	-10.7868
▁ازمانکاں	-10.7869
▁ششمی	-10.787
▁سرءِ	-10.7875
▁دمانءَ	-10.7876
▁روا	-10.7881
لبزانک	-10.7886
▁20	-10.7887
▁سادگیں	-10.789
▁توکءَ	-10.789
▁ٹرک	-10.7894
▁اییا	-10.7899
▁وھدءِ	-10.7905
▁قربانی	-10.7907
▁دعویٰ	-10.7908
▁گوستانک	-10.791
▁احتگ	-10.791
▁ھشتاد	-10.7913
▁رہی	-10.7913
▁گشندہ	-10.7914
▁گیجگ	-10.7914
▁پشتو	-10.7914
▁شانی	-10.7917
▁کھولاں	-10.7919
▁South	-10.7926
▁جامگ	-10.7927
▁صلاح	-10.7941
▁down	-10.7942
▁قومانی	-10.7947
▁مسک	-10.7948
▁امباز	-10.7948
▁شائرے	-10.795
▁بیغ	-10.7952
▁محکمہ	-10.7952
▁وڈا	-10.7952
▁ارتگ	-10.7953
▁مغربی	-10.7956
▁کربان	-10.7957
▁راھشون	-10.7964
▁شعراں	-10.7967
▁دوسرے	-10.7967
▁پلیٹ	-10.7972
▁سراج	-10.7982
▁ھمرائی	-10.7983
شاہ	-10.7986
▁سالءَ	-10.7987
▁کپنت	-10.7988
پرچا	-10.7996
▁بانل	-10.7996
▁انہیں	-10.8014
▁گالے	-10.8015
▁دوئیناں	-10.802
▁لوگوں	-10.8022
▁دلپروش	-10.8023
▁رپ	-10.8034
▁اگوں	-10.8043
▁جمع	-10.8048
▁گڑاں	-10.8052
▁زانتکارانی	-10.8055
▁دہک	-10.8056
اچ	-10.8057
▁اوداں	-10.8058
▁پریشانی	-10.8059
▁مبیت	-10.806
▁مارشتے	-10.8067
▁name	-10.8068
▁کلچر	-10.8068
▁ٹیسٹ	-10.8072
▁پابند	-10.8072
▁ون	-10.8073
اشی	-10.8077
▁ساچان	-10.808
▁پریشر	-10.8084
▁رؤکیں	-10.8085
▁ردءُ	-10.8087
▁بین	-10.8089
زی	-10.8092
▁رے	-10.8098
▁معنی	-10.8099
▁مپت	-10.8103
▁پگار	-10.8103
▁مادی	-10.8103
▁درکیت	-10.8108
▁support	-10.8112
h	-10.8114
▁پانک	-10.8118
▁ترسینگ	-10.812
▁رادگ	-10.8124
▁Al	-10.8125
▁پگری	-10.8129
▁بارگ	-10.8135
▁پکرءُ	-10.8135
نو	-10.8136
▁بلاہیں	-10.8137
▁انٹرنیٹ	-10.8139
▁زوراکیاں	-10.8144
▁دمکاں	-10.8147
▁کشتگ۔	-10.8148
▁نبیسی	-10.815
▁یکرندے	-10.8151
▁توکل	-10.8151
▁مہری	-10.8151
مات	-10.8152
▁لولی	-10.8152
اک	-10.8153
▁حیدر	-10.8153
▁ازباب	-10.8159
▁برباد	-10.8159
▁War	-10.8159
ڈی	-10.8162
▁٭٭	-10.8165
▁زاری	-10.8167
nother	-10.817
▁درگتا	-10.8171
▁لانگ	-10.8175
▁گومازی	-10.8175
▁انہوں	-10.8179
▁تکاں	-10.8182
▁بوتاں۔	-10.8185
▁مردمءِ	-10.8185
▁مڈیانی	-10.8187
لچہ	-10.8199
▁ڈالچار	-10.8204
▁سبا	-10.8204
▁کتابءِ	-10.8209
▁ثبوت	-10.8215
کتگ	-10.8216
▁مثل	-10.8222
▁جھدکار	-10.8229
۔۔۔۔۔۔	-10.8235
▁جہدے	-10.8239
▁بچکندگ	-10.8239
▁بارگیں	-10.8241
اں۔	-10.8241
▁سوراب	-10.8241
▁شہم	-10.8245
▁بوچ	-10.8247
▁ساحرءِ	-10.8252
▁تمامیں	-10.8253
▁ناگت	-10.8258
▁توارءَ	-10.8258
▁دارو	-10.8261
▁زیکیں	-10.8261
▁سوبی	-10.8266
▁لبزے	-10.8271
▁small	-10.8272
▁دارایت	-10.8273
ok	-10.8275
▁بلائیں	-10.8276
▁ہفت	-10.8277
▁انتظامیہ	-10.8277
▁لینڈ	-10.8279
▁بوؤکیں	-10.8279
▁برورد	-10.8281
▁life	-10.8287
▁مزاحمتی	-10.8289
▁کماندار	-10.8291
▁گوشتی	-10.8291
▁بھار	-10.8292
▁تتکگ	-10.8294
▁مستی	-10.83
▁بزگر	-10.8303
▁دیگءَ	-10.8304
ئیگ	-10.8305
▁بیں	-10.831
▁درگتءَ	-10.8311
▁lead	-10.8317
▁off	-10.8318
▁مزنی	-10.8327
▁بلبل	-10.8329
ue	-10.8335
غیں	-10.8341
مرگ	-10.8345
▁ظاھر	-10.8349
▁اہمیت	-10.835
▁ودان	-10.8351
▁واد	-10.8352
▁لائبریری	-10.8354
▁نوجوان	-10.8356
▁ھاموش	-10.8359
▁ونڈ	-10.8359
▁گشنت۔	-10.8364
▁یکدم	-10.8369
▁لنگ	-10.8375
▁زانئے	-10.8375
▁ھاس	-10.8376
▁قلعہ	-10.8376
▁پترتگ	-10.8382
▁نہاد	-10.8386
▁نگدی	-10.8391
ازم	-10.8393
▁ویب	-10.8393
▁15	-10.8396
▁مولاداد	-10.8397
▁ریفرنس	-10.8399
▁مدان	-10.8401
▁group	-10.8409
▁رپتگ	-10.8415
▁شیرین	-10.8419
?"	-10.8424
ہو	-10.8425
▁لچھ	-10.8427
▁تیرانی	-10.8427
▁مدینہ	-10.8429
▁بنپد	-10.843
▁پان	-10.8431
▁ٹو	-10.8435
▁start	-10.8435
▁دانشور	-10.8441
▁Septe	-10.8443
وھدے	-10.8448
▁لیبی	-10.8455
▁سیالی	-10.8455
▁حل	-10.8458
▁کرنل	-10.8466
▁لوٹوک	-10.8466
▁ارزی	-10.8467
گوشت	-10.8472
▁receiv	-10.8473
▁گپءِ	-10.8476
▁شناسی	-10.8476
▁each	-10.8477
▁سیمسری	-10.8478
▁اداں	-10.8482
▁شریک	-10.8484
▁حشک	-10.8485
▁قانود	-10.8487
▁واریں	-10.8487
پت	-10.8492
▁سرکارءِ	-10.8495
▁منانک	-10.8496
▁ہون	-10.85
▁دلاں	-10.8502
داریں	-10.8513
▁رھشونی	-10.8515
▁ھردوکیں	-10.8519
▁حیالاں	-10.852
▁صفحہ	-10.8523
▁پرز	-10.8523
▁German	-10.8524
▁وه	-10.8528
▁مکتب	-10.853
▁مریم	-10.8531
▁وئیلے	-10.8534
▁روانکے	-10.8541
▁گت	-10.8541
ry	-10.8543
▁ٹ	-10.8548
▁فی	-10.855
▁پھم	-10.8552
?’’	-10.8557
ط	-10.8559
▁دروریں	-10.8563
بو	-10.8564
▁سنگے	-10.8573
▁دزگٹ	-10.8574
ایک	-10.8576
▁قحطانی	-10.8579
▁اییئے	-10.8586
▁شوق	-10.8588
▁برتگ۔	-10.8592
▁World	-10.8593
▁البتہ	-10.8598
▁قد	-10.8599
▁گرند	-10.86
▁زوران	-10.8608
▁طبقہ	-10.8614
▁ڈاہ	-10.8616
▁پلان	-10.8621
▁دێما	-10.8624
▁سواد	-10.8632
منا	-10.8633
▁مقامی	-10.8633
▁دراجی	-10.8637
▁ترسے	-10.8644
▁گپتار	-10.8646
▁نعمت	-10.865
▁طارق	-10.8655
▁گورم	-10.8655
▁ھائی	-10.866
▁هدا	-10.8662
▁سٹ	-10.8665
▁حداءِ	-10.8672
ست	-10.8676
▁امبازاں	-10.8679
▁کالونی	-10.8679
▁O	-10.8681
▁11	-10.8681
▁بیزار	-10.8688
▁شکست	-10.869
▁باھو	-10.8698
▁ھنچشیں	-10.8699
▁ناک	-10.8704
راہ	-10.871
▁فٹ	-10.8711
▁عرض	-10.8713
▁توئے	-10.8718
▁خوش	-10.8719
▁سدکی	-10.8729
▁گیت	-10.873
son	-10.8731
▁سقراط	-10.8741
m	-10.8743
▁five	-10.8746
▁ماتے	-10.8756
▁دمے	-10.8759
▁مردی	-10.8759
▁single	-10.8759
▁تاہیر	-10.8761
▁کبھی	-10.8761
▁ھزمت	-10.8764
▁دستان	-10.8765
▁زحم	-10.8768
کش	-10.8769
گور	-10.8771
▁گسر	-10.8774
وس	-10.8776
▁بوٹ	-10.878
▁بلۆچی	-10.8782
▁مزدور	-10.8783
▁ٹیکی	-10.8783
▁اشتگ	-10.8783
▁پہمگ	-10.8784
▁ھکومت	-10.8785
ئگ	-10.8787
▁نوش	-10.8789
▁میم	-10.8793
▁محراب	-10.8797
▁بوتہ۔	-10.8798
▁مروارد	-10.8799
▁وسیلگ	-10.8801
▁نوکر	-10.8806
▁نندیت	-10.8807
▁لاشانی	-10.8808
▁تکنیکی	-10.8808
▁مڑدم	-10.881
▁کافی	-10.881
▁سبر	-10.8812
▁تھی۔	-10.8812
▁رضی	-10.8814
▁result	-10.8817
▁لانک	-10.8824
▁اسکور	-10.8827
▁مگسی	-10.8836
وہ	-10.8837
▁وتئی	-10.8839
بچار	-10.884
▁جور	-10.8861
▁appear	-10.8865
▁ساریءَ	-10.8865
▁سھیل	-10.887
ث	-10.8877
▁زانشتی	-10.8879
▁معنائی	-10.8887
زئی	-10.889
▁رات	-10.8895
انچو	-10.8895
▁بڑی	-10.8898
▁جنگا	-10.8905
▁کنز	-10.8908
▁زندگیءِ	-10.8909
2	-10.8912
کتاب	-10.8912
▁describ	-10.8918
▁جے	-10.8919
▁عقلی	-10.8921
▁افغان	-10.8923
▁انگو	-10.8924
▁کلو	-10.8925
اردو	-10.8926
▁کمرہ	-10.8926
▁بلڈ	-10.8928
▁شوانگ	-10.8932
▁کشاری	-10.8933
▁زمینءِ	-10.8937
▁علامت	-10.8937
▁اہان	-10.894
▁دارگی	-10.894
▁چریشاں	-10.8943
▁نر	-10.8944
▁تنکیں	-10.8944
▁یت	-10.8945
▁متحدہ	-10.8954
▁منارا	-10.8957
▁سئیل	-10.896
▁شہباز	-10.8967
▁بنگپانی	-10.8967
▁مزل	-10.8967
▁باقی	-10.897
▁پسگ	-10.8971
ؤ	-10.8972
▁کمکے	-10.8973
▁کیلئے	-10.8977
▁سردارانی	-10.8981
مرچی	-10.8984
وز	-10.8992
▁شائریءِ	-10.8993
▁یقین	-10.8993
ماہ	-10.8995
پی	-10.8996
▁جہدءَ	-10.8999
▁کلاسیکل	-10.9001
▁own	-10.9003
▁گپتگ۔	-10.9003
▁attack	-10.9004
▁ترینگ	-10.9005
▁سروس	-10.9008
▁ساچی	-10.9012
ایش	-10.9013
▁اتوں	-10.9014
▁جننت	-10.9016
▁یکشمبے	-10.9018
▁پیپلزپارٹی	-10.9022
▁گلائیش	-10.9023
▁فٹبال	-10.9032
▁اگاہ	-10.9034
▁ہدایت	-10.9036
▁پہریز	-10.9039
▁وداریگ	-10.9041
▁نازل	-10.9041
▁بٹ	-10.9044
▁زہگاں	-10.9044
▁ڈگری	-10.9046
▁music	-10.905
▁سکا	-10.905
▁ہنکین	-10.9051
دان	-10.9051
▁جلوہ	-10.9053
▁اپوزیشن	-10.906
بار	-10.9063
▁دیمونی	-10.9067
▁ھوت	-10.9071
▁ظہور	-10.9072
ڪ	-10.9082
▁اینچک	-10.9088
▁کسہانی	-10.9089
▁لاھور	-10.9092
▁کنائینتگ	-10.9093
▁تعلقداری	-10.9094
▁کلم	-10.9098
▁دوشمبے	-10.9098
▁وراں	-10.9099
▁دیار	-10.91
▁پھریز	-10.91
▁نگن	-10.9102
▁مگرب	-10.9105
▁ٹیبل	-10.9105
▁ایلیٹ	-10.9106
▁سبزی	-10.9107
▁گاہ	-10.9107
▁کوہانی	-10.9109
▁پریشی	-10.9111
▁کوچ	-10.9112
▁ٹل	-10.9113
▁ویڈیو	-10.9116
▁ماڈل	-10.9117
▁راھی	-10.9118
▁لگتمال	-10.9122
وئی	-10.9125
▁قیامت	-10.9125
▁ماھی	-10.9126
▁ایردستیں	-10.9129
▁ورک	-10.913
▁ھرنائی	-10.9133
▁دارے	-10.9134
▁Dur	-10.9136
▁احسان	-10.9138
▁اثرات	-10.9141
▁کستر	-10.9142
▁بلوچیءَ	-10.9143
▁great	-10.9145
▁باں۔	-10.9153
ten	-10.9157
▁ٹپیگ	-10.9159
▁خ	-10.9159
▁زندمانی	-10.9163
▁شاه	-10.9166
▁سینٹر	-10.9166
▁حیالءَ	-10.9168
▁June	-10.9169
▁ہک	-10.9169
▁نشنل	-10.917
▁اشیءَ	-10.9172
▁جزم	-10.9174
▁سالروچ	-10.9179
▁رئیسی	-10.9179
▁گاماں	-10.9186
▁لرز	-10.9191
▁دوستاں	-10.9195
▁بکنیں	-10.9197
▁اشرف	-10.92
▁درج	-10.9201
▁باغ	-10.9202
▁تحقیق	-10.9202
▁جانے	-10.9204
▁بنءَ	-10.9206
▁consider	-10.9207
▁نبوتگ	-10.9213
▁میت	-10.9214
▁ترگ	-10.9215
▁توم	-10.9215
کسہ	-10.9215
▁گونگیں	-10.9216
▁ملین	-10.9223
▁ساہت	-10.9227
is	-10.9229
▁لاشار	-10.9231
▁انت۔ائی	-10.9233
▁داتنت	-10.9235
▁بورڈ	-10.9237
▁حر	-10.9237
▁واہش	-10.9243
▁حالے	-10.9243
▁سگگ	-10.9244
▁مدار	-10.9247
▁بحر	-10.9247
▁رزاق	-10.9248
▁کرکے	-10.925
▁بانزل	-10.925
▁زندہ	-10.9254
▁اتیں۔	-10.926
▁ورد	-10.926
▁مرگءِ	-10.9263
▁تکانسری	-10.9267
رنگ	-10.9275
▁زاھد	-10.9281
▁کبرستان	-10.9282
▁شئیرے	-10.9283
▁یکروچے	-10.9285
▁سدانی	-10.9287
گندگ	-10.9291
ادا	-10.9291
▁رژنا	-10.9292
▁توری	-10.9297
?“	-10.9297
▁ڈیم	-10.93
▁شپانک	-10.9302
▁point	-10.9304
▁since	-10.9305
▁حبیب	-10.9309
▁تیرے	-10.931
▁لچ	-10.9319
▁جہ	-10.9319
▁ئت	-10.9325
▁شموش	-10.9332
▁مھروان	-10.9334
▁پوک	-10.9334
▁ملیر	-10.9336
▁پارٹیءِ	-10.9337
▁سرپ	-10.9339
▁جبین	-10.934
▁پارلیمنٹ	-10.9341
▁کابینہ	-10.9343
▁انسانانی	-10.9346
▁دنیگہ	-10.9348
▁زردیں	-10.935
▁مہتل	-10.935
▁گپان	-10.9351
▁دورے	-10.9353
▁دوسری	-10.9354
▁جامی	-10.9356
▁دالبندین	-10.9357
▁وانیت	-10.9362
▁برابری	-10.9362
▁کڑی	-10.9365
▁رکین	-10.9372
▁زانشی	-10.9377
▁ارزشتے	-10.9379
▁برف	-10.9384
ton	-10.9385
▁جاگھے	-10.9385
▁قسمت	-10.9385
▁ماہیگ	-10.9391
▁دنیائے	-10.9395
▁جوہر	-10.9396
▁order	-10.9399
مزنیں	-10.94
▁فرض	-10.94
▁what	-10.941
▁لوگبانک	-10.941
▁جیسے	-10.9413
▁بنیاتی	-10.9418
▁سیکیورٹی	-10.9419
▁نفسیاتی	-10.9421
▁میرو	-10.9422
انے	-10.9424
▁ات۔من	-10.9425
▁لیکھ	-10.943
▁قرن	-10.9438
▁بسمل	-10.9441
▁ٹکرے	-10.9442
▁L	-10.9442
یگیں	-10.9445
▁پجی	-10.9445
▁اہی	-10.9446
▁States	-10.9447
▁بزرگ	-10.9447
▁تھام	-10.945
▁رابطہ	-10.9457
▁فرد	-10.9458
▁نعیم	-10.946
▁کوسٹ	-10.9461
▁پربند	-10.9462
species	-10.9469
▁عراق	-10.9469
▁گارڈ	-10.9471
▁رنگاں	-10.9473
▁دوستدار	-10.9476
گڈا	-10.9486
رند	-10.9486
▁شوکت	-10.9489
▁تراکناک	-10.949
▁گیشین	-10.9491
▁سنگانی	-10.9493
▁گیابان	-10.9493
▁نوٹ	-10.9496
گوش	-10.9496
▁دیواناں	-10.9503
▁پریدہ	-10.9505
▁لونجان	-10.9507
▁درنیام	-10.9525
▁ہاتھ	-10.9529
▁وکٹ	-10.9532
▁جسد	-10.9533
▁بھارت	-10.9533
▁نفس	-10.9534
▁اسلوب	-10.9536
▁ادمے	-10.9536
▁اماں	-10.954
▁W	-10.9542
▁مردءِ	-10.9544
▁واھشت	-10.9544
▁مسلمانانی	-10.9549
▁سینگار	-10.9557
▁چکر	-10.9557
▁زون	-10.956
▁ق	-10.9564
▁جنکاں	-10.9564
▁هزار	-10.9565
جن	-10.957
▁ھوشاپ	-10.9574
▁تشدد	-10.958
▁ایسے	-10.9587
if	-10.9592
▁دگری	-10.9594
▁روایتی	-10.9594
▁سارتر	-10.9596
▁لوپ	-10.9599
▁بیماری	-10.9601
▁سانمند	-10.9602
▁روچا	-10.9604
▁شوھازگ	-10.9605
کجام	-10.9605
▁بودلئیر	-10.9606
▁سنگینیں	-10.961
▁شی	-10.961
▁زاکر	-10.9612
▁اندگہ	-10.962
▁انٹرنیشنل	-10.9625
▁ادریس	-10.9625
▁دید	-10.9627
uch	-10.9628
▁انت۔من	-10.9631
▁جهان	-10.9638
گءَ	-10.9641
▁دھکان	-10.9648
ریں	-10.9649
▁ہزدار	-10.965
▁ماحول	-10.9652
▁واجکار	-10.9657
▁ھوری	-10.966
▁شپانی	-10.966
▁ست	-10.9665
▁بھٹو	-10.9667
▁وزم	-10.9671
▁روگن	-10.9673
▁ھورت	-10.9686
▁ہیر	-10.9686
▁اشان	-10.9688
▁انفارمیشن	-10.9689
▁ھسین	-10.969
!’’	-10.9693
▁بیت۔اے	-10.9697
▁state	-10.9699
▁سگی۔	-10.9701
▁late	-10.9702
▁پیسریگیں	-10.9707
▁لوار	-10.9711
▁ساھتے	-10.9714
▁دونوں	-10.9714
▁ریاض	-10.9717
▁پارلیمانی	-10.9721
▁مکنت	-10.9722
▁طرز	-10.9723
▁موسمانی	-10.9724
▁تپاسگ	-10.9726
▁بوھگءَ	-10.9727
▁دارانی	-10.9729
▁راجدوستی	-10.9731
▁شعبہ	-10.9732
▁شرم	-10.9732
پل	-10.9737
▁جنیناں	-10.9742
▁اسرءَ	-10.9746
شی	-10.9751
▁ڈبہ	-10.9752
▁جمبراں	-10.9756
▁گوئشان	-10.9764
▁بلی	-10.9764
▁پورٹ	-10.9768
▁نعرہ	-10.9769
▁تربیت	-10.9774
▁علاوہ	-10.9779
▁بچاں	-10.9779
▁نازینک	-10.9781
▁انتظام	-10.9784
▁فلسفہءِ	-10.9786
▁شرت	-10.9788
▁line	-10.979
▁استت	-10.9791
▁باتن	-10.9793
▁بیچ	-10.9793
ملک	-10.9794
▁بخت	-10.9797
▁چوناہا	-10.9797
▁ہسپتال	-10.9798
▁پجاہ	-10.98
▁ہنداں	-10.9809
▁بامرد	-10.9812
▁will	-10.9812
▁ارسطو	-10.9815
▁ڈولا	-10.9818
▁دژمنی	-10.982
▁کانال	-10.9823
▁داشت۔	-10.9823
▁مرکزی	-10.9825
▁بدلءَ	-10.9828
▁famil	-10.983
▁اہت	-10.9831
تیں	-10.9831
▁last	-10.9832
▁لاشاری	-10.9834
▁مہرءُ	-10.9835
شاعری	-10.9836
پاکستانی	-10.9837
▁زندءُ	-10.9841
▁شاپ	-10.9843
▁صالح	-10.9843
▁چۆ	-10.9843
▁حدائی	-10.9844
▁Octo	-10.9845
▁نبشتانکاں	-10.9846
▁کوھلو	-10.9846
▁چراگے	-10.9848
▁خراب	-10.9853
▁دئور	-10.9856
▁کسه	-10.9863
▁گندءُ	-10.9864
▁لبزانکءَ	-10.987
▁دودانی	-10.9871
▁فیصل	-10.9871
▁گردش	-10.9872
▁ارٹ	-10.9872
▁ائین	-10.9874
▁وشیانی	-10.9874
▁مراگشے	-10.9882
▁دلمانگ	-10.9883
▁گدارے	-10.9884
▁system	-10.9884
▁کماشیں	-10.9886
▁کوھاں	-10.9886
▁تمنی	-10.9887
وکین	-10.989
ھچ	-10.9892
▁زرءَ	-10.9895
▁گاری	-10.9896
▁ات۔ائی	-10.9897
▁طلب	-10.9899
▁ایجنسی	-10.99
▁تہرے	-10.9904
▁لیکہانی	-10.991
▁دروہ	-10.9912
▁رہبندانی	-10.9917
ا۔	-10.9924
▁week	-10.9925
▁عابدہ	-10.9927
▁یکجاھی	-10.9928
▁جیڑھے	-10.993
▁مسکرا	-10.9931
▁درے	-10.9934
▁کوریں	-10.9936
▁Ap	-10.9936
▁کیف	-10.9937
▁گواز	-10.9937
▁واز	-10.9939
▁....	-10.994
rote	-10.994
▁کمکی	-10.9941
▁گرماگ	-10.9942
▁کیا۔	-10.9942
▁ھورانی	-10.9945
▁جعفر	-10.9954
▁دنیایے	-10.9954
▁اتکاں	-10.9957
▁کرز	-10.9958
▁پورسز	-10.9965
▁روشن	-10.9966
اھاں	-10.9967
▁اقتصادی	-10.9967
▁نزیکءَ	-10.9969
▁منیت	-10.9969
▁شمس	-10.9971
▁جنزگ	-10.9972
▁گوری	-10.9976
▁ژند	-10.998
▁بلہ	-10.9983
▁گوارگ	-10.9983
▁ہو۔	-10.9983
▁راضی	-10.9984
▁نگور	-10.9995
▁ھمنکس	-10.9996
ment	-10.9999
▁بوتنت۔	-11
▁مردک	-11.0003
▁ھل	-11.0003
▁پسندیں	-11.0004
▁مرگاں	-11.0012
▁کیفیت	-11.0017
▁رویہ	-11.0022
▁پارک	-11.0022
ril	-11.0026
▁واھگاں	-11.0031
▁ریکانی	-11.0032
▁کلومیٹر	-11.0032
▁رپت	-11.0034
▁وابی	-11.0035
▁رستگ۔	-11.0035
▁ایرانشھر	-11.0037
▁شاہی	-11.0043
▁بوگءِ	-11.0043
▁میا	-11.0045
▁تاکانی	-11.0045
▁قریش	-11.0046
▁معنہ	-11.0047
▁ادارہاں	-11.0049
▁جیڑاں	-11.005
▁محسوس	-11.0052
▁گہتری	-11.0053
▁دھلی	-11.0057
▁صوفی	-11.0064
▁دہکان	-11.0067
▁جاگہاں	-11.0073
▁اسپتال	-11.0074
سال	-11.0075
▁کسانکیں	-11.0077
▁ڈوک	-11.0081
▁دام	-11.0085
▁ابیتک	-11.0085
▁اوتاگ	-11.0086
▁کوشت	-11.0086
▁سازیں	-11.0086
▁بیگءِ	-11.0091
▁کانودی	-11.0095
▁قید	-11.0095
▁وہاں	-11.0099
▁اپہ	-11.0101
▁رفیق	-11.0102
▁چپیں	-11.0102
▁ریسرچ	-11.0104
▁مونجا	-11.0105
▁فرمان	-11.0105
اھانی	-11.0109
▁سپاہ	-11.0113
▁یہی	-11.0114
▁شالا	-11.0119
▁بولی	-11.0119
▁کیں	-11.012
▁میتگءَ	-11.0121
▁world	-11.0128
یم	-11.0128
▁reach	-11.0129
▁وہدا	-11.0131
یت۔	-11.0133
▁شتہ	-11.0133
▁ساچگ	-11.0135
▁ملکءَ	-11.0138
▁گڈاں	-11.0141
▁رنگءُ	-11.0143
▁بیمار	-11.0144
▁ماہناز	-11.0146
▁اوں۔	-11.0149
▁زہگانی	-11.0153
▁پے	-11.0158
▁نیاتکگ	-11.0166
▁ایسی	-11.0167
▁شیہک	-11.0169
▁رود	-11.017
▁ایجنٹ	-11.0175
بنت	-11.0178
▁نزام	-11.0181
▁واجہی	-11.0182
▁یاتاں	-11.0182
▁now	-11.0182
▁عبدالواحد	-11.0183
▁پیداوار	-11.0187
▁خاطر	-11.0193
▁role	-11.0194
▁نپاد	-11.0198
ork	-11.0199
▁فطرت	-11.02
▁ردانکی	-11.02
▁واقع	-11.0202
▁سردی	-11.0203
▁میتگءِ	-11.0204
▁جہانءِ	-11.0208
▁ڈولداری	-11.0212
▁set	-11.0214
▁لوزانی	-11.0215
▁اولاد	-11.0218
▁تنکہ	-11.0222
▁مضبوط	-11.0231
▁جتک	-11.0234
▁کپتگاں	-11.0234
▁رونت	-11.0235
▁طریقہ	-11.0238
▁سوچگ	-11.0238
▁کپاں	-11.0245
▁پولنگ	-11.0248
▁وہدءِ	-11.0248
▁داروک	-11.0253
▁ھوناں	-11.0257
▁کسب	-11.026
▁مٹیں	-11.0263
▁سامنے	-11.0263
▁won	-11.0263
▁take	-11.0264
▁............	-11.0268
▁ہمت	-11.0271
▁فری	-11.0271
▁بچے	-11.0272
▁بیورغ	-11.0279
▁ناکیں	-11.028
▁due	-11.028
ھمیش	-11.0282
▁ابیتکی	-11.0284
▁ارشاد	-11.0286
▁بازارءَ	-11.0289
▁اوت	-11.0289
▁چمشانکے	-11.029
▁وعدہ	-11.0294
سا	-11.0296
▁بہادری	-11.0301
▁چارءُ	-11.0309
▁اؤ	-11.0309
▁جذبہ	-11.0311
▁گسانی	-11.0312
▁منصور	-11.0314
▁گین	-11.0316
▁افریقہ	-11.0334
▁پکیر	-11.0335
▁منتگیں	-11.0337
ینتگ	-11.0338
▁پہلی	-11.0339
▁ترو	-11.0339
▁یدار	-11.0342
▁کاران	-11.0343
▁راشن	-11.0345
▁child	-11.0346
age	-11.035
▁نل	-11.035
▁head	-11.0356
۔اگاں	-11.0357
▁تنت	-11.0357
▁قتل	-11.0363
منءَ	-11.0364
▁دویں	-11.0365
▁لیا	-11.0365
▁امبار	-11.037
▁ڈان	-11.0374
very	-11.0375
▁مشرقی	-11.0377
▁لائق	-11.0377
▁کوم	-11.0379
▁لالچ	-11.038
▁home	-11.0383
▁رمب	-11.0386
▁ٹوپ	-11.0387
▁اہل	-11.039
▁ونگ	-11.0391
▁کسھے	-11.0398
▁چلیم	-11.0399
▁ماتءِ	-11.0401
hose	-11.0401
▁عجبیں	-11.0404
▁بوتءُ	-11.0412
▁ھیالے	-11.0413
▁شومیں	-11.0414
▁سوری	-11.0414
▁پیغام	-11.0417
ese	-11.0418
▁ابراہیم	-11.0421
▁پیادگ	-11.0422
▁ائ	-11.0425
▁دوزہ	-11.0426
▁دیوانءَ	-11.0427
▁معیار	-11.0428
▁دیوکیں	-11.0429
▁دیمترءَ	-11.043
▁افسوس	-11.0431
یات	-11.0433
▁بوتن	-11.0434
▁کسےءَ	-11.0435
▁ہمینچو	-11.0438
▁کونڈ	-11.044
▁لزت	-11.044
▁علت	-11.0441
▁علمءِ	-11.0442
اتنت	-11.0443
▁پیماز	-11.0445
▁چاری	-11.0448
▁بیتگین	-11.0454
واب	-11.0457
▁جائیکہ	-11.0458
▁اسکے	-11.0459
▁کسہاں	-11.046
▁اہد	-11.0465
▁direct	-11.0467
▁شگر	-11.0467
▁پورہ	-11.0469
▁زرءِ	-11.0472
▁پرست	-11.0474
▁نوشکے	-11.0474
▁allow	-11.0479
▁بادشاہی	-11.048
▁ساحل	-11.0482
▁چونائیا	-11.0484
▁مستقبل	-11.0488
کوہ	-11.0488
▁کارستے	-11.0492
▁ساھتاں	-11.0496
▁ترتیب	-11.0499
▁دیں	-11.0501
▁ملافاضل	-11.0506
▁?‘‘	-11.0506
▁گرپتار	-11.0511
▁تازی	-11.0514
▁سبارگ	-11.0515
▁لہتین	-11.0515
▁دوہمی	-11.0516
▁زوراں	-11.0519
▁نیستی	-11.052
▁کنائینت	-11.0521
▁اتحاد	-11.0523
▁ڈولداریں	-11.0535
▁سادگ	-11.0537
▁بیث	-11.0539
▁تحفظ	-11.0542
▁معیشت	-11.0543
یئ	-11.0549
▁چشین	-11.055
▁death	-11.0556
▁جاتے	-11.0557
▁هور	-11.0557
▁افیسر	-11.0557
▁وهدا	-11.0561
.“	-11.0563
ینت	-11.0564
▁مج	-11.0566
گار	-11.0567
نک	-11.0568
وان	-11.0569
▁درساں	-11.057
▁تئیی	-11.0571
▁پبلی	-11.0573
▁سیشن	-11.0581
▁جبران	-11.0594
پس	-11.0595
▁گپتہ	-11.0596
اء	-11.0596
▁روانی	-11.0598
▁پیشرد	-11.0599
▁صائمہ	-11.0602
▁ناولٹ	-11.0604
▁St	-11.0606
▁غماں	-11.0614
▁انچۆ	-11.0615
▁انسانءَ	-11.062
▁وانندگ	-11.0624
▁نگاری	-11.0624
ive	-11.0624
▁خرچ	-11.0627
▁تنظیم	-11.0628
▁وبا	-11.0629
▁ماسی	-11.0631
▁همراه	-11.0632
اف	-11.0633
▁بیاریت	-11.0633
▁war	-11.0635
▁بہہ	-11.0639
▁تیابدپ	-11.0641
▁بیگواھیانی	-11.0642
▁بالگرد	-11.0643
▁نوری	-11.0644
▁ورلڈ	-11.0645
▁تخت	-11.0646
▁درورے	-11.0646
▁اصغر	-11.0647
▁جاپان	-11.0648
▁ہژدری	-11.0649
▁داخلہ	-11.0651
▁الہان	-11.0651
▁روتگ	-11.0661
چون	-11.0668
ren	-11.0669
▁سالءِ	-11.0671
▁کشءَ	-11.0674
▁پیسرءَ	-11.0679
▁No	-11.0682
▁سائیکل	-11.0683
▁اناگت	-11.0683
اؤ	-11.0683
▁همک	-11.0685
▁سدل	-11.0687
▁کلک	-11.069
▁انٹر	-11.0694
▁غلامی	-11.0695
▁ناگیگ	-11.0697
▁six	-11.0698
▁رشتگ	-11.0699
▁Janu	-11.0699
▁ایریں	-11.07
▁کبول	-11.07
▁نگیگیں	-11.0701
▁تسلا	-11.0701
▁included	-11.0702
▁مقبول	-11.0702
▁رؤ	-11.0707
▁نرمیں	-11.0709
▁پائپ	-11.0713
▁شنک	-11.072
▁سرداری	-11.0723
ستان	-11.0723
▁بھشت	-11.0724
▁storm	-11.0729
▁گندان	-11.0729
▁انشپی	-11.0729
▁کان	-11.0731
▁سینیٹ	-11.0732
▁اسانی	-11.0737
▁نبشتانکانی	-11.0745
▁ختم	-11.0745
▁ھپتگے	-11.0748
▁اهاں	-11.0754
▁ماتءَ	-11.0756
▁short	-11.0756
▁بیہار	-11.0757
▁زانتکاراں	-11.0759
▁مدد	-11.076
▁سپریم	-11.0761
▁دینت۔	-11.0767
▁کلاگ	-11.0768
▁left	-11.0771
وہدے	-11.0777
▁کرمان	-11.0781
▁اھم	-11.0782
▁مرکز	-11.0784
دا	-11.0785
▁زرت۔	-11.0785
▁کشتگیں	-11.0785
▁ہاران	-11.0786
▁شلی	-11.0787
▁نشتہ	-11.0788
▁نسیب	-11.0791
▁قومے	-11.0797
▁بوگا	-11.0799
▁England	-11.08
▁government	-11.08
▁دئیگا	-11.0805
▁افسانہ	-11.0812
▁غیرت	-11.0812
▁راجدپترءِ	-11.0814
et	-11.0818
مہر	-11.0821
▁ڈولءَ	-11.0823
سٹ	-11.0824
▁کہتے	-11.0827
▁ڈیپارٹمنٹ	-11.0829
▁عیسوی	-11.083
▁بالگتر	-11.0831
▁راہی	-11.0832
▁شیرکنیں	-11.0834
▁لگیت	-11.0838
▁اؤٹ	-11.0841
▁چیلنج	-11.0841
▁پلک	-11.0844
▁پولکار	-11.0845
▁تعریف	-11.0846
▁نوروز	-11.0847
▁ساه	-11.0848
▁عکسے	-11.0849
▁ترمپے	-11.0851
ذ	-11.0854
▁۔ھمیش	-11.0854
▁پجارینگ	-11.0855
▁ازل	-11.0856
▁گھتر	-11.0856
▁شادی	-11.0856
▁بچاریں	-11.0857
▁درہیں	-11.0857
▁ششت	-11.0857
▁video	-11.0858
▁شموشگ	-11.0863
▁ٹیکس	-11.0863
▁نقل	-11.0863
▁زرداری	-11.0864
▁اش۔	-11.0867
▁کوه	-11.0872
▁چکا	-11.0872
▁ھنی	-11.0873
▁position	-11.0874
▁ہساب	-11.0876
▁گورکی	-11.088
▁ھمینچو	-11.0882
▁ڈائریکٹر	-11.0885
▁ارد	-11.0886
▁وغیرہ	-11.0886
▁سروکاں	-11.0887
▁14	-11.0887
▁کندیل	-11.0891
▁سہیل	-11.0891
▁اگ	-11.0892
x	-11.0893
▁شونکار	-11.0893
▁سوز	-11.0901
▁جئیند	-11.0902
▁include	-11.0903
▁دێم	-11.0904
▁سرپدیں	-11.0905
▁الفاظ	-11.0905
▁پیروک	-11.0906
▁30	-11.0909
▁ماریت	-11.0909
c	-11.091
سن	-11.0914
▁قدم	-11.0914
▁do	-11.0915
▁اپءِ	-11.0916
▁داگ	-11.0919
▁سوبءَ	-11.0924
▁ھمیشانی	-11.0925
▁بڑے	-11.0925
ty	-11.0926
▁اسک	-11.093
▁March	-11.0933
▁بھائی	-11.0934
▁بڑا	-11.0939
▁دینا	-11.0939
ماہتاک	-11.094
▁قانونی	-11.0941
▁attempt	-11.0946
▁سسی	-11.0952
▁کیلو	-11.0952
▁13	-11.096
▁موقع	-11.0964
▁جاگہءَ	-11.0967
▁دودءُ	-11.0968
▁اسودگی	-11.0969
▁کنڈے	-11.0971
▁رشتہ	-11.0972
▁گواتے	-11.0973
▁چرس	-11.0975
▁خاموش	-11.0977
▁مڑد	-11.0982
کور	-11.0983
▁ارسانی	-11.0983
▁کالم	-11.0986
▁کلکشان	-11.0988
▁فیس	-11.0992
▁شونگال	-11.0994
ءَرا	-11.0994
▁انجمن	-11.0995
▁ھمراھاں	-11.0995
▁کاریت۔	-11.1
▁عوام	-11.1004
▁ماھکان	-11.1007
▁general	-11.1009
نیں	-11.101
▁خدمت	-11.1015
▁کردی	-11.1017
▁کارندھے	-11.1023
▁گداں	-11.1023
▁نمونگ	-11.1023
▁جتہ	-11.1025
▁حرام	-11.1028
▁نھاد	-11.1029
▁ارداد	-11.103
","","","","","	-11.1031
▁لیلو	-11.1033
▁دریگتیں	-11.1034
▁مکمل	-11.1037
▁موسمی	-11.1037
جا	-11.1038
▁پروری	-11.1039
▁جنکو	-11.1039
▁bas	-11.1046
کراچی	-11.1047
▁third	-11.105
▁ملاقات	-11.1051
▁سوگہ	-11.1055
▁شیوار	-11.1063
▁پھازگی	-11.1068
▁گراناز	-11.1073
▁دھک	-11.1079
▁پجاروکی	-11.1081
▁سکندر	-11.1084
▁سرچمگ	-11.1103
▁اوارجنی	-11.1106
▁اسن	-11.1108
▁ھاش	-11.1108
▁کیمرہ	-11.1112
▁فورس	-11.1116
▁مشن	-11.1122
▁جر	-11.1125
▁وابءَ	-11.1135
▁ھیلی	-11.1136
▁شعوری	-11.1137
▁سستگیں	-11.1138
▁بنگالی	-11.114
g	-11.114
▁اہمیں	-11.1148
▁تبد	-11.1148
▁حیالے	-11.1148
▁ھمگرنچیں	-11.115
▁ملی	-11.1151
▁جندءَ	-11.1151
▁نمب	-11.1153
▁ایڈوکیٹ	-11.1155
▁تکلیف	-11.1157
▁اتا	-11.1161
▁games	-11.1165
▁school	-11.117
▁کتار	-11.117
▁ستکگیں	-11.1171
ێ	-11.1172
گشت	-11.1172
▁پیشگال	-11.1173
▁دمگے	-11.1174
▁سویڈن	-11.1174
▁پرچی	-11.1177
شرگداری	-11.1179
▁پانکجن	-11.1181
▁بیگواه	-11.1182
▁become	-11.1185
▁previous	-11.1185
دوست	-11.1186
▁چھر	-11.1187
▁گردگ	-11.1196
▁الکاپیں	-11.1196
▁Nove	-11.1196
▁انگریزانی	-11.1198
▁زمانگءِ	-11.1198
▁کرے	-11.1199
▁گشتن	-11.12
یتگ	-11.1203
▁گندگا	-11.1207
▁فاضلءِ	-11.1212
▁نیاز	-11.1212
▁بشک	-11.1213
▁north	-11.1216
▁ھرچیز	-11.122
▁کنٹگ	-11.1227
▁پیسرگیں	-11.1228
▁بیڑبرتگ	-11.123
▁men	-11.1231
▁تھاریں	-11.1233
▁اجب	-11.1242
▁جگہ	-11.1247
▁یاسر	-11.1248
▁جہمنند	-11.1249
▁درنگ	-11.1251
▁مو	-11.1257
▁بلاہ	-11.1258
▁شہرے	-11.1259
▁کیو	-11.1263
▁اجتماعی	-11.1264
▁نگار	-11.1268
▁میزائل	-11.1268
ئت	-11.1268
▁کافر	-11.1269
▁ہمارے	-11.1274
▁نزان	-11.1275
▁di	-11.1277
▁اژدری	-11.1278
▁design	-11.1279
▁مھراب	-11.1279
▁پیل	-11.128
▁تہنائی	-11.1289
▁پلگ	-11.129
▁نتیجہ	-11.1295
▁کارروائی	-11.1296
باریں	-11.1298
▁موضوع	-11.13
▁پتءَ	-11.1301
▁ھالے	-11.1304
▁چیخوف	-11.1305
▁پیلوی	-11.1307
کسے	-11.1309
▁ملتان	-11.1311
▁گہہ	-11.1319
▁دلجمیں	-11.1321
▁بابو	-11.1323
▁پریاتاں	-11.1325
▁گندیم	-11.1326
▁زامات	-11.1329
▁اتکہ	-11.133
▁رومن	-11.1332
▁open	-11.1336
▁شیرکنی	-11.1336
▁سلطنت	-11.134
▁پھناتاں	-11.134
▁کورونا	-11.134
▁اپے	-11.1345
▁جمپ	-11.1346
▁Man	-11.1348
ائرا	-11.1348
▁اقوام	-11.1349
▁چدا	-11.1351
▁پچار	-11.1353
▁اڑاند	-11.1355
▁ھمبل	-11.1356
تاک	-11.1356
پٹ	-11.1357
▁جنوکیں	-11.1357
▁ماندارگ	-11.1363
▁سروکانی	-11.1364
▁لاف	-11.1366
▁باسکے	-11.1372
▁لشکرکشی	-11.1373
▁نزیر	-11.1375
▁چدءُ	-11.1381
▁کرتی	-11.1383
▁سربوتگ	-11.139
▁کراچیءَ	-11.1391
▁ترسناکیں	-11.1392
▁اوشتاتگیں	-11.1394
[	-11.1394
▁وزارت	-11.1398
▁فراہم	-11.1398
▁Dece	-11.1399
▁شپی	-11.1405
▁قمبرانی	-11.1407
▁بارت۔	-11.1411
▁مرگءَ	-11.1412
▁ناما	-11.1414
ایا	-11.1418
▁مطالعہ	-11.1419
▁تش	-11.1421
▁سگار	-11.1421
ٹک	-11.1423
▁جاورھال	-11.1423
▁روژنا	-11.1424
زمین	-11.1424
▁ارزانیں	-11.1426
▁بودشت	-11.143
ہچ	-11.143
▁پشدر	-11.1431
▁زمانگاں	-11.1432
لو	-11.1432
▁ح	-11.1435
بد	-11.1439
با	-11.1444
▁مھتر	-11.1448
▁go	-11.145
▁باوری	-11.1451
▁ایدگرانی	-11.1455
▁وتاک	-11.1457
▁چراغ	-11.1457
▁ہاتر	-11.1462
▁حاص	-11.1463
▁پجا	-11.1467
▁release	-11.147
▁زوراور	-11.147
▁مزاج	-11.1472
▁حدیث	-11.1473
▁شوہازگ	-11.1473
▁پھازگ	-11.1478
▁book	-11.1478
۔ھمے	-11.1483
▁سلاھانی	-11.1485
▁major	-11.1488
▁جگ	-11.1489
▁گن	-11.149
▁پژدرءَ	-11.149
يں	-11.1491
▁حیا	-11.1492
چشکہ	-11.1494
▁لہڑ	-11.1497
پاکستان	-11.1499
▁title	-11.1499
▁south	-11.1507
▁character	-11.151
▁سبق	-11.151
▁زنڈ	-11.1511
▁پبلک	-11.1514
▁ناجوڑی	-11.1517
▁بلوچوں	-11.1518
▁گوانزگ	-11.1523
▁اصول	-11.1524
شاعر	-11.1524
▁نبشتکار	-11.1529
▁مارے	-11.1534
▁جانب	-11.1539
▁پہریزگ	-11.1541
▁نبشت	-11.1546
▁تھار	-11.1547
▁His	-11.1547
▁develop	-11.1548
▁شھراں	-11.1548
▁just	-11.1549
▁اھوالکارانی	-11.1553
▁ادمانی	-11.1554
▁perform	-11.1555
▁کرتیں	-11.1559
▁مرداں	-11.1559
▁دہمی	-11.156
دنیا	-11.1563
▁اندوہ	-11.1564
▁جوریں	-11.1564
▁چارگی	-11.1565
▁اپءَ	-11.1567
▁یکمی	-11.1567
▁وپسگ	-11.1568
▁ملامتی	-11.1571
▁صنعتی	-11.1571
▁سجدہ	-11.1572
▁Jul	-11.1573
▁وھدئے	-11.1581
▁جادو	-11.1581
▁ثواب	-11.1581
▁بیغ۔	-11.1582
▁االله	-11.1584
▁کساں	-11.1584
تب	-11.1585
دگ	-11.1585
▁ھا	-11.1585
▁افراد	-11.1587
انسان	-11.1588
▁بروبر	-11.1589
▁رھبندے	-11.1592
▁ایراں	-11.1596
▁پات	-11.1597
مر	-11.1599
▁میتگانی	-11.1599
▁رنگانی	-11.1606
▁تباہی	-11.1611
▁مضمون	-11.1611
▁جتاھیں	-11.1613
▁An	-11.1615
▁شناخت	-11.1615
▁City	-11.1618
▁چارگا	-11.1619
▁شئیرءِ	-11.1621
▁By	-11.1623
▁شہیدانی	-11.1625
▁پلنگ	-11.1627
▁شهر	-11.1628
ێا	-11.1629
▁قریب	-11.1629
▁شیرانی	-11.1633
▁وارس	-11.1637
▁روبرکتی	-11.1637
▁ھیالداری	-11.1638
▁گوہار	-11.164
▁عنقا	-11.1646
▁تھنائی	-11.1646
▁مالوم	-11.1647
▁شہرءَ	-11.1652
▁جدا	-11.1654
▁میاریگ	-11.1655
▁کندگے	-11.166
▁اودءِ	-11.166
▁اسرے	-11.1663
▁فدائی	-11.1663
▁ضرور	-11.1664
▁ہواں	-11.1664
▁گلباگ	-11.1664
▁تھیوری	-11.1667
▁پرسی	-11.1669
▁بیتگاں	-11.1669
انکہ	-11.167
▁ورگءَ	-11.167
▁بچکندے	-11.1671
▁شاعرءِ	-11.1673
▁گوادرءَ	-11.1674
▁buil	-11.1679
▁شیدا	-11.168
▁انت۔۔	-11.1681
▁ھاموشی	-11.1682
▁II	-11.169
▁water	-11.169
▁نبوت	-11.1697
▁سخت	-11.1701
▁کبل	-11.1702
▁وسیم	-11.1707
▁make	-11.1714
▁De	-11.1716
▁جود	-11.1719
▁زندانی	-11.172
که	-11.1724
▁سھت	-11.1725
▁علاقے	-11.1729
▁شوکیں	-11.173
▁گڈسرءَ	-11.173
تاریخ	-11.173
▁لیکہی	-11.1731
▁اێر	-11.1735
▁راھبندانی	-11.1735
▁چکی	-11.1735
▁حشکیں	-11.1736
▁گیا۔	-11.1738
▁دماگ	-11.1739
▁اوشتیت	-11.174
▁بستارءَ	-11.1743
▁شاتکامی	-11.1744
بیت۔	-11.1746
▁یونس	-11.1749
▁پث	-11.1749
▁دربرتگ	-11.1751
▁چیزءِ	-11.1752
▁بندن	-11.1752
▁کہتا	-11.1754
▁best	-11.1757
▁H	-11.1759
▁When	-11.1759
▁month	-11.1759
▁باقاعدہ	-11.176
▁کورس	-11.176
▁نزءَ	-11.1761
▁ات۔اے	-11.1763
شان	-11.1767
▁بادشاه	-11.1768
▁جانا	-11.1772
▁ئنت	-11.1776
▁version	-11.1777
▁All	-11.178
▁publish	-11.1781
▁انگ	-11.1783
▁پیرزال	-11.1784
▁سرور	-11.1787
▁طالب	-11.1788
▁باہوٹ	-11.1789
▁اتکگاں	-11.179
▁سمیر	-11.179
▁سیائیں	-11.1794
چاگردی	-11.1794
▁Be	-11.1796
▁تجربگ	-11.1804
▁ابدال	-11.1804
▁اگہی	-11.1805
▁پرنگی	-11.1808
ارگ	-11.1809
▁دژمناں	-11.1814
▁سپاھیگ	-11.1819
▁گہ	-11.1822
▁ڈب	-11.1825
▁گولہ	-11.1825
▁بستہ	-11.1825
▁ڈال	-11.1826
▁سندی	-11.1829
▁دکانے	-11.1832
یو	-11.1833
▁دراھگ	-11.1834
▁مردمانءِ	-11.1835
▁نشتگاں	-11.1836
▁بوتیں۔	-11.1837
▁continu	-11.1842
▁پگرءِ	-11.1843
▁مستاگ	-11.1844
▁اوستا	-11.1845
▁ڪت	-11.1848
▁بڑ	-11.1848
▁شوم	-11.1848
▁local	-11.1849
▁۔چہ	-11.1852
▁اختلاف	-11.1852
▁دکی	-11.1856
▁National	-11.1856
کجا	-11.1858
▁سرہال	-11.1859
▁nam	-11.1863
▁نابود	-11.1868
ness	-11.1871
▁باوجود	-11.1873
▁ھبراں	-11.1875
▁گالرد	-11.1881
شریں	-11.1882
▁!!	-11.1886
▁کورءَ	-11.1887
▁period	-11.1888
▁بوتگءُ	-11.1889
▁گامے	-11.1889
▁کدیر	-11.1889
▁واکاں	-11.189
گیر	-11.189
تک	-11.1892
▁ریڈ	-11.1894
رہ	-11.1907
▁There	-11.1907
▁زیک	-11.1911
▁ڈنگ	-11.1914
▁چنڈے	-11.1914
▁اغا	-11.1914
▁امبر	-11.1915
▁ھمت	-11.1916
▁ادمءِ	-11.192
▁وپس	-11.192
▁2009	-11.1921
▁ماتانی	-11.1922
▁دربرجاہ	-11.1928
کرت	-11.1928
▁بیلہ	-11.1931
▁سلکاری	-11.1933
▁ناسر	-11.1936
▁2010	-11.1937
▁مزاری	-11.1946
▁مچکدگ	-11.1946
▁وڈھ	-11.1948
▁ہمراہیءَ	-11.1949
▁تحصیلدار	-11.195
پمیشا	-11.1951
▁پرش	-11.1953
▁گوشتن	-11.1954
▁ترینتگ	-11.1957
مرد	-11.1957
▁گا۔	-11.1958
▁تاوانے	-11.1958
▁خمار	-11.1961
▁way	-11.1961
▁تجارت	-11.1967
▁بکن۔	-11.1967
▁حالاں	-11.1967
▁۔بلئے	-11.1967
رز	-11.1975
▁b	-11.1976
▁بیتاں	-11.1979
▁رازی	-11.1982
▁ھالاں	-11.1985
▁تیراں	-11.1986
▁2008	-11.1986
▁غ	-11.1986
جست	-11.1987
راست	-11.1991
▁کانٹ	-11.1993
▁گلاس	-11.1995
نز	-11.1996
▁ایوان	-11.2001
▁25	-11.2003
▁بارکھان	-11.2003
▁شھیدی	-11.2004
▁جلسہ	-11.2005
▁گڈگ	-11.2007
▁مندر	-11.2008
▁ناکام	-11.2012
▁درصد	-11.2013
▁میانجی	-11.202
▁جنے	-11.202
▁مشکلیں	-11.2021
▁اسٹیج	-11.2024
▁جمہوری	-11.2025
▁دومیءَ	-11.2033
▁ھروھد	-11.2034
▁بول	-11.2037
▁وشیاں	-11.2042
▁اھدی	-11.2043
▁even	-11.2043
▁کشا	-11.2044
▁درکپگ	-11.2044
▁بابل	-11.2045
b	-11.2046
▁برزءَ	-11.2051
▁رحمان	-11.2053
▁کنڈگ	-11.2053
▁مدرسہ	-11.2054
▁G	-11.2058
▁کریں	-11.2059
▁اپاں	-11.206
▁ملٹ	-11.2061
▁شتگ۔	-11.2063
▁نین	-11.2064
لے	-11.2064
▁ائر	-11.2068
▁ھکل	-11.2068
▁لیاقت	-11.2071
▁کورءِ	-11.2072
▁استانی	-11.2073
▁کنغ۔	-11.2074
▁جاھمنند	-11.2074
▁ڈگاراں	-11.2074
▁تواراں	-11.2078
▁River	-11.2079
▁نیکراہ	-11.2082
▁شاھد	-11.2084
▁جہاندپتر	-11.2085
▁بلوچیءِ	-11.2086
▁کیشنز	-11.2087
▁تجزیہ	-11.2087
▁بندان	-11.2089
▁واشک	-11.2094
زانگ	-11.2101
▁اگرچہ	-11.2101
▁دیمے	-11.2103
▁دیست۔	-11.2104
▁زرکاری	-11.2112
▁برادری	-11.2114
▁وانان	-11.2114
▁دوسد	-11.2115
▁زہ	-11.2117
▁محل	-11.2119
▁نقطہ	-11.212
▁واھگے	-11.2127
▁ملنگ	-11.2129
▁public	-11.2129
▁زمینءَ	-11.2129
▁کدر	-11.2139
p	-11.214
▁نیاتک	-11.2143
▁زانا	-11.2147
▁کاسگ	-11.2149
▁ساوڑ	-11.2153
▁ہمدردی	-11.2153
▁چاگی	-11.2155
▁پشین	-11.2155
▁ٹپانی	-11.2155
▁مہکمیں	-11.2156
or	-11.2159
▁گوشی	-11.2161
▁جوزگ	-11.2161
k	-11.2164
▁سیاستدان	-11.2164
▁تاس	-11.2165
▁برت۔	-11.2165
▁حالات	-11.2167
▁club	-11.2167
▁ٹوہیں	-11.2176
▁گساں	-11.2177
کوئٹہ	-11.2189
▁شب	-11.219
▁واپس	-11.2194
▁دینار	-11.2198
▁سادہ	-11.22
راج	-11.2204
▁ڈولے	-11.2205
▁انتظامی	-11.2206
▁ملازم	-11.2206
▁ارجان	-11.2208
▁حبراں	-11.2209
▁تند	-11.2211
▁خانءَ	-11.2214
▁شرین	-11.2218
▁برواں	-11.2221
▁لڈگ	-11.2221
▁حکومتی	-11.2224
▁ہل	-11.2225
▁باران	-11.2228
▁مڑاہ	-11.223
▁برتانیہ	-11.2236
▁گجر	-11.2244
▁کردانی	-11.2245
▁اجبیں	-11.225
▁ہمود	-11.2251
▁جھدے	-11.2251
▁کیونکہ	-11.2253
▁شنگکار	-11.226
▁اھی	-11.226
▁ریچگ	-11.2265
▁لٹک	-11.2266
▁اسودگ	-11.2268
▁اکسیجن	-11.2269
توار	-11.2269
▁ود	-11.2271
▁کون	-11.2272
▁اند	-11.2279
▁راسک	-11.228
‘‘,’’	-11.228
▁امکان	-11.2281
▁سروز	-11.2287
▁top	-11.2288
▁صورتءَ	-11.2293
▁دیگا	-11.2294
▁بوئگا	-11.2296
ها	-11.2299
▁establish	-11.2301
▁تنگی	-11.2301
▁الرحمان	-11.2302
▁اساپ	-11.2306
▁حاضر	-11.2309
کنوکیں	-11.231
▁کڈک	-11.2312
▁گالی	-11.2312
▁ھرابیں	-11.2315
▁کاریز	-11.2315
ایشانی	-11.2316
▁سیکریٹری	-11.2318
▁لهتے	-11.232
▁روگا	-11.2321
لوگ	-11.2322
▁لیکہے	-11.2324
▁ہانی	-11.2324
▁کلان	-11.2325
▁لوٹیں	-11.2326
▁بداریت	-11.2326
▁وانگا	-11.2331
▁مستری	-11.2331
دات	-11.2333
▁یڪ	-11.2333
▁شاھین	-11.2334
▁زانگی	-11.2335
▁still	-11.2335
▁اوکیں	-11.2338
▁رستر	-11.2341
▁درائینت۔	-11.2342
▁سرگرمی	-11.2346
▁چری	-11.2347
▁لطیف	-11.2348
▁سج	-11.2349
▁درویش	-11.235
▁گسءَ	-11.2352
▁ترءُ	-11.2365
▁کڈ	-11.2366
▁گڈسرا	-11.2367
▁بوھان	-11.2368
ie	-11.2368
واں	-11.237
▁بئے۔	-11.2371
▁کافکا	-11.2379
▁نفرت	-11.238
▁اما	-11.2381
▁الگ	-11.2381
▁رودراتک	-11.2382
▁امیتے	-11.2383
▁دیوالانی	-11.2383
▁خانءِ	-11.2384
▁نگر	-11.2388
▁شادہ	-11.2389
▁حقیقی	-11.239
▁۔۔۔۔۔۔	-11.2392
▁رچ	-11.2393
▁چیدگی	-11.2396
▁اشکر	-11.2396
▁وانوکانی	-11.2398
▁ازیز	-11.24
▁درپ	-11.2401
▁led	-11.2401
▁شرگداریءِ	-11.2403
فارسی	-11.2404
▁career	-11.2404
▁جۆڑ	-11.241
▁ھید	-11.2413
▁طوفان	-11.2417
▁طاہر	-11.2419
▁کتہ۔	-11.2419
▁history	-11.242
▁منگچر	-11.2422
▁زندگاں	-11.2427
▁الف	-11.2427
▁نفسی	-11.2429
▁قیمتی	-11.2432
▁وڑی	-11.2434
▁مردیں	-11.2434
▁مد	-11.2435
▁شکایت	-11.2435
▁دس	-11.2436
▁common	-11.2437
▁وانندگیں	-11.2438
▁گدارءِ	-11.2438
گیش	-11.2439
▁چتگ	-11.2444
▁ابدمان	-11.2445
اہ	-11.2446
▁دیستگیں	-11.2447
▁رژنائیں	-11.2448
▁گشیت۔	-11.245
▁گولی	-11.246
▁مٹی	-11.2464
▁کدرت	-11.2466
▁بیگل	-11.2467
▁ورگی	-11.247
▁روئگ	-11.247
▁اسپیکر	-11.2474
▁دپا	-11.2475
▁بلین	-11.2477
▁پدردی	-11.2478
▁سیف	-11.2479
▁وسیں	-11.2482
▁feature	-11.2482
چوش	-11.2487
کئے	-11.2487
▁رکھ	-11.2488
▁پہلو	-11.249
▁رمس	-11.249
▁یوک	-11.249
▁ایسوسی	-11.249
▁گوئر	-11.2491
▁اعتبار	-11.2493
▁بلیک	-11.2496
...............	-11.2497
▁شاگرد	-11.25
▁اگے	-11.25
شنگ	-11.2501
▁رمزان	-11.2502
▁زمیندار	-11.2503
▁رش	-11.2504
▁غصہ	-11.2508
▁دیکھا	-11.2508
▁اکسے	-11.2509
▁وتیگ	-11.251
▁لہڑگ	-11.2515
▁تبیں	-11.2516
▁old	-11.2517
▁اسرار	-11.2518
▁ستار	-11.2522
مروچی	-11.2532
▁مہلہ	-11.2532
▁ادراک	-11.2537
uent	-11.2538
▁شھم	-11.254
▁یکےءَ	-11.2541
▁گنجائش	-11.2545
گانی	-11.2545
▁ایدگراں	-11.2546
▁دلبر	-11.2549
▁ھج	-11.255
▁ملام	-11.2553
▁کران	-11.2553
▁present	-11.2553
▁دلیری	-11.2555
▁often	-11.2559
▁گمیگ	-11.2559
▁100	-11.2563
▁نازرک	-11.2566
▁ایشن	-11.2569
▁چیزءَ	-11.2574
ern	-11.2577
بدل	-11.2578
▁بیت۔۔۔	-11.2578
▁اریپیں	-11.258
▁سھیگ	-11.2582
نان	-11.2583
▁پرتو	-11.2584
▁شائرانی	-11.2584
▁کانون	-11.2585
▁حبرءَ	-11.2586
▁ھردیں	-11.2586
کریم	-11.259
▁گریشگ	-11.259
▁مغل	-11.259
▁واناں	-11.2591
▁site	-11.2591
▁گشتے	-11.2591
▁وڑےءَ	-11.2591
▁سرینت	-11.2592
▁گشیں	-11.2593
▁چکار	-11.2593
▁ھاوند	-11.2595
▁زانتے	-11.2595
▁ھجبر	-11.2595
▁بلۆچانی	-11.2596
▁تگرانی	-11.2601
▁یگ	-11.2601
▁سھرا	-11.2604
▁پوریاگر	-11.2612
▁دارنت	-11.2617
▁پنچیں	-11.2617
ماھتاک	-11.2629
▁side	-11.2629
▁زباد	-11.263
▁سلسلہ	-11.2631
▁بنداتءَ	-11.2631
▁اسٹیٹس	-11.2631
▁ویکسین	-11.2631
▁وتکش	-11.2635
▁پلی	-11.2637
▁ھبدہ	-11.2637
▁حدے	-11.2638
لس	-11.2639
▁لالہ	-11.2641
▁گوشدار	-11.2643
▁پروجیکٹ	-11.2643
▁تہران	-11.2644
▁دورءُ	-11.2646
▁کمزوری	-11.2646
▁منظر	-11.2647
▁شناس	-11.2647
▁دستءِ	-11.2648
▁اسسٹنٹ	-11.2648
▁دوبارہ	-11.2648
▁ہمیں	-11.2652
▁بکننت	-11.2664
▁کیل	-11.2665
▁سکھت	-11.2666
▁رویں	-11.2666
▁چتو	-11.2666
▁دوستانی	-11.2672
▁شہار	-11.2675
▁میرا	-11.2675
▁بحت	-11.2677
▁کنین	-11.2679
▁عن	-11.2686
▁مارکسی	-11.2688
▁جنیانی	-11.269
▁ایردست	-11.269
▁ایات	-11.2696
▁help	-11.2697
▁few	-11.2698
▁مانگ	-11.2698
ای	-11.2703
▁ھسابءَ	-11.2704
▁پردگ	-11.2705
کدی	-11.2707
ou	-11.2708
▁رائے	-11.2712
▁کنئگی	-11.2713
برو	-11.2715
company	-11.2715
▁شهید	-11.2716
▁منشیات	-11.2716
▁سین	-11.2719
▁سجہیں	-11.2722
▁h	-11.2723
▁نثر	-11.2724
▁One	-11.2726
▁سکتا	-11.2726
▁کارئے	-11.2727
▁list	-11.2728
▁لوغ	-11.273
▁جرنیل	-11.2732
است	-11.2733
▁ابدل	-11.2733
شن	-11.2733
▁دومیگ	-11.2736
▁وشتر	-11.2738
▁رسینت	-11.274
▁شئیری	-11.2742
▁شاعریئ	-11.2744
▁مهلوک	-11.2744
▁next	-11.275
▁2007	-11.275
▁کسہے	-11.2754
▁پنجگ	-11.2758
▁بتی	-11.2758
▁جلیل	-11.2759
▁ھدایت	-11.2761
▁دیرءَ	-11.2762
▁ائولی	-11.277
▁شاہد	-11.2774
▁زنداناں	-11.2774
▁لکیر	-11.2774
▁دزاپ	-11.2778
▁نما	-11.2779
▁J	-11.2788
▁تتک	-11.2789
▁وانگءِ	-11.279
▁رچگ	-11.2791
▁دوستے	-11.2792
▁کینگی	-11.2794
▁مولد	-11.2796
▁دیئگ	-11.2797
▁سلیں	-11.2797
▁کنر	-11.2799
▁جنگلے	-11.2799
▁arm	-11.2801
▁طاقتور	-11.2801
▁دشتار	-11.2802
رگ	-11.2805
▁ھردوک	-11.2808
▁سواس	-11.281
▁حج	-11.281
▁لائک	-11.2814
▁زن	-11.2818
گوادر	-11.2819
▁ہاؤس	-11.282
کنت۔	-11.282
▁English	-11.2821
▁بگندات	-11.2822
▁ٹوئٹر	-11.2822
▁رھبنداں	-11.2823
▁درستی	-11.2824
▁building	-11.2825
▁انہ	-11.2826
▁مخلوق	-11.2826
ism	-11.2826
▁پمے	-11.2836
▁دوستیگیں	-11.2837
▁دوراں	-11.2839
▁پکری	-11.284
▁کوھنگیں	-11.2843
▁جرگہ	-11.2844
▁درہ	-11.2845
▁رئیسانی	-11.2851
▁لگور	-11.2853
▁لینن	-11.2854
▁نگرانی	-11.2855
▁French	-11.2857
▁ھاسٹل	-11.2858
▁ہچی	-11.2858
▁سرکنگ	-11.2859
▁درملک	-11.286
▁پرکار	-11.2861
▁ایی	-11.2862
▁گلءِ	-11.2862
▁مہے	-11.2862
▁دودمانی	-11.2865
▁فکرءُ	-11.2868
▁بیرگ	-11.287
▁ایرانءَ	-11.2872
▁پتءِ	-11.2873
▁similar	-11.2874
▁کلیت	-11.2876
وانگ	-11.2877
▁عیسائی	-11.2878
▁دیستگ۔	-11.2879
▁دامگ	-11.2879
▁ھرابی	-11.2887
▁هو	-11.289
وٹ	-11.2891
▁جڑ	-11.2893
▁ھبکہ	-11.2893
▁کنائین	-11.2893
▁قال	-11.2899
▁ھانل	-11.2899
▁بروبری	-11.291
??	-11.291
▁بریگیڈ	-11.291
▁داکٹر	-11.291
▁اجکہ	-11.2912
▁مھرنگ	-11.2919
▁باپار	-11.2921
▁متعلق	-11.2921
▁ٹکے	-11.2922
▁درھیں	-11.2927
▁کؤر	-11.2928
▁وومن	-11.2929
▁ده	-11.2935
▁گوشتہ	-11.2935
▁یلیں	-11.2935
▁زانتءُ	-11.2935
وئیں	-11.2936
▁حالتاک	-11.2936
▁نئیت۔	-11.2937
▁دروشماں	-11.2941
دیگ	-11.2942
▁سدک	-11.2943
▁مرچیگ	-11.2943
▁سوزیں	-11.2944
▁سرئے	-11.2945
▁درکپ	-11.2945
گوات	-11.2948
▁بعض	-11.2949
▁وفات	-11.2949
▁For	-11.295
▁c	-11.2952
▁روچان	-11.2953
سرجمیں	-11.2955
▁دیکھ	-11.2955
▁برزا	-11.2955
ٹر	-11.2957
کنان	-11.2957
▁پاکستانءَ	-11.2959
ازات	-11.296
▁pass	-11.2961
▁حالی	-11.2967
▁بیس	-11.2967
ia	-11.297
▁ہردو	-11.297
▁To	-11.2971
▁ساحلی	-11.2972
▁گوشانی	-11.2975
▁بادشاھی	-11.2979
▁ردیت	-11.298
▁رہشوناں	-11.298
▁سربوت	-11.2984
▁میانءَ	-11.2985
▁ھاجی	-11.2985
نوک	-11.2986
گوشگ	-11.2988
▁سباہ	-11.2989
▁پیتی	-11.299
▁سیوی	-11.299
▁بیمناکیں	-11.3
دیوان	-11.3
▁درنیامءَ	-11.3004
▁پیس	-11.3006
نس	-11.3006
▁کزا	-11.301
▁چولانی	-11.3013
▁تلب	-11.3016
▁کسہی	-11.3017
درد	-11.3019
▁مادر	-11.302
▁ٹاپ	-11.302
▁right	-11.3022
گال	-11.3025
▁ڈڈ	-11.3025
▁سرکارءَ	-11.3027
▁پانگ	-11.3027
زم	-11.3028
held	-11.3028
ایوک	-11.303
پچ	-11.3031
▁دریائی	-11.3032
▁یاسین	-11.3032
علم	-11.3034
▁power	-11.3035
▁پاداتک	-11.3036
▁دباؤ	-11.3037
▁اکثر	-11.3041
▁پسءِ	-11.3041
▁عاقبت	-11.3043
▁پھلی	-11.3048
▁مرادانی	-11.3048
▁انچین	-11.305
▁کرتاں	-11.3054
▁produc	-11.3055
▁پشمبے	-11.3057
▁مہار	-11.3058
▁رفتار	-11.3059
▁محبوبہ	-11.3063
▁اثار	-11.3064
▁کورے	-11.3065
▁پیغمبر	-11.3065
▁ظالم	-11.3069
▁بم	-11.307
▁اسرمند	-11.3072
▁ملگ	-11.3072
▁قصہانی	-11.3077
▁عاقل	-11.3078
▁تہرانی	-11.3079
▁اجوئیں	-11.3086
▁بێگواه	-11.3089
▁came	-11.3089
▁اژ	-11.309
▁دئیان	-11.309
▁باث	-11.3092
▁انو	-11.3098
چوکہ	-11.3099
▁جاگه	-11.3101
▁لوڑ	-11.3105
▁With	-11.311
▁عامر	-11.3112
▁پہناتانی	-11.3115
▁کامل	-11.3117
▁سرئ	-11.312
▁ه	-11.312
تنت	-11.3122
▁حاجت	-11.3123
▁کنگے	-11.3123
▁سلاح	-11.3123
▁جہلانکی	-11.3125
▁دیوتا	-11.3129
▁گالریچ	-11.313
▁عبد	-11.313
▁نێست	-11.3132
▁جال	-11.3133
▁بارہءَ	-11.3133
▁تبے	-11.3135
▁بالکل	-11.3135
▁گلا	-11.3139
▁رحمن	-11.3139
▁جیڑھ	-11.314
▁شریدار	-11.3142
▁مہم	-11.3142
▁چارئے	-11.3142
▁ھالو	-11.3143
▁دیش	-11.3143
▁بیستمی	-11.3144
▁seven	-11.3146
▁بکرتیں	-11.3146
▁کبزہ	-11.3148
▁دانش	-11.3148
▁ھاکمی	-11.3148
3	-11.3148
▁ڈھاڈر	-11.3151
▁سماج	-11.3151
▁ورزی	-11.3159
▁مئیگ	-11.3165
غاں	-11.3165
▁ھچی	-11.3166
▁writ	-11.3168
▁لوڈ	-11.3169
▁دستور	-11.317
▁کروس	-11.317
▁گزار	-11.318
▁دھا	-11.318
▁لم	-11.318
▁لنجیں	-11.3181
▁you	-11.3182
▁level	-11.3183
▁ایردستی	-11.3183
▁جاہمنند	-11.3183
▁تصویر	-11.3187
▁وانین	-11.3188
▁کمانڈر	-11.3188
▁زراب	-11.3189
▁نرمی	-11.3193
▁جلدی	-11.3194
▁ہاسٹل	-11.3194
پشت	-11.3195
▁سریگ	-11.3195
by	-11.3198
▁جما	-11.3198
▁واقعات	-11.3199
▁نپر	-11.3201
▁سدلی	-11.3204
بنی	-11.3204
گون	-11.3208
▁ھاٹیگ	-11.3209
▁بوتگانت	-11.321
▁اشکار	-11.3211
▁fire	-11.3211
▁ادماں	-11.3211
▁بنڈ	-11.3213
چیزے	-11.3214
▁سلاہاں	-11.3217
▁half	-11.3224
بت	-11.3225
▁کہدہ	-11.3232
یشن	-11.3233
▁شنز	-11.3233
▁بساک	-11.3234
▁درءَ	-11.3235
لوٹ	-11.3235
▁نانکہ	-11.3236
▁نیلیں	-11.3243
▁کاکڑ	-11.325
▁claim	-11.3254
▁زالے	-11.3255
▁ودارءَ	-11.3257
▁دیوانگ	-11.3264
▁تریاک	-11.3267
▁songs	-11.3268
▁ولے	-11.3271
▁turn	-11.3271
▁پہلوان	-11.3274
▁انار	-11.3276
▁Division	-11.3276
▁رجانکی	-11.3278
▁former	-11.328
▁عبدالصمد	-11.328
کیچ	-11.3281
▁پیداور	-11.3282
سیاسی	-11.3285
▁نیب	-11.3286
▁نگیگی	-11.3287
بندی	-11.3287
▁زمانے	-11.3288
▁اسلءَ	-11.3288
▁کٹگ	-11.3292
دپ	-11.3293
دین	-11.3296
▁نسیر	-11.3298
جنین	-11.3298
▁ٹٹ	-11.3298
▁contain	-11.33
▁سہبءَ	-11.3302
▁رجینتگیں	-11.3303
ist	-11.3303
▁ات۔بلے	-11.3304
▁کچل	-11.3305
نیمگ	-11.3306
▁نئیں	-11.3306
▁ماری	-11.3307
▁فل	-11.3308
▁زاهدان	-11.3308
▁یمن	-11.3309
▁ایٹم	-11.331
▁جوزہ	-11.3311
▁چاروک	-11.3312
▁شتگیں	-11.3312
spite	-11.3313
▁متھدہ	-11.3314
▁داؤد	-11.3317
▁دئینت۔	-11.3317
▁یکوئی	-11.3318
▁ہمیشانی	-11.3319
▁کرکٹ	-11.3322
سیمی	-11.3323
▁تشے	-11.3323
▁سوچن	-11.3324
▁State	-11.3327
▁though	-11.333
▁الکاپ	-11.333
▁رجینتگ	-11.333
▁among	-11.3332
▁واراں	-11.3332
▁رکگ	-11.3332
گیشتر	-11.3332
▁مگ	-11.3333
▁وانگجاھاں	-11.3335
▁بچارئے	-11.3335
▁گردان	-11.3343
▁دژمنانی	-11.3344
▁للہ	-11.3344
▁مسکیں	-11.3346
▁گرنت	-11.3347
▁مناسب	-11.3349
▁برنج	-11.3349
▁صنف	-11.335
▁درین	-11.3352
▁دیگءِ	-11.3353
▁دینے	-11.3356
▁full	-11.3358
▁کوہءِ	-11.3359
▁واکی	-11.3361
▁اخبار	-11.3362
▁پھریزگ	-11.3363
▁لوگواجہ	-11.3365
▁بمبے	-11.3367
▁تحصیل	-11.337
▁حاطرا	-11.3372
▁میوزک	-11.3373
▁تاپ	-11.3375
پمشکہ	-11.3375
▁ھورک	-11.3377
▁جنوزام	-11.338
▁ٹیچر	-11.338
▁ازمءِ	-11.3388
▁اورماڑہ	-11.339
▁رپتار	-11.3392
شعر	-11.3392
▁چرت	-11.3394
▁درتکگ	-11.3396
▁ہڈ	-11.34
▁اوتھل	-11.3407
▁want	-11.3408
▁واتری	-11.3408
▁برطانوی	-11.3409
▁کھڈ	-11.341
▁ھمراھداری	-11.3412
▁ترونگل	-11.3412
▁قبل	-11.3412
▁المیہ	-11.3416
▁church	-11.3417
▁گندی	-11.3418
ید	-11.3421
▁مادہ	-11.3423
▁ببیت۔	-11.3425
▁total	-11.3426
▁تھسیل	-11.3426
▁چارشمبے	-11.3429
▁اربی	-11.3432
▁شہہ	-11.3436
▁کشگا	-11.3438
▁ھؤ	-11.3438
▁جبکہ	-11.3443
▁بلوچان	-11.3444
▁جملہ	-11.3445
▁خلیج	-11.3447
▁منطق	-11.3448
▁مھروانیں	-11.3449
▁سرفراز	-11.3449
▁سحر	-11.3451
▁پیرمرد	-11.3453
▁ساچشتانی	-11.3455
▁هون	-11.3456
▁ادارانی	-11.3457
▁زالم	-11.3459
▁بیگءَ	-11.3462
▁دیدگانی	-11.3463
ether	-11.3467
▁مسجد	-11.3467
▁زتک	-11.3471
اتاں	-11.3472
▁اپانی	-11.3474
▁بیک	-11.3475
▁گندے	-11.3477
▁شف	-11.3477
▁ھیک	-11.3478
▁قبائل	-11.348
▁روحانی	-11.3481
▁production	-11.3483
▁جمب	-11.3483
▁شعیب	-11.3484
▁اسرا	-11.3484
▁امیتانی	-11.3485
▁دربر	-11.3485
ھیال	-11.3487
▁حامد	-11.3488
▁انتظار	-11.3491
▁بلوچءَ	-11.3493
پیر	-11.3497
نیم	-11.3497
▁هلاس	-11.3497
▁شہراں	-11.3501
▁رنگےءَ	-11.3504
▁تحریر	-11.3504
▁پرویز	-11.3506
▁امداد	-11.3508
مبارک	-11.3509
جوڑ	-11.351
▁ارپ	-11.3511
▁شمال	-11.3511
▁جھ	-11.3512
▁سدی	-11.3517
ہا	-11.3519
▁ارگنائزیشن	-11.3521
▁مجن	-11.3524
▁محبوب	-11.3534
▁suggest	-11.3534
▁رھشوناں	-11.3535
▁پادان	-11.3536
▁population	-11.354
▁پگ	-11.3541
▁چیزئے	-11.3541
▁بندہ	-11.3544
▁وفاقی	-11.3547
▁ماحولیاتی	-11.3548
▁ھئور	-11.3548
▁ملائی	-11.3555
▁گاڈی	-11.3556
▁پچے	-11.3557
ینیت	-11.3561
z	-11.3566
▁review	-11.3568
▁حیرانی	-11.3571
▁ھرکسی	-11.3578
▁پانچ	-11.3579
▁ترسگ	-11.3582
▁ینگ	-11.3582
▁جبری	-11.3587
▁لانگو	-11.3589
مال	-11.3595
▁نوخیں	-11.3595
▁ڈیھاں	-11.3597
▁مسائل	-11.3599
▁وارتگیں	-11.3603
▁انجام	-11.3603
گش	-11.3604
▁گیران	-11.3604
نٹ	-11.3606
▁قبرستان	-11.361
▁چونکہ	-11.361
▁پهک	-11.3612
ھدا	-11.3614
▁further	-11.3616
▁ازمانکاری	-11.3617
▁زرتگیں	-11.3624
▁کوریا	-11.3625
▁اسرائیلی	-11.363
▁الحق	-11.3633
▁شاہوانی	-11.3633
▁یلو	-11.3635
▁2011	-11.3636
▁پشاور	-11.3637
▁ٹور	-11.3637
▁پراموش	-11.3638
▁دلوتانی	-11.3638
▁تراکانی	-11.3645
▁field	-11.3645
▁پوری	-11.3646
▁ازاب	-11.3647
▁ٹرانسپورٹ	-11.365
چیاکہ	-11.3651
▁موش	-11.3652
▁مستیں	-11.3652
▁کندان	-11.3652
▁ابدی	-11.3653
▁حسنی	-11.3655
▁شرک	-11.3656
▁جناح	-11.3657
یلہ	-11.3661
▁لسانی	-11.3661
▁نشت۔	-11.3663
▁نباں	-11.3666
▁اچار	-11.3668
▁مہرءِ	-11.367
ھوں	-11.367
▁نوشتانک	-11.367
انچیں	-11.367
▁کارجاہ	-11.3674
▁different	-11.3675
▁ڈیوٹی	-11.3675
▁add	-11.3675
▁گیشوار	-11.3675
▁گواہی	-11.3676
▁نوداں	-11.3676
▁سدو	-11.3676
▁خانگ	-11.3676
کرتگ	-11.3678
▁کنگء	-11.3678
▁تماہ	-11.3681
▁سپا	-11.3684
▁اومر	-11.3688
▁حرف	-11.3689
▁سنگینی	-11.3694
▁ریکوڈک	-11.3695
▁نوید	-11.3695
▁اوشتوکیں	-11.3696
▁ششتگ	-11.3697
▁پدرد	-11.3697
▁دانا	-11.3698
▁برءَ	-11.3701
▁man	-11.3702
▁تگرد	-11.3707
▁جاورال	-11.3708
▁تواریں	-11.3708
▁جنگءُ	-11.3711
▁According	-11.3713
▁2006	-11.3713
▁باپ	-11.3723
▁چکاسگ	-11.3728
▁منہ	-11.3729
▁جنجالے	-11.373
▁Church	-11.3732
▁رتکگ	-11.3734
▁سوڑگ	-11.3734
nd	-11.3735
▁بها	-11.3737
▁درنگاز	-11.3741
▁close	-11.3743
▁گونگ	-11.3745
▁run	-11.3746
▁اپسوز	-11.3748
▁مارات	-11.3749
▁مرگی	-11.3753
▁بارڈر	-11.3753
▁نئی	-11.3754
▁ڈاک	-11.3757
▁مجیب	-11.3757
▁نادراہجاہ	-11.3759
▁تریت	-11.3764
بتل	-11.3765
▁عاصم	-11.3768
▁۔یک	-11.3768
گشگ	-11.3769
زاناں	-11.3771
▁داوا	-11.3772
▁چھو	-11.3773
▁جہلیں	-11.3776
شیر	-11.3776
▁دیتے	-11.3776
▁مشینری	-11.3777
▁پیکر	-11.3782
▁وحید	-11.3785
▁موٹل	-11.3786
وری	-11.3786
وڑ	-11.3787
▁سینیٹر	-11.3788
شک	-11.3791
▁اث	-11.3791
▁ڈسٹرکٹ	-11.3792
▁طبی	-11.3792
▁چارئگ	-11.3793
اتک	-11.3793
ران	-11.3797
▁دانی	-11.3801
▁کدہ	-11.3802
ارش	-11.3803
▁جنکیں	-11.3804
▁گرا	-11.3808
▁روشنی	-11.3809
▁بالاں	-11.381
▁اولسر	-11.3813
▁days	-11.3817
یار	-11.3821
راستی	-11.3821
▁دمبرتگ	-11.3826
▁militar	-11.3831
▁بلوٹ	-11.3835
▁لیکہاں	-11.3838
گوستگیں	-11.3839
▁سامراج	-11.3847
▁ھورکیں	-11.3847
▁چندر	-11.3848
▁نفر	-11.3856
ھال	-11.3862
▁زیم	-11.3863
▁زہم	-11.3866
ئین	-11.3868
▁میرین	-11.3869
▁official	-11.387
▁particular	-11.387
▁ھاندان	-11.387
▁کماشاں	-11.3872
لبزانکی	-11.3874
▁اشارگ	-11.3879
▁زا	-11.388
▁کارکنوکیں	-11.3881
مزن	-11.3889
▁مانزمان	-11.3889
▁بنگلزئی	-11.389
▁هیال	-11.3894
▁ندارگاں	-11.3898
▁بوتگ۔اے	-11.3901
▁جھلی	-11.3903
f	-11.3908
▁بدواہ	-11.3909
▁تنا	-11.3909
▁ٹولیانی	-11.391
▁مذھب	-11.3911
▁strong	-11.3911
▁نجیب	-11.3912
▁اناگاہ	-11.3914
▁گزران	-11.3918
▁قمبر	-11.3923
▁نصیحت	-11.3926
کان	-11.3927
▁پاہو	-11.3928
▁ٹیک	-11.3928
▁بناربس	-11.3936
▁ات۔۔	-11.3936
▁دئیگی	-11.3937
▁بودناکی	-11.3937
▁دستبندی	-11.3939
▁بندگی	-11.3944
▁مکر	-11.3944
پاد	-11.3947
▁شاباش	-11.3948
▁رخ	-11.395
▁سوشلسٹ	-11.395
▁ولد	-11.395
▁تعداد	-11.3953
▁شفیع	-11.3954
▁۔ءُ	-11.3955
▁ضد	-11.3957
▁درستان	-11.3957
▁کال	-11.396
▁سرداراں	-11.3961
▁تیری	-11.3961
▁باند	-11.3962
▁کلہ	-11.3965
▁human	-11.397
▁سنگھ	-11.3971
▁کنگ۔	-11.3971
▁change	-11.3974
▁باشد	-11.3974
▁ماپ	-11.3976
▁مچھ	-11.3976
▁شئرانی	-11.3978
▁ورنائے	-11.3979
ڈن	-11.3979
▁درمانی	-11.398
▁وابیں	-11.3981
▁اسم	-11.3981
▁گیریں	-11.3982
▁scor	-11.3984
▁روچتاک	-11.3987
▁ھرجاہ	-11.3991
▁انساناں	-11.3991
▁دھ	-11.3991
▁برگی	-11.3993
▁رکھا	-11.3994
کانی	-11.3995
▁پہناتاں	-11.3996
▁ساھدار	-11.3997
▁راجکاری	-11.4003
▁لنک	-11.4004
▁بھیسہ	-11.4006
▁ایئر	-11.4008
▁پگرے	-11.4016
▁گالوارے	-11.4018
▁کارگال	-11.402
۔منی	-11.402
▁نشتاں	-11.4022
▁ہزارانی	-11.4026
گری	-11.4028
▁وادی	-11.4031
▁گوشگءَ	-11.4031
▁چریشیءَ	-11.4031
سنگ	-11.4035
▁فارس	-11.4036
▁گیشینت	-11.4037
▁رسائی	-11.4037
▁فہم	-11.4039
▁دورانی	-11.4041
▁اگبالانی	-11.4042
ایران	-11.4044
▁درو	-11.4048
▁League	-11.4049
▁ٹریفک	-11.4049
راں	-11.4052
▁انگلش	-11.4053
▁every	-11.4053
▁اندام	-11.4053
▁ورناھانی	-11.4055
▁رکینت	-11.4055
▁گوشتانک	-11.4056
▁جانور	-11.4058
▁حالکار	-11.4058
دوئیں	-11.4065
▁گدانی	-11.4067
▁نامینگ	-11.4068
کیت	-11.4068
▁increase	-11.4069
▁ورزش	-11.4069
▁کیشن	-11.4071
▁ریگستان	-11.4072
▁حس	-11.4072
▁نزانتگ	-11.4073
▁مہربان	-11.4075
▁لاشے	-11.4077
▁):	-11.4078
▁واہگانی	-11.408
▁خیرات	-11.4081
▁ملار	-11.4084
▁سوتکگ	-11.4086
▁گپی	-11.4087
▁کمیونزم	-11.409
▁عبدالمالک	-11.4091
▁گنتر	-11.4092
▁دکاندار	-11.4094
پنچ	-11.4097
▁وانشت	-11.4098
▁گورے	-11.4099
▁control	-11.4099
▁محتاج	-11.4101
▁تضاد	-11.4104
▁مجاں	-11.4106
:’’	-11.4106
▁رج	-11.4106
▁دنیائی	-11.4107
▁مراں	-11.4109
▁per	-11.4111
▁السلام	-11.4116
▁ردان	-11.4117
▁عیش	-11.4117
▁بوته	-11.4119
▁ہورت	-11.412
▁سیاستءِ	-11.4121
▁دارگءِ	-11.4123
▁ہرچیز	-11.4123
▁پاکستانء	-11.4124
▁عنہ	-11.4129
ہند	-11.4129
▁دزبمب	-11.4129
▁ابوبکر	-11.4132
▁گریبی	-11.4133
▁ھیالءَ	-11.4137
▁مہراں	-11.4139
▁مانش	-11.4139
▁پرو	-11.4139
▁ائیگ	-11.4141
▁گروہ	-11.4142
حال	-11.4143
▁واریاں	-11.4143
▁وتکاریں	-11.4144
▁شاعریءَ	-11.4145
▁استین	-11.4146
▁بجنت	-11.4146
▁زورگری	-11.4147
رس	-11.4148
▁ماہے	-11.4149
▁سچ	-11.4149
▁منیرءِ	-11.4155
▁گێشتر	-11.4156
▁شدکش	-11.4158
▁کنانءَ	-11.4159
▁ڈور	-11.4164
▁بلوچستانء	-11.4166
▁ہمیشہ	-11.4167
ebru	-11.4169
وھد	-11.4172
▁مانی	-11.4174
جت	-11.4175
▁ملکا	-11.4178
▁استالاں	-11.4179
▁راستیءِ	-11.4181
▁جاورے	-11.4181
▁مڈیاں	-11.4182
▁تہل	-11.4182
▁جج	-11.4182
▁بمبگواری	-11.4183
▁ھندے	-11.4184
▁لوک	-11.4184
▁پیمے	-11.419
میان	-11.419
▁service	-11.4191
▁finish	-11.4192
▁جمڑی	-11.4193
مدام	-11.4197
▁caus	-11.4198
مست	-11.4199
▁ترسناک	-11.4201
▁نیلگ	-11.4202
▁خط	-11.4203
▁شہدگ	-11.4206
▁تولگ	-11.4207
▁عادل	-11.4208
▁شیری	-11.4208
▁کامیو	-11.421
▁we	-11.421
▁real	-11.4211
▁دروگے	-11.4219
▁kill	-11.422
▁track	-11.4222
▁دیوانءِ	-11.4222
▁اتھارٹی	-11.4232
gave	-11.4233
▁کوچگی	-11.4236
چر	-11.4237
▁وٹ	-11.4239
▁ٹن	-11.4241
▁صلاحیت	-11.4245
▁ہردیں	-11.4247
▁defeat	-11.4252
▁ایگی	-11.4252
ھمک	-11.4253
▁محکمیں	-11.4254
اسلام	-11.4255
▁بوتگنت۔	-11.4255
▁یاداشت	-11.4259
▁تکہ	-11.426
▁پرمات	-11.4261
▁رھشونانی	-11.4266
▁مہرک	-11.4267
▁۔منی	-11.4267
▁عملے	-11.4267
▁کیپ	-11.4268
▁کنوکے	-11.4271
▁دلکش	-11.4273
▁گنت	-11.4275
▁منزلے	-11.4276
▁ماحل	-11.4278
▁ابی	-11.4279
▁کچھی	-11.4281
▁معنایے	-11.4281
▁لوٹے	-11.4283
رانی	-11.4285
▁بائی	-11.4286
▁بیگی	-11.429
▁‘‘(	-11.429
stead	-11.4291
▁چلگ	-11.4291
▁Song	-11.4292
▁Dylan	-11.4293
ودی	-11.4294
▁رائٹس	-11.4295
▁بلیدی	-11.4297
▁دمگدار	-11.4298
▁لشکرے	-11.43
▁reported	-11.4304
استاد	-11.4307
▁پھنات	-11.4307
▁cover	-11.4311
▁رنگا	-11.4313
▁موم	-11.4315
▁اسٹریلیا	-11.4315
▁زرانی	-11.4318
▁ناجوڑ	-11.4319
▁دروغ	-11.432
لٹ	-11.4323
▁دستونکئ	-11.4324
▁ترانگاں	-11.4325
▁گرے	-11.4326
▁جسے	-11.4327
ھان	-11.4327
▁کوہاں	-11.4329
▁مولا	-11.4329
▁پراں	-11.4329
▁شکلیں	-11.4335
الم	-11.4336
▁درچکاں	-11.4337
▁جیڑہاں	-11.4338
▁سھریں	-11.4339
چل	-11.4342
▁گنوکیں	-11.4343
▁چنانچہ	-11.4344
▁ترز	-11.4344
▁چندن	-11.4345
▁عہدءِ	-11.4345
▁کلاسیک	-11.4348
ical	-11.4349
▁بنگال	-11.4349
▁فلسطین	-11.4349
▁نازءِ	-11.435
moved	-11.4353
▁سوبا	-11.4353
شتگ	-11.4355
▁ویروس	-11.4356
▁ڈاؤن	-11.4357
▁ٹپاں	-11.4357
▁حفاظت	-11.4358
▁کسو	-11.4359
▁نزدیک	-11.436
▁.....	-11.4362
▁unit	-11.4362
▁بیائے	-11.4365
▁land	-11.4366
▁کامران	-11.4367
▁مغرب	-11.4369
مند	-11.4374
ous	-11.4375
▁علاقوں	-11.4376
▁ٹائم	-11.4377
▁بیثہ	-11.4378
▁دارانت	-11.4379
▁لرزگ	-11.438
▁منظم	-11.438
▁معتبر	-11.4382
▁جیڑھاں	-11.4386
گان	-11.4386
▁دردناکیں	-11.4386
▁دیبا	-11.4388
▁east	-11.4388
▁پرشگ	-11.4389
▁بازارءِ	-11.4391
▁نشار	-11.4392
▁ببا	-11.4395
▁قاصد	-11.4396
▁story	-11.4399
▁کراس	-11.4401
▁ٹکٹ	-11.4401
▁پہکیں	-11.4402
▁ماوتی	-11.4403
▁مرتگ۔	-11.4403
▁استادے	-11.4404
▁کشتہ	-11.4404
▁صباء	-11.4405
لیں	-11.4406
▁عطاء	-11.4408
▁جندے	-11.4409
▁اداراں	-11.441
▁پیرس	-11.4413
▁سائٹ	-11.4415
▁2012	-11.4418
▁فورم	-11.4418
▁air	-11.4419
▁شیک	-11.442
▁21	-11.4422
▁کسا	-11.4425
▁بزانتیں	-11.4425
▁دلجان	-11.4425
▁منندیں	-11.4426
▁اوانءِ	-11.4426
▁ثناء	-11.4426
▁سخی	-11.4427
▁تخلیقی	-11.4428
▁دروشمیں	-11.4431
▁چلی	-11.4431
▁رام	-11.4432
▁لوٹنت	-11.4433
▁ترانت	-11.4435
شاد	-11.4435
▁پنوں	-11.4436
سہ	-11.4436
▁ٹیل	-11.4436
▁بنام	-11.4437
▁ممبر	-11.444
▁جمھوری	-11.4446
▁اتراپ	-11.445
▁رنجاں	-11.4451
▁ادارے	-11.4454
▁حداءَ	-11.4454
▁رہشونی	-11.4454
▁ندارگے	-11.4455
▁ملکیت	-11.4455
▁گمراہ	-11.4456
▁اک	-11.4459
▁برگیڈ	-11.4461
▁انگریزاں	-11.4464
▁گيئشتر	-11.4466
▁تنیگہ	-11.4468
▁body	-11.4469
▁کری	-11.4471
▁ہست۔	-11.4475
▁پارست	-11.4476
▁۔اگاں	-11.4478
▁پداں	-11.4479
▁اوور	-11.4488
▁راھاں	-11.4488
▁چاراتگ	-11.4491
▁دیوانا	-11.4491
▁شاھو	-11.4491
▁سماہ	-11.4491
▁کرنچ	-11.4492
▁شرح	-11.4494
▁شانتل	-11.4496
▁مجاہد	-11.45
▁سئید	-11.4503
ورگ	-11.4503
▁بادگیر	-11.4505
▁تؤ	-11.4505
▁مہلنج	-11.4505
▁وارڈ	-11.4508
▁مسیح	-11.4508
▁تچوکیں	-11.4509
▁پدرائی	-11.4511
▁match	-11.4514
▁ہلاسی	-11.4515
▁بلوچانءِ	-11.4515
▁ژ	-11.4517
▁راہءُ	-11.452
▁چنال	-11.4522
▁یونائیٹڈ	-11.4524
ڑو	-11.4525
▁گؤں	-11.4528
▁گبار	-11.4528
▁مولم	-11.4528
▁بوتوں	-11.4529
▁توشگ	-11.4531
مار	-11.4533
▁ڈاکٹرے	-11.4535
el	-11.4537
▁بکناں۔	-11.454
▁کنت۔۔۔	-11.4542
▁کردہ	-11.4544
▁انچوکہ	-11.4544
▁دیستہ	-11.4549
▁ھمروچیگیں	-11.4549
▁ڈر	-11.455
▁حوالے	-11.4551
▁ہاک	-11.4554
اوتی	-11.4557
▁لاگر	-11.4557
▁جیڑیت	-11.4559
ئنت	-11.4563
وخ	-11.4564
▁قریشی	-11.4565
▁ذرائع	-11.4567
▁دیمء	-11.4571
ۆ	-11.4576
▁ڈیہ	-11.4576
▁پڑاں	-11.4577
▁نازاں	-11.4577
▁Arm	-11.4578
▁ٹکی	-11.458
▁tropic	-11.4581
▁لانچر	-11.4584
▁لھم	-11.4585
▁General	-11.4586
▁پشتا	-11.4586
▁سوبمندیں	-11.4588
۔۔۔۔۔۔۔	-11.4588
زان	-11.4592
گدار	-11.4593
▁لاگریں	-11.4595
ؤں	-11.4602
راجی	-11.4606
▁تنیگ	-11.4607
ابید	-11.4612
▁تہلیں	-11.4613
▁دکتر	-11.4613
▁چداں	-11.4617
▁هک	-11.4618
شھلچہ	-11.4623
▁امب	-11.4626
▁بخاری	-11.4627
▁کرناں	-11.463
▁ٹرمپ	-11.4634
▁زانتیں	-11.4635
▁بیانے	-11.4635
▁چنڈگ	-11.4641
▁سمندری	-11.4642
▁گوریچ	-11.4644
▁ازیت	-11.4644
لبز	-11.4645
▁گولے	-11.4645
▁اسپین	-11.4648
▁جذبات	-11.4651
الی	-11.4651
▁کچہ	-11.4651
جنک	-11.4654
▁بکشاتگ	-11.4655
▁چاریگی	-11.4657
▁لوٹائینت	-11.4658
▁لوچ	-11.466
▁موسمے	-11.4661
▁توانا	-11.4664
▁رہبنداں	-11.4667
▁بدیاں	-11.4668
▁ڈویژن	-11.4671
▁hav	-11.4672
▁دیری	-11.4673
▁بشام	-11.4673
▁house	-11.4676
▁باطن	-11.4677
▁region	-11.4679
▁طائر	-11.468
اگر	-11.468
گین	-11.468
▁گشتہ	-11.4681
▁سامی	-11.4682
▁critic	-11.4684
▁ابرو	-11.4687
▁پہلوی	-11.4688
▁گنی	-11.4689
▁بدر	-11.4689
▁همیش	-11.469
▁وتواجھی	-11.4691
ئگا	-11.4692
▁Japan	-11.4692
▁بروک	-11.4694
▁برائے	-11.4696
▁انچ	-11.4698
▁حالگش	-11.4698
▁پیرو	-11.47
پا	-11.4701
▁فیکٹری	-11.4704
▁گسے	-11.4711
▁اشکرانی	-11.4712
▁بیگہ	-11.4712
▁بدنءِ	-11.4714
▁times	-11.4715
اشانی	-11.4719
▁زہگے	-11.472
▁گیشواری	-11.472
▁پہمئن	-11.4722
▁writing	-11.4722
فر	-11.4723
اتکگ	-11.4724
▁سائنسدان	-11.4724
▁کشکاں	-11.473
▁کارکرد	-11.4732
▁انتخاب	-11.4738
▁بیبو	-11.4742
▁بچاراں	-11.4743
▁پورم	-11.4744
▁بیاں	-11.4745
▁ربیتی	-11.4748
▁نبیسوک	-11.475
▁موسی	-11.475
▁term	-11.475
▁سکول	-11.475
▁بیلاں	-11.4751
▁creat	-11.4757
▁رومان	-11.4758
▁شہرءِ	-11.4758
▁گنبد	-11.476
▁بہتر	-11.476
seen	-11.476
▁ندوی	-11.4761
عربی	-11.4761
▁بئیگا	-11.4763
▁کلاہ	-11.4763
▁براتی	-11.4764
▁رون	-11.4765
▁جنگول	-11.4766
▁ڈلگ	-11.4768
▁لوزاں	-11.4769
▁متلبے	-11.4772
▁members	-11.4773
▁بندیک	-11.4775
▁نئیل	-11.4775
▁fee	-11.4777
▁ڈیموکریٹ	-11.4781
▁جدگال	-11.4781
▁ھترہ	-11.4782
▁کتگین	-11.4783
▁low	-11.4783
▁گواھی	-11.4784
▁غازی	-11.4784
▁قاتل	-11.4787
▁ناسرپد	-11.4788
▁سرو	-11.4788
▁گشگا	-11.4788
دم	-11.4789
▁پہنچ	-11.4789
▁گوئی	-11.479
▁پتا	-11.4791
▁ھیرو	-11.4792
▁west	-11.4793
▁ازمانکی	-11.4794
▁کمیونٹی	-11.48
▁اسری	-11.48
▁کارکردگی	-11.4801
▁پکراں	-11.4802
▁مارت	-11.4804
ئن	-11.4804
یس	-11.4804
▁فراز	-11.4806
▁اسٹال	-11.4809
▁?”	-11.4809
▁برد	-11.4811
▁star	-11.4812
▁project	-11.4814
دستونک	-11.4816
▁عمان	-11.4817
جہ	-11.4818
مین	-11.4823
سو	-11.4825
▁لبرل	-11.4827
▁لاطینی	-11.4827
▁عبدال	-11.4827
▁کاپی	-11.4828
▁جوانسال	-11.4829
▁لیکو	-11.4829
▁شاعرءُ	-11.4829
▁ایڈیشن	-11.4832
▁ملنڈ	-11.4833
چوشکہ	-11.4836
▁گیشنگ	-11.4838
▁کیوں	-11.4838
▁مشکت	-11.484
▁ھتم	-11.484
▁ساپیں	-11.4842
▁ذریعے	-11.4844
▁کارپد	-11.4848
▁کته	-11.4852
▁انڈین	-11.4853
lost	-11.4855
▁تقریبا	-11.4856
▁اٹلی	-11.4856
▁قلمکار	-11.4857
▁باھند	-11.4858
▁سہتے	-11.4859
▁بلکنہ	-11.486
▁فرید	-11.4861
▁نوٹس	-11.4861
▁عیسی	-11.4861
▁مدگ	-11.4863
▁ایمانداری	-11.4866
▁انچائیں	-11.4866
▁country	-11.4867
ساحر	-11.4869
▁گفتار	-11.4871
▁میڑہ	-11.4877
غلام	-11.4878
▁ٹاک	-11.488
▁بیئگ	-11.4881
▁نامانی	-11.4882
▁چرا	-11.4884
▁America	-11.4884
▁۔بلوچی	-11.4884
▁young	-11.4887
▁ہوکر	-11.4891
ہانی	-11.4891
▁گی۔	-11.4892
▁کپتیں	-11.4892
▁سرکارا	-11.4894
▁نیو	-11.4896
▁ھمدردی	-11.4903
▁تاچ	-11.4903
▁مزید	-11.4903
▁چرگ	-11.4905
....!	-11.4907
▁23	-11.4909
▁قہر	-11.4909
▁()	-11.4909
▁دارئے	-11.4909
▁نذر	-11.4913
▁الہ	-11.4914
ar	-11.4914
▁تھیں	-11.4917
▁کارایت	-11.4917
▁ٹہک	-11.492
▁راجہ	-11.4924
▁پاری	-11.4925
▁بہرءَ	-11.4925
▁سچگ	-11.4926
▁نامگال	-11.4926
▁سرگوز	-11.4926
▁جوانتریں	-11.4929
▁انگریزوں	-11.4932
▁کامیابی	-11.4932
▁عبدالکریم	-11.4934
▁ھمسیادی	-11.4934
▁کلمکار	-11.4935
▁جنگوجانی	-11.4935
▁چانگ	-11.4936
▁متاہ	-11.4936
▁وہم	-11.4937
▁صوت	-11.4938
▁ماراں	-11.4938
ley	-11.4939
▁خیبر	-11.4939
کارے	-11.494
▁محسن	-11.494
دری	-11.494
▁دزمانجنی	-11.4942
▁روپ	-11.4944
given	-11.4945
re	-11.4947
▁جارج	-11.495
▁دارگءَ	-11.4953
uarter	-11.4954
▁خواتین	-11.4954
▁زہرگ	-11.4955
▁باتیں	-11.4955
▁شه	-11.4956
▁thought	-11.4956
▁میراس	-11.4956
▁شاید	-11.4959
▁دف	-11.496
▁tour	-11.4961
▁ہنری	-11.4963
went	-11.4964
اج	-11.4965
ایں	-11.497
▁کێنگ	-11.4971
▁پجارے	-11.4974
▁پاساں	-11.4975
▁ناامیتی	-11.4977
▁ژانگول	-11.4977
وف	-11.498
▁کرپشن	-11.498
شے	-11.4983
▁ذیل	-11.4983
▁base	-11.4984
▁چٹی	-11.4985
▁شادان	-11.4985
▁برنت	-11.4988
▁تباھی	-11.4988
▁کوہءَ	-11.499
▁West	-11.499
▁بہرانی	-11.4991
ٹو	-11.4994
▁اسمائیل	-11.4999
▁گارڈز	-11.5
▁برانت	-11.5002
▁گرگءَ	-11.5006
▁Whil	-11.5006
▁گواتانی	-11.5008
▁کماندان	-11.5008
▁درشت	-11.501
▁لبزءُ	-11.5012
کمے	-11.5014
▁شکی	-11.5017
▁اسٹیٹ	-11.5019
▁2013	-11.5019
▁اقتدار	-11.5021
▁بیھال	-11.5026
▁عدم	-11.5026
بیگواہ	-11.503
▁انیگیں	-11.5032
بیل	-11.5032
یان	-11.5035
کٹ	-11.5036
▁ھزانگ	-11.5041
▁ھمایاں	-11.5041
غی	-11.5042
▁روٹکی	-11.5045
▁ادیرہ	-11.5047
▁اتش	-11.5048
▁چما	-11.5049
▁پرینتگ	-11.5049
▁پشومان	-11.5053
سفرخان	-11.5058
▁برطانیا	-11.5059
▁less	-11.5061
▁صحیح	-11.5061
تن	-11.5062
▁ي	-11.5062
▁دراھی	-11.5062
▁ضمانت	-11.5064
▁منء	-11.5064
▁light	-11.5064
▁تپر	-11.5067
ہیں	-11.5067
▁روی	-11.5067
▁کرتءُ	-11.5067
▁پیوست	-11.5073
▁پٹگ	-11.5073
▁mak	-11.5073
▁ہنچش	-11.5077
▁لیوس	-11.5077
▁کرشی	-11.5078
▁ھالیگ	-11.5081
▁جنگلی	-11.5082
▁سرون	-11.5083
▁سرتاک	-11.5084
▁۔پدا	-11.5085
▁ریاستے	-11.5085
▁ایمنسٹی	-11.5087
▁دیاں۔	-11.5088
▁لیکہءِ	-11.5088
▁operation	-11.5088
▁بچاریت	-11.5089
▁گندگی	-11.5093
▁ترکیب	-11.5097
▁مریض	-11.5101
ally	-11.5102
▁دانائی	-11.5104
ژ	-11.5105
▁زمینانی	-11.5107
▁شائراں	-11.5108
▁سینئر	-11.5108
نیست	-11.511
▁اذیت	-11.5111
▁اشعار	-11.5111
▁درنجگ	-11.5114
▁زهر	-11.5115
▁غفور	-11.5115
▁کوپ	-11.5117
▁کنا	-11.5118
▁روزی	-11.5118
▁چوگان	-11.512
▁لیپ	-11.512
احمد	-11.5122
▁اپیل	-11.5123
▁تہت	-11.5126
▁ھندءُ	-11.5126
▁ماسکو	-11.5127
▁لگگ	-11.5128
سرپد	-11.513
niversit	-11.5131
▁never	-11.5131
▁بارکزئی	-11.5131
▁development	-11.5132
▁پاسپورٹ	-11.5132
▁ٹائپ	-11.5132
▁جذبگ	-11.5136
▁جاورحال	-11.5139
▁ساہدار	-11.514
اراں	-11.5141
▁یکشلی	-11.5141
ther	-11.5142
▁ھمساھگ	-11.5142
▁پیسہ	-11.5146
▁کسھاں	-11.5149
▁ترسءَ	-11.5151
▁range	-11.5152
▁زانتکارے	-11.5153
▁دیوالاں	-11.5154
▁style	-11.5155
▁کوکو	-11.5156
▁کوشانی	-11.5157
▁توپ	-11.5158
▁plan	-11.516
▁رحمدل	-11.5162
▁stated	-11.5163
▁سینزدہ	-11.5166
▁پرزند	-11.5169
▁نہیں۔	-11.517
▁بلاک	-11.5172
▁novel	-11.5175
▁سفیر	-11.5176
▁اجزاء	-11.5176
▁مشورہ	-11.5177
▁award	-11.5179
▁ایدیم	-11.5181
▁popular	-11.5181
▁مڑا	-11.5182
▁واکیات	-11.5183
▁منو	-11.5183
▁action	-11.5184
شال	-11.5187
▁پیٹ	-11.5187
▁زالکار	-11.5188
▁گرئگ	-11.5191
▁چھوڑ	-11.5195
▁رسینتگ	-11.5196
▁رچان	-11.5198
▁پسانی	-11.5199
▁سفرنامہ	-11.52
▁فصل	-11.5201
▁دشمنی	-11.5201
▁تاجر	-11.5202
▁کچکے	-11.5202
▁پتاتگ	-11.5203
▁ببو	-11.5205
▁پنڈگ	-11.5206
▁لیس	-11.5207
▁کرو	-11.5208
▁کانچ	-11.5208
▁شگل	-11.5212
▁سوا	-11.5213
▁چھٹی	-11.5213
▁ناروے	-11.5214
لہ	-11.5214
▁مسام	-11.5218
▁وند	-11.5221
▁لبزی	-11.5221
▁سانتیاگونصر	-11.5223
▁ھرتال	-11.5223
▁بنتءُ	-11.5224
▁بہرام	-11.5224
▁نسب	-11.5227
▁راھانی	-11.523
▁ہمد	-11.5231
▁ینت	-11.5239
▁چمی	-11.5239
مل	-11.5242
▁سسائی	-11.5243
▁دوداں	-11.5245
▁تگران	-11.5246
▁ولید	-11.5253
▁اھان	-11.5253
دیما	-11.5255
▁ادارکی	-11.5255
▁کلانچ	-11.5256
▁بھرام	-11.5258
▁ہوا۔	-11.5259
▁نادریں	-11.526
▁زانتاں	-11.526
▁جاڑی	-11.5262
▁داس	-11.5268
▁گوربام	-11.5268
▁toward	-11.5269
▁کینسر	-11.527
▁نکاح	-11.527
▁دردی	-11.527
▁کمپان	-11.5271
▁راھبندے	-11.5272
▁ورناھاں	-11.5272
▁زانوگر	-11.5277
▁لوٹائینتگ	-11.5277
▁کدیم	-11.5279
▁ننک	-11.528
▁کشادگ	-11.5281
▁نکل	-11.5283
▁کشوک	-11.5284
▁حکمران	-11.5284
▁ریا	-11.5285
▁بندرءَ	-11.5289
▁روایات	-11.5292
▁زیراں	-11.5292
▁دریافت	-11.5292
▁Park	-11.5293
▁براتے	-11.5296
▁کردارانی	-11.5296
▁بحری	-11.5297
▁وشحالی	-11.5297
▁امانت	-11.5298
▁کپودر	-11.5298
▁ترسیت	-11.5298
ہوار	-11.53
▁ہپتاد	-11.5306
▁کارستاں	-11.531
▁بگاوت	-11.5313
▁دپار	-11.5314
▁ساعتے	-11.5314
▁سندگ	-11.5316
▁Australian	-11.5316
▁چنگیز	-11.5316
▁اصلیں	-11.5318
▁نگرہ	-11.5319
▁سبکیں	-11.532
▁زربار	-11.5321
▁سجاد	-11.5323
▁بندری	-11.5328
▁کسھانی	-11.5328
▁مھم	-11.5332
▁مختار	-11.5334
▁پلاسٹک	-11.5336
▁لچه	-11.5337
پرچے	-11.5338
5	-11.5338
▁ft	-11.534
▁50	-11.534
▁پروشی	-11.5343
▁سنا	-11.5345
▁بحران	-11.5347
▁دلسیاہ	-11.5348
▁گرام	-11.5348
▁مصری	-11.5349
▁کسمت	-11.535
self	-11.5352
سری	-11.5355
▁اوژناگ	-11.5355
▁مہلوکءِ	-11.5358
▁مسلماناں	-11.5359
▁اصطلاح	-11.5359
▁گوادرءِ	-11.536
▁پڑی	-11.5361
▁ھیالی	-11.5363
▁نمائندگی	-11.5363
▁حیالداری	-11.5365
▁complete	-11.5365
لک	-11.5366
▁شعرءَ	-11.5369
▁اینٹی	-11.5369
▁پنج	-11.537
▁مخالف	-11.5371
▁رزان	-11.5371
▁داتیں	-11.5372
▁مردانی	-11.5373
▁منتوار	-11.5376
▁۔ما	-11.5376
▁پراھگ	-11.5376
▁مبارکیءَ	-11.5378
▁پێسر	-11.538
▁دمانی	-11.5381
▁ھلو	-11.5382
▁توازن	-11.5382
▁سیا	-11.5383
▁نشانے	-11.5385
▁پرا	-11.5387
▁سورس	-11.5393
ود	-11.5394
▁بتلانی	-11.5395
▁سیاہی	-11.5396
روکپتی	-11.54
da	-11.5404
▁گورنمنٹ	-11.5405
coming	-11.5406
▁جاھانی	-11.5406
▁گشادی	-11.5407
▁جوڑی	-11.5412
N	-11.5415
▁پشل	-11.5415
▁فلاں	-11.5418
▁تانا	-11.5421
سور	-11.5422
▁گریں	-11.5422
▁ہوشام	-11.5423
▁سرمچارے	-11.5423
▁ماہءَ	-11.5425
▁عربانی	-11.5425
▁حضور	-11.5428
▁Ire	-11.5429
▁scene	-11.5432
میتگ	-11.5432
▁island	-11.5434
▁انگار	-11.5435
▁گلگدار	-11.5438
▁پردہ	-11.5438
▁ریگی	-11.5442
▁enter	-11.5449
▁توصیف	-11.5451
▁کسٹم	-11.5454
▁جیڑہے	-11.5454
▁شیرے	-11.5454
ma	-11.5457
▁ہرکسی	-11.5459
▁سعدی	-11.5461
▁شتنت	-11.5462
▁بوتک	-11.5464
مردماں	-11.5465
ither	-11.5466
▁پجیگ	-11.5467
▁رہبندے	-11.547
▁تروتاب	-11.5472
▁بستگ۔	-11.5473
▁نمونہ	-11.5474
ی۔	-11.5476
▁28	-11.5476
▁دریاورد	-11.5479
▁band	-11.5479
▁زهگ	-11.548
▁مفتی	-11.5481
▁پرسیگ	-11.5483
▁سیٹھ	-11.5483
پور	-11.5486
▁chart	-11.5486
▁ریز	-11.5486
▁پشومانی	-11.549
▁مکان	-11.5492
انگت	-11.5493
▁hour	-11.5496
▁ھوراں	-11.5498
▁بوئگءَ	-11.5499
▁داتءُ	-11.55
...!‘‘	-11.55
بانک	-11.5503
▁کشیت۔	-11.5504
▁گیگان	-11.5507
▁جارے	-11.551
▁وہی	-11.5514
غا	-11.5516
▁نیزگار	-11.5518
▁وانوکیں	-11.5518
بگ	-11.552
▁لوٹتگ	-11.5521
▁تسلسل	-11.5522
▁نکس	-11.5522
▁جنینی	-11.5522
▁گیپت۔	-11.5522
نڈ	-11.5527
▁رستہ	-11.553
▁دھر	-11.5533
▁مچار	-11.5534
▁ہاسیں	-11.5535
▁راستیءَ	-11.5537
▁ھمدپ	-11.5539
▁join	-11.5539
▁بوت۔۔۔	-11.5541
▁earlie	-11.5542
▁پاور	-11.5545
,’’	-11.5546
▁مزور	-11.5547
less	-11.5548
▁چکءَ	-11.5551
▁انلاین	-11.5551
▁شاھر	-11.5554
▁نگدکاری	-11.5554
."	-11.5555
▁سوبیں	-11.5555
▁white	-11.5558
▁میریں	-11.5559
▁ھیرات	-11.5561
▁گواتءَ	-11.5562
▁جنئک	-11.5564
▁رھم	-11.5565
▁منظوری	-11.5566
▁تعالی	-11.5567
▁کمانچر	-11.5567
▁پروردگار	-11.5567
تربت	-11.5569
وھدیکہ	-11.557
▁پنڈوک	-11.5571
▁town	-11.5572
▁ابادیں	-11.5572
▁مولابخش	-11.5572
▁گندایت	-11.5577
▁ذگریں	-11.5579
▁22	-11.558
▁گسءِ	-11.5581
▁ھانزا	-11.5583
▁برج	-11.5584
▁سینہ	-11.5585
...‘‘	-11.5586
▁دفتر	-11.5586
▁دانکاں	-11.5589
▁مھکمی	-11.559
▁یہودی	-11.5591
▁غمانی	-11.5592
▁مومنٹ	-11.5593
▁جدل	-11.5593
▁گوگل	-11.5598
▁کشمیری	-11.5598
وچ	-11.5599
▁یله	-11.56
▁ڈیوا	-11.5601
▁دوھیں	-11.5601
▁۔ہمے	-11.5602
ين	-11.5603
▁رسینگ	-11.5605
▁برئے	-11.5606
▁زیند	-11.5607
▁پچی	-11.5608
▁دانگے	-11.5611
▁پمێشکا	-11.5612
▁وفاق	-11.5613
▁موسماں	-11.5613
▁کسارت	-11.5616
▁صغیر	-11.5618
▁writer	-11.5621
▁چارایت	-11.5621
▁ورناہانی	-11.5621
▁مرغ	-11.5629
▁پرینگ	-11.5631
▁ارمانی	-11.5642
▁لگام	-11.5643
▁ڈگارءَ	-11.5645
▁ھپتمی	-11.5645
▁کلا	-11.5646
فی	-11.5654
▁بربادی	-11.5655
▁چونا	-11.5656
لہتیں	-11.5658
▁الکاپی	-11.5658
▁میاریں	-11.5659
ian	-11.5659
▁element	-11.5659
▁گارءُ	-11.566
▁نائک	-11.566
دیر	-11.5662
غنی	-11.5664
▁مھرانی	-11.5664
▁جلی	-11.5665
▁سیاھی	-11.5665
▁منشی	-11.5666
سرا	-11.5672
away	-11.5673
▁منئ	-11.5675
▁کیامت	-11.5675
▁ھیات	-11.5677
▁اگه	-11.568
برگ	-11.5681
▁son	-11.5682
▁ایرموش	-11.5685
▁دائما	-11.5685
▁گواتءِ	-11.5686
▁چکیں	-11.5686
▁ورناہاں	-11.569
▁دردءُ	-11.5692
ch	-11.5692
▁مہربانی	-11.5694
▁وسوسگ	-11.5695
▁وارے	-11.5697
▁sign	-11.5699
باں	-11.5702
▁ہوری	-11.5703
felt	-11.5707
▁مجھ	-11.5709
▁درپشوکیں	-11.571
▁اتحادی	-11.571
▁کشنت	-11.5711
▁نارشت	-11.5711
▁issue	-11.5713
▁ضمیر	-11.5714
▁سہن	-11.5714
▁زروان	-11.5719
▁امیدوار	-11.5719
▁noted	-11.572
▁نجات	-11.572
▁پئیمیں	-11.5722
▁24	-11.5724
▁کتب	-11.5727
▁London	-11.573
▁مراقبہ	-11.573
▁عبید	-11.5732
▁ناتپاکی	-11.5732
▁هرکس	-11.5733
▁مراگاہ	-11.5734
▁انگه	-11.5734
▁چتکان	-11.5734
▁عبدالحکیم	-11.5736
▁ھیروپ	-11.5737
▁تماشا	-11.5738
▁واناک	-11.5738
▁الیاس	-11.5738
ینان	-11.5739
▁چلا	-11.5743
▁زانگءَ	-11.5744
▁چیدگے	-11.5744
across	-11.5745
ائع	-11.5746
▁مذھبی	-11.5749
▁دانکے	-11.575
▁رتکگیں	-11.575
▁دیغ	-11.575
▁ابات	-11.575
▁حرچ	-11.5756
▁شاخ	-11.5756
▁ائوکیں	-11.5758
▁بلاول	-11.5759
تین	-11.5761
▁پٹان	-11.5761
▁پادے	-11.5761
▁ٹپاسگ	-11.5763
▁عدل	-11.5763
تم	-11.5766
▁تلک	-11.5766
▁ہمراہاں	-11.5766
▁ناگ	-11.577
▁روگءِ	-11.5771
▁رازاں	-11.5771
▁route	-11.5772
▁نکت	-11.5772
▁ھونانی	-11.5776
▁قطار	-11.5782
▁گوادری	-11.5786
▁تج	-11.5786
▁ہشک	-11.5787
▁ھمیشاں	-11.579
▁ھمگرنچی	-11.5791
▁پیژگاہ	-11.5791
ایی	-11.5792
▁ڈیجیٹل	-11.5792
▁خدائی	-11.5792
▁درہائ	-11.5793
ایے	-11.5794
▁گلامیں	-11.5795
▁خاک	-11.5796
▁حبرانی	-11.5798
یکہ	-11.5798
▁بندرگاہ	-11.5802
▁ثنا	-11.5803
▁کفن	-11.5803
▁get	-11.5804
▁ھمداں	-11.5804
▁ایرانء	-11.5807
▁ھوشام	-11.5809
▁نگران	-11.581
▁درانی	-11.581
▁انعام	-11.5812
▁راہاں	-11.5812
▁ھردوئیں	-11.5813
▁درتگیں	-11.5816
گڈی	-11.5816
اسر	-11.5818
▁ایرجیگ	-11.5821
▁زاننت	-11.5821
▁اہدی	-11.5825
▁ماھاں	-11.5825
▁پکرے	-11.5826
▁good	-11.5826
▁ایجوکیشن	-11.5826
▁himself	-11.5826
▁معناءُ	-11.5828
▁پیپلز	-11.5829
۔ائی	-11.5831
▁رؤف	-11.5832
▁مسترین	-11.5835
▁featur	-11.5835
▁سیدءِ	-11.5836
انک	-11.5836
▁رول	-11.5837
▁مقرر	-11.5837
▁جین	-11.5838
▁واکب	-11.5838
▁مردان	-11.5839
▁win	-11.5839
▁ایپلی	-11.5843
▁شیراں	-11.5843
▁کائی	-11.5844
▁Re	-11.5846
▁چادرے	-11.5847
▁چھوٹ	-11.5852
▁چیری	-11.5854
▁دلگران	-11.5858
▁ناگتی	-11.5863
▁ناگتیں	-11.5863
▁خوب	-11.5864
▁رست۔	-11.5866
▁ریسکیو	-11.5874
▁توام	-11.5877
▁راہءِ	-11.588
▁جناور	-11.588
▁برمشے	-11.5881
▁کشگءَ	-11.5883
▁بقول	-11.5886
▁ات۔ا	-11.5888
▁ڈنگر	-11.5888
▁نێمگا	-11.5889
▁کیوبا	-11.589
▁جوھر	-11.5892
▁بیاراں	-11.59
▁ایکسپریس	-11.5901
▁گرو	-11.5902
▁ڪنت	-11.5902
▁شیریں	-11.5907
▁ڈھل	-11.591
▁کچکانی	-11.591
وشی	-11.5917
واری	-11.5918
▁قصہی	-11.5918
▁فنا	-11.5919
▁میک	-11.592
▁پیلہ	-11.5921
ابا	-11.5922
‘,’	-11.5923
▁ہستیں	-11.5923
▁لازمی	-11.5926
▁شاہین	-11.5927
بان	-11.5929
▁بابتء	-11.593
▁لۆگ	-11.5934
▁ھمودءَ	-11.5934
▁لگا	-11.5935
4	-11.5936
▁کلیر	-11.5937
▁وشھالی	-11.594
▁ببر	-11.5942
▁اروک	-11.5943
▁جاؤ	-11.5945
▁see	-11.5947
▁وهدی	-11.5947
▁دردءِ	-11.595
▁کوڈ	-11.5951
بری	-11.5954
یش	-11.5955
▁گوشداران	-11.5956
▁تیوک	-11.5956
▁پیمانہ	-11.5957
▁درگ	-11.596
▁بگو	-11.596
▁پرما	-11.5964
▁Australia	-11.5966
▁شموشتگ	-11.5967
زہرشانی	-11.597
▁ہوت	-11.597
▁پلگاریں	-11.5972
▁significant	-11.5972
▁پلانٹ	-11.5975
▁سرانی	-11.5979
▁ازلی	-11.598
▁بکشیت	-11.5982
▁حلقہ	-11.5982
▁روزگاری	-11.5983
▁ردء	-11.5988
▁اگل	-11.599
▁ندیستگ	-11.5991
▁ہنی	-11.5992
▁سلاحبند	-11.5992
▁سادگی	-11.5995
▁رکھتے	-11.5996
▁انگلینڈ	-11.5997
▁ارڈر	-11.5998
▁اید	-11.5998
▁ابیتکیں	-11.6001
▁تچیت	-11.6006
▁تمبو	-11.6006
▁وپتگیں	-11.6007
▁age	-11.6007
▁کرزیت	-11.6008
▁مرضی	-11.6012
▁درگیج	-11.6014
▁ھدائی	-11.6014
▁سات	-11.6018
▁black	-11.602
▁کفر	-11.602
ance	-11.6021
▁شوهاز	-11.6024
▁خواہ	-11.6026
▁جاپانی	-11.6026
▁زمینے	-11.6028
▁ایاز	-11.6033
▁عومر	-11.6036
▁مفت	-11.604
▁سیاہگ	-11.6042
▁ہماری	-11.6042
▁تجابان	-11.6045
▁important	-11.6045
▁نوہ	-11.6045
سئے	-11.6047
▁عبدالرحمن	-11.6047
▁وتئ	-11.6052
▁مع	-11.6056
▁جمعی	-11.6057
▁ہد	-11.6057
▁حسابءَ	-11.6057
▁کسےءِ	-11.6057
▁چکءِ	-11.6059
▁خو	-11.606
▁ساہتے	-11.6061
▁بدلا	-11.6061
▁ھالی	-11.6062
▁پولگ	-11.6064
▁تلو	-11.6067
▁لاشعور	-11.6067
▁نادرا	-11.6067
▁initial	-11.6069
▁تؤکا	-11.607
بالاچ	-11.607
▁انچشیں	-11.6072
▁ازمکاری	-11.6077
اگ	-11.6078
▁تے	-11.6081
▁لد	-11.6082
▁شعرءُ	-11.6082
ماتی	-11.6084
▁کرچک	-11.6085
▁سالا	-11.6086
▁ساچشتے	-11.6088
▁زریں	-11.6089
▁شاتو	-11.6089
▁ساگر	-11.6094
▁father	-11.6095
▁تعاون	-11.6096
شیا	-11.6096
▁ٹاؤن	-11.6096
▁کئور	-11.6096
▁یکپارگی	-11.6097
▁سوداگر	-11.6098
▁باتاں	-11.61
▁بندیگی	-11.6101
▁بیدے	-11.6102
ولی	-11.6104
▁شمشتگ	-11.6106
▁چرچ	-11.6107
▁تانہ	-11.6109
یکیں	-11.6109
▁تبدیلی	-11.6111
▁راجدپترءَ	-11.6113
▁ملوری	-11.6114
▁!!!	-11.6114
▁ارزش	-11.6115
▁بدنءَ	-11.6123
▁ورنت	-11.6124
▁سنسکرت	-11.6124
▁گناھیں	-11.6125
▁سربر	-11.6128
لگ	-11.6128
▁سیال	-11.6128
▁act	-11.613
▁عبدالغفار	-11.613
▁ھشتمی	-11.6131
▁نکن	-11.6132
جگ	-11.6133
▁بیلی	-11.6133
▁ازمانکءِ	-11.6135
چاپ	-11.6138
▁King	-11.6139
▁رستری	-11.614
▁female	-11.6143
▁modern	-11.6143
▁television	-11.6143
▁باپشت	-11.6143
▁کیسے	-11.6144
▁ملکموت	-11.6144
▁شیعہ	-11.6145
▁miles	-11.615
▁کمبل	-11.6152
▁سیارہ	-11.6152
زندگی	-11.6152
▁الزام	-11.6154
سوب	-11.6154
▁جامعہ	-11.6155
▁جائز	-11.6159
▁عالی	-11.6159
▁پسے	-11.6164
▁eight	-11.6168
D	-11.6168
▁کردگالی	-11.6168
▁ریشاں	-11.6169
▁مڈل	-11.6174
▁اخرت	-11.6174
▁پدانک	-11.6181
▁یکسد	-11.6182
▁ہپتگ	-11.6185
▁۔ایشی	-11.6186
یز	-11.619
▁various	-11.6193
▁ھاؤس	-11.6193
▁interest	-11.6193
▁تال	-11.6193
▁نرس	-11.6195
▁ترکگ	-11.6195
▁انلائن	-11.6196
نگی	-11.6196
▁چربی	-11.6196
مے	-11.6198
▁مسلہ	-11.62
▁پیدائش	-11.62
▁دیستیں	-11.6203
▁سلہ	-11.6205
▁ائیر	-11.6206
▁دیئے	-11.6209
▁واهگ	-11.621
▁یکتنا	-11.6211
چیا	-11.6212
▁راھا	-11.6213
گس	-11.6213
چاکر	-11.6213
▁جرمکار	-11.6214
▁ناھدا	-11.6214
▁عورت	-11.6216
▁جنزے	-11.6216
▁minute	-11.6218
▁ھبرءَ	-11.6218
▁ژوب	-11.6219
▁حمیدہ	-11.622
▁عبدالمجید	-11.6221
▁گشتگ۔	-11.6222
پدءَ	-11.6224
▁ناامیت	-11.6225
▁کتگءُ	-11.6226
▁بڈا	-11.6227
▁کٹی	-11.6227
کنئگ	-11.6228
▁ھدے	-11.6229
▁هوار	-11.623
▁زو	-11.6233
▁واسطہ	-11.6234
▁مئیت	-11.6235
بے۔	-11.6238
▁دراہگ	-11.6245
▁ادت	-11.6246
▁رتک	-11.6246
مو	-11.6248
▁ردیاں	-11.6248
▁مثلا	-11.6255
▁هئیال	-11.6257
▁زبانوں	-11.626
▁نواں	-11.6261
▁ازر	-11.6262
▁انس	-11.6264
▁live	-11.6268
▁James	-11.6268
کارانی	-11.627
▁امروہی	-11.627
▁ناظم	-11.6274
▁دامنءَ	-11.6274
▁اکہ	-11.6274
▁بوک	-11.6275
وخیں	-11.6277
▁پرشیت	-11.6278
▁برس	-11.6279
▁مصیبت	-11.6281
▁بیچار	-11.6283
▁ربیدگانی	-11.6284
▁گپا	-11.6286
▁ھسن	-11.6286
▁اندازگ	-11.6286
uir	-11.6288
▁پنتءُ	-11.6289
▁گوئشگ	-11.6291
▁ترانے	-11.6291
▁گنوکے	-11.6292
ض	-11.6293
▁باعث	-11.6293
▁تسلہ	-11.6294
▁احترام	-11.6294
▁look	-11.6295
▁بیتاں۔	-11.63
▁تسلیم	-11.63
▁باہر	-11.6301
▁موداں	-11.6306
بیان	-11.6311
▁نادراھیانی	-11.6312
▁شفیق	-11.6314
ئر	-11.6319
عطا	-11.6319
▁نسر	-11.6319
▁چمدار	-11.6321
▁Black	-11.6324
▁زورءُ	-11.6327
بال	-11.6328
▁فنڈ	-11.6329
▁تھریک	-11.6329
▁نازءَ	-11.6334
▁اثرمند	-11.6335
▁stage	-11.6338
▁اینگو	-11.6339
▁شہد	-11.6339
▁ذ	-11.6341
▁۔تو	-11.6344
▁مراگہ	-11.6345
▁کھڑکی	-11.6347
▁گزرانی	-11.6347
▁امریکائی	-11.6347
▁ہلاپ	-11.6347
▁کتابءَ	-11.6348
▁need	-11.6348
▁سخن	-11.6354
▁26	-11.6355
▁اہیءَ	-11.6357
▁کلانی	-11.6358
▁اسمی	-11.6359
▁بزیر	-11.636
▁بڑھ	-11.6365
▁اصلاح	-11.6366
▁بنگ	-11.6367
▁success	-11.6367
▁بنجلے	-11.6367
اگن	-11.6368
▁successful	-11.6369
▁تعلیمی	-11.6369
▁does	-11.637
▁case	-11.637
▁سربیت	-11.6371
▁damage	-11.6372
▁اروہی	-11.6375
▁سنگاں	-11.6376
▁پہوال	-11.6376
▁منزلءَ	-11.6379
▁امیتان	-11.638
▁ارادگ	-11.638
▁ھندانی	-11.6384
▁events	-11.6386
▁یکجائی	-11.6388
▁وصف	-11.6389
▁ten	-11.6392
▁برکش	-11.6393
▁گرگی	-11.6395
▁مسکرہ	-11.6396
▁road	-11.6396
▁عبدالرحیم	-11.6396
▁بنگپے	-11.6397
▁گلستان	-11.6398
▁زینت	-11.6399
▁سیاه	-11.64
▁وردی	-11.64
حسن	-11.64
▁ساچشتاں	-11.6406
▁پتار	-11.641
چارگ	-11.6414
▁peak	-11.642
▁بلوٹیت	-11.6425
▁لیگار	-11.6426
اوار	-11.6427
بکن	-11.6427
▁نوبل	-11.643
▁امنی	-11.6431
▁کہنا	-11.6433
عمر	-11.6433
▁سرینگ	-11.6434
▁برزگ	-11.6434
ادب	-11.6435
▁الماری	-11.6436
▁پژم	-11.6436
▁زیملی	-11.6438
▁گیشگیواری	-11.6439
▁نبیل	-11.6439
▁مالاں	-11.6442
▁جیڑگانی	-11.6442
▁نبشتہی	-11.6444
▁فعل	-11.6445
▁بہرگاں	-11.6446
▁discover	-11.6447
▁political	-11.6448
▁اصلءَ	-11.6456
سد	-11.6459
▁میاری	-11.6459
▁پکنک	-11.646
▁کاش	-11.646
▁ھمایانی	-11.6461
▁یوں	-11.6463
▁نوشیروانی	-11.6464
▁شزار	-11.6465
▁کٹیت	-11.6466
▁بیوس	-11.6468
▁زیروک	-11.647
▁بچہ	-11.647
چوشیں	-11.647
▁جھاؤ	-11.6471
▁نازرکی	-11.6472
▁تقسیم	-11.6473
▁شھریاں	-11.6473
▁بروان	-11.6475
▁وردنی	-11.6476
▁نالگ	-11.6477
▁کی۔	-11.6477
▁بوہگءَ	-11.6479
▁تیغ	-11.6479
▁بتلے	-11.6482
▁زگر	-11.6484
▁کالب	-11.6485
▁استاداں	-11.6489
▁تنگیں	-11.649
▁گیشینتگ	-11.649
حمل	-11.6492
▁شاھگان	-11.6497
▁لوڑی	-11.6497
▁ایٹمی	-11.6499
▁کاڑ	-11.6501
▁فائنل	-11.6503
▁بوتت	-11.6503
▁mm	-11.6506
▁چکان	-11.6508
▁ماش	-11.6509
▁پرانی	-11.6509
▁ہوارانت۔	-11.651
▁تلاہ	-11.6511
▁دیتا	-11.6514
▁دزکش	-11.6515
▁شالءَ	-11.6517
▁تامدار	-11.6518
▁art	-11.652
▁موسیقی	-11.652
▁شوندات	-11.6521
▁جبزگ	-11.6522
نبشتگ	-11.6523
▁زمزیل	-11.6525
▁الحاق	-11.6526
چیر	-11.6526
▁کھر	-11.6527
▁یکدار	-11.6527
▁We	-11.6532
▁میزاں	-11.6533
مھر	-11.6533
▁دابءَ	-11.6534
▁ازمانءَ	-11.6534
▁میکسم	-11.6536
▁اہتگ	-11.6539
▁لوٹئے	-11.6539
▁روشنائی	-11.6539
▁سنٹر	-11.654
▁وھم	-11.6541
▁انت۔۔۔۔۔	-11.6541
▁مش	-11.6543
▁سدھ	-11.6543
▁واہشت	-11.6543
کسی	-11.6545
▁سپرے	-11.6548
▁کرشن	-11.6548
▁ابداللہ	-11.6549
وکی	-11.655
▁مجرم	-11.6552
▁کہیر	-11.6553
▁ائیگا	-11.6555
▁دوسال	-11.6556
▁مادنیں	-11.6561
▁پڑے	-11.6562
▁گنجی	-11.6563
▁بات۔	-11.6563
▁دہلی	-11.6565
▁درشتگ	-11.6568
▁پروشیت	-11.6569
▁رنجانی	-11.6571
سریں	-11.6571
سردار	-11.6572
▁poem	-11.6574
▁بوؤگ	-11.6575
▁بوپ	-11.6581
▁مہلوکءَ	-11.6581
حیال	-11.6581
▁برزتر	-11.6582
▁انجینئر	-11.6584
▁ایرکنگ	-11.6584
اصل	-11.6585
▁mid	-11.6585
▁انت۔چہ	-11.6586
ve	-11.6589
▁دزکشی	-11.659
▁چۆن	-11.6593
▁کشءُ	-11.6593
چونیں	-11.6594
▁بندوبست	-11.6597
▁ماتاں	-11.66
▁پائیدگ	-11.6601
▁میوزیم	-11.6601
▁performance	-11.6601
▁بکرتین	-11.6602
▁نویساں	-11.6602
▁نمائندہ	-11.6603
▁پرکے	-11.6605
▁ابکہ	-11.6607
▁ازمانءِ	-11.6607
▁استادانی	-11.661
▁ڈیلہ	-11.6612
▁نیار	-11.6612
▁پھول	-11.6613
▁پیشکان	-11.6613
▁زانے	-11.6615
▁مھلب	-11.6615
▁جاو	-11.6618
▁ثمر	-11.6619
▁too	-11.6621
▁نیز	-11.6623
▁کارانت	-11.6625
▁example	-11.6625
▁ھڑتال	-11.6625
▁County	-11.6627
شہر	-11.6627
ڈو	-11.6628
ده	-11.6629
▁سوتے	-11.6629
▁ائن	-11.6634
▁پاگواجہ	-11.6635
▁شالءِ	-11.6636
▁لیو	-11.6639
▁درتگ	-11.6641
▁پربستگ	-11.6645
▁پمپ	-11.6646
▁کمب	-11.6646
▁سداں	-11.6649
▁sent	-11.6652
اماں	-11.6652
▁گشتگیں	-11.6652
▁کماشے	-11.6652
▁پولیٹیکل	-11.6654
▁مشکلات	-11.6655
▁برٹش	-11.6656
▁کباب	-11.6658
▁نابودی	-11.6658
▁لیکیت	-11.6659
▁صحب	-11.666
▁بئیت۔	-11.6661
▁مبارکیں	-11.6661
بکش	-11.6662
▁لکھا	-11.6664
بہر	-11.6665
▁وریں	-11.6665
▁کپٹن	-11.6666
▁تالہ	-11.667
فن	-11.6675
▁ثقافت	-11.6679
▁اکبت	-11.668
▁محض	-11.6681
way	-11.6682
▁دیا۔	-11.6683
▁بجائے	-11.6683
▁گونڈل	-11.6683
▁گھ	-11.6684
▁جرات	-11.6689
▁پٹھان	-11.669
▁ذاتے	-11.6692
▁کید	-11.6693
▁غور	-11.6693
روگ	-11.6703
▁دیمءِ	-11.6703
▁بانی	-11.6703
▁Road	-11.6704
▁influence	-11.6704
▁مخصوص	-11.6706
▁نزیکا	-11.6706
▁گلو	-11.6709
▁ازمانگ	-11.671
ڈر	-11.671
▁درابیت	-11.6711
▁برئگ	-11.6712
one	-11.6712
▁گپتیں	-11.6712
سنگت	-11.6713
▁بوشت	-11.6713
▁سیکس	-11.6713
پمیشکا	-11.6714
▁چیزان	-11.6715
▁پندے	-11.6716
▁شررنگی	-11.6719
▁ٹالسٹائی	-11.6722
▁کھور	-11.6723
▁منڈی	-11.6724
▁نامداری	-11.6729
▁چارمکنڈ	-11.673
▁عرفان	-11.6731
▁کاگدانی	-11.6732
▁should	-11.6733
▁اھوالکاراں	-11.6734
▁مثالے	-11.6735
▁معلومات	-11.6735
▁چونین	-11.6737
▁جاهے	-11.6738
▁لڑے	-11.674
▁اسءَ	-11.674
▁پادری	-11.674
▁گهتر	-11.6741
▁منگی	-11.6742
▁شرو	-11.6743
▁ائیڈیل	-11.6744
▁انت۔ھمے	-11.6747
▁سکھ	-11.6749
چشیں	-11.675
▁سلاه	-11.675
▁تعمیر	-11.6753
▁بہائیں	-11.6753
سار	-11.6755
▁بژنیگ	-11.6755
▁effect	-11.6756
▁پسوءَ	-11.6756
▁حطرہ	-11.6758
▁مشاہدہ	-11.6759
▁رازے	-11.676
▁سرمگیں	-11.6761
▁نگدکار	-11.6762
▁کردستان	-11.6763
▁شتاں۔	-11.6767
▁زهیر	-11.677
▁جاہی	-11.6772
▁بچکاں	-11.6772
ڑا	-11.6772
▁نکتہ	-11.6774
▁خوبصورت	-11.6775
▁ادءِ	-11.6778
جر	-11.6778
▁حالا	-11.678
▁ویکاریو	-11.6783
▁ٹھینگ	-11.6784
▁وڑءُ	-11.6784
▁جنیادم	-11.6784
▁زگری	-11.6785
▁structure	-11.6786
▁ازمون	-11.6787
▁کلوھے	-11.6787
اتگ	-11.6789
▁لوٹاں۔	-11.6791
▁مقدمہ	-11.6792
ئے۔	-11.6795
▁شانیں	-11.6797
▁زیل	-11.6797
▁کنت۔اے	-11.68
▁سانکلاں	-11.6808
▁دوزواہ	-11.6809
▁سانکل	-11.6809
▁گلءَ	-11.681
▁ننگار	-11.681
▁شدید	-11.681
▁حساس	-11.6813
▁ٹائمز	-11.6813
▁رودینتگ	-11.6816
▁ماضی	-11.6823
ship	-11.6824
▁ازگ	-11.6824
نند	-11.6826
۔پدا	-11.6827
▁تھران	-11.6827
▁کرام	-11.6828
▁درکرت	-11.6828
▁مکی	-11.683
▁eventual	-11.6831
▁شاریءِ	-11.6832
چکہ	-11.6833
▁ٹھک	-11.6835
▁چوہدری	-11.6837
▁سروکے	-11.6837
▁راجءَ	-11.6839
▁بختاور	-11.684
▁پیالہ	-11.6841
▁ھول	-11.6841
▁پسیل	-11.6844
▁ساچشتکار	-11.6845
▁سرجمءَ	-11.6847
▁فر	-11.6848
اریں	-11.6849
▁نیکراہی	-11.6854
hind	-11.6857
▁ریاضی	-11.6858
▁دروازگءَ	-11.6862
▁ہورک	-11.6862
▁ٹیکسی	-11.6862
▁ادارگاں	-11.6863
▁زورے	-11.6864
▁حوصلہ	-11.6864
▁دریاءِ	-11.6867
▁عبدالقادر	-11.6867
▁جاگاہ	-11.6868
▁ویرانیں	-11.6868
▁کپوک	-11.6872
▁یانی	-11.6874
▁تنگو	-11.6876
▁ھمگام	-11.6876
باید	-11.6876
▁نورل	-11.6879
▁ہژدہ	-11.688
▁ھرچے	-11.6881
انگریزی	-11.6882
▁کشگءِ	-11.6885
▁سرحد	-11.6885
▁ground	-11.6886
▁ائینی	-11.6887
▁ھیلکاری	-11.6889
▁اسنائپر	-11.689
▁ٹہل	-11.689
▁سیمسرانی	-11.6892
▁قصہے	-11.6893
▁ابے	-11.6893
▁اجازہ	-11.6893
▁معاہدہ	-11.6893
▁co	-11.6899
▁اورتگ۔	-11.6899
▁مرادساحر	-11.69
تران	-11.6901
داتگ	-11.6902
▁حوری	-11.6904
۔۔۔بلے	-11.6908
▁وختے	-11.6911
▁2004	-11.6916
▁خر	-11.6919
▁معمولی	-11.6919
▁رھوت	-11.6922
▁اطلاعات	-11.6924
▁جائزہ	-11.6926
بشکن	-11.6927
▁پکائیں	-11.6927
▁characters	-11.693
▁پاچن	-11.6933
برجاہ	-11.6936
▁لسٹ	-11.6938
▁پدمنتگیں	-11.694
▁ساھگءَ	-11.6942
▁تیزیں	-11.6942
▁entire	-11.6943
▁2005	-11.6943
▁construction	-11.6943
▁ناموس	-11.6943
▁پروٹین	-11.6943
▁ساربان	-11.6944
▁مانیت۔	-11.6945
▁بازاراں	-11.6945
▁پرائمری	-11.6945
▁دوزحہ	-11.6946
▁announc	-11.6947
▁نمک	-11.6948
▁پتی	-11.6949
▁ورگا	-11.6949
▁کنڈی	-11.695
▁استونک	-11.695
▁کوہی	-11.6951
▁اغاز	-11.6955
▁پیشہ	-11.6956
▁چارتگ	-11.6957
اجوئی	-11.6959
▁مراداں	-11.6961
▁اگان	-11.6964
▁نزارگ	-11.6965
▁داکتر	-11.6967
▁واڑ	-11.6972
▁گوٹھ	-11.6972
▁یکشلہ	-11.6975
ine	-11.6976
▁وشنود	-11.6976
▁گرکی	-11.6976
▁سوک	-11.6977
▁مرا	-11.6979
شا	-11.6979
ant	-11.6981
▁مالدار	-11.6988
▁تراں	-11.6988
▁پچگرگ	-11.6988
ra	-11.699
▁سوچیت	-11.699
▁کوٹیءَ	-11.6991
▁بیگانگ	-11.6991
▁کدیں	-11.6993
▁کمکءَ	-11.6993
▁قسمے	-11.6993
▁شماری	-11.6993
▁کودکیں	-11.6994
▁چمپل	-11.7004
▁اکسانی	-11.7006
▁ٹہینگ	-11.7007
▁فوٹو	-11.7011
▁زبانءُ	-11.7013
▁راھبنداں	-11.7014
▁کندیت	-11.7014
سندھی	-11.7017
▁گزشت	-11.702
▁ازماں	-11.7021
ناک	-11.7021
▁represent	-11.7022
▁قطر	-11.7024
▁قندیل	-11.7024
▁کاٹ	-11.7024
▁ھجالت	-11.7026
▁جوہان	-11.7027
▁اوشتات۔	-11.7028
▁تبی	-11.703
▁گوج	-11.7039
▁گچک	-11.704
▁منصب	-11.7042
گپت	-11.7042
▁گمے	-11.7043
▁سرمگ	-11.7044
▁موڑ	-11.7046
▁انونیں	-11.7048
رنگیں	-11.7048
▁ہندے	-11.7048
▁عصا	-11.7049
گٹ	-11.705
▁شاہگان	-11.7053
حق	-11.7054
▁گئیں	-11.7056
▁وھدان	-11.7057
▁شیشہ	-11.7058
▁ہم۔	-11.706
▁لوٹائینگ	-11.706
ھور	-11.7061
مچ	-11.7064
ought	-11.7064
▁استا	-11.7064
▁ڈگارے	-11.7065
واہ	-11.7066
▁بنیں	-11.7066
▁روکپت	-11.7068
شرف	-11.707
▁ابھی	-11.7073
▁حسد	-11.7077
▁چریک	-11.7079
▁بانزلاں	-11.708
▁انکلاب	-11.7081
▁انٹیلی	-11.7082
▁دیمرہی	-11.7083
پرچاکہ	-11.7083
▁ھدیس	-11.7087
▁قومءِ	-11.7089
مردمانی	-11.709
▁ہشتاد	-11.7092
▁زیریت	-11.7093
▁الخط	-11.7108
▁ولا	-11.7109
▁حقاں	-11.711
▁دفاع	-11.7113
▁اشیا	-11.7113
▁انتہائی	-11.7115
▁کھندان	-11.7117
▁ہمہ	-11.7117
▁مٹھا	-11.712
▁ڈیھانی	-11.712
▁سبزگ	-11.7122
▁ھنگت	-11.7122
نیت	-11.7124
▁نظریاتی	-11.7124
حدا	-11.7128
▁پاچ	-11.7128
ham	-11.7128
اول	-11.713
▁بوجگ	-11.7132
▁لہر	-11.7133
ایان	-11.7133
▁جنوبی	-11.7134
▁مشگ	-11.7135
▁پگرءُ	-11.7136
▁مملکت	-11.7136
منٹ	-11.7138
▁خواہش	-11.7139
▁provid	-11.7142
▁کشش	-11.7145
▁اسٹور	-11.7145
▁پئیما	-11.7145
▁بانداتے	-11.715
▁دلیر	-11.715
▁national	-11.715
زہ	-11.7153
▁بھرتی	-11.7153
▁پرین	-11.7156
▁ہندوستانی	-11.7157
چاگرد	-11.7162
▁ھدامرزی	-11.7163
▁گہتریں	-11.7163
▁اسپر	-11.7166
▁وہاب	-11.7167
▁تفسیر	-11.717
▁تامور	-11.7172
کمیں	-11.7172
▁کمبرانی	-11.7172
▁چھرگ	-11.7178
▁ریگزار	-11.7179
▁ذی	-11.718
▁اںت	-11.718
▁ہمگرنچیں	-11.718
هم	-11.7181
▁جانءِ	-11.7182
▁ماہر	-11.7183
▁رازیگ	-11.7185
ne	-11.7185
txt	-11.7187
گرمیں	-11.7188
▁others	-11.7188
▁ریں	-11.7188
▁رکشہ	-11.7191
▁come	-11.7196
▁بندءُ	-11.7196
▁۔کہ	-11.7198
▁ملوک	-11.7199
▁سرام	-11.7199
▁لمبر	-11.7199
▁locat	-11.7201
▁بازارے	-11.7201
▁دلکشیں	-11.7203
▁زبریں	-11.7206
▁leas	-11.7206
▁27	-11.7208
▁ئین	-11.721
▁چارلس	-11.7212
▁سوداگری	-11.7214
▁هند	-11.7214
▁ڈاکٹردیدگ	-11.7217
▁تیں	-11.722
▁سگریٹے	-11.7221
▁زینب	-11.7221
▁اشکن	-11.7222
▁نیادی	-11.7224
▁رشت	-11.7225
▁ادبیات	-11.7228
▁برجاه	-11.7229
▁عمرءَ	-11.7229
▁نگاہاں	-11.723
▁دلیں	-11.7232
▁ھمدءَ	-11.7236
▁سفرءَ	-11.7237
▁کوارٹر	-11.7239
▁جوک	-11.7241
▁صبیحہ	-11.7242
▁دراجکش	-11.7243
▁ہجبر	-11.7243
▁عبدالعزیز	-11.7245
نشتگ	-11.7245
▁گناھے	-11.7246
▁شہدیں	-11.7246
▁بیچارگ	-11.7249
پان	-11.725
▁یورپءِ	-11.7251
▁امت	-11.7251
▁واجہاں	-11.7251
▁بداں	-11.7256
▁ناسرجم	-11.7256
▁date	-11.7259
▁پدریں	-11.7262
▁ھاکاں	-11.7264
▁روشے	-11.7265
▁گرانت	-11.7266
▁گج	-11.7267
▁واجہیں	-11.7269
▁پوائنٹ	-11.7269
▁جوابی	-11.7271
سیاہ	-11.7273
▁جستاں	-11.7274
▁منطقی	-11.7275
ونی	-11.7275
▁رخشانی	-11.7276
▁گونی	-11.7276
▁حالرسانی	-11.7278
▁چیئر	-11.7279
.......	-11.7279
▁نادراھانی	-11.728
▁موج	-11.7281
▁تنقیدی	-11.7281
▁کاملیں	-11.7285
▁والد	-11.7286
نور	-11.7286
▁مردینانی	-11.7287
▁غلط	-11.729
ھوار	-11.729
▁انوگ	-11.7293
▁بالشت	-11.7297
▁hurricane	-11.7298
▁حذمت	-11.7298
ایشاں	-11.73
▁اسکولءِ	-11.7302
▁کپئگ	-11.7304
▁دۆست	-11.7304
▁پجاروک	-11.7305
وال	-11.7305
▁چاک	-11.7307
▁منتءَ	-11.7307
▁کوڑی	-11.7308
▁انجن	-11.7309
▁دزاں	-11.731
▁کنک	-11.7313
▁ٹکرءَ	-11.7319
▁ھدیسے	-11.7319
▁ابر	-11.7319
▁اباں	-11.7321
▁چولاں	-11.7323
▁ندارگانی	-11.7324
▁رندانی	-11.7325
▁سرمچاری	-11.7325
▁کمپین	-11.7327
▁اکتر	-11.7329
▁گمسار	-11.7333
▁برزءِ	-11.7334
▁عملءِ	-11.7336
▁انے	-11.7337
▁داشتہ	-11.7339
▁پائے	-11.7339
▁بژنی	-11.7339
ارے	-11.7345
▁ڈبی	-11.7348
▁دیووند	-11.7349
▁کتبی	-11.735
▁ھندوستانی	-11.7351
▁پارٹیانی	-11.7351
▁پھمگ	-11.7351
▁منڈ	-11.7353
▁debut	-11.7354
▁گاں	-11.7355
▁نوعیت	-11.7356
▁خشک	-11.7356
▁خیل	-11.7358
▁پائیدار	-11.7362
▁کویت	-11.7364
▁زندگیءَ	-11.7367
▁بھتی	-11.7367
▁liv	-11.7369
▁دشمنیں	-11.7369
▁لنککاں	-11.7371
▁برتگیں	-11.7376
▁روپگ	-11.7376
▁ندار	-11.7379
▁difficult	-11.7382
▁Kingdom	-11.7382
▁حقوق	-11.7382
▁استاراں	-11.7383
▁مہروانیں	-11.7383
دروشم	-11.7384
▁میارباری	-11.7385
ہان	-11.739
▁شپک	-11.7391
▁نادراهی	-11.7391
▁جاپر	-11.7392
▁تما	-11.7392
▁رخصت	-11.7393
▁جنزاں	-11.7393
ٹا	-11.7396
▁فردوسی	-11.7397
▁زورگیر	-11.7399
▁se	-11.7399
▁سیدھاشمی	-11.74
▁ٹیکسٹ	-11.7401
▁دلوں	-11.7403
▁دادے	-11.7404
▁دورہ	-11.7406
▁تشبیہ	-11.7407
▁ھجالتی	-11.7407
▁میڑے	-11.741
▁campaign	-11.741
▁رہوت	-11.741
▁Island	-11.741
▁گورگیج	-11.7411
▁رویش	-11.7411
▁wide	-11.7413
▁ڑ	-11.7414
غ۔	-11.7414
▁سیری	-11.7416
▁خیالات	-11.7417
▁بوتگاں۔	-11.7419
▁غرض	-11.7422
▁نوشت	-11.7424
▁سرریچ	-11.7425
▁جاگھاں	-11.7425
▁complet	-11.7426
▁ماشین	-11.7427
▁گپتءُ	-11.7432
کاراں	-11.7432
▁زاد	-11.7434
▁لانس	-11.7434
منیر	-11.7434
▁ہوگا	-11.7437
یٹ	-11.7438
▁Cup	-11.7439
بیگ	-11.7439
▁گرنیڈ	-11.744
▁ریلوے	-11.744
▁رودپتر	-11.7442
▁بدھ	-11.7442
▁نیمونے	-11.7443
▁works	-11.7443
گند	-11.7444
▁گوہرام	-11.7445
غوث	-11.7448
▁زندء	-11.7448
ll	-11.7449
▁..	-11.7449
▁کنئگا	-11.745
ٹن	-11.7451
▁دنیگت	-11.7453
▁دوسرا	-11.7453
▁گیتکگ	-11.7453
▁گدارانی	-11.7456
▁ھرام	-11.7456
▁کردارے	-11.7459
▁جہلانکیں	-11.7461
▁person	-11.7465
▁المءَ	-11.7466
▁victor	-11.7466
▁جمبرانی	-11.7467
▁چیروکائی	-11.7467
▁زورگءَ	-11.7468
▁انیس	-11.7469
▁چاغی	-11.7469
▁کنڈاں	-11.747
▁کاؤنٹر	-11.747
▁گردی	-11.7472
▁سچکان	-11.7473
▁مرکءِ	-11.7474
▁ازگار	-11.7477
گام	-11.7477
جار	-11.7477
▁بابتا	-11.7482
▁وابجاہ	-11.7484
▁شکے	-11.7488
▁پنجاپی	-11.7489
▁ندی	-11.749
▁p	-11.7492
▁انٹرویو	-11.7495
▁رنگءِ	-11.7495
▁امجد	-11.7497
▁believ	-11.7498
▁نقشہ	-11.7498
▁بہراں	-11.75
▁کلاتے	-11.7503
▁انت۔یک	-11.7504
▁ہمدپ	-11.7505
▁addition	-11.7506
▁تچکءَ	-11.7507
▁پادگ	-11.7507
▁رژناہ	-11.7509
▁موں	-11.751
▁کاپرءِ	-11.7511
▁اشوبے	-11.7514
▁سردیں	-11.7515
▁کیمت	-11.7518
ودار	-11.7523
▁گلائش	-11.7525
A	-11.7526
▁سائنسداناں	-11.7528
▁سوٹ	-11.7529
اپی	-11.7531
▁night	-11.7532
▁یاتگیری	-11.7532
▁کنات	-11.7533
▁کشکءَ	-11.7533
▁بشارت	-11.7533
▁بابر	-11.7534
▁give	-11.7535
▁ھمراھانی	-11.7537
▁سهب	-11.7537
▁سنگیں	-11.7538
▁بیبرگ	-11.7539
▁نوشتگ	-11.7539
▁ودینگ	-11.7542
▁guns	-11.7543
▁مائی	-11.7544
▁مہروان	-11.7544
▁بٹن	-11.7544
▁بنگپی	-11.7545
▁بستر	-11.7545
▁نہایت	-11.7546
▁Company	-11.7551
▁ریموٹ	-11.7551
▁سمالانی	-11.7553
▁نمائندگ	-11.7553
▁پٹرول	-11.7554
▁نادان	-11.7554
▁بیزن	-11.7557
▁مکھیں	-11.7557
▁fight	-11.7557
خدا	-11.7561
▁سهر	-11.7561
▁پرمائیت	-11.7562
▁بلۆچستان	-11.7563
▁فوجءِ	-11.7564
▁سم	-11.7564
▁میس	-11.7566
▁ترانگ۔۔۔	-11.7567
▁بچانی	-11.7568
▁انسٹی	-11.7569
▁ستون	-11.7569
▁لیں	-11.7569
یوں	-11.7572
▁بوھگی	-11.7573
▁وانوکے	-11.7573
▁بینت	-11.7576
▁انان	-11.7577
▁offer	-11.7577
▁چڑ	-11.7578
▁کڑک	-11.7579
▁کولیسٹرول	-11.758
▁فیلڈ	-11.758
▁انگیں	-11.7582
▁گوزگءَ	-11.7582
▁سوویت	-11.7582
گم	-11.7584
▁شانتگ	-11.7585
▁کنزگ	-11.7587
▁دکھ	-11.7588
▁۔۔۔۔۔۔۔	-11.7588
▁زمستانی	-11.7589
▁زورایت	-11.7592
▁کپن	-11.7594
▁جگا	-11.7595
▁ساحرءَ	-11.7595
▁عنبر	-11.7596
▁لوزانت	-11.7597
I	-11.7598
▁گوشیت۔	-11.7603
▁فعال	-11.7605
▁کوهن	-11.7606
▁جهل	-11.7608
▁واجھیں	-11.7609
▁حرماگ	-11.7611
▁عبدالنبی	-11.7612
▁سکتے	-11.7613
1	-11.7613
ساچشت	-11.7613
▁اصحاب	-11.7618
▁ساسانی	-11.7618
▁کلاکاں	-11.7619
▁ھے	-11.7621
▁highway	-11.7623
وگ	-11.7624
▁پدمنتگی	-11.7625
▁گرءُ	-11.7626
▁پندلے	-11.7629
▁گرفتار	-11.7631
▁ٹکانی	-11.7633
اباد	-11.7634
▁دوچگ	-11.7634
▁بیراں	-11.7635
ورنا	-11.7636
▁ڈیمز	-11.7637
▁واشنگٹن	-11.7638
▁اثرے	-11.7641
▁وحدت	-11.7643
▁انت۔منی	-11.7644
سان	-11.7644
▁شھداد	-11.7644
▁شیراز	-11.7645
▁سوغات	-11.7648
▁نیلیت	-11.7648
▁چاڑے	-11.7649
▁انکاری	-11.7651
K	-11.7653
▁litt	-11.7653
▁جھدا	-11.7655
▁ہونا۔	-11.7656
بندات	-11.7656
▁ئیت	-11.7658
دنت	-11.7658
▁اشکنگءَ	-11.7661
▁شتر	-11.7661
▁کوالٹی	-11.7667
▁الطاف	-11.7668
▁stars	-11.7669
▁شکیل	-11.7673
▁کوہلو	-11.7674
▁گزی	-11.7674
▁شپاد	-11.7675
▁وشتریں	-11.7675
▁سرجمیءَ	-11.7679
▁دیوار	-11.768
▁بچکانی	-11.7681
▁تاگ	-11.7682
▁مڑگ	-11.7682
▁رپتگیں	-11.7682
▁لہڑی	-11.7684
▁اتکیں	-11.7684
▁visit	-11.7685
▁رودینگ	-11.7685
▁مودانی	-11.7685
▁ڈگارءِ	-11.7689
▁خواب	-11.7689
تھ	-11.7689
▁ندات	-11.7692
▁Some	-11.7695
▁گواش	-11.7695
▁زابل	-11.7695
▁سرپراز	-11.7695
▁باتیل	-11.7697
▁فاروقی	-11.7699
▁لہجہ	-11.7702
▁روباہ	-11.7706
▁کارکنانی	-11.7709
▁سون	-11.7709
▁ڈیھی	-11.7709
▁ماہور	-11.771
▁ابانی	-11.7715
▁اوٹ	-11.7717
▁کشتی	-11.772
▁Love	-11.7721
▁figure	-11.7724
▁کوچگاں	-11.7725
▁نیامی	-11.7725
اسی	-11.7725
▁سینٹ	-11.7726
te	-11.7728
▁ردومءِ	-11.7731
▁باکس	-11.7738
▁سببے	-11.7738
زندگ	-11.7741
▁گڈسری	-11.7742
▁کانونی	-11.7743
▁نیمگی	-11.7743
▁کنئے۔	-11.7743
▁جھلانکی	-11.7749
امان	-11.7749
▁دراتکگیں	-11.7749
ڈا	-11.775
▁گریڈ	-11.7751
▁male	-11.7754
▁رحمٰن	-11.7754
▁بناء	-11.7755
▁کدو	-11.7755
▁ڈوھدار	-11.7756
▁لقب	-11.7757
▁ra	-11.7758
▁چیرمین	-11.7759
▁بوٹگ	-11.7764
▁جمعیت	-11.7765
▁حرابی	-11.7766
▁مدئے	-11.7769
▁ریشگ	-11.777
ادءَ	-11.7772
▁گندوک	-11.7772
▁جنزءِ	-11.7772
▁برق	-11.7773
▁ڈیوڈ	-11.7774
▁میچل	-11.7776
▁کمیت	-11.778
▁Battalion	-11.7782
گاڑی	-11.7786
▁زھیراں	-11.7786
▁ھونی	-11.7788
▁گولڈ	-11.7789
▁تامرے	-11.7789
▁بندئے	-11.779
▁جزباتی	-11.779
▁پھرہ	-11.779
▁ھی	-11.779
▁born	-11.7791
▁نزوریاں	-11.7792
▁class	-11.7793
▁مبات	-11.7795
▁پاسداری	-11.7795
▁ناسرپدی	-11.7796
▁ناہک	-11.7799
▁کھں	-11.7804
▁گرداں	-11.7805
▁گندک	-11.7806
▁روئیں	-11.7806
▁پنڈ	-11.7809
مری	-11.781
▁David	-11.7811
▁wife	-11.7811
▁southern	-11.7812
یری	-11.7812
▁وین	-11.7814
▁تالاں	-11.7815
▁ذاکر	-11.7815
اہی	-11.7816
▁ھزاریں	-11.7818
▁افسانے	-11.7818
ير	-11.7825
▁گریتگ	-11.7826
▁coast	-11.7827
▁جاڑیں	-11.7829
▁شھادت	-11.7829
▁گیشتری	-11.7832
▁کلیم	-11.7832
▁مروشی	-11.7832
▁ہیران	-11.7834
▁سرھالانی	-11.7834
▁کلگی	-11.7834
▁ھرچنت	-11.7837
▁تئوار	-11.7838
▁me	-11.7839
▁France	-11.7839
▁comment	-11.7839
▁فیروز	-11.7841
▁کین	-11.7843
▁کرگ	-11.7844
▁صبح	-11.7846
▁گھنٹہ	-11.7848
▁چال	-11.7849
▁ناکۆ	-11.7853
▁اتمان	-11.786
▁Le	-11.786
▁ھندو	-11.7865
▁ط	-11.7865
انچش	-11.7867
▁غار	-11.7868
▁درکئیت	-11.7869
گرد	-11.787
▁women	-11.787
▁وٹامن	-11.787
دز	-11.7871
▁اچکزئی	-11.7871
▁ازمے	-11.7872
اڑ	-11.7872
بوگ	-11.7874
▁mother	-11.7874
▁حدود	-11.7875
▁داغ	-11.7876
▁کاروائیاں	-11.7876
▁مشترکہ	-11.7877
جتائیں	-11.7886
▁٭۔	-11.7888
▁گرز	-11.7889
▁ستارہ	-11.7889
▁چشمک	-11.789
▁جہانے	-11.7893
▁love	-11.7895
▁اتکءُ	-11.7895
▁شورہاں	-11.7896
▁دیمروہی	-11.7897
▁شادمانی	-11.7898
▁Brigade	-11.79
▁ٹھاٹھ	-11.79
▁study	-11.79
اگہ	-11.7902
▁اشکنوک	-11.7902
▁نیشنلزم	-11.7905
▁هں	-11.7905
▁دروازگءِ	-11.7905
▁تاثر	-11.7906
▁تئیگ	-11.7906
▁ماھانی	-11.7907
▁سچیت	-11.7908
▁ھیرانی	-11.7912
▁loss	-11.7912
▁شھزاد	-11.7913
▁ائیوکیں	-11.7917
▁بگوشاں	-11.7917
▁زوتیں	-11.792
▁چرپ	-11.7924
انوں	-11.7925
▁نندیں	-11.7925
▁پدرا	-11.7927
▁بیمناک	-11.7928
▁ماڈرن	-11.7928
▁چوھدری	-11.7929
▁مھرنھاد	-11.7929
▁بغاوت	-11.7931
▁اوزار	-11.7932
▁مادری	-11.7933
روسی	-11.7934
▁وتء	-11.7934
▁Grand	-11.7935
▁خواجہ	-11.7935
جام	-11.7938
▁بیزاری	-11.794
▁ازمکارے	-11.794
▁چاھے	-11.7941
▁سیکنڈ	-11.7941
▁جرمے	-11.7943
▁بگشاں	-11.7946
▁ٹیوٹ	-11.7946
▁command	-11.7948
▁report	-11.7949
▁نمای	-11.7949
▁مشرف	-11.795
▁چراگاں	-11.7952
▁عین	-11.7952
▁مقابل	-11.7954
▁ھلکءِ	-11.7956
▁کپے	-11.7957
▁عمری	-11.7957
▁ناکوزتک	-11.7959
▁پیلویں	-11.796
▁وصیت	-11.7961
▁کوھے	-11.7962
بلکنا	-11.7962
▁put	-11.7962
▁process	-11.7964
▁نورخان	-11.7966
▁سیما	-11.7966
▁دردءَ	-11.7966
شل	-11.7967
▁دہر	-11.797
▁چور	-11.7971
▁جواں	-11.7973
▁اکل	-11.7974
▁تالانی	-11.7974
▁مادگ	-11.7976
▁Robert	-11.7976
▁المین	-11.7977
▁رستم	-11.798
▁میلانک	-11.7983
▁view	-11.7983
▁ساھگے	-11.7983
▁رہیم	-11.7985
۔بزاں	-11.7987
▁ھش	-11.7988
▁جواز	-11.7989
ld	-11.7989
▁eastern	-11.7989
▁Roman	-11.799
▁اکوام	-11.7991
▁ننگر	-11.7991
▁جندئے	-11.7992
▁زھن	-11.7992
▁شہیدی	-11.7992
▁مارشل	-11.7993
▁اعلیٰ	-11.7995
ium	-11.7996
▁وتاس	-11.7998
▁اسکولءَ	-11.7998
▁مچانی	-11.7999
▁تامربند	-11.8
ترس	-11.8001
ھند	-11.8004
▁جائیں	-11.8005
▁مانشانتگ	-11.8005
▁پاھار	-11.8005
▁وٹس	-11.8006
▁حالانکہ	-11.8006
بک	-11.8008
▁provide	-11.8009
▁exist	-11.801
▁تپد	-11.8013
کہول	-11.8014
▁انقلابی	-11.8014
line	-11.8017
▁relationship	-11.8019
▁ویلے	-11.8021
▁الودگی	-11.8021
▁کچی	-11.8022
▁انہاں	-11.8023
▁مارٹر	-11.8025
▁الو	-11.8025
▁East	-11.8026
▁جنێن	-11.8029
▁کلاکے	-11.803
▁کوٹیءِ	-11.8033
چیءَ	-11.8035
▁بیٹ	-11.804
▁ہیڈ	-11.8045
▁کادر	-11.8046
▁درپش	-11.8046
▁دودے	-11.8047
95	-11.8048
▁2015	-11.8049
▁داروگہ	-11.8049
▁2003	-11.8049
ter	-11.8052
▁لبزءِ	-11.8055
▁مہتر	-11.8056
▁چاکری	-11.8057
▁بدنام	-11.8058
▁جوانین	-11.8059
▁ہپتگے	-11.806
▁پنگ	-11.8063
▁عاشقی	-11.8065
▁گوئستگیں	-11.8066
ford	-11.8067
▁وانیں	-11.8069
▁امبری	-11.807
▁بیت۔بلے	-11.8072
▁ھاکمانی	-11.8074
▁داستانانی	-11.8075
▁دمکے	-11.8076
▁وائے	-11.8076
▁دؤ	-11.8077
▁نکسان	-11.8077
▁ٹھوس	-11.8079
قاضی	-11.8079
▁گشگءَ	-11.808
▁غفار	-11.8081
▁علاقائی	-11.8082
▁گیڑھ	-11.8082
▁بلور	-11.8084
▁درامدانی	-11.8085
▁گالبندانی	-11.8086
▁اوبادگ	-11.8086
▁image	-11.8088
▁رۆچے	-11.8089
▁گرین	-11.8091
▁واکان	-11.8092
▁گے۔	-11.8095
▁سلاماں	-11.8098
▁نشانیاں	-11.8102
▁گوشداروک	-11.8103
▁گرامر	-11.8106
▁لنج	-11.8107
▁افزائش	-11.8109
▁لورالائی	-11.811
▁دلپروشی	-11.811
▁تبءَ	-11.8113
▁یاسمین	-11.8114
▁داز	-11.8115
▁نجی	-11.8118
▁دارئگ	-11.812
▁حاندان	-11.812
▁عیبے	-11.8123
▁بانوری	-11.8123
▁ھاجت	-11.8125
▁پیرکی	-11.813
▁continue	-11.8132
▁سوبے	-11.8133
▁گوست۔	-11.8138
▁Other	-11.814
▁تندجاہ	-11.8141
گءِ	-11.8141
▁رائی	-11.8143
▁ھئیال	-11.8144
ائین	-11.8144
شم	-11.8149
▁وڈے	-11.8151
▁post	-11.8151
▁بزھگ	-11.8152
▁سراپ	-11.8152
▁ماتو	-11.8152
▁دیوالے	-11.8153
دود	-11.8154
▁کثہ	-11.8155
▁اندرا	-11.8156
اوانی	-11.8156
▁توپانی	-11.8158
▁ازادیءِ	-11.8159
▁کورانی	-11.8159
.........	-11.8161
▁میرانی	-11.8163
▁ہسین	-11.8165
▁جنگاں	-11.8171
▁اؤرت۔	-11.8173
▁سحب	-11.8174
▁نگاھاں	-11.8175
▁دارگا	-11.8176
▁فائدگ	-11.8177
▁خالی	-11.8178
▁بندیگجاہ	-11.818
▁سرائیکی	-11.818
▁پیگام	-11.8181
”?	-11.8181
▁اصطلاحات	-11.8184
▁کردگار	-11.8186
▁نوبتاں	-11.8188
▁مختصر	-11.8188
▁شاہدی	-11.819
▁افس	-11.8193
▁گوشتے	-11.8194
▁سرداروں	-11.8194
فقیر	-11.8195
نازک	-11.8196
▁زوراوریں	-11.8197
▁کراں	-11.8197
▁اسکولے	-11.8198
صل	-11.8199
▁کلمت	-11.8199
▁مانگیش	-11.8199
هر	-11.82
▁پرسن	-11.82
▁ایمرجنسی	-11.8201
▁ارگنائزر	-11.8201
▁taken	-11.8202
کسانیں	-11.8202
▁fourth	-11.8203
▁مرشی	-11.8203
▁پسءَ	-11.8203
▁اۆدا	-11.8203
▁مسقط	-11.8204
▁زرتہ	-11.8206
▁روانبد	-11.8207
▁ترپ	-11.8212
▁زندئے	-11.8214
▁mi	-11.8215
▁مران	-11.8218
▁ساعتاں	-11.822
▁ماہل	-11.8221
▁انفرادی	-11.8223
▁لچہانی	-11.8224
▁پرگ	-11.8224
سٹر	-11.8225
▁انون	-11.8226
▁دوم	-11.8226
▁ذاتءِ	-11.8228
▁لینا	-11.8228
▁Music	-11.823
▁move	-11.8231
▁عاروس	-11.8231
▁بنھشت	-11.8232
یب	-11.8233
▁کماشانی	-11.8235
▁سہل	-11.8236
▁ثقافتی	-11.8238
ائن	-11.8238
▁رئوت	-11.824
مئی	-11.8241
▁جمبور	-11.8242
▁non	-11.8243
▁واقعی	-11.8249
▁کاریاں	-11.8252
▁تناظر	-11.8253
▁غریبی	-11.8254
▁ایشیئ	-11.8256
▁کلاسیکی	-11.8256
▁ساهگ	-11.8258
▁جپت	-11.8258
▁دزانی	-11.826
▁Europe	-11.826
▁European	-11.8261
▁جیڑت	-11.8261
▁خوار	-11.8265
▁امیتی	-11.8267
▁سوزمان	-11.8268
▁نوان	-11.8272
▁ڈولی	-11.8272
▁بگلءَ	-11.8275
▁ناراض	-11.8276
▁کمر	-11.8276
▁اشکی	-11.8277
▁نیزگاری	-11.8277
اولس	-11.8278
?!	-11.8278
▁دوارگ	-11.8283
ندہ	-11.8283
▁ابدمانیں	-11.8285
▁مہرانکی	-11.8288
کناں	-11.829
▁بوتل	-11.829
▁پیز	-11.829
ur	-11.8293
▁لٹریچر	-11.8294
▁نوکنڈی	-11.8295
▁کندگانی	-11.8297
▁شاہگانی	-11.8298
ظ	-11.8298
▁goal	-11.83
▁موز	-11.8301
▁نانے	-11.8301
▁بلوچیں	-11.8304
▁لہم	-11.8306
▁جات	-11.8308
کلات	-11.8308
▁اسراتیاں	-11.8309
وانی	-11.831
▁اردوءَ	-11.831
▁چہرءُ	-11.8312
it	-11.8315
▁ملان	-11.8317
▁زورءَ	-11.8318
▁صدا	-11.8319
▁سنگتان	-11.8319
▁کپتنت	-11.8321
▁پتھر	-11.8321
▁race	-11.8322
▁consist	-11.8322
▁ازمءُگوازی	-11.8322
▁نصراللہ	-11.8322
▁کسھی	-11.8322
▁میچ	-11.8323
▁خدائیداد	-11.8325
▁جہگیری	-11.8326
▁جانءَ	-11.8327
بیتگ	-11.8327
▁ماھو	-11.8328
▁افسرے	-11.8328
یث	-11.833
▁کسانین	-11.833
▁بدلہ	-11.8333
▁تفصیل	-11.8335
........	-11.8336
▁زلف	-11.8336
▁بیتہ۔	-11.8336
▁شیرگ	-11.8337
▁ہرجاہ	-11.8337
جنت	-11.8342
▁مزد	-11.8345
▁دزکپتگ۔	-11.8348
▁حور	-11.8349
▁ناشریں	-11.8349
▁کاھان	-11.8349
▁پاگاس	-11.8349
▁زیور	-11.835
▁سرک	-11.835
▁God	-11.8354
▁جاندراھی	-11.8355
▁decided	-11.8355
▁جزماں	-11.8358
▁شنبہ	-11.8359
▁ہن	-11.8363
مٹ	-11.8367
!!!	-11.8368
جوانیں	-11.8369
▁کاروانے	-11.8373
▁سرگوستے	-11.8374
▁Port	-11.8375
اخر	-11.8378
▁زوریت۔	-11.8381
▁لاک	-11.8382
▁مالانی	-11.8382
لین	-11.8383
▁heavy	-11.8384
▁نکناں	-11.8384
▁شئیراں	-11.8386
▁کؤل	-11.8388
وے	-11.8389
▁باگیں	-11.8391
▁بچی	-11.8391
▁نازی	-11.8391
▁اروسی	-11.8392
▁گولا	-11.8393
▁پھزدار	-11.8394
▁شانت	-11.8399
چش	-11.84
▁ناں۔	-11.8401
▁سربیتگیں	-11.8401
▁امیج	-11.8401
▁مارشتی	-11.8401
▁اجز	-11.8402
▁idea	-11.8405
▁خلق	-11.8405
▁ارٹس	-11.8406
▁کنزان	-11.8406
▁پٹک	-11.8406
بادشاہ	-11.8407
▁بتایا	-11.8408
وم	-11.8409
▁ناس	-11.841
▁face	-11.8411
▁ساجو	-11.8413
▁سیریں	-11.8414
▁rest	-11.8414
▁ارامی	-11.8414
▁لاپءَ	-11.8415
▁دریکگ	-11.8415
ترین	-11.8418
▁دوز	-11.8418
▁دلچسپی	-11.8419
▁cell	-11.8421
▁رستیں	-11.8424
▁گرئے	-11.8424
▁سالار	-11.8425
▁گردیں	-11.8425
▁ماہءِ	-11.8426
تان	-11.8428
▁شوہازءَ	-11.8431
▁کندن	-11.8432
▁مجتی	-11.8433
▁گوستگال	-11.8433
▁چگین	-11.8435
▁ڈوبر	-11.8435
▁دھکاں	-11.8438
▁ڈنک	-11.8438
▁چرک	-11.8439
▁دوہ	-11.8439
▁جماز	-11.8439
▁ہاترءَ	-11.8439
▁فلیٹ	-11.8442
کشگ	-11.8445
▁پبلشرز	-11.8446
▁problem	-11.8446
▁condom	-11.8446
▁Royal	-11.8446
▁امشپی	-11.8449
▁White	-11.8449
▁sold	-11.8449
▁درامدے	-11.8449
▁ضلعی	-11.8453
▁لہ	-11.8453
▁کما	-11.8455
▁لاشاں	-11.8457
▁ھمراھے	-11.8457
▁ہلاک	-11.8458
رک	-11.846
▁لبنان	-11.8461
▁نظیر	-11.8462
▁بانکیں	-11.8464
▁بکشگ	-11.8468
▁ملکان	-11.8469
▁نوائے	-11.8469
▁program	-11.8471
▁باھوٹی	-11.8471
▁بشکھندگی	-11.8473
▁بیدء	-11.8474
▁جاورھالانی	-11.8478
▁میاربار	-11.8478
چوں	-11.8479
▁اکیڈیمی	-11.848
▁سائیٹ	-11.848
▁نداتگ	-11.8481
▁گورانی	-11.8481
ثہ	-11.8483
▁توجہ	-11.8486
▁وشاتک	-11.8489
نزیک	-11.8491
▁پپ	-11.8491
فاضل	-11.8496
▁40	-11.8501
▁فرقہ	-11.8502
▁پرشتہ	-11.8503
▁individual	-11.8509
▁پتلون	-11.8509
▁بؤکیں	-11.8514
▁پاہار	-11.8514
▁گندات	-11.8516
▁سویت	-11.8518
▁بکال	-11.8519
کچک	-11.8522
▁ساخت	-11.8523
▁شریعت	-11.8523
▁کرامات	-11.8524
▁منزور	-11.8524
▁ترہ	-11.8525
ھار	-11.8525
▁رسین	-11.8526
الہ	-11.8526
▁tog	-11.8528
▁تلوار	-11.853
بات	-11.8534
▁دیتگ	-11.8534
▁خوف	-11.8534
لیکہ	-11.8535
الوں	-11.8536
▁شیرکن	-11.8537
▁ھرجان	-11.8537
▁lack	-11.854
▁سکریٹری	-11.8542
▁shot	-11.8543
▁ٹریکٹر	-11.8544
▁دلوش	-11.8555
▁اهد	-11.8557
▁زاھدہ	-11.8557
▁نویسے	-11.8557
وہدیکہ	-11.8562
▁ترجمان	-11.8562
▁رواجی	-11.8564
▁شورہ	-11.8564
▁پشکپتگیں	-11.8566
▁بلیت	-11.8567
▁جنتر	-11.8568
مانا	-11.8568
▁دریاب	-11.8569
▁مکرانی	-11.8571
▁شاھگانی	-11.8574
▁فقط	-11.8575
▁جزیرہ	-11.8575
▁زہیرانی	-11.8578
▁ارزشتی	-11.8579
▁سرگوات	-11.858
▁ملٹری	-11.8581
عبداللہ	-11.8585
▁پولیو	-11.8585
▁ناگتءَ	-11.8586
▁انت۔ا	-11.8587
ities	-11.8587
▁اوستانی	-11.8589
▁درباری	-11.859
▁زریت	-11.8592
▁my	-11.8593
جب	-11.8593
چست	-11.8594
▁مرکب	-11.8597
▁ٹریک	-11.8598
▁گھڑی	-11.8598
▁rule	-11.8598
▁وترا	-11.8598
▁limit	-11.86
اسحاق	-11.86
▁سیندک	-11.8603
▁Earl	-11.8604
▁احوالکار	-11.8604
▁Carey	-11.8604
▁29	-11.8604
▁داوت	-11.8607
▁درخانی	-11.8608
اڑے	-11.8611
▁بشی	-11.8612
▁پلیت	-11.8613
▁ہیک	-11.8614
▁کسانسال	-11.8615
▁شریءَ	-11.8616
▁ہڑتال	-11.8617
▁تاریک	-11.8617
▁ایشر	-11.8619
▁پچاں	-11.8622
▁چھاپءُ	-11.8622
▁سندءَ	-11.8624
▁ہوں۔	-11.863
دریا	-11.863
▁میڑاں	-11.8631
زن	-11.8632
▁غذائی	-11.8633
▁احمدان	-11.8634
▁کڑ	-11.8635
▁بیپاری	-11.8635
▁بسم	-11.8636
▁تصدیق	-11.8636
▁شھ	-11.8637
▁رسانکجاھ	-11.8638
▁center	-11.864
▁ٹھیکہ	-11.8641
▁ارسی	-11.8642
▁زم	-11.8644
▁تخیل	-11.8648
▁گوشتگیں	-11.865
▁کرداں	-11.8652
▁پہنچا	-11.8653
▁دازن	-11.8654
جتا	-11.8657
▁بوس	-11.8659
▁شدہ	-11.8662
▁گوریچان	-11.8663
انسانی	-11.8665
ینے	-11.8665
▁ٹرین	-11.8667
▁برقرار	-11.8668
▁مدافعت	-11.8668
▁Her	-11.8668
▁ٹویٹ	-11.8668
▁accept	-11.8669
▁اہو	-11.8671
▁وتساچیں	-11.8672
▁گوزوکیں	-11.8673
▁زامرانی	-11.8675
cy	-11.8679
▁روژنائیں	-11.8683
▁ادینکے	-11.8684
این	-11.8685
▁بھاگ	-11.8686
▁مافیا	-11.8686
▁گب	-11.8687
ته	-11.8687
▁مہرنگ	-11.8687
کائی	-11.8688
▁لوکل	-11.8688
▁اغہ	-11.8689
▁سلیمانی	-11.869
▁بٹاک	-11.8691
▁محرم	-11.8692
▁gun	-11.8695
▁کیچی	-11.8697
▁دروشمانی	-11.8699
▁begin	-11.87
▁ایڈ	-11.8701
▁افسوز	-11.8701
▁انٹیلیجنس	-11.8704
▁زانگءِ	-11.8706
▁سلوات	-11.8708
▁کک	-11.8708
▁چیٹ	-11.8709
▁communit	-11.8711
▁وشین	-11.8711
▁بیگاه	-11.8713
فکشن	-11.8718
▁ٹھ	-11.8721
▁گيئش	-11.8721
برز	-11.8722
▁سیلاب	-11.8722
کمک	-11.8724
▁مزھب	-11.8728
▁عصر	-11.8728
▁ستاہ	-11.8731
نمدی	-11.8732
ہمک	-11.8732
▁سافٹ	-11.8733
▁لاری	-11.8733
▁عبدالرحمان	-11.8733
▁دنیاء	-11.8734
▁پێش	-11.8734
▁وارتگ۔	-11.8735
▁دلوتاں	-11.8735
▁گداری	-11.8736
▁شیتان	-11.8737
▁کارہندہ	-11.8738
▁شموشت	-11.8739
▁شیرازی	-11.874
▁چکگ	-11.8741
عر	-11.8745
▁گوئش	-11.8745
▁village	-11.8746
▁زردار	-11.875
▁بنند	-11.8753
▁وشال	-11.8754
▁قوتانی	-11.8754
▁کاسد	-11.8756
▁جاھی	-11.8757
II	-11.8759
am	-11.876
گران	-11.8762
▁جھدءَ	-11.8762
▁کنڈیرا	-11.8765
▁گندئگ	-11.8766
▁انکھوں	-11.8767
▁ٹریننگ	-11.8769
▁چینکس	-11.877
▁کوھیں	-11.8772
▁چلشت	-11.8772
▁سورج	-11.8774
▁ات۔۔۔۔	-11.8775
▁درشانتگ	-11.8777
▁اچھا	-11.8778
▁گئے۔	-11.8778
▁بئیں۔	-11.8781
▁تعلقات	-11.8782
rd	-11.8785
▁تلاش	-11.8785
▁بارش	-11.8787
▁سفارت	-11.879
دئیگ	-11.879
▁جنگلات	-11.879
▁رزق	-11.8792
▁عوض	-11.8795
▁Federer	-11.8795
▁protein	-11.8795
▁اکانومی	-11.8795
▁کارل	-11.8796
▁جھینگا	-11.8798
▁نیوگ	-11.8799
▁اعجاز	-11.88
▁معراج	-11.88
▁جبل	-11.8801
▁جیڑگءَ	-11.8802
▁ویسٹ	-11.8802
شئیر	-11.8803
▁البرٹ	-11.8803
▁ماڈی	-11.8804
▁پارٹیز	-11.8805
▁گشینگ	-11.8806
▁زہن	-11.8809
▁تحقیقی	-11.8809
▁متھ	-11.8811
▁شرتگ	-11.8814
▁رپورٹس	-11.8814
▁سرکش	-11.8814
▁کردءَ	-11.8815
▁سکتی	-11.8816
▁ناوشیں	-11.8817
▁رودین	-11.8817
ھک	-11.882
ھست	-11.8821
▁جاں	-11.8823
▁کسانیءَ	-11.8823
▁نادینت	-11.8824
▁سیاستءَ	-11.8825
▁بدنت۔	-11.8828
▁سؤب	-11.8829
▁بٹے	-11.8832
▁سروسز	-11.8834
▁سینما	-11.8835
▁عبدالصبور	-11.8836
▁مہروانی	-11.8837
▁حسی	-11.8837
▁کانی	-11.8838
▁fall	-11.8839
▁ریھان	-11.884
▁بینر	-11.8843
▁ھدابند	-11.8844
▁مشہوریں	-11.8844
▁جدیدیت	-11.8846
▁پوره	-11.8847
▁ڈو	-11.885
▁نار	-11.8852
▁پٹاں	-11.8853
▁نندان	-11.8855
▁source	-11.886
▁رکھتا	-11.8861
▁رکھنے	-11.8862
▁طالع	-11.8864
▁رژنے	-11.8866
▁ترانگانی	-11.8866
▁گرپتاری	-11.8869
▁کربلا	-11.887
▁پتینکاں	-11.887
▁Per	-11.887
▁director	-11.8872
▁نمیرانی	-11.8874
▁اچے	-11.8876
▁بحالی	-11.8877
▁مڑدے	-11.8877
▁حاکمانی	-11.8878
▁دئیگءَ	-11.8878
▁ہردوئیں	-11.8879
▁ہالو	-11.8883
▁پروشان	-11.8884
▁چڑو	-11.8885
▁درامدی	-11.8885
▁front	-11.8885
▁اکساں	-11.8886
▁ربیتے	-11.8892
▁mov	-11.8892
▁International	-11.8893
▁چانسلر	-11.8893
▁چیدگانی	-11.8893
▁George	-11.8894
▁فکرے	-11.8894
▁ہاجی	-11.8894
▁گرمائشت	-11.8895
▁اھر	-11.8896
▁ساھیل	-11.8896
▁سوالی	-11.8896
▁ناوشی	-11.8897
▁William	-11.8897
▁manager	-11.8898
▁ابتدائی	-11.8898
▁جیسا	-11.8901
▁زوم	-11.8902
▁جمر	-11.8904
▁خوبی	-11.8907
▁نهات	-11.8907
▁شناست	-11.8907
▁گودی	-11.891
▁دوئم	-11.8912
▁جیسی	-11.8913
تھا	-11.8914
▁بستی	-11.8916
▁ازاتیءِ	-11.8918
▁far	-11.8918
▁ارسے	-11.8919
▁نشتگ۔	-11.892
▁involv	-11.8922
▁کپی	-11.8925
▁عکسانی	-11.8925
▁شرپی	-11.8927
▁مہنگائی	-11.8928
▁نصر	-11.8928
▁اسٹاپ	-11.8929
بیست	-11.8929
▁ہکل	-11.893
▁ہاشم	-11.8934
▁عشقی	-11.8934
▁بهار	-11.8935
▁ڈاکٹرانی	-11.8935
▁دیوی	-11.8936
دوستی	-11.8936
▁گانی	-11.8936
ناصر	-11.8936
▁رہتا	-11.8941
▁استعارہ	-11.8945
▁activit	-11.8946
▁ااے	-11.8949
▁مودی	-11.895
▁جہانءَ	-11.8951
▁چورہ	-11.8951
▁سالیگیں	-11.8952
▁میٹرک	-11.8953
▁پٹے	-11.8956
▁واھش	-11.8956
ناکیں	-11.8957
▁گڑی	-11.8958
▁"","	-11.8958
▁language	-11.8958
▁اپسرے	-11.8959
▁واهند	-11.8959
▁Wales	-11.8959
▁شومک	-11.8962
▁پرنسپل	-11.8962
گرگ	-11.8965
▁دلار	-11.8966
▁member	-11.8967
▁جستءَ	-11.8968
▁ایدا	-11.8969
▁پتاں	-11.8971
اڈ	-11.8973
▁گورکوپ	-11.8973
▁ریزمانک	-11.8977
▁ask	-11.8978
▁اسءِ	-11.8981
▁دروازگے	-11.8982
▁بگرد	-11.8985
▁واجہءَ	-11.8985
▁شدیگ	-11.8985
ناکو	-11.8987
▁شادءَ	-11.8989
▁ڈھانچہ	-11.8991
▁launch	-11.8991
▁گوٹ	-11.8992
▁مشق	-11.8992
▁گہیں	-11.8993
مہلوک	-11.8993
▁تهار	-11.8994
▁واپار	-11.8995
▁بھارتی	-11.8995
▁چریشانی	-11.8996
▁شاھگانیں	-11.8996
▁طاھر	-11.8997
▁نیما	-11.8997
امیت	-11.8998
▁رخشان	-11.8999
▁مشکلے	-11.8999
جہل	-11.9001
▁نادانی	-11.9001
▁اسکا	-11.9002
▁ازمانی	-11.9002
جون	-11.9003
▁اسراتیانی	-11.9003
▁مصرعہ	-11.9003
▁opening	-11.9006
▁گریو	-11.9007
لال	-11.9008
▁جنوب	-11.901
▁شاپی	-11.9011
▁زیردستیں	-11.9012
▁نزانتکاری	-11.9012
▁ارگی	-11.9014
▁anti	-11.9016
▁رکست	-11.9016
▁دوائی	-11.9018
▁بنچ	-11.9021
▁regular	-11.9024
▁current	-11.9025
▁جیک	-11.9026
▁صفائی	-11.9027
▁پشکپتگ	-11.9028
▁بیشک	-11.9028
▁واضح	-11.9029
▁بشکندگ	-11.9029
▁ھوالگ	-11.9029
▁wall	-11.903
یگاں	-11.9031
کساس	-11.9033
▁گورتگ	-11.9033
▁کوشکار	-11.9034
▁روانت	-11.9035
▁الھان	-11.9035
▁میدانی	-11.9035
▁قاری	-11.9036
▁ڈنگی	-11.9036
▁کبرانی	-11.9044
▁مڑائی	-11.9047
▁جدلیات	-11.9047
▁wh	-11.9048
▁اہر	-11.9051
▁ہمساہگ	-11.9053
side	-11.9053
field	-11.9054
▁برگا	-11.9056
▁Red	-11.9056
▁ڈپارٹمنٹ	-11.9057
▁گامگیجے	-11.9057
▁سفرے	-11.9058
▁House	-11.9058
▁مشھد	-11.9063
▁تصوف	-11.9064
▁جذباتی	-11.9065
▁نودی	-11.9069
▁ناروائی	-11.9071
▁درکپان	-11.9071
▁لعنت	-11.9072
جارکش	-11.9074
▁گردہ	-11.9075
▁کردیا	-11.9081
▁بوھگءِ	-11.9083
▁تھئی	-11.9083
▁امنہ	-11.9085
▁پتن	-11.9085
▁ہول	-11.9087
▁حیوان	-11.9088
▁بلکین	-11.9089
▁دلئ	-11.909
▁ہمبل	-11.909
▁دھمی	-11.9091
▁subse	-11.9092
▁destroy	-11.9094
▁سومری	-11.9095
▁کارنت	-11.9095
▁سرپرہ	-11.9098
▁شمسی	-11.9098
▁لبزیات	-11.9101
▁زورگپت	-11.9104
ircraft	-11.9104
▁لپرزگ	-11.9104
▁Me	-11.9106
▁بھائیں	-11.9107
نومبر	-11.9107
▁زیرک	-11.9108
مب	-11.9113
▁San	-11.9115
▁نبشتگ۔	-11.9116
ۆکێں	-11.9117
▁مادنی	-11.9117
▁ریم	-11.9118
▁بانگواہ	-11.9119
▁زریات	-11.9121
▁دھوت	-11.9121
▁بائیکاٹ	-11.9124
▁راولپنڈی	-11.9124
▁کرنءِ	-11.9124
▁اشکانی	-11.913
▁Part	-11.9132
▁صورتے	-11.9133
▁جوھان	-11.9136
▁pre	-11.9137
▁کھیر	-11.9137
▁کراچیءِ	-11.9138
▁زنگی	-11.9138
▁نیزگاریں	-11.9138
▁موکہ	-11.9139
▁دانے	-11.9144
▁Hero	-11.9144
لشکر	-11.9148
▁پیشدار	-11.9149
▁prais	-11.9149
▁مرکءَ	-11.915
▁کپگءَ	-11.915
▁ٹر	-11.9151
جل	-11.9153
▁انیگ	-11.9155
▁مورے	-11.9155
▁داناں	-11.9157
▁clear	-11.9157
▁size	-11.9157
▁خلیات	-11.9158
▁پرماتگ	-11.9159
▁میلان	-11.9159
▁مارکسزم	-11.9159
▁واھگدار	-11.9159
▁طویل	-11.9159
▁اچھی	-11.9163
▁تورات	-11.9165
▁لنککانی	-11.9165
▁کوری	-11.9166
▁اسٹار	-11.9171
مثال	-11.9172
تری	-11.9173
▁کپات	-11.9175
شور	-11.9176
▁کب	-11.9178
▁شکلے	-11.9181
ساز	-11.9183
▁central	-11.9184
▁اعلان	-11.9184
▁درونتاں	-11.919
▁باجی	-11.919
▁چدو	-11.919
▁Street	-11.9191
▁نیکشھر	-11.9193
▁grow	-11.9193
▁بہتامے	-11.9193
▁وانگءُ	-11.9195
▁El	-11.9196
▁زرورت	-11.9197
▁کارمرزگ	-11.9197
▁لۆگئے	-11.9199
▁هاک	-11.9202
ways	-11.9204
۔پمیشکہ	-11.9205
▁باطنی	-11.9209
▁انکی	-11.921
اؤں	-11.9213
▁پیڑ	-11.9213
▁سرپر	-11.9215
▁هنچو	-11.9219
▁مجبوری	-11.9223
▁کسهے	-11.9223
▁پڈ	-11.9224
▁اردوءِ	-11.9224
▁recording	-11.9224
▁Championship	-11.9224
▁تفتان	-11.9224
▁مشیر	-11.9229
▁اھوگ	-11.9231
▁گٹی	-11.9232
▁گورگ	-11.9233
▁دیتی	-11.9235
کپتگ	-11.9236
▁اریائی	-11.9237
▁کساسءَ	-11.9237
▁گزل	-11.9238
▁hit	-11.924
▁رومی	-11.924
▁دیدانک	-11.924
.”	-11.9241
▁توجیلے	-11.9243
▁مارتگ	-11.9243
▁مہماناں	-11.9247
▁بڑگ	-11.9248
▁ever	-11.9251
▁hand	-11.9253
▁ملیں	-11.9255
▁رؤت۔	-11.9256
▁پادءَ	-11.9256
▁artist	-11.9258
▁Follow	-11.9258
▁عبدالقیوم	-11.9258
▁مانچسٹر	-11.9258
بیر	-11.9259
▁برین	-11.926
▁مھلہ	-11.9261
▁پترت۔	-11.9262
▁find	-11.9264
▁کپتان	-11.9264
▁موجودگی	-11.9265
▁فاطمہ	-11.9266
▁مہرگ	-11.9267
چین	-11.927
▁لیبیاں	-11.9273
▁بلڈنگ	-11.9274
▁پرشان	-11.9276
▁رودینی	-11.9276
▁دزگ	-11.9279
▁پہلا	-11.9282
▁دمکانی	-11.9282
▁تمردی	-11.9283
▁ھردوکانی	-11.9284
▁draw	-11.9285
▁سچان	-11.9286
▁کوپگانی	-11.9287
▁باراں	-11.929
▁واہگاں	-11.9291
▁Jordan	-11.9292
▁رکاوٹ	-11.9292
▁کانگریس	-11.9293
▁شمالی	-11.9293
▁توکی	-11.9293
▁سحار	-11.9294
▁ھالتاک	-11.9294
▁درشانگ	-11.9296
▁اسٹاف	-11.9297
▁ماشکیل	-11.9298
کاف	-11.93
▁appearance	-11.9302
▁پسگاں	-11.9308
▁چلو	-11.9308
▁مرادے	-11.9309
▁گڑھ	-11.9313
▁شائریءَ	-11.9314
▁نزوریانی	-11.9315
▁mix	-11.9319
شری	-11.9321
▁عمرے	-11.9321
▁free	-11.9323
▁Nav	-11.9325
▁زیبدار	-11.9326
▁evidence	-11.9326
▁commercial	-11.9326
▁regard	-11.9326
▁From	-11.9326
▁انگلستان	-11.9327
▁عبدالقدوس	-11.9328
▁cast	-11.9329
▁دفعہ	-11.933
▁ٹائر	-11.933
▁وسیع	-11.9333
▁مردیناں	-11.9333
2014	-11.9333
▁مظہر	-11.9334
▁منٹو	-11.9342
▁yard	-11.9344
خیر	-11.9345
▁اوشتاتگ۔	-11.9348
▁سمبل	-11.9351
▁براں۔	-11.9351
▁زلمانی	-11.9351
▁نویسانی	-11.9352
▁استی	-11.9352
▁ٹینک	-11.9353
▁سیمک	-11.9354
▁ھالتران	-11.9354
▁زھیروک	-11.9354
▁نورمحمد	-11.9354
کت۔	-11.9358
شگ	-11.9359
▁معشیت	-11.936
▁gain	-11.936
۔بلئے	-11.9362
▁met	-11.9362
▁لہڑئگ	-11.9362
▁بیچارگیں	-11.9365
▁ہاتھوں	-11.9372
▁بیٹھ	-11.9374
▁Christian	-11.9374
▁سرکتگ	-11.9375
▁river	-11.9377
▁جمالیاتی	-11.9378
▁ببارت	-11.9379
▁ناٹک	-11.938
ابی	-11.9384
▁کھنت	-11.9385
▁واگ	-11.9386
▁زرتءُ	-11.9387
▁وانگیانی	-11.9387
شمے	-11.9388
▁رچیت	-11.9389
ھیر	-11.9389
▁لائکی	-11.9391
▁break	-11.9394
▁سہولت	-11.9395
▁Rock	-11.9395
▁سوزش	-11.9398
▁بیاات	-11.9399
▁یاری	-11.94
▁دروراں	-11.9401
▁هساب	-11.9402
▁فطری	-11.9403
▁rock	-11.9405
▁اون	-11.9406
▁ڈاچی	-11.9406
▁بہارگاہ	-11.9406
چن	-11.9406
▁چینچک	-11.9407
▁ذال	-11.9411
▁تہراں	-11.9412
▁مرتبہ	-11.9412
▁مکہیں	-11.9415
▁ترات	-11.9416
▁شہرانی	-11.9421
سندھ	-11.9421
▁ییں	-11.9421
▁بچوں	-11.9422
▁اوپن	-11.9424
▁گشوک	-11.9425
▁اوہد	-11.9426
▁کوشاں	-11.9428
▁agree	-11.9428
▁تمردیں	-11.9428
▁افیشل	-11.9432
▁کیگد	-11.9432
▁مشتمل	-11.9433
هی	-11.9435
▁جیڑگاں	-11.9435
▁نوار	-11.9436
▁لکھوڑ	-11.9437
▁بالو	-11.9438
▁وجودی	-11.9438
▁بندین	-11.9443
ندر	-11.9444
▁کوتاہ	-11.9446
▁پورے	-11.9448
▁مرتگاں	-11.9449
▁دراز	-11.945
▁چاچے	-11.9451
▁جوڑینگ	-11.9452
▁دگاں	-11.9453
▁200	-11.9454
▁دیو	-11.9456
▁ترست	-11.9461
▁نبیستگ	-11.9462
▁پوشاکاں	-11.9462
▁تاپگ	-11.9463
▁چیار	-11.9464
▁ها	-11.9465
▁لچہی	-11.9466
▁نیادے	-11.9466
▁جٹ	-11.9467
کئی	-11.9469
▁بانڑی	-11.9469
▁کوت	-11.9471
▁کتکار	-11.9472
▁saw	-11.9472
▁دزرس	-11.9475
▁ٹاپار	-11.9479
▁ھیبتان	-11.948
)"	-11.9481
▁حقدار	-11.9481
▁ات۔کہ	-11.9482
▁مرادجان	-11.9482
▁کمکین	-11.9483
▁لکانی	-11.9484
▁سمیت	-11.9484
▁سرکچ	-11.9486
مانءَ	-11.9487
▁هوش	-11.9488
ۆک	-11.9492
▁La	-11.9492
▁درانڈیھ	-11.9494
▁بہرءُ	-11.9494
▁Ma	-11.9496
▁توکہ	-11.9499
▁گوستگین	-11.9501
▁ات۔ائیءَ	-11.9501
▁ہجرت	-11.9501
▁جوانیءَ	-11.9506
▁بندنت	-11.9511
▁شکور	-11.9513
▁سپاہیگ	-11.9514
..."	-11.9514
▁کٹوکیں	-11.9517
▁ببات	-11.9518
▁نیمءَ	-11.9518
▁دیگری	-11.9518
▁ہتم	-11.9521
▁چاپءُ	-11.9521
▁بوہگا	-11.9522
▁پھزداری	-11.9523
▁ٹا	-11.9524
▁تبلیغ	-11.9524
▁مھربان	-11.9525
▁جونے	-11.9526
بوان	-11.9526
سل	-11.9526
ٹے	-11.953
▁مالداری	-11.953
▁قدیمی	-11.9531
▁کدین	-11.9531
▁reveal	-11.9533
▁تاہم	-11.9533
▁رھیم	-11.9534
▁امرے	-11.9535
▁براھوی	-11.9536
▁ایکٹ	-11.9537
▁کدرتی	-11.9537
▁replac	-11.9537
اھی	-11.9538
▁کرنا۔	-11.9539
▁راگے	-11.9542
انہی	-11.9542
▁معاف	-11.9545
▁گؤر	-11.9545
▁ڪ	-11.9547
روک	-11.9547
▁بایدیں	-11.9549
▁فلسطینی	-11.9551
▁براث	-11.9552
▁نیچے	-11.9554
▁مھنت	-11.9554
▁Mary	-11.9554
ڑہ	-11.9555
▁تبءِ	-11.9558
▁سھی	-11.9558
▁بکشات	-11.9561
▁پلگاری	-11.9563
▁نیمگء	-11.9564
▁بیتگینانی	-11.9564
▁بالیچہ	-11.9565
▁الاقوامی	-11.9568
▁گراک	-11.9568
▁outside	-11.9568
▁ریت	-11.9569
▁برجمیں	-11.957
▁اجل	-11.957
▁troops	-11.957
▁تقدیر	-11.9571
▁نیویارک	-11.9571
▁جتءُ	-11.9571
▁دہل	-11.9572
▁ھوالہ	-11.9572
▁عقیدہ	-11.9574
▁بیرگیری	-11.9575
▁کارکنگ	-11.9575
▁فریاد	-11.9576
▁نزار	-11.9576
▁ساهت	-11.9578
▁استالانی	-11.9578
▁battle	-11.9578
▁cit	-11.9578
▁نکہ	-11.9581
▁معاشرتی	-11.9585
▁ترمیم	-11.9586
▁event	-11.9587
▁یکمشت	-11.9587
▁پہمئنءِ	-11.9588
▁کرنانی	-11.9588
▁g	-11.9589
▁سواراں	-11.959
زا	-11.959
▁سالہ	-11.959
▁پج	-11.9592
▁سوجے	-11.9592
wood	-11.9593
▁پزور	-11.9594
▁شخصی	-11.9596
▁هاترا	-11.9597
بنت۔	-11.9597
▁پچگ	-11.96
▁مکسک	-11.96
▁سلا	-11.9601
▁اشترانی	-11.9601
▁northern	-11.9603
▁ٹیچنگ	-11.9603
▁چالاک	-11.9604
▁بندءَ	-11.9605
▁سرجمین	-11.9608
▁دپءِ	-11.9608
▁نمی	-11.9608
▁کائیں	-11.9608
▁اران	-11.961
▁جنئے	-11.9612
▁اگا	-11.9613
▁تلگ	-11.9614
▁Game	-11.9614
مکران	-11.9615
▁زانتءِ	-11.9615
▁ہشکیں	-11.9616
▁نیر	-11.9618
▁تھل	-11.9618
تاب	-11.9618
ti	-11.962
▁پگرانی	-11.9621
▁فوک	-11.9621
▁ساماناں	-11.9622
جند	-11.9622
▁خراسان	-11.9623
▁نسلی	-11.9625
▁لنکا	-11.9626
upon	-11.9628
دہی	-11.9628
▁چابک	-11.9629
▁واجہءِ	-11.963
کھ	-11.9631
▁contract	-11.9632
▁چگ	-11.9633
▁گریوان	-11.9634
▁اھتک	-11.9635
▁rank	-11.9637
▁اتنتءُ	-11.9638
لاں	-11.9638
▁Tech	-11.9638
▁امتحان	-11.9639
▁زدگیں	-11.9642
▁عنایت	-11.9642
امین	-11.9642
▁ایماندار	-11.9646
▁دوہزار	-11.9647
▁درمانے	-11.9648
▁گرانڈ	-11.9648
▁جوانتر	-11.9648
▁پھکیں	-11.9648
▁زانتانی	-11.965
▁ھدوناک	-11.965
▁هار	-11.965
▁جامع	-11.9651
▁مارکیز	-11.9652
▁گناه	-11.9653
▁ماجد	-11.9654
▁شاھوانی	-11.9654
▁کچکول	-11.9655
▁بغداد	-11.9656
▁جاہو	-11.9657
▁کامی	-11.9659
لاپ	-11.9661
▁پسگانی	-11.9661
▁پوسٹے	-11.9661
▁پوریا	-11.9662
▁ملگور	-11.9665
دیں	-11.9666
▁کمپ	-11.9666
▁درجنگ	-11.9666
▁وحی	-11.9669
▁سدگ	-11.967
ling	-11.9671
6	-11.9672
مستریں	-11.9673
وڈ	-11.9673
▁31	-11.9675
دانکہ	-11.9675
درا	-11.9677
▁ھکیکت	-11.9677
▁ھرمردم	-11.9679
ایس	-11.9679
▁منکر	-11.968
▁ستم	-11.9681
▁جہدءِ	-11.9682
▁نادرائی	-11.9682
▁مزھبی	-11.9682
▁پہناد	-11.9682
▁ورناھے	-11.9683
▁ھزارہ	-11.9684
▁بینجو	-11.9684
▁قیاس	-11.9688
lorida	-11.9688
▁بیٹا	-11.9691
▁ارباب	-11.9691
▁پلگارگ	-11.9694
▁دزگہار	-11.9695
ial	-11.9695
۔ائیءَ	-11.9696
▁تیگ	-11.9696
▁ہیرو	-11.9697
▁اسانیں	-11.9698
▁yards	-11.9698
ینانی	-11.9701
رءَ	-11.9701
▁پائی	-11.9704
▁ھمش	-11.9705
▁چستءُ	-11.9705
▁تنیگا	-11.9705
▁دران	-11.9706
جاه	-11.9707
▁مھری	-11.9708
▁length	-11.9708
▁وزبت	-11.9708
▁section	-11.9709
▁کرتگءُ	-11.9709
▁دوئین	-11.9709
نیک	-11.9709
▁experience	-11.971
▁زرناز	-11.9711
▁ابابگر	-11.9711
▁دلدار	-11.9712
▁سانیٹ	-11.9713
▁تھرو	-11.9713
سما	-11.9714
▁قلندر	-11.9714
▁واہد	-11.9714
▁جدائی	-11.9714
▁بهداشتی	-11.9715
▁دائرہ	-11.9716
اخ	-11.9717
▁درگاہ	-11.9721
▁وامدار	-11.9727
▁پیراں	-11.9731
چارمی	-11.9731
▁لیٹر	-11.9732
▁لگے	-11.9732
کوش	-11.9739
ہمیش	-11.9739
▁جیڑه	-11.9739
▁کیمتی	-11.974
▁جفا	-11.9743
▁نیاریت	-11.9744
▁بوهگ	-11.9745
▁possible	-11.9746
رم	-11.9746
▁کشے	-11.9748
▁location	-11.975
۔پرچاکہ	-11.9753
▁ساتھی	-11.9755
▁کنیت	-11.9755
▁دیتہ	-11.9757
▁ہیگل	-11.9757
▁ایرجنگ	-11.9757
be	-11.9758
اه	-11.9758
زمانہ	-11.976
▁اباتی	-11.976
▁ورئے	-11.976
▁فا	-11.9763
گڈ	-11.9767
uest	-11.9768
پولیس	-11.9769
▁انام	-11.9769
▁ارز	-11.977
▁جنینءَ	-11.9773
▁گژنگ	-11.9774
▁نپرت	-11.9778
▁نتھا	-11.9778
بچ	-11.9778
▁league	-11.9779
▁ولگوج	-11.9779
▁crew	-11.9779
▁نامءِ	-11.9781
▁گوران	-11.9781
▁جائیداد	-11.9781
▁قدح	-11.9782
▁مھناز	-11.9782
▁رپکاں	-11.9783
▁Paul	-11.9783
▁ہائیکو	-11.9785
▁saying	-11.9786
▁درتہ	-11.9789
tic	-11.979
▁راجداری	-11.9791
▁ملگزار	-11.9792
▁ٹکءِ	-11.9793
rought	-11.9794
عمل	-11.9797
▁تمرد	-11.98
▁ھاشم	-11.98
▁بوتگت	-11.9801
▁دوستناک	-11.9801
اچہ	-11.9803
▁دربہ	-11.9807
▁وشان	-11.9807
▁گدے	-11.9808
▁کساسیں	-11.981
ro	-11.9814
▁account	-11.9815
▁competition	-11.9815
▁material	-11.9815
▁flood	-11.9815
▁درابوت	-11.9816
▁تشریح	-11.9816
▁زانگول	-11.9816
▁فصیح	-11.9817
▁غزہ	-11.9819
▁لوگا	-11.982
▁مرتب	-11.9822
▁دروشمی	-11.9823
▁شفیقہ	-11.9825
▁عکساں	-11.9825
کماش	-11.9827
▁عطر	-11.9827
▁حاموش	-11.9829
▁جنید	-11.9831
▁سیادانی	-11.9831
▁500	-11.9834
دلگوش	-11.9834
سیر	-11.9834
▁بچکندگے	-11.9835
▁محکمی	-11.9836
ینی	-11.9837
▁یوٹیوب	-11.9839
▁شپا	-11.9841
▁پرکاری	-11.9841
▁ہیت	-11.9842
▁لچہے	-11.9842
رحیم	-11.9843
▁کانپرنس	-11.9844
▁عمومدار	-11.9845
▁پارس	-11.9845
▁سوتانی	-11.9846
پو	-11.9846
▁مھلوکءِ	-11.9848
▁شریپ	-11.9848
▁پوزیشن	-11.9848
▁working	-11.9849
دارگ	-11.9849
▁effort	-11.9851
▁international	-11.9851
▁ایڈووکیٹ	-11.9851
▁Richard	-11.9851
▁سنگار	-11.9851
▁کارکناں	-11.9851
▁ہیومن	-11.9851
▁whom	-11.9853
▁عبدالرزاق	-11.9853
▁نذیر	-11.9854
▁باہند	-11.9854
▁اژناگ	-11.9854
▁شرگدارے	-11.986
uick	-11.986
▁گرگا	-11.986
▁مزائیں	-11.9861
served	-11.9862
▁دنزاں	-11.9863
▁پتہ	-11.9863
▁گلوبل	-11.9863
▁کہدا	-11.9864
▁هاتر	-11.9866
▁موسمءَ	-11.9867
▁سنداں	-11.9869
▁شموشکار	-11.987
▁گڑتی	-11.987
▁سیپ	-11.987
▁بانداتءِ	-11.9874
کاریں	-11.9874
▁دیھ	-11.9875
▁قالب	-11.9875
▁دلسیاھی	-11.9876
کپ	-11.9877
▁برھنگ	-11.9877
▁Most	-11.9877
▁استنت	-11.9878
▁گوستگ۔	-11.9878
▁گالوارانی	-11.9879
▁introduc	-11.988
▁نتا	-11.988
قصہ	-11.9881
▁عمرءِ	-11.9881
▁شرانت	-11.9886
دن	-11.9886
99	-11.9886
▁تۆکا	-11.9887
▁ولیعہد	-11.9887
▁سنڈیمن	-11.9888
▁قائد	-11.9888
▁اسرات	-11.9888
▁مبنی	-11.989
▁اسکرین	-11.9891
▁شؤر	-11.9892
▁سئیمی	-11.9893
▁مناک	-11.9893
۔بلوچی	-11.9894
▁ھرروچ	-11.9895
▁سستی	-11.9897
۔مئے	-11.9899
▁کائیگر	-11.9902
mph	-11.9905
حاجی	-11.991
▁زاهر	-11.991
سربوتگیں	-11.9911
▁گنجے	-11.9913
▁ھمید	-11.9913
▁باروء	-11.9914
شھید	-11.9915
۔چہ	-11.9915
▁منیگ	-11.9917
▁بوہگءِ	-11.992
▁یقینی	-11.9922
▁Hurricane	-11.9923
▁Missouri	-11.9923
▁poor	-11.9923
▁پریمئیر	-11.9923
▁ماھان	-11.9924
▁پکی	-11.9924
▁چلہ	-11.9924
▁extend	-11.9924
اسپ	-11.9925
▁مکسدے	-11.9925
دیمرھی	-11.9926
▁ناسرجمیں	-11.9928
▁خداوند	-11.9929
▁مشرق	-11.9929
▁بامسار	-11.993
▁اسپتیں	-11.9932
▁رسمءُ	-11.9932
▁بیوی	-11.9933
▁ہجری	-11.9934
▁مکرانءِ	-11.9935
بچک	-11.9937
▁وندر	-11.9938
▁گلشن	-11.9938
▁پاسپان	-11.9939
▁خیالی	-11.994
iz	-11.9941
▁گٹے	-11.9952
▁اہن	-11.9953
گچین	-11.9955
▁رہیں	-11.9955
▁average	-11.9955
▁mean	-11.9956
▁ککڑ	-11.9957
▁سئوت	-11.9957
▁درزن	-11.9957
▁appoint	-11.9957
▁دپتری	-11.9959
▁لیکچر	-11.9959
▁2001	-11.9959
▁تاھیری	-11.9959
▁جہلءَ	-11.9961
▁سیبی	-11.9961
▁شمشکار	-11.9964
▁کودکی	-11.9964
▁جھاز	-11.9966
▁گهار	-11.9966
▁f	-11.9966
▁reason	-11.9969
▁شربت	-11.9978
▁پہازگ	-11.9979
▁مہراب	-11.9979
هے	-11.9981
▁کدام	-11.9984
▁زندئ	-11.9987
اومان	-11.9987
سکیں	-11.9989
▁۔۔۔۔۔۔۔۔	-11.999
▁پساں	-11.999
▁سادے	-11.9991
▁مکتبہ	-11.9992
▁داعش	-11.9996
▁مصنف	-11.9996
▁لبزتکنیک	-11.9996
▁دلءُ	-11.9997
▁۔مئے	-11.9997
▁واپاری	-11.9997
▁زھنی	-11.9999
ارس	-12.0002
▁اگاہی	-12.0008
▁کیک	-12.0009
▁ڪن	-12.001
▁ھلوت	-12.0011
▁گورءِ	-12.0013
▁هرچی	-12.0015
▁پیرین	-12.0016
مس	-12.0019
▁چوری	-12.0019
▁راستیاں	-12.0021
▁روڑ	-12.0021
▁پرینت	-12.0022
▁نظریات	-12.0026
▁کیفے	-12.0027
▁اداره	-12.0029
▁ندکاراں	-12.003
▁ابرمءِ	-12.003
▁ہائوس	-12.0032
more	-12.0032
▁فروغ	-12.0032
▁نندگی	-12.0033
read	-12.0033
▁زیشان	-12.0033
▁برگءَ	-12.0034
▁گویا	-12.0038
▁خوشی	-12.0042
▁میوہ	-12.0043
▁شریان	-12.0045
▁دہقان	-12.0048
▁راہشون	-12.0048
▁مردماناں	-12.005
دژمن	-12.005
▁قندھار	-12.0051
▁court	-12.0051
قران	-12.0053
▁شدیک	-12.0054
▁اماچی	-12.0056
▁مھکمہ	-12.0057
w	-12.0058
▁بکتیں	-12.0058
ta	-12.0061
▁شیڈول	-12.0066
▁بدبھتی	-12.0067
▁سہمی	-12.0067
گراں	-12.0068
▁یاں۔	-12.0068
▁بڈءَ	-12.0068
▁زلوری	-12.0068
▁چیلک	-12.0069
▁سلحہ	-12.0069
کسان	-12.007
▁گؤن	-12.0071
▁پیچیدہ	-12.0071
بازار	-12.0071
▁ہاکمی	-12.0071
▁پروشیں	-12.0075
▁فائر	-12.0075
اتے	-12.0079
▁امریکن	-12.0083
▁واقف	-12.0086
▁ماہیں	-12.0086
▁تازہ	-12.0087
زار	-12.0088
جم	-12.0089
▁اقرار	-12.0089
▁نامگ	-12.0089
ایرانی	-12.009
▁چاتے	-12.0091
برات	-12.0091
وکے	-12.0093
▁گندیت۔	-12.0093
▁والہ	-12.0093
▁دراہی	-12.0094
▁مھران	-12.0095
▁ردے	-12.0096
▁کشکانی	-12.0097
▁منان	-12.0098
▁سارے	-12.0098
▁بریت	-12.0101
▁بیٹے	-12.0106
▁راستین	-12.0106
▁Day	-12.0107
▁برامدات	-12.0108
▁ہرنائی	-12.0108
▁کینیڈا	-12.0109
▁ابرار	-12.0109
▁یافتہ	-12.011
▁حیدراباد	-12.011
▁پاکی	-12.0111
رژن	-12.0112
▁تمثیل	-12.0113
▁Sun	-12.0114
▁معصوم	-12.0117
▁producer	-12.0118
▁جھدکاراں	-12.0119
▁کرگین	-12.012
▁متن	-12.012
▁بازیابی	-12.0122
▁کمٹمنٹ	-12.0123
▁تورگ	-12.0124
▁ریتک	-12.0126
▁گیجیت	-12.0128
درستیں	-12.013
▁سیرءُ	-12.013
ful	-12.013
▁مجاھد	-12.0131
▁واجھ	-12.0131
جس	-12.0133
ارت	-12.0134
▁بست۔	-12.0135
▁نندئے	-12.0136
▁بگنداں	-12.014
▁ممبئی	-12.0142
▁دارالعلوم	-12.0143
▁فرزند	-12.0144
▁گریہان	-12.0144
▁اردشیر	-12.0145
▁بیپار	-12.0145
▁پذا	-12.0145
▁ھلیل	-12.0146
▁زھیرانی	-12.0147
▁روزرد	-12.0147
▁ضیا	-12.0148
▁سالانہ	-12.0151
▁تسلی	-12.0152
▁بداتیں	-12.0152
▁جہلگ	-12.0153
▁ماہکان	-12.0154
▁بازانت	-12.0157
▁سوگاتے	-12.0158
▁گذر	-12.0164
▁جہدکار	-12.0169
▁گندہ	-12.017
شش	-12.0173
▁سدءُ	-12.0174
▁باس	-12.0176
▁Indian	-12.0177
▁روتگاں	-12.0178
▁مینجمنٹ	-12.0179
▁stay	-12.0179
▁نگہداشت	-12.0179
▁magazine	-12.018
▁وسعت	-12.018
▁مرشد	-12.018
▁جستءُ	-12.0183
tlantic	-12.0184
▁زکر	-12.0185
▁جنجالی	-12.0185
▁حیالی	-12.0186
▁زیتون	-12.0187
▁باسکی	-12.0188
زانی	-12.0188
▁دبستان	-12.0189
▁کدم	-12.0189
▁دراتک۔	-12.019
نر	-12.0191
▁تیس	-12.0193
▁لاپتہ	-12.0197
▁بیت۔من	-12.02
▁arriv	-12.0201
▁سلامتیں	-12.0202
▁تھرے	-12.0204
▁مالا	-12.0206
کین	-12.0211
▁فیل	-12.0212
▁حسابا	-12.0213
▁اروچ	-12.0213
▁رانا	-12.0213
▁کبلہ	-12.0213
▁conduct	-12.0214
گنوک	-12.0215
ایم	-12.0216
▁Great	-12.0216
▁learn	-12.0216
▁امران	-12.0218
▁یورش	-12.022
▁بێ	-12.0221
▁ہمگرنچی	-12.0221
▁ہوشاپ	-12.0223
▁عبدالغفور	-12.0224
▁ٹیپ	-12.0226
▁شاگ	-12.0228
▁نامرد	-12.0228
ul	-12.0229
???	-12.023
▁station	-12.023
▁شھرے	-12.0231
تغیں	-12.0236
▁نمادار	-12.0239
فضل	-12.0239
▁leave	-12.0241
▁ندکارے	-12.0242
▁ساھب	-12.0243
▁وشدل	-12.0243
▁انگتءَ	-12.0244
▁بچگ	-12.0244
▁سرکپت	-12.0246
▁ھسا	-12.0246
▁ایتءُ	-12.0248
▁ملایانی	-12.0248
▁Sea	-12.0249
▁بئیان	-12.025
▁سنگتءَ	-12.0251
▁رئوگ	-12.0251
▁مروک	-12.0254
▁بیوروکریسی	-12.0254
▁horse	-12.0254
▁لامحدود	-12.0254
▁First	-12.0254
▁فرنٹیئر	-12.0254
▁شہادت	-12.0254
▁قصہاں	-12.0255
▁availab	-12.0255
▁Best	-12.0258
▁ناپگ	-12.0261
▁افضل	-12.0262
▁نقاد	-12.0263
▁دیماارگ	-12.0266
▁مبو	-12.0267
▁ball	-12.0268
▁محاورہ	-12.027
▁ٹویٹر	-12.027
▁ڈا	-12.0275
▁شیئری	-12.0276
▁law	-12.0277
▁چاند	-12.0277
▁شھزانتی	-12.0278
▁ھدوناکی	-12.0279
▁نندے	-12.0282
▁چکاریں	-12.0284
▁چہار	-12.0285
▁ٹہشت	-12.0286
زرد	-12.0287
▁Michael	-12.0287
▁پتریت	-12.0288
▁approach	-12.029
پری	-12.029
▁دستاویز	-12.029
▁decision	-12.0291
▁روئٹرز	-12.0291
▁condition	-12.0291
▁شیدائی	-12.0291
▁1970	-12.0291
▁voice	-12.0294
▁سربتگ	-12.0294
▁تہلی	-12.0295
▁فرعون	-12.0296
ves	-12.0298
▁cause	-12.0298
زمانگ	-12.0299
▁کاریزکار	-12.0299
▁."	-12.03
▁بورخیس	-12.0301
▁نشک	-12.0305
▁دنگ	-12.0306
▁براہوی	-12.0307
▁پارٹیاں	-12.0308
▁winds	-12.0308
▁چیھال	-12.0308
▁دوستر	-12.031
چه	-12.0311
▁ماھیں	-12.0311
▁زورگی	-12.0312
▁ریپ	-12.0313
▁شہمات	-12.0313
▁رفت	-12.0313
▁پتے	-12.0314
▁وروک	-12.0314
ھون	-12.0314
▁پژ	-12.0314
▁red	-12.0315
▁چنکے	-12.0315
▁کارامد	-12.0317
▁پینل	-12.0318
▁جہدءُ	-12.0324
▁لوٹیتگ	-12.0325
▁محمدخان	-12.0326
▁چنکہ	-12.0326
▁جنکءَ	-12.0326
▁Pol	-12.0328
▁روبرکت	-12.0328
▁travel	-12.0329
▁رندان	-12.0329
▁think	-12.033
den	-12.033
▁اتکنت	-12.033
▁ایگءِ	-12.033
▁چودھری	-12.033
▁پیشتر	-12.0332
▁مہرے	-12.0332
▁اڑان	-12.0333
▁اشترے	-12.0334
▁سفرءِ	-12.0334
▁زوراکانی	-12.0337
▁ھمساھگیں	-12.0337
▁پیشءَ	-12.0337
▁گلگل	-12.0337
▁پاروک	-12.0337
ain	-12.0338
▁مردینے	-12.0338
ory	-12.034
پش	-12.0343
▁بکنئے	-12.0344
▁اولا	-12.0344
▁زیمی	-12.0346
▁ذہنیت	-12.0349
▁فرشتہ	-12.035
▁دراصل	-12.035
▁زبانئ	-12.035
▁ڈؤل	-12.035
▁گاراں	-12.0353
▁کائینت	-12.0353
▁مردا	-12.0354
▁اٹھ	-12.0354
▁فش	-12.0355
▁تربتءَ	-12.0357
▁تلوسگ	-12.0357
▁کلانیں	-12.0358
▁رسگا	-12.0358
▁اومیت	-12.036
uence	-12.0362
▁بگوشیت	-12.0363
قومی	-12.0365
▁construct	-12.0366
▁above	-12.0367
▁گراؤنڈ	-12.0369
▁براھیم	-12.0369
▁افتاب	-12.0371
کتہ	-12.0372
▁And	-12.0372
low	-12.0374
▁ہورءَ	-12.0374
ہہ	-12.0374
▁دیمروئیءِ	-12.0375
▁ہمیشاں	-12.0376
▁کسمانکی	-12.0376
▁پروا	-12.0379
▁ادء	-12.0379
تگ۔	-12.0382
▁سامراجی	-12.0384
▁رجانکانی	-12.0385
▁حقیں	-12.0387
▁چاراہ	-12.0387
▁نبا	-12.0387
▁عنصر	-12.0388
▁گرائمر	-12.0389
اینت	-12.0392
امریکہ	-12.0392
day	-12.0392
▁گیچن	-12.0393
▁بوارت	-12.0394
▁car	-12.0397
۔نوں	-12.0401
illa	-12.0402
▁گوازینان	-12.0404
▁نظرہیہ	-12.0404
▁کانپریس	-12.0404
▁شتیں۔	-12.0409
▁درخت	-12.041
▁نازانتی	-12.041
▁پراھی	-12.0412
▁بائدیں	-12.0412
98	-12.0415
▁بیسہی	-12.0415
ائل	-12.0416
▁واش	-12.0417
▁اھوالکاری	-12.0417
▁سنیانلاین	-12.0421
▁معناءِ	-12.0422
بگیری	-12.0424
▁زادہ	-12.0426
منت	-12.0426
ٹری	-12.0428
▁پریب	-12.043
▁رۆچا	-12.0433
▁پورس	-12.0436
رحم	-12.0437
ادگہ	-12.0438
▁حلب	-12.0438
ts	-12.0439
▁اه	-12.0441
▁positive	-12.0442
▁Jack	-12.0443
▁اقدار	-12.0443
▁کاریانی	-12.0443
▁٭٭٭٭	-12.0443
▁شوانگے	-12.0444
▁soon	-12.0445
▁بسے	-12.0445
▁نکشہ	-12.0446
▁جغرافیہ	-12.0446
▁نادیہ	-12.0447
▁چڑکہ	-12.045
▁زپت	-12.0451
▁ولیم	-12.0452
▁ہورکیں	-12.0452
▁کاسم	-12.0453
▁زادگ	-12.0455
▁مھراں	-12.0456
۔۔۔ءُ	-12.0458
▁موسمیات	-12.0458
▁ایرگیجگ	-12.0459
▁دریگاں	-12.0459
▁ماناءَ	-12.0459
▁round	-12.046
▁چاہے	-12.0463
▁بیرہ	-12.0464
nder	-12.0465
پرچیکہ	-12.0465
▁ویتنام	-12.0472
..........	-12.0472
شتہ	-12.0474
▁نویستگ	-12.0475
▁دال	-12.0475
ٹس	-12.0477
▁تامرانی	-12.0477
▁گروکیں	-12.0478
▁office	-12.048
▁business	-12.0481
▁studio	-12.0481
▁بندپتر	-12.0482
▁اسٹریٹجک	-12.0482
▁لوہار	-12.0483
▁اسپیشل	-12.0483
کرد	-12.0486
▁هچبر	-12.0489
▁سہیں	-12.0491
▁صف	-12.0492
▁بارکان	-12.0493
▁گرماگی	-12.0493
▁استانے	-12.0494
▁پؤج	-12.0495
▁estimat	-12.0496
▁اگاھی	-12.0499
▁واژہ	-12.0501
▁سساءِ	-12.0502
▁گجرات	-12.0503
▁خاصیت	-12.0504
زرت	-12.0506
▁بنگل	-12.0508
▁Tw	-12.0509
▁فخر	-12.051
▁نادراہانی	-12.0511
▁نویسوک	-12.0512
▁حمد	-12.0512
▁plann	-12.0512
▁ملیشیا	-12.0515
بز	-12.0515
▁کلاتءِ	-12.0516
ڑیں	-12.0516
▁deal	-12.0518
▁Africa	-12.0519
▁interview	-12.0519
▁maintain	-12.0519
▁ثبت	-12.0519
▁مظلوم	-12.052
▁tree	-12.0521
▁ہماہانی	-12.0521
▁ہمراہداری	-12.0522
▁گھشی	-12.0524
▁درشاندابے	-12.0524
▁پھاز	-12.0524
▁روشنا	-12.0525
▁منفی	-12.0526
▁گشتی	-12.0526
▁بھنگ	-12.0526
▁چنچک	-12.0527
▁جیمز	-12.0527
۔تو	-12.053
بید	-12.0531
▁بخشش	-12.0532
▁ٹاہینگ	-12.0533
▁sea	-12.0535
▁امریکہءِ	-12.0536
▁Bay	-12.0536
▁اولسرءَ	-12.0538
▁دوہیں	-12.054
غم	-12.0543
▁ربیدگاں	-12.0543
▁پوچ	-12.0543
چراگ	-12.0543
ach	-12.0547
▁گوازینگی	-12.0547
▁گشین	-12.0548
▁پنیر	-12.0549
▁say	-12.0551
▁درزی	-12.0551
کوئی	-12.0551
▁نشتگءُ	-12.0552
▁دئے۔	-12.0552
ناز	-12.0553
مک	-12.0556
▁اھت۔	-12.0556
▁انجیر	-12.0556
▁کندگاں	-12.0557
▁Canada	-12.0557
▁قلمی	-12.0559
▁رجحان	-12.056
▁شہزاد	-12.056
▁شمشت	-12.0561
▁letter	-12.0561
▁رنگین	-12.0561
▁شہریانی	-12.0562
▁مسلسل	-12.0562
▁کعبہ	-12.0563
اود	-12.0565
▁دلیریں	-12.0565
▁وڑوڑیں	-12.0566
▁نوشی	-12.0567
▁مرہ	-12.0569
نئے	-12.057
▁کوٹیانی	-12.0571
▁امینی	-12.0574
▁نیائے	-12.0575
کلی	-12.0575
جہد	-12.0578
زاں	-12.0578
co	-12.0581
os	-12.0582
▁سران	-12.0582
▁ماڑیانی	-12.0585
▁ہفتگ	-12.0586
▁دراهیں	-12.0587
▁ہید	-12.0587
▁stor	-12.0589
▁جہانگیر	-12.0591
▁پازلءِ	-12.0594
▁زوربیگواہی	-12.0595
▁اشرپ	-12.0595
once	-12.0596
▁President	-12.0596
▁سپلائی	-12.0596
▁لهتیں	-12.0597
▁نلی	-12.0597
▁معاشرے	-12.0598
▁نیبگ	-12.0598
▁ریچی	-12.0598
▁چاڑی	-12.0599
▁ڈپریشن	-12.0599
▁طورپر	-12.06
▁نانی	-12.06
▁گرابانی	-12.0601
▁جانشو	-12.0603
▁بنیادمءِ	-12.0603
▁My	-12.0604
اشاں	-12.0605
بلک	-12.0606
▁مریں	-12.061
▁دستءُ	-12.061
▁الگار	-12.0613
▁اوپر	-12.0613
نج	-12.0613
▁رسانکدری	-12.0615
▁شوھازءَ	-12.0615
▁سجهێن	-12.0616
▁ڈولین	-12.0617
حر	-12.0617
نڑ	-12.0618
▁موڈ	-12.0618
مت	-12.0618
وہد	-12.0619
▁دژمنے	-12.0619
زیر	-12.062
▁2000	-12.0623
▁نشتیں	-12.0626
▁ریسگ	-12.0626
▁میرچاکر	-12.0626
▁ناشری	-12.0628
▁بھادر	-12.063
▁پادمال	-12.063
شانی	-12.063
▁رسترانی	-12.0631
▁ہوس	-12.0634
town	-12.0634
▁پندلانی	-12.0635
▁Henry	-12.0635
▁اکبال	-12.0635
▁authorit	-12.0635
▁اچانک	-12.0636
▁...............	-12.0636
▁دیمھونی	-12.0636
▁فزکس	-12.0637
سرجم	-12.0639
▁جھدکارانی	-12.064
▁سھتے	-12.064
▁نسخہ	-12.064
▁کودک	-12.064
▁جستءِ	-12.064
▁score	-12.064
▁سازگر	-12.0645
▁referr	-12.0646
▁اڑزان	-12.0648
▁ھسابے	-12.065
▁۔ہمیش	-12.0652
▁پراھیں	-12.0652
▁زیادتی	-12.0653
▁مروچ	-12.0654
▁مشان	-12.0656
▁ویرانی	-12.0656
▁زالمیں	-12.0656
▁پربندانی	-12.0657
های	-12.0658
▁king	-12.0658
▁عرش	-12.066
▁امدام	-12.0662
▁وانینت	-12.0662
▁زاھری	-12.0662
▁اڑءُ	-12.0663
▁کلیات	-12.0664
▁کوراں	-12.0667
▁سازش	-12.0669
▁بوانیت	-12.067
▁India	-12.0671
▁جنگلءَ	-12.0671
▁لڈءُ	-12.0672
▁لڑائی	-12.0674
uadron	-12.0674
▁transport	-12.0674
▁machine	-12.0674
▁ساؤتھ	-12.0674
▁سجهێں	-12.0675
شام	-12.0676
▁جھالاوان	-12.0676
▁کوہے	-12.0677
▁پلسپہ	-12.0677
▁چارینگ	-12.0677
▁خلیفہ	-12.0679
▁پیمء	-12.068
▁ھداءِ	-12.0681
▁دیمااہتگ	-12.0681
▁کنوں	-12.0681
▁ھبرانی	-12.0681
▁وج	-12.0685
▁سربار	-12.0688
▁لاس	-12.0689
91	-12.0689
ir	-12.0691
مکن	-12.0691
▁شیواری	-12.0693
چاریں	-12.0694
۔ما	-12.0699
▁بحال	-12.0701
▁دریائے	-12.0704
▁سالگیں	-12.0706
▁بالادءَ	-12.0708
▁ھوریں	-12.071
▁تبءُ	-12.0712
▁Oldham	-12.0713
▁1990	-12.0713
▁متہدہ	-12.0713
▁اي	-12.0713
▁پندلاں	-12.0717
▁کبیر	-12.0717
▁مہمانداری	-12.0717
▁عروض	-12.0718
▁نھنگ	-12.0718
▁غسل	-12.0719
▁بیگاہءَ	-12.072
▁پیرجان	-12.0722
▁Du	-12.0722
▁هلک	-12.0723
گشئے	-12.0724
▁metre	-12.0726
▁گوپگ	-12.0728
لڈ	-12.0729
▁ٹگل	-12.073
▁دراھت	-12.0731
▁پکائی	-12.0733
▁ھونڈ	-12.0733
جاھاں	-12.0734
▁۔۔۔۔۔۔۔۔۔	-12.0735
▁نریان	-12.0735
▁شھار	-12.0736
▁لگوریں	-12.0738
▁کنوکین	-12.0738
▁زوراوری	-12.074
▁استالے	-12.0741
▁سیادے	-12.0742
▁قمر	-12.0744
▁گھس	-12.0746
▁پولیسا	-12.0747
▁دیرو	-12.0747
خیال	-12.0748
▁گواریت	-12.0748
▁ایسٹ	-12.0749
ک۔	-12.0749
▁درمحمد	-12.075
▁ھذمت	-12.0751
سرمچاراں	-12.0751
▁social	-12.0752
▁sometime	-12.0752
یف	-12.0752
▁مرے	-12.0754
▁کوئٹہءَ	-12.0754
▁اہستہ	-12.0754
۔بلکیں	-12.0755
گاہ	-12.0755
▁گیتک	-12.0756
▁اسلی	-12.0756
▁طبیب	-12.0756
▁شاھرگ	-12.0757
▁دروتے	-12.0759
▁test	-12.0759
▁Chin	-12.0759
▁دپترے	-12.0763
▁مازگ	-12.0765
▁گھڑیال	-12.0766
▁Times	-12.0767
')	-12.0768
▁دھن	-12.0772
▁جھگیر	-12.0772
تاکبند	-12.0774
▁پیام	-12.0775
ساری	-12.0778
▁گستائی	-12.0781
▁انت۔بلوچی	-12.0783
▁بہرگ	-12.0786
▁پوشیں	-12.0786
۔یک	-12.0787
▁ھوس	-12.0789
▁ٹرالنگ	-12.0791
▁شانے	-12.0791
▁Olivier	-12.0791
▁شن	-12.0792
▁standard	-12.0792
▁جمیں	-12.0794
▁برازیل	-12.0794
▁سنگی	-12.0795
ns	-12.0796
▁وقار	-12.0797
▁فراق	-12.0797
▁سجئیں	-12.0799
▁تنیگت	-12.0799
▁چھت	-12.0799
▁thing	-12.0799
اکہ	-12.0803
▁ھنکینی	-12.0803
▁focus	-12.0804
▁ریپینگ	-12.0805
▁burn	-12.0805
▁گپتاراں	-12.0805
▁سیمینار	-12.0807
اسل	-12.0809
▁دراھاں	-12.081
▁ایشنت	-12.0814
▁نہنت	-12.0815
▁usual	-12.0816
مسلم	-12.0817
▁بچکنداں	-12.0817
▁پتران	-12.0817
▁زیانی	-12.0818
▁برامد	-12.0818
درچک	-12.082
بھر	-12.0821
▁پشپد	-12.0821
▁special	-12.0821
ہور	-12.0822
▁goals	-12.0822
▁نادراھیں	-12.0823
▁تراس	-12.0823
▁ساہگءَ	-12.0825
▁گزین	-12.0829
▁capital	-12.0831
▁ظریف	-12.0831
▁western	-12.0831
ate	-12.0832
▁چاگرداں	-12.0832
▁ارٹیکل	-12.0834
▁تعبیر	-12.0834
ell	-12.0835
▁ہوپ	-12.0835
▁lower	-12.0835
▁nine	-12.0835
▁مونجائی	-12.0836
▁مھ	-12.0836
▁کوار	-12.0837
▁پرائیوٹ	-12.0838
▁پیوند	-12.0839
ینتہ	-12.0843
▁ڈلگیں	-12.0844
▁بدرنگ	-12.0844
▁ھلار	-12.0845
▁ھمکوپگ	-12.0846
▁hard	-12.0848
▁سلوک	-12.0848
ent	-12.0849
▁لگوشت	-12.0849
▁کوشی	-12.0849
ab	-12.0855
▁اڈہ	-12.0857
▁سکت	-12.0859
▁کریک	-12.0863
▁زانان	-12.0869
▁concert	-12.087
▁response	-12.087
▁پلانگری	-12.0871
▁توسیف	-12.0874
▁احتنت	-12.0874
▁اسباب	-12.0875
▁علامہ	-12.0878
▁دلاور	-12.0878
▁دیریگیں	-12.0878
۔۔۔۔۔۔۔۔	-12.0879
▁وانگجاھانی	-12.0879
▁کلر	-12.0879
بور	-12.0882
▁موجودہ	-12.0882
تہ۔	-12.0883
▁واجھی	-12.0884
سلام	-12.0884
▁نظامے	-12.0884
▁ہارون	-12.0886
▁سپائی	-12.0886
▁قرنانی	-12.089
▁سازاں	-12.0891
▁سرنامگ	-12.0892
▁جندی	-12.0892
▁کپیں	-12.0896
▁کائنت	-12.0897
▁میلے	-12.09
▁قدرانی	-12.0901
▁ویئر	-12.0901
▁استارانی	-12.0901
▁نپت	-12.0909
▁Regiment	-12.091
▁ٹورنمنٹ	-12.091
▁taking	-12.091
▁recent	-12.091
▁mention	-12.091
▁پیدائشت	-12.0913
▁بندانت	-12.0913
▁الت	-12.0916
▁شاعرءَ	-12.0917
▁پرچیا	-12.0917
▁کیے	-12.0917
ھت	-12.0918
کارست	-12.0919
▁گلگدارے	-12.0919
▁قہریں	-12.092
▁write	-12.092
▁ایسپ	-12.0921
ہار	-12.0922
▁روہ	-12.0924
▁ہیرت	-12.0925
▁ٹاھینگ	-12.0926
▁اورت۔	-12.0927
▁مہریں	-12.0927
جوان	-12.0929
......!	-12.0932
▁تائید	-12.0933
ئیت	-12.0935
ting	-12.0936
▁کپوتے	-12.0937
▁ایرجتگ	-12.0938
▁ہردک	-12.0939
▁سریچ	-12.0939
نون	-12.094
▁توپانے	-12.0941
▁دیمتری	-12.0941
▁مردار	-12.0943
جاگہ	-12.0944
▁تھرا	-12.0945
▁چارٹر	-12.0945
لیکن	-12.0946
▁پکنت	-12.0946
▁زوالی	-12.0947
▁داتگین	-12.095
▁جمعه	-12.095
ietnam	-12.095
▁Mexico	-12.095
▁School	-12.095
▁religious	-12.095
▁ایت۔۔۔	-12.095
▁broke	-12.095
▁ہمینچک	-12.095
▁شاہو	-12.0951
▁انحصار	-12.0951
▁مروچگیں	-12.0951
وڑیں	-12.0952
▁Later	-12.0952
▁ماد	-12.0952
▁بھارگاہ	-12.0954
▁پادیں	-12.0955
▁صدیقی	-12.0955
▁حزب	-12.0958
گد	-12.0959
▁شھمیر	-12.0959
▁اکادمی	-12.096
▁احتجاج	-12.096
▁شیرزال	-12.096
▁پھلوان	-12.0961
گمان	-12.0963
▁تز	-12.0968
مالی	-12.0969
▁مومنءِ	-12.0969
▁برادر	-12.0973
▁جاگهے	-12.0975
▁ئیءَ	-12.0975
▁اسلیں	-12.0976
▁تکینک	-12.0976
▁وسواس	-12.0977
▁کؤش	-12.0978
▁ہشتمی	-12.0978
▁ایلن	-12.0978
دراھیں	-12.0978
▁ہروہد	-12.0979
▁دیوانگی	-12.098
▁وژن	-12.0981
▁وانت	-12.0982
▁ئنت۔	-12.0982
▁مھلوکءَ	-12.0982
▁اہمے	-12.0982
▁شھباز	-12.0982
▁ناکی	-12.0985
▁داستانے	-12.0985
سپر	-12.0986
▁میرگل	-12.0986
زوریں	-12.0988
▁کجائے	-12.0989
▁Irish	-12.0991
ریش	-12.0991
▁پراسیس	-12.0991
قوم	-12.0992
▁وڑین	-12.0992
▁ستاشانی	-12.0993
بوئیگ	-12.0993
▁اینگلز	-12.0994
▁ٹکراں	-12.0994
▁تشکیل	-12.0994
▁همدا	-12.0994
▁کیپٹن	-12.0995
▁ھگم	-12.0995
ادی	-12.0996
▁خورشید	-12.0996
▁Mark	-12.0997
▁مہلب	-12.0997
▁ڈنا	-12.1
▁رانی	-12.1
▁بھیر	-12.1
▁ہفتاد	-12.1
یاکہ	-12.1003
▁ترامجا	-12.1003
▁همش	-12.1005
▁روءَ	-12.1006
▁لاشعوری	-12.1006
کشک	-12.1008
nion	-12.1009
وشیں	-12.1009
▁قل	-12.101
▁نیادانی	-12.1013
▁سورو	-12.1013
کند	-12.1014
▁leg	-12.1015
▁parts	-12.1015
روس	-12.1017
الله	-12.1019
▁پدمنتگ	-12.1022
▁سرگوستاں	-12.1024
بلوچانی	-12.1025
▁تہمبل	-12.1026
▁سیٹلائٹ	-12.1026
ney	-12.1028
▁گڈانی	-12.1028
▁Air	-12.1028
▁اخلاقیات	-12.1029
▁شول	-12.103
▁prevent	-12.1031
▁مداخلت	-12.1031
▁لیبارٹری	-12.1031
▁زانشتجاہ	-12.1033
▁پیچھے	-12.1033
▁بادشاھے	-12.1034
▁تلمیح	-12.1034
▁ڈیزل	-12.1034
▁ہریک	-12.1034
ھبر	-12.1035
▁مبوتیں	-12.1036
▁ئرا	-12.1036
▁پوت	-12.1036
▁یتیم	-12.1037
▁زہیراں	-12.1038
▁جیکب	-12.1038
نتا	-12.1038
▁نکال	-12.1038
سرکاری	-12.1039
▁بنو	-12.104
▁ترسیں	-12.1042
▁حکایت	-12.1042
▁رہتے	-12.1043
▁ائیڈل	-12.1044
▁گوئشتگ	-12.1047
▁کہور	-12.1048
▁اولگا	-12.1048
▁حقءَ	-12.105
▁کھل	-12.1051
▁کئیز	-12.1052
▁ئے۔۔۔	-12.1052
▁ازگر	-12.1054
▁بوتیناں	-12.1054
▁توارانی	-12.1054
▁گیواری	-12.1055
▁چتر	-12.1057
▁کرتنت۔	-12.1058
▁Peter	-12.106
▁چہرے	-12.1065
▁وشھال	-12.1065
ball	-12.1067
▁دراه	-12.1069
▁ردوبند	-12.107
▁brother	-12.1071
▁هاشمی	-12.1071
▁یوسپ	-12.1072
▁سفارش	-12.1072
روکیں	-12.1073
▁past	-12.1073
▁حکمرانی	-12.1073
▁عل	-12.1075
▁سارا	-12.1076
▁گراد	-12.1077
▁ڈکشن	-12.1079
▁درسی	-12.1079
▁جنگلانی	-12.108
▁صحبت	-12.1087
▁Co	-12.1087
▁براھندگ	-12.1089
ریاست	-12.109
▁گلاسے	-12.1093
دانی	-12.1093
▁ہندءُ	-12.1093
▁اوگار	-12.1094
اسک	-12.1094
▁چس	-12.1095
▁پتانی	-12.1095
▁نگدءِ	-12.1097
..!‘‘	-12.1098
▁پتات	-12.1099
▁کھند	-12.1099
▁دربرت	-12.1105
▁پدری	-12.1105
▁ھمسپر	-12.1106
▁همود	-12.1108
▁fre	-12.1109
▁چہرگ	-12.1109
▁تمباک	-12.1111
▁flight	-12.1112
▁Canadian	-12.1112
▁Thomas	-12.1112
▁رینجرز	-12.1112
▁زمه	-12.1113
▁پیمائش	-12.1114
▁ریحان	-12.1115
▁ایجاد	-12.1116
▁خور	-12.1117
الف	-12.1118
▁گراباں	-12.1118
▁بندروشم	-12.1118
▁کھثہ	-12.1119
▁ڈائیلاگ	-12.1119
▁سنجیدگی	-12.112
▁ورگاں	-12.112
▁مجموعہ	-12.112
▁football	-12.1121
▁راس	-12.1123
▁کھندگ	-12.1125
▁زخم	-12.1126
▁یتکگ	-12.1127
▁سرخ	-12.1127
men	-12.1132
تیر	-12.1132
▁ھوٹلے	-12.1134
▁امدنی	-12.1135
▁هیران	-12.1135
▁stone	-12.1136
▁کوٹگ	-12.1137
▁تکانی	-12.1138
▁توانمند	-12.114
▁con	-12.1141
▁ایشاناں	-12.1142
پول	-12.1143
▁باگی	-12.1143
▁must	-12.1146
▁تیوگی	-12.1146
بام	-12.1148
▁ھمبلاں	-12.1148
▁دراھ	-12.1148
▁سنجیدگ	-12.115
راجدپتر	-12.115
▁چاء	-12.1152
▁چونی	-12.1152
▁subject	-12.1153
▁مخاطب	-12.1153
▁عبدالحق	-12.1153
▁سرپداں	-12.1156
▁نمائش	-12.1156
▁سوجکار	-12.1157
▁انتہا	-12.1159
▁ھمنچک	-12.1161
▁اتراپاں	-12.1162
▁خیالا	-12.1162
▁جہتءَ	-12.1162
▁تھو	-12.1164
▁مفکر	-12.1164
▁مبوتین	-12.1164
▁ھالت	-12.1164
جنگی	-12.1165
▁کسم	-12.1168
▁سلامے	-12.1169
▁زیمراں	-12.117
▁گیمرتگیں	-12.117
▁مردمےءِ	-12.1172
▁تہرءُ	-12.1172
▁پریم	-12.1173
▁پکگ	-12.1174
▁k	-12.1175
زال	-12.1175
▁سربوگ	-12.1176
▁بکر	-12.1178
مور	-12.1179
▁گیاب	-12.1179
▁گوئشیت	-12.1182
▁ٹینکر	-12.1182
▁ے۔	-12.1183
▁سیاھک	-12.1185
▁رسمی	-12.1187
▁ڪتگ	-12.1187
▁سرجاہ	-12.1188
شد	-12.119
▁سرینان	-12.1191
▁فساد	-12.1192
▁Mount	-12.1194
▁عبدالستار	-12.1194
۔دومی	-12.1194
▁slow	-12.1194
▁عبدالغنی	-12.1194
▁forward	-12.1196
▁ٹیلیفون	-12.1196
▁ونتگ۔	-12.1197
▁ہؤ	-12.1197
▁پھریزی	-12.1198
▁قضا	-12.1198
▁دستگ	-12.1198
▁نیٹو	-12.1201
▁تنت۔	-12.1202
▁ارسیگ	-12.1202
▁نہادی	-12.1202
▁لینے	-12.1205
▁بچارات	-12.1205
▁تجریدی	-12.1207
▁شاھدی	-12.1207
سیل	-12.1208
▁دئیگءِ	-12.1209
▁رپیک	-12.1209
▁مدے	-12.1213
▁ذمواری	-12.1213
▁شالکوٹ	-12.1216
▁ٹول	-12.1216
▁سرنگ	-12.1217
▁ورئگ	-12.1219
نامی	-12.1219
▁دئیوک	-12.1221
▁کارگرگ	-12.1222
▁ض	-12.1222
▁ازمود	-12.1223
▁شررنگ	-12.1224
▁کوھستگ	-12.1225
▁زران	-12.1225
ازمان	-12.1231
▁زردءِ	-12.1231
▁سرگردان	-12.1233
▁شررنگیں	-12.1234
▁یادگار	-12.1235
▁network	-12.1235
▁explain	-12.1235
▁surface	-12.1235
▁pressure	-12.1235
▁تھری	-12.1235
▁بایدانت	-12.1236
▁foot	-12.1237
▁ترامجاھاں	-12.1238
▁قابض	-12.1238
جاھے	-12.1239
▁املی	-12.1239
▁پختہ	-12.1239
▁پلیری	-12.1239
امی	-12.124
▁لڑءَ	-12.124
▁fly	-12.1242
▁میلادی	-12.1244
▁Hall	-12.1244
لیب	-12.1246
ریل	-12.1247
▁کورچات	-12.1248
▁رولہ	-12.1248
سین	-12.1249
▁شرپے	-12.125
▁برتہ	-12.125
▁ٹاس	-12.125
واحد	-12.1252
▁تامل	-12.1252
▁في	-12.1252
▁نادلگوشی	-12.1253
▁درشک	-12.1256
▁pitch	-12.1256
▁سہیگ	-12.1256
▁hold	-12.1257
▁نندءُ	-12.1257
▁شپانکے	-12.1258
▁بیگار	-12.126
▁جیڑگی	-12.1265
▁دیوانانی	-12.1267
▁جناب	-12.1267
▁قیام	-12.1267
▁بشکن	-12.1271
▁اکاؤنٹ	-12.1271
▁زرک	-12.1271
▁ہسابءَ	-12.1272
ھل	-12.1273
▁تاثیر	-12.1274
▁سربراہ	-12.1276
▁شنزگ	-12.1276
▁1960	-12.1277
▁لائقی	-12.1277
▁ترپگ	-12.1278
▁ناکامی	-12.1279
▁intend	-12.1279
▁نیند	-12.1279
▁هرچ	-12.1279
▁ازمائش	-12.128
▁دنزے	-12.1281
غیر	-12.1282
▁بئیگءَ	-12.1282
▁اٹھا	-12.1284
یڈ	-12.1284
▁سبوت	-12.1287
▁forc	-12.1287
▁مستاگے	-12.1288
▁وشبواں	-12.1288
▁فکرءِ	-12.1292
▁studie	-12.1293
▁سعد	-12.1295
▁اھوالاں	-12.1295
▁مسیتے	-12.1297
▁جنگلاں	-12.1297
▁امکانات	-12.1297
▁ملوریں	-12.1299
▁گدارءَ	-12.1299
وب	-12.1301
▁صلح	-12.1302
▁۔وتی	-12.1303
▁ات۔منی	-12.1305
▁ناکامیں	-12.1306
عزت	-12.1307
پروفیسر	-12.1309
▁کیز	-12.1311
▁تنہا	-12.1314
جنگل	-12.1314
تار	-12.1314
▁چاگر	-12.1314
▁سریت	-12.1315
▁کردن	-12.1316
▁ٹولیاں	-12.1317
▁چلے	-12.1317
▁Guitar	-12.1318
▁approximate	-12.1318
▁increasing	-12.1318
اکی	-12.1318
▁دربی	-12.1318
▁بیکار	-12.132
▁وضاحت	-12.1321
▁مرحوم	-12.1321
▁piece	-12.1322
پدر	-12.1322
▁شرابی	-12.1322
▁ٹپے	-12.1324
▁لمہ	-12.1328
▁کاگداں	-12.1329
▁دانائیں	-12.1333
▁زرینہ	-12.1334
▁جنگجاہ	-12.1335
▁بوجی	-12.1336
▁ردیانی	-12.1337
▁ساٹ	-12.1337
▁صلہ	-12.1337
تءُ	-12.1338
▁زیاد	-12.1338
▁بروتاں	-12.1338
▁غزلے	-12.134
▁دردانہ	-12.134
بزانت	-12.134
▁کاه	-12.1342
▁زحمت	-12.1344
▁ہمئے	-12.1345
▁ث	-12.1345
▁کندی	-12.1346
▁نبنت	-12.1348
▁بگندیت	-12.1351
انکی	-12.1351
پژدر	-12.1351
▁منج	-12.1352
▁وفائی	-12.1355
▁نشگ	-12.1357
▁چمروک	-12.1358
▁That	-12.1359
▁ضامن	-12.136
▁professional	-12.1361
▁جابر	-12.1362
▁چیپ	-12.1363
▁عائشہ	-12.1364
▁ٹونا	-12.1366
▁علیه	-12.1367
▁ڈھال	-12.1368
▁طاقتے	-12.1368
▁بچارے	-12.1369
▁حیالان	-12.1369
▁وزیرستان	-12.137
▁names	-12.137
▁گلین	-12.1371
▁کشت۔	-12.1372
▁انت۔کہ	-12.1372
▁مدرسه	-12.1373
رندءَ	-12.1373
.(	-12.1373
▁00	-12.1373
▁دپترءِ	-12.1375
▁مزنێن	-12.1375
▁قومیت	-12.1377
▁دریاءَ	-12.1379
▁کارچے	-12.1379
▁پادایگ	-12.1383
▁دیمیگ	-12.1384
▁ہمکاری	-12.1384
▁دیناں	-12.1384
▁چاہیے	-12.1385
▁پکن	-12.1386
▁امیدگساں	-12.1387
▁ڪار	-12.1391
▁ac	-12.1391
▁پمیش	-12.1392
▁specific	-12.1393
▁امیدگسی	-12.1393
▁اسودگیں	-12.1394
▁وھاب	-12.1395
باندا	-12.1396
▁حجالتی	-12.1396
▁حقیقتے	-12.1398
▁چلتن	-12.1401
▁پراہی	-12.1402
▁دمگا	-12.1402
▁گوزاں	-12.1402
▁cost	-12.1404
▁خاتون	-12.1405
▁بیت۔۔۔۔	-12.1405
▁مجموعی	-12.1406
▁انگراں	-12.1409
▁almo	-12.141
▁نیاؤرتگ	-12.141
▁پا۔	-12.1411
▁شھیداں	-12.1412
▁کپتاں۔	-12.1412
▁actor	-12.1413
▁گمبد	-12.1413
▁جتاہیں	-12.1414
▁بیتگنت۔	-12.1416
ٹھ	-12.1417
▁گئی۔	-12.1419
▁گوازینتگ۔	-12.142
▁لیل	-12.1428
▁بیرگیں	-12.1428
▁بندءِ	-12.1435
▁ٹارچر	-12.1435
بیورغ	-12.1435
▁گزیر	-12.1435
▁تراتگ	-12.1436
▁ناگیگی	-12.1436
▁دپترءَ	-12.1438
▁60	-12.1439
▁دلشاد	-12.1439
▁سکون	-12.144
▁ھکاں	-12.144
▁ہیوم	-12.1441
▁مهمان	-12.1442
▁fact	-12.1443
▁lines	-12.1443
▁typical	-12.1443
▁موٹرسائیکل	-12.1443
▁کوکر	-12.1444
پرچہ	-12.1446
▁relative	-12.1446
▁دنتاناں	-12.1446
latter	-12.1447
▁درکت	-12.1447
▁دلکشی	-12.1449
▁Jin	-12.145
▁لینگ	-12.145
▁ترجمے	-12.1451
▁ہٹ	-12.1452
▁دھل	-12.1453
▁جارچین	-12.1456
▁چوشی	-12.1457
ارسطو	-12.1457
▁ہاکم	-12.1459
▁دیگ۔	-12.1459
▁وانینتگ	-12.1459
▁درنگازی	-12.146
▁بیدل	-12.1462
▁پرستیں	-12.1462
▁تازگ	-12.1462
▁زہیروک	-12.1463
[...]
